#version: 0.2 - Trained by `huggingface/tokenizers`
a r
e r
n d
l a
i l
a n
i n
a l
i r</w>
a n</w>
u r
l e
t i
l ar
a s
i n</w>
v e</w>
e n
a k
e n</w>
e s
a y
d o
ı nd
a d
o n
i s
ı n
o l
e k
l er
i r
= "</w>
i d</w>
ı n</w>
do c</w>
ı l
o r
e t
i y
l e</w>
a t
b ir</w>
e d
u n
a k</w>
a m
e l
e r</w>
ı r</w>
a ş
i k
ınd a</w>
i nd
u l
d e</w>
e m
ş t
d a</w>
ü r
a h
a p
1 9
y a</w>
ı r
a z
2 0
la r</w>
ü n
i m
la n
ti t
a ğ
c ur
= "
tit le</w>
ur l</w>
=" ?</w>
< /</w>
cur id</w>
" ></w>
ind e</w>
e y
la n</w>
in e</w>
i t
g ö
e v
i ş
ö n
i ç
t ar
i k</w>
le r</w>
a b
ü z
o n</w>
u n</w>
s t
i ğ
ı ğ
y ıl
e k</w>
es i</w>
lar ak</w>
ler i</w>
a f
as ı</w>
ı m
lar ı</w>
ı k
i d
o larak</w>
i z
e l</w>
l a</w>
il e</w>
in i</w>
ınd an</w>
m ı
l ı</w>
a v
a r</w>
y ap
b aş
a l</w>
l i</w>
d u
r o
s on
k ar
in in</w>
b ir
g e
d ı</w>
k e
ın ı</w>
ı k</w>
m i
ı ş
u m
u s
ın a</w>
ı s
d i</w>
ö l
e ğ
o m
ü l
ü m
gö r
b il
nd a</w>
v er
is t
o y
a c
ak t
iç in</w>
b u</w>
ığ ı</w>
e t</w>
e c
ı y
y ü
20 1
u t
a ç
s e
t e</w>
o p
m a</w>
ın ın</w>
i h
o lan</w>
u r</w>
a t</w>
mı şt
ak i</w>
b ul
er i</w>
ç o
r a</w>
m u
d u</w>
al ar
e le
ar k
ğ u</w>
k ul
r u
i c
i b
ti r
tar af
mışt ır</w>
e ş
20 0
e h
ek t
iğ i</w>
u z
m an
ad ır</w>
yıl ında</w>
mi şt
i m</w>
t a</w>
taraf ından</w>
l ik
ay a</w>
d ır</w>
as ında</w>
la m
ed il
e ti
k ur
c a</w>
iy e</w>
ö r
B u</w>
o k
mişt ir</w>
ek i</w>
d ü
ah a</w>
son ra</w>
A n
i l</w>
T ür
o r</w>
b ü
ı m</w>
A r
k ad
l u
o s
i g
le ş
is i</w>
t i</w>
nd e</w>
y ar
m er
a m</w>
n in</w>
bul un
c e</w>
g el
ö z
d an</w>
ol u
ed ir</w>
le n
a nd
A l
m akt
o ğ
n ın</w>
ü n</w>
ind en</w>
ol du
k on
o t
p ar
lar ın</w>
d en</w>
b ağ
ı z
ço k</w>
ıy la</w>
an s
kul lan
k s
t ak
b öl
) ,</w>
s ür
1 8
la y
tar ih
m ası</w>
i z</w>
la nd
il m
la ş
g en
m as
d aha</w>
u s</w>
il k</w>
1 2
y er
il er
ç ık
t ı</w>
t r
c ak</w>
e z
is e</w>
u y
ge ç
t an
l u</w>
m e</w>
k i</w>
u nda</w>
ib i</w>
üz er
k al
id ir</w>
i ti
g er
d eğ
k ö
e y</w>
ön em
y ay
i s</w>
in c
an ı</w>
makt adır</w>
ç al
o l</w>
m ekt
a y</w>
u l</w>
ad a</w>
v e
un u</w>
i p
do ğ
19 9
y ön
s ay
i f
y az
en i</w>
l ık</w>
y aş
1 3
s ah
or t
v ar
t ü
g il
t er
ler in</w>
o v
d ir</w>
ı lan</w>
k ay
iy le</w>
Tür k
y er</w>
i t</w>
k at
en t
al ı</w>
m ü
yü k</w>
mı ş</w>
c u
t op
l ü
a z</w>
kar ş
ay r
es ine</w>
g ibi</w>
r e
s p
y on
h ar
g ü
m ak</w>
ç ek
h al
1 7
a ti
M ar
0 0</w>
o d
i p</w>
K ar
e p
1 5
u nd
e s</w>
s an
y an
ey e</w>
s ır
mekt edir</w>
mi ş</w>
d ev
a la
e b
il er</w>
ar asında</w>
ıs ı</w>
et i</w>
oy un
1 6
et m
1 4
y ak
2 3
ik i</w>
z am
ke nd
le m
t ek
b el
kad ar</w>
g ün
o s</w>
u m</w>
g r
ı z</w>
ed en</w>
l ik</w>
t an</w>
d iğ
e m</w>
k u
ve ya</w>
f or
n e</w>
ş eh
k an
i a</w>
p ro
çal ış
ı dır</w>
y üz
19 8
F r
un un</w>
ı l</w>
İ n
bü yük</w>
u c
A v
ad ı</w>
lar ında</w>
d en
a g
mu şt
baş la
il ç
ö y
st er
2 8
ı lar</w>
u st
k en</w>
B ir
l iği</w>
al t
es inde</w>
ım ı</w>
e nd
A y
t em
e f
e ler
c ı</w>
n ı</w>
1 0
p iy
E r
k az
a lan</w>
t ür
İ s
ınd aki</w>
lar da</w>
ü s
h e</w>
2 9
a ş</w>
muşt ur</w>
gör e</w>
r en
ol du</w>
a s</w>
m an</w>
y on</w>
d er
O r
u b
2 0</w>
Türk iye</w>
a lan
lar a</w>
ü k
ı ş</w>
k en
bağ lı</w>
A mer
inc i</w>
l ığı</w>
il en</w>
gö ster
ver s
m ad
s er
d aki</w>
ü f
se ç
le t
t al
P ar
d ur
k iş
ı t
alar ı</w>
ru p
bir lik
b ar
r es
g ir
ş ek
k o
Amer ik
ol o
ke z
dü ş
et k
m il
d ığı</w>
un a</w>
19 7
y e</w>
oldu ğu</w>
el lik
s el</w>
ist an</w>
3 0
l ık
d üz
lar ını</w>
u ç
as k
c h
ed e</w>
et ti</w>
k ap
ü ç
le nd
an a</w>
ler ini</w>
ü r</w>
ş ark
m ay
o la
s on</w>
ıl dı</w>
bulun an</w>
ı ca</w>
us u</w>
m aya</w>
se z
s av
m et
n a</w>
il di</w>
m i</w>
ar t
g u
tarih inde</w>
bil ir</w>
i vers
a lar</w>
k ıs
o z
on u</w>
el i</w>
h an
oy n
s ağ
d önem
k m</w>
yü ks
ut b
ul u
19 6
du r</w>
2 7
er ek</w>
le n</w>
2 5
1 0</w>
ç e</w>
k ab
böl g
s i</w>
2 4
i ş</w>
il i</w>
değ iş
İ l
ivers it
2 6
b er
birlik te</w>
S t
r e</w>
ağ ı</w>
ü y
ar d
A d
l iğ
bel ir
ün ya</w>
en in</w>
lar ının</w>
ü k</w>
ind eki</w>
g i</w>
mer kez
st an
tak ım
e v</w>
m es
a ç</w>
k a</w>
at ı</w>
ı şt
h er</w>
d iği</w>
ler inde</w>
ler de</w>
s iy
olo j
d ön
ar ak</w>
e leri</w>
ö ğ
y ıl</w>
diğ er</w>
t en</w>
i v
y en
n üf
Tür k</w>
G en
D ev
t ır
es t
l ü</w>
ler inin</w>
f ilm
im i</w>
h ay
ist em
K u
m aç
or du</w>
ent er</w>
h ak
İn gil
ğ unu</w>
K on
B aş
s ın
gel iş
O s
k om
ü nde</w>
il eri</w>
G ün
ti ğ
ey i</w>
iç er
l ığ
ig n</w>
" ,</w>
19 5
olu ş
k r
d ür
C h
T ar
ay nı</w>
yay ın
19 4
la m</w>
d ır
m esi</w>
şt ur
t aş
g ru
lar ına</w>
al ign</w>
ke z</w>
d eki</w>
S av
Ü n
c enter</w>
t am
m üz
leş tir
b üm
ellik le</w>
1 2</w>
land ır
Av rup
ad lı</w>
h ur
s a</w>
le y
K r
a nda</w>
in g</w>
az ı</w>
n ed
land ı</w>
b ul</w>
d ül
e g
y eni</w>
1 5</w>
İ stan
r af
B r
y as
ı la
t as
n un</w>
Fr ans
c u</w>
ar ı</w>
İstan bul</w>
b ur
al dı</w>
ün ü</w>
am piy
e ler</w>
s u</w>
b ak
m ek</w>
ç a</w>
ıl mıştır</w>
ler e</w>
Avrup a</w>
ay ı
Ün iversit
o b
um hur
r i</w>
d ü</w>
ah al
şek il
ilç esine</w>
D ünya</w>
bil in
düz en
s al
ü nd
l i
c ü</w>
il m</w>
al ık</w>
A ğ
k or
f utb
o c
d iz
la s
id en</w>
lan an</w>
1 9</w>
1 8</w>
karş ı</w>
u k
ü st
y ol
önem li</w>
A s
K as
is ti
1 1</w>
am a</w>
f ark
e d</w>
E y
ıl ır</w>
olu ştur
2 1</w>
le t</w>
an cak</w>
u ş
aş ı</w>
gör ev
p er
in g
lar dan</w>
k es
ger çek
başla dı</w>
1 6</w>
al büm
m en</w>
iy i</w>
la t
es ki</w>
d ir
ler ine</w>
3 0</w>
is t</w>
T he</w>
m et</w>
ned en
ç ev
ü t
m en
ön ce</w>
t ir</w>
ü ş
ec e</w>
an t
ar ası</w>
kur ul
Ö z
e ş</w>
g e</w>
ed i</w>
eğ i</w>
ger ek
1 4</w>
ol muştur</w>
s istem
ı p</w>
baş ar
T em
I I</w>
1 7</w>
lend ir
il ir</w>
s e</w>
tam am
böl üm
ler inden</w>
son r
as yon
eş it
ı c
E k
1 3</w>
ge tir
N e
ti n</w>
k it
dü r</w>
la dı</w>
m alar
yap ılan</w>
Os man
Üniversit esi</w>
a p</w>
d ün
l ist
m ak
s at
var dır</w>
f az
K ur
M il
i la
şekil de</w>
d ik
oldu ğunu</w>
iç inde</w>
il miştir</w>
s öy
M u
C umhur
Ay r
b o
an s</w>
lar ından</w>
h as
s or
H az
B ir</w>
üzer ine</w>
) "></w>
üzer e</w>
ay ı</w>
A t
b r
iti bar
M er
aç ık
t ığı</w>
t ur
kaz an
u z</w>
ik a</w>
ç i</w>
oğ lu</w>
ön c
R om
ad an</w>
g ün</w>
t es
bir çok</w>
r ak
19 3
ele d
e le</w>
D o
ı ları</w>
d ış
J o
ı cı</w>
2 5</w>
am ı</w>
Ayr ıca</w>
oğ raf
ampiy on
A k
ü m</w>
ıl ı</w>
P ro
ti k</w>
kab ul</w>
Mar t</w>
par at
mas ına</w>
la ma</w>
a j
ço cu
sah ip</w>
lay an</w>
a d</w>
an ın</w>
201 0</w>
ü ç</w>
M ayı
lu ğu</w>
ığ ını</w>
es inin</w>
Mayı s</w>
m od
il inin</w>
al i</w>
kay n
U l
yü k
A B
b en
a ğ</w>
s ad
dev am</w>
üç ük</w>
ik inci</w>
H al
H ar
K al
o f
p ol
b as
s en
tiğ i</w>
dur um
ün e</w>
par ç
T r
K ö
B il
O cak</w>
ir an</w>
ül k
ğ ü</w>
ı da</w>
mu ş</w>
yak laş
ge len</w>
sah ip
N is
C o
uy gu
m ahal
2 2</w>
a h</w>
0 00</w>
ö r</w>
il ik</w>
Kas ım</w>
har ek
lü l</w>
ç eşit
) .</w>
Bir leş
mu z</w>
h ük
c ol
tü m</w>
faz la</w>
yap tı</w>
Tar ih
2 4</w>
B ur
is inde</w>
K at
iy et</w>
e ç
kö y
o f</w>
s öz
t ut
iş k
u d
in a</w>
an lam
kend i</w>
ıl mış</w>
kar iy
E n
Ey lül</w>
2 6</w>
Al man
2 8</w>
c i</w>
a il
iy et
eğ iti
AB D</w>
geç ir
B ü
e z</w>
y i</w>
yön eti
f es
2 3</w>
sez on
y an</w>
Haz iran</w>
y al
Ek im</w>
Osman lı</w>
Amerik a</w>
ro l</w>
er b
f in
yüks ek</w>
uz ak
ust os</w>
l o
K om
r an
d em
R us
mü şt
h em</w>
3 6
i ç</w>
t ek</w>
Tem muz</w>
Nis an</w>
Ağ ustos</w>
e bil
b azı</w>
and ı</w>
d ör
S on
S an
ard ından</w>
l î</w>
tas ar
m ey
bir i</w>
b u
İ m
an ya</w>
S h
ler den</w>
edil miştir</w>
üzer inde</w>
ok t
o nd
Ul us
iy eti</w>
t ele
t on</w>
olu p</w>
fark lı</w>
ol mak</w>
3 5
in s
tü r</w>
L e
B ak
i e</w>
ün ün</w>
4 8
bul und
h af
s in
Ar alık</w>
zam an</w>
çık ar
ar as
2 7</w>
D aha</w>
is im
ü c
şeh r
k ül
yar d
4 7
y et
4 5
t e
lu k</w>
aş tır
Ş ub
uc u</w>
sp an</w>
sır asında</w>
An cak</w>
t ah
s un
B öl
f r
col span</w>
und an</w>
parat or
k uz
m al
edil di</w>
gör ev</w>
kar a</w>
mas ını</w>
hak k
aş a</w>
3 8
K an
h at
öğ ren
iler in</w>
gö z
A b
3 7
s al</w>
ad e</w>
4 9
h av
il gil
nd er
ıs ında</w>
la şt
ar a</w>
İl k</w>
h er
Sav aşı</w>
s ev
bulun maktadır</w>
ıl ık</w>
v v
k ır
d ağ
ed er
ort aya</w>
es ini</w>
m ez
d ah
Birleş ik</w>
g an
E s
ş ir
4 6
f ilm</w>
a do
m am
al ın
S p
3 9
i o</w>
İ tal
futb ol
yar ış
b oyun
el de</w>
ec ek</w>
yüz yıl
yıl ları</w>
çeşit li</w>
lar arası</w>
y at
u g
tek n
A z
lar la</w>
m eye</w>
P r
il işk
k üçük</w>
h az
u v
ak at</w>
Şub at</w>
2 9</w>
ı f
edil en</w>
l im
yer leş
doğ r
siy as
k anı</w>
i h</w>
t ab
R o
g eri</w>
k em
iy a</w>
düş ün
4 0
201 2</w>
b ab
f er
am p
boyun ca</w>
B ar
e bilir</w>
ac ı</w>
200 9</w>
M an
T h
id d
tan ım
201 1</w>
mahal le
ü p
du y
Y un
len en</w>
geliş tir
ir ler</w>
neden iyle</w>
K uz
o w
s u
s iz</w>
m em
zam anda</w>
üm ü</w>
i de</w>
öl ç
h iz
ar i</w>
B er
müşt ür</w>
Ö dül
E n</w>
o k</w>
i j
kö y</w>
on un</w>
Ş eh
ay an</w>
gen el</w>
sad ece</w>
( "</w>
u lan</w>
ş u</w>
d il
r am
k an</w>
7 5
g it
L ig
yıl ı</w>
sal dır
k as
yen iden</w>
6 6
ben z
O y
an n
r ağ
ov a</w>
kat ıl
yaklaş ık</w>
in san
D en
u ğ
pro gr
lar dır</w>
K or
kullan ıl
z or
200 8</w>
in ce</w>
gü ç
c an
lan mıştır</w>
gör ün
L i
ati k</w>
sın ır
B o
ür et
ul us
nüf usu</w>
an lar</w>
Y ar
m ev
ele k
uzak lık
m ek
7 8
D em
sp or</w>
on ya</w>
p r
ed er</w>
yay ım
T op
id i</w>
sür e</w>
r o</w>
b ır
d ay
kar akt
on a</w>
el ik</w>
may ı</w>
ic i</w>
g az
Ku p
san at
Kr al
6 5
201 4</w>
ic h
v en
may an</w>
uz un</w>
gör ül
7 0
u ğu</w>
is inin</w>
kay b
m aları</w>
tem s
ti k
6 8
u k</w>
C oğraf
b oy
3 1</w>
7 9
Ne w</w>
d es
yıl d
G ö
Alman ya</w>
" )</w>
ım c
g iy
id e
b ey
r ol
im leri</w>
r a
is ini</w>
d in
i on</w>
ey al
il miş</w>
h ız
A m
d ö
s a
201 3</w>
Frans a</w>
o m</w>
201 5</w>
k im
J ap
in ş
200 7</w>
yer ine</w>
er k
S ov
do lay
v iz
or n
üm üz
vv et
Gen el</w>
akt adır</w>
le me</w>
Ş ark
ünd en</w>
ar aştır
rağ men</w>
d al
es er
ler le</w>
Gün ey</w>
b at
a it</w>
S er
nd en</w>
o t</w>
t he</w>
d av
201 6</w>
ad y
B el
u laş
An kara</w>
K ad
e p</w>
or du
etk il
k il
ş tir
Ş ampiyon
200 6</w>
6 9
hay at
4 0</w>
Coğraf ya</w>
6 0
as t
gerçek leştir
B un
as ına</w>
yap tığı</w>
karş ı
Y eni</w>
q u
bulun ur</w>
kiş i</w>
ık ları</w>
y ol</w>
c ad
s ız</w>
E l
on om
20 20</w>
h an</w>
I n
Al man</w>
as yon</w>
ör n
um u</w>
v an
b ah
ar d</w>
alt ında</w>
t or
o g
şeh ir</w>
eti m</w>
tek r
u t</w>
öl dür
D er
ilgil i</w>
t adır</w>
yaş am
eled iy
oloj i</w>
k ız
İm parator
Kuz ey</w>
al mıştır</w>
5 0</w>
kıs a</w>
y ı</w>
İ r
gö nder
oldu k
G ür
et miştir</w>
W il
us unda</w>
ar et</w>
H ol
an laş
i f</w>
is ine</w>
es t</w>
ti v
P er
b it
y ür
as ının</w>
H av
M a
değ er
sav aş
P ol
Amerik an</w>
dah il</w>
baş kan
M üz
d eş
tak ım</w>
c an</w>
8 0
k aç</w>
Tarih çe</w>
öz el</w>
19 0
H er
uzaklık tadır</w>
haz ır
f er</w>
5 9
S ar
doğr u</w>
h am
G C</w>
İngil iz</w>
Cumhur iyeti</w>
n i</w>
an an</w>
ayr ıca</w>
k av
H ay
T ek
un t
T ur
İ k
gen ellikle</w>
ic e</w>
T ak
s ar
se b
b in
k ü</w>
hal k
A h
5 0
B al
Kup ası</w>
zam an
o v</w>
Dev let
ti c
E m
t ep
Av ust
top l
çal ışt
merkez i</w>
lu k
C ar
gr af
üs ü</w>
B ey
ık tan</w>
ıl d
müz ik</w>
tarih i</w>
baş ka</w>
İ z
t ü</w>
201 8</w>
Fr an
Y ah
değiş tir
İ sp
şeh ir
gru b
N GC</w>
la k</w>
y eti
le s</w>
o p</w>
dör t</w>
mil lî</w>
iz e</w>
ığ ında</w>
belir t
lü k</w>
k et
s es
Rus ya</w>
i şt
u dur</w>
ab er</w>
bil g
201 7</w>
k ıy
ad ıyla</w>
k aç
5 8
k el
m ed
T an
ab il
K o
S am
d ar
os y
b ol</w>
ül ke
Rom a</w>
S u
ti si</w>
kayn ak
b ask
iy or</w>
200 5</w>
ab ilir</w>
p lan
K ay
Bir liği</w>
ü b
öz ellikle</w>
kaz andı</w>
yüks el
f a
em en</w>
Bü yük</w>
aras ındaki</w>
E d
ıl ması</w>
g ar
P aşa</w>
Do ğu</w>
k ol
r et
b eri</w>
200 0</w>
i c</w>
g rup
m alar</w>
g ı
bilin en</w>
elek tr
k op
eti n</w>
ü z</w>
Al t
en g
sahip tir</w>
Jo h
ekt edir</w>
tekr ar</w>
an lığı</w>
çev r
K ul
or k</w>
s ız
t esi</w>
ke ş
iy at
an d</w>
et tiği</w>
kullan ılan</w>
ter n
as ını</w>
i tir
G ru
man ın</w>
bır ak
m at
os u</w>
ı ların</w>
bağ lan
do k
E v
B u
ün cü</w>
son unda</w>
do n
la nda</w>
etm ek</w>
kıs m
t h
l ig
oluş an</w>
tr ans
A fr
ol ması</w>
ro s
ek li</w>
im z
9 9
M eh
lu ğ
ok r
b al
ir e</w>
al tı</w>
dev let</w>
g em
p or</w>
201 9</w>
s em
tak ımı</w>
l is
o kul
bü t
o lay
j i</w>
des tek
K ır
ö dül
sır ada</w>
öy le
oyun cu</w>
ele n
bir kaç</w>
g t</w>
ter e</w>
. "</w>
hakk ında</w>
yap an</w>
a w
ti p
ço ğ
im e</w>
m ed</w>
r ek
i us</w>
m al</w>
eğ in</w>
kon uş
fin al
gaz et
ler dir</w>
S al
M ac
bağ ım
den iz</w>
R e
r y</w>
ol mayan</w>
200 4</w>
t o</w>
F A</w>
ask er
mü cad
l t</w>
ek onom
p at
ç ap
le di</w>
çık an</w>
ç ı</w>
mışt ı</w>
ol mad
ç iz
ı t</w>
le k
g id
k am
ge len
Ay nı</w>
yar at
v ur
fes yon
bü m</w>
n it
Ç in</w>
iy ordu</w>
E ğ
ekt ör
en er
Frans ız</w>
mahalle dir</w>
n es
ver di</w>
dün y
3 5</w>
G az
al maktadır</w>
du ğu</w>
1 00</w>
yıld ız
İngil tere</w>
iy di</w>
ır lar</w>
ek ler</w>
yap mıştır</w>
son uç
lend i</w>
gru p</w>
6 7
D an
merkez ine</w>
M ü
lan d</w>
progr am
itibar en</w>
baş kanı</w>
E ur
lam ak</w>
18 9
sezon unda</w>
b iç
yön etm
A ş
d ef
al ya</w>
b az
ı ya</w>
ec eğ
m o
ek s
k l
L o
F ilm</w>
ad ını</w>
6 0</w>
m ar
c in
İtal ya</w>
asyon u</w>
kuz ey
r ak</w>
Ö r
ü ks
cu dur</w>
is yon
oloj ik</w>
v ek
böl ge
l id
futb ol</w>
M on
S a
S ul
9 0
ç if
Devlet leri</w>
mil yon</w>
b un
" '</w>
G e
3 4
8 8
B ul
y anı</w>
H as
sır a</w>
u p</w>
sav aş</w>
ıy or</w>
d in</w>
ad landır
çık tı</w>
or gan
karakt er
d a
yak ın</w>
gel di</w>
en t</w>
ac ak</w>
ü ler</w>
ay dı</w>
ç ağ
Lig i</w>
şek l
öğ r
dönem inde</w>
um a</w>
m in
G r
ark ad
An ado
Par tisi</w>
ti y
A le
kit ab
s h
kariy er
F in
fesyon el</w>
A nd
v an</w>
inş a</w>
b in</w>
kar deş
u ku
osy al</w>
şark ı</w>
mas ıyla</w>
la d
iz m</w>
m ik
m on
ila h
R us</w>
sav un
ışt ır</w>
kom ut
sın ıf
um lu</w>
han gi</w>
ver ilen</w>
es inden</w>
kad ın</w>
ilm esi</w>
p ek</w>
3 2</w>
al ır</w>
M ah
t am</w>
s am
v at
iz i</w>
Y ork</w>
B ab
em e</w>
ım ına</w>
dış ında</w>
S e
gün ey
ele ştir
pol iti
n um
lan mış</w>
Şark ı</w>
son ucu</w>
dolay ı</w>
öz ellik
Anado lu</w>
S ur
Amerik alı</w>
3 3</w>
k oy
ö z</w>
5 5
y oğ
ak ül
kül tür
Co unt
4 5</w>
İngil iz
7 7
K ız
ız ca</w>
g a</w>
liğ ini</w>
n eden</w>
B atı</w>
öl üm
g ın</w>
ol ur</w>
sür dür
t a
top lam</w>
ım cı</w>
in an
nüf us</w>
an lat
ü p</w>
A li</w>
F utb
ler iyle</w>
ad ığı</w>
b ek
ür eti
Count y</w>
yap ıl
say ısı</w>
eğiti m</w>
K az
ç öz
S ch
m az</w>
edil ir</w>
D av
itibar ıyla</w>
al dığı</w>
ley en</w>
4 7</w>
i an</w>
p oz
bil im
ku ş
s ab
ıy ordu</w>
el ik
200 2</w>
tan ın
lü ğ
ulu k</w>
P et
t o
ec i</w>
oyun c
akt ır</w>
ı larak</w>
iy on
mişt i</w>
d est
list esi</w>
ec l
Oy un
dev r
ke t</w>
gü ven
iş le
kariy eri</w>
ümüz de</w>
il iğ
dönem de</w>
M o
18 8
laşt ır
C am
iş i</w>
Ödül ü</w>
s ak
keş f
al t</w>
as ıyla</w>
es idir</w>
k e</w>
bir bir
t er</w>
Ulus lararası</w>
ıy dı</w>
3 4</w>
İ ş
Joh n</w>
hük üm
gel ir</w>
M ad
Li g</w>
m in</w>
s ık
Az erb
l o</w>
N or
üs t</w>
3 7</w>
çalış malar
eled iye</w>
Azerb ay
B e
oldu ğ
for m
Ulus al</w>
H an
" ),</w>
D oğ
7 0</w>
F er
h i</w>
sez on</w>
h o
f akat</w>
uygu lam
y or
ü ş</w>
es el</w>
m ini</w>
ti f
kay d
O lim
tele viz
İmparator luğu</w>
iler e</w>
for mu
H am
r ah
o lan
end i</w>
n ik</w>
e lerin</w>
3 6</w>
Or ta</w>
Yun an
if orn
ge le
200 3</w>
200 1</w>
G er
it e</w>
g un</w>
ağ ını</w>
B unun</w>
fa al
lar ıyla</w>
199 0</w>
kur ulu
er n</w>
eti nde</w>
çocu k
a i</w>
2 2
gör üş
tems il</w>
albüm ü</w>
F or
iş lem
y alı</w>
ço ğu</w>
Y er
yıl larında</w>
n okt
ağ ı
st r
8 9
an i</w>
üç üncü</w>
ış ı</w>
a lam
t ur</w>
D e
sez onu</w>
te or
ku vvet
on e</w>
c i
m esine</w>
y et</w>
alar ında</w>
yaş ında</w>
ol u</w>
il iği</w>
s ey
lan ır</w>
nüf us
harek et
isim li</w>
3 8</w>
ınd ı</w>
ul u</w>
h ed
Şampiyon ası</w>
yak ın
el l</w>
H er</w>
is esi</w>
T er
top rak
ü dür</w>
s ek
kar ar
mas ının</w>
u yar
ot or
ber aber</w>
kar ar</w>
mı ş
M us
y o</w>
öyle ce</w>
o graf
Azerbay can</w>
k ut
pro j
seç im
lığ ını</w>
h emen</w>
es iyle</w>
iğ er</w>
yan ın</w>
k alan</w>
let vek
U z
H e
g ür
v ar</w>
le y</w>
yap ımı</w>
kad em
oyn am
or ta</w>
4 8</w>
ins an</w>
Y aş
for man
i i</w>
f on
t aş</w>
ay ında</w>
değiş ik
ç ar
M ıs
r i
iz in</w>
kur ulan</w>
tem el</w>
d ünya</w>
f iz
t eki</w>
la mıştır</w>
Y ıl
el ç
alar ın</w>
l in</w>
ıla bilir</w>
aç ık</w>
h a</w>
futbol cudur</w>
M ich
ş ampiyon
af a</w>
biç im
g al
has tal
M at
köy dür</w>
Par ti</w>
lü ğü</w>
hük û
kon u
s im
ati on</w>
m ac
mes ini</w>
B iz
ger ç
kat ıldı</w>
Y o
b oz
b or
bulund uğu</w>
ec eği</w>
M or
y ine</w>
Afr ika</w>
F il
O n
sonr aki</w>
S ır
am ac
ev i</w>
3 9</w>
p o
s il
if ade</w>
ken in</w>
kal dır
Yar ış
0 0
6 4</w>
C ol
h üc
b an
i lan</w>
Böl g
Sov yet</w>
l in
v ide
M ak
alan ı</w>
ask eri</w>
P ort
K il
z ı</w>
T V</w>
V al
geç en</w>
F akül
P a
ti f</w>
son uc
M al
ın t
h â
n uv
ok s
s oy
or anı</w>
r isti
b eş</w>
g ol</w>
kal dı</w>
t eş
ro man
m ağ
doğ du</w>
ulus lararası</w>
Olim piy
G ala
u p
len miştir</w>
l üm
İ yi</w>
la _
film i</w>
h e
formu la_
B ay
d ak
ır ken</w>
yıl ından</w>
4 2</w>
yer el</w>
nd an</w>
G u
bir idir</w>
o d</w>
K ür
S in
trans fer</w>
O l
K ı
gen iş</w>
Kal iforn
ik â
5 7
E f
C har
kullan ılır</w>
Dev let</w>
dö nd
ab er
N eh
p u
c k</w>
am aç
un la</w>
199 9</w>
day an
Par is</w>
piy as
İr an</w>
yıl larda</w>
b elediy
ekt ir</w>
gerçek leş
y en</w>
b itir
ar lar</w>
op er
Y ap
s ol
Kaliforn iya</w>
c h</w>
h t</w>
em a</w>
gru bu</w>
içer isinde</w>
ir i</w>
Y üks
r ı</w>
C on
u di</w>
18 7
gir iş
tes p
4 1</w>
B ey</w>
değ il
ber t</w>
ü d
am p</w>
G eç
M as
B en
al büm</w>
k ir
t aki</w>
k er
der g
ark a</w>
8 0</w>
mad an</w>
çoğ un
is ion</w>
ıl ığı</w>
bur ada</w>
U n
m ah
k â
m it
se f
doğ ru
büt ün</w>
le ti</w>
B an
yal n
yol u</w>
Y ön
P h
s ik
üy esi</w>
av i</w>
oyn adı</w>
o y</w>
h iç
b e</w>
bur g</w>
har eb
sistem i</w>
F akat</w>
Gö k
z iy
K em
tür ü</w>
b iy
198 0</w>
im ler</w>
ac a</w>
mas ından</w>
4 3</w>
res mi</w>
M ust
a e</w>
An t
r ed
ab an
uğ r
l ı
4 4</w>
m ut
düzen lenen</w>
9 0</w>
t ır</w>
eceğ ini</w>
p op
yıl lık</w>
edil miş</w>
ilm ektedir</w>
ıl ığ
h end
N üf
cu t</w>
der ec
ç at
4 6</w>
M Ö</w>
M es
say ıda</w>
s uç
her hangi</w>
H o
met re</w>
in t</w>
k ür
eg or
ed erek</w>
G o
l or
d ep
ü len</w>
ve ç</w>
yaş ayan</w>
s ı
d iler</w>
ey di</w>
yön tem
mey d
siyas i</w>
İngiliz ce</w>
al d
maç ta</w>
işt ir</w>
g ol
ey en</w>
ko ş
4 9</w>
yan ında</w>
per forman
Y ay
ın lar</w>
6 5</w>
iler ini</w>
ün lü</w>
f a</w>
V er
kay ıt
il ine</w>
as ıdır</w>
erk ek</w>
yü n</w>
var dı</w>
diz i</w>
ic h</w>
er al</w>
G ir
M üs
h is
mü ş</w>
makt a</w>
b i</w>
A kadem
et t
öy le</w>
G al
Mıs ır</w>
D iğer</w>
B ro
başar ılı</w>
hal ine</w>
8 5
f el
t ed
m eler
f il
öğren c
la y</w>
199 2</w>
s ı</w>
199 8</w>
ün iversit
televiz yon</w>
er ken</w>
olduk ça</w>
la dığı</w>
mücad ele</w>
sanat ç
t eh
J ac
bü yük
ş i
tekn ik</w>
m eyi</w>
F ar
m ir</w>
lan ması</w>
baş layan</w>
M ur
Meh met</w>
tar t
gün ü</w>
bil dir
anlam ına</w>
ü şt
baş ına</w>
ola bilir</w>
l y</w>
gen ç</w>
gir di</w>
H ak
Ör n
B at
F en
for ma</w>
ıs ını</w>
öz el
m asında</w>
iş leri</w>
om et
c ez
yıl ına</w>
çocu k</w>
ıs ına</w>
iş let
f ik
ı s</w>
sah ibi</w>
is ay
mod el
Futb ol</w>
s k
diğ ini</w>
ge z
baş ı</w>
Wil li
L ond
kon t
ıs ıyla</w>
s tit
say ımına</w>
p az
tesp it</w>
lem ek</w>
ic k</w>
al e</w>
is mi</w>
m a
İsp anya</w>
ik en</w>
kr al
baş ken
y em
l im</w>
M et
ar et
I II</w>
at ları</w>
C om
K it
m im
başla mıştır</w>
ar t</w>
se s</w>
l ıdır</w>
İk inci</w>
as ıl</w>
öl dü</w>
S en
h es
değ il</w>
Ge or
ün kü</w>
ala ma</w>
kon usunda</w>
y la</w>
yüzyıl da</w>
k in</w>
et mektedir</w>
199 6</w>
tiğ ini</w>
geç ti</w>
Fakül tesi</w>
alar ak</w>
b ol
b unun</w>
Y ak
it y</w>
ad et</w>
ülk e</w>
ağ ır
ayr ıl
num ar
dön em</w>
i an
8 7
or d
ti yat
İl ç
ra il</w>
çalışt ı</w>
[ [</w>
yar ak</w>
uz un
y ağ
A f
Y az
dü ğü</w>
199 5</w>
199 4</w>
199 1</w>
z ar
sev iy
yen il
Bak anlığı</w>
K ap
yar ı</w>
O k
199 7</w>
s osyal</w>
Kö y</w>
199 3</w>
bil im</w>
land ığı</w>
s öz</w>
Q u
Mer kez
Sul tan</w>
ö n</w>
and an</w>
g ala
hiç bir</w>
ver en</w>
p ay
18 0
ar e</w>
ek leri</w>
amac ıyla</w>
sonuc unda</w>
a j</w>
n er
a f</w>
ur t</w>
it esi</w>
Jap onya</w>
c m</w>
dön üş
la h</w>
tart ış
B as
hiz met
b est
Avust ur
bağlan t
F eder
Baş kan
değil dir</w>
k ah
hav a</w>
yaz ıl
6 8</w>
do l
S c
ıs ından</w>
G ör
sah n
can landır
f ot
M ecl
dü ğ
T e
oy un</w>
ola c
harek et</w>
yaz ar</w>
İz mir</w>
İs rail</w>
iler ine</w>
B ah
alar da</w>
6 6</w>
F C</w>
s ilah
iğ ini</w>
baş ında</w>
S o
as tr
şehr in</w>
Must afa</w>
6 7</w>
t ör
197 0</w>
güç lü</w>
ed eki</w>
karşı laş
v a</w>
mu h
N az
yan i</w>
b a</w>
ül kenin</w>
mad d
ın ca</w>
siyas et
O y</w>
d ar</w>
benz er</w>
ic a</w>
s iz
f ır
Y en
y ık
r in</w>
6 1</w>
bil gi</w>
yan a</w>
do ğu</w>
Gür c
şekl inde</w>
Mil lî</w>
y ası</w>
6 3</w>
S on</w>
l idir</w>
bir leş
S tr
hiz met</w>
9 5
B eş
ti s
ad aki</w>
is idir</w>
b r</w>
il a</w>
M ed
G ü
kit ap
en n
üp er</w>
etk in
m iş
kas ab
ind ir
D ar
D i
As ya</w>
ed eb
len ir</w>
yayın lanan</w>
b es
K am
and ır
uy la</w>
i er</w>
H at
meyd ana</w>
t u
9 8
taş ıy
E l</w>
önc eki</w>
ör gü
6 2</w>
iler inin</w>
ort ak</w>
S ez
yay gın</w>
uy gun</w>
u e</w>
ür ün
h am</w>
in o</w>
ul du</w>
Neh ri</w>
n ak
ep h
yön et
ağı daki</w>
y o
çar p
ro m
J am
y um
en c
Avust r
20 0</w>
z em
Er k
mez un</w>
Eğ iti
nd eki</w>
Eur ov
kap sam
6 9</w>
Ö n
şir ket
Es ki</w>
K ol
ik leri</w>
ül dü</w>
topl um
v al
T o
h ey
in ç</w>
m er</w>
ola bil
son a</w>
s un</w>
ıy ı</w>
lar dı</w>
tamam en</w>
f ab
a u
Müs lüm
V en
sonr asında</w>
F I
s in</w>
H risti
. .</w>
196 0</w>
ayr ı</w>
gala ks
Eurov ision</w>
D on
kon tr
ar ac
İs lam</w>
y okt
B ağ
P at
G öl
bü yü
ses lendir
ti p</w>
Lond ra</w>
kel im
B azı</w>
g iz
eti k</w>
c am
yaz ar
Ç o
bulund u</w>
taş ım
kat k
lığ ına</w>
le m</w>
hal k</w>
parç ası</w>
Biz ans</w>
han e</w>
seç ildi</w>
Jap on</w>
içer en</w>
la z
13 7
9 7
neden le</w>
den ey
Kı br
idd ia</w>
başla t
ans ı</w>
b atı</w>
k eti</w>
iy at</w>
baş lan
kal e</w>
tur nuv
bab ası</w>
mil letvek
ah çe</w>
k at</w>
s ü
ı dan</w>
12 8
üy le</w>
ulus al</w>
S ü
ay ır
w e
H ind
ilç e</w>
Yun an</w>
İ ki</w>
T iyat
ek sel</w>
m î</w>
ıl ık
Sur iye</w>
Sov yet
K ül
d is
ter c
ren k
at ür
m ada</w>
seb eb
s ur
üzer inden</w>
piyas aya</w>
D ağ
yaln ızca</w>
ınd adır</w>
F o
akt ı</w>
c o</w>
es tiv
par t
P o
20 21</w>
söz leş
en gel
B or
ot om
b ile</w>
ıl maktadır</w>
r is
u kar
ac h
Y üz
kurul muştur</w>
Ü l
i g</w>
ev r
Or du
i el
h ikâ
ü tü
ad ay</w>
ekonom ik</w>
s ık</w>
h ap
Fen erb
198 9</w>
bilg isay
y um</w>
R es
Ş ir
düş ük</w>
eler inin</w>
s ch
al ış
B elediy
kon um
il ya</w>
ıs ının</w>
Kral lık</w>
Br it
ü bü
Tr ab
A p
z a</w>
ön er
ro p
la v
yön ünde</w>
d iy
gerç ek</w>
Kar iy
ar ş
et bol</w>
kardeş i</w>
ö m
M os
O kul
ay n
in al</w>
lam ası</w>
pro fesyonel</w>
faal iyet
Ku vvet
bölg esinde</w>
n am
Bü yük
ü ğ
er siz</w>
s uz</w>
O t
r is</w>
F estiv
Fenerb ahçe</w>
Müz ik</w>
p or
Baş kanı</w>
uku k</w>
m eden</w>
bir liği</w>
12 5
sor un
st üd
p an
yür üt
bölg e</w>
an lam</w>
ad am
ış ık</w>
Port ek
k ent
Türk çe</w>
i er
en ler</w>
kariyer ine</w>
oyun cu
Avustur ya</w>
it ler</w>
s ine</w>
ımc ısı</w>
n or
S im
bilin ir</w>
ey in</w>
al im
c isi</w>
n er</w>
A c
ol masına</w>
m eleri</w>
kont rol</w>
g en</w>
m eni</w>
os yal
bo ş
makt aydı</w>
Er men
Yarış ması</w>
ind edir</w>
u f
ver ildi</w>
yıldız ı</w>
boy ut
H ük
mes iyle</w>
y ör
yard ım</w>
J e
la k
Mu ham
lid er
k amp
alar ını</w>
bağım sız</w>
kend isine</w>
t av
İtal yan</w>
an g
vide o</w>
on g</w>
y le</w>
24 0
Yah udi</w>
bir inci</w>
m eti</w>
M in
sonr ası</w>
lü k
kısm ı</w>
Yah ud
ü le
liğ inde</w>
baş lar</w>
Gala tasar
ay as
s an</w>
s ing
dağ ıl
i x</w>
doğ al</w>
Örn eğin</w>
D a
m ez</w>
F ilm
d iye</w>
ol muş</w>
kö ken
Merkez i</w>
İ br
y av
hal e</w>
an lık</w>
C or
eh ir</w>
7 5</w>
Ödül leri</w>
Kar ad
W ind
H en
S ak
ati f</w>
Kıbr ıs</w>
sp or
yayın landı</w>
yüks ek
an lı</w>
yüzyıl ın</w>
mış lardır</w>
ü s</w>
ken t</w>
len miş</w>
Sovyet ler</w>
oluş ur</w>
Galatasar ay</w>
ay d
ön em</w>
5 5</w>
tan ıt
kan al
maç ında</w>
Ar ap</w>
eyal etinde</w>
arkad aş
bölüm ü</w>
def a</w>
b est</w>
eler inde</w>
13 8
a el</w>
ih tiy
K ah
Yüks ek</w>
ay ak
man ı</w>
Top lam</w>
at tı</w>
aban cı</w>
198 8</w>
yor um
yap t
ev l
im ini</w>
alt ına</w>
iler ek</w>
M c
et e</w>
dur um</w>
şark ısı</w>
top lan
ik sel</w>
tems il
red d
T un
ver diği</w>
| |</w>
B una</w>
Hal k</w>
yard ımcı</w>
ş ampiy
alar ının</w>
duy ur
dün yanın</w>
S iv
k üm
S iy
eler de</w>
ti nde</w>
al et</w>
ıla şt
u ş</w>
ö y</w>
Dem okr
Yunan istan</w>
poz isyon
u cu
yas al</w>
an ları</w>
e ve</w>
hend is
r ap
gün ümüzde</w>
mod ern</w>
ıla bil
kurul du</w>
L a
yap ıldı</w>
17 8
on ik</w>
ol sa</w>
ser best</w>
iç i</w>
t en
l ılar</w>
kul übü
ı p
Ar n
al o
s t</w>
Avustr alya</w>
u ç</w>
ar ab
i on
Ar ap
un d</w>
ber g</w>
çalış an</w>
Nüf us</w>
alan ında</w>
T or
yöneti m</w>
und aki</w>
yap ı
ıc ak
mek te</w>
U E
y ok</w>
yap ı</w>
edil mektedir</w>
tip i</w>
yap ılmıştır</w>
] ]</w>
eler ini</w>
sen ar
ör ü</w>
En stit
S an</w>
söy le
sa at</w>
is el</w>
m aç</w>
S ad
W h
Son uç
ser gil
bey az</w>
uy u</w>
ad ına</w>
akt a</w>
b aş</w>
c ih
V i
e la
dü k
b unu</w>
l y
çev ir
198 7</w>
ti on</w>
ir ken</w>
çat ış
eyal et
dav ran
Br ez
m otor
u var
değer lendir
ışt ır
G re
doğ an</w>
etm eye</w>
alt ın</w>
Ah met</w>
yöneti m
İsp an
UE FA</w>
S eç
d il</w>
şark ıcı</w>
dev let
il le</w>
M ir
tarih li</w>
üz el</w>
söz c
sat ın</w>
kontr ol
san at</w>
mik tar
hız lı</w>
f ir
s it
f ar
Pol onya</w>
ağ ır</w>
on ları</w>
laşt ı</w>
G el
Kan ada</w>
G ar
dün cü</w>
198 6</w>
et miş</w>
haf ta</w>
ati on
ü l</w>
inc ele
U y
S ay
şeh ri</w>
Gru p</w>
le si</w>
mı zı</w>
ek te</w>
ordu s
seç imleri</w>
organ iz
ın ar</w>
kız ı</w>
H üs
T ay
m üm
böl üm</w>
r ady
s ki</w>
ver ir</w>
ş im
kor um
k ız</w>
t in
Mer kez</w>
Trab z
c umhur
st and
bil eş
c el
Er z
iş g
0 9
Mu hareb
M ez
el inde</w>
yap mış</w>
S üper</w>
çalış maları</w>
N ik
P as
luk la</w>
) "</w>
ele n</w>
eş i</w>
t at
12 7
ow s</w>
ölç ü
tep e</w>
Y az</w>
s iv
h en
zor unda</w>
5 7</w>
p et
l ıca</w>
gü ç</w>
S ah
yıl ının</w>
dön üşt
I s
kur um
galaks idir</w>
hed ef
sin ema</w>
l ov
Willi am</w>
Muham med</w>
y olu
lar ındaki</w>
b elediye</w>
or e</w>
ordu su</w>
şt i</w>
M od
ş a
Or du</w>
f i</w>
ım a</w>
am an</w>
im parator
ulu ğu</w>
bo ş</w>
er s</w>
yet en
içer ir</w>
İ ç
R ec
dağ ıt
Şeh ir</w>
Kor e</w>
p h
s eri</w>
say ı</w>
çif t
R os
ar az
şehir dir</w>
s en</w>
l if
st e
b ayr
C em
Wind ows</w>
ir a</w>
as ından</w>
ak a</w>
Dev leti</w>
s oğ
K ut
mek an
mey en</w>
aş am
s ıcak
karş ısında</w>
kur tar
yokt ur</w>
Olimpiy atları</w>
müm k
er li</w>
aş ır
say esinde</w>
yön elik</w>
H an</w>
5 2</w>
d er</w>
17 9
198 4</w>
las ik</w>
kurulu ş
at e</w>
k in
göz lem
yoğ un
an al
es n
Dem ir
s ü</w>
2 10
d an
K en
ener ji</w>
Hol landa</w>
vat and
195 0</w>
düny aya</w>
s ub
M is
ot ur
Den iz</w>
o w</w>
g er</w>
st a</w>
5 1</w>
z eng
T ele
par a</w>
5 6</w>
r ik
da ir</w>
sing le</w>
etk isi</w>
i os</w>
Bun unla</w>
5 3</w>
k üt
f f
kend ini</w>
yay ın</w>
k o</w>
Bur ada</w>
S ev
t or</w>
yüz yıl</w>
maç ı</w>
ing ton</w>
ks iy
198 5</w>
öğr etm
un g</w>
Sav aş
fel sef
g u</w>
k ası</w>
başken ti</w>
ro su</w>
E nd
üzer indeki</w>
Mü dür
B A</w>
dönd ü</w>
as h
5 4</w>
Dev r
m az
liğ e</w>
198 2</w>
kit ap</w>
ele nd
ş idd
am il
Hay atı</w>
d ış</w>
P ap
Al büm
yerleş im</w>
N A</w>
gö ç
ig ht</w>
er a</w>
" "</w>
Kız ıl
Hind istan</w>
kul üp
M e
W or
S il
ay lık</w>
oc k</w>
tan r
alar ına</w>
U kr
Jam es</w>
T ok
ç ünkü</w>
at a</w>
is m
h t
kon u</w>
top lam
an o</w>
yaz arı</w>
P al
kiş inin</w>
e f</w>
laş ması</w>
art ık</w>
y eri</w>
T im
yönetm en
5 8</w>
C en
ci var
ak tif</w>
Dav id</w>
c ev
il ebilir</w>
h ak</w>
5 00</w>
belir li</w>
başkan lığı</w>
and ır</w>
em i</w>
or an
Bölg esi</w>
g an</w>
id ari</w>
gelen eksel</w>
B ask
ar aç
L it
ez i</w>
gele c
Tarih i</w>
G ran
le k</w>
Gen ç
2 29
om b
16 0
ün y
karş ılaşt
ark en</w>
ı ç
kazan mıştır</w>
r an</w>
B la
B öylece</w>
lam ent
üb ü</w>
dest ek</w>
den iz
gel miştir</w>
at ör</w>
ey se</w>
h iç</w>
iy or
kur du</w>
bah s
İs veç</w>
Eğiti m</w>
c ut
alar a</w>
yaz dığı</w>
S i
söy ledi</w>
R ic
L u
it al</w>
E t
bölg esi</w>
198 3</w>
ad ında</w>
v iç
sür ekli</w>
İ st
gün ey</w>
Har ek
er ler</w>
D ur
le s
7 2</w>
h id
ip l
ş ey
ş ey</w>
res mî</w>
W e
ekt i</w>
( ),</w>
g in</w>
ı f</w>
Cumhur iyet</w>
Kö yün</w>
elektr ik</w>
kuz ey</w>
tern et</w>
et tir
S ey
uy ordu</w>
hikâ y
üst ü</w>
T at
Gürc istan</w>
yer leştir
lık la</w>
H a
bölg ede</w>
Kuvvet leri</w>
ed iği</w>
z e</w>
dik ten</w>
Sonuç lar</w>
il diği</w>
r ik</w>
uk lu</w>
etk ili</w>
1 14
pro t
ön e</w>
çalış ma</w>
ayr ımı</w>
5 9</w>
L a</w>
e j
lığ a</w>
Alt ın</w>
as i</w>
Bir inci</w>
Pro fesyonel</w>
oyn anan</w>
gen in</w>
ek ip
il ik
1 15
kurul muş</w>
kad ın
kazan an</w>
n u</w>
tiyat ro</w>
k af
Bey az</w>
ü ğü</w>
Beş ik
Bul gar
d ılar</w>
mak la</w>
S ab
mev cut
İ d
" .</w>
h a
S ür
Şeh rin</w>
D iy
aş ağıdaki</w>
tak ip</w>
Y ard
k er</w>
çık mıştır</w>
Festiv ali</w>
m eler</w>
fin al</w>
Y as
İs viç
taşıy an</w>
1 20
23 0
kö pr
M ahal
Mich ael</w>
futbol cu</w>
c o
el iği</w>
Öz el</w>
ıl lı</w>
kend isi</w>
ist em</w>
k ova</w>
m adı</w>
as t</w>
s el
y u</w>
as ındaki</w>
2 14
3 3
bak an</w>
ac ağı</w>
ti z
S el
kö tü</w>
Kur ulu</w>
st at
görün tü
K af
n ey</w>
Ar j
g in
Der n
göster en</w>
ij inal</w>
k u</w>
taş ın
düşün ül
C an
yoğ un</w>
17 0
kor un
ilç esi</w>
M ic
yan l
ser v
imz ala
ay et</w>
s o
ans iy
Ber lin</w>
koş ul
B M
görev i</w>
dönem i</w>
Enstit üsü</w>
S C
M ag
eler e</w>
I rak</w>
bir leştir
lan maktadır</w>
197 9</w>
ad em
gö z</w>
Er meni</w>
ur lar</w>
gü cü</w>
Başkan lığı</w>
K öy
G i
P ren
ölçü de</w>
kullan arak</w>
k aya</w>
9 5</w>
ey n
olu şt
le şti</w>
M em
do n</w>
ilç esinde</w>
hay van
mat em
ur a</w>
d am
b er</w>
K ir
Ço cu
ım lar</w>
lan ma</w>
ç ab
7 9</w>
Arn av
lık lı</w>
ond an</w>
takım yıldızı</w>
d ek</w>
doğru dan</w>
2 13
hes ap
FI FA</w>
tarih leri</w>
k ı</w>
San at
aç ıl
l ında</w>
y ans
dış ı</w>
ur t
Ö ğ
hal inde</w>
ec ektir</w>
6 4
Gru bu</w>
y edi</w>
gü c
et raf
mev cut</w>
Ç an
P an
pop üler</w>
se p
L isesi</w>
ac ağını</w>
8 5</w>
r ast
ograf i</w>
yaz dı</w>
ati s
V ak
la s</w>
p sik
M eks
eş it</w>
ul a</w>
m y</w>
ünd eki</w>
198 1</w>
Beşik taş</w>
grub un</w>
diğ inde</w>
har d</w>
ş un
sür en</w>
Ak deniz</w>
oy unu</w>
7 1</w>
iti k</w>
ak tar
ge c
Sp or</w>
ütü p
don an
yaş am</w>
kat egor
Okul u</w>
gö ç</w>
alo g</w>
kend isini</w>
Türk ç
liğ ine</w>
la yarak</w>
ı lara</w>
ik ti
ag ue</w>
Ar t
o ley
ik al</w>
B elediye</w>
on om</w>
is im</w>
197 4</w>
D r</w>
is inden</w>
it a</w>
çif t</w>
Kem al</w>
R a
ks iyon
2 15
7 8</w>
us al</w>
sır asıyla</w>
osyal ist</w>
C al
bat ısında</w>
B ol
Y eş
Mos kova</w>
gil er</w>
kap at
7 6</w>
R u
s ap
St ady
nd aki</w>
g o</w>
yıl ındaki</w>
tan e</w>
er e</w>
Ay d
197 8</w>
Son r
r et</w>
gel mektedir</w>
araştır ma</w>
ün ist</w>
Ro bert</w>
kullanıl maktadır</w>
if e</w>
c es
v az
mas ıdır</w>
yıld ız</w>
er iş
ver ilmiştir</w>
im li</w>
aç ısından</w>
kiş ilik</w>
bilim sel</w>
for d</w>
Kar a</w>
yap maktadır</w>
göster ir</w>
ok ul</w>
şir keti</w>
yer ini</w>
9 2</w>
Mac ar
ak lı</w>
kes in</w>
Bak anı</w>
is a</w>
Hav a</w>
1 10
if ad
Ö l
ob il</w>
d ağ</w>
çap lı</w>
el iğ
K ab
yüz ünde</w>
eler ine</w>
sa at
ınd ır
ak ları</w>
ç ö
ay ken</w>
ulu ğ
ol a</w>
öldür ül
Ü ç
kullan ılmıştır</w>
kar ış
n asıl</w>
açık ladı</w>
9 3</w>
il inde</w>
on ların</w>
Muhareb esi</w>
K ıs
T aş
dü l</w>
açık lam
a at</w>
dör düncü</w>
bölüm ünde</w>
9 7</w>
stüd yo</w>
eğiti mi</w>
ed eyse</w>
2 28
Bur sa</w>
ü ye</w>
7 7</w>
9 9</w>
Ordu su</w>
K end
u ştur
K üçük</w>
g ı</w>
D r
d ili</w>
197 3</w>
Kr al</w>
C r
7 4</w>
8 8</w>
siyaset çi</w>
es ir</w>
bağım sız
tele s
m ark
bulun muştur</w>
dik kat
ay na</w>
V ol
Kral lığı</w>
en a</w>
il la</w>
est er</w>
en e</w>
seç im</w>
dir ektör
t ef
2 25
len mesi</w>
T a
baz en</w>
1 13
i ć</w>
keşf edilmiştir</w>
S y
iler de</w>
yap mak</w>
s er</w>
gün ümüz
Gün ümüzde</w>
L ib
196 8</w>
tut uk
U r
dok tor
b öylece</w>
yeti ştir
il eş
Geor ge</w>
şehr inde</w>
ener j
m eş
Kariy eri</w>
A la
önc esi</w>
197 7</w>
197 5</w>
ler ce</w>
ulu k
doğ usunda</w>
ım ını</w>
t al</w>
diz isi</w>
M ik
dik leri</w>
kitab ı</w>
Kül tür</w>
S elç
m alı</w>
Ar aştır
al ındı</w>
ak istan</w>
kon usu</w>
laş ma</w>
alim anı</w>
es indeki</w>
I V</w>
tik leri</w>
An tal
197 2</w>
ak adem
g ar</w>
R um
ku p
194 5</w>
y abancı</w>
Sav aş</w>
tar ih</w>
bü y
m m</w>
t üm
v ak
a ile</w>
Bel ç
Brit anya</w>
der s
M el
görev ini</w>
ver miştir</w>
7 3</w>
b una</w>
h aber
g isi</w>
2 27
v ir
p en
y urt</w>
il eti
görül ür</w>
hayat ını</w>
yüz den</w>
2 16
A T
uc usu</w>
mal zem
yeti ş
T ah
mücad ele
C ez
sınır ları</w>
8 6</w>
o od</w>
9 6</w>
kullan ıc
H ır
se y</w>
J er
Müslüm an</w>
bir ey
ay i</w>
se fer
k um
örgü t
kö k
t ar</w>
bit k
lığ ın</w>
sah ne</w>
tar z
h ip
an e</w>
Sü ley
8 7</w>
met r
C ity</w>
arkad aşı</w>
T ab
i da</w>
n ok
Kom ut
197 6</w>
ak lar</w>
im in</w>
b ac
ük le
v er</w>
9 4</w>
Th om
mevcut tur</w>
li g</w>
on lar</w>
ıl dığı</w>
12 6
kuş at
4 4
dir en
an ların</w>
8 3</w>
Lo u
milletvek ili</w>
E kon
g üm
im a</w>
f eder
cin sel</w>
ipl om
p lat
ste in</w>
sağ layan</w>
İsviç re</w>
dik kat</w>
n ün</w>
Brez ilya</w>
ann esi</w>
V ir
mes af
Kad ınlar</w>
takım ında</w>
iş e</w>
Gün eş</w>
ort alama</w>
ım ları</w>
id ar
P ark
ik ler</w>
çocu ğu</w>
mer kez</w>
Th e
üret ilen</w>
) '</w>
9 8</w>
gı ç
kav ram
k ala
p er</w>
ekt ör</w>
mad alya</w>
par ti</w>
durum u</w>
düşün c
8 1</w>
r ad
Müz esi</w>
f et
hal a</w>
sağ lar</w>
o z</w>
ul lah</w>
of t</w>
hay atı</w>
G ül
geçir di</w>
. )</w>
San at</w>
ner edeyse</w>
Mecl isi</w>
196 9</w>
edil mesi</w>
K oc
üy eleri</w>
öğr etim</w>
isti k</w>
Tar ih</w>
o nda</w>
çoğun lukla</w>
b eş
At atür
8 4</w>
c iler</w>
kom p
du var
H or
Ekon om
Yaş amı</w>
N o
yap ılmış</w>
Kul üp</w>
iler den</w>
gir en</w>
19 20</w>
etm esi</w>
ık lar</w>
alın an</w>
kap as
ol mam
P e
kır mızı</w>
ç er
ıl ım</w>
ap ın
film in</w>
n e
Ü r
F lor
al mış</w>
iç indeki</w>
tamam ladı</w>
a it
ah im</w>
19 28</w>
B oğ
a u</w>
git ti</w>
ar aya</w>
d ini</w>
M oğ
gö tür
sanat çı</w>
8 2</w>
oluştur ul
Öz ellikle</w>
d el
sağ lam
idd i
h ep
Kur t
n ü</w>
can lı</w>
ko lay
197 1</w>
yöneti mi</w>
C O
Dern eği</w>
k ın
E x
end üst
baş ta</w>
yer ek</w>
ışt ı</w>
Portek iz</w>
ünd ür</w>
Kad ın</w>
B os
ti h
değ er</w>
ti m
V ar
mes inden</w>
ö nde</w>
Kon stan
Ey al
and ığı</w>
işg al</w>
v ad
d e
8 9</w>
Y ıld
B in
w n</w>
9 1</w>
13 0
L os</w>
Ukr ayna</w>
ort am
den ir</w>
iç ine</w>
k s</w>
düz ey
mil y
mak in
Pa ul</w>
Char les</w>
köken li</w>
n eh
öl müştür</w>
k ov
b is
t el
siy on</w>
eğiti m
bu gün
s ok
dak ik
yar ar
S ağ
ı b
yaş adığı</w>
l is</w>
t ec
teles kop
mahal le</w>
S em
hâ l
V an</w>
men t</w>
196 7</w>
ölç ümü</w>
k ans
ola y</w>
f amil
s ol</w>
Tek nik</w>
ed r
ir di</w>
ett iler</w>
T üm</w>
k ıl
bilin mektedir</w>
iel d</w>
pay laş
Has an</w>
s eyi</w>
baş larında</w>
vatand aş
g ü</w>
O ğ
final de</w>
Atatür k</w>
ı larını</w>
yon u</w>
15 0
r ist
terc ih</w>
W al
l d</w>
c ins
oley bol</w>
D ör
lar daki</w>
çık ar</w>
eler inden</w>
nor mal</w>
olmad ığı</w>
g or
ation al</w>
yayım lanan</w>
l s</w>
H el
Akadem isi</w>
pu an</w>
oyn adığı</w>
lik ler</w>
Kil isesi</w>
ke s</w>
Or t
ığ ından</w>
du k
ter k</w>
t u</w>
m enin</w>
ıs ız</w>
İlç enin</w>
30 0
ask er</w>
iğ inde</w>
Ar d
et me</w>
cih az
kö ş
takım ın</w>
in t
mim ar
bel li</w>
göster mektedir</w>
Macar istan</w>
en iz</w>
ür etim</w>
c oğraf
kur t
K er
uy ru
çağ r
parat or</w>
A ma</w>
A ç
teh lik
der ece</w>
et li</w>
p ren
olo g
k y</w>
dem ir
Bun lar</w>
un van
astr onom</w>
uy or</w>
kulübü nde</w>
ülk ede</w>
çap ında</w>
ç iler</w>
ül ü</w>
196 1</w>
us e</w>
g az</w>
p as
er leri</w>
aş ık</w>
bak ır</w>
tekn oloj
O S</w>
et ler</w>
ag e</w>
is iyle</w>
k ın</w>
at andı</w>
gen ç
Geç ersiz</w>
Le ague</w>
ım ından</w>
tem el
H ac
ur i</w>
M it
lik leri</w>
oyunc usu</w>
in ler</w>
14 0
M ala
ola s
ag o</w>
ey lem
oğ ul
söy ler</w>
sebeb iyle</w>
lu m</w>
dönüşt ür
Mah kem
B a
i es</w>
il l</w>
C as
il k
il ler</w>
Den iz
ad amı</w>
p aşa</w>
gö l</w>
takım ının</w>
performan s
E lek
hat ta</w>
kan ıt
An a</w>
yap tır
ayr ıldı</w>
os t</w>
kuzey inde</w>
yolu yla</w>
ol ma</w>
do s
far k</w>
tah min</w>
özellik leri</w>
s istem</w>
Ne w
K el
c uluk</w>
mes inin</w>
e w
Ş ah
lık ları</w>
p ot
196 5</w>
n et</w>
met al</w>
3 00</w>
ti m</w>
il gi</w>
liğ in</w>
et te</w>
Kar ab
tic ari</w>
c id
ır dı</w>
ığ ına</w>
Ef endi</w>
v anya</w>
durum da</w>
y aş</w>
( )</w>
er n
k ı
D ış
on ay
müz iği</w>
Ç ok</w>
Tan rı</w>
ge ce</w>
S ek
or ijinal</w>
ığ ın</w>
Cam ii</w>
politi k
kend ine</w>
ım ının</w>
yap ısı</w>
ab ilm
s ağ</w>
kon ser
D iv
ac aktır</w>
kur al
S at
l ing</w>
ar ada</w>
aşır ı</w>
196 6</w>
G am
biçim de</w>
gör dü</w>
2 26
L or
yer de</w>
İbr ahim</w>
yayın ladı</w>
p ort
çalış malar</w>
u el</w>
1 17
Dan im
N BA</w>
Ad ay</w>
örn ek</w>
insan ların</w>
Je an</w>
T al
üm e</w>
sür ec
Kon gr
BM M</w>
ı larının</w>
yüksel di</w>
am am
T BMM</w>
len me</w>
yıl lar</w>
el ine</w>
ılığ ıyla</w>
kil omet
z ayı
ş ar
2 17
D el
S osyal</w>
. ,</w>
tr en
nüfus unun</w>
er k</w>
tic aret</w>
ş im</w>
G öz
p il
çek ir
T om
dönem in</w>
I r
19 30</w>
fot oğraf
196 4</w>
İ ç</w>
am acı</w>
an tin</w>
Mic ros
v ok
N ev
kab il
paz ar
ınd ayken</w>
ko le
Stady umu</w>
y ed
et leri</w>
an lay
mağ lu
D is
lık lar</w>
al mak</w>
gen iş
1 16
D önem</w>
ur um</w>
ala nda</w>
n an</w>
et h</w>
A g
R en
ıla c
oluş maktadır</w>
yeti k</w>
mah kem
Ed eb
A ks
or t</w>
mekt eydi</w>
Ç ek
Ab d
dem ir</w>
E st
Y ine</w>
or um</w>
kar arı</w>
Hristi yan</w>
Karad eniz</w>
Arj antin</w>
let ler</w>
doğ um</w>
2 20
kal mıştır</w>
dal g
Mak e
siy ah</w>
hüc re
geç mektedir</w>
el a</w>
194 0</w>
ş er
müz is
Ale x
kültür el</w>
m ot
olmad ığını</w>
sat ış
d iplom
oluştur an</w>
y eş
az alt
teleskop la</w>
" |</w>
I l
L uc
sınıf landır
h ac
Bask etbol</w>
ep e</w>
bilgisay ar</w>
teh d
1 12
s k</w>
İr landa</w>
muşt u</w>
sek iz</w>
Trabz on</w>
Ş ey
ıla cak</w>
ila h</w>
. ..</w>
at i</w>
Micros oft</w>
v ü
pro b
ed ik</w>
g â
mal ıdır</w>
k i
Y al
l it
b y</w>
o j
ati n</w>
Arnav ut
k lasik</w>
Hav alimanı</w>
M ey
ol ik</w>
pro fes
aç tı</w>
Kat alog</w>
ş art
ım ında</w>
d r
gün lük</w>
ail esi</w>
at eş
çalış maya</w>
B ayr
on g
l isi</w>
Pet er</w>
m ec
Gök yüzünde</w>
Hüs eyin</w>
Wor ld</w>
şi ir
ver i</w>
Gran d</w>
köy ü</w>
top rak</w>
Meks ika</w>
ık lı</w>
kil is
S or
sür eç
Belç ika</w>
Z e
gir iş</w>
D okt
aj ı</w>
dü şt
i um</w>
D eğ
örn eğin</w>
R am
ağ a</w>
r ö
Gen eral</w>
ziy aret</w>
oluşt uğu</w>
u la
Al büm</w>
F re
z ir
Bulgar istan</w>
An n
m el
oy u</w>
end ir</w>
196 3</w>
p e</w>
fiz iksel</w>
las ı</w>
sonr adan</w>
yıl da</w>
doğ u
yaz ı</w>
le diği</w>
b ed
Ç if
D ir
en ce</w>
qu e</w>
M i
tes lim</w>
olduğ una</w>
arac ılığıyla</w>
pozisyon unda</w>
ş ah
gör ülen</w>
yap maya</w>
ütüp han
y n
yıl ın</w>
yer e</w>
op ol
s ektör
Göl ü</w>
W ar
H aç
lend iği</w>
list esinde</w>
ıs al</w>
miş lerdir</w>
Antal ya</w>
ler deki</w>
en s</w>
uzun luğ
mü d
V ic
insan lar</w>
yayım landı</w>
eğ ini</w>
I nd
Arap ça</w>
oluştur ur</w>
ro ck</w>
şir ket</w>
d am</w>
dur dur
z af
K im
b alık</w>
M im
g am
bir im
ım ın</w>
eti m
sor um
lu dur</w>
em iştir</w>
baş vur
Kon seyi</w>
sağ lık</w>
K av
Ad ana</w>
iler inden</w>
Süley man</w>
ru h
karş ılık</w>
İspan yol</w>
gerek li</w>
bölg esine</w>
parç ac
1 18
yüz ünden</w>
Gü ven
0 4</w>
am s</w>
seb ep</w>
ım ıyla</w>
hen üz</w>
gele bilir</w>
in li</w>
ku vv
lar ca</w>
L at
T ic
doğ umlu</w>
ler indeki</w>
sözleş me</w>
çık art
u lar</w>
kullan ımı</w>
is yon</w>
böl ün
film de</w>
ın cı</w>
at an
r em
Ç alış
film inde</w>
lik le</w>
B oz
en f
ız a</w>
yap ılır</w>
w it
h uku
ken tinde</w>
S ın
194 4</w>
lu s</w>
ölüm ünden</w>
F el
gör en</w>
P en
man n</w>
etkil en
ol ur
u d</w>
se nd
Par k</w>
dolay ısıyla</w>
M S</w>
K a
y andan</w>
ac ılık</w>
kayn ağı</w>
Han ed
G ro
geç er</w>
D al
D ış</w>
G üm
ar al
say ılı</w>
fark l
6 3
i el</w>
Bir çok</w>
ge les</w>
alar ından</w>
ir o</w>
yap arak</w>
olduğ undan</w>
ac e</w>
sahip liği</w>
ele me</w>
Ç ağ
J os
karş ın</w>
s ığ
ör f
Feder asyonu</w>
siv il</w>
Böl ümü</w>
st on</w>
v on</w>
H ukuk</w>
195 6</w>
Diy ar
S öz
ulu ş</w>
yas a</w>
m edi</w>
uz ay</w>
v i</w>
b on</w>
art ır
0 1</w>
getir ildi</w>
lu ğunu</w>
öz gür
F a
196 2</w>
kayb etti</w>
gıç ta</w>
ley ici</w>
şir ke
An geles</w>
Frans ızca</w>
ot o</w>
maç ına</w>
" (</w>
kah ram
or man
E ş
gö l
ed a</w>
G ol
R ad
w ood</w>
an tik</w>
e a</w>
Eğ er</w>
sı v
güven lik</w>
194 1</w>
ed ebil
yön el
f or</w>
And re
Tak ımı</w>
Müdür lüğü</w>
lığ ında</w>
D es
M en
s uz
2 23
Oyun cu</w>
l ilik</w>
güney inde</w>
ş öyle</w>
an c
dan ış
of f</w>
yür ü
l iye</w>
Kat egor
str at
y s
al d</w>
o da</w>
mu ş
a landı</w>
Siv as</w>
mümk ün</w>
baz ıları</w>
sağ ladı</w>
kes im
g iden</w>
c il
o ta</w>
endüst r
4 00</w>
yat ır
195 9</w>
kad ros
tar ım</w>
A ir
k ar</w>
as lında</w>
adlandır ılan</w>
Sam sun</w>
ar ru
r üt
ad ay
progr amı</w>
ey le</w>
bak anı</w>
la h
kar m
kül tür</w>
Ko le
zeng in</w>
B it
k ış
y ukar
bu gün</w>
l iler</w>
Erk ekler</w>
bo ard</w>
Top l
Erz urum</w>
öy k
değiş ik</w>
gal ib
w ard</w>
An g
D üz
Fran c
B on
Ad ası</w>
yüz ey
a v</w>
J ul
Bab ası</w>
an g</w>
0 9</w>
okul u</w>
g ın
ö dül</w>
h r
toplan t
Ard ından</w>
ön ünde</w>
yü z</w>
rah at
kayn ak</w>
l iyet
haf t
merkez li</w>
ist er</w>
al a</w>
as al</w>
Ar ab
M ark
ç iç
üreti mi</w>
S ef
C er
em r
oyn an
bit ki</w>
an la
b ö
iç e</w>
p le</w>
lis ans</w>
L ev
ik isi</w>
mam ış</w>
liğ inden</w>
Ü y
ro man</w>
H itler</w>
Belediy esi</w>
ayn alı</w>
M ih
Oyun ları</w>
195 8</w>
Mil li</w>
D in
p ınar</w>
ola cak</w>
S S</w>
sen e</w>
b üny
and er</w>
g esi</w>
12 3
un cu</w>
Kon ya</w>
F ati
dak ika</w>
Meh med</w>
yap ar</w>
mü hendis
has tan
uz ak</w>
sağ lamak</w>
B iy
L in
bir inc
0 5</w>
or ada</w>
Ku ş
lığ ının</w>
O per
kr alı</w>
we b</w>
Os man</w>
d iş
Dış işleri</w>
L is
s c
Kr alı</w>
m os
söy len
rek or
b istan</w>
ler di</w>
Ü ç</w>
Kar ş
U nit
S t</w>
ah ş
iler le</w>
sem bol
ç u</w>
ver ilm
yav aş</w>
es eri</w>
es por</w>
195 7</w>
Yo u</w>
cid di</w>
c ılık</w>
N ic
İs ko
his s
B en</w>
den k
0 8</w>
J on
lay ıp</w>
ap ol
Ph il
o do
anlam lara</w>
Ermen istan</w>
k g</w>
O n</w>
194 6</w>
O b
K e
ort adan</w>
kiş idir</w>
hakk ı</w>
ev lendi</w>
dev le
der e</w>
yap ımc
etkil eş
mu hal
göster di</w>
eg em
geç miştir</w>
h el
bar ındır
F u
M ol
akt ör
Thom as</w>
v in</w>
son larında</w>
Mah mu
mod el</w>
4 3
il g
19 18</w>
Den izi</w>
pol is</w>
bab asının</w>
re j
An tik</w>
gerçekleştir ilen</w>
çiz gi</w>
a in</w>
ak sine</w>
Hen ry</w>
ay la</w>
s as</w>
belirt ti</w>
ilişk in</w>
b on
ger il
düş ür
R ob
giy di</w>
Bal ık
yaş ındayken</w>
İs kend
S lov
Ş er
tem elen</w>
195 4</w>
S osyalist</w>
W ash
halk ı</w>
ij ital</w>
M ün
rady o</w>
dem okr
S af
baş arı</w>
ok u
n ö
lar ıdır</w>
is mini</w>
kapsam ında</w>
giz li</w>
üle bilir</w>
ul t
l ok
S w
at om
sür üm
0 7</w>
hid ro
vers iy
v i
Ah med</w>
ıl ığını</w>
mad de</w>
karakt er</w>
ir li</w>
194 3</w>
gü nd
bun ların</w>
la v</w>
do ku
yayın lan
Kız ıl</w>
Make don
Gen ç</w>
l â
Kö pr
seç ilmiştir</w>
uy du</w>
Uz un</w>
at o</w>
N a
und u</w>
bir az</w>
ley ic
R T</w>
gr ad</w>
gid erek</w>
z er</w>
es er</w>
ver il
ned eni</w>
ağ ına</w>
d o</w>
Hristi yan
ak tiv
kiş isel</w>
tik ten</w>
Y ukar
un ma</w>
Ad aylık</w>
Hük û
toplam da</w>
An ayas
ödül ü</w>
Ric hard</w>
gen elde</w>
gerek tir
C ap
A S
matem ati
H int</w>
tut ul
or tak
Ale ks
u f</w>
193 9</w>
at an</w>
Pro j
pro te
Mil letler</w>
hız la</w>
g un
mak al
H P</w>
195 5</w>
ım da</w>
ıs ıdır</w>
st an</w>
p ak
b oğ
lid eri</w>
Wash ington</w>
oc i
an ti
Kategor i</w>
pop ü
Fr i
r u</w>
194 8</w>
takım ına</w>
K os
s ilah</w>
Danim arka</w>
Ç er
kat ılan</w>
öl üm</w>
m ecl
S ol
s i
oyn ayan</w>
eler den</w>
aw a</w>
Rec ord
çev res
N as
düzen lem
B oy
ar lı</w>
Nor veç</w>
şampiy on</w>
z ır
sın ır</w>
giriş im
Film in</w>
olo g</w>
Es kiş
D am
B C</w>
ıld ığında</w>
C la
ler ek</w>
faal iyet</w>
mez ar
V ide
Pro gr
c ık</w>
d esi</w>
P lan
us udur</w>
ma il</w>
Elek tr
gen işlet
f ig
rol ü</w>
Cumhur başkanı</w>
savun ma</w>
isyon u</w>
2 12
özel liği</w>
Bil l
kullan an</w>
sin em
f ı</w>
hak im
Unit ed</w>
5 6
gir miştir</w>
ağ ın</w>
S un
iler inde</w>
tan esi</w>
ler idir</w>
c on
G or
har f
el li</w>
2 18
getir di</w>
seb ep
nes n
Fin land
Kom ünist</w>
liğ inin</w>
Gür cü</w>
D om
h or
ıy or
end ir
al ma</w>
akt an</w>
çık ış</w>
am i</w>
u laştı</w>
g üzel</w>
Ab dül
gerek en</w>
edil ebilir</w>
ver ilir</w>
M aç
en leri</w>
Gün ey
üz el
sağ lay
ik inc
D önem
birbir ine</w>
k ıt
kal ınt
ac k</w>
baş lam
bir isi</w>
ı larına</w>
kav r
D ağı</w>
Ant laşması</w>
h em
tele f
s ıf
başar dı</w>
fab rik
Par lament
W W
Yunan ca</w>
alar dan</w>
asker î</w>
ver mektedir</w>
vers iyon
bölg eye</w>
ser t</w>
B is
L im
Far s
d aş</w>
t eb
ber aber
ık larını</w>
Lo ve</w>
it i</w>
sey ah
hükû met</w>
ey r
li f</w>
al maya</w>
lan abilir</w>
Naz i</w>
re m</w>
s and
lüğ ünü</w>
Fin al</w>
d ek
v et</w>
ad ırlar</w>
le nin</w>
final e</w>
ağ aç
kullan ıldı</w>
ez ya</w>
ed irler</w>
Sa int</w>
üç ük
k od
h ol
h at</w>
ıc ısı</w>
gö v
13 6
h al</w>
mak am
yas ak
politi k</w>
C A
K n
S u</w>
Tiyat rosu</w>
0 6</w>
z or</w>
sür ül
s is</w>
cu lar</w>
dö v
Ayd ın</w>
Kah ram
N E
od ak
ükle er</w>
f ield</w>
Baş kan</w>
Z am
J u
an t</w>
et nik</w>
ed in
on y</w>
Kar ak
m ül
edil diği</w>
mu hareb
bitir di</w>
st er</w>
men su
has t
eder ken</w>
tür üdür</w>
ist en
194 2</w>
hay van</w>
düzen li</w>
itibar ı</w>
et a</w>
ar ya</w>
Eyal eti</w>
y az</w>
ağ aç</w>
kö yü
v ille</w>
İn san
es k
P az
Y us
ım ad
ben im
Ven edik</w>
üm üz</w>
Fati h</w>
D NA</w>
Bill board</w>
kiş iler</w>
şampiy onu</w>
ks on</w>
lay ıcı</w>
il leri</w>
albüm ün</w>
bas it</w>
oloj isi</w>
N ec
bek len
ter s</w>
Diyar bakır</w>
D iz
A l</w>
iş lerdir</w>
prob lem
B az
Yön etim</w>
civar ında</w>
Gel iş
say f
gerek tiğini</w>
ış ını</w>
kol on
haf if</w>
Kıs a</w>
yayın lanmıştır</w>
et ki</w>
al ılar</w>
kul üp</w>
b eğ
la ğ
şehr idir</w>
işt i</w>
s aha</w>
B ud
art tır
t ay
195 3</w>
ar aç</w>
ik li</w>
sür dü</w>
Kır ım</w>
kapas it
Gen ellikle</w>
öm ür
l ib
yaş adı</w>
mily ar</w>
ted avi</w>
v b</w>
ç esi</w>
T ep
gel diği</w>
T as
kat ı</w>
n ad
nokt ası</w>
Ş u</w>
kullan ılarak</w>
Rom anya</w>
Lou is</w>
gü r</w>
Öl ümü</w>
Finland iya</w>
as ıllı</w>
il et
dal ga</w>
kö yün</w>
d ey
la mış</w>
hat ır
Ch rist
gerçekleş en</w>
A R
famil yas
on lara</w>
egem en
0 3</w>
2 24
o lam
Mil letvek
Şampiyon lar</w>
h aber</w>
ist i</w>
ks el</w>
ç eş
b an</w>
uz man
R ady
Ad aları</w>
G a
bas ın
195 2</w>
bab asıdır</w>
Mar tin</w>
yer li</w>
und adır</w>
M ay
N at
ar eti</w>
ı lan
başla mış</w>
kullan ılabilir</w>
çek ilm
l iy
ted av
T ek</w>
bir den</w>
er al
as por</w>
F ir
in ternet</w>
kim yasal</w>
r ib
çık t
F ır
t op</w>
günümüz e</w>
ug os
Sır bistan</w>
mam ıştır</w>
kuvvet leri</w>
seçim lerinde</w>
yönetm en</w>
A lan
ut h</w>
çek ildi</w>
19 19</w>
b ay
ur e</w>
se fer</w>
geç iş</w>
son una</w>
c ek</w>
m ir
s am</w>
ö v
Çan ak
O d
s o</w>
yük se
p ap
öğren ci</w>
T y
n o</w>
Erk ek</w>
a c</w>
ço k
id ae</w>
ekt en</w>
S ilah
y ir
ak ar
leş me</w>
bel g
T üm
görül mektedir</w>
beş inci</w>
isti n</w>
d ığını</w>
sab it</w>
iy ileş
Hük üm
0 2</w>
el le</w>
ilgil en
zar ar</w>
çıkar dı</w>
Ok yan
rap or
V ad
L ist
V iy
tek lif
f os
olduk ları</w>
tah ta</w>
K um
muh temelen</w>
ik e</w>
ul muş</w>
h ukuk</w>
A ug
ot t</w>
im sel</w>
Park ı</w>
il iş
ken ar
imzala dı</w>
l os
p op</w>
y etkil
Ant on
yaz ılan</w>
çalış ır</w>
Rus ça</w>
üreti m
V e</w>
ilişk ileri</w>
ac h</w>
s af
gerek ir</w>
saldır ı</w>
ist asyon
V ik
Record s</w>
im kâ
kayıt larında</w>
23 8
benz eri</w>
le h
ing s</w>
A j
res tor
og le</w>
d ed
ur u</w>
194 7</w>
köpr ü</w>
re ak
bask etbol</w>
F iz
is ar</w>
Gaz i
İs lam
Ku dü
önc eleri</w>
H om
yaş an
diz isinde</w>
sı cak</w>
A il
C ad
s ar</w>
eğ il
K örf
a at
ir leri</w>
isti fa</w>
Gaz et
lam aya</w>
iy atı</w>
M ut
zaman larda</w>
Kut sal</w>
görev lendir
hat t
katıl dığı</w>
er o</w>
baş kan</w>
pot ansiy
Alman ca</w>
zaman ında</w>
kor uy
var say
n y</w>
dal ında</w>
sahip ti</w>
Le e</w>
gün eş</w>
H af
sonuç ları</w>
S istem
ed ip</w>
ekip lerinden</w>
güm üş</w>
15 0</w>
tah t
r id</w>
önc eden</w>
ol umlu</w>
sın ıf</w>
et tiğini</w>
em ekli</w>
d i
geç ici</w>
ed din</w>
Olimpiy at</w>
İn san</w>
böl genin</w>
İs a</w>
il liği</w>
ar alarında</w>
mu haf
Hır v
re f
çalışt ır
Y ugos
S and
s arı</w>
sep h</w>
ren k</w>
194 9</w>
Kudü s</w>
f re
müd ahal
taş ındı</w>
ip p
Mecl is</w>
5 4
amaç lı</w>
C up</w>
uğr aş
b e
sar mal</w>
m e
par ça</w>
Oy un</w>
yeş il</w>
as la</w>
en z
çer çev
re s</w>
Yay ın
b uz
O p
v ik</w>
7 6
ç ak</w>
İ l</w>
prot est
on s</w>
, "</w>
v as
olmad an</w>
bun lar</w>
ser isi</w>
Go ogle</w>
ad am</w>
ec ek
n iş
Jo seph</w>
Afr ik
Konstan tin
ınd ır</w>
an ayas
Kat olik</w>
Üç üncü</w>
193 8</w>
Kay nak
ul muştur</w>
hak ları</w>
malar ını</w>
b öyle</w>
Don an
d et
kor uma</w>
ıl ığında</w>
li e</w>
sor umlu</w>
r ab
İ t
bar ış</w>
Yüz ölçümü</w>
r az
s uyu</w>
y iy
is indeki</w>
Arnavut luk</w>
ç isi</w>
Birleş miş</w>
as a</w>
tiz m</w>
Kom itesi</w>
ail esinin</w>
ad iş
at es</w>
M e</w>
L atin</w>
mü dür
davran ış
fes tiv
yönetmen liğini</w>
Y ol
k a
Ç ağ</w>
eb i</w>
res im</w>
c em
at ör
ag a</w>
bak ımından</w>
çalış ması</w>
ef san
sezon unun</w>
yerleş imi</w>
L ar
alt ındaki</w>
c om</w>
ü ce</w>
kurul u</w>
gı ç</w>
em li</w>
ül ük</w>
j e
Sağ lık</w>
Ön c
( ;</w>
b ür
at lar</w>
ab ı</w>
Joh n
tan ı</w>
Çanak kale</w>
193 6</w>
Fars ça</w>
W at
ağ ının</w>
baş landı</w>
c ar</w>
kat ılmıştır</w>
P i
p ir
le v
gez e
numar aya</w>
performan s</w>
n is
lan arak</w>
karşılaşt ır
Viy ana</w>
C a
ş üp
düzen len
hükû meti</w>
yaş amı</w>
z i</w>
müz ik
Mü hendis
Güven lik</w>
c eph
baş rol
ş if
19 21</w>
un sur
ist ed
başla dığı</w>
Ad am</w>
mağlu p</w>
M ev
At ina</w>
t ro
S tar
y os
ç ak
al fab
sez onda</w>
I D</w>
ı larından</w>
ı lardan</w>
mez un
ol may
f i
Dağ ları</w>
yay ıl
kaz andır
ta arru
toplum sal</w>
n ef
topl uluk
k uyru
İs mail</w>
yet er
N et
S C</w>
anlam da</w>
du lar</w>
C eph
tör en
Mod ern</w>
S tal
mod eli</w>
düny ada</w>
b omb
tür leri</w>
ileti şim</w>
baş lıca</w>
ağ ında</w>
l on</w>
am ik</w>
yön ettiği</w>
yaz ılmış</w>
H ey
S om
durum unda</w>
T es
le ğ
u x</w>
ülke ler</w>
195 1</w>
makt an</w>
n ot
t le</w>
kal p</w>
tak v
D or
193 3</w>
I ş
an ah
kul übü</w>
Yer li</w>
m esinde</w>
f en
san tr
uç ak</w>
oynam ıştır</w>
Vak fı</w>
üc ret
Aç ık</w>
h ayr
um b
ak la</w>
T en
kend isinin</w>
193 5</w>
s ul
göster ildi</w>
an la</w>
Y av
C D</w>
bugün kü</w>
s uy
ar ay
ığ a</w>
zam anlar</w>
p la
ik let</w>
lem eye</w>
Makedon ya</w>
hal de</w>
c ilik</w>
y ok
Mad rid</w>
p lan</w>
hal ka</w>
alan an</w>
s ini</w>
mut f
maç a</w>
Mu h
kö p
an tren
19 23</w>
tern atif</w>
v ol
kad ınlar</w>
örn ek
kay ıt</w>
O c
han ed
B undan</w>
ç ub
28 0
Mur at</w>
sav aşı</w>
Y an
az a</w>
işle v
taşım aktadır</w>
oğul ları</w>
ı lam
Kul übü</w>
19 22</w>
kul landığı</w>
Sav unma</w>
F al
Yıl ın</w>
d iv
tes t</w>
kam u</w>
ö dem
Kul lan
) ;</w>
gil eri</w>
ug h</w>
D üş
g usal</w>
M ek
b akt
rüt b
c üm
Kat ılım</w>
L az
katk ıda</w>
renk li</w>
ó n</w>
ev inde</w>
N apol
m etin</w>
or din
öl ümü</w>
ölç üm
üniversit e</w>
elektr onik</w>
ul ur</w>
Kay seri</w>
S ing
ti dir</w>
ör en</w>
lem esi</w>
Kal esi</w>
ab ilen</w>
kil ise</w>
gö k
Şeh ir
mot or</w>
ist edi</w>
hükû met
b ey</w>
t ez
Ad alet</w>
benz er
P iy
m ent
mi t</w>
ve ç
malar ına</w>
at eş</w>
i ana</w>
Ş ah</w>
eser leri</w>
stand art</w>
Tiyat ro</w>
yör ün
Ö mer</w>
Ev li</w>
mar uz</w>
ab et</w>
Böl ge</w>
d eş</w>
bulund ur
C ih
H y
And r
E dir
il ebil
fin ans
geç miş</w>
hey kel
m is
y or</w>
sanatç ısı</w>
C lu
mad al
sezon un</w>
çö k
st ady
alan ları</w>
D il
H ad
takım ları</w>
Jac kson</w>
sır alam
I S
inc an</w>
P lat
19 24</w>
M ekt
ç ekti</w>
Ap ple</w>
B ek
ı ç</w>
gil ler</w>
İ b
c usu</w>
bas tır
t apın
mad ığı</w>
T am
pren s
duyur du</w>
Bos na</w>
yol a</w>
Akadem i</w>
as tır
yakın larında</w>
ür ün</w>
C at
i do
es e</w>
ist ler</w>
eğ er</w>
ad ının</w>
c ileri</w>
uz an
Demokr atik</w>
ış ma</w>
e o</w>
pet rol</w>
fon ksiyon
K üt
başar ısız</w>
alın mıştır</w>
Mer sin</w>
ok um
değ eri</w>
23 9
At lan
Vide o</w>
e ç</w>
hüküm dar
K iş
Ör gü
uk e</w>
uş u</w>
uygu lama</w>
N ob
d ile</w>
k as</w>
rö port
Er ken</w>
z inc
el t
ic o</w>
En ter
b a
In tern
Moğ ol
n o
ı larında</w>
St ar</w>
d ijital</w>
mem ektedir</w>
mik ro
sür ede</w>
Sam sun
s ek</w>
29 0
kur ucusu</w>
M y</w>
S K</w>
Bar ış</w>
for m</w>
O ne</w>
im inin</w>
du ğ
Büyük şehir</w>
Çocu k
Araştır ma</w>
zor un
Ç ünkü</w>
geç erek</w>
20 9
lik te</w>
er di</w>
ad ayı</w>
H il
kulüp lerinde</w>
c ılar</w>
C in
ed iyor</w>
yaş anan</w>
WW E</w>
k el</w>
lam aktadır</w>
tam onu</w>
tanın an</w>
yanl ış</w>
Yıld ız</w>
23 5
isti h
sch el</w>
t on
mü t
ko z
ar ke
ait tir</w>
le c
at ma</w>
if ik</w>
ro s</w>
bul du</w>
halk ın</w>
Dokt or</w>
Kaz akistan</w>
k us
fon ksiy
ödül ünü</w>
Eskiş ehir</w>
git ar
çocu ğ
Kral iyet</w>
ı larda</w>
H um
Bun ların</w>
yan ına</w>
do lar</w>
sürdür dü</w>
t uğ
ed it
uygu lan
ş ef
iğ in</w>
eti mi</w>
h ek
mit h</w>
c ası</w>
L ak
bah ar
mem iş</w>
grub unun</w>
193 7</w>
bir er</w>
denk lem
b as</w>
i o
ken ti</w>
7 4
ra f</w>
y ordu</w>
Az iz</w>
anlaş ma</w>
ih r
kom edi</w>
karm aşık</w>
K es
ziy aret
akt ör</w>
oc k
tü ke
H ir
gem i</w>
birlik leri</w>
ol um
12 4
aç ıdan</w>
adlandır ılır</w>
ev len
kullan ır</w>
im iz</w>
T ıp</w>
bır aktı</w>
ch ester</w>
der in
harek eti</w>
ist eyen</w>
ş ı</w>
Balık esir</w>
Gaz i</w>
oynam aktadır</w>
hayat ına</w>
çevr esinde</w>
edeb iyat
y m
lig i</w>
Abd ullah</w>
R A
şa ir</w>
d edi</w>
t y</w>
miktar da</w>
D e</w>
H ab
tab ak
kom ün
B üt
Ş i
Ed ward</w>
d adır</w>
Türk men
19 14</w>
mer c
ist atis
aç ılan</w>
Y arı</w>
u şt
" ;</w>
S of
V il
e i</w>
m avi</w>
etraf ında</w>
P ier
film idir</w>
t h</w>
193 4</w>
zir v
mi l</w>
ow n</w>
erk ek
ver mek</w>
Tek n
H u
H iz
K oz
ım lı</w>
26 0
av a</w>
görev ine</w>
yet erli</w>
büy üm
m or
d es</w>
b eb
şun lardır</w>
land alı</w>
r üz
eti yle</w>
As k
edeb iyat</w>
da ir
J un
eder ler</w>
d el</w>
em ez</w>
Her schel</w>
yağ m
ist anı</w>
Bu ff
üy esidir</w>
P op
hay v
kap say
kaç ır
E p
bel ge
s ak</w>
şi ir</w>
eğiti mini</w>
ol makla</w>
iş aret</w>
der s</w>
şark ının</w>
mü sab
karakt eri</w>
6 00</w>
bar d
j a</w>
per son
ail enin</w>
geliş miş</w>
Tic aret</w>
am adı</w>
ot o
Gazi ant
sınıf ı</w>
Tr ans
w ay</w>
s üt
Kür t</w>
med ya</w>
l ob
ev ren
kap alı</w>
ev re</w>
ik ili</w>
yön lendir
hayat ta</w>
tip ik</w>
ö türü</w>
ol ina</w>
un v
strat ej
değ ildi</w>
ıs ındaki</w>
der in</w>
Kurt uluş</w>
ub e</w>
geçir diği</w>
b ek</w>
ib idir</w>
plat form
id ge</w>
ku ş</w>
lu lar</w>
el la</w>
id am</w>
eş lik</w>
ek ibi</w>
iliş ki</w>
giy en</w>
kıs ıt
1 1
yem ek</w>
unvan ını</w>
üy or</w>
numar alı</w>
zır h
S A
bil giler</w>
Mahkem esi</w>
And ro
Kas tamonu</w>
Ban kası</w>
19 25</w>
diğ er
L e</w>
b iz
dav et</w>
grub a</w>
Sonr aki</w>
bağ lıdır</w>
Bla ck</w>
im ine</w>
Bil im</w>
esn asında</w>
aç ıldı</w>
Kaf kas
l os</w>
ur du</w>
ilişk iler</w>
lüğ e</w>
ala c
Sar ayı</w>
yönetm eni</w>
d ans</w>
E ser
ã o</w>
ind ir</w>
bal ık
Lit vanya</w>
seç ilen</w>
Fil istin</w>
dol dur
ı tı</w>
en lerin</w>
o lar</w>
19 12</w>
par al
Pr em
his ar</w>
ülke lerde</w>
N ok
d edir</w>
oluştur ulan</w>
es as</w>
B uc
W ol
19 17</w>
iliğ ini</w>
R ock</w>
düşünül mektedir</w>
L ad
oluştur duğu</w>
etk ileri</w>
ro m</w>
19 27</w>
Ar iz
tr af
kilomet re</w>
ad ım</w>
N ur
ayr ılır</w>
takım larından</w>
imz a</w>
p a</w>
fig ür
ol e</w>
tarih sel</w>
h o</w>
â h
İ dar
bağlant ılar</w>
yans ıt
sistem leri</w>
a b</w>
Öğ r
kes in
sey ir
elend ir
yo nda</w>
büny esinde</w>
gö n
teş vik</w>
c er
yüz de</w>
las yon</w>
sorum l
Edir ne</w>
Tur nuv
t ık
Devr imi</w>
P in
le miştir</w>
yaşam aktadır</w>
ön üne</w>
İm parator</w>
â t
D ep
s burg</w>
ec ik</w>
ort h</w>
mil liyet
kıy ısında</w>
ol maya</w>
taraf ında</w>
versiy onu</w>
or i</w>
gel miş</w>
silah lı</w>
Mus ic</w>
say ım</w>
Mar ia</w>
olac aktır</w>
l ıların</w>
ok un
12 0</w>
sınır lı</w>
kar ıştır
eler le</w>
as it</w>
bir isidir</w>
kür esel</w>
yapıl maktadır</w>
S oy
F ab
25 0</w>
şehir de</w>
n a
R oy
et er
Kür t
et inin</w>
öz gü</w>
karş ılığında</w>
yon a</w>
Pr ix</w>
Sır p</w>
ihtiy aç</w>
komut anı</w>
başlan g
bir inin</w>
kon ser</w>
düş man
M ec
Al l</w>
yazıl ım</w>
hüc re</w>
im ci</w>
ol un
n ak</w>
bağ ış
boy u</w>
ta in
ir se</w>
çık tığı</w>
yönet ilen</w>
os h
Ariz ona</w>
ü cü</w>
W o
St e
N ar
re fer
M y
b iti
kon fer
dör t
d arı</w>
t s</w>
Bak ü</w>
ö nder
malar ın</w>
u ki</w>
tes is
at tığı</w>
tal ep</w>
an ne</w>
Ber n
muş lardır</w>
Kar a
hay at</w>
Man isa</w>
yüksel t
u a</w>
S eb
b ay</w>
tür lü</w>
is kop
ç ya</w>
do st
ti s</w>
b undan</w>
tarih inin</w>
ordus unun</w>
çoğun luğu</w>
çalışmalar ına</w>
tehd it</w>
bask ı</w>
23 7
ad o</w>
for ması</w>
et n
Bul gar</w>
mam aktadır</w>
b om
em ey
ic an</w>
top lum</w>
K im</w>
boz uk
ayr ılmıştır</w>
uvar ı</w>
r ez
Ş ampiy
ar lığı</w>
aras ına</w>
ek ib
durum larda</w>
çev re</w>
yard ımcısı</w>
or g
K ıl
takım lar</w>
day anan</w>
Yön etm
üst lendi</w>
Haned anı</w>
ı ğ</w>
dir ektör</w>
Har ry</w>
T RT</w>
ar acı</w>
ar tan</w>
19 26</w>
B lu
sen esinde</w>
Mas s
sür esi</w>
sistem inin</w>
Portek iz
br on
T ro
re nd
Ask eri</w>
tar zı</w>
tem iz
Selç uklu</w>
s ig
kul landı</w>
Ç ay
göster miştir</w>
g at</w>
gen eral</w>
f at</w>
b ec
p res
al l</w>
yaz ılmıştır</w>
Af gan
B us
nok tas
bölüm de</w>
ur ken</w>
W in
Son ra</w>
Sh ow</w>
gür eş
ek le</w>
Or to
ilişk il
doku z</w>
uz anan</w>
çık ış
tür k</w>
G üzel</w>
Ç am
gönder ildi</w>
mekan iz
c ar
iş ler</w>
Al p
p ark
eğ e</w>
çık mış</w>
yar gı
an im
ind i</w>
belediy eye</w>
önc esinde</w>
alt yap
om a</w>
op h
temsil cisi</w>
B es
yaz mıştır</w>
demir yolu</w>
san ayi</w>
F e
Sez on</w>
müsab ak
al ması</w>
son uç</w>
yaş ad
D ün
s üs
P lay
S SC
A y</w>
ort alam
geliştir ilen</w>
soğ uk</w>
E ge</w>
Kit ap</w>
Yer el</w>
ger ek</w>
er in</w>
eti c
D on</w>
opol is</w>
Ceph esi</w>
Genç lik</w>
F i
büt ün
eğ len
iş gal
O f
V oleybol</w>
le d
açık landı</w>
W est</w>
Bun lardan</w>
las tik</w>
malar a</w>
kayd etti</w>
le ks
Kuz ey
R ol
kur ucu</w>
Ekonom i</w>
olay lar</w>
Yeş il
Yugos lav
N am
tarih lerinde</w>
R od
düğ ünü</w>
SSC B</w>
V as
gör eve</w>
m ag
taş ı</w>
c il</w>
bir iydi</w>
Sel im</w>
ek len
day alı</w>
İspan yol
é r
ab a</w>
yas por</w>
a il</w>
ko lay</w>
olduk tan</w>
nüfus un</w>
Bu gün</w>
den ilen</w>
ek si</w>
ort asında</w>
S as
E leştir
w in</w>
hakk ındaki</w>
lo w</w>
düşt ü</w>
16 8
kal ma</w>
H ot</w>
a landır
oper asyon
y itir
it h
Bağ ım
28 5
Lat ince</w>
man yetik</w>
kad ro
sık lıkla</w>
G ab
t ıp</w>
15 9
ölüm üne</w>
derec ede</w>
görül dü</w>
Pap a</w>
küt le
t iler</w>
Komut anlığı</w>
it er</w>
tep k
30 8
kes tr
n ükleer</w>
P la
r en</w>
193 2</w>
Ç at
Tak ım</w>
29 8
ürün leri</w>
T C</w>
bölg esinin</w>
ı daki</w>
N ak
E bu</w>
U m
al ist</w>
19 29</w>
oluş um
işle tim</w>
Clu b</w>
fr ek
c el</w>
Ch amp
Demokr at</w>
or y</w>
ayd ın
m ara</w>
Man chester</w>
dok s</w>
le yerek</w>
O nun</w>
tarih te</w>
Böl üm
or a</w>
eyr ek</w>
ak rab
devle tin</w>
çocuk ları</w>
As ker
yir mi</w>
i as</w>
b uz</w>
Yugoslav ya</w>
Jac k</w>
S mith</w>
zaman la</w>
mekt edirler</w>
M az
Y am
Mala t
ay da</w>
liğ indeki</w>
du ğunu</w>
Ch ic
hat tı</w>
ans a</w>
vü cu
iş aret
dü z</w>
f üz
iz asyon</w>
Bağ d
C an</w>
s inde</w>
is yan
kısm ını</w>
İ h
av ant
j en</w>
Koc a
iş ç
gün e</w>
kullan ım</w>
ol masını</w>
son u</w>
at h</w>
CO V
Kar ay
K ış</w>
For m
ıc ılar</w>
bal l</w>
otom obil</w>
Ş en
j ür
S tan
tiğ inde</w>
kısm ında</w>
T eş
kend ilerini</w>
bak ış</w>
har it
O v
and o</w>
193 1</w>
z er
B A
â r
on ar
par lament
derg isi</w>
z u</w>
Yus uf</w>
29 7
sh ire</w>
le tizm</w>
sat ış</w>
z ade</w>
tain ment</w>
ge ç</w>
D u
ev in</w>
is h</w>
R ef
Köy ü</w>
Afgan istan</w>
iti f</w>
COV ID</w>
grup lar</w>
t est
G ram
g ur
N i
le kül
mü r</w>
B ed
kıs men</w>
dest eği</w>
Pat r
İl çe</w>
yer lerde</w>
üy ordu</w>
bölge lerde</w>
B i
Fran k</w>
ıld ığını</w>
ant um</w>
G il
sız lık</w>
P ot
t em</w>
dil leri</w>
düz ey</w>
hük üm</w>
Çocu k</w>
oyun a</w>
ay ar
Edeb iyat</w>
V I</w>
u kur
ay larında</w>
uzaklık ta</w>
oyun un</w>
N ov
sür eci</w>
kr al</w>
Kos ova</w>
S us
dış ındaki</w>
ih an
k ol</w>
P ir
kr ist
d ing</w>
sk y</w>
bir imi</w>
R ay
Kar l</w>
8 00</w>
V D</w>
öğretm en
ör tü
ok uy
c us</w>
insan ları</w>
teor isi</w>
gün cel
l ılık</w>
28 9
Tele viz
ru m</w>
a o</w>
m ay</w>
kaz andığı</w>
Enter tainment</w>
c en
r as
w ell</w>
do laş
Baş lan
Say ımı</w>
kın ma</w>
d ay</w>
19 15</w>
iş çi</w>
Al tı</w>
güç lendir
yap ılması</w>
Ç ek</w>
us t</w>
Bil imler</w>
L et
le ti
yıl ların</w>
erk ekler</w>
af f
ett s</w>
gerçek leşti</w>
Yak laş
hastal ığı</w>
es s</w>
inc elen
kom ündür</w>
bah ç
L am
ail eden</w>
Aş ağıdaki</w>
karakter ini</w>
. .
H ig
gazet eci</w>
fet h
Ş an
İd ari</w>
Buff y</w>
y oks
düş ünd
hed ef</w>
L en
ıl masına</w>
tu tar
C han
ay ak</w>
etk in</w>
s üz</w>
Kon fer
dır ım</w>
M ağ
mas a</w>
gör düğü</w>
içer mektedir</w>
C el
çalışmalar ını</w>
müzis yen</w>
malar da</w>
Dan iel</w>
em edi</w>
eb r
kal ır</w>
Kon usu</w>
gazet e</w>
ey gam
f aktör
sak at
ı larla</w>
Haç lı</w>
id are</w>
bir ik
ho ş
gen elinde</w>
ent o</w>
L an
tek lif</w>
29 9
proj e</w>
tab anlı</w>
Li ve</w>
eb e</w>
ov er</w>
S ic
5 3
B lo
d ıktan</w>
E c
al ınd
sol o</w>
h im
vur gu
h ad
eks ik
k il</w>
şt e</w>
in leri</w>
görül müştür</w>
Yıl maz</w>
Vir gin
mem iştir</w>
eleştir men
H id
ach us
Belediy espor</w>
“ "</w>
başkan lık</w>
Tok yo</w>
işle m</w>
( ,</w>
s ent
G elen
ot lar</w>
Mass achus
al ternatif</w>
ge s</w>
tal ık</w>
r it
15 8
edil erek</w>
M üt
p lay</w>
göster ilmiştir</w>
Feder al</w>
şampiyon luğu</w>
yapıl dığı</w>
n ih
öl ü</w>
M an</w>
gö kad
ar lık</w>
20 8
sıcak lık</w>
p e
olum suz</w>
s aç
vi lay
alan a</w>
Sak arya</w>
iv er</w>
tur n
eser ler</w>
eti nden</w>
Ç ele
R ot
Ç eşit
10 00</w>
öldür üldü</w>
mo lekül
P ic
ş em
it tif
ola ğ
Alex ander</w>
kıs aca</w>
Massachus etts</w>
p iş
at lı</w>
merkez inde</w>
kaz and
b esi</w>
d ik</w>
su ik
m acı</w>
kom ş
görev inden</w>
E b
kar ısı</w>
ın ız</w>
yür ür
am ay
ter imi</w>
satış a</w>
tan ış
kan alı</w>
tasar ım</w>
t om
y al</w>
k ış</w>
aş ağ
kal it
Nok ia</w>
Silah lı</w>
gr am</w>
Baş bakan</w>
Bal kan</w>
E P</w>
it h</w>
P ek
á n</w>
lay ık</w>
P u
un t</w>
sür üldü</w>
Dör t</w>
kiş iden</w>
ak ya</w>
gid er</w>
ti l</w>
ilm esine</w>
yaşam ış</w>
J an
y l
ul ması</w>
kor k
Bab a</w>
film leri</w>
gerek ç
bölüm ünü</w>
savaş ın</w>
zayı f</w>
Küt ah
: "</w>
L üb
ard o</w>
a ur
h um
ıl masını</w>
Z aman</w>
yaş lı</w>
çek ilen</w>
Mac ar</w>
iş li</w>
Ço ğu</w>
P res
lam alar</w>
36 0</w>
z ih
İş çi</w>
yap rak
har iç</w>
is co</w>
çalış mıştır</w>
Kom isyonu</w>
Şir ket</w>
oku du</w>
z eh
To ur</w>
alan larda</w>
list esine</w>
kontrol ü</w>
list e</w>
cin siy
ım dan</w>
başar ısı</w>
10 0
bir ini</w>
mah k
Büt ün</w>
ik lim</w>
yar ısında</w>
Trabz on
kiş ilerin</w>
ayr ınt
ş ev
an ti</w>
gol ünü</w>
N o</w>
r eh
par lak</w>
kur duğu</w>
Or han</w>
Ş im
Un ivers
Sad ece</w>
doğr ult
c ep
ağ an</w>
var lığı</w>
seyah at</w>
l iliği</w>
Kaynak ça</w>
N e</w>
b ro
ül kes
kend ilerine</w>
ec h
başlan gıçta</w>
V it
d et</w>
insan ın</w>
müt tef
tur da</w>
dev am
m el</w>
yaz ılı</w>
ön ü</w>
bağlan tı</w>
o is</w>
ab eth</w>
C y
uğ ram
kon us
gen etik</w>
â n
la st
s ömür
alar la</w>
Ş am</w>
isim ler</w>
tekr ar
korum ak</w>
C ev
lar lar</w>
. '</w>
y n</w>
b ina</w>
ah ı</w>
kam u
ar am
akadem ik</w>
R ap
T ut
roman ı</w>
P on
g ayr
anlam ı</w>
organiz asyon
gün ümüz</w>
sıv ı</w>
ot u</w>
B unu</w>
Ç ak
ilişk ili</w>
" ).</w>
H acı</w>
Er tesi</w>
b un</w>
lık tan</w>
Tek sas</w>
at en</w>
bölg esel</w>
p ag
ık lık</w>
St ud
San ta</w>
ıld ıktan</w>
çiz g
â n</w>
siz lik</w>
D ef
f ayd
t ün
B art
er ini</w>
le mektedir</w>
el l
luğ un</w>
S ig
yen erek</w>
in er</w>
den em
kal eme</w>
C E
es in
Orto doks</w>
el in</w>
etm eyi</w>
dağıl ımı</w>
Virgin ia</w>
on ur
P av
ar y</w>
telef on</w>
Kur umu</w>
Uz ay</w>
alan lar</w>
Kafkas ya</w>
ür ler</w>
tas v
i en</w>
Albüm ün</w>
S um
il li</w>
yay ı</w>
diz inin</w>
i al</w>
yayım ladı</w>
geze gen
tü f
Öğ ren
ok s</w>
in en</w>
röport aj
gön ül
ac ık</w>
Con n
at mos
tanın mış</w>
P akistan</w>
laşt ığı</w>
las yon
Em ir
den in</w>
I t</w>
n as
Per s</w>
kazan arak</w>
Büyük elç
a lay
şark ıları</w>
im de</w>
zaman lı</w>
P lay</w>
a g</w>
ü v
oyunc uluk</w>
Sul tan
Al bert</w>
özellik ler</w>
M ot
ih ti
rol ünü</w>
Intern ational</w>
S ir
t el</w>
L ab
öz gün</w>
doğ muştur</w>
d ıkları</w>
iş birliği</w>
Ar ka</w>
k ütüphan
23 4
çöz üm
oğ raf</w>
b ar</w>
R ev
s us</w>
Çele bi</w>
C lar
stat üsü</w>
K ing</w>
kal dığı</w>
a land
kut sal</w>
Kom ünün</w>
t uz
ik ay
kap ı</w>
mümk ündür</w>
dün yas
kah ver
yum uş
say ılabilir</w>
Aug ust
sh ip</w>
şim di</w>
b et
S k
Aleks and
b it</w>
e e</w>
oyuncu lar</w>
ş ov
bölg edeki</w>
dön en</w>
D ok
ınd aydı</w>
abil ecek</w>
7 3
mam ası</w>
sebeb i</w>
alt ıncı</w>
t ıb
ip tal</w>
h ab
Mon t
K ub
ol maktadır</w>
27 8
doktor a</w>
Re al</w>
yer inde</w>
ko ordin
f akül
kitab ında</w>
Ma x
Le on
en gi</w>
lad ılar</w>
yard ımıyla</w>
mekt en</w>
Kar t
T om</w>
H aw
Mar k</w>
Yaklaş ık</w>
n et
başla yarak</w>
El iz
yap ım</w>
Andro id</w>
Mar mara</w>
U ç
c om
Kon ser
ulaş ım</w>
muhal ef
V lad
ç ılık</w>
lo g
kapsay an</w>
15 5
B eh
Mu haf
hal en</w>
getir en</w>
oğ l
Willi ams</w>
Sek ret
Chic ago</w>
bölge lerinde</w>
A st
takım da</w>
Öz ellik
temsil c
Pren s</w>
m on</w>
hazır lanan</w>
otom o
Mün ih</w>
b et</w>
kl ip</w>
Trabzon spor</w>
24 5
yöntem i</w>
Mar y</w>
yüz ey</w>
med iği</w>
par ti
el ler</w>
takım a</w>
şark ıyı</w>
K â
D ön
S oğ
ku b
z eme</w>
ş ö
ş ub
oyun ları</w>
tab lo
der gi</w>
k esi</w>
190 8</w>
Nob el</w>
I n</w>
seç en
Körf ezi</w>
2 1
dönem lerde</w>
Com pan
am in</w>
kur am
kur gu</w>
T av
et tin</w>
l ip
az i</w>
üst ünde</w>
tamam ı</w>
İlç esi</w>
an ılan</w>
et h
for masını</w>
İsko çya</w>
I m
ul t</w>
ik iye</w>
Han ım</w>
v oleybol</w>
do r
yaşam ını</w>
Vad isi</w>
A B</w>
iz len
Su per
D ub
fiz ik</w>
ak ış
gör ür</w>
müz iğ
unv anı</w>
l or</w>
tah r
dil inde</w>
ograf ik</w>
Kütah ya</w>
taraf tar
yapt ıkları</w>
lar ken</w>
Hırv ati
köyü nde</w>
seç il
çıkar dığı</w>
yenil g
em iş</w>
albüm üdür</w>
Yar ımad
dakik ada</w>
T ib
boyut lu</w>
p adiş
o ya</w>
var lığını</w>
N ad
eğ ine</w>
mim ari</w>
D ik
hak im</w>
kır ı</w>
başla dılar</w>
hizmet e</w>
Hırvati stan</w>
Kongr esi</w>
Geor g
ayak lan
us ya</w>
ver gi</w>
önc elik
progr am</w>
yarış ması</w>
Boğ az
Or gan
R i
bulun maktaydı</w>
Futb ol
R ed</w>
Y ağ
Ç ık
halk ının</w>
stand art
O h
U S
seç imi</w>
gö m
tr e</w>
Jer sey</w>
ulaş an</w>
Uy gu
üle bil
G em
14 8
29 5
Nüf usu</w>
kar t
değişik lik</w>
Al lah</w>
bar at</w>
P or
s ed
çöz ün
send rom
ilm esini</w>
Gaziant ep</w>
ç ilik</w>
mezun udur</w>
sav aşa</w>
yol ları</w>
ımc ılığı</w>
komut asındaki</w>
M end
kullan ıcı</w>
h it
edil ebil
Pas ifik</w>
D re
et le</w>
sek ret
fır lat
değer li</w>
m ülk
As s
la l</w>
Tem sil
Am atör</w>
J ef
eğ it
T u
sür ümü</w>
D il</w>
al ıp</w>
am az</w>
ge omet
Baş ar
hız ı</w>
Alt ın
olac ağını</w>
K üb
Dem ir</w>
Kar olina</w>
res sam</w>
bin lerce</w>
Tan r
eliğ ine</w>
N er
edil er</w>
ola sı</w>
u da</w>
lü m</w>
ım an</w>
sergil en
iyileş tir
An ne</w>
karş ılık
s ec
Mahal lenin</w>
ek siy
o tik</w>
C art
göster diği</w>
kaynak ları</w>
otom atik</w>
sağ lamıştır</w>
felsef e</w>
lam aları</w>
re form
organ ize</w>
yak alan
Ze landa</w>
] ]
28 8
13 9
Ma x</w>
lig de</w>
coğraf i</w>
kuvv et</w>
iy el</w>
B ig</w>
göster ime</w>
kıs alt
aş ağı</w>
lendir me</w>
Er doğan</w>
yol c
m ik</w>
an ında</w>
bir lik</w>
kadın ların</w>
Kar s</w>
Öz erk</w>
gü nde</w>
S ok
tep ki</w>
alt er</w>
m ür
ö t
bron z</w>
baş lanmıştır</w>
karşı tı</w>
B und
ır k
aras ındadır</w>
koy u</w>
19 13</w>
ib e</w>
Sin an</w>
oper a</w>
R ah
E sp
ilç edir</w>
git ar</w>
Güm üş
is on</w>
ülk esi</w>
Konstantin opolis</w>
Pro f</w>
op a</w>
arkadaş ları</w>
taş ı
K y
N ational</w>
Mis s</w>
19 16</w>
tan ın</w>
bab a</w>
l ise</w>
lık ta</w>
toprak ları</w>
R um</w>
g ıda</w>
c ısı</w>
â r</w>
Jo han
nes il</w>
t us</w>
belir gin</w>
Üniversit e</w>
Flor ida</w>
araştır malar</w>
eyalet inin</w>
tih ar</w>
zayı f
ç ek</w>
z at</w>
fik r
op e</w>
Dem ografi</w>
sır adan</w>
akadem is
N iş
on unla</w>
ver erek</w>
ev li</w>
İ ş</w>
d işi</w>
Kar deş
e gr
l ine</w>
Ç ağı</w>
Cem iyeti</w>
Malat ya</w>
T it
D ol
k ila
un k</w>
az e</w>
bilgisay ar
mon d</w>
yar ım</w>
uzun luğu</w>
He in
K ur</w>
U lu
” ,</w>
ay lar</w>
c k
tü y
Ch ris</w>
eyal et</w>
gem isi</w>
evl ilik</w>
Compan y</w>
yaş ay
kurulu ş</w>
R oc
As yalı</w>
gönder di</w>
ke y</w>
Pier re</w>
St and
düş en</w>
Ch risti
Lig a</w>
Ser v
en d</w>
geliştir me</w>
13 0</w>
m ede</w>
yap ma</w>
Pa ul
yükse len</w>
m işi</w>
ol sun</w>
isim leri</w>
y el
En er
dar be</w>
M id
A las
F ac
öz erk</w>
başlat tı</w>
Çif t
v it
Kır g
L ife</w>
e us</w>
Her sek</w>
1 10</w>
Y ür
kul üb
Cumhur iyet
Topl uluğu</w>
bölge leri</w>
l ot
â t</w>
gir er</w>
N AT
an lara</w>
Roy al</w>
tan k
film ler</w>
oluştur mak</w>
bask et
konu da</w>
A K</w>
pas ap
M am
Pro fes
m ar</w>
güç leri</w>
değiştir ildi</w>
ülke lerin</w>
olay ları</w>
ekonom i</w>
O lay
yaş ındaki</w>
albüm ünü</w>
D ig
dev leti</w>
durum a</w>
Ma ur
çalışt ığı</w>
Jon es</w>
il ham</w>
oluştur maktadır</w>
e w</w>
ç ileri</w>
düşün ce</w>
tar af</w>
ır sa</w>
İtal yan
kurulu şu</w>
16 7
16 9
kap an
karşı ya</w>
met al
Fri edr
veç li</w>
ol muştu</w>
Kole ji</w>
çek en</w>
mek le</w>
kamp an
belir len
familyas ından</w>
hayat a</w>
gelec ek</w>
ç ay</w>
ey h
s inin</w>
S erb
ik na</w>
ım ız</w>
bo y</w>
al gı
kültür ü</w>
D VD</w>
ay olu</w>
if or
ala bil
kasab a</w>
Siy asi</w>
Ar th
kal ın
res men</w>
söz leri</w>
t ılar</w>
An na</w>
12 9
E laz
F K</w>
ec ekti</w>
kan un
Cez ay
ab ilmektedir</w>
Champ ion
15 7
zam ana</w>
Ağ a</w>
K ent</w>
ik o</w>
Rom an</w>
makt adırlar</w>
sür eli</w>
mü ş
ay lı</w>
em in</w>
Sin ema</w>
h om
oldu lar</w>
düzen lendi</w>
et tikleri</w>
23 6
araştır mac
Eur o
_ _
şim d
at mıştır</w>
alın arak</w>
d ans
şehr inin</w>
ş e</w>
m eli</w>
ık ların</w>
görün tü</w>
d ığında</w>
ağır lıklı</w>
ak ş
ız ı</w>
T C
kay ıp
öğrenc isi</w>
savaş ta</w>
sat an</w>
k ok
su ç</w>
R eg
m 2</w>
s esi</w>
Örgü tü</w>
ış ın
Bölg esel</w>
G ur
ag on</w>
albüm leri</w>
beğ en
h y</w>
çek imi</w>
gerçekleştir ildi</w>
R em
üst e</w>
Türk ler</w>
n eg
s et</w>
Devlet ler</w>
şidd etli</w>
elend i</w>
B ru
g üzel
Su udi</w>
anlat ır</w>
B re
yüz ü</w>
tanın ır</w>
1 19
i y</w>
geç erli</w>
sonr aları</w>
Şan lı
g ur</w>
H ür
w ig</w>
tekn oloji</w>
p ul
Ç orum</w>
eğ iyle</w>
Sanat lar</w>
ders leri</w>
vok al
mat er
as ist</w>
s im</w>
do lu</w>
uç uş
İ li</w>
ol d</w>
V an
us a</w>
ip leri</w>
ik alı</w>
ah isar</w>
oyn ay
N ij
iz ler</w>
değişik liğinden</w>
çek il
ayr ılarak</w>
yüzyıl dan</w>
Be lar
abilm ek</w>
30 5
sor gu
V el
yönetim inde</w>
mit oloj
Lüb nan</w>
ik l
Şanlı ur
Şark ının</w>
Aş k</w>
Rady o</w>
k im</w>
v ez
açık ça</w>
iliğ e</w>
7 00</w>
sorun ları</w>
H â
kel ime</w>
ig an</w>
kon uk</w>
uk ları</w>
Arab istan</w>
ac ak
san ay
p lak</w>
güc ünü</w>
t ok
H em</w>
stat üs
bak anlık</w>
u larak</w>
Amer ican</w>
et r
düş man</w>
albüm de</w>
luğ una</w>
po st
Tok at</w>
paral el</w>
Y u
ak ım</w>
bağ lam
kelim esi</w>
n ah
er tesi</w>
baş lay
po sta</w>
şirke tin</w>
say ede</w>
Bağd at</w>
mahk û
Yüks ek
n az
is yan</w>
San ayi</w>
Un iversit
fik ir</w>
K ütüphan
19 10</w>
mı z
ar z
gör üş</w>
öğ rend
Gru bun</w>
şeh irler</w>
Yıl dırım</w>
yak ala
doğrult usunda</w>
ün c
Son uç</w>
f iyat
fil oz
C ro
T E
haz ır</w>
kıy af
kal mış</w>
hareket e</w>
tarih indeki</w>
es iydi</w>
şüp h
C ur
i v</w>
la bor
aras ından</w>
bü s</w>
konuş ma</w>
poz itif</w>
hap is</w>
al ıdır</w>
kur ucu
parç asıdır</w>
or anda</w>
siyas et</w>
in s</w>
yar ış</w>
mekt up
" ”</w>
K ız</w>
M A
D un
öl çek
yol cu</w>
sor uştur
qu es</w>
alar ıyla</w>
K i
B M</w>
ek t</w>
a x</w>
C re
Kahram an
ıl ıp</w>
gü l</w>
lig a</w>
luğ a</w>
aç ılmıştır</w>
ban k
n etic
v en</w>
Ü sk
İst atis
proj esi</w>
Şey h</w>
T ime</w>
nit elik
matem atik</w>
A nder
s olu
sp on
im parator</w>
parç aları</w>
landır ma</w>
H em
Prem ier</w>
uz at
e nde</w>
Moğ ol</w>
í a</w>
im ir</w>
Türk men</w>
uç uş</w>
S oci
k las
İmparator u</w>
abil irler</w>
30 6
T w
o u</w>
kal ıcı</w>
top lama</w>
şek li</w>
R h
T ol
Z ir
s lan</w>
yarış ı</w>
grup ları</w>
A lan</w>
E z
iv an</w>
gaz i</w>
bey in</w>
Franc isco</w>
Friedr ich</w>
f ol
Ü st
program ında</w>
öl y
ç idir</w>
kıs ım
iliğ in</w>
tiy le</w>
val isi</w>
maç ın</w>
Yard ımcısı</w>
us h
Ş ili</w>
o st
kullan ılabil
kul land
Mu ğ
var i</w>
bul gu
ele k</w>
ort alarında</w>
söyle miştir</w>
bölüm leri</w>
hastal ık</w>
A mas
bul uş
tarih ine</w>
lis ans
n es</w>
dış ına</w>
ac e
bır akt
or man</w>
19 00</w>
ec ilik</w>
Alt ay</w>
Sc ott</w>
birey sel</w>
T apın
ar dı</w>
ev ine</w>
NAT O</w>
lid er</w>
P S</w>
en os</w>
zorun lu</w>
h ar</w>
köy de</w>
İn ternet</w>
giy mektedir</w>
Çeşit li</w>
c he</w>
anal iz</w>
nok ta</w>
kar bon</w>
Gram my</w>
y uv
ev leri</w>
if t</w>
mü hend
el idir</w>
ayr ılan</w>
yak ıt</w>
kaç ın
us tin</w>
t ül
kıy ı</w>
K eş
yay gın
üst ün
ch er</w>
Gir es
d em</w>
â tı</w>
dış ar
14 7
Fer n
bağ l
dön üş</w>
Y oz
h ep</w>
as e</w>
K lasik</w>
al g
Hükû meti</w>
ev a</w>
Ekonom ik</w>
N ih
i or</w>
iz min</w>
ber to</w>
Sch o
ly wood</w>
Kızıl der
D ay
p enc
çağ daş</w>
mev k
Art vin</w>
ş eyi</w>
und ur</w>
festiv al
in tihar</w>
B ec
m ali</w>
ü t</w>
doğu da</w>
C amp
ed iyordu</w>
ödül lendir
20 5
kullanıl ması</w>
Hal il</w>
az ın
Fin ali</w>
part inin</w>
im inde</w>
kar deş</w>
bel i</w>
b ot
kal k
fiz ik
söz ü</w>
Bar bar
makt ır</w>
dön er</w>
cev ap</w>
ey ken</w>
kapsam lı</w>
labor at
F at
id eki</w>
tasv ir</w>
bil imi</w>
ind endir</w>
tik çe</w>
birbir inden</w>
Qu e
mal zeme</w>
b en</w>
ver meye</w>
yürü yü
B ot
bu lam
ış ın</w>
iler leyen</w>
Mus a</w>
hep si</w>
inş aat</w>
C HP</w>
Le w
Tas ar
K K</w>
un ut
yakın larındaki</w>
am e</w>
P ow
gör sel</w>
der n
şark ılar</w>
Erz incan</w>
en ko</w>
r ar</w>
bin ası</w>
B BC</w>
h oc
r iv
or lar</w>
gör ülebilir</w>
yer leri</w>
top lu</w>
gerçekleştir di</w>
B ut
ıs ız
n ehir</w>
prot ok
sek iz
anla tan</w>
tasar ımı</w>
N es
d ele
şehr istanı</w>
p eş
Ail esi</w>
i b</w>
uç ak
Mez arlığı</w>
ler ken</w>
öğ ret
uzunluğ unda</w>
po ol</w>
d ak</w>
ü leri</w>
organ ik</w>
nam e</w>
kiş iye</w>
lüğ üne</w>
an üstü</w>
lığ ından</w>
Stal in</w>
19 11</w>
mekt ir</w>
Eliz abeth</w>
anlaş maz
D um
hazır lık</w>
olan ak</w>
Gün ü</w>
Ç iç
24 7
üst lenmiştir</w>
gerekç esiyle</w>
araz i</w>
serv is</w>
oyn ad
T A</w>
iz mi</w>
cam i</w>
bas ın</w>
yaln ız</w>
ol masından</w>
Konser vat
G ön
res t
İskend er
il in</w>
dü ler</w>
m us
y r
et ini</w>
Er n
elen miştir</w>
b le</w>
ağ ından</w>
J es
yer leşti</w>
sev gil
Vi lay
du yar
ed ecek</w>
yap ımcı</w>
ık öy</w>
ir lik</w>
nit elendir
etn am</w>
z ek
Pet er
Doğ an</w>
düzey de</w>
Deniz li</w>
son larına</w>
kat li
) :</w>
ç el
res im
kom ünist</w>
on i</w>
len erek</w>
ger eği</w>
Alas ka</w>
ut e</w>
dön gü
of f
hiz meti</w>
? "</w>
mes idir</w>
Kor uma</w>
H ö
bak an
pet en</w>
SC O</w>
C av
Vi etnam</w>
yüzyıl a</w>
iyet ini</w>
m un
aş k</w>
ا ل
katk ı</w>
Vic tor
R ize</w>
R NA</w>
g ıt
Bir lik</w>
albüm ünde</w>
dikkat e</w>
Üy eliği</w>
S ub
y urt
bulun uyordu</w>
ilç esinin</w>
ing er</w>
Öz bek
reak siy
karşılık lı</w>
B ad
d y</w>
k imi</w>
Pol on
Sistem i</w>
S ant
doğ a</w>
İç işleri</w>
Kar ac
sistem in</w>
kanal ında</w>
p iskop
ç ısı</w>
h is</w>
k üçük
dev re</w>
for mat
Mil let</w>
Kal kınma</w>
u ğunu</w>
bir im</w>
canlandır dığı</w>
fot oğraf</w>
sığ ın
P ala
24 6
uygulam aları</w>
A N
U NE
h ız</w>
at ın</w>
Y or
dö k
m o</w>
İmparator luk</w>
J or
Aş ağı</w>
S ün
r on
tarih çi</w>
saldır ısı</w>
kullanıl dığı</w>
bil gileri</w>
Mar din</w>
Yarımad ası</w>
Y ör
An gel
alan ına</w>
uy um
çekir değ
Serb est</w>
A yak
S ed
le z
etm işlerdir</w>
Anayas a</w>
ıl maya</w>
yap ımcısı</w>
olay ı</w>
y ada</w>
ok yan
K amp
tü c
y ab
ru h</w>
ç ılar</w>
gor it
kavr amı</w>
Şanlıur fa</w>
yenil en
danış man
Okyan usu</w>
Arth ur</w>
C um
s ül
kul u</w>
İskend er</w>
iy etin</w>
redd etti</w>
B od
maç ları</w>
Sal dır
ind iğinde</w>
H ip
par ta</w>
Bil g
topl uluğ
Cumhur başkanlığı</w>
D P</w>
H ap
O x
Bir kaç</w>
ti c</w>
et ine</w>
yap ıt
ro pol
göster ilen</w>
albüm ünün</w>
bakt er
Mar ie</w>
sınır ı</w>
Da ir
yap arken</w>
adam ları</w>
huku k
am atör</w>
z o</w>
taş ır</w>
ec t</w>
dayan maktadır</w>
y uvar
ve s</w>
ilişk isi</w>
yap ılacak</w>
boz ul
y ağ</w>
Mad al
cin ay
sin ir</w>
bağımsız lığını</w>
E u
Ş ek
on ca</w>
17 5
bat ıda</w>
yoğun luğu</w>
An ti
s üper</w>
pu anla</w>
dol f</w>
yürüt ül
lü dür</w>
Kon t
Tar ım</w>
s oy</w>
y etk
kur u</w>
End on
La ur
h ur</w>
Frans ız
Form ula</w>
H ayr
es ter
Mer c
gö ğ
sağ lan
kom şu</w>
tay in</w>
Böl üm</w>
kö le
10 9
Tem el</w>
ger iye</w>
faz la
yöneti c
komut an
ala t</w>
for vet</w>
Mat em
Bol şev
ati l</w>
değiş en</w>
yed inci</w>
süreç te</w>
üst ün</w>
Wil hel
Mahmu d</w>
L y
üy eliği</w>
la t</w>
Dönem i</w>
N um
p al
u ları</w>
Fil ip
Kan al</w>
sar ay</w>
Afrik an</w>
dok un
galib iyet</w>
Yo ung</w>
Karad ağ</w>
it z</w>
Bro wn</w>
sözc üğü</w>
film inin</w>
zeng in
vaz geç
Belar us</w>
T rak
ek lerin</w>
( %</w>
s undu</w>
em ektedir</w>
değişik likler</w>
20 6
cez a</w>
laş mış</w>
şark ıc
Kan unu</w>
et mişti</w>
diğ erleri</w>
Col le
basket bol
Car los</w>
mey ve</w>
asker leri</w>
M TV</w>
it leri</w>
çık arak</w>
seç ilmiş</w>
Kır mızı</w>
Str e
U ş
M eş
end en</w>
pol is
öğren imini</w>
eng iz</w>
Mey d
f e
kal ın</w>
kan un</w>
E in
kullanıl maya</w>
an ce</w>
abil eceği</w>
fik ir
UNE SCO</w>
çalış maktadır</w>
luğ unun</w>
lüğ ünde</w>
k and
İl işk
kon sol
önem lidir</w>
başken t</w>
f an
ins anı</w>
luk ları</w>
üç lü</w>
has ar</w>
A P</w>
paz arı</w>
ım sal</w>
yayım lan
def n
29 4
Os car</w>
geçir en</w>
m and
Car l</w>
t s
ol masıdır</w>
oluş uyordu</w>
bul ur</w>
il yalı</w>
Has tanesi</w>
eyalet ine</w>
ge lerek</w>
St ev
biy olojik</w>
sahn eye</w>
e on</w>
ker e</w>
küt le</w>
r ich</w>
aç an</w>
ent egr
S E
ığ ının</w>
oks ij
imparator luk</w>
rol üyle</w>
il d</w>
ç eşit</w>
18 0</w>
Ot om
Yoz gat</w>
yön tem</w>
ism iyle</w>
bırak ıldı</w>
List esi</w>
For d</w>
ser isinin</w>
kit le
Se lan
ar ama</w>
iz m
ulaş mıştır</w>
190 9</w>
Jos é</w>
Cad desi</w>
ad ıdır</w>
belirt miştir</w>
sonuç lar</w>
gel diğinde</w>
at arak</w>
14 5
d al</w>
tarih inden</w>
dayan ır</w>
B eş</w>
L ef
Do wn</w>
başlan gıç</w>
best eci</w>
Hal k
yum ur
Kiş isel</w>
Cezay ir</w>
toprak larına</w>
astr onom
Bund es
In ter
em in
16 6
ter fi</w>
eg a</w>
profes ör</w>
W rest
ar ları</w>
ver miş</w>
ic al</w>
ülk eye</w>
uv ar</w>
hip ot
yarış ma</w>
t rop
ado r</w>
H on
Est onya</w>
C ast
ken tin</w>
ö len</w>
ado n
Kongr e</w>
S n
b uc
akt aydı</w>
yon un</w>
belir tir</w>
kam era</w>
tar ak</w>
aç ar</w>
bul ut
Yer leş
bildir di</w>
nis peten</w>
M üc
Fran k
İb n</w>
K ent
sistem ine</w>
İspanyol ca</w>
fır s
Ang el</w>
s osyalist</w>
is s
kariyer ini</w>
c e
üst lendiği</w>
ik lerin</w>
ço ğunu</w>
K onu</w>
ç eyrek</w>
müşt ü</w>
ing en</w>
işlem i</w>
mekan ik</w>
ila ç
b ez
ş ansı</w>
mü kem
B ay</w>
V o
r eli</w>
v eda</w>
bölg eyi</w>
tec r
final inde</w>
öz ü</w>
söy lem
U ğ
ist ediği</w>
oluştur du</w>
ıl ma</w>
eler iyle</w>
Hal ep</w>
kı v
ücret siz</w>
re g
ç am
Kend isi</w>
İt tif
T ev
um un</w>
düz elt
hikâ ye</w>
Başlan gıçta</w>
Muğ la</w>
el lo</w>
Z ey
o ları</w>
s osy
w a</w>
gel indiğinde</w>
laştır ma</w>
H ot
meler ini</w>
Milletvek illiği</w>
ayı p</w>
duk ları</w>
c eli</w>
v ey
tan ı
D izi</w>
M ans
farkl ılık
L E
s h</w>
Tur u</w>
diz ide</w>
e ar
az ak
27 9
üy elerinin</w>
Ph one</w>
vü cut</w>
ç ilerin</w>
kurul ması</w>
P il
etm esine</w>
Öğr etm
Dün yanın</w>
Televiz yon</w>
23 3
rak am
John son</w>
Sp r
performan sı</w>
Tim es</w>
Kahraman mar
C es
M E
tü ken
getir ilmiştir</w>
s kor
ge ler</w>
eti k
getir miştir</w>
ebil en</w>
; /</w>
N ah
la manın</w>
m es</w>
ç elik</w>
mes aj
katıl ımc
kol u</w>
s ının</w>
yap ılar</w>
ulu ğunu</w>
At letizm</w>
Jo e</w>
graf ik</w>
ik ten</w>
kur may</w>
yüz ölçüm
uygu lanan</w>
sü per
kad ının</w>
sır t
S A</w>
g ül
Ma ine</w>
! "</w>
P A
ele man
L eh
ik lim
ülke leri</w>
esk iden</w>
do s</w>
m as</w>
elen en</w>
sim um</w>
ak ıllı</w>
kazan mış</w>
birbir lerine</w>
hap is
tıb bi</w>
yar alan
Donan ması</w>
ku antum</w>
28 4
gir diği</w>
şark ısıyla</w>
" ’</w>
sun uldu</w>
Ra w</w>
duğ unda</w>
Gelen eksel</w>
Hol lywood</w>
iğ ine</w>
Sar ay
eğ inde</w>
Değ iş
doğ us
olduk larını</w>
Pr usya</w>
b o</w>
ark asında</w>
mad di</w>
Hak k
potansiy el</w>
yayım lanmıştır</w>
g n
ig ht
Yaş am</w>
L iv
bal ığı</w>
Ayd ın
D im
f ik</w>
sor un</w>
spor cu</w>
bis ik
kole ksiyon
ru s</w>
sür eç</w>
alan larında</w>
yokt u</w>
y aları</w>
ver ilerine</w>
malar ının</w>
İbr an
geç er
eg o</w>
r ü</w>
t ac
mahalle si</w>
Bal kan
R ed
s üz
u kat
tah min
sar ay
G ünd
dah i</w>
Ann esi</w>
D üny
tur izm</w>
bul mak</w>
dönem inin</w>
ru l</w>
est ra</w>
Yeş il</w>
il ki</w>
Yay ın</w>
Anton io</w>
yıl dır</w>
b lo
getir ir</w>
H ug
ir al</w>
dü n</w>
siyas al</w>
üğ ünü</w>
H ur
R ek
sp ekt
kolay ca</w>
l ileri</w>
ger s</w>
çek ilmiştir</w>
25 5
sözc ük
B alt
art ış</w>
T op</w>
yay g
doğ um
tü ket
şidd et</w>
diplom atik</w>
id o</w>
12 5</w>
Kır k
ksiy on</w>
K endi</w>
g s</w>
eng el</w>
ati k
Mar t
M üf
top lanan</w>
ian o</w>
bölg esinden</w>
üst üne</w>
190 5</w>
in f
çağ ır
D E
sın av
mo lek
kar anlık</w>
bayr ak</w>
. &</w>
F ah
An th
h uz
Cez a</w>
V II</w>
tir ler</w>
kam er
o ann
Ül kenin</w>
Küb a</w>
C orn
iş ini</w>
T if
sistem ini</w>
Hal l</w>
l us
kl ibi</w>
em ek</w>
cumhur başkanı</w>
işg ali</w>
ver imli</w>
iliğ inden</w>
R ıza</w>
ıl maz</w>
T am</w>
bur aya</w>
s itesi</w>
Ş ar
aş ir
ön lemek</w>
ser tif
olduğ unda</w>
- -</w>
d un</w>
inan ç
rüz gâ
ag u
örn eği</w>
Parlament osu</w>
as on</w>
N iz
tür et
Es k
İş let
çarp ış
sır aya</w>
diz isinin</w>
tamam lamıştır</w>
etkin lik
anah tar
E ver
Ju an</w>
ec ti
geliş me</w>
nüfus lu</w>
bulun ması</w>
belir lenmiştir</w>
iliğ ine</w>
uygulam ası</w>
28 3
Wh it
30 7
Köpr üsü</w>
/ /</w>
at ıf
yerleş im
Sic ilya</w>
Ar ist
14 0</w>
tele fon
yos unu</w>
as ıydı</w>
Mahmu t</w>
K üçük
l it</w>
bun lardan</w>
üğ ünde</w>
P C</w>
Baş ka</w>
35 0</w>
Amas ya</w>
Y aş</w>
takım ıyla</w>
Y ani</w>
af er</w>
kr on
em ek
kar ahisar</w>
saldır ıya</w>
Ö lüm</w>
oy unda</w>
r ev
t ığını</w>
Ö lüm
ol mayı</w>
Fin al
ig n
ter im
dük ten</w>
mu t</w>
ahş ap</w>
p s</w>
üret teb
bask ın</w>
bağlant ılı</w>
hâl â</w>
uz u</w>
and ar
lık larını</w>
am et</w>
çıkar ılan</w>
Şehir deki</w>
N it
op tik</w>
geç miş
matemati k
d ev</w>
i en
Kan ad
meler ine</w>
Res mi</w>
kök eni</w>
duk tan</w>
Yukar ı</w>
C le
ö k
tarih ten</w>
Müt tef
yıl dan</w>
an ge</w>
Sp or
bilg isi</w>
ab i</w>
hal i</w>
Mal ta</w>
kadros una</w>
den et
ac aktı</w>
anlay ış
ilişkil endir
otomo bil
St eph
gazet esi</w>
187 8</w>
m anda</w>
İn c
bo ur
dav a</w>
yukar ı</w>
şimd iki</w>
başkan lığını</w>
öyle likle</w>
güven li</w>
S B
Savaş ları</w>
sc he</w>
in ik</w>
diğ ine</w>
küm e</w>
L aw
il ke
ün ce</w>
şek er</w>
str üm
Col umb
bec er
bel d
br idge</w>
adon na</w>
ti a</w>
or g</w>
yap ay</w>
yüksek liği</w>
tr en</w>
eser inde</w>
yaş ar</w>
Kral içe</w>
kop ya</w>
N av
N ag
ad i</w>
par k</w>
rek lam</w>
an ının</w>
un e</w>
Ağ rı</w>
geliştir ilmiş</w>
sık ınt
bö c
top rağ
190 7</w>
Fran ço
Harek eti</w>
wit h</w>
ır ı</w>
açık lama</w>
t ap
kl or
öğretm en</w>
r ay
ed ici</w>
kor ku</w>
sand al
Colle ge</w>
G B</w>
mad ığını</w>
otor it
W est
ev ler</w>
M avi</w>
nokt ada</w>
yakın ında</w>
Li ver
elektr on</w>
Sanat çı</w>
lad ıktan</w>
sub ay</w>
a alanı</w>
diğ eri</w>
S hak
il idir</w>
gr i</w>
politi kası</w>
Do lay
An tak
10 5</w>
geliş en</w>
Yahud iler</w>
16 3
bur adan</w>
Ham il
gerç ekten</w>
kadros unda</w>
jür i</w>
ihtiy aç
Tay lor</w>
Koca eli</w>
H ann
N ot
C ela
ib er</w>
derec esi</w>
P ed
an j
om p
bayr ağı</w>
kur t</w>
h ır
10 1</w>
tür k
Brez ilyalı</w>
O m
k üç
Selan ik</w>
len t</w>
En g
alın ması</w>
K ans
şampiyon luk</w>
Com p
kahver engi</w>
9 6
gör müştür</w>
kariyer inin</w>
ren gi</w>
bu dur</w>
bun ları</w>
k lu</w>
ov ić</w>
tek er
ziy ade</w>
Vlad imir</w>
kon gr
ayr ım</w>
tasar lanmış</w>
faaliyet leri</w>
en li</w>
isti s
Bil gi</w>
best ele
D C</w>
Y el
un i</w>
ab at</w>
Bo b</w>
B olu</w>
biçim inde</w>
dönüştür ül
Samsun g</w>
f ak
14 6
Kahramanmar aş</w>
L ind
b eyi</w>
ter im</w>
duy gu
tiyat ro
yapımc ılığını</w>
D ay</w>
D oc
ek im</w>
16 0</w>
s om
rek lam
yarar lan
Wilhel m</w>
R io</w>
d s</w>
Y er</w>
s ur</w>
len mektedir</w>
ko v</w>
Pr im
ul us</w>
diğ inden</w>
gerek mektedir</w>
Doğ al</w>
bir ine</w>
ş ans
konuş an</w>
Kar am
M adonna</w>
ind eydi</w>
em esi</w>
sendrom u</w>
D ük
T Ü</w>
os lov
hizmet leri</w>
tutuk landı</w>
başlang ıc
om en</w>
ve fat</w>
Siy asal</w>
uy uştur
rap or</w>
H ong</w>
p üs
bölüm ler</w>
Ül ke</w>
g us
y em</w>
iler iyle</w>
Yav uz</w>
8 6
say ıları</w>
26 4
C em</w>
M etin</w>
T ac
eğ inin</w>
ec ekleri</w>
bulun muş</w>
gel ip</w>
Elaz ığ</w>
görün ür</w>
görev inde</w>
Konfer ansı</w>
çocuk lar</w>
feder al</w>
m iy
ek r
uz ay
kila tı</w>
özel lik</w>
f t</w>
n ez
R on
st eri</w>
P y
x y</w>
il ip</w>
plan ı</w>
paz ar</w>
A ut
geç tiği</w>
Yön etimi</w>
e x</w>
gir erek</w>
man t
24 9
in tik
cez ası</w>
T ir
r ic
gr am
canlandır dı</w>
tür ler</w>
Ö te</w>
bilin memektedir</w>
k eli</w>
Ç arş
bölg esindeki</w>
Aş ağ
188 6</w>
ian us</w>
F ik
26 5
sin yal
üret en</w>
Endon ezya</w>
in us</w>
Biz ans
netic esinde</w>
A pol
H ikâ
ti ş
kö ğ
san iye</w>
öz gür</w>
for masıyla</w>
kaynak lar</w>
y s</w>
ol masının</w>
kav uş
kir alık</w>
K op
Gires un</w>
Özbek istan</w>
o h
tan ındı</w>
amam ıştır</w>
p and
lü ler</w>
P sik
T ot
Pen sil
suy un</w>
üm lü</w>
ilm eye</w>
değiş im</w>
değişik lik
ald ılar</w>
al gorit
müşt er
ayır t</w>
A da</w>
z aten</w>
f ah
l é
as ız</w>
eleştir iler</w>
Lew is</w>
is h
luk lar</w>
Şir keti</w>
U ru
g ey
g ayet</w>
or adan</w>
13 5
değiş ir</w>
kaynak larda</w>
fre d</w>
ikti dar
sız ın</w>
am ış</w>
Kup a</w>
T Ü
² '</w>
az lar</w>
17 4
dönem ine</w>
Tur izm</w>
he im</w>
The odo
H es
ust a</w>
Kul üp
oluş muştur</w>
çerçev esinde</w>
ek ran
ing ham</w>
Wo od
d ram
v el</w>
gu t</w>
list elerinde</w>
Pensil vanya</w>
se a</w>
tamam layan</w>
dep las
Fel sef
kar t</w>
kr izi</w>
düzen ledi</w>
it o</w>
mişt e</w>
müz ikal</w>
Christi an</w>
şar ap</w>
u h
at ıl
es iz</w>
em ir</w>
n an
Kit ap
Mih ail</w>
çalış ırken</w>
y eğ
sür müştür</w>
büyük elç
Fo ot
basın ç</w>
kullan mıştır</w>
alın mış</w>
İst asyonu</w>
Gro up</w>
kan at</w>
gir miş</w>
kır sal</w>
Kam u</w>
W it
10 5
c am</w>
öğren im</w>
Su per</w>
Scho ol</w>
uzak laştır
olur sa</w>
y önde</w>
ah am</w>
lin ois</w>
Yahud ilerin</w>
" :</w>
n iyet</w>
bağ ır
ilm esiyle</w>
kim ya</w>
kala balık</w>
G ot
L enin</w>
is ke
gen e</w>
iç inden</w>
müz ak
halk lardan</w>
s til</w>
or k
gerek tiği</w>
inan c
p eygam
â z
il de</w>
ast er</w>
yürür lüğe</w>
f o
p i
çev re
K le
açık lamıştır</w>
yarış mada</w>
olan lar</w>
ig a</w>
kat ılmış</w>
Si bir
/ &</w>
merkez idir</w>
Öz gür</w>
bağımsız lık</w>
an cı</w>
gerek sin
geril im</w>
H ill</w>
T ru
rak ibi</w>
cumhur başkanlığı</w>
G S
k m2</w>
ür ken</w>
num ara</w>
mağ az
Sim on</w>
G ez
mensu p
am b
sistem inde</w>
Oğ uz</w>
Karab ağ</w>
Sef eri</w>
A ir</w>
S es
s ir
ist eği</w>
ek ip</w>
kö tü
etm esini</w>
başar ısız
Lib ya</w>
ihr ac
R ey</w>
D S</w>
eg en</w>
grup tan</w>
alış ver
Tim ur</w>
atmos fer
f e</w>
zam anı</w>
Liver pool</w>
n at
ar ay</w>
an ına</w>
olac ağı</w>
id in</w>
St eve</w>
elek tro
por t</w>
d im</w>
n ik
n ot</w>
ör ler</w>
Osman lılar</w>
mal iyet
sey r
an n</w>
Te am</w>
e x
ik lerini</w>
mon t</w>
Sın ıf
ol malıdır</w>
Yas ası</w>
baş lıklı</w>
oynam aya</w>
P am
ç an
et s</w>
ver ilmektedir</w>
i lan
ris k
p ek
ç em
ek ran</w>
kap lı</w>
mev sim
eks ü
yer ler</w>
tan ıştı</w>
şark ısını</w>
San c
sec tion</w>
b ağ</w>
und uğu</w>
şeh re</w>
As lında</w>
tan k</w>
geliş imi</w>
Ber g
Çek oslov
Hüküm eti</w>
P op</w>
Br un
rek abet</w>
madd eler</w>
sap tan
at ının</w>
yaş ta</w>
G üzel
n ing</w>
G ra
du c
etk isiyle</w>
isti kr
Ven ez
Sar ay</w>
S üm
doğ ur
uç ağı</w>
Meyd anı</w>
aş kın</w>
bur y</w>
Yal n
Kanad alı</w>
29 6
mil li</w>
H ik
r on</w>
Em ir</w>
nah iy
b iye</w>
ke tin</w>
getir diği</w>
oks it</w>
arab a</w>
düğ ünde</w>
Napol yon</w>
M S
ı oğlu</w>
res sam
ekonom isi</w>
Kaf kas</w>
A ile</w>
rez er
Universit y</w>
Mar s</w>
hastal ık
H ız
am el
best ec
O z
say ısının</w>
ülk eden</w>
Seç imleri</w>
getir ilen</w>
Mir ası</w>
Bil l</w>
yal ılar</w>
ast ır</w>
bür okr
ed iğini</w>
Bo ston</w>
Victor ia</w>
Portekiz ce</w>
kur muştur</w>
program ları</w>
gol le</w>
R ub
a w</w>
ov iç</w>
Kor eli</w>
bah ar</w>
im içi</w>
it al
bir imleri</w>
ren in</w>
hâ len</w>
kitap ları</w>
sü t</w>
soğ ut
bel lek</w>
M otor
S ap
T uğ
Y at
z ey
Ç al
ör lük</w>
ond ur</w>
miktar ı</w>
Christ op
A C</w>
C ann
t edir</w>
Ül k
zırh lı</w>
Ar ena</w>
Kon feder
Madal yası</w>
ti ka</w>
G on
Gör ün
C ru
n el</w>
Güney doğu</w>
gönder ilen</w>
ser g
mac er
ılık la</w>
Il linois</w>
r esi</w>
13 3
Par t
ila ç</w>
kategor isinde</w>
D S
matemati ksel</w>
destek leyen</w>
Yo u
yöneti ci</w>
asker ler</w>
politi ka</w>
özellik lerini</w>
ro v
Mühendis liği</w>
Franço is</w>
T ony</w>
ş ah</w>
ağ ıdır</w>
uc h
eceğ ine</w>
Fo x</w>
elik op
R y
ak ı</w>
ek lerini</w>
az al
kan al</w>
sal tan
bir inde</w>
say gı</w>
san c
190 6</w>
kariyer inde</w>
kat man
St ef
luğ unda</w>
Oh io</w>
yaz an</w>
l ıyor</w>
î ler</w>
as an</w>
at ıldı</w>
ip ler</w>
Fran ce</w>
Trak ya</w>
püs kür
C engiz</w>
17 7
ku t</w>
ıla ma</w>
len ebilir</w>
J im
şampiyon luğunu</w>
tat lı</w>
D ic
yap ım
düny adaki</w>
müdahal e</w>
O f</w>
P ola
p orn
ir en</w>
us ul
uy um</w>
y as</w>
er lik</w>
ışt ığı</w>
Tun us</w>
Ç ayı</w>
direktör ü</w>
R eş
i at</w>
müdür ü</w>
ak ç
el ip
önem i</w>
Son unda</w>
rad yas
V ek
m obil</w>
oğ un
ver im
İz landa</w>
H amp
c a
et tikten</w>
bo x</w>
Wh ite</w>
eğlen ce</w>
om i</w>
rady o
S ele
h u
ş iş
av ir
ant laş
oğ ludur</w>
Kon g</w>
kiş iyi</w>
görev lisi</w>
Wh o</w>
Paz ar</w>
lan o</w>
ab ad</w>
ht t
dikkat ini</w>
I P</w>
Ç in
ad ındaki</w>
iler lem
ann i</w>
kıs ım</w>
deney sel</w>
S ec
187 7</w>
yaz ında</w>
ılığ a</w>
görev den</w>
Bilg isay
os en</w>
tamam lan
Hat ta</w>
sözc üğ
grub una</w>
imkâ n
R ep
malar ında</w>
kurt ul
e h</w>
am et
g ibidir</w>
Sibir ya</w>
G rup
S ir</w>
Sin op</w>
Yıld ız
I X</w>
R an
ak e</w>
piy ano</w>
mak sızın</w>
s iye</w>
ey n</w>
san iy
yak ından</w>
anlam ında</w>
a ult</w>
Ç ukur
kor u
has ta</w>
sor unu</w>
Kütüphan esi</w>
P KK</w>
kur gusal</w>
hazır lan
gec ik
I A</w>
stratej ik</w>
H ic
N ight</w>
W alter</w>
h as</w>
ter min
motor u</w>
Çalış ma</w>
L ey
ann esinin</w>
G od
ır t
yor um</w>
sağlam aktadır</w>
S am</w>
eriş im</w>
kestr ası</w>
Antak ya</w>
Baş bakanı</w>
N ot</w>
k lav
an ılır</w>
et y</w>
ayr ılmış</w>
Bü lent</w>
biç imi</w>
Uz un
dis ip
10 8
yörün g
ele ment
kuvvet lerinin</w>
m ı</w>
í n</w>
olur ken</w>
D ak
al ıyor</w>
is por</w>
for mas
avant aj
çık ması</w>
den ize</w>
190 2</w>
sürdür mektedir</w>
şun ları</w>
As lan</w>
Hol landalı</w>
ay ları</w>
ım ız
lem i</w>
You T
s w
v el
psik olojik</w>
dayan arak</w>
Lin ux</w>
B ac
alan ının</w>
gid er
komp leks
Ob last
ola s</w>
Bel grad</w>
Sez ar</w>
s son</w>
İ ler
ın tı</w>
mim ar</w>
leş mesi</w>
25 9
yüksel miştir</w>
V III</w>
er ya</w>
e c</w>
çek im</w>
giy miştir</w>
bölge ler</w>
nad ir</w>
K ıy
b oyn
yöneti cisi</w>
anlaş ması</w>
Fer r
e ira</w>
tek li</w>
Şampiy on</w>
S ol</w>
am ıştır</w>
27 5
: //</w>
d ağı</w>
î n</w>
kr ip
fik ri</w>
büy üme</w>
C ey
J r</w>
kıy asla</w>
güney de</w>
Foot ball</w>
P it
ur n
uy du
yön etti</w>
kom ed
Per forman
kuzey de</w>
F ul
kar ışık</w>
Bar ajı</w>
dönüşt ü</w>
T os
sonuç landı</w>
sorun lar</w>
değiştir di</w>
seslendir ilen</w>
Dair esi</w>
el çi</w>
kend isinden</w>
Çif t</w>
arke olojik</w>
ak an</w>
14 3
Dolay ısıyla</w>
l um
har ic
geliştir di</w>
Hol ding</w>
Mich igan</w>
r ay</w>
uf ak</w>
ong ul
ın c
man astır
açıl ış</w>
. (</w>
T una</w>
l ice</w>
y alar</w>
tartış ma</w>
Bil giler</w>
Tekn oloji</w>
g o
etk iler</w>
Man astır
B et
et ten</w>
tan rı</w>
T el
Z eyn
müz e</w>
dok tor</w>
Rec ep</w>
Br ian</w>
pol im
konuş ulan</w>
Cem al</w>
U C
m om
Ş ev
tanım lan
K in
m adır</w>
Kur t</w>
Bar cel
au x</w>
vok al</w>
iz leyic
Sim p
U t
m arka</w>
Gen el
söy lenir</w>
tur u</w>
yarış masında</w>
Elektr ik</w>
at om</w>
uv a</w>
lim an</w>
nit eliğ
im ha</w>
Kal e</w>
örn ekleri</w>
yüzölçüm üne</w>
b az</w>
protest o</w>
r az</w>
iş leme</w>
bugün e</w>
St ation</w>
bölüm ünün</w>
Ma c</w>
Te or
190 4</w>
İş leri</w>
A M
iş ken
den k</w>
mak simum</w>
189 6</w>
Ger çek</w>
Gürc üce</w>
belir lemek</w>
İslam i</w>
sekiz inci</w>
Boğ azı</w>
prote in</w>
Ö y
er t
an ik</w>
ley ebil
ek tif</w>
düş er</w>
Hat ay</w>
aç mıştır</w>
ot op
pro dük
dönem lerinde</w>
eyal eti</w>
rek ab
sık ı</w>
K aya</w>
M ob
kon umu</w>
mater yal
R af
ti ve</w>
Konservat uvarı</w>
M eg
d istan</w>
İ oann
em eyen</w>
189 0</w>
do kuz
kur um</w>
nor mal
K ob
ar ın</w>
kullan mak</w>
değiş ken
dem ektir</w>
45 0</w>
tanım lanır</w>
Cor por
günümüz deki</w>
ılac ağı</w>
si par
R as
ek siyon</w>
t az
Sp ort
M aj
V ah
kal eci</w>
cu ları</w>
Yayın ları</w>
piş ir
F ark
ür ünü</w>
ev de</w>
sun uc
v es
end er</w>
S id
ğ i</w>
12 1</w>
Har p</w>
Bu enos</w>
D ah
u ya</w>
yar ısı</w>
hay al</w>
nüfus a</w>
dr ama</w>
sır alan
kitab ın</w>
teş kil</w>
Bundes liga</w>
gel mesi</w>
17 0</w>
eb o
ürün ler</w>
çevres indeki</w>
kö le</w>
ko d</w>
mem ur
Ö n</w>
in ter
iy ev</w>
sat tı</w>
teklif i</w>
a a</w>
u de</w>
etkil ey
büyü dü</w>
Mik e</w>
in lerin</w>
lam ada</w>
hal if
spon sor
ak ıl</w>
ir in</w>
ülk eyi</w>
Kür e</w>
Ban k</w>
am ayan</w>
ağ z
Kil ise</w>
H un
ez id</w>
Öz gür
neg atif</w>
d ie</w>
en j
ınd andır</w>
yatır ım</w>
Y abancı</w>
et lerin</w>
ver ilmiş</w>
zam andan</w>
ard s</w>
Biy ografi</w>
sa f</w>
Jac ques</w>
siyaset çidir</w>
oran ında</w>
Andre w</w>
hal l</w>
bulun mamaktadır</w>
ola ma</w>
Pr o</w>
sun ulan</w>
isted iğini</w>
yumuş ak</w>
ey z
Em re</w>
Champion ship</w>
B uz
am aç</w>
etm ekte</w>
Pol is</w>
om er
yaş ına</w>
Air es</w>
geç mişi</w>
İn şa
hayat ının</w>
komut a</w>
aktiv it
tic aret
hüküm eti</w>
te gr
parç alan
seçim lerde</w>
hidro jen</w>
Ass oci
G iz
N ep
ar k</w>
S arı</w>
l uluk</w>
m üretteb
An im
san atı</w>
oyun lar</w>
mak ale</w>
a ve</w>
f as
yan ıt</w>
imz alanan</w>
olağ anüstü</w>
gönül lü</w>
A P
L G
Z ongul
es ia</w>
Wil son</w>
ace ae</w>
Steph en</w>
L ud
toprak larında</w>
ağır lık</w>
olabil eceği</w>
kuvv eti</w>
aral ık
S har
kral iyet</w>
Hakk ında</w>
Barcel ona</w>
son landır
grup ta</w>
iyor um</w>
Kah ire</w>
sem p
derg isinde</w>
o o</w>
p ed
s osyal
as hi</w>
gel diğini</w>
abil ir
Is land</w>
P ok
kar e</w>
Ç av
land ığını</w>
kesim inde</w>
krist al
bu ğ
keş if</w>
ektör ü</w>
Ho use</w>
Yak ın</w>
W eb
o a</w>
baş bakan</w>
yaz maya</w>
oj en</w>
T P</w>
Y ıl</w>
h op</w>
dev amı</w>
ışt a</w>
H ans</w>
Y ol</w>
lık ların</w>
bom bard
ort a
14 9
fark lıdır</w>
üş ü</w>
Haz ar</w>
hav z
Mur ad</w>
kolay laştır
ro w</w>
cer rah
ön lem
çub uklu</w>
o mi
ı larıyla</w>
düzen lediği</w>
Şeh ri</w>
parç alar</w>
Sch w
E lec
t roman
Lor d</w>
ko c
içer iyordu</w>
bur g
kin s</w>
ib r
ger ide</w>
genç lik</w>
göv d
fonksiy onu</w>
t aç</w>
ıy an</w>
12 8</w>
kaldır ıldı</w>
Yard ımcı</w>
mecl is</w>
2 19
d eri</w>
Ch el
m ağı</w>
mev ki
se e</w>
sal on
R ak
tis at</w>
sürec inde</w>
T ed
rak ip</w>
kullan maya</w>
T ig
os hi</w>
insan lara</w>
H is
d elik
ala t
enerj isi</w>
ch i</w>
sanatç ının</w>
iş im</w>
yap ması</w>
end iği</w>
alın ır</w>
olabil eceğini</w>
G ece</w>
dönem inden</w>
uk at</w>
Dis ney</w>
at er</w>
ter ek</w>
görev leri</w>
tanım lanan</w>
taşım a</w>
araç ları</w>
belg esel</w>
ilm e</w>
Abdül ham
il dir</w>
tak dir
kat lı</w>
190 1</w>
u ca</w>
ım larına</w>
St ep
As h
S öz</w>
Ç ev
iğ inin</w>
çal ın
kaynak lanan</w>
Gal ler</w>
leştir me</w>
y du</w>
ad ları</w>
gil i</w>
L il
r ük</w>
an ıt
H ow
S ı
29 3
Cam i</w>
h us
başar ıyla</w>
bölüm den</w>
asyon lar</w>
Mahal lesi</w>
YouT ube</w>
ed ebilir</w>
İ ran
im lerini</w>
baş rol</w>
değiştir ilmiştir</w>
sık ıştır
L iz
iy er
av er
tem as</w>
sal g
haf talık</w>
Mark s
h it</w>
at ılan</w>
Ar ke
alan ın</w>
mez ar</w>
tab l
gazet esinde</w>
rib a
F on
e b</w>
ç ay
ver me</w>
Rus lar</w>
Sen at
Ü zer
yan g
ıs ıt
Seç im</w>
ur lu</w>
geliştir ilmiştir</w>
ihtiy acı</w>
Ön ce</w>
kalınt ıları</w>
öncelik le</w>
p eyn
bel ki</w>
İk ti
U N
end iş
öğrenc iler</w>
Eğiti mi</w>
toplum un</w>
L id
Y olu</w>
al ıların</w>
ır lı</w>
ig o</w>
film lerinde</w>
mak ine</w>
yarış maya</w>
mem esi</w>
çocuk ların</w>
fır t
Progr am
K P</w>
M ul
g al</w>
ş eb
kur mak</w>
sür edir</w>
hak larını</w>
ünd ü</w>
anal iz
nö tr
B S</w>
merkez inin</w>
kim lik</w>
hol m</w>
y osu</w>
top u</w>
L and
R O
c or
re v</w>
Dör düncü</w>
j e</w>
r ika</w>
H D</w>
sad raz
ic ra</w>
Corpor ation</w>
8 4
Diz inin</w>
F ot
tr y</w>
tan a</w>
men ler</w>
V is
er tele
ik tir</w>
ge y</w>
Bak an
Hak an</w>
akt ris</w>
Baz en</w>
Tif lis</w>
ıy aman</w>
Jo se
ord unun</w>
hayv anlar</w>
protok ol
kan ın</w>
leştir ilmiş</w>
mensu p</w>
ver diler</w>
pasap ort
İtalyan ca</w>
bas am
t ün</w>
cez alandır
Selç uk</w>
en strüm
ay ne</w>
Fr eder
Bat man</w>
anim asyon</w>
Ç evre</w>
at h
sol un
Şah in</w>
atıf ta</w>
at ması</w>
om ur
par tisi</w>
bilin meyen</w>
kâ ğ
tehlik eli</w>
göv de</w>
Kit ab
ordus unu</w>
W el
v a
v s</w>
uğr adı</w>
İsko ç</w>
. ”</w>
İs r
ser may
sad i</w>
K evin</w>
ağ ız</w>
kap sar</w>
bağlant ısı</w>
suz luk</w>
os a</w>
mekt up</w>
den g
10 4</w>
çöz üm</w>
yumur ta</w>
yap ımında</w>
um i</w>
H i
bu har
P ep
z an
Hak ları</w>
mu s</w>
göster ilir</w>
tasar lanmıştır</w>
mey dan</w>
L yn
ko al
görün en</w>
şif r
İbran ice</w>
E yü
var d</w>
On ur</w>
1 15</w>
zam anın</w>
Char lie</w>
Türkç eye</w>
İ leti
tab i</w>
Af yon
c s</w>
r am</w>
hazır ladığı</w>
luk ta</w>
Müdür ü</w>
Ox ford</w>
p h</w>
Hamil ton</w>
Ar sen
10 3</w>
Geliş tir
G ün</w>
ş an</w>
gör müş</w>
ist asyonu</w>
ic s</w>
oyun cudur</w>
Ad nan</w>
mesaf e</w>
mükem mel</w>
d iş</w>
ah i</w>
kur ş
ıc ılık</w>
katıl ımcı</w>
yürüt tü</w>
End üst
o i</w>
il mişti</w>
Er ic</w>
ald ıktan</w>
Özellik leri</w>
r iy
Ak ç
Son y</w>
çıkar ıldı</w>
enf eksiy
F as</w>
N u
sağ lam</w>
yanl ısı</w>
K aş
O ff
ç et
am ası</w>
13 5</w>
Uş ak</w>
çık ıp</w>
düzen lenmiştir</w>
F az
S T
ok e</w>
bu lan</w>
uygulam alar</w>
ko nd
N em
bağ layan</w>
od y</w>
pil ot</w>
ıy sa</w>
leş miş</w>
ük ten</w>
ağ r
Al b
25 7
kes kin</w>
meş hur</w>
Karş ıy
ot er
benz eyen</w>
ban k</w>
yum urt
ikinc isi</w>
m ine</w>
yen ler</w>
konu larda</w>
Bro ad
ağ ab
J enn
Ün lü</w>
sev iye</w>
ahş i</w>
ir dir</w>
mühendis liği</w>
N ort
V ez
lu ca</w>
gazet ec
E k</w>
un ca</w>
St one</w>
187 6</w>
15 6
teor ik</w>
Mat th
G ust
o ti
tanım lanmıştır</w>
kl ib
Ho ca</w>
dir ekt</w>
ran ç</w>
Örn ek</w>
We b</w>
en ya</w>
cinsiy et</w>
b etim
ay ol
top ladı</w>
kab ı</w>
Türk leri</w>
Ür dün</w>
viz e</w>
Arnav ut</w>
fark ı</w>
mış lardı</w>
çiç ek</w>
seyir ci</w>
uyuştur ucu</w>
G ec
y aya</w>
C enter</w>
köğ r
L om
al eyh
Al fred</w>
uy umlu</w>
sin iz</w>
dağıl ımının</w>
c er</w>
y endi</w>
ü cu
du var</w>
isim lendir
H ard
X X
or at
25 6
say ısını</w>
Ku lesi</w>
Pol iti
T oy
er t</w>
İs veçli</w>
yür ütü
B T</w>
ol im
20 4
en s
ebil ecek</w>
göz e</w>
9 00</w>
bul muştur</w>
ala y</w>
ef i</w>
kaz a</w>
Bla ck
b lok
in grad</w>
gen el
B av
ke tiyle</w>
mel idir</w>
sebep le</w>
İs lâ
ağ acı</w>
iç esi</w>
kol t
iyor lardı</w>
P ur
ob i</w>
dem li</w>
Em in</w>
yav aş
fir ması</w>
H im
le miş</w>
e an</w>
Ç ar
kayb eden</w>
em ri</w>
kr it
olmam ası</w>
atan mıştır</w>
Polon yalı</w>
Bur s
Sw ift</w>
N il
w ork</w>
yap ının</w>
cez asına</w>
Rum eli</w>
C ab
ic iler</w>
land ıktan</w>
kan at
10 2</w>
bey az
190 3</w>
ortam da</w>
anah tar</w>
M un
c as
t w
ılığ ına</w>
demokr atik</w>
Gab ri
iğ e</w>
Al t</w>
yap ıya</w>
yaşam ıştır</w>
ütüp hane</w>
Bis iklet</w>
edil mesini</w>
hareket leri</w>
mily ondan</w>
kitap ta</w>
e şte</w>
ek e</w>
Al ice</w>
Kırg ız
o id</w>
ti z</w>
24 0</w>
derg isinin</w>
Kar akt
Harek et</w>
birinc il</w>
in sel</w>
yer den</w>
Sır p
Oblast ı</w>
ev den</w>
hay al
E g
s ans
10 9</w>
dö kül
def ans</w>
lo w
Yap ım</w>
açıklam ada</w>
vas ıt
İsr ail
f f</w>
ş eyin</w>
am ba</w>
ap ur</w>
çek tiği</w>
f urt</w>
10 6</w>
bask ısı</w>
lad ığını</w>
mühendis lik</w>
S S
h elikop
land ığında</w>
12 80
13 4
art ış
iyet ine</w>
üreti cisi</w>
Ol ym
cins el
im lerin</w>
baş layıp</w>
kö pek</w>
Karşıy aka</w>
den en</w>
Zongul dak</w>
pro pag
tanım lamak</w>
Fır at</w>
ö nd
Ş em
mod ern
Ge ç</w>
15 3
eb ev
Sh er
hat a</w>
evl ilik
mahkem e</w>
ev er</w>
dah an</w>
Ale x</w>
hüküm darı</w>
al makta</w>
ol masıyla</w>
Gre en</w>
traf ik</w>
A çık
bak ınız</w>
dağ lık</w>
madd esi</w>
senar ist</w>
Mal iye</w>
I s</w>
p lastik</w>
tak ma</w>
üreti c
E mil
m elerin</w>
tut an</w>
su ya</w>
olay ların</w>
laş ım</w>
30 3
belediy edir</w>
Let onya</w>
H it
ik il
kız ıl
ism inin</w>
Harek âtı</w>
bırak arak</w>
Mis s
Tat ar</w>
Gi ov
M and
ş aşır
baş ından</w>
yaz ıları</w>
uc h</w>
gür eş</w>
ın ar
sür ük
şey ler</w>
ilç enin</w>
eti ndeki</w>
10 8</w>
bu la
yard ımc
meler e</w>
vol kan
Asker î</w>
et ta</w>
Proj esi</w>
iş le</w>
mes lek</w>
75 0</w>
topl uluk</w>
Str at
E tim
H ub
Y ed
yerleş ik</w>
Gür eş</w>
A br
al is</w>
finans al</w>
Müc ad
ç ü</w>
med iğini</w>
karşılaşt ı</w>
um da</w>
17 3
piy ade</w>
Do st
düşün ülen</w>
Lu is</w>
S eri</w>
bü s
yaz arlar</w>
Ad ıyaman</w>
Georg ia</w>
is leri</w>
kon sep
İoann is</w>
pro dü
Rom an
ebil mektedir</w>
E v</w>
Tüm eni</w>
Hein rich</w>
Y edi</w>
Ş ö
taraf ı</w>
dev ir
isti f
per iy
görün üm
ittif ak</w>
s ia</w>
20 7
Sen ar
vir üs
Blu e</w>
V inc
b el</w>
s ın</w>
Or tak
dep rem
kaynak lı</w>
ayrınt ılı</w>
y p
belir lenen</w>
Z er
is min</w>
gu e</w>
dem iştir</w>
B ür
W r
kur an</w>
uy gar
takım dan</w>
Kas ab
dar b
Or ijinal</w>
Z en
10 7</w>
idar esi</w>
yayg ındır</w>
R ab
m iz
Avrup alı</w>
k rom
v ili</w>
Ç ince</w>
Ar dahan</w>
çek ici</w>
Kil is
S ci
ö tesi</w>
gerçekleştir ilmiştir</w>
koy du</w>
Tun ç</w>
Mi lano</w>
endüstr iyel</w>
tecr üb
ol masa</w>
dönem e</w>
Mim ar</w>
Uru gu
S end
t ör</w>
ay akta</w>
gö mül
iç eri</w>
bil en</w>
yet ersiz</w>
hakk ını</w>
t ıp
tak ib
topl uluğu</w>
New ton</w>
C eb
Br and
Do ug
etkin lik</w>
yiy ecek</w>
b ıç
Ç or
ay ının</w>
Phil ip
8 3
G o</w>
s ır</w>
taraf tan</w>
rak ib
ebil mek</w>
Ener ji</w>
list ede</w>
188 0</w>
t oz
direktör lük</w>
Conn ecti
or s</w>
Am az
Gaz ete</w>
haft asında</w>
çözün ür
eti ketiyle</w>
mü st
yüz lerce</w>
sun ul
Bah ç
ıyor lardı</w>
edil mesine</w>
giriş imi</w>
penc er
mes ele
tab lo</w>
katıl maya</w>
ich i</w>
A C
P S
öl düğü</w>
alar ındaki</w>
dış arı</w>
D ili</w>
kuzey batısında</w>
B ad</w>
ik ola
yöntem leri</w>
senar yosunu</w>
D ed
T ur</w>
par tis
9 4
e um</w>
lam ayı</w>
tarih e</w>
tiğ ine</w>
hâl ine</w>
y un
em be</w>
diy erek</w>
vatand aşı</w>
Komut anı</w>
aş ağı
kö ye</w>
istih barat</w>
ir dağ</w>
görev lerinde</w>
her kes</w>
gal ip</w>
K ağ
n i
ak c
Ar aç</w>
yaz ma</w>
şekl indedir</w>
ograf isi</w>
Y osh
n ar
Şampiyon luğu</w>
değer leri</w>
gerçekleş miştir</w>
M oz
T her
getir mek</w>
Mes lek</w>
eğitim ine</w>
Napol i</w>
gâ h
1 12</w>
R al
mı yla</w>
o b</w>
r ia</w>
yeter ince</w>
gru budur</w>
Kariy er
Türkç esi</w>
ag an</w>
Sal ih</w>
g ro
ol o</w>
12 37
13 69
Or ta
etk isini</w>
Rom alılar</w>
ülk edeki</w>
Sonr asında</w>
is iydi</w>
sab ah</w>
oyuncu ları</w>
Lit tle</w>
ık ça</w>
sür üc
yayın ladığı</w>
başar mıştır</w>
fes h
Cal iforn
bilim ci</w>
V ali</w>
p laz
13 70
plan a</w>
tedav isi</w>
sah ib
men z
Mekt ebi</w>
15 00</w>
İn önü</w>
Or man</w>
tal eb
Connecti cut</w>
u le</w>
ar da</w>
ed es</w>
Kit abı</w>
N orth</w>
al ırken</w>
ak siyon</w>
faz las
is iz</w>
iy ye</w>
çevr imiçi</w>
Sal onu</w>
L es
T s
p o</w>
Doc tor</w>
L ah
al ım</w>
bo ya</w>
çarp tır
ele meleri</w>
sır ad
mes lek
tör eni</w>
zaf er</w>
f en</w>
es ince</w>
ol urlar</w>
20 3
ok a</w>
liğ iyle</w>
tüke ti
ge le</w>
ver mesi</w>
os unda</w>
mad denin</w>
Franc is</w>
M I
N ef
y etm
tar k
Kan un</w>
in k
takım ını</w>
İngiliz c
P E
ol itik</w>
ropol it
nd ur
An kar
ut h
üd ar</w>
Brit an
c ül</w>
bak ım</w>
St ock
sistem ler</w>
Eur o</w>
mut lu</w>
Venez u
Elec tr
l op
er es</w>
ay n</w>
Ben zer</w>
seviy esi</w>
çatış ma</w>
Hükû met</w>
Afyon karahisar</w>
r at</w>
H z</w>
P ac
l ilerin</w>
ilm ez</w>
25 0
lig e</w>
nes s</w>
dep olama</w>
zem in</w>
anal izi</w>
y c
el inden</w>
Ar t</w>
res m
uluğ a</w>
sürül müştür</w>
Or kestrası</w>
kulübü n</w>
haft ada</w>
l oy
Der gisi</w>
mahkû m</w>
H end
al es</w>
ler indendir</w>
ul i</w>
Ch a
sal onu</w>
oluşturul muştur</w>
Genel kurmay</w>
J on</w>
ek lendi</w>
em y</w>
o ugh</w>
yar g
öğr eti
zeh ir
Ki ev</w>
M üst
13 68
ren g
karar laştır
bes len
1 11</w>
T on
az z
çatış malar</w>
t her
oyn andı</w>
öğrenc ileri</w>
N uri</w>
ag en</w>
189 9</w>
boş alt
I tal
lar d
ih a</w>
model leri</w>
val y
lik ten</w>
Kad ıköy</w>
Gala xy</w>
akademis yen</w>
n ic
edil mişti</w>
öğretm eni</w>
Rod r
Ein stein</w>
N ac
Ar kad
katıl ım</w>
bırak mıştır</w>
P el
et o</w>
Sa at</w>
bor ç
A L
baş bakanı</w>
durum una</w>
an us</w>
Oper a</w>
Hay at</w>
hüküm et</w>
belediy esi</w>
Ot to</w>
tahr ip</w>
ç in
23 0</w>
may la</w>
gem ileri</w>
sık ça</w>
Siy ah</w>
Samsun spor</w>
sür ülen</w>
Alman yası</w>
saldır ıları</w>
mev z
altyap ısında</w>
Z iya</w>
şehr ine</w>
kal ı</w>
m und</w>
tır man
uç uk</w>
Bü yü
kısm ının</w>
sem tinde</w>
Çekoslov akya</w>
p i</w>
görev de</w>
sezon unu</w>
Cam bridge</w>
Val isi</w>
yed ek</w>
Fiz ik</w>
Columb ia</w>
S it
Y um
on d</w>
12 47
Art ık</w>
2 20</w>
T eh
Kr ist
ılığ ın</w>
K aç
Bo ş
yarat tığı</w>
yer altı</w>
yay la</w>
13 80
Mu ş</w>
Pan zer</w>
18 64</w>
kem eri</w>
çekir dek</w>
d if
f on</w>
h en</w>
ku şu</w>
Ser ie</w>
Uy gur</w>
Anth ony</w>
Sam i</w>
189 7</w>
Kol omb
L inc
d aş
Ü st</w>
Ş ük
14 4
popü ler
H ep
M ig
l ısı</w>
an ısına</w>
yağ ış</w>
et rik</w>
Atlan tik</w>
tal ep
maç lar</w>
te la
belediy esine</w>
Yaz ar</w>
Alex and
Cla ud
st ad
Bab il</w>
Min nes
Anayas ası</w>
M A</w>
T ow
at ar</w>
12 39
tanım lar</w>
Türk lerin</w>
do va</w>
it li</w>
ver ilmesi</w>
aç tığı</w>
form u</w>
A dolf</w>
15 4
yas ama</w>
uzak lığı</w>
Z or
başla mıştı</w>
soy adı</w>
kâ r</w>
S en</w>
dor f</w>
T re
k al</w>
Kar aman</w>
f ela
о в
soy undan</w>
M ilan</w>
13 65
dönd ür
numar adan</w>
12 50
kem er</w>
işt e</w>
es as
aydın lat
f lor
iy ice</w>
um p</w>
ic at</w>
Mar io</w>
çalış mak</w>
kurul duğu</w>
karakter ler</w>
Yap ı</w>
Bağım sız</w>
aşağ ıda</w>
Hik met</w>
v is
Ar ch
sür gün</w>
18 70</w>
kup a</w>
zaf er
Futbol culuk</w>
Üsk üdar</w>
ad ası</w>
kat al
med res
çok lu</w>
ref ektör
İleti şim</w>
Minnes ota</w>
eş cinsel</w>
13 75
ülke lerinde</w>
sem t
bahar ında</w>
2 10</w>
c al</w>
çık maya</w>
kay ıp</w>
id es</w>
tur a</w>
yarat tı</w>
Albüm de</w>
farkl ılık</w>
l ia</w>
Yap ılan</w>
Kül tür
neh ri</w>
V arş
iy esi</w>
ık larında</w>
aç ığa</w>
ail esine</w>
sev er</w>
kayd edilmiştir</w>
Sin em
İk lim</w>
devr imci</w>
tis tik</w>
B öyle</w>
iş tir
açık lan
plan lanan</w>
Sez onu</w>
hapis han
m ün
ver ileri</w>
26 3
tamam landı</w>
Mer yem</w>
Bil imleri</w>
B aş</w>
Ar slan</w>
yaklaş ım</w>
Ab haz
şehir leri</w>
W is
ıl masıyla</w>
12 68
şark ıcısı</w>
yaşam aya</w>
Don ald</w>
Aleksand r</w>
ekt eki</w>
ülk esinde</w>
Per u</w>
değişik liği</w>
Californ ia</w>
12 49
12 75
Be at
F en</w>
M iy
an ak
br an
num arası</w>
Port o</w>
i OS</w>
im iz
sür er</w>
13 79
Kar ah
o ch
ol maları</w>
kan ıt</w>
geliş meler</w>
Film de</w>
al s</w>
ver s</w>
ele yen</w>
12 45
geçir mek</w>
köş e</w>
M P</w>
is s</w>
poz isyon</w>
yenilg iye</w>
kayb ı</w>
mut lak</w>
R ick</w>
Ab bas
bah şı</w>
çöz ül
gör ülebil
kullan ılmış</w>
12 66
san al</w>
Pal e
Konstan tin</w>
1 17</w>
S mac
ş a</w>
iğ inden</w>
yap mayı</w>
gerçekleştir diği</w>
p ik</w>
duy gusal</w>
mağlu b
tr av
12 38
13 66
Ban g
profes örü</w>
K ov
Su dan</w>
muhalef et</w>
c az</w>
ek öy</w>
am v
Bin göl</w>
yaz ılar</w>
konus undaki</w>
Z ür
ar o</w>
man lar</w>
edeb iyatı</w>
dokuz uncu</w>
un ç</w>
uz man</w>
12 46
sah te</w>
bun lara</w>
Milletvek ili</w>
f an</w>
ot am
Kat edr
elip tik</w>
öy kü</w>
iyet e</w>
Varş ova</w>
Ç oğun
doğ duğu</w>
zinc ir
Linc ol
il e
av ukat</w>
if er</w>
kazan ır</w>
hız landır
turnuv a</w>
U p</w>
av v
kim se</w>
Selç uk
politik acı</w>
org anı</w>
A str
D J</w>
iş in</w>
gör mek</w>
12 36
ihr aç</w>
ok er</w>
geliş im</w>
Iş ık</w>
haric inde</w>
19 0</w>
bulun abilir</w>
Or ada</w>
rütb esine</w>
a ir</w>
ot h</w>
iliğ inin</w>
Parlament o</w>
Chel sea</w>
12 59
ren ce</w>
maç ını</w>
Eser leri</w>
G aga</w>
laş an</w>
Mar g
öyle dir</w>
Of f</w>
Kolomb iya</w>
h ö
mu z
politi kas
dest eğini</w>
koşul ları</w>
1 16</w>
12 65
188 5</w>
kon santr
ald ığını</w>
Genç ler
Hug o</w>
el leri</w>
iz ledi</w>
içer ik</w>
dik lerini</w>
oyunc unun</w>
muhareb e</w>
b al</w>
p ah
şark ıyla</w>
eser in</w>
bağ lanmıştır</w>
örgü tü</w>
B ob
n on</w>
üret ildi</w>
troman yetik</w>
R en</w>
ön cü</w>
ok uma</w>
katıl ma</w>
düzen leme</w>
Hor asan</w>
- -
s ka</w>
yak a
dön müştür</w>
grub unu</w>
küm esi</w>
E ks
or u</w>
Am ster
D ec
K ep
r iyet</w>
kullan maktadır</w>
eg emen</w>
bes in</w>
Şampiy onu</w>
Az er
lad ıkları</w>
He av
ksiy onu</w>
hayvan ların</w>
biz zat</w>
L ap
al ık
yol unu</w>
sonuç lanan</w>
toprak larını</w>
İç er
Slov enya</w>
mis af
Etim oloji</w>
9 3
A S</w>
K h
Ç inli</w>
gü nden</w>
gr af</w>
boş an
Piy ade</w>
oksij en</w>
re f</w>
üç ünc
Şir ketin</w>
film lerde</w>
maç larını</w>
aray üz
ğ in</w>
mil it
şekl indeki</w>
ur s</w>
belirt ilmiştir</w>
yapı landır
Kulüp ler</w>
l ic
tar ayı
ver g
inc lu
say ılan</w>
kr itik</w>
başkan lığına</w>
Sar ık
sanatç ılar</w>
bis iklet</w>
o e</w>
ter ör
ov o</w>
İs tik
f emin
s or</w>
as et</w>
İs tih
Kaz ak</w>
12 69
At las</w>
yük lü</w>
Köy de</w>
ik at
arkad aş</w>
sürdür en</w>
ım la</w>
189 5</w>
savun an</w>
bed en
tah mini</w>
katıl mak</w>
Tek irdağ</w>
taarru z</w>
ge leri</w>
birlik lerinin</w>
düş müştür</w>
mil yon
et er</w>
13 78
ıp lak</w>
a üstü</w>
k um</w>
Ok ul</w>
I C
L üks
av ukat
Savaş ın</w>
Gam e</w>
Manastır ı</w>
ş ık</w>
do r</w>
araç lar</w>
AS A</w>
R ag
T uz
yaz ısı</w>
üst len
Rom alı</w>
tasar lanan</w>
ted ar
D et
R ay</w>
ad res
im den</w>
N us
us unun</w>
karş ılığı</w>
Kar at
bac h</w>
Kim ya</w>
Smac k
Lüks em
ort am</w>
Pr ag</w>
abil eceğini</w>
Mim arlık</w>
R and
az ından</w>
id er</w>
Kem al
Vilay eti</w>
T wit
d ara</w>
y ah
at or</w>
Oy unun</w>
Sam uel</w>
Yaş ar</w>
tanıt ıldı</w>
pand em
k ing</w>
Ş am
ala cak</w>
alan ındaki</w>
30 00</w>
sun ucu</w>
mik tar</w>
tec av
S ão</w>
yap ılabil
12 2</w>
kö k</w>
Ön emli</w>
seslendir di</w>
Devr im</w>
rahat sız</w>
ilg isini</w>
Bilgisay ar</w>
L av
V illa</w>
düny asında</w>
Pek in</w>
ko du</w>
mes leğ
gid ip</w>
Sa id</w>
ağır lığı</w>
12 7</w>
barındır an</w>
ikl imi</w>
eğ r
os unun</w>
uygulam aya</w>
B eni</w>
J ust
ak lık</w>
Play Station</w>
l iydi</w>
rahat sız
Türkmen istan</w>
Amster dam</w>
A lay
ç or
çalışmalar ının</w>
köğr etim</w>
G as
iz leyen</w>
12 79
gün ün</w>
mo da</w>
to z</w>
G og
kay dı</w>
Ey alet</w>
ikti dar</w>
S un</w>
as y
28 0</w>
roman tik</w>
Gençler birliği</w>
ön es
git mek</w>
Bay anlar</w>
Arj ant
rast lan
eg in</w>
oluştur uldu</w>
Ab bas</w>
yıldız lar</w>
Hen ri</w>
yapt ıktan</w>
12 40
kl in</w>
Fark lı</w>
Associ ation</w>
içer iği</w>
öldür ür</w>
örgü t</w>
Ken an</w>
D ağ</w>
bölg eden</w>
git tiği</w>
şirket inin</w>
senar yo</w>
tuğ rul</w>
molek üler</w>
film e</w>
bit en</w>
çek miştir</w>
Sh in
konu ları</w>
Met al</w>
Bav yer
K öl
V at
i e
é e</w>
iler dir</w>
kay da</w>
bölüm ün</w>
188 9</w>
De ad</w>
ecek lerini</w>
Stre et</w>
on t
ebil irler</w>
belirt ilen</w>
birbir leriyle</w>
Di ego</w>
m at</w>
kur ban</w>
saldır dı</w>
etkin liği</w>
duyur uldu</w>
müzak er
c ilerin</w>
op otam
ik os</w>
om or
bağ ı</w>
doğ muş</w>
sözleş mesi</w>
Tay land</w>
Arsen al</w>
as im
en te</w>
ış lı</w>
us en</w>
oyun udur</w>
Har vard</w>
haf if
iy en</w>
ok i</w>
sah ibidir</w>
ki lat
1 14</w>
İz mit</w>
imz alan
edeb i</w>
yeten eği</w>
uzan ır</w>
tes ti</w>
hap s
Sy st
Lab orat
Gümüş hane</w>
Ander son</w>
ö f
ım ların</w>
ist lerin</w>
işlet me</w>
ıl mıştı</w>
Ben j
yağm ur</w>
an ca</w>
gün lerde</w>
has ıla
okul da</w>
def ter
Gazet esi</w>
r ar
say ılar</w>
kas t
Rad io</w>
Mob ile</w>
L oc
c ia</w>
ek lem
at ası</w>
Er tuğrul</w>
seç ti</w>
leh ç
çocuğ un</w>
Soci ety</w>
om an</w>
12 48
geliştir mek</w>
Tat ar
D aw
il ecek</w>
grub unda</w>
büyü yen</w>
anayas a</w>
g il</w>
üy esiydi</w>
bas it
J ud
am o</w>
od ik</w>
ist e</w>
Yard ımcılığı</w>
A sp
N ed
büyük lük
hedef i</w>
parçac ık</w>
D y
b us</w>
d âh
op er</w>
per d
ho ş</w>
Patr ick</w>
Boğaz içi</w>
12 3</w>
savaş tan</w>
ders ler</w>
g ah
in son</w>
gu esia</w>
N ur</w>
m isyon
İnşa at</w>
er liği</w>
person el</w>
tür ünde</w>
düz eni</w>
27 0</w>
1 13</w>
G ele
P ant
n ör
ey sel</w>
ış la</w>
ko cası</w>
şark ısının</w>
Ch i
çevr esi</w>
E ast</w>
J a
o us</w>
Le on</w>
yönet en</w>
stüd yo
1 19</w>
ab ilmesi</w>
gen işlem
iv a</w>
fre guesia</w>
12 78
ordus una</w>
C and
il diğinde</w>
yayın lanmış</w>
Mil liyet
189 8</w>
meler inde</w>
Dom in
ir t</w>
No el</w>
v ali</w>
Ros e</w>
yetiş kin</w>
Turnuv ası</w>
devam lı</w>
baş a</w>
rol ünde</w>
Ev i</w>
lin s</w>
güreş çi</w>
1 18</w>
12 70
Lak e</w>
l on
son suz</w>
Mar s
sav undu</w>
Avustr al
şirket leri</w>
R E
b at</w>
J ür
v ador</w>
sal ın
futbol u</w>
Alan ı</w>
gitar ist</w>
P ul
Pro tes
D ie</w>
T ip
yap ıları</w>
lay ıc
parlament o</w>
al et
ati f
Kad ın
dest eğiyle</w>
alan ını</w>
göz den</w>
teor i</w>
mahalle nin</w>
entegr e</w>
Burs aspor</w>
) ",</w>
Z eki</w>
k ler</w>
yaz ıldı</w>
In c</w>
Yo ur</w>
Oğ uz
D el</w>
r iti
t etik
ı va</w>
ad ap
durum un</w>
göz ük
ilgil idir</w>
Mod el</w>
mark ası</w>
Od ası</w>
Lad y</w>
D A</w>
S ala
av ar</w>
Ad ams</w>
ob a</w>
Kır ık
cil t</w>
H ati
korun ması</w>
baş k
göster mek</w>
aşam asında</w>
Kuş atması</w>
sıf ır</w>
ıl ıdır</w>
yon lar</w>
T ech
f ık
y aban
Kap tan</w>
par mak</w>
yön lü</w>
yan gın</w>
kem ik</w>
Kol ordu</w>
Z ar
n iz
Aj ansı</w>
ebo ok</w>
at ını</w>
Vik ip
program lama</w>
D est
bar aj
Mar cus</w>
lig in</w>
S P
t ay</w>
al ıyordu</w>
gerçekleş ir</w>
P ek</w>
kö mür</w>
çal ı</w>
sab it
Tiyat ro
as ti
T el</w>
Y emen</w>
kat ılır</w>
gerek se</w>
bey li</w>
olay ın</w>
Gir l</w>
rekor u</w>
refer and
K ey
e er</w>
do lar
ork estra</w>
Ç iz
kad ar
Frank furt</w>
C ir
Al len</w>
üc ut
ion al</w>
Hiz met
J an</w>
lı lara</w>
T ug
at öly
us un</w>
Ch ap
mez h
kayıt ları</w>
I S</w>
e iro</w>
tor unu</w>
Fran z</w>
Hak kı</w>
Edeb iyatı</w>
sent ez
Univers e</w>
al ığı</w>
e al</w>
k un</w>
y y</w>
bulun uyor</w>
od yum</w>
uc k</w>
ch en</w>
Jap onca</w>
fil tr
Gol d
Paz ar
D eb
m iye</w>
an ıt</w>
sağ lığı</w>
şekil dedir</w>
ödül ler</w>
Fab rik
Doug las</w>
Arjant inli</w>
H ed
ad anın</w>
et t</w>
değiş ken</w>
anlaş ılmaktadır</w>
kaç tı</w>
örtü sü</w>
ıl ıyor</w>
aç ı</w>
lam asına</w>
art h</w>
oz om
sok ak</w>
merc eksi</w>
ağ ac
Tun celi</w>
d t</w>
ç am</w>
Aks u</w>
f eri</w>
us s</w>
yard ımı</w>
Ro ger</w>
çalışmalar ında</w>
Niş anı</w>
Lincol n</w>
end o</w>
tic areti</w>
yönetim ine</w>
O w
z ev
par lak
12 4</w>
28 6
gö steri</w>
yar gı</w>
Dük ü</w>
o g</w>
al kol</w>
görev li</w>
görev lerini</w>
Gir it</w>
Mez opotam
l ock</w>
le ki</w>
uy andır
yas ası</w>
elektr ikli</w>
Nor mal</w>
Char lot
bitir en</w>
ş ar</w>
el s</w>
25 8
25 6</w>
ses siz</w>
komut an</w>
al kol
ed isi</w>
var sa</w>
anla mıyla</w>
dört gen</w>
lar ındandır</w>
13 1</w>
raf t</w>
suik ast</w>
an laştı</w>
İk ili</w>
por tr
ılac aktır</w>
mecl isi</w>
frek ans
en se</w>
od ası</w>
İs kand
İm am</w>
günd eme</w>
loy d</w>
E tiy
y st
mad en</w>
bak ıldığında</w>
söyle yerek</w>
yazar ın</w>
temel ini</w>
Mek ke</w>
ñ a</w>
iti on</w>
oz a</w>
27 0
oyunc usudur</w>
biti ş
A ur
I P
p refektör
ş ap
ro g
ver ici</w>
14 5</w>
belir ten</w>
büt ç
E lem
s alar</w>
kom bin
ödül üne</w>
mon arş
J im</w>
baş lı</w>
18 00</w>
var lık</w>
St ad
oluş umu</w>
okul a</w>
toprak larının</w>
tür ün</w>
tav siye</w>
S es</w>
kar bon
din î</w>
felsef i</w>
leş en</w>
geç mesi</w>
dos ya</w>
Balt ık</w>
Benj amin</w>
D in</w>
belir lenir</w>
imkâ nı</w>
Hamp shire</w>
F in</w>
O lu
s ün
nd er</w>
Mich el</w>
hey kel</w>
il gisi</w>
ek tif
çıkar ılmıştır</w>
siz dir</w>
faaliyet lerini</w>
A T</w>
A cad
l ir
em ir
18 60</w>
17 5</w>
ku lak
şek il</w>
tamam ladıktan</w>
eksü el</w>
k ey
ver ilebilir</w>
sah il</w>
Hav aalanı</w>
hazır ladı</w>
kontrol ünü</w>
ifad esi</w>
ilg inç</w>
in iz</w>
bulun makta</w>
top r
ko z</w>
ation s</w>
gerektir ir</w>
Progr amı</w>
konfer ans
ölçek li</w>
takib en</w>
ut o</w>
sad ık</w>
Rus s
Tur gut</w>
Giov anni</w>
edil diğini</w>
etkil eyen</w>
Kıl ıç</w>
huz ur
man lı</w>
iti n</w>
yay ılan</w>
ser t
bölüm ünden</w>
beraber e</w>
takdir de</w>
I N
lu ydu</w>
26 0</w>
içer isindeki</w>
ug h
bilim kurgu</w>
Ham burg</w>
Tasar ım</w>
A dı</w>
harek ât
eser lerini</w>
cin si</w>
So uth</w>
cih az</w>
B ekt
S O
ö den
ter sine</w>
ihtiy ac
kahram an</w>
farklılık lar</w>
Bil imsel</w>
kim s
Mal ezya</w>
Büyükelç isi</w>
Hür riyet</w>
s ion</w>
ş öyledir</w>
as ist
do ndur
ec iler</w>
çıkar mıştır</w>
Y ok
At ab
ald o</w>
İskand in
at ılmıştır</w>
ap h
pr atik</w>
oluşturul muş</w>
G h
H ek
al in</w>
os aur
üz üm</w>
akş am</w>
l ılığı</w>
dur uş
sin ir
Mil ler</w>
sun maktadır</w>
kans er
önder liğinde</w>
ec h</w>
38 0</w>
v esi</w>
De ut
seslendir me</w>
ihti mal
Bavyer a</w>
H uku
T T</w>
d eb
gün ünde</w>
açık lanmıştır</w>
N el
lan a</w>
16 5</w>
arş iv
Vic tor</w>
şef i</w>
Ç ob
189 4</w>
nad iren</w>
g or</w>
lan mıştı</w>
ist a</w>
kad ro</w>
12 60
res ep
kayb etmiştir</w>
Yen iden</w>
ç ın</w>
sun ar</w>
Az eri</w>
W he
it lerin</w>
merc ekli</w>
ş en
la mıştı</w>
ed em
Top rak</w>
st ar</w>
ok u</w>
yaş ama</w>
ordu ları</w>
ris k</w>
H aber</w>
M aç</w>
S D</w>
ver iler</w>
13 8</w>
Br a
form ül
Moğol istan</w>
ol gun
ist ey
27 7
ob j
bat ıya</w>
kitap lar</w>
güzel lik</w>
â s
as u</w>
do u
baş laması</w>
sır ayı</w>
Pr inc
örn ekler</w>
kural ları</w>
dolar lık</w>
Kar ar
list esidir</w>
inclu de</w>
yay ına</w>
değiş imi</w>
görül düğü</w>
evren sel</w>
fikr ini</w>
Venezu ela</w>
ti ye</w>
en ik</w>
sonuc una</w>
Bay ezid</w>
aşam ası</w>
Türkç ede</w>
kum and
teknoloj isi</w>
H ist
b ik</w>
iz me</w>
geç mişte</w>
say ılır</w>
bisik let
kur dular</w>
ot uz</w>
Kat li
sit esinde</w>
felsef esi</w>
kans er</w>
F et
tal im
Christop her</w>
12 9</w>
Net work</w>
Etiy op
18 2</w>
konu lar</w>
yapt ılar</w>
röportaj da</w>
ol maktan</w>
ik öy</w>
Cann es</w>
Ç eş
al masına</w>
ey lem</w>
Tur an</w>
azak âr</w>
R av
j ener
n esi</w>
ik at</w>
sür esince</w>
In stit
bin anın</w>
kuşat ma</w>
P to
k ağ
en berg</w>
el iler</w>
12 58
14 6</w>
ben im</w>
karakter leri</w>
tarz ında</w>
S z
y ağı</w>
25 3
ley ip</w>
Fran klin</w>
Slov akya</w>
Johan n</w>
P ho
u laşt
19 2</w>
Mil l
geçir miştir</w>
kilis enin</w>
T own</w>
ıl masından</w>
ow a</w>
Pren s
başlang ıcı</w>
Mezopotam ya</w>
H ul
12 6</w>
çık ma</w>
art tı</w>
Br on
Sey y
it z
sır alarda</w>
güney batısında</w>
özel liğini</w>
S und
g ev
r ey</w>
y ip</w>
ru t</w>
zor la</w>
p lak
uz manı</w>
ot el</w>
önem ini</w>
çek er</w>
for mü
art ması</w>
Genç ler</w>
hücre leri</w>
K l
ek ledi</w>
tekn iği</w>
üret ilmiştir</w>
davran ış</w>
B est</w>
do ç
ele s</w>
Med ia</w>
koz m
İlişk iler</w>
G lob
Z afer</w>
s us
çık maktadır</w>
15 5</w>
25 4
Sh e
Lig e</w>
Has tal
kapas itesi</w>
ig h
kariy er</w>
Ru h
Profes ör</w>
J ane</w>
g on
At eş</w>
Çağ daş</w>
Lüksem burg</w>
Köl n</w>
Ç elik</w>
al lar</w>
15 2</w>
met in
art esi</w>
Kaz an</w>
siz liği</w>
K K
i x
gün leri</w>
Bak anlar</w>
Ab dur
Ko ç</w>
pat lak</w>
oyuncu ların</w>
an ki</w>
üç te</w>
mey ve
dil de</w>
adlandır ıldı</w>
Balkan lar</w>
buğ day</w>
in tern
sür ece</w>
başkan ları</w>
cin s</w>
birleş ik</w>
lider liğindeki</w>
rekor unu</w>
im er</w>
han esi</w>
48 0</w>
mitoloj isinde</w>
M r</w>
ad ığını</w>
Son g</w>
ti ons</w>
Üniversit esinde</w>
36 5</w>
Ph ila
ettir di</w>
D ede</w>
F la
i P
al mıştı</w>
kuzey doğusunda</w>
tan ımı</w>
10 7
okul un</w>
koş a</w>
dis k</w>
Siv as
al mayı</w>
kur ma</w>
bur adaki</w>
Tr ip
Kö ş
Der esi</w>
destek lemek</w>
sürdür müştür</w>
gez egen</w>
Gre gor
yolu nda</w>
Law rence</w>
Urugu ay</w>
ab e</w>
bilin ç
tah liye</w>
yapt ığını</w>
Is parta</w>
ko kulu</w>
bileş en
tel if</w>
sembol ü</w>
N iğ
R ich
Z ag
l ıc
ak ımı</w>
ac il</w>
Al bay</w>
çıkış lı</w>
m id
os unu</w>
13 3</w>
etm esiyle</w>
arac ın</w>
çık ard
düz eyi</w>
durum unu</w>
Tan z
işlem leri</w>
Po st
ikinc il</w>
Mühendis lik</w>
o on</w>
yar alandı</w>
iyet le</w>
din sel</w>
formula_ 1</w>
Filip inler</w>
m av
ç öm
ag og
öğ üt
Çan kırı</w>
ind a</w>
uz a</w>
and aki</w>
ıt ları</w>
refer ans</w>
2 16</w>
Y urt
d eh
eğ idir</w>
Demir yolu</w>
S D
f rom</w>
o ur</w>
с к
yap ısal</w>
mom ent
isim dir</w>
şirke tidir</w>
Hırv at</w>
ol i</w>
bağ landı</w>
ölç ül
Çalış maları</w>
K ing
im inden</w>
gün eye</w>
çoğ unun</w>
em an</w>
ış ığın</w>
doğr usal</w>
öm iy
Ermen ice</w>
Cen evre</w>
ev re
An tark
sahip leri</w>
hikây esi</w>
Uğ ur</w>
N ASA</w>
Y eh
im b
ans al</w>
asyon al</w>
ij a</w>
turnuv ada</w>
Teş kilatı</w>
n ar</w>
tor un
Kay nak</w>
asker lik</w>
' ,</w>
W e</w>
c ılığı</w>
un g
20 5</w>
las h</w>
yüzyıl larda</w>
ph ia</w>
görev ler</w>
Nor man</w>
b os
ik ası</w>
ik amet</w>
Kar tal</w>
Ay şe</w>
öğren ir</w>
ulaş ır</w>
kans eri</w>
R iver</w>
Z iy
k aş
yıl a</w>
yar ı
14 7</w>
İs met</w>
gir işi</w>
düz lem
Top rak
min im
fel d</w>
incele me</w>
B e</w>
i que</w>
den eme</w>
sun ucu
kır mız
vatandaş ları</w>
çık ışı</w>
karş ısına</w>
Tar sus</w>
tur unda</w>
R yan</w>
ku le
Hal en</w>
kıl ıç</w>
U s
Dav is</w>
ho u</w>
T O
t ra</w>
il diğini</w>
en stit
kullan ıma</w>
13 2</w>
asyon un</w>
muh ab
mimar lık</w>
Smack Down</w>
Pto lem
eş liğinde</w>
Yun us</w>
188 2</w>
N ich
iy on</w>
merkez leri</w>
Öz gün</w>
Kö k
to hum
defn edildi</w>
ir spor</w>
iş ine</w>
ver dikleri</w>
fr ey</w>
Mol dova</w>
gökad a</w>
Avustral yalı</w>
P is
189 3</w>
konu şt
A er
ag er</w>
Kon go</w>
ond o</w>
Bo y</w>
sü vari</w>
lard andır</w>
iti t</w>
yüks ektir</w>
Bu diz
tanın mıştır</w>
yok sa</w>
fakül t
N int
17 6</w>
kesin likle</w>
Lef koşa</w>
ev iç</w>
yap ılabilir</w>
say ısız</w>
Kur ucu</w>
yuvar lak</w>
ç ikola
26 8
başar ısını</w>
su da</w>
Gök ç
X box</w>
o kur
ekt eydi</w>
gel ir
yat ay</w>
Bud ap
k afa</w>
ko graf
sun ulmuştur</w>
ödem e</w>
F ol
ık lığı</w>
har a</w>
tem eli</w>
kem erini</w>
kl ip
r inin</w>
ent bol</w>
ünd edir</w>
Sen ato</w>
tanr ısı</w>
P ak
ik asyon</w>
ır mak</w>
ser inin</w>
turnuv aya</w>
andar ma</w>
prodük tör
kop y
Med ya</w>
alfab esi</w>
B ow
ar adan</w>
kar ac
Hig h</w>
olim piy
G un
R ey
on to</w>
ans ız</w>
14 4</w>
uc hi</w>
oluştur muştur</w>
Tay van</w>
Ind iana</w>
K ant
an ını</w>
bun unla</w>
İç in</w>
j o</w>
ah la
lan maya</w>
av cı</w>
Ey y
futbol a</w>
min eral
metr edir</w>
è re</w>
ay s</w>
Gö ster
görevlendir ildi</w>
; &</w>
L og
c ast
t uz</w>
ak l
bur un</w>
öğrenc ilerin</w>
ur o</w>
ür eme</w>
A w
C hal
H oc
y end
el ver
um lar</w>
gün cel</w>
yüz üne</w>
zaman ki</w>
disip lin
H itit</w>
h ip</w>
v o</w>
at let</w>
kullan ma</w>
bölüm üne</w>
olac aktı</w>
Festiv al</w>
Tun es</w>
İdar e</w>
M uz
e au</w>
eti dir</w>
mer div
birlik ler</w>
Sah ne</w>
imparator u</w>
çevres el</w>
]] '</w>
müş lerdir</w>
top çu</w>
17 6
dön erek</w>
diren iş</w>
Ov ası</w>
Hid ro
p el
ind iği</w>
mu c
kur arak</w>
oğl unun</w>
Gaz ze</w>
Twit ter</w>
E h
E le
at er
13 4</w>
danış manı</w>
taarru z
Zir aat</w>
N an
k ur</w>
z et</w>
tür ünün</w>
men leri</w>
tep kim
elen miş</w>
Fer din
hac mi</w>
Önc eki</w>
ağ ız
A I
ar an</w>
an larının</w>
ış lardır</w>
aç ısı</w>
Gen elde</w>
B uz</w>
bir çoğu</w>
fin ali</w>
boy un</w>
uyar ınca</w>
Pren ses</w>
taş ları</w>
vasıt asıyla</w>
2 25</w>
il la
cu ların</w>
has sas</w>
önc ülük</w>
Hal ife</w>
y amaç
ik te</w>
188 1</w>
kasab adır</w>
Kariy er</w>
F amil
kal ması</w>
hav alim
Dağ lık</w>
söyle diği</w>
kurtar mak</w>
tanr ıç
G ine</w>
O st
ör üm
mad eni</w>
ıt lar</w>
bar aj</w>
fr i
kem er
din amik</w>
Mac h
güven liği</w>
D an</w>
Gün ümüz
Kur ulu
kam p</w>
öğrend i</w>
Vikip edi</w>
S uz
T ob
c y</w>
ا ن</w>
yayın lamıştır</w>
kim liği</w>
nes ne</w>
Te x
ris on</w>
düzey inde</w>
â l</w>
iş sel</w>
ül üs</w>
Per s
bildir ildi</w>
solun um</w>
B ala
T L</w>
sat ıldı</w>
hareket inin</w>
stady um</w>
f al
an ından</w>
üm in
eh enn
R üz
en sis</w>
ol muşlardır</w>
14 2</w>
dur an</w>
him ay
ig u
kab ul
lığ ıyla</w>
Ch am
git tikçe</w>
güney doğusunda</w>
Elektr onik</w>
R önes
S ac
S m
h um</w>
oloj inin</w>
araştır maları</w>
tav siy
V amp
á n
tar if</w>
geliştir ilmesi</w>
ti us</w>
R is
gerek lidir</w>
ila ve</w>
geçir ildi</w>
zar f
Gü l</w>
c ep</w>
at han</w>
tar if
tarih ini</w>
say fa</w>
har cam
dik ey</w>
Que en</w>
Vinc ent</w>
ad an
lan masına</w>
tü d
14 3</w>
dep res
Bek ir</w>
Phila del
V a
say ımı</w>
yüz me</w>
ust on</w>
devlet ler</w>
c isim
bil mektedir</w>
os p
65 0</w>
destek ledi</w>
giz lice</w>
öyk üsü</w>
Çer kes</w>
lib eral</w>
Stud ios</w>
İşlet me</w>
kur umu</w>
yar ımad
ag on
kiş ilere</w>
Kur ul
k ır</w>
w s</w>
an ist</w>
13 6</w>
23 3</w>
asyon ları</w>
tik ler</w>
Bus h</w>
in iş</w>
gö k</w>
p am
ak ış</w>
ler arası</w>
ış ığı</w>
çalış mış</w>
güc ünün</w>
ikti dara</w>
Kart aca</w>
filoz of
E mev
ek lenmiştir</w>
az ıt</w>
ru k</w>
grup ların</w>
meler de</w>
C ul
P aş
gen eral
23 5</w>
viz yona</w>
Em my</w>
Flor ansa</w>
L ip
M ül
a er
le tin</w>
19 5</w>
ent ur
düş mesi</w>
yerleş en</w>
yönetim indeki</w>
duy duğu</w>
ho use</w>
D D</w>
F is
J ar
Ç evr
al ırlar</w>
re z</w>
189 2</w>
ald ıkları</w>
ed o</w>
ro t
ac o</w>
14 8</w>
ıld ılar</w>
sek s</w>
motor lu</w>
yans ım
om o
bek lenen</w>
Devr imci</w>
kala c
Kızılder ili</w>
a gr
et on</w>
kar ayolu</w>
ec k</w>
las yonu</w>
teker lek
B ö
K A</w>
g el</w>
et tepe</w>
15 4</w>
yol lar</w>
ta j</w>
C lo
y ar</w>
il lerin</w>
Sab ah</w>
Mücad ele</w>
E rol</w>
in o
is in</w>
15 6</w>
kap s
kes iş
49 6</w>
yanl ış
n is</w>
ü lerek</w>
sür üm</w>
Sch les
S lav
açık lar</w>
üniversit esi</w>
Bağım sızlık</w>
16 8</w>
ly n</w>
Cen tr
Sekret eri</w>
rüzgâ r</w>
S istem</w>
er dir
eş e</w>
man uel</w>
önc ül
yayım ladığı</w>
güven ilir</w>
alışver iş</w>
Nint endo</w>
Ş ef
say ısal</w>
lık lara</w>
Soğ uk</w>
k ul</w>
ed ia</w>
13 7</w>
huku ku</w>
Bit lis</w>
t ort
20 7</w>
gir mesi</w>
her ine</w>
Lond on</w>
zih insel</w>
Nij erya</w>
Stock holm</w>
B eb
al çak</w>
ru vaz
Ar if</w>
Er c
kr iz
yap rak</w>
sahip tirler</w>
kut up
D ad
H aber
g io</w>
Ko ç
mevki inde</w>
Kırgız istan</w>
on t</w>
diz isidir</w>
bö br
G eri</w>
h y
kad a</w>
189 1</w>
cez a
cil t
Seb asti
B ük
r y
v et
or ant
ut her
kap ısı</w>
Br ad
seslendir diği</w>
ad ından</w>
Ab dü
J ason</w>
ek lerine</w>
olu k</w>
ala dı</w>
inş ası</w>
Yönetm en</w>
A E
C ah
in ya</w>
as yonda</w>
az an</w>
Alman lar</w>
Man uel</w>
İstatis tikleri</w>
En ver</w>
Bo e
Hat un</w>
doğu ya</w>
Sof ya</w>
N in
ut t
kal esi</w>
Aş ağı
belg es
İ y
ur g</w>
suç lu</w>
Gam es</w>
eğil im
Bern ard</w>
Pot ter</w>
yürütül mektedir</w>
koru du</w>
R ez
us unu</w>
Th is</w>
Bab asının</w>
cumhur iyet
U p
U nder
s ic
at örü</w>
işle vi</w>
Mag n
Pic tur
kur amı</w>
sev diği</w>
bırak ır</w>
beb ek</w>
Fac ebook</w>
J ay</w>
f at
bel ge</w>
kuş lar</w>
Ben im</w>
hit ap</w>
filoz of</w>
ek sen
eğ men</w>
16 6</w>
şark ıdır</w>
Dim it
L ise</w>
S olan
uc unda</w>
yol unun</w>
amaç layan</w>
şirket ler</w>
ülkes inin</w>
2 17</w>
C N
S han
sağ ladığı</w>
ses li</w>
ülke lere</w>
gol ü</w>
Mend eres</w>
Abhaz ya</w>
F F</w>
G las
H art
Ay v
inan ç</w>
edit ör
d alı</w>
en lere</w>
tar ımsal</w>
Ar ş
17 8</w>
Mat t</w>
2 22</w>
k re
göç men</w>
karm aş
benim sem
E j
20 2</w>
16 3</w>
men aj
büyük tür</w>
Nik olay</w>
Tib et</w>
Er eğ
ub li
Oyun cular</w>
hab eri</w>
laborat uvar
C u
O ut
yap ıp</w>
görüş ü</w>
öyk üs
Düz ce</w>
Mot or</w>
St or
tut ar</w>
ail esiyle</w>
Sar ah</w>
T aş</w>
14 1</w>
at ılmış</w>
19 6</w>
sat ılan</w>
öner di</w>
mec lis
F ur
ros s</w>
niş an
D ek
K ağan</w>
albüm ünden</w>
başkan lığında</w>
zaman ların</w>
Dan ce</w>
Hac ı
ücu m</w>
t uş
yap arlar</w>
ig i</w>
Ef es</w>
rezer v
am ın</w>
um sal</w>
ib a</w>
and er
15 1</w>
kor on
hap se</w>
dâh il</w>
b la
r al</w>
baş lanan</w>
ör t
kelim esinden</w>
S qu
an na</w>
im si</w>
ter ör</w>
Türk istan</w>
Ter ak
teş kilat
Schles wig</w>
b ana</w>
durum dadır</w>
sonuç larına</w>
kuvvet ler</w>
so h
pil ot
leh ine</w>
Çat al
riba und</w>
Britan yalı</w>
F M</w>
G it
g a
on c
oluş muş</w>
Bil ecik</w>
Med res
Müslüm anlar</w>
Si irt</w>
S tüd
ro ket</w>
üret tiği</w>
Futb ola</w>
üv ey</w>
b i
h iyer
lan t
15 8</w>
yas ını</w>
İr landalı</w>
med en
August us</w>
H ud
z ad
Yahud ileri</w>
yeten ekli</w>
Tah ran</w>
Senat osu</w>
18 5</w>
lo j
ulaş mak</w>
kaynak lara</w>
hükû metin</w>
başlat ılan</w>
Philadel phia</w>
at f
Kür distan</w>
ansiy on</w>
kullanıc ıların</w>
Nit ekim</w>
f ac
l ül
Ç eç
tak ip
15 9</w>
Antark tika</w>
17 4</w>
Matem atik</w>
k t</w>
y ığ
us una</w>
Sar ı
yöntem ler</w>
mücadele si</w>
L üt
r ap</w>
ak ışı</w>
Ağ ır</w>
Tr en</w>
çıkar mak</w>
hareket li</w>
D ü
k ü
18 6</w>
say ısına</w>
çek imleri</w>
dün yayı</w>
or ado</w>
19 3</w>
ilç eleri</w>
gem inin</w>
Zeyn ep</w>
W er
r ag
Ç ap
el ini</w>
Ch er
bur t</w>
karar lı</w>
ayrıl maktadır</w>
Fern ando</w>
ev lenmiştir</w>
üy eliğine</w>
yol una</w>
Le o</w>
ölüm cül</w>
İdar esi</w>
s ay</w>
er ke
yap ısını</w>
laş ır</w>
sah ada</w>
sin yal</w>
Hol stein</w>
kültür ünün</w>
etkileş im</w>
Tev fik</w>
toprağ a</w>
ın ık</w>
baş lığı</w>
16 4</w>
Ne x
vide osu</w>
B öylelikle</w>
n ie</w>
ad iye</w>
st e</w>
ko p</w>
köy lü
tic o</w>
Ermen iler</w>
Tor onto</w>
C os
m atik</w>
ti nden</w>
ol madı</w>
Tr in
ölüm ünün</w>
sıcak lığı</w>
rast gele</w>
olog y</w>
ılac ağını</w>
E sen
L ong</w>
S ib
h il
ür etmek</w>
buc aktır</w>
P ay
bar ış
Ale v
kavr am</w>
R ac
ım sı</w>
Tarih sel</w>
organiz asyon</w>
C op
b ine</w>
ilm esinden</w>
16 7</w>
yazar ları</w>
Mahal le
F as
N g
b olu</w>
üy elerinden</w>
yol culuk</w>
her kesin</w>
elek tromanyetik</w>
gö lü</w>
kil isesi</w>
uz ant
bu cak</w>
inş a
İk tisat</w>
hastan ede</w>
muhaf aza</w>
l û
az esi</w>
inc isi</w>
ub a</w>
çalışmalar a</w>
kuvvet li</w>
sözc ük</w>
olog lar</w>
kaz ası</w>
30 5</w>
lider leri</w>
çab a</w>
evren in</w>
alar ca</w>
15 3</w>
37 0</w>
eleştir i</w>
Siv il</w>
fizik çi</w>
3 47
if f
met rosu</w>
Bölg ede</w>
Fa ir
L ost</w>
m ur
m ele
uy an
th a</w>
Göz tepe</w>
kıv r
H us
H and
u bu</w>
ö nden</w>
ti la
un lu</w>
ut a</w>
hal ini</w>
bin alar</w>
188 4</w>
sur etiyle</w>
Hac ettepe</w>
K enn
mi a</w>
on larla</w>
iş areti</w>
tarih î</w>
Bur ak</w>
Ger çek
pay laştığı</w>
Mis so
Mahkem e</w>
Felsef e</w>
F an
man z
ez ler</w>
28 26
25 5</w>
donan ım</w>
mir as</w>
Charlot te</w>
du l</w>
Bel l</w>
asker lerin</w>
İngiliz ler</w>
keşf edildi</w>
Budap eşte</w>
g i
st il
kat ılarak</w>
Kom is
ij i</w>
sul tan</w>
Cumhuriyet çi</w>
Wrest ling</w>
burg h</w>
2 12</w>
ec ht</w>
oynam ış</w>
Gor don</w>
buz ul
S V</w>
Es er</w>
karakter dir</w>
Bru ce</w>
E leme</w>
M ant
t r</w>
laş mıştır</w>
düş ük
188 8</w>
g usu</w>
16 9</w>
Br iti
Ev r
rad ikal</w>
How ard</w>
Ch ur
sef eri</w>
koruy ucu</w>
Mev cut</w>
fazla dır</w>
Abdur rah
k alarak</w>
am er
20 3</w>
ley ecek</w>
Res mî</w>
finans e</w>
ortalam ası</w>
S lav</w>
w w
öz deş
13 9</w>
tıp kı</w>
ç ür
do ları</w>
uz aktan</w>
Kom p
destek lenen</w>
dey işle</w>
m u</w>
or an</w>
göster erek</w>
sağ lanır</w>
sk aya</w>
mimar isi</w>
Mi ami</w>
Ferr ari</w>
İslâ m</w>
P ost</w>
17 3</w>
Br yan</w>
ebil ir
müzis yen
in tegr
or d</w>
Ar m
ip e</w>
komut asında</w>
Briti sh</w>
A k</w>
A ust
B ayan</w>
M ila
at ta</w>
sür güne</w>
üs lu
mad enc
Ad ını</w>
ins k</w>
kaç an</w>
kup ayı</w>
2 11</w>
volkan ik</w>
Mars hall</w>
S ep
g ul</w>
10 4
düzen lenmiş</w>
sub ay
Phil ip</w>
ter k
yarış manın</w>
40 5</w>
Müz iği</w>
lek s</w>
Merc edes</w>
eti ket
Al p</w>
göz lem</w>
yarat ıcı</w>
iv i</w>
ann y</w>
sanat sal</w>
Dok uz</w>
d endir</w>
es te</w>
17 7</w>
eksik liği</w>
S incan</w>
r ah</w>
An al
ilm esinin</w>
söz lü</w>
Ver mont</w>
N ez
O ut</w>
f il</w>
art ar</w>
bölge lere</w>
diy al
koşul lar</w>
çağr ıldı</w>
Ped ro</w>
C uma</w>
Div ision</w>
Tic ari</w>
20 8</w>
edil ip</w>
16 1</w>
Amer ica</w>
üks el</w>
iyor sa</w>
CE O</w>
N il</w>
tit r
26 4</w>
üc ret</w>
büyük lüğü</w>
fayd alan
K ıt
u laştır
lan ıp</w>
kapasit eli</w>
O D
R I
kon ak
Bey oğlu</w>
ban t</w>
seviy ede</w>
Etiyop ya</w>
18 48</w>
zirv eye</w>
P oz
c in</w>
en ne</w>
19 7</w>
say ımlarına</w>
17 1</w>
15 7</w>
16 2</w>
14 9</w>
kıs ımları</w>
başar an</w>
tartış malı</w>
Y e
tür b
As ıl</w>
birey lerin</w>
H T
i oğlu</w>
at ış
baş kent
Mar x</w>
adlandır ılmıştır</w>
fır sat
laz iz</w>
Temsil ciler</w>
2 13</w>
R ihan
h ikay
ge t</w>
tr ib
met rek
Şer if</w>
B lan
R eb
ac ılar</w>
kur ut
18 67</w>
35 0
bulund uğunu</w>
39 5</w>
olay dan</w>
rast lanır</w>
blo k</w>
Müttef ik</w>
Rihan na</w>
yıl lara</w>
bölg esini</w>
rak ip
öğren me</w>
geliştir ildi</w>
Su p
Res im</w>
özgür lük</w>
İnsan lar</w>
20 1</w>
23 2</w>
met ro</w>
İl k
uşt u</w>
yeğ eni</w>
ebev eyn
. "></w>
F lam
l iliğini</w>
ıl masında</w>
18 3</w>
if iye</w>
milletvek illeri</w>
taht tan</w>
2 26</w>
T o</w>
os e</w>
kav g
188 7</w>
model idir</w>
turnuv anın</w>
bitk iler</w>
Ferdin and</w>
Misso uri</w>
p us
yaş ıyordu</w>
27 4
bas ılan</w>
gür ül
2 18</w>
t atil</w>
20 4</w>
gil endir
dav ası</w>
Gre en
küt lesi</w>
v ücut
bat ısındaki</w>
Ül ke
War ner</w>
Proj e</w>
g y</w>
w ich</w>
şark ıların</w>
sağ lıklı</w>
Ku vey
tanın maktadır</w>
Gu y</w>
fonksiy on</w>
Stand art</w>
T im</w>
V or
taraf ına</w>
18 9</w>
yol larını</w>
ila l</w>
P es
bitir miştir</w>
kent sel</w>
etraf ındaki</w>
Russ ell</w>
L as</w>
l iv
17 2</w>
tamam layarak</w>
ten is</w>
y asında</w>
Par ç
kitab ını</w>
un lar</w>
em emiştir</w>
om on</w>
değ in</w>
çek im
tek in</w>
belir lendi</w>
46 0</w>
Ef san
kir alandı</w>
terc ih
Gabri el</w>
D o</w>
c io</w>
geç meden</w>
23 8</w>
25 4</w>
geliş miştir</w>
pr ömiy
yaşad ıkları</w>
H aş
ti ksel</w>
etm eleri</w>
köy leri</w>
sun an</w>
hed iye</w>
Kel ly</w>
t rom
ek lerinde</w>
belir siz</w>
kayıt lı</w>
ipp i</w>
ıl ımı</w>
at ra</w>
ab le</w>
tem iz</w>
doktor asını</w>
Dönem in</w>
y at</w>
mas ıydı</w>
harek etin</w>
mo tif
Akadem ik</w>
Çarş amba</w>
b ad
k it</w>
mes aj</w>
ebil eceği</w>
araştır macı</w>
etkilen en</w>
s ip
il lo</w>
19 1</w>
20 6</w>
gir t</w>
üret ilmiş</w>
milliyet çi</w>
Zür ih</w>
c ah
ç an</w>
kan lı</w>
İs yanı</w>
li x</w>
çap ı</w>
Karş ı</w>
Abdülham id</w>
al ler</w>
ay kırı</w>
gör me</w>
hat tan</w>
program ını</w>
Fil ist
187 1</w>
noktas ına</w>
Stev en</w>
M P
al p</w>
ek s</w>
lu ların</w>
ülke lerden</w>
adam ın</w>
Sing apur</w>
l ıyordu</w>
s of
yay ını</w>
tik lerini</w>
trans fer
da ire</w>
gelec ekte</w>
á r
а р
an lama</w>
ad din</w>
tr amv
yaş ı</w>
lığ ındaki</w>
soy lu</w>
Avustur yalı</w>
Bah r
Çer kes
konfer ans</w>
işken ce</w>
H op
f ran
ç ıplak</w>
aj lı</w>
o u
maç larda</w>
sezon udur</w>
mış lar</w>
yetkil ileri</w>
K eç
z ig</w>
ç ır
İ D</w>
ş in</w>
ed ince</w>
yön ü</w>
pro fesyon
30 1</w>
tas yon</w>
Kı p
Üy esi</w>
ıl ıyordu</w>
et lerini</w>
iy etinde</w>
kad ını</w>
17 9</w>
amaç la</w>
S ard
Z ek
18 35</w>
for mayı</w>
kuz eye</w>
dönd ükten</w>
oran la</w>
Ort aç
Fu at</w>
al eti</w>
ed ik
19 9</w>
ke le
malzem eler</w>
U laşım</w>
v ahşi</w>
iz leri</w>
18 1</w>
En gel
Sant os</w>
yürütü len</w>
su lama</w>
gönder diği</w>
nef ret</w>
ww w</w>
H anlığı</w>
on lardan</w>
29 0</w>
ser gi</w>
24 2</w>
derec esini</w>
Ken ned
egemen liği</w>
Şim di</w>
2 15</w>
K and
Y urdu</w>
yayınlan maya</w>
Fir st</w>
İskender iye</w>
k iler</w>
ad ılar</w>
taraf ta</w>
tehlik e</w>
B res
or ij
çek ilmiş</w>
Bro ok
cüm le
Niğ de</w>
A qu
at on</w>
ır da</w>
ro z
um ları</w>
edil iyor</w>
sır alama</w>
28 7
Ec z
r isi</w>
é s</w>
19 4</w>
10 6
gid erken</w>
dönüş ür</w>
rap çi</w>
sektör ünde</w>
sinem aya</w>
Pop üler</w>
Kürt çe</w>
O na</w>
ıl ıkları</w>
24 6</w>
Coğraf i</w>
Hav acılık</w>
kurş un</w>
2 24</w>
L ot
aş k
ıs ın
par amet
düz gün</w>
Böl genin</w>
tanım ladı</w>
duy u</w>
rah at</w>
psik oloji</w>
bac k</w>
buz ul</w>
Ern st</w>
Kırk lar
2 14</w>
V ef
ik çi</w>
tar z</w>
tek lisi</w>
De ath</w>
soy kır
Boe ing</w>
" -</w>
S SC</w>
al izm</w>
ol gu
öl ür</w>
lam alı</w>
Pro duc
Mü dür</w>
Ten nes
RA M</w>
Mig uel</w>
pah alı</w>
I M
kad rosu</w>
kal dılar</w>
yüzyıl lar</w>
din am
yav ru
Cla ude</w>
Kızılder il
ar c
en burg</w>
19 8</w>
re p
geliş mesi</w>
uyar lanan</w>
hes ab
ödüllendir ildi</w>
mı sır</w>
18 7</w>
laş maya</w>
bo t</w>
karşılaş masında</w>
pen alt
Özgür lük</w>
j in</w>
v amp
at ların</w>
lan masını</w>
ac ağına</w>
sen s
47 8</w>
Hay van
fabrik ası</w>
restor e</w>
sekret eri</w>
A V
l ıydı</w>
ım larını</w>
gel iyor</w>
Bil dir
dil in</w>
hazır lanmış</w>
Em in
kuzey indeki</w>
cep he</w>
mühend isi</w>
ç ukur
kal a</w>
Met ro</w>
oynad ıktan</w>
2 21</w>
2 28</w>
le j
Kar aç
24 1</w>
36 7</w>
program ının</w>
Doğ a</w>
soy u</w>
3 37
L as
z ul
25 3</w>
dik tat
kır dı</w>
Ro ber
devr im</w>
ayrıl ıp</w>
Jim my</w>
I ğ
g üzer
an z
an ıdır</w>
ad aya</w>
yıl lardan</w>
kon um</w>
fon i</w>
dönüş üm
New s</w>
R et
P adiş
an arş
iş lerini</w>
hat ları</w>
sim ü
mühend is</w>
u h</w>
ler ler</w>
bulun mayan</w>
bulun tu
18 65</w>
ilm ek</w>
den ge</w>
göster iyor</w>
30 2</w>
ıc ıları</w>
Bur dur</w>
Antal yaspor</w>
kâğ ıt</w>
as ter
ol maz</w>
gör mektedir</w>
İz nik</w>
M üş
f eti
v ana</w>
ic us</w>
kend ileri</w>
araştırmac ılar</w>
F eth
is p
18 50</w>
göster ilebilir</w>
27 2</w>
profes ör
Rob in</w>
ilet ken
olun ca</w>
ras ya</w>
ayr ıldıktan</w>
39 0</w>
özellik lere</w>
konum undadır</w>
dağıl ım</w>
dağıt ım</w>
Çoğun lukla</w>
2 19</w>
B l
ev inin</w>
gel iyordu</w>
Ağ ır
Ak hisar</w>
Wil l</w>
pat lama</w>
Cela l</w>
baş larına</w>
kıy ılarında</w>
suç lam
LG BT</w>
P ınar
sür mektedir</w>
Br üksel</w>
Tr i
gerçekleştir miştir</w>
ros kop
üniversit ede</w>
G üç
M ali</w>
ıl masının</w>
az dır</w>
uç ağın</w>
maç larında</w>
tut mak</w>
geliştir ic
dep o
boyut u</w>
gec esi</w>
konser ler</w>
j u</w>
y ur
am cası</w>
Bas ın</w>
Dar k</w>
devlet leri</w>
Ort ak</w>
cen aze</w>
2 23</w>
tarih çiler</w>
tamam ını</w>
Doğ an
sok ak
Şehir de</w>
ar ist
25 2</w>
Go od
Sad raz
fırs atı</w>
G N
L es</w>
g ag
k ot
on ly
or kestr
An laşması</w>
dön üm</w>
tır aş</w>
hüküm dar</w>
Gök han</w>
Bol iv
Dr ama</w>
Off ice</w>
Kenned y</w>
yen ildi</w>
yol da</w>
Yar gıt
krist al</w>
T V
ent al</w>
Go od</w>
koruy an</w>
hek tar
Max im
Paul o</w>
Tennes see</w>
only include</w>
C ra
K uy
el ia</w>
sun ucusu</w>
toplan tı</w>
kanıt lar</w>
özgür lüğü</w>
un try</w>
st one</w>
haz in
188 3</w>
giriş im</w>
P le
a oğlu</w>
bağ lar</w>
geç it</w>
çek iş
23 7</w>
26 7</w>
düzen siz</w>
Re is</w>
anlat ılır</w>
n av
an lardan</w>
lar sa</w>
24 5</w>
donan ması</w>
Sk y
i a
i ani</w>
а н
26 1</w>
malar ından</w>
çıkar an</w>
Şeh zade</w>
gar t</w>
program ına</w>
koy un</w>
televiz yon
Hat tı</w>
p ay</w>
18 8</w>
oyun unda</w>
üy dü</w>
Geç ici</w>
semp tom
Milliyet çi</w>
asyon a</w>
kl inik</w>
Hristiyan lık</w>
" “</w>
L ac
i ve</w>
18 4</w>
Ho uston</w>
kral lık</w>
Tay yip</w>
Baş bakanlık</w>
ayn ıdır</w>
devlet inin</w>
alınd ığında</w>
İstih barat</w>
Co mi
ilişk ilerini</w>
sınır ında</w>
sil indir
bitir dikten</w>
End ülüs</w>
Bin ası</w>
gen i</w>
anlam lı</w>
sahn ede</w>
Kıl ıç
G M</w>
M K
r ip
şekil lendir
Abd ul
Lud wig</w>
O ber
T rop
ik lerinin</w>
az ın</w>
ent elek
Mar eş
23 1</w>
kitab ının</w>
öğretmen lik</w>
20 9</w>
it me</w>
say ısında</w>
23 9</w>
bulund ukları</w>
am lar</w>
Ser dar</w>
trop ikal</w>
ay gıt
kelim esinin</w>
lider lik</w>
yorum lar</w>
oto büs</w>
D ür
P C
ti ndeki</w>
ış ık
teş em</w>
Gal er
birleş erek</w>
Hır isti
olas ılığı</w>
sıralam asında</w>
h ic
at t
sah il
Bur adaki</w>
üretim ine</w>
uşt ur</w>
entelek tü
Y üc
u ka</w>
ab an</w>
iz ole</w>
şar ap
lit er
A D
kom it
sistem de</w>
mak am</w>
seviy esinden</w>
w e</w>
ç ağ</w>
iz leme</w>
oy lama</w>
tab los
giy s
lin es</w>
teş ek
sıf ır
nih ai</w>
27 5</w>
26 2</w>
Gir ls</w>
ucu z</w>
döv üş</w>
Marks ist</w>
L anc
S oph
f aş
s et
seç kin</w>
kullanıl mak</w>
Gö l</w>
güney batı</w>
Pren si</w>
Hiz met</w>
Ereğ li</w>
n ükle
on im</w>
ıs ır
yar ıştı</w>
ilm esinde</w>
takım ların</w>
Tr av
sak in
Peter sburg</w>
iy eli</w>
ent s</w>
tes is</w>
45 2</w>
39 2</w>
değiştir me</w>
2 27</w>
Z im
kon usudur</w>
23 4</w>
film dir</w>
boy unda</w>
canlandır mıştır</w>
fos il</w>
kuyru k</w>
N ick</w>
V eli</w>
h ire</w>
35 3</w>
performans ını</w>
okyan us</w>
M elik
s lo
ç ı
in ç
par mak
har fi</w>
Re ich
milliyet ç
htt p</w>
Liz bon</w>
W ayne</w>
p ayı</w>
s unduğu</w>
30 8</w>
St y
dav ul
destek ler</w>
cin ayet</w>
şi iri</w>
C ep
ak ıl
25 1</w>
göz altına</w>
Andre a</w>
pandem isi</w>
E mek
I sa
s indir
tur istik</w>
Har ris</w>
söz lerini</w>
yarış an</w>
konu larında</w>
Yak up</w>
tüm üyle</w>
beld eye</w>
Amaz on</w>
k ütüphane</w>
ap i</w>
kor san
toprak lar</w>
Fiz iksel</w>
N ükleer</w>
Ş eb
kur ak</w>
18 63</w>
26 9
Hal kın</w>
FI BA</w>
başlat ıldı</w>
gerektir en</w>
Andr é</w>
l ıları</w>
alan ların</w>
sistem e</w>
ikti darı</w>
erkek lerin</w>
A u
B ulu
etm edi</w>
Av iv</w>
kap lıdır</w>
Yah ya</w>
geniş liği</w>
doğus undaki</w>
yetm ez
W ay</w>
ç en
ş ek</w>
ec eli</w>
28 1</w>
28 4</w>
köy ünün</w>
Ol iver</w>
silah lar</w>
dük leri</w>
Yargıt ay</w>
hav ada</w>
34 2</w>
görüş leri</w>
tanıt ım</w>
neh ir
2 29</w>
T H
Y eti
m b
çık masına</w>
ob iy
dok u</w>
Pola t</w>
Katedr ali</w>
s y
bor u</w>
tartış malar</w>
yoks ul
V es
etm ez</w>
29 5</w>
47 0</w>
pir inç</w>
Aşağ ıda</w>
P G</w>
R eh
V oy
23 6</w>
alan ıdır</w>
emr iyle</w>
taz min
k olu
r emi</w>
den etim
25 9</w>
45 1</w>
Lig ue</w>
Kır şehir</w>
kayd edilen</w>
engel lemek</w>
ileti ş
İran lı</w>
U S</w>
St ew
Ödül ler</w>
yazıl ımı</w>
la c
30 4</w>
yol la</w>
ant rop
San kt</w>
mam alıdır</w>
destek li</w>
Yaz ılım</w>
dr am</w>
kadro ya</w>
Kans as</w>
çalış masını</w>
çıkar ma</w>
dal e</w>
Em niyet</w>
azalt mak</w>
göm üldü</w>
B B</w>
J uv
K an</w>
M L</w>
kar ak
bir eyin</w>
kal ıp</w>
Mo ore</w>
karar ıyla</w>
Demokr asi</w>
Et kin
yetiş kin
makin esi</w>
kalit eli</w>
C las
H unt
yap ısına</w>
makt ı</w>
tür lerinin</w>
30 6</w>
Gün ümüz</w>
düşün ür</w>
çocuk luk</w>
hey ec
demokr asi</w>
Jef f</w>
P enn
d unun</w>
ek st
har f</w>
kap tan
su lar</w>
tanıt tı</w>
Iğ dır</w>
G ul
K ala
r î</w>
kab art
dön üm
tekn ikleri</w>
katıl ımıyla</w>
rek or</w>
gelec ekteki</w>
taşın mıştır</w>
riv ay
D uy
kullan ımını</w>
yaş andı</w>
res imleri</w>
27 3</w>
26 5</w>
uk ur</w>
duy ulan</w>
Gö ç
Kam er
milletvek il
sipar iş</w>
Ö dül</w>
ab ildi</w>
26 6</w>
Bey liği</w>
sergil edi</w>
donan ma</w>
h ür
r al
ok im
lay er</w>
ıt lı</w>
takım la</w>
187 5</w>
V eg
t ümü</w>
Ç ub
se ler</w>
28 5</w>
alt ındadır</w>
uç akları</w>
ban ka</w>
Bolşev ik</w>
F ut
L ast</w>
k ruvaz
malar dan</w>
49 0</w>
güç lerini</w>
faaliyet e</w>
oynan mıştır</w>
siy um</w>
tanım lanmış</w>
Bay burt</w>
yazar ıdır</w>
cumhur iyet</w>
Sil va</w>
imzala mıştır</w>
düşür ül
kenar ında</w>
Mar vel</w>
İs m
26 8</w>
3 D</w>
24 9</w>
24 8</w>
fırs at</w>
b ül
ot oy
ülk esine</w>
Fakül t
ayır an</w>
C iz
G ey
X T</w>
ik lik</w>
sür düğü</w>
San ti
Bo ur
kayıt larda</w>
nam esi</w>
T i
m etinde</w>
w orth</w>
alt yapı</w>
tanım layan</w>
Barbar a</w>
E len
I Ş
c ada</w>
bel l</w>
Kat e</w>
37 5</w>
ordu ya</w>
kıy as
Kay ser
güc üne</w>
demokr as
ağab eyi</w>
R iz
S ter
S üt
ığ ımız</w>
öl müş</w>
27 4</w>
25 8</w>
38 6</w>
Müz e</w>
çevr eleyen</w>
başlam adan</w>
ak o</w>
şark ılarını</w>
Bey ler
Ordu s
Ayak lanması</w>
İkti sadi</w>
N CA
St ate</w>
tas tik</w>
Ev ren
Bor is</w>
Göz lem
û n</w>
28 3</w>
tem in</w>
öldürül müştür</w>
Lis ans</w>
G ib
or aya</w>
un c
gr an
söy leyen</w>
nokt aları</w>
oper asyon</w>
sevgil isi</w>
P eygam
T ü
il ikleri</w>
am adığı</w>
ev er
27 8</w>
48 7</w>
kıy ısı</w>
endüstr isi</w>
cerrah i</w>
G eb
R iv
ik atür
takım larında</w>
üretim inde</w>
akc iğer</w>
Kırklar eli</w>
F L</w>
N ö
Z o
p omp
dır lar</w>
uygu lanır</w>
protest o
E li
m un</w>
an oğlu</w>
bah çe</w>
Rönes ans</w>
T od
Y üz</w>
b uçuk</w>
ger eğ
yüz ölçümü</w>
uc ky</w>
işlem ci</w>
De par
Mes ih</w>
ilk el</w>
K ok
kur muş</w>
kab in
Ad ap
187 3</w>
madd elerin</w>
kapat ıldı</w>
metr elik</w>
R ib
at e
mutf ağı</w>
Sid ney</w>
C lin
J ov
çeşit leri</w>
Ok lah
yönetim inin</w>
şeb ek
G ag
K id
a gücü</w>
u b</w>
ar z</w>
ış lar</w>
mü s
28 6</w>
Er ivan</w>
belir lenmiş</w>
36 8</w>
Sul tanı</w>
Aks aray</w>
yukar ıda</w>
T A
il irken</w>
ed indi</w>
im le</w>
kar g
18 34</w>
Mar y
ail esinden</w>
Ulus lar</w>
Aleks ios</w>
John ny</w>
B ig
é n
27 6</w>
Bak ır
Th at</w>
Ür etim</w>
C S
L isa</w>
O pen
k leri</w>
ir liği</w>
iz asyonu</w>
An ıtı</w>
oyn ar</w>
dik çe</w>
anlay ışı</w>
diplom at</w>
platform u</w>
geomet rik</w>
R ach
ç atı</w>
es pe
Savaş tan</w>
bağlam da</w>
L eg
ı tan</w>
Kar aca</w>
bab asını</w>
U çak</w>
Ç etin</w>
anlaş maya</w>
faaliyet lerine</w>
ver it
27 1</w>
sistem idir</w>
tekn olojik</w>
bölge lerinden</w>
devr inde</w>
belediy enin</w>
Rum en</w>
Afrik alı</w>
fırt ın
i ade</w>
dü et</w>
kal enin</w>
28 7</w>
kazan mak</w>
Ter im</w>
Mor gan</w>
dep rem</w>
olas ılık</w>
Konstantin os</w>
A n</w>
B in</w>
Ş ap
im an</w>
it asyon</w>
os una</w>
yaz mış</w>
Öz türk</w>
aj a</w>
tah sis</w>
40 1</w>
nokt aya</w>
Art s</w>
Marg aret</w>
M alt
M ülk
c ıları</w>
y ırt
ed eceğini</w>
pro to
28 8</w>
24 3</w>
ond aki</w>
38 4</w>
kral ın</w>
Jon athan</w>
benim sen
İt tih
cem aat
k z</w>
in h
ay etinde</w>
or lardı</w>
ed ecektir</w>
güney doğu</w>
kah ve</w>
kadın lara</w>
H üc
” "</w>
et z
kal dıktan</w>
siy on
45 5</w>
teor emi</w>
hip er
kilomet r
benzer lik</w>
Müf et
Oklah oma</w>
A A</w>
C W</w>
en ha
ec ekler</w>
kur maya</w>
tü ğü</w>
kr edi</w>
geçir erek</w>
40 4</w>
Bay ern</w>
kür e</w>
ο ς</w>
üz eri</w>
kurul masına</w>
kahram anı</w>
Tüm en</w>
G av
ac y</w>
ih la
24 4</w>
kır k</w>
kasab asında</w>
yetiş en</w>
ti me</w>
ant laşma</w>
eser ini</w>
Şi ir</w>
geçer lidir</w>
met ab
İl han</w>
tic ar
Chan nel</w>
j an</w>
aş an</w>
29 9</w>
25 7</w>
her kes
dayan ık
biy oloji</w>
fir ma</w>
H emen</w>
h ücum</w>
st en</w>
ic ia</w>
re ş</w>
ışt ay</w>
neden lerle</w>
Bel ir
Körf ez</w>
düzenlen mektedir</w>
D ijital</w>
i Tunes</w>
er miştir</w>
yaş arlar</w>
38 7</w>
zor dur</w>
itir af</w>
Jul ia</w>
CA F</w>
frek ans</w>
koal isyon</w>
c op
y ay</w>
man ken</w>
kes me</w>
seyir c
kaz ı</w>
ilet ken</w>
Ley la</w>
L ag
n ov
İ nd
am ları</w>
eh r
24 7</w>
Met al
aşam ada</w>
ansiy el</w>
toplant ısında</w>
Jor dan</w>
C o</w>
Y em
Z eng
ver diğini</w>
eg z
İş birliği</w>
Wh at</w>
H elen
M idd
değ ir
İn g</w>
30 3</w>
39 9</w>
med ik</w>
Val ley</w>
teş eb
les inin</w>
espe are</w>
p embe</w>
tak lit</w>
iler le
belir leyen</w>
35 7</w>
34 5</w>
Ham di</w>
Kür esel</w>
dakik alık</w>
fen om
A lem
H üm
i ah
j et</w>
do m</w>
ort ağı</w>
ıc ının</w>
kayd edildi</w>
model ler</w>
Danim ark
skor la</w>
L A
ti ca</w>
ken ar</w>
Cen a</w>
akar su</w>
Y a</w>
k ür</w>
ib ad
tiğ inden</w>
Müslüm anların</w>
arist okr
S ık
T epe</w>
ih lal</w>
yer lerinde</w>
Jer ry</w>
hakim iyeti</w>
ılan lar</w>
azın lık</w>
Kültür el</w>
baş lık</w>
Av rasya</w>
yen ilerek</w>
Con stan
Dör t
M C</w>
im ar</w>
id ler</w>
ilm i</w>
30 7</w>
ıla v
bur n</w>
başar ıları</w>
At t
46 1</w>
40 8</w>
Man hattan</w>
Ol iv
İd man</w>
f az</w>
Ç ıl
du yan</w>
46 7</w>
pat lam
ılığ ının</w>
Far uk</w>
kasab ası</w>
basın ç
bombard ıman</w>
ık tır</w>
um an</w>
se x</w>
bölüm e</w>
kazan ılan</w>
giy diği</w>
ide al</w>
inş aat
He art</w>
İttif ak</w>
o ut</w>
ş ans</w>
id iye</w>
ist er
çek mek</w>
Kr as
is yanı</w>
bul duğu</w>
kullan ımına</w>
uy gun
29 4</w>
düş manı</w>
may ın</w>
Osman iye</w>
söy lü
sezon una</w>
bu lan
Hel sin
Özellik ler</w>
n emli</w>
man ları</w>
men lerin</w>
Mon tr
bahs eder</w>
sorum ludur</w>
P ortak
T og
t uğu</w>
ah ın</w>
öz et
Kar deş</w>
30 9</w>
26 3</w>
Gra nde</w>
U R
b ize</w>
mer mer</w>
27 7</w>
Haz ır
yöneti mini</w>
48 6</w>
38 5</w>
Kor k
ayak lanma</w>
olas ılıkla</w>
UC I</w>
C opa</w>
F os
aç ılmış</w>
uç uşu</w>
uk lar</w>
45 7</w>
zor undadır</w>
187 9</w>
lük leri</w>
bour ne</w>
h af</w>
gör üşt
oy la</w>
ör leri</w>
tr ack</w>
Kon uş
saldır ılar</w>
uyar laması</w>
Progr am</w>
ear s</w>
Ut ah</w>
at anan</w>
ün lü
29 3</w>
destek lem
piyas a</w>
K od
z ar</w>
sp es
ilç eye</w>
kab ile</w>
26 9</w>
70 8</w>
On lar</w>
187 4</w>
ek mek</w>
18 30</w>
ku le</w>
Ch e
35 1</w>
kuz eni</w>
çoğ unda</w>
187 2</w>
hâl inde</w>
B iz</w>
W es
at t</w>
34 8</w>
görüş ler</w>
Süley man
hastan eye</w>
18 68</w>
28 2</w>
St ore</w>
36 1</w>
48 5</w>
Man ç
sı ç
cihaz lar</w>
ilişkil idir</w>
Ankar agücü</w>
D rak
S we
T ıb
İ van</w>
su ları</w>
Kap ısı</w>
isten en</w>
Gog h</w>
D E</w>
P ad
ag n
Ak ş
yaşam ın</w>
kurtar ma</w>
o du</w>
oluştur ma</w>
hükûmet inin</w>
soruştur ma</w>
tabl osu</w>
l s
ı st
tü p
As ur</w>
35 5</w>
eser lerinin</w>
fiz y
zar arlı</w>
Belç ikalı</w>
zarf ında</w>
İ pek</w>
ko m</w>
hastal ığın</w>
Et k
hayvan cılık</w>
Haç lılar</w>
Yüksek okulu</w>
Üzer ine</w>
Kuvey t</w>
M ür
p ist
â de</w>
ist ila</w>
An d</w>
yer inden</w>
san cak</w>
yal ıt
68 5</w>
Hay dar</w>
mağ ar
devle te</w>
Wol f
Shak espeare</w>
intik am</w>
g ir</w>
ort amı</w>
kay dır
ser isinde</w>
gele bil
Arap lar</w>
muhal if</w>
sig ara</w>
sergilen mektedir</w>
yıl ını</w>
bak ımdan</w>
karakter in</w>
çalışmalar ıyla</w>
Değ ir
Öğr etim</w>
Ray onu</w>
Helsin ki</w>
c al
e ji</w>
ü hr
at tle</w>
ge nd
Kas ım
git miştir</w>
Far s</w>
Med ine</w>
I C</w>
İ la
em on
36 4</w>
38 3</w>
46 5</w>
çalışmalar da</w>
p il</w>
ser best
gelen ek</w>
terc üm
kurum sal</w>
temel li</w>
takv iye</w>
Ray mond</w>
D id
en g</w>
oz an</w>
grub undan</w>
maz lar</w>
öt esinde</w>
C A</w>
G P
J ustin</w>
c isim</w>
at eşi</w>
iş ehir</w>
36 3</w>
karşı lamak</w>
mo uth</w>
kullanıc ının</w>
bom ba</w>
sor u</w>
üret ilir</w>
engel li</w>
dük kâ
Ros s</w>
ilik te</w>
birey ler</w>
Pictur es</w>
y in</w>
ayr ılması</w>
asyon el</w>
37 2</w>
görün üş
kız ları</w>
savaş ç
çevr ili</w>
yakala dı</w>
| |
kur tu
gerçek te</w>
IŞ İD</w>
L ok
W i
Ü mit</w>
28 27
tasar landı</w>
Oğ lu</w>
Jun ior</w>
Hikâ y
Terak ki</w>
m iyor</w>
ön gör
bur nu</w>
35 9</w>
38 9</w>
imz alandı</w>
34 3</w>
madd eleri</w>
küm esidir</w>
ç ıl
is ler</w>
ım ıdır</w>
om e</w>
29 8</w>
albüm den</w>
hav ayolu</w>
40 7</w>
pu anı</w>
iyor lar</w>
Lib eral</w>
kullanıc ılar</w>
Wr ight</w>
o x</w>
at lama</w>
Mar i
müz ikleri</w>
36 9</w>
hav alimanı</w>
Cem il</w>
dek or
Freder ick</w>
3 20</w>
ek lerinin</w>
29 7</w>
tut ulan</w>
47 6</w>
güney indeki</w>
bes lenme</w>
Univers al</w>
on y
başar ılar</w>
45 6</w>
mon te</w>
renk leri</w>
üğ ün</w>
birinc isi</w>
Dak ota</w>
K ayı
h eter
Ş af
ıl ırken</w>
ele men
takım ıdır</w>
I owa</w>
T il
ek lere</w>
ed edir</w>
us tik</w>
kur uc
güç lerinin</w>
radyas yon</w>
D mit
d ilinin</w>
g azı</w>
n â
t ası</w>
yap ıların</w>
geç ip</w>
Kur uluş</w>
Rus ların</w>
Per ry</w>
belirt ilmektedir</w>
yıldız ın</w>
öyk ü
Lev ent</w>
C it
g ib
ar an
ad ada</w>
ıl ırlar</w>
mekt i</w>
bel leğ
29 1</w>
tut tu</w>
38 2</w>
Her hangi</w>
fab rika</w>
S ug
b es</w>
c ük</w>
gel mişti</w>
28 9</w>
yerleş miştir</w>
Tak ımlar</w>
34 4</w>
şekl ini</w>
çekir d
V u
in es</w>
man a</w>
kal ite</w>
38 1</w>
Da ve</w>
Gol den</w>
Air lines</w>
Düz en
sağlay acak</w>
Sanc ağı</w>
K ot
T S</w>
karş ıt
kend inden</w>
haf ız
45 3</w>
40 6</w>
34 7</w>
Kol ordusu</w>
Me x
müziğ e</w>
L i</w>
b egin</w>
t eri</w>
y etkili</w>
ik iş
taraf lı</w>
16 5
Par a</w>
Siy aset</w>
devlet lerin</w>
les s</w>
net t</w>
Jef fer
ester n</w>
salg ını</w>
kab a</w>
gerek iyordu</w>
kısm ına</w>
kurum ları</w>
Nad ir</w>
V e
g h
er lerin</w>
gör el
ıt ma</w>
eser lerin</w>
dayan ıklı</w>
dair esel</w>
r eti</w>
ak ların</w>
ark i</w>
12 30
geç mek</w>
29 6</w>
eşit tir</w>
konum una</w>
Ala b
popü lasyon
yel paz
G emi</w>
m oz
y ön</w>
il iyor</w>
ac ım
tam ento</w>
olduğ unun</w>
Stud io</w>
C i
Z a
el y</w>
ım dır</w>
iz ni</w>
sat ranç</w>
matematik çi</w>
Abdü laziz</w>
h ing</w>
dik dörtgen</w>
39 7</w>
rah ip</w>
seyah at
kazand ılar</w>
Dub lin</w>
piskop os
Wis con
E du
b l
k uy
n s</w>
s ch</w>
с т
ıy orum</w>
las t</w>
pat r
Be ach</w>
deniz alt
Güm üş</w>
hatt ının</w>
m s</w>
t ing</w>
y in
as it
man tık
land er</w>
AB C</w>
36 6</w>
35 2</w>
40 2</w>
teş h
lük s</w>
v ey</w>
Ab b
Car lo</w>
kardeş ler</w>
çeş id
det aylı</w>
Sas ani</w>
l ivan</w>
ş i</w>
ar om
el den</w>
um e</w>
ati ve</w>
49 3</w>
duy ul
lig ht</w>
Mor a</w>
Col a</w>
Jose f</w>
L yon</w>
ıs ıydı</w>
say ımında</w>
49 9</w>
Her ak
hücre ler</w>
taşı dı</w>
S 0</w>
î y
la ce</w>
up e</w>
yürüt müştür</w>
ight s</w>
I van</w>
P ort</w>
sistem atik</w>
At h
tiv a</w>
Pet rol</w>
hareket ini</w>
Mey dan</w>
i Phone</w>
r ü
s il</w>
Mar c</w>
Val iliği</w>
tüf ek</w>
çan ak</w>
D iğ
r üy
or anları</w>
akt adırlar</w>
mas raf
tür ündeki</w>
oluştur urlar</w>
Lig de</w>
kayb ederek</w>
Hom e</w>
Wiscon sin</w>
as aki</w>
du a</w>
18 61</w>
48 1</w>
yard ımcılığı</w>
yayım lanmış</w>
Santi ago</w>
Portak al</w>
R C</w>
a x
c on</w>
et ya</w>
el b
aç ılması</w>
yer lere</w>
46 4</w>
34 6</w>
__ __
yürüyü ş
g ie</w>
iş bir
ag i</w>
tür lerin</w>
oyn uyor</w>
ışt an</w>
diz ileri</w>
uygu lanması</w>
lis por</w>
Div an</w>
Wrest le
Miss iss
F atma</w>
G lor
V ur
uz akta</w>
Bil ly</w>
Col orado</w>
kent inin</w>
füz e</w>
Haw a
Abdurrah man</w>
ver ildiği</w>
Mar ino</w>
27 9</w>
plan ları</w>
bölge lerine</w>
C e
f u
Baş lıca</w>
36 2</w>
37 3</w>
toplam ı</w>
hayvan ları</w>
çeş me</w>
Pho en
Seyy id</w>
Y İ
an ime</w>
başla dığında</w>
28 30
liğ idir</w>
45 4</w>
For t</w>
Gir ay</w>
karşılaş mada</w>
Ren ault</w>
k edi</w>
bel de</w>
46 6</w>
red din</w>
3 30</w>
F ey
K aw
S ier
m end
s ında</w>
bir a</w>
bir takım</w>
har c
kend isiyle</w>
gerçek çi</w>
40 3</w>
Se attle</w>
On u</w>
İlç ede</w>
Maç ı</w>
Lim anı</w>
K us
ant o</w>
35 4</w>
eleştir el</w>
birbir iyle</w>
Atlan ta</w>
yab an</w>
iğ n
um unda</w>
49 4</w>
Un ion</w>
yürüt me</w>
götür ül
Büyükelç iliği</w>
Depar tamento</w>
5 50</w>
B om
G ıda</w>
T et
v ah
w an</w>
Ev l
ödül leri</w>
Beş inci</w>
lağ ı</w>
pres ti
Uygu lama</w>
J andarma</w>
P om
n iyet
im al</w>
29 2</w>
şehir lerde</w>
ian g</w>
Bart ın</w>
F ev
n em</w>
ül f
yarış mayı</w>
değiştir ilmiş</w>
efsan evi</w>
a ut
i ón</w>
Kat ol
47 5</w>
kah v
Boy s</w>
Müst eş
G len
s ih
ım ıza</w>
belir terek</w>
35 6</w>
48 9</w>
38 8</w>
46 8</w>
eser lerinde</w>
de part
ula bilir</w>
Katli amı</w>
A 2</w>
J av
L ep
çık ışını</w>
end em
faz lası</w>
45 8</w>
39 4</w>
üret ir</w>
Bel g
çeş idi</w>
acak larını</w>
Şev ket</w>
S lam</w>
yaz ılır</w>
37 8</w>
mar t</w>
kapsam aktadır</w>
sandal ye</w>
n ek
hey keli</w>
saat lik</w>
Dre am</w>
peygam ber
Matth ew</w>
L ike</w>
b oks
en o</w>
39 1</w>
po lar
ban liy
kurucu ları</w>
baş larlar</w>
kal ıt
ef endi</w>
lık larının</w>
İsviç reli</w>
pil otu</w>
Broad way</w>
tela ff
Tiyatro ları</w>
L é
in d</w>
in ti
man evi</w>
48 3</w>
bağlan ır</w>
yüksek likte</w>
enha g</w>
r ian</w>
ayr ıc
yas ak</w>
At eş
Sed at</w>
1 200</w>
L A</w>
c ıların</w>
ek lerde</w>
tarih ç
iler ide</w>
ter mal</w>
oloj ide</w>
Ch il
pazar lama</w>
Bud ist</w>
K un
l iyor</w>
film indeki</w>
In tel</w>
gelen eği</w>
esn ada</w>
ümin yum</w>
t uv
ro p</w>
edil mesiyle</w>
kan a</w>
Kat ar</w>
öldür dü</w>
Mes s
KK TC</w>
A x
D ut
Ü m
in os</w>
ır k</w>
ic ilik</w>
46 9</w>
ret t</w>
çevr ilidir</w>
Sak son
send ik
B au
Z ah
du s</w>
dü le</w>
18 40</w>
seviy esinde</w>
Fik ret</w>
Kop enhag</w>
L C</w>
kur ban
48 4</w>
genç ler</w>
bürokr at</w>
G in
es a</w>
sah ası</w>
gir ip</w>
45 9</w>
Protes tan</w>
B eng
K oy
T ap
Y ur
şehr ini</w>
Sal on</w>
iyor uz</w>
K la
M aya</w>
iç me</w>
yaş ından</w>
kuzey batı</w>
roman ından</w>
dis ipl
alac ağı</w>
tesis leri</w>
Kardeş ler</w>
çem ber
C D
C IA</w>
g it</w>
konuş ul
kazandır dı</w>
o es</w>
st atik</w>
yön ünden</w>
şekil lerde</w>
O lağ
y l</w>
ro it</w>
durum lar</w>
47 9</w>
eks ik</w>
incele yen</w>
öldürül mesi</w>
A tak
c ap
m ul
Ç ö
ah at</w>
akt aki</w>
ok eyi</w>
önem e</w>
yaz maktadır</w>
uk tan</w>
Hikâ ye</w>
J en
b il</w>
b eden</w>
k lar</w>
p ik
is hi</w>
12 35
tür emiştir</w>
lık tır</w>
dön me</w>
kor e
Ro ad</w>
Tapın ağı</w>
dram atik</w>
Fabrik ası</w>
J üp
gü ven</w>
yan ındaki</w>
siy ah
sev k</w>
güç ler</w>
dönd üğünde</w>
dönüş üm</w>
astr o</w>
Len ingrad</w>
Ü z
ik isinin</w>
mu am
alt ından</w>
dil ler</w>
olabil ecek</w>
Gon z
İler leyen</w>
C enn
ı d
yap ıyor</w>
ec isi</w>
ele si</w>
ru c
10 3
kap ak</w>
taş ınd
Öz et</w>
En gin</w>
48 8</w>
46 3</w>
hayat ında</w>
karar ını</w>
yazar lığı</w>
renk te</w>
çevir di</w>
şim diye</w>
E S
P os
R un
v iv
ç im
em ent</w>
ev o</w>
ver irler</w>
18 66</w>
yer in</w>
ko st
han lı</w>
bu laş
kayd etmiştir</w>
deney im
Vol ks
Esk iden</w>
Famil y</w>
I an</w>
M O
M i</w>
ç av
Av cı</w>
tamam lanan</w>
49 8</w>
Am y</w>
değiştir erek</w>
Sez onun</w>
ris ki</w>
g ate</w>
h aş
r ing
Ç öz
in amik</w>
bil işsel</w>
gen işle
giy im</w>
34 1</w>
Po e</w>
karış ımı</w>
Mississ ippi</w>
g re
i at
s aç</w>
es iz
ver meyi</w>
sınır larını</w>
sınır landır
çap raz</w>
Eur op
T ebr
ar ması</w>
ku lesi</w>
og a</w>
Çan kaya</w>
şar j</w>
sıralam ası</w>
Muhaf ız
Pow er</w>
an ia</w>
ik ya</w>
İl in</w>
bak anlığı</w>
plat form</w>
doç ent</w>
Alab ama</w>
G an
s y</w>
v ans
ur n</w>
at letizm</w>
ger gin
Ak çak
komed yen</w>
Giz li</w>
pasaport u</w>
B and
L ut
nd i</w>
ağ ları</w>
tr aj
re e</w>
etm eden</w>
merkez î</w>
mez hep
Bar sel
Ev ren</w>
Kitab ın</w>
E d</w>
g üz
s as
ıl ış</w>
akt örü</w>
23 65
Ro berto</w>
ılaşt ır
Otom obil</w>
A ustin</w>
T ör
c üce</w>
Ş ang
la mışlardır</w>
yon ları</w>
der ha</w>
ail esini</w>
Başkan lık</w>
şart ları</w>
orman lık</w>
bozuk luğu</w>
Geliştir me</w>
p ant
s op
baş tan</w>
13 67
eler dir</w>
hay ali</w>
mem nun</w>
Tur k
nokt asında</w>
Ol d</w>
kent ine</w>
senar yo
politik aları</w>
reh ber
V iz
es in</w>
ist leri</w>
eş leş
yar alı</w>
yay ıldı</w>
Mar cel
Pe ar
Tech n
kar ma</w>
kar tı</w>
yaz ıp</w>
yaşam ına</w>
80 2</w>
Gr ig
kaldır ılması</w>
kulübü dür</w>
malzem eleri</w>
ortam ında</w>
H og
at ık</w>
san ılmaktadır</w>
23 99
üy ü</w>
hav acılık</w>
Kad ir</w>
Lib er
kök lü</w>
bağış ıklık</w>
müttef ik</w>
U K</w>
V est
v ektör
ah at
etm ey
yerleş miş</w>
40 9</w>
Ah it</w>
asker lerinin</w>
ileş tir
istih dam</w>
E R
m ece</w>
r ing</w>
Jo urn
Har biye</w>
Sh el
şehr indeki</w>
Mag az
Ir mağı</w>
beraber lik</w>
odak lan
bakt eri</w>
Sing le</w>
yörün ge</w>
f ib
t ıcı</w>
ol maksızın</w>
38 0
46 2</w>
kem an</w>
çab aları</w>
Sy l
Cer men</w>
ılam az</w>
statüs üne</w>
ler ince</w>
ib n</w>
uy uş
ov ski</w>
48 2</w>
49 1</w>
Demir el</w>
Toy ota</w>
S parta</w>
özellik lerine</w>
anlat maktadır</w>
Mad ison</w>
Geç idi</w>
ism inde</w>
artır mak</w>
Philip pe</w>
j u
12 67
hak em</w>
bağım lı</w>
formula_ 2</w>
derg inin</w>
taşı dığı</w>
A kar
es if</w>
kal ıp
lık larda</w>
ebil mesi</w>
37 4</w>
sınır ına</w>
giy miş</w>
Val ent
hizmet ler</w>
İsrail li</w>
Barsel ona</w>
N eb
S ag
k ie</w>
m eg
t z</w>
tarih çisi</w>
sistem lerinin</w>
Kan alı</w>
Fran ces
lüğ ün</w>
Doğ um</w>
Juv ent
W ar</w>
Y ir
k az</w>
ş en</w>
se g
kad arki</w>
Al berto</w>
kon ut</w>
gir meyi</w>
terc üme</w>
Albüm ü</w>
deniz den</w>
onur una</w>
onur landır
M ov
ut i</w>
oğ lan</w>
yen en</w>
49 5</w>
Has an
Bayr am
M ent
V eri</w>
c unun</w>
bilin iyordu</w>
49 2</w>
kam usal</w>
düğ üm
şa ir
Eyal etin</w>
basketbol cu</w>
hiyer arş
C iv
T ün
d inde</w>
il im</w>
eğ inden</w>
sür eyle</w>
İn cil</w>
açık tır</w>
kız ıl</w>
aday lığı</w>
atom ik</w>
Cat herine</w>
İh san</w>
b eni</w>
o use</w>
p os
ik on
ks al</w>
önem lisi</w>
Man ia</w>
koy muştur</w>
huku ki</w>
Stef an</w>
Jüp iter</w>
C l
t ev
iy an</w>
pro sed
39 3</w>
39 6</w>
kim y
öldür mek</w>
vur uş
Kıbr ıs
Gar y</w>
Tep esi</w>
Rol ling</w>
Cru z</w>
İstik lal</w>
N XT</w>
g l
g as
on uncu</w>
ku lak</w>
işle v</w>
ner ede</w>
performans ıyla</w>
fak ir</w>
ç öl
uz lu</w>
man tar
iddi aları</w>
Clar k</w>
hasıla t</w>
L op
Z ap
İn e
Sp ec
prob lem</w>
koron avir
) )</w>
K ru
T ıva</w>
lay acak</w>
üf er</w>
karakter ize</w>
değişik likleri</w>
Ze us</w>
Din amo</w>
Dig ital</w>
astronom i</w>
Bük reş</w>
gereğ ince</w>
13 77
var yan
istem iştir</w>
Se an</w>
Yıl lık</w>
ihan et</w>
çikola ta</w>
K imi</w>
at ış</w>
ür etti</w>
kon ak</w>
çık mak</w>
etk ilerini</w>
37 7</w>
çift lik</w>
Meks ikalı</w>
olmam asına</w>
boğ a</w>
Eb û</w>
Danimark alı</w>
T ul
ü lem
kıs mi</w>
47 2</w>
seçim ler</w>
Kent ucky</w>
E din
G üç</w>
s ide</w>
belir lenmesi</w>
tah t</w>
meler inin</w>
haned anı</w>
s ünün</w>
yap ılarak</w>
var ı</w>
And y</w>
Zam anla</w>
Bür osu</w>
a gram</w>
á s</w>
Bit ki</w>
Şük rü</w>
profesyon el
u le
birlik t
mem uru</w>
34 9</w>
karakter istik</w>
hes ap</w>
emr etti</w>
M iz
S ağ</w>
V ok
an ılmaktadır</w>
is sa</w>
düş üş
fil osu</w>
pla tin</w>
B ord
m ore</w>
ad adır</w>
and ığını</w>
dolay lı</w>
Ser isi</w>
yür üm
yem in</w>
Ty pe</w>
Moğol lar</w>
D ul
F or</w>
a is</w>
s ünü</w>
le diğini</w>
on unun</w>
yıl larca</w>
yüz eyi</w>
sezon undan</w>
Karab ük</w>
A t</w>
C lem
y etkisi</w>
an os</w>
mer m
uy g
26 7
hakk ına</w>
Sar ıy
Araştır maları</w>
Solan um</w>
ak larını</w>
at mış</w>
art mıştır</w>
inan ılır</w>
siv ri</w>
Eskiş eh
V ar</w>
o ş
s ite</w>
gör ece</w>
var yas
tem elinde</w>
lık larına</w>
isti yordu</w>
sat arak</w>
önc esine</w>
okul unda</w>
eceğ inden</w>
Mo ham
ıyor lar</w>
tören inde</w>
konsol os
küç ül
Performan sı</w>
b ie</w>
g on</w>
il iyordu</w>
geç tikten</w>
Ay ı</w>
Er dem</w>
kız ın</w>
hüc r
Gre at</w>
ilik le</w>
Ta arru
sandal y
B ag
t y
an et</w>
ol ü</w>
ek lenir</w>
Par agu
In ternet</w>
kar ikatür
und track</w>
tem ası</w>
oluş u</w>
Osman lıların</w>
Kan e</w>
gem iler</w>
program lar</w>
hastal ıkları</w>
Oper asyonu</w>
ar güm
sür pr
dil lerinde</w>
Mad en</w>
sub ayı</w>
kurucu larından</w>
o le
w or
Kon ak</w>
hâ kim
sanatç ıların</w>
şiir leri</w>
je olojik</w>
U st
at ed</w>
ır g
lam da</w>
tal ebi</w>
hay ır</w>
bırak ıp</w>
baz lı</w>
soy ut</w>
ma in</w>
F O
ind eyken</w>
hav aya</w>
çevr ilmiştir</w>
yıldız ların</w>
Ar tistik</w>
12 85
39 8</w>
60 0
Sam an
Dal las</w>
Okyan us</w>
eleştirmen ler</w>
u cak</w>
y alan
iğ it</w>
gün kü</w>
düz en</w>
asyon unu</w>
Şub esi</w>
dah ildir</w>
gol a</w>
Po int</w>
cev ap
Bayr amı</w>
m af
u an</w>
af t</w>
ık larından</w>
kullan ırlar</w>
mac era</w>
dünyas ının</w>
D ob
r il</w>
al masını</w>
do lara</w>
albüm e</w>
ımc ılar</w>
Ten is</w>
dost u</w>
Pok é
N O
et ken
el indeki</w>
bul ut</w>
St at
isim lerle</w>
lim anı</w>
birleş me</w>
yetkil iler</w>
Cart er</w>
M E</w>
s id
edil meye</w>
sah asında</w>
bat ır
Der g
kardeş inin</w>
Yıl lar</w>
lük ler</w>
padiş ah</w>
A gr
ü lerin</w>
ad dır</w>
çıkar ır</w>
tah ıl</w>
yüksel me</w>
uyar lanmıştır</w>
dönüş müştür</w>
kuruluş undan</w>
kuyru klu</w>
H elen</w>
M ort
M ond
f iyat</w>
v aka</w>
od aklı</w>
tek stil</w>
Par tis
37 1</w>
mem el
Geor ges</w>
katk ısı</w>
Hüs rev</w>
hikây esini</w>
beğ eni</w>
İskandin av</w>
V in
ı başı</w>
edil ecek</w>
ley ebilir</w>
köy lü</w>
program da</w>
işlem c
ılabil ecek</w>
Kahram an</w>
L ov
s odyum</w>
yap makta</w>
tür üne</w>
Gr ek</w>
rop ol</w>
Jul ius</w>
Baz ıları</w>
A M</w>
Ü s
il iye</w>
al ıcı</w>
geç im</w>
han i</w>
geçir ir</w>
görün mektedir</w>
Bul ut
karakter lerin</w>
kuruluş ları</w>
Mareş al</w>
ub le</w>
St u
De an</w>
ted bir
ay e</w>
ad alet</w>
et tiğinde</w>
ün lüdür</w>
Tar af
per ak
Son ic</w>
bu har</w>
37 9</w>
lüğ ünün</w>
tis t</w>
yitir di</w>
esin lenerek</w>
G om
m ü</w>
p landa</w>
an iden</w>
kad ir</w>
belir ler</w>
San tr
Bat ılı</w>
Kir il</w>
tarz da</w>
kı ta</w>
biz im</w>
Arist ot
inşa atı</w>
r ey
um ut
ac ılığı</w>
18 69</w>
met li</w>
tur e</w>
değer ler</w>
başkan ıdır</w>
gazet esinin</w>
da ima</w>
çocuk lara</w>
üniversit enin</w>
sü var
G ren
b eta</w>
s idir</w>
il dikten</w>
An ti</w>
ins ki</w>
49 7</w>
sh i</w>
kardeş leri</w>
Buc k
Brun o</w>
R est
d ez
s um
göster imi</w>
şark ıya</w>
St ory</w>
47 7</w>
Top lum</w>
bilim ler</w>
Olimpiy at
part iler</w>
mezh eb
or f</w>
ec z
Yarış ma</w>
yürü ten</w>
K ele
son s</w>
gün eş
geçir miş</w>
etkin likler</w>
Öğretm en</w>
Ülk ede</w>
L eb
M é
y e
ad aları</w>
lik lerini</w>
Kon sey</w>
37 6</w>
değer ini</w>
köş esinde</w>
Çukur ova</w>
ti ş</w>
ev î</w>
ele na</w>
söy lenen</w>
keş if
olan ı</w>
Hö yük</w>
mant ık</w>
îy ye</w>
W a
y am
an larına</w>
iş len
ib an</w>
edil diğinde</w>
kur s
üç ü</w>
35 8</w>
müsabak aları</w>
aç lar</w>
etk isiz</w>
Gen er
düzen leyen</w>
kit le</w>
68 0</w>
bal in
cins inden</w>
dünyas ına</w>
Jes s
Just in
ahla ki</w>
L uke</w>
ad ışı</w>
getir ilmiş</w>
Neh ir</w>
muh temel</w>
A gu
L em
Al iyev</w>
47 1</w>
Th or
Am b
dal larında</w>
uyar ak</w>
I sab
b and
h ay</w>
r at
gel ince</w>
çalış arak</w>
görev lerde</w>
Ken ya</w>
otur an</w>
endüst ri</w>
barındır ır</w>
evlilik ten</w>
Jeffer son</w>
İ şte</w>
ik lere</w>
ro ket
İn an
bölüm lerinde</w>
Ek rem</w>
78 0</w>
Re ich</w>
Mir za</w>
Luc as</w>
reg on</w>
göster miş</w>
uç ur
her e</w>
etkin likleri</w>
imb le
b or</w>
c od
er oz
öldür ülen</w>
ham ile</w>
W imble
p us</w>
etm ekle</w>
lem eleri</w>
sağ lanması</w>
asker e</w>
ilgilen en</w>
göğ üs</w>
B ina</w>
d ine</w>
Sp ace</w>
evl iliği</w>
sömür ge</w>
tüc car
Bizans lılar</w>
Jenn ifer</w>
Brook lyn</w>
G raf
an or
ark aya</w>
ic z</w>
mekt ub
eb olu</w>
tamam lanmıştır</w>
Lig ht</w>
bilg iye</w>
hoc ası</w>
Süm er</w>
coğraf ya</w>
Hek im
başar ıya</w>
sun muştur</w>
Oyun culuk</w>
ayd ın</w>
Gi or
suik ast
Kayser ispor</w>
V atan</w>
İ leri</w>
İl kokulu</w>
yas aları</w>
yol un</w>
ülke lerinin</w>
çöz el
bağl ıydı</w>
Mill iyet</w>
o ul
az arı</w>
tarih lenen</w>
iler leme</w>
cu k</w>
47 4</w>
savaş ları</w>
Kol om
Yönetm en
Hız lı</w>
A ra</w>
B İ
L ang
t ıkları</w>
â şık</w>
gen ler</w>
dönem den</w>
bilg inin</w>
çoğun luk</w>
civar ındadır</w>
meş ru</w>
ateş kes</w>
zey tin</w>
é n</w>
al maktaydı</w>
tar la
son lar</w>
sür eliğine</w>
18 28</w>
und aydı</w>
den ey</w>
Gel ib
karşılaşt ığı</w>
görüntü leri</w>
yönel t
muhal if
Apol lo</w>
Phoen ix</w>
n g</w>
edil dikten</w>
ks u</w>
ve land</w>
der hal</w>
Ser ver</w>
Hav z
sem t</w>
temsil cileri</w>
ir ad
met af
maç tan</w>
hastal ıklar</w>
şub esi</w>
A ud
y th
in ess</w>
al lı</w>
at ay</w>
doğ ası</w>
lem eler</w>
mac ılar</w>
he i</w>
sözleş mesini</w>
göç ebe</w>
Arke oloji</w>
B ez
k ör
k ort
u il</w>
kar aya</w>
üzer indedir</w>
Ok tay</w>
karşılaş ır</w>
Mik ro
A ar
F ort
K ak
kar asal</w>
kon ulu</w>
etm enin</w>
23 66
kuzey doğu</w>
dönüş ü</w>
Euro League</w>
F ire</w>
M om
Ar p</w>
hak lar</w>
ebil eceğini</w>
mahalle de</w>
Dar win</w>
tecav üz</w>
Eskişeh irspor</w>
Ç eyrek</w>
la ci
yas ının</w>
miş lerdi</w>
çift ler</w>
Ort alama</w>
kilomet rek
io us</w>
İttih at</w>
M en</w>
d elik</w>
p son</w>
el iğini</w>
öz erk
Portekiz li</w>
danışman lık</w>
sermay e</w>
af ra</w>
mü fr
üs ünde</w>
Ser gey</w>
a layan</w>
os man
28 28
mam ak</w>
olmad ığından</w>
ürün lerin</w>
O regon</w>
ü yük</w>
İ TÜ</w>
as h</w>
ap art
az ar</w>
çal dı</w>
yaz ması</w>
şark ısıdır</w>
dönem deki</w>
söz ler</w>
Sp e
Ser ies</w>
Der v
karış ık
pres s</w>
Öğren ci</w>
liter atür
R S</w>
w ays</w>
or al</w>
ap ınar</w>
id ze</w>
Mar co</w>
senar ist
tablo da</w>
e or
der leme</w>
neden lerden</w>
söz de</w>
iyet inin</w>
yağ lı</w>
evr im</w>
ordus unda</w>
yönel di</w>
tepk iler</w>
j en
la kab
ab lo</w>
bas ıncı</w>
50 0
Ter min
hâ le</w>
he ad</w>
zar ar
milletvek illiği</w>
dışar ıdan</w>
riv ayet</w>
c enn
el im</w>
kar n
ver t
op laz
kal mayı</w>
bölg edir</w>
yayın lar</w>
karşı landı</w>
konum unda</w>
yarar lı</w>
Aj ax</w>
lé tico</w>
OD TÜ</w>
c ismin</w>
er en</w>
us por</w>
op le</w>
27 6
ado ğu</w>
40 0
ow er</w>
program ın</w>
vir üs</w>
bö cek</w>
stad t</w>
kadar dır</w>
A h</w>
K O
s ö
t d</w>
x i</w>
ı ça</w>
ar ch
çeşit lilik</w>
fin ans</w>
Le ip
Pr ince</w>
Em ma</w>
Mo on</w>
A G</w>
al p
ib adet</w>
kon ul
St adı</w>
film lerin</w>
Tur g
yapıl masını</w>
çoğun luğunu</w>
dis kograf
düşünül ür</w>
Lou is
Ram azan</w>
Fi at</w>
B oks</w>
D İ
G P</w>
yay ılmış</w>
üç gen</w>
bas ıldı</w>
belirt mektedir</w>
def alarca</w>
D j
a laş
etm em
kiş ileri</w>
film iyle</w>
din leyic
grup lara</w>
Ef lak</w>
olabil irler</w>
zır h</w>
cem a
bırakt ığı</w>
Oz an</w>
D iş
N ür
kur alı</w>
lı dere</w>
şirket ine</w>
pak et
P A</w>
s z
ä r
as len</w>
mi s</w>
bil imleri</w>
yay la
kr iz</w>
Top lamda</w>
Kole j</w>
Düny ada</w>
o gr
s ön
Ç ayır
an ma</w>
at mak</w>
değiş mektedir</w>
biy o
saat te</w>
GS Yİ
le ke
yıl lığına</w>
bar ın
benz ersiz</w>
ett y</w>
yık ıldı</w>
fan tastik</w>
Sadraz am</w>
V ati
W y
b ant
ó r
eş ya</w>
geç işi</w>
kal eyi</w>
mü him
top layan</w>
47 3</w>
pay laştı</w>
nö ro
problem i</w>
Donan ma</w>
Dic le</w>
Sty les</w>
GSYİ H</w>
M a</w>
k tik</w>
dön ük</w>
Yen işehir</w>
Kont rol</w>
Z ü
d ist
p unk</w>
v af
yap ımlar</w>
lam b
Har bi</w>
tut um
iyet leri</w>
gönder ir</w>
Bro s</w>
şifr eleme</w>
5 000</w>
e bir</w>
taraf sız</w>
uy an</w>
gü t
sağ lanan</w>
bölg esidir</w>
Gen iş</w>
parç asıydı</w>
Nor veçli</w>
enc ia</w>
End eksi</w>
Mag ic</w>
beklen medik</w>
Sport s</w>
Nel son</w>
düşük tür</w>
) ’</w>
C é
T S
T uva</w>
s ark
ç eve</w>
ö len
о р
ac akları</w>
aç ılır</w>
gel mesiyle</w>
müz iğin</w>
geliştir diği</w>
dal da</w>
Ko ca</w>
konum da</w>
hayr an</w>
IS O</w>
Üsk üp</w>
Boliv ya</w>
Sier ra</w>
K re
h aç</w>
â m</w>
ak ın</w>
bulun urlar</w>
uç ları</w>
gönder me</w>
Jam a
şidd etle</w>
meş e</w>
edebiyat ının</w>
Bod rum</w>
C anlı</w>
c iliği</w>
l man</w>
î lik</w>
la p
ay ın</w>
on ia</w>
tr ik
36 0
futbol culuk</w>
kız ıdır</w>
Yen ice</w>
kent te</w>
terim dir</w>
N ab
ım larının</w>
18 62</w>
dil ini</w>
işt en</w>
seçim de</w>
Sek iz</w>
başrol lerinde</w>
alınd ığı</w>
I E
J ust</w>
L uk
ak s</w>
tar io</w>
içer isine</w>
Am iral</w>
eser lerinden</w>
Tak sim</w>
tic s</w>
Doğ ru</w>
Nik ola
u ge
in aj</w>
baş bakanlık</w>
kon sey
oc h</w>
kuvvet lerini</w>
Demir spor</w>
elend irdi</w>
mesaf ede</w>
kus ur
Y urt</w>
m or</w>
ay ev</w>
el ya</w>
yap acak</w>
tarih lerde</w>
Co oper</w>
Bur g
öğren imi</w>
mam ıştı</w>
Her mann</w>
Alt yapı</w>
olan ları</w>
proj eleri</w>
Sü per
TC DD</w>
kims enin</w>
en ci</w>
kan t
Ro st
Eleştir iler</w>
ülkes ini</w>
M eb
M HP</w>
d î</w>
gel diler</w>
ot onom</w>
ast ro
bilg ilerin</w>
görüş lerini</w>
Bat um</w>
Di am
au d</w>
kala bil
Stan ley</w>
Muz af
böbr ek</w>
ver ecek</w>
land s</w>
birbir ini</w>
Söz leşmesi</w>
döv üş
bulgu lar</w>
Hawa ii</w>
F le
G and
f ace</w>
ar mon
lar d</w>
gün lerinde</w>
Gör ev
İst asyon</w>
Fa ik</w>
A D</w>
a qu
y ılan</w>
ay arak</w>
at ıyla</w>
iç indedir</w>
dön ümü</w>
Must af
sı ğ</w>
Sen foni</w>
Nev şehir</w>
Yal çın</w>
Plat on</w>
küçük tür</w>
w agen</w>
ş am
ro w
seç ilerek</w>
merkez e</w>
tam ir</w>
At lético</w>
sev g
Sp ike</w>
savaş an</w>
topl umu</w>
val ye</w>
saat i</w>
enz o</w>
Wrestle Mania</w>
h op
Ş av
is iy
eğiti me</w>
göz ü</w>
Ro y</w>
tanım a</w>
qu ot</w>
kav ga</w>
Yap rak
Kim yasal</w>
aral ığında</w>
şö h
M elek</w>
sanat ları</w>
gerçekleştir en</w>
luğ undan</w>
Ken tin</w>
ht ar</w>
şey h
Şey h
Fu j
davranış ları</w>
ayol ları</w>
P an</w>
est etik</w>
day dı</w>
Tan k</w>
Kay makam
mağ ara</w>
Kuzey batı</w>
Kırık kale</w>
resep tör
C H
D a</w>
v in
Ş ır
lu ları</w>
kal maya</w>
Öz bek</w>
yaşam aktaydı</w>
bask ın
itir az</w>
imparator luğun</w>
Şey tan</w>
Alay ı</w>
ç ığ
an larını</w>
tan ıştığı</w>
İs ke
Le j
gal er
makin eli</w>
yürüyü ş</w>
Journ al</w>
z ira</w>
Ş ii</w>
çek mektedir</w>
24 8
yük ü</w>
yaklaş ımı</w>
hav a
yat an</w>
Fran co</w>
duvar ları</w>
Gior gi</w>
J az
K w
bulun arak</w>
re d</w>
han edir</w>
geçir ilen</w>
halk ları</w>
gar niz
diren ç</w>
mot os
Rach el</w>
D anny</w>
j ik</w>
ak ın
say g
kil it</w>
Pet ro
canlandır ılmış</w>
politik ac
kış kır
lev h
S ut
h os</w>
çal g
top lamak</w>
mal iyeti</w>
49 0
Kor ece</w>
mik ro</w>
sim ge
Gol d</w>
BA L</w>
L az</w>
t ey
á nd
ar s</w>
is pat
ow ski</w>
sim gesi</w>
Jac ob</w>
egemen liğine</w>
B orn
D iplom
P O
b ur</w>
y önden</w>
seç ilir</w>
durum dan</w>
Bro ther
kural lar</w>
Centr al</w>
ubli c</w>
Gelib olu</w>
k ed
an ket
kal mıştı</w>
ser amik</w>
iliğ inde</w>
hüküm etinin</w>
Pal m</w>
Hey eti</w>
mor f
eter iner</w>
Juvent us</w>
C ala
U lu</w>
ed s</w>
bir ey</w>
kab aca</w>
içer diği</w>
çev iri</w>
kayb ettiği</w>
Pol y
işlem ler</w>
Rob inson</w>
g lik
Ş işli</w>
12 57
değ in
ko ç
rol leri</w>
eks en</w>
karar la</w>
derg ilerde</w>
Cle veland</w>
A ch
F ınd
ar u</w>
mu has
An gola</w>
Co ca</w>
Bo g
pr im
79 0</w>
Car r
178 4</w>
Demir ci</w>
Kurt lar</w>
fi ilen</w>
Vil la
titr eş
C ov
y ılan
z ak</w>
al ın</w>
it te</w>
An n</w>
Ad il</w>
Es ad</w>
kayb etmiş</w>
pak et</w>
reak siyon</w>
zinc iri</w>
]] ,</w>
Şö valy
Tex as</w>
B andır
b öylelikle</w>
t eci</w>
İ c
ar anj
iz otop
land ılar</w>
üy eler</w>
list elenmiştir</w>
Cen ev
R ho
n berg</w>
Ç im
an larda</w>
lan lar</w>
id an</w>
birlik lerini</w>
70 7</w>
Wil low</w>
uyar lam
Mus ev
Ort adoğu</w>
B j
er on</w>
yap mıştı</w>
Kar anlık</w>
art ışı</w>
müz iğini</w>
okul una</w>
Met ropolit
cam inin</w>
Dub ai</w>
fırlat ma</w>
polim er
elver işli</w>
G E
M ay</w>
el ius</w>
iti z
27 3
aç ısal</w>
oluş um</w>
ide oloj
Thom pson</w>
Öğretm en
Z inc
b iya</w>
ç ının</w>
ilm ekte</w>
48 0
düny ası</w>
lad eş</w>
On tario</w>
pen altı</w>
Andre as</w>
Bon n</w>
denklem i</w>
dost luk</w>
M ini</w>
lar ın
lar ınca</w>
ig h</w>
sat ışı</w>
78 7</w>
boy ut</w>
Gr ön
Sen eg
yüksek lik
Final de</w>
Kasab anın</w>
Tebr iz</w>
S ans
t oks
uy dur
Pro tok
Har un</w>
dos y
Berg ama</w>
Det roit</w>
S is
at adı</w>
lan ı</w>
yak alandı</w>
ses leri</w>
Mü d
Gü ven</w>
giz emli</w>
doktor u</w>
Sın ır</w>
Rady osu</w>
Day an
Bang ladeş</w>
D ans</w>
I l</w>
L uf
ağ zı</w>
Os etya</w>
Tr ump</w>
ilişk iye</w>
78 6</w>
enerj inin</w>
Tom my</w>
gayr im
Çiç ek</w>
Meş ru
Syst em</w>
p las
İ p
do muz</w>
kon ut
kon uma</w>
yarış masına</w>
geliştir meye</w>
abil diği</w>
Dan ıştay</w>
kulland ıkları</w>
c ı
28 29
art s</w>
has tane</w>
sınır larına</w>
seviy esine</w>
ayd ılar</w>
hayvan c
saat lerinde</w>
metr eye</w>
oto büs
klav y
b kz</w>
am c
oy ların</w>
Kon t</w>
tas avv
tur ist</w>
bulund uğ
Bun lara</w>
söylen mektedir</w>
Yaln ızca</w>
Ital ia</w>
B on</w>
o us
ilç ede</w>
yüksel ir</w>
Ale s
kamp anya</w>
olmam ıştır</w>
ruh sal</w>
O lay</w>
n ova</w>
s os</w>
ak ir</w>
or gan</w>
ik ar
gel işti</w>
yön ündeki</w>
kan unu</w>
tem a</w>
Har ez
savaş lar</w>
Hak kâ
Nic olas</w>
Alan ya</w>
Mary land</w>
Wimble don</w>
A R</w>
z o
gör meye</w>
bulun mak</w>
bağ ları</w>
top lar</w>
sır t</w>
37 0
ket t</w>
Chal len
Leip zig</w>
W ik
k n
m ur</w>
yap ıda</w>
ru z</w>
An to
mü dür</w>
Bab y</w>
Mo unt
korum ası</w>
oynay arak</w>
Nil üfer</w>
s esini</w>
yer dir</w>
re form</w>
gir mek</w>
seb ze</w>
kolay lıkla</w>
Yerleş im</w>
şans ını</w>
le z</w>
iş ley
alar daki</w>
mü fet
zam andır</w>
alt on</w>
han ede</w>
Hal if
col e</w>
eyal etin</w>
özel liğine</w>
imkâ n</w>
Som ali</w>
Sün ni</w>
z e
is m</w>
un ları</w>
ok ut
gün ler</w>
Ay han</w>
Ak k
Bil inen</w>
Se ul</w>
Mus eum</w>
Gök türk</w>
La ura</w>
dam ar
sefer e</w>
Z h
l ının</w>
е р
le ague</w>
bağ lanan</w>
75 7</w>
ölüm üyle</w>
deplas manda</w>
ö mür</w>
ak ustik</w>
ig e</w>
din oz
Her bert</w>
Tan g</w>
plan lı</w>
toprak larda</w>
kurum lar</w>
beraber inde</w>
Vez ir
L on
18 56</w>
re b</w>
İn ce</w>
göster ilmektedir</w>
St utt
öğ üt</w>
harek ât</w>
dah ilinde</w>
destek len
organiz asyonu</w>
sürec ini</w>
uzunluğ undaki</w>
kork unç</w>
müziğ inin</w>
Fransız lar</w>
propag anda</w>
çarptır ıldı</w>
N ig
k örf
en ter
ad asında</w>
iz ik</w>
ör n</w>
yakın ındaki</w>
Gran t</w>
Peter burg</w>
bran ş
H iç
ış ına</w>
Al li
hak em
Bo ok</w>
cihaz ın</w>
Op en</w>
la d</w>
geç erken</w>
Mar tin
oyun lu</w>
düş müş</w>
dönem ini</w>
yat ak</w>
devr eye</w>
faaliyet ler</w>
çö kel
ç ıl</w>
el lik</w>
gü ce</w>
çalışmalar ın</w>
kuvvet lerine</w>
proj enin</w>
T ark
Ö yle</w>
karş ıla
yak a</w>
end işe</w>
dağ ları</w>
katıl ımı</w>
abilm e</w>
Cer rah
Tip ik</w>
Müfet tiş
Mex ico</w>
I sh
yan ıt
tasar ımcısı</w>
gro und</w>
v id
re ler</w>
lend iğini</w>
Bey rut</w>
kol ları</w>
77 7</w>
birbir lerini</w>
yem eği</w>
Mim ari</w>
rej imi</w>
müs lüm
G ed
t ol
al mışlardır</w>
et çi</w>
Al ternatif</w>
land o</w>
anlam ak</w>
ilişk ilerin</w>
saldır gan</w>
Kam il</w>
mevcut tu</w>
D ist
an larından</w>
en za</w>
el inin</w>
kay dol
24 90
Ad an
Tar ık</w>
savaş çı</w>
Gr aham</w>
Başar ıları</w>
emek liye</w>
I v
ağ lar</w>
Bir m
dönem indeki</w>
açık laması</w>
mez arı</w>
Pol it
çap ta</w>
kardeş idir</w>
formu nda</w>
Uz ak</w>
Mıs ırlı</w>
anc y</w>
olam adı</w>
Çık ış</w>
K las
N al
le diler</w>
or ia</w>
am ak</w>
Bur adan</w>
yeten ek</w>
söylen ebilir</w>
komş udur</w>
G rek
Şark ısı</w>
yarat an</w>
ateş li</w>
Fu arı</w>
L et</w>
c uma</w>
r ad</w>
el ma</w>
ık nat
iz z
edil emez</w>
oyn ama</w>
Öz demir</w>
66 0</w>
üret ilmektedir</w>
B y
C af
V ed
ö düle</w>
ış ları</w>
Tür besi</w>
gel i</w>
kap tan</w>
dah ili</w>
mahalle sinde</w>
day andır
Gör ev</w>
kolon i</w>
kampan yası</w>
T İ
l ini</w>
ik iz</w>
20 22</w>
iş leyen</w>
eş cinsel
katıl ması</w>
şehir den</w>
belirt ildi</w>
kaynak larında</w>
Ed ge</w>
türet ilmiştir</w>
S ih
V P</w>
ür t
mu kav
kur a</w>
kap lar</w>
yük üm
kır an</w>
düşün en</w>
Oy unda</w>
nit elendirdi</w>
faktör ler</w>
uğram ış</w>
çekirdeğ i</w>
, &</w>
G id
Y ang
ak ar</w>
kö r</w>
Bas ra</w>
pozisyon u</w>
P iskop
ac ağ
sür müş</w>
lem eyi</w>
cad d
Mes c
hid rol
ad ır
bil er</w>
olu yordu</w>
ulaş ımı</w>
güven ce</w>
laz er</w>
başlat tığı</w>
milyon larca</w>
A lek
C ed
f iye</w>
al ları</w>
ım lara</w>
iz leyici</w>
alan larının</w>
sev ilen</w>
ion s</w>
duvar ı</w>
nih ayet</w>
kazand ıkları</w>
normal de</w>
Budiz m</w>
Birm ingham</w>
U g
yar ıda</w>
tür den</w>
24 00
luk lu</w>
Car ey</w>
amaç lar</w>
model inin</w>
görüntü ler</w>
çıkt ıktan</w>
Vamp ire</w>
entelektü el</w>
S layer</w>
c ock</w>
edil irken</w>
ing o</w>
ulaş mış</w>
kaldır ılmıştır</w>
konum unu</w>
deniz altı</w>
BM W</w>
Tal iban</w>
ak larının</w>
ez e</w>
yaz ıt
diz il
San atları</w>
tor p
Val en
başken tidir</w>
tapın ak</w>
Of isi</w>
döngü sü</w>
K ati
u ların</w>
ek olojik</w>
ks hire</w>
çevr ildi</w>
tiy et</w>
düğ ün</w>
97 8</w>
C ant
v od
gel irler</w>
top layarak</w>
Kom ün
komp lo</w>
Ker im</w>
aland aki</w>
kulüb üne</w>
Tac ik
s inden</w>
aç lık</w>
kur bağ
par az
met ni</w>
eşit lik</w>
amp ton</w>
geliştir miştir</w>
Gr im
silah ı</w>
dakik asında</w>
olam ay
Jan eiro</w>
p y</w>
Ç ok
as lan</w>
man ga</w>
Gö k</w>
ülke lerine</w>
trans feri</w>
mecl ise</w>
helikop ter
s üne</w>
ad il</w>
du m</w>
An ton</w>
ot obiy
çevir isi</w>
metr ajlı</w>
pasap ort</w>
Maur ice</w>
3 40</w>
f av
ş eye</w>
ıl ırdı</w>
se m</w>
sür tün
getir erek</w>
açık layan</w>
değiştir mek</w>
kop ar
Bor us
değerlendir me</w>
cihaz ları</w>
k ak
oz om</w>
film lerinin</w>
göz leri</w>
duy la</w>
Kaz ım</w>
boş luk</w>
AT P</w>
Ir on</w>
kış ın</w>
nef es</w>
D er</w>
R on</w>
z burg</w>
as il</w>
20 99
oyun larında</w>
köy üne</w>
bırak an</w>
öm rü</w>
Deniz lispor</w>
sığ ır</w>
Instit ute</w>
Prens liği</w>
B ana</w>
Y ük
k ay</w>
do v
af i</w>
yap ıyordu</w>
ib ar</w>
değ işti</w>
çek ilmesi</w>
müz esi</w>
uğr ayan</w>
Pap alık</w>
bour g</w>
Sakson ya</w>
D ri
b s</w>
l uluğu</w>
s ası</w>
ç eyr
do z
ad li</w>
am ını</w>
hal efi</w>
ölç üm</w>
ilk esi</w>
sembol ik</w>
Saf evi</w>
Olym p
Hakkâ ri</w>
G w
ı h
is er</w>
ayr ımc
30 48
En d</w>
uzak laş
anlat ılmaktadır</w>
Geor g</w>
178 5</w>
los uz</w>
zeh irli</w>
F E
la ka</w>
alar arası</w>
Al ber
göster meye</w>
Şeh it
70 9</w>
yürüt mektedir</w>
Sonr adan</w>
aleyh ine</w>
Ortak öy</w>
T ip</w>
U sta</w>
m eti
ş ok</w>
ik on</w>
son suz
eş y
ekt ar</w>
kur al</w>
An at
75 9</w>
çöz mek</w>
arac ılığı</w>
topluluk ları</w>
Hil ls</w>
Lom bard
H A</w>
W omen</w>
â y
in al
et se</w>
yayın ları</w>
Br an
örn ektir</w>
halk ına</w>
elektr iksel</w>
Sal vador</w>
ılık ta</w>
Albüm deki</w>
Şah in
Fre d</w>
Eyü p</w>
Jür i</w>
M B</w>
t v</w>
t ekt
do ks
Or ton</w>
bölüm üdür</w>
bağlant ıları</w>
üretim inin</w>
muhaf azakâr</w>
Acad emy</w>
y ali</w>
Ç em
и ч</w>
im izi</w>
iz ce</w>
75 1</w>
Kaz an
laborat uvar</w>
Jor ge</w>
Glob al</w>
P od
on es</w>
ac he</w>
od es</w>
79 4</w>
görüş meler</w>
sürec inin</w>
mekaniz ması</w>
saniy ede</w>
mağlub iyet</w>
Sebasti an</w>
çalış ırlar</w>
alan d</w>
Baş kent</w>
78 3</w>
savaş tı</w>
zaman larında</w>
bırak mak</w>
Mus ul</w>
sü l</w>
Sol o</w>
hem şir
telef onu</w>
Nih at</w>
v ektör</w>
x on</w>
ç alan</w>
in k</w>
yap ısının</w>
yaz ın</w>
plan lan
çöz ümü</w>
arkadaş larının</w>
kavram ını</w>
zaf eri</w>
D eli</w>
е н
en er</w>
ak si</w>
ev lidir</w>
çalış mada</w>
etk iye</w>
kab uğ
Ro dos</w>
78 2</w>
kıy ısındaki</w>
ros s
okul larda</w>
birleş mesi</w>
Yugos lav</w>
Pres s</w>
Pınar başı</w>
J ava</w>
et mekteydi</w>
Kon tu</w>
yol dan</w>
tasar ru
nes li</w>
anlat tığı</w>
Geç mişi</w>
Yeşil yurt</w>
ist asyon</w>
12 55
yan ıl
Ad v
Os aka</w>
78 9</w>
sürdür ül
Karac a
tedar ik</w>
r as</w>
st ili</w>
gör ündü</w>
tan ım</w>
alan lara</w>
malar la</w>
tes isi</w>
Har old</w>
yöneti cileri</w>
öv gü
Pin k</w>
püskür t
krom ozom
A FC</w>
ad er</w>
tan ık</w>
kat edr
Bar on</w>
okul dan</w>
mo bil
kuş ağı</w>
Tele kom</w>
başvur u</w>
Serv isi</w>
penc ere</w>
S öy
i u</w>
k alanı</w>
l iyordu</w>
am ino</w>
iç ki</w>
ih tim
ük leri</w>
geliş imini</w>
içer is
ilişk iyi</w>
sefer leri</w>
geniş liğinde</w>
Yam aç</w>
B ar</w>
J ak
K lin
U mut</w>
ıl mak</w>
kar ın</w>
kal mak</w>
tü tün</w>
den etim</w>
Bil ge</w>
Sey han</w>
unsur ları</w>
vit am
Ölüm ünden</w>
S ur</w>
U TC</w>
V ila</w>
ó w</w>
alar ıdır</w>
çık arken</w>
olan ağı</w>
Gu il
Dar besi</w>
serv isi</w>
günd üz</w>
antren ör</w>
l ıs
ş arab
düş üş</w>
merkez inden</w>
neden leri</w>
Hal it</w>
zor lu</w>
79 6</w>
dal ıdır</w>
dav ul</w>
belirt mek</w>
yarat mak</w>
katk ıları</w>
ucu ları</w>
senar yosu</w>
Park er</w>
hek im
unut ul
tüken miş</w>
nahiy esine</w>
Trip le</w>
G üçlü</w>
P us
S eg
ke ş</w>
ep pe</w>
23 59
Kr on
Ak ın</w>
müşt eri</w>
tanım lam
Bo stan
da imi</w>
nas tik</w>
Yüc el</w>
L td</w>
Z eh
f lix</w>
ur un</w>
id al</w>
23 58
İl yas</w>
sistem lerinde</w>
çif ti</w>
Ger man
ri x</w>
olabil mektedir</w>
yazar dır</w>
dam g
War ren</w>
pir am
İttif akı</w>
misaf ir</w>
B ard
L loyd</w>
ey diler</w>
sür ek
mez unu</w>
tüke tic
Mağ arası</w>
F eh
R it
b uyru
er it
ik s</w>
em ediği</w>
ab ey</w>
man astır</w>
har ita</w>
res el</w>
Do w
60 2</w>
kav ş
Tor ino</w>
oran ına</w>
We ek
oluşt u</w>
Astr onom
as yum</w>
kar an
sk and
yeten ekleri</w>
Dir en
Veg as</w>
moz a
R he
ay ına</w>
23 38
75 4</w>
78 5</w>
El âz
Dan ış
Has tan
Yay la
yetiştir ic
enf ekte</w>
Önc eleri</w>
Stutt gart</w>
G et</w>
ti v</w>
ler dendir</w>
am iral</w>
if f</w>
ter si</w>
ef end
30 46
takım ından</w>
70 5</w>
69 0
bilg ilere</w>
grup larının</w>
Go et
öğretmen liği</w>
4 20</w>
H ut
S hane</w>
lan ın</w>
iz lenen</w>
çık ınt
oyn at
St o
bas ılmıştır</w>
gönder erek</w>
Mad de</w>
Mes ut</w>
alış kan
mel od
etkilen miştir</w>
ilaç lar</w>
C C
M uk
as ları</w>
at re</w>
ver y</w>
dön müş</w>
Sh ield</w>
bilg iyi</w>
kral lığı</w>
Vak ıf
Gaziant ep
C lara</w>
ak s
es ir
yap ımına</w>
etm esinden</w>
yayın cı</w>
asyon unun</w>
Kat ıl
gı d
hüküm etin</w>
Yak ası</w>
Ap p
yönetmen liğinde</w>
kadın ları</w>
Comi cs</w>
H ikay
ler se</w>
ic e
18 26</w>
göz et
ich o</w>
67 0</w>
Yen er</w>
kuruluş lar</w>
E ar
M aster</w>
N T</w>
et ap
alar dır</w>
kr onik</w>
bat ar
form ülü</w>
seslendir ilmiştir</w>
Ukr aynalı</w>
Plan ı</w>
santr al
stady um
rüz gar
sertif ik
azz am</w>
Stew art</w>
al üminyum</w>
aş ama</w>
it ed</w>
ver ek</w>
ist en</w>
say ıdaki</w>
albüm deki</w>
tanım lanabilir</w>
75 2</w>
Hay dar
doğru ladı</w>
Da ire</w>
versiy on</w>
pak eti</w>
Konfeder asyonu</w>
Part inin</w>
pam uk</w>
I ch
b iz</w>
c ik</w>
ort ada</w>
kaz asında</w>
Ch em
İstan bul
parç asını</w>
Kan uni</w>
sev gi</w>
70 3</w>
79 2</w>
keşf i</w>
Yaz arlar</w>
deney imi</w>
unvan ına</w>
Değ er
ula c
Johan nes</w>
duyar lı</w>
P unk</w>
S ait</w>
yüz ünün</w>
Ad ri
tekn ik
saldır ısına</w>
kültür ünde</w>
hed iy
Gal iç
yenil gi</w>
turnuv ası</w>
başlangıc ında</w>
I N</w>
N ova</w>
X I</w>
u al</w>
pro v
getir ilmesi</w>
Es kim
bulundur an</w>
Abr aham</w>
Senar yo</w>
G ub
ş af
in er
and aş
tak dir</w>
sür ücü</w>
şek er
şekil leri</w>
78 8</w>
büyü t
karşılaştır ıldığında</w>
bahar da</w>
solu k</w>
Şır nak</w>
C ün
O to
Y et
s os
t aze</w>
u cudur</w>
ak ınt
ele di</w>
kal esini</w>
kal itesi</w>
top ar
top landı</w>
çalış ıyordu</w>
bur j
peyn ir</w>
Nür nberg</w>
u laştığı</w>
ül is
yas adışı</w>
Mon te</w>
Be au
Mıs ır
Arap ç
görüntü leme</w>
C ort
le den</w>
on ur</w>
em b
ah met</w>
baş larda</w>
man ında</w>
olu tion</w>
üs sü</w>
Ne il</w>
yarat ılan</w>
Geç miş</w>
Yay gın</w>
kı demli</w>
basın c
Kont luğu</w>
Nort h
Magaz ine</w>
B K</w>
d ib
ş ikay
aş ın
18 59</w>
mil let
ch a</w>
sağ layarak</w>
Baş ta</w>
li o</w>
haf ıza</w>
60 3</w>
mac a</w>
Val er
miş ler</w>
kanal ları</w>
ph y</w>
Ex p
neh rin</w>
taht ına</w>
propag and
Evren sel</w>
S I</w>
mi de</w>
ih isar</w>
yak ındır</w>
75 5</w>
anlaş ılır</w>
televiz yonda</w>
hareket le</w>
seçim lere</w>
bor ç</w>
lük te</w>
atik te</w>
Çob an</w>
C ot
I z
O ks
U lus</w>
e başı</w>
çek imsel</w>
kap tanı</w>
dış ından</w>
isim lerin</w>
eyal etindeki</w>
Mor ris</w>
düşünc esi</w>
köp eği</w>
Elâz ığ</w>
C oc
c har
d ık</w>
’ ’</w>
er im
la ş</w>
Gün cel</w>
fark lı
Yun anlar</w>
sak inleri</w>
parçac ıklar</w>
atan mış</w>
Net flix</w>
yoks un</w>
Tow n
c eb
f ınd
w ick</w>
ver mişti</w>
Man astır</w>
çab uk</w>
.. ."</w>
Paragu ay</w>
P ent
Z ır
p lay
ar if</w>
ek lenen</w>
baş lanmış</w>
ro e</w>
dok tr
konum landır
formas yon</w>
B ib
N ow</w>
r ec
w ald</w>
al im</w>
al ia</w>
tarih in</w>
yaş ant
24 4
75 6</w>
gar ip</w>
keşf edilen</w>
US B</w>
inf az</w>
femin ist</w>
e in</w>
s ic</w>
im et
id ad</w>
18 57</w>
65 6</w>
eser de</w>
İş ler</w>
Ef end
So uth
oyuncu larından</w>
Poké mon</w>
A ston</w>
D ağı
f o</w>
n os</w>
ö p
yü ğü</w>
film deki</w>
79 1</w>
Meh di</w>
% '</w>
C ard
D alı</w>
F i</w>
O g
l inin</w>
s at</w>
el bis
ev el
An tren
İs hak</w>
İl köğretim</w>
malar ıyla</w>
keşf etti</w>
Ur al</w>
birim idir</w>
aral ığı</w>
oğl unu</w>
Abbas i</w>
İne göl</w>
J in</w>
R ock
ı h</w>
la hat
on unda</w>
aç lı</w>
16 00</w>
ch o</w>
takım larının</w>
tut uldu</w>
araştır maya</w>
69 5</w>
Car ol
cih azı</w>
esn ek</w>
Genç liği</w>
Fır t
Pav lus</w>
fol k</w>
Ng c</w>
7 37</w>
S ky</w>
t et
Al fa</w>
Son gs</w>
60 5</w>
Mad ag
yoks ul</w>
Azer ice</w>
Vati kan</w>
Brother s</w>
D A
N BC</w>
S o</w>
S uç
n iy
us lar</w>
mer mi</w>
yay ılmıştır</w>
79 3</w>
karakter iyle</w>
E is
e u
er ik</w>
ort alarına</w>
var an</w>
ren kl
geçir diler</w>
Kom it
dağ lar</w>
yerleş me</w>
görün ümü</w>
şart lar</w>
müzik lerini</w>
Fet hi</w>
v oley
san ti
Mu av
inan cı</w>
dis k
psik iyat
sektör ü</w>
P enc
e u</w>
laş a</w>
od ak</w>
Kö tü</w>
45 0
Der gi</w>
koy duğu</w>
hizmet ine</w>
toplum da</w>
Sab ri</w>
teklif ini</w>
Tib er
Roc ky</w>
n ut
yap ısında</w>
lat ma</w>
isim lerinden</w>
min eral</w>
Gu at
Qu in
Gü cü</w>
au er</w>
örgüt ün</w>
düşt üğü</w>
uge ot</w>
an yum</w>
en h
ıl ıman</w>
du nda</w>
78 4</w>
olay lara</w>
eleştir di</w>
bildir ir</w>
adam larının</w>
bileş ik</w>
taşın an</w>
Tw o</w>
İskender un</w>
ihrac at</w>
B ack</w>
D ort
W ehr
y ü</w>
il lere</w>
ih az
doğr ul
75 3</w>
50 1</w>
med yada</w>
örgüt len
Nev ada</w>
Make don</w>
D od
o ur
ti er</w>
em ann</w>
sen kron
yaklaş an</w>
Ed die</w>
178 9</w>
kategor ide</w>
uluğ un</w>
Andr on
önder liğindeki</w>
B est
J as
K en</w>
bul maya</w>
ark asından</w>
oluş maktaydı</w>
kor ido
görün ce</w>
şi irler</w>
Pe ugeot</w>
eylem leri</w>
sadraz am
Sivas spor</w>
Muzaf fer</w>
Y uk
p an</w>
ak ımının</w>
ad ın</w>
var isi</w>
66 9</w>
sanat ının</w>
kol tuğ
vek ili</w>
sınıf ının</w>
gelec eği</w>
festiv al</w>
efsan e</w>
T ez
d ediği</w>
lam enter</w>
ser ileri</w>
eser inin</w>
Gu ard
çat ısı</w>
Sev illa</w>
Lu mia</w>
ileti şim
Cez a
strat eji</w>
F ame</w>
N iel
f ant
n ev
o te</w>
r üş
s okul
ad y</w>
kur b
parç anın</w>
75 8</w>
hek im</w>
4 10</w>
G ana</w>
R at
p ut
çal maya</w>
dön mek</w>
film ini</w>
söy ley
yaşam ının</w>
bit ti</w>
Sem er
rütb esi</w>
gitar isti</w>
Daw n</w>
T ef
b ud
y di</w>
er ansiyel</w>
tür de</w>
kap ital
Mu har
mem e</w>
65 1</w>
İz zet</w>
kaç mak</w>
birleştir en</w>
Ur fa</w>
komp lik
vad eli</w>
Sın ıf</w>
çök üş
belge ler</w>
aşağ ıya</w>
Ş a
do v</w>
öl düğünü</w>
edil mesinden</w>
lem esine</w>
çalış anı</w>
yüz eye</w>
etkil edi</w>
69 0</w>
luk tan</w>
kıl ın
popü lar
mül tec
htt ps</w>
Rüz gâ
Cün ey
A lay</w>
il hak</w>
ac ın</w>
Co ok</w>
70 0
trans krip
öner ilen</w>
AT A</w>
spes ifik</w>
A K
edil iyordu</w>
par alı</w>
hal ef
tab anı</w>
79 7</w>
kaynak ların</w>
kuş ak</w>
Mas ters</w>
Yay lası</w>
fik irleri</w>
yazar lık</w>
yans ıtan</w>
tarz ını</w>
Zey tin
Raf ael</w>
Faz ıl</w>
Teh lik
Aw ards</w>
H orn
m ad</w>
w are</w>
л а
le e</w>
ir üs</w>
ün tü
im ti
An as
kend iliğinden</w>
ber la
lo v</w>
yard ım
ödül lü</w>
Nor d
tör en</w>
mahkû m
Tapın ak</w>
Gaziantep spor</w>
. :</w>
P eh
n y
or n</w>
em s</w>
ku k
tamam lanmış</w>
Kö p
tab aka</w>
Yarış mada</w>
evl iliğinden</w>
temsil ci</w>
kapasit esine</w>
F un
mer id
Ad riy
Kom edi</w>
mahalle den</w>
hareket ine</w>
formula_ 3</w>
silah ları</w>
vak ıf</w>
zek a</w>
dou ard</w>
Adap azarı</w>
diskograf isi</w>
8 50</w>
B uğ
L ozan</w>
S osy
Y uri</w>
p es</w>
im on</w>
Ar p
Al c
fark ına</w>
ilişk isini</w>
ide al
gazet enin</w>
bölge lerin</w>
Sur viv
üreti mini</w>
Kol on
Dr agon</w>
Wat er
Vas il
et mektedirler</w>
ger isinde</w>
mekt ubu</w>
git meye</w>
Ev a</w>
Bul varı</w>
rö van
rej im</w>
erkek lerde</w>
Muhaf ız</w>
amel iyat</w>
E arth</w>
f aktör</w>
v ic
ab ak
mu m</w>
79 5</w>
okul lar</w>
mar k</w>
teş his</w>
büyük elçi</w>
Af yon</w>
yönetmen lik</w>
Araştır malar</w>
yaptır ılmıştır</w>
şer ef
gâ h</w>
başrol lerini</w>
heykel tıraş</w>
edit örü</w>
P é
P lan</w>
P laz
d ip
k ül</w>
s ını</w>
iç ecek</w>
18 55</w>
tanım lamıştır</w>
Ser inin</w>
Tur ner</w>
Mor f
andır a</w>
S v
T uc
ar alarındaki</w>
ol iz
ek os
ik an</w>
ık larının</w>
18 49</w>
Baş rol
65 7</w>
ölüm e</w>
hareket ler</w>
fil o</w>
atör ler</w>
Bad en</w>
Sci ence</w>
Chur ch
4 30</w>
B I</w>
S oc
S iyon
T ır
d ığına</w>
ar en
la g
an te</w>
ak öy</w>
yıl lardır</w>
ver irken</w>
ele melerinde</w>
taraf ın</w>
par tiz
iti s</w>
çek erek</w>
yan ından</w>
düz ü</w>
tut uklu</w>
karşı t</w>
yür üy
taşıy ıcı</w>
Hot el</w>
C P
28 35
sağ landı</w>
ulu p</w>
geliş mekte</w>
okul ları</w>
kadem eli</w>
Mol la</w>
H ell</w>
o gen
tan ıyan</w>
futbol cusu</w>
78 1</w>
haber ler</w>
CO NCA
sınıflandır ma</w>
karıştır ıl
Cev det</w>
bula bil
D N
f u</w>
f are</w>
z y</w>
Ç ınar</w>
ler s</w>
kon uyu</w>
lay abilir</w>
har ika</w>
yet ki</w>
mez ler</w>
savun ur</w>
evr imsel</w>
Ind ust
Euro league</w>
Saray bos
Erc iy
CONCA CAF</w>
E kr
e en</w>
s eti</w>
t il
et lerinin</w>
18 39</w>
ko t</w>
ko kul
24 58
li on</w>
Sp ir
mem ur</w>
Mem lû
bitk ilerin</w>
çekilm ek</w>
Y üce</w>
a q</w>
in ho</w>
ti g
ot ek
kullan ımının</w>
Le opol
mek an</w>
mit olojisi</w>
Kap lan</w>
redd edildi</w>
Topl umsal</w>
isten ilen</w>
tören le</w>
madal yası</w>
ihtim ali</w>
ad eta</w>
iş lerdi</w>
est o</w>
kaç ar</w>
düny aca</w>
77 0</w>
Gör evleri</w>
Cey han</w>
on ic</w>
tr ac
Os lo</w>
70 1</w>
kim liğini</w>
Ko ordin
Gal il
Şir ket
soruml uluk</w>
lisans ını</w>
Saldır ı</w>
lum bağ
sürpr iz</w>
C BS</w>
Z ira</w>
ol malarına</w>
iş lerine</w>
yön etmiştir</w>
kiş iliği</w>
li er</w>
47 0
Tek in</w>
hesap lama</w>
Adriy atik</w>
m ab
ek ü
at us</w>
em em
ey li</w>
iz ade</w>
mas ız</w>
hal ife</w>
dön mesi</w>
ant laşması</w>
60 7</w>
mar şı</w>
ilah i</w>
List e</w>
istasyon ları</w>
Düş ük</w>
Mont g
minim um</w>
es h</w>
on ne</w>
it hal</w>
ro manın</w>
and ro</w>
gen er
sır ayla</w>
Or han
uygu ladığı</w>
Ber ke
başkan ının</w>
Hay van</w>
mac ht</w>
Albüm den</w>
makin eleri</w>
Bayr ak</w>
Başar ılı</w>
tazmin at</w>
Kıbrıs lı</w>
H ilmi</w>
N ancy</w>
c ard</w>
bil gilendir
12 29
yer lerinden</w>
66 6</w>
66 8</w>
grup lardan</w>
çıkt ığında</w>
d ığından</w>
em per
ver ilerin</w>
hal iyle</w>
dır an</w>
79 8</w>
Ko ş
Ko st
Ukr ayn
div an</w>
istatis tiksel</w>
Grön land</w>
4 15</w>
A ta</w>
р а
Bo hem
60 4</w>
müd det</w>
1 190
D ud
S ob
í n
el o</w>
inc eye</w>
sal on</w>
mey v
öğrenc ilere</w>
Yen iköy</w>
yüksek liğinde</w>
malzem esi</w>
geniş leme</w>
problem leri</w>
Zag reb</w>
Kayı t</w>
presti j
s ond
ver iyor</w>
top ladığı</w>
etk isinin</w>
60 1</w>
pat layıcı</w>
biç imleri</w>
yönet ildi</w>
ekib inin</w>
örüm cek</w>
B ap
S İ
d ind
im izin</w>
om al
Ar c
düzen lenir</w>
nak liye</w>
meş ru
veç çe</w>
kub be</w>
P end
on ay</w>
ru k
göz le</w>
66 5</w>
Per son
nak led
ang o</w>
Sür ekli</w>
ula cak</w>
makal eler</w>
lib eral
Hig h
şem be</w>
Öy kü</w>
Bob by</w>
Elen a</w>
A s</w>
D ini</w>
T ed</w>
ask ar</w>
may acak</w>
kab lo</w>
Bar t</w>
dil lerde</w>
67 8</w>
Com mun
anayas al</w>
Ste in
Esp er
format ında</w>
Kasım paşa</w>
3 31</w>
T uf
â h</w>
en lerden</w>
ro r</w>
yar ısını</w>
Em p
sanatç ıları</w>
hatt ında</w>
f it
ün it
av o</w>
18 54</w>
sır ası</w>
lem enin</w>
Kon yaspor</w>
mak amı</w>
abil im</w>
lig den</w>
çiz el
Af gan</w>
kole ksiyonu</w>
Güm rük</w>
Hüküm et</w>
person eli</w>
istis n
Çar p
o don
s ir</w>
el iyle</w>
bulun maz</w>
ala bilir</w>
67 2</w>
Ho nda</w>
kural larına</w>
orman ları</w>
benim s
Organ iz
A ster
S ri</w>
r ice</w>
taraf ındaki</w>
18 6
yer idir</w>
etm esinin</w>
Fr ed
uç an</w>
insan i</w>
70 4</w>
kil o</w>
destek lemektedir</w>
Aş ık</w>
çocuk larının</w>
ayrıl mak</w>
numar ada</w>
vad i</w>
antren ör
üstün lük</w>
E cev
f res
n eş
ti mat
ark asındaki</w>
yaş larında</w>
Osman lıca</w>
Bar ry</w>
66 2</w>
hız ını</w>
Bask et
vak it</w>
sürec ine</w>
N est
il o</w>
az alır</w>
iş çiler</w>
ık çı</w>
kur gu
kad ına</w>
Al l
sür ün
Sp ort</w>
65 2</w>
karar lar</w>
Bah ar</w>
Pan ama</w>
Yal ova</w>
c aya</w>
t ıktan</w>
var lığına</w>
Ne olitik</w>
list eye</w>
For est</w>
kayıt lara</w>
kuruluş unun</w>
öldürül ür</w>
nih ayetinde</w>
Ortaç ağ</w>
K is
U f
sah aya</w>
ard ında</w>
eg el</w>
uş a</w>
Şub e</w>
Ba gr
Max well</w>
osaur us</w>
P and
Ç ır
es cu</w>
et o
im lerinin</w>
tem alı</w>
tanım landı</w>
Yar ış</w>
rol l</w>
van ia</w>
eleştir meni</w>
kaldır mak</w>
muhaf ız
kahver eng
yab ani</w>
A L</w>
c az
w al
in le</w>
ad alar</w>
ir tif
am am</w>
iş lerinde</w>
man tar</w>
öz ür</w>
18 31</w>
iler ledi</w>
şark ıda</w>
Kral içesi</w>
Seç meleri</w>
oluşturul ması</w>
süt un</w>
soğut ma</w>
P omp
e g</w>
la va</w>
kal kınma</w>
od un</w>
görev l
aj an</w>
Kes kin</w>
ekib in</w>
vücu dun</w>
Emir likleri</w>
vaf tiz</w>
Montg omer
I G
K ar</w>
R az
T v</w>
n alı</w>
tur uncu</w>
Har t</w>
sonuç larını</w>
çağ ın</w>
Gala ta</w>
Bah çesi</w>
Ric har
yerleştir ildi</w>
parçac ıkların</w>
Köpr ü
tutar lı</w>
gayr i</w>
Kırg ız</w>
Simp son</w>
H entbol</w>
e aux</w>
s imi</w>
z girt</w>
le x</w>
parç aların</w>
sev en</w>
mem eli</w>
79 9</w>
hayat ın</w>
Kul übü
bahs edilen</w>
Gi us
Huku ku</w>
slo gan
U V</w>
Ku antum</w>
66 7</w>
69 4</w>
şehir deki</w>
yıldız dır</w>
67 4</w>
karakter inin</w>
öm r
versiyon unu</w>
yasak landı</w>
Aug ust</w>
esin len
Meşru tiyet</w>
c iv
ev cil</w>
ih tiva</w>
say dı</w>
hat alı</w>
59 0</w>
organ ları</w>
De part
his se
Vol kan</w>
Saraybos na</w>
Ecev it</w>
O da</w>
V iv
s it</w>
ko w
sistem lerin</w>
Mu kad
Bak er</w>
ölç ü</w>
kaynak lardan</w>
sürdür düğü</w>
çalışmalar ından</w>
Ger ç
korum aya</w>
yolc uluk
kast edilmiş</w>
Sarıy er</w>
A mi
V eh
en ti</w>
am az
lü ce</w>
re am</w>
29 78
46 0
katıl ımını</w>
68 4</w>
ret tin</w>
min ar
Yahud ilere</w>
motor ları</w>
temel leri</w>
cast le</w>
yanlış lıkla</w>
F ig
d ia</w>
h es</w>
n un
ç il
yıl larını</w>
öl ünce</w>
mes leki</w>
ail ede</w>
80 8</w>
olan a</w>
Sez en</w>
sü la
aram aya</w>
s yl
t ezi</w>
â b</w>
in ae</w>
on lu</w>
öl ye</w>
oy an</w>
gir meye</w>
kurul masını</w>
kazan ması</w>
65 0
tartış malara</w>
Ru dolf</w>
apol is</w>
düzenlem esi</w>
başlam asıyla</w>
ba a</w>
Leh istan</w>
ımız ın</w>
Glen n</w>
C ob
è ne</w>
et eklerinde</w>
baş ını</w>
mü te
göster ildiği</w>
Ku ş</w>
köy ler</w>
kayb eder</w>
araştır ması</w>
69 8</w>
teor isinin</w>
97 7</w>
kavram ının</w>
bölün müş</w>
öncelik li</w>
Montgomer y</w>
3 10</w>
G od</w>
W ag
is li</w>
bir imler</w>
yar ım
18 58</w>
ip ek</w>
tür ünden</w>
tas vir
Sa at
çif tin</w>
köken lidir</w>
eylem i</w>
sertif ika</w>
Dort mund</w>
D os
T ren
c ay</w>
и н
ev lendir
Tr ib
çıkar lar</w>
68 3</w>
değiştir miştir</w>
Montr eal</w>
Tacik istan</w>
Z el
b oks</w>
r ac
ic ks</w>
Öz er</w>
68 6</w>
kayıt lar</w>
Ven üs</w>
Muhareb e</w>
ism idir</w>
Wal ker</w>
potansiy eli</w>
6 40</w>
F ay
c le</w>
t es</w>
as ta</w>
et ri</w>
kar ab
gör ünd
Or ange</w>
ken tindeki</w>
maç ının</w>
diz ilerinde</w>
68 7</w>
68 1</w>
kaç maya</w>
yapıl masına</w>
bor ough</w>
Hüs nü</w>
sürüm leri</w>
dern ek</w>
Bulu t</w>
P eç
Y ez
c ore</w>
as f
kar ara</w>
yas ına</w>
insan a</w>
Hol mes</w>
Car ol</w>
gerç eği</w>
Bayr am</w>
ruh u</w>
uğraş an</w>
uzan maktadır</w>
G öy
S par
am or
ro b
ib ar
olu yor</w>
ola ya</w>
görev lileri</w>
kül t</w>
39 0
70 6</w>
sız dır</w>
dam ar</w>
Mala zgirt</w>
tedav isinde</w>
Olym pi
hektar lık</w>
N ap
b iber</w>
ł aw</w>
say ının</w>
çek meye</w>
Er kan</w>
tes lim
ug a</w>
bin aları</w>
nit eliği</w>
Sch um
proj eler</w>
mut laka</w>
kulüp leri</w>
götür ür</w>
naz aran</w>
Berke ley</w>
t üz
Av ni</w>
kap it
dağ ıldı</w>
alam adı</w>
Arn old</w>
Sah ili</w>
ömür lü</w>
Aristot eles</w>
B O
İ tila
ip er</w>
Er gen
yıldız ları</w>
bitir erek</w>
evr en</w>
[...]
