<unk>	0
<s>	0
</s>	0
.	-3.12808
,	-3.50139
'	-3.88553
▁ve	-4.09512
"	-4.44118
doc	-4.48956
>	-4.4908
▁<	-4.4908
▁bir	-4.59662
="	-5.0775
/	-5.10167
▁"	-5.15251
▁id	-5.177
▁title	-5.18384
▁url	-5.18387
="?	-5.18394
curid	-5.18394
▁(	-5.31228
da	-5.40687
▁olarak	-5.45746
de	-5.46123
)	-5.5589
a	-5.56869
▁ile	-5.56995
▁	-5.67006
e	-5.68012
in	-5.71347
-	-5.73762
i	-5.74987
nin	-5.7557
nın	-5.80747
▁için	-5.82082
n	-5.8636
▁bu	-5.92295
▁olan	-5.94108
▁da	-5.98641
lar	-5.99989
’	-6.00034
ler	-6.07032
ın	-6.07346
▁de	-6.07545
▁yılında	-6.14045
▁tarafından	-6.17793
▁Bu	-6.18228
▁sonra	-6.25151
ya	-6.2961
te	-6.29754
s	-6.30022
na	-6.3012
;	-6.31083
ne	-6.34617
:	-6.38356
▁ilk	-6.5016
▁daha	-6.51027
▁en	-6.53166
den	-6.58569
un	-6.59797
nda	-6.60173
nde	-6.60487
dan	-6.6102
ı	-6.61887
▁yer	-6.64243
d	-6.65593
▁ise	-6.67153
dir	-6.67183
ları	-6.67839
k	-6.68409
leri	-6.70296
ni	-6.74147
▁gibi	-6.75052
ye	-6.7522
li	-6.75491
ta	-6.77975
▁çok	-6.79253
▁arasında	-6.84721
u	-6.87111
▁kadar	-6.88258
la	-6.90192
dır	-6.91652
lı	-6.93519
▁büyük	-6.94272
le	-6.94936
▁iki	-6.95047
si	-7.00265
▁veya	-7.00353
▁göre	-7.01216
),	-7.01294
▁oldu	-7.04504
▁bağlı	-7.08033
t	-7.09096
▁Türkiye	-7.1367
▁olduğu	-7.15527
m	-7.16587
daki	-7.17575
nı	-7.17607
2	-7.1811
o	-7.19149
▁bulunan	-7.20338
nun	-7.20512
▁-	-7.20595
ların	-7.22665
▁tarihinde	-7.23497
▁km	-7.25299
lerin	-7.25427
▁birlikte	-7.28849
▁alan	-7.29209
y	-7.3079
z	-7.33843
▁ya	-7.34293
▁diğer	-7.35604
▁Türk	-7.35815
▁A	-7.36784
nden	-7.37276
l	-7.38848
r	-7.39967
lik	-7.40574
▁!	-7.41992
ndan	-7.42187
▁1	-7.43511
▁karşı	-7.44321
▁aynı	-7.46406
yı	-7.46713
center	-7.47063
▁align	-7.47191
en	-7.47556
▁|	-7.47649
yi	-7.47812
▁yeni	-7.48079
▁yıl	-7.48442
▁etti	-7.49062
di	-7.49152
er	-7.50665
▁adlı	-7.507
sı	-7.50902
yla	-7.5247
▁her	-7.5429
▁3	-7.55237
▁aldı	-7.55508
an	-7.56086
deki	-7.56358
1	-7.56502
▁ilçesine	-7.5723
▁2	-7.57235
▁İstanbul	-7.575
▁Dünya	-7.5785
▁önemli	-7.57982
3	-7.59365
▁Avrupa	-7.59668
ki	-7.60384
▁adı	-7.60569
▁başladı	-7.61105
yle	-7.63097
▁Bir	-7.63142
▁I	-7.63619
▁ancak	-7.63679
▁eski	-7.6455
▁önce	-7.64575
)"	-7.64606
▁son	-7.65571
4	-7.65622
▁Üniversitesi	-7.69745
▁olmuştur	-7.69917
▁yapılan	-7.70427
ten	-7.72136
tan	-7.73275
▁vardır	-7.73691
▁şekilde	-7.73827
▁4	-7.7515
▁olduğunu	-7.75238
▁üzerine	-7.75781
▁üzere	-7.76184
▁içinde	-7.77593
▁Mart	-7.78563
p	-7.79201
▁sahip	-7.79336
▁kez	-7.7937
▁birçok	-7.79927
5	-7.80088
▁5	-7.80594
▁kabul	-7.81387
ca	-7.81582
7	-7.81884
ti	-7.82492
▁o	-7.82826
lu	-7.8324
▁O	-7.83272
8	-7.8332
▁15	-7.83388
A	-7.83571
▁Ayrıca	-7.83753
larını	-7.8401
pan	-7.84093
▁S	-7.84271
lara	-7.84452
6	-7.84824
▁üç	-7.84871
▁ikinci	-7.84948
▁devam	-7.85224
▁Mayıs	-7.853
▁gelen	-7.85655
lık	-7.85668
ma	-7.85902
▁yaptı	-7.8644
▁fazla	-7.8673
9	-7.87443
▁Ocak	-7.87755
▁10	-7.8878
▁tüm	-7.89122
▁kendi	-7.89311
▁Kasım	-7.90262
lere	-7.91199
▁yüksek	-7.91587
▁görev	-7.91875
▁eden	-7.919
▁ilinin	-7.923
▁iyi	-7.9267
▁tek	-7.92716
▁zaman	-7.93027
▁Eylül	-7.93512
0	-7.93861
▁Ekim	-7.94595
▁Haziran	-7.94621
▁farklı	-7.94735
▁bazı	-7.94955
▁Osmanlı	-7.95795
se	-7.95898
▁Amerika	-7.96018
▁olmak	-7.96151
▁Temmuz	-7.96341
▁ABD	-7.96465
▁Nisan	-7.96626
▁Ağustos	-7.96629
▁üzerinde	-7.96768
▁ardından	-7.96815
sa	-7.97111
▁hem	-7.97834
lerini	-7.98109
▁olup	-7.984
▁En	-7.99617
▁Aralık	-7.99952
▁sırasında	-8.00366
▁Savaşı	-8.00552
h	-8.00582
▁İlk	-8.00657
f	-8.00775
▁Daha	-8.01432
ken	-8.0162
man	-8.01644
▁geri	-8.01745
▁cols	-8.01944
▁Ancak	-8.02127
larda	-8.02425
me	-8.02438
▁16	-8.02446
▁“	-8.02448
▁6	-8.02682
▁of	-8.02994
tir	-8.03137
S	-8.03193
al	-8.03273
▁bulunmaktadır	-8.03376
▁ortaya	-8.04386
”	-8.04392
▁çeşitli	-8.04494
▁yılları	-8.04587
▁küçük	-8.04826
ce	-8.05052
▁12	-8.058
▁biri	-8.06518
▁Birleşik	-8.06759
▁E	-8.07692
▁genel	-8.08029
▁Şubat	-8.08171
lerde	-8.09583
▁17	-8.09666
▁boyunca	-8.09849
▁nedeniyle	-8.11595
▁7	-8.11806
▁süre	-8.12008
▁yılı	-8.12081
▁zamanda	-8.12645
&	-8.13603
larının	-8.14188
▁sadece	-8.15295
▁nüfusu	-8.15562
▁yeniden	-8.16085
▁B	-8.16271
▁II	-8.16609
▁20	-8.16672
▁8	-8.16856
▁The	-8.16897
C	-8.17185
dur	-8.17325
▁M	-8.18192
▁C	-8.19862
▁yaklaşık	-8.19869
ün	-8.2029
lerinin	-8.20575
▁2010	-8.21626
▁T	-8.22011
ü	-8.2282
on	-8.22942
▁kişi	-8.23048
▁uzun	-8.23191
dı	-8.23512
g	-8.23581
▁edilen	-8.24073
▁New	-8.24197
c	-8.2443
▁edildi	-8.24453
▁14	-8.2515
▁doğru	-8.25597
▁su	-8.25655
ci	-8.26048
▁the	-8.2608
▁yaptığı	-8.26175
B	-8.26219
▁yerine	-8.26405
▁Genel	-8.26771
lt	-8.26843
▁Almanya	-8.26908
us	-8.27094
▁az	-8.27126
▁Güney	-8.27277
▁rağmen	-8.27601
▁K	-8.28311
▁ana	-8.28574
▁Fransa	-8.28768
b	-8.28879
▁bulunur	-8.29066
▁Coğrafya	-8.29532
▁Yeni	-8.29619
")	-8.29904
tır	-8.30136
▁kısa	-8.30404
▁takım	-8.3058
▁ilgili	-8.30606
lardan	-8.30809
▁11	-8.30883
▁başka	-8.31186
▁özel	-8.31227
el	-8.31347
▁9	-8.31785
▁altında	-8.31966
▁Alman	-8.32013
▁gün	-8.32283
▁Ankara	-8.32521
▁müzik	-8.32801
▁ait	-8.33
ini	-8.33054
lerden	-8.33558
▁Cumhuriyeti	-8.33573
▁Kuzey	-8.33967
▁13	-8.34059
The	-8.34181
▁tekrar	-8.34268
▁Tarihçe	-8.34326
▁dahil	-8.34624
▁'	-8.34906
▁Kupası	-8.34957
ir	-8.35587
▁merkezi	-8.3591
▁uzaklıktadır	-8.35997
K	-8.36162
ar	-8.36192
sel	-8.36302
▁D	-8.36381
▁almıştır	-8.36501
larına	-8.36585
▁tarihi	-8.37277
▁30	-8.37521
▁İngiliz	-8.37531
▁eder	-8.37805
▁kazandı	-8.37806
▁edilmiştir	-8.3791
is	-8.37951
▁G	-8.38025
▁film	-8.38163
ik	-8.3843
▁ayrıca	-8.38823
▁elde	-8.38979
▁P	-8.39219
▁devlet	-8.39421
ka	-8.3953
▁Roma	-8.39535
es	-8.3961
▁("	-8.40121
▁dört	-8.40294
▁on	-8.40377
lerinden	-8.40654
▁Birliği	-8.40718
tı	-8.41103
▁genellikle	-8.41266
▁millî	-8.41315
su	-8.41521
▁savaş	-8.41528
ine	-8.41627
▁Amerikan	-8.41672
▁Paşa	-8.42114
at	-8.42162
lerine	-8.42436
▁U	-8.4255
▁yakın	-8.43418
▁adıyla	-8.44045
▁F	-8.44352
▁Büyük	-8.44483
ş	-8.45
▁bilinen	-8.45101
O	-8.4546
▁Rusya	-8.45589
▁ele	-8.45597
▁arasındaki	-8.45902
x	-8.46015
D	-8.46128
▁Doğu	-8.46165
nu	-8.46305
▁yol	-8.46352
▁sahiptir	-8.46631
▁sıra	-8.46697
▁kullanılan	-8.46734
▁sonunda	-8.47142
▁18	-8.47538
▁olması	-8.47744
▁oyuncu	-8.47981
▁&	-8.48093
E	-8.48243
gt	-8.48445
▁Film	-8.48445
ra	-8.48603
▁yapan	-8.48702
▁takımı	-8.48784
▁birkaç	-8.49066
▁hakkında	-8.49192
▁oluşan	-8.49327
▁olmayan	-8.49535
G	-8.49571
T	-8.49621
larından	-8.50704
▁şu	-8.50779
▁beri	-8.51139
I	-8.5128
oğlu	-8.5159
▁çıkan	-8.51624
M	-8.51674
▁sırada	-8.51887
▁onun	-8.51922
▁çıktı	-8.51927
▁özellikle	-8.51941
yan	-8.51947
▁25	-8.51958
▁el	-8.51978
▁El	-8.5212
▁H	-8.52715
▁Her	-8.52751
▁onu	-8.53048
▁grup	-8.5324
▁verdi	-8.53839
▁ne	-8.54612
▁Çin	-8.54861
re	-8.54993
▁köy	-8.54997
▁Ali	-8.54998
▁mahalledir	-8.55047
▁milyon	-8.55542
▁Şarkı	-8.55563
▁sezonunda	-8.55612
▁Devletleri	-8.55843
▁yapmıştır	-8.55981
▁Aynı	-8.5603
lerle	-8.5616
to	-8.56162
▁almaktadır	-8.56164
▁eğitim	-8.56186
▁açık	-8.56196
▁itibaren	-8.56238
larla	-8.56244
▁merkezine	-8.56317
▁Fransız	-8.56543
▁Partisi	-8.56579
▁Ligi	-8.56685
P	-8.56754
il	-8.5676
▁bin	-8.56765
ydı	-8.57024
ydi	-8.57094
▁m	-8.5717
▁neden	-8.57361
▁R	-8.5771
▁Al	-8.57957
▁geldi	-8.57983
▁futbol	-8.5807
▁Rus	-8.58138
▁karar	-8.58317
liği	-8.58691
▁üst	-8.58742
▁İngiltere	-8.58948
▁a	-8.5898
▁gelir	-8.59044
▁inşa	-8.59068
▁etmiştir	-8.59491
os	-8.59706
▁İtalya	-8.59715
▁ama	-8.59991
▁ev	-8.60067
▁26	-8.60099
larında	-8.60323
▁dolayı	-8.60425
▁döneminde	-8.60577
F	-8.6058
▁nüfus	-8.6058
▁24	-8.60833
▁sonucu	-8.60956
▁2009	-8.60985
▁2.	-8.61262
▁il	-8.61496
▁York	-8.61505
▁sezon	-8.61604
▁2012	-8.62097
▁22	-8.6252
▁verilen	-8.62714
▁idi	-8.63227
ndeki	-8.63359
▁Bey	-8.635
▁toplam	-8.6356
▁kadın	-8.63686
(	-8.63984
▁yanı	-8.63988
▁19	-8.64119
▁tam	-8.6416
ge	-8.64214
▁21	-8.64232
▁adını	-8.64274
ndaki	-8.64494
br	-8.64529
="4"	-8.64792
▁insan	-8.64866
▁listesi	-8.65497
▁Lig	-8.65513
▁iş	-8.65611
du	-8.65744
lü	-8.65805
▁dışında	-8.65883
▁Orta	-8.65893
▁in	-8.66067
▁Amerikalı	-8.66073
▁Anadolu	-8.66111
▁şarkı	-8.66119
▁Batı	-8.66161
▁V	-8.66428
▁sayısı	-8.66462
H	-8.66611
▁alır	-8.66847
▁Kara	-8.66914
▁aldığı	-8.67025
▁23	-8.67098
▁2011	-8.67111
▁olur	-8.6733
▁oğlu	-8.67335
▁rol	-8.6741
▁ay	-8.67779
▁alt	-8.67893
▁İmparatorluğu	-8.6808
▁kariyeri	-8.68103
▁County	-8.682
mi	-8.68257
lerinde	-8.68329
▁Ödülü	-8.68495
ba	-8.68757
ing	-8.68959
▁itibarıyla	-8.69056
▁De	-8.69077
▁ifade	-8.69141
▁1.	-8.69278
cı	-8.69396
▁etmek	-8.69481
▁temsil	-8.69755
son	-8.7012
et	-8.70352
▁dönemde	-8.70529
▁ki	-8.70916
▁La	-8.71039
no	-8.71371
ia	-8.71537
▁2008	-8.71581
▁şehir	-8.7192
it	-8.72042
ter	-8.72887
▁gol	-8.73025
ktan	-8.7318
▁geniş	-8.73326
▁beş	-8.73351
▁beraber	-8.73553
▁N	-8.73591
▁kalan	-8.73664
▁Şampiyonası	-8.73788
▁albümü	-8.74367
▁2014	-8.74374
▁Parti	-8.74381
▁ö	-8.74892
▁yapımı	-8.74971
▁2006	-8.7504
▁yaşında	-8.75176
▁27	-8.75206
▁sezonu	-8.7523
ton	-8.75262
▁2015	-8.75331
im	-8.75333
▁üçüncü	-8.75396
▁dünya	-8.75435
v	-8.75543
▁fakat	-8.75731
▁iç	-8.75785
▁yıllarında	-8.76023
ov	-8.76347
▁bulunduğu	-8.7704
▁var	-8.77195
lama	-8.77314
amp	-8.7735
ç	-8.77418
spor	-8.77469
▁NGC	-8.77487
▁Bunun	-8.77673
▁Su	-8.77681
va	-8.77755
▁28	-8.77789
▁isimli	-8.77849
ve	-8.77965
▁yine	-8.78267
▁Ulusal	-8.78561
▁temel	-8.78864
ri	-8.78938
sal	-8.7899
▁askeri	-8.7907
mış	-8.79147
▁Uluslararası	-8.79266
▁John	-8.7929
▁edilir	-8.79396
ur	-8.79397
▁oynadı	-8.79606
▁hemen	-8.79607
▁kurulan	-8.79758
▁katıldı	-8.79948
▁hava	-8.80058
▁transfer	-8.80215
î	-8.80265
ır	-8.80447
▁kaldı	-8.80457
▁Han	-8.80508
yu	-8.8057
▁bütün	-8.80638
▁oranı	-8.80983
▁2016	-8.81263
▁futbolcudur	-8.81397
▁2013	-8.81411
▁köydür	-8.81703
▁2007	-8.81719
V	-8.81847
▁dönem	-8.81848
▁geçen	-8.82
▁resmi	-8.82217
▁–	-8.8229
▁altı	-8.82725
▁filmi	-8.82741
▁Afrika	-8.82797
j	-8.82828
▁üyesi	-8.82953
▁İyi	-8.83045
um	-8.83137
▁pek	-8.83175
▁Sovyet	-8.83219
▁çoğu	-8.83256
▁(19	-8.8385
▁sonraki	-8.83866
▁L	-8.83889
▁orta	-8.84352
▁Azerbaycan	-8.84539
▁doğdu	-8.84992
▁içerisinde	-8.84995
▁mücadele	-8.84998
▁televizyon	-8.85152
▁dizi	-8.85213
luk	-8.85218
köy	-8.85219
▁kullanılır	-8.85438
▁ayında	-8.85568
ını	-8.8559
R	-8.85961
▁yerel	-8.86025
▁uluslararası	-8.86142
▁2020	-8.8623
ga	-8.86271
L	-8.86418
▁grubu	-8.86432
▁biridir	-8.86444
▁tür	-8.86454
lan	-8.866
N	-8.86626
▁Devlet	-8.8663
ak	-8.86641
U	-8.867
▁d	-8.86751
▁sistemi	-8.87257
▁çalıştı	-8.87289
▁3.	-8.87298
"),	-8.87323
▁31	-8.87557
▁yıllarda	-8.87833
▁ettiği	-8.87906
▁29	-8.88223
▁bilgi	-8.88268
▁and	-8.88333
▁2000	-8.88344
▁ona	-8.88442
▁deniz	-8.88449
lığı	-8.88451
▁Paris	-8.885
▁hizmet	-8.88803
▁burada	-8.8891
▁Kaliforniya	-8.88996
▁ek	-8.88997
▁yaşayan	-8.89029
▁San	-8.89216
teki	-8.89321
▁girdi	-8.89522
▁teknik	-8.89611
▁vardı	-8.89736
mıştır	-8.89757
▁çocuk	-8.89795
▁yarı	-8.90138
kten	-8.90227
▁metre	-8.90239
ke	-8.90247
▁yılından	-8.9029
▁forma	-8.90345
▁2005	-8.90347
han	-8.90809
st	-8.90831
sini	-8.90875
miştir	-8.91214
▁ünlü	-8.91295
▁Sultan	-8.91316
▁genç	-8.91319
▁öldü	-8.91424
▁düzenlenen	-8.91517
ko	-8.91528
▁sayıda	-8.91546
▁İran	-8.9211
▁hareket	-8.92143
▁yıllık	-8.92299
▁formula	-8.92334
nün	-8.92434
▁erkek	-8.92436
▁yanında	-8.9289
▁başarılı	-8.93107
▁Fakat	-8.93137
▁maçta	-8.93277
▁Ar	-8.93513
▁ön	-8.93815
▁değil	-8.93821
▁herhangi	-8.93923
▁Oy	-8.93959
▁sahibi	-8.94092
ha	-8.94199
▁Köy	-8.9434
▁siyasi	-8.94399
▁Son	-8.94591
▁günü	-8.94603
▁Fakültesi	-8.94858
▁tespit	-8.95121
▁Diğer	-8.95164
miş	-8.9519
▁olabilir	-8.95277
do	-8.95383
▁Bakanlığı	-8.95469
ist	-8.95506
▁söz	-8.95588
ran	-8.95689
▁başlayan	-8.95747
▁haline	-8.95885
▁Me	-8.9592
▁e	-8.96062
▁Le	-8.96141
be	-8.96387
ed	-8.96438
▁yayın	-8.96448
▁ülke	-8.96531
▁gerçek	-8.96567
▁yaygın	-8.96675
▁ayrı	-8.96866
taki	-8.97053
▁başkanı	-8.97087
▁oldukça	-8.97188
▁Futbol	-8.97244
▁anlamına	-8.97565
▁Mısır	-8.97598
ro	-8.97682
▁ismi	-8.97729
as	-8.98001
sını	-8.98275
-19	-8.98644
▁başına	-8.98747
▁ilan	-8.99013
▁100	-8.99074
men	-8.9923
▁yazar	-8.99318
▁yılına	-8.99318
▁2004	-8.99792
▁benzer	-8.99821
ck	-8.99917
▁konusunda	-9.00192
arak	-9.00204
▁sayımına	-9.00323
▁başlamıştır	-9.00324
▁ortak	-9.00468
▁iddia	-9.00562
▁iline	-9.00568
▁Ak	-9.01128
▁izin	-9.01364
▁X	-9.01469
▁güçlü	-9.01591
▁J	-9.0163
▁Nehri	-9.01854
▁para	-9.02116
▁hiçbir	-9.02152
tur	-9.02161
dür	-9.02173
▁İkinci	-9.02337
▁Er	-9.02352
▁geçti	-9.02483
▁yüzyılda	-9.02597
▁an	-9.02681
▁İspanya	-9.02716
▁değildir	-9.02721
▁güç	-9.02802
▁yardım	-9.02915
▁mezun	-9.02926
der	-9.0341
▁sonucunda	-9.03441
▁parçası	-9.03498
▁baş	-9.0354
tu	-9.03607
▁ilçe	-9.037
çi	-9.03904
▁amacıyla	-9.03957
nü	-9.04049
▁halk	-9.04251
▁sosyal	-9.0429
go	-9.04713
▁şeklinde	-9.04872
▁başında	-9.04885
▁bilim	-9.04965
▁sık	-9.05016
▁ses	-9.05024
▁Re	-9.05117
▁cm	-9.05219
▁şehrin	-9.0532
▁2018	-9.05536
ması	-9.05652
sine	-9.05657
mak	-9.05698
▁veren	-9.05781
▁yana	-9.05941
▁[[	-9.06125
▁bunun	-9.06329
kan	-9.06535
ö	-9.06894
▁bile	-9.06977
▁kontrol	-9.07181
▁oyun	-9.07362
za	-9.0737
ek	-9.07467
▁alanı	-9.07649
▁Japonya	-9.07685
▁albüm	-9.07844
▁ülkenin	-9.07855
▁video	-9.07912
▁İzmir	-9.0826
▁iken	-9.08374
▁önceki	-9.08518
▁adet	-9.08628
▁yayınlanan	-9.08707
▁uygun	-9.0876
▁Ay	-9.08887
▁bulundu	-9.08911
▁etmektedir	-9.09146
▁meydana	-9.09713
▁Mehmet	-9.0975
▁seçildi	-9.09752
ch	-9.09791
▁yapı	-9.09823
▁İslam	-9.09853
▁kız	-9.09867
▁MÖ	-9.10042
siz	-9.10102
gen	-9.10617
▁Millî	-9.10668
▁yerleşim	-9.10722
▁2017	-9.10765
▁yönetim	-9.10798
▁İ	-9.11112
▁Halk	-9.11187
▁Asya	-9.11367
▁durum	-9.11478
▁İngilizce	-9.11486
▁Ne	-9.1152
film	-9.11617
ol	-9.11679
▁Japon	-9.11711
lo	-9.11735
▁saat	-9.11805
▁Yaz	-9.1185
▁sonrasında	-9.11944
ver	-9.12412
▁İsrail	-9.12486
▁nedenle	-9.12729
▁aday	-9.1273
▁tip	-9.12739
▁sanat	-9.12759
▁ederek	-9.12779
▁Na	-9.12785
▁profesyonel	-9.12793
leme	-9.12821
sen	-9.13017
▁tamamen	-9.13045
▁sayı	-9.13059
▁içeren	-9.13226
▁çıkar	-9.13287
▁Eski	-9.13301
▁Bazı	-9.13425
co	-9.13711
vi	-9.13749
▁sona	-9.13759
mo	-9.14391
▁Mustafa	-9.14422
▁Yahudi	-9.14452
▁çalışan	-9.14501
▁Londra	-9.1479
▁edilmiş	-9.14895
▁s	-9.15015
ley	-9.15017
▁kısmı	-9.15107
▁Eurovision	-9.15157
▁Başkanı	-9.15172
▁kardeşi	-9.1533
or	-9.15532
▁ulusal	-9.15707
W	-9.15748
sız	-9.15808
▁hafta	-9.15834
▁düşük	-9.15981
bi	-9.15986
len	-9.15999
▁Müzik	-9.16006
▁piyasaya	-9.16061
▁sinema	-9.1611
▁Yunan	-9.16197
▁Bizans	-9.16378
▁bağımsız	-9.16722
inde	-9.16777
▁Krallık	-9.16779
▁bölge	-9.16826
▁üzerinden	-9.16847
▁kurulmuştur	-9.16941
▁Grup	-9.16988
▁İki	-9.17139
ry	-9.1715
▁yönünde	-9.17176
▁bilinir	-9.17216
cu	-9.17222
▁2002	-9.17465
▁Ödülleri	-9.17531
▁yalnızca	-9.17735
▁Merkezi	-9.17918
▁ağır	-9.17978
mektedir	-9.18013
▁oluşur	-9.18167
w	-9.184
▁döndü	-9.18434
▁bölgesinde	-9.18477
▁Yarışması	-9.18519
]]	-9.1861
▁yok	-9.1869
▁yayınlandı	-9.18697
▁Ca	-9.1908
▁alarak	-9.19137
inin	-9.19167
▁verdiği	-9.19368
▁destek	-9.1939
▁konu	-9.19437
gi	-9.19598
▁W	-9.19633
İ	-9.19654
▁İtalyan	-9.19869
▁babası	-9.20086
▁birinci	-9.20179
▁göç	-9.20205
▁Suriye	-9.20218
▁belediye	-9.20231
▁yardımcı	-9.20252
▁kara	-9.20402
▁dış	-9.20435
▁verildi	-9.20436
▁bölüm	-9.20473
▁şarkıcı	-9.20524
leriyle	-9.20613
▁kariyerine	-9.20803
▁at	-9.2086
▁serbest	-9.20882
▁defa	-9.20986
ip	-9.21714
▁olmuş	-9.21824
▁sonrası	-9.21915
▁Yüksek	-9.21972
▁/	-9.21973
▁anda	-9.22036
erek	-9.22157
▁başlar	-9.22236
▁maç	-9.22248
▁Ve	-9.2229
ner	-9.22323
▁50	-9.22384
▁tiyatro	-9.22412
▁ekonomik	-9.22706
▁maçında	-9.22742
▁boş	-9.22787
▁olmasına	-9.22834
iş	-9.22847
▁kuruldu	-9.22855
▁kendisine	-9.22896
▁2019	-9.22949
th	-9.23133
ul	-9.23157
▁doğal	-9.23235
▁Sovyetler	-9.23266
▁2003	-9.23291
▁yapıldı	-9.23347
lerdir	-9.23757
▁şarkısı	-9.23806
id	-9.23949
▁TV	-9.24031
é	-9.24101
▁bölümü	-9.24158
▁kızı	-9.24239
▁enerji	-9.24245
▁eyaletinde	-9.24275
▁Deniz	-9.24346
▁Arap	-9.24456
▁ara	-9.24614
▁hale	-9.24699
zi	-9.24956
▁sahne	-9.25063
▁tipi	-9.2508
▁yüzyılın	-9.25261
Y	-9.253
▁seçimleri	-9.2556
▁spor	-9.2585
▁to	-9.25932
▁So	-9.25991
çe	-9.26151
▁Hayatı	-9.26177
▁olsa	-9.26242
▁Şehir	-9.26444
▁Merkez	-9.2648
▁beyaz	-9.26504
▁Nüfus	-9.26511
▁Avusturya	-9.26578
▁Ordu	-9.26626
▁An	-9.26672
▁sağ	-9.26699
▁Altın	-9.26794
▁Örneğin	-9.26849
▁Toplam	-9.2685
▁çalışma	-9.26866
▁yani	-9.27266
▁dil	-9.27295
lardır	-9.27439
izm	-9.27448
ça	-9.27637
▁Mo	-9.28135
van	-9.28159
kar	-9.28162
▁din	-9.28364
▁altın	-9.28375
Bu	-9.28609
▁Be	-9.28623
▁yapılmıştır	-9.28651
▁modern	-9.28843
▁hızlı	-9.28875
▁Olimpiyatları	-9.28904
30	-9.28921
▁Fenerbahçe	-9.29002
▁verir	-9.29037
▁dünyanın	-9.29153
mek	-9.29177
iye	-9.29211
▁türü	-9.29395
▁başkenti	-9.29447
▁kötü	-9.29511
▁Ana	-9.29615
pa	-9.29662
▁Buna	-9.29756
▁arası	-9.29802
▁Kıbrıs	-9.29839
▁içerir	-9.29882
▁tarihli	-9.2991
tür	-9.29988
▁yüzyıl	-9.3003
▁çalışmaları	-9.30189
larıyla	-9.30202
▁satın	-9.30214
▁Devleti	-9.30308
▁yapmış	-9.3032
▁şey	-9.30397
ger	-9.30401
▁Süper	-9.30402
▁Z	-9.30567
▁St	-9.30779
▁Kore	-9.31006
maktadır	-9.31236
▁Savaş	-9.31335
▁Avustralya	-9.31511
▁final	-9.31725
▁yönelik	-9.31903
▁yaşam	-9.31926
▁Man	-9.3193
▁zorunda	-9.3202
▁2001	-9.3214
▁ileri	-9.32268
▁kitap	-9.32326
mer	-9.32372
▁Galatasaray	-9.32377
bu	-9.32387
▁Bölgesi	-9.32443
▁maçı	-9.3245
gan	-9.32564
▁yoğun	-9.32565
="6	-9.32694
▁tarih	-9.32701
anlam	-9.32708
▁göz	-9.32908
▁Yunanistan	-9.33064
liğe	-9.3311
▁Dr	-9.33128
▁şehri	-9.33131
▁çift	-9.33324
▁bunu	-9.33376
▁alanında	-9.33491
ze	-9.33498
sinde	-9.33639
land	-9.33641
▁galaksidir	-9.33695
▁FC	-9.33709
▁günümüzde	-9.33783
▁Türkçe	-9.33816
ay	-9.33835
ber	-9.34176
▁söyledi	-9.34178
▁III	-9.34256
▁Kuvvetleri	-9.34448
▁Polonya	-9.34514
▁parti	-9.34662
▁karşısında	-9.34664
▁araştırma	-9.34879
▁yılının	-9.3488
▁yazdığı	-9.34881
▁Kanada	-9.34895
20	-9.34932
ly	-9.34997
çı	-9.35105
▁şehirdir	-9.35302
ğ	-9.35369
sına	-9.35446
▁sayesinde	-9.35512
▁merkez	-9.3555
▁Hava	-9.35571
▁adına	-9.35609
lük	-9.35632
▁yoktur	-9.35708
▁Kurulu	-9.35824
10	-9.35846
▁kurdu	-9.35911
▁UEFA	-9.36001
ji	-9.36071
▁Can	-9.36111
▁yazarı	-9.36147
▁kazanan	-9.36153
dığı	-9.36227
▁yazdı	-9.36367
▁kat	-9.36386
▁stüdyo	-9.36392
▁Eğitim	-9.36476
ja	-9.36531
▁Tarihi	-9.36538
tar	-9.36649
▁No	-9.36702
▁Ahmet	-9.36704
▁edilmektedir	-9.36742
▁popüler	-9.36747
▁dünyaya	-9.3695
▁single	-9.37072
diği	-9.37077
▁artık	-9.3708
▁dair	-9.37115
▁kendini	-9.37261
▁Co	-9.3732
sinin	-9.37367
▁Sa	-9.37552
mesi	-9.37614
▁Hollanda	-9.37758
▁diye	-9.37856
▁Ko	-9.38044
▁Enstitüsü	-9.38221
▁üzerindeki	-9.38258
▁William	-9.38284
▁sürekli	-9.38296
▁derece	-9.38328
▁Lisesi	-9.38546
▁ayrımı	-9.38615
ev	-9.38616
▁Bununla	-9.38659
▁aşağıdaki	-9.39047
▁Festivali	-9.39122
▁yedi	-9.39156
▁Burada	-9.39173
▁Bar	-9.39238
tik	-9.39271
▁40	-9.39275
▁bölgesi	-9.39368
▁hiç	-9.3961
▁Hindistan	-9.39737
▁batı	-9.39738
ında	-9.3975
▁Muhammed	-9.3985
▁belirli	-9.39858
▁Ha	-9.3988
sının	-9.40215
▁kuzey	-9.40261
▁öne	-9.40521
▁kendisi	-9.40528
▁Öz	-9.40636
▁çünkü	-9.4067
▁geleneksel	-9.40698
ad	-9.4075
▁%	-9.40829
ova	-9.40835
▁kişinin	-9.40839
▁idari	-9.40895
▁Köyün	-9.40944
▁aile	-9.40963
▁kazanmıştır	-9.40991
▁zor	-9.41003
▁al	-9.41023
▁takip	-9.41033
▁Windows	-9.41358
▁In	-9.4142
▁futbolcu	-9.41658
▁İl	-9.41832
▁lig	-9.41879
X	-9.41892
▁etme	-9.4192
▁tarihleri	-9.41943
▁sanatçı	-9.4196
▁arkadaşı	-9.41979
="3	-9.42065
▁bölgede	-9.42079
ut	-9.42088
▁Okulu	-9.42103
▁ilgi	-9.42108
▁giriş	-9.42228
▁1999	-9.42238
▁altına	-9.42354
▁dönemi	-9.42461
▁attı	-9.42554
▁Böylece	-9.42555
▁seçim	-9.42594
▁Van	-9.42626
ot	-9.42658
▁Ma	-9.42681
▁puan	-9.42715
J	-9.42813
▁halinde	-9.42874
▁kurulmuş	-9.43059
▁kan	-9.43111
▁Kariyeri	-9.43196
="9	-9.43229
bo	-9.43243
▁madalya	-9.43331
▁taşıyan	-9.43577
▁Başkanlığı	-9.43645
▁Ama	-9.43683
La	-9.43684
▁Cumhuriyet	-9.43705
▁Profesyonel	-9.43732
fa	-9.43844
▁ordusu	-9.43922
▁To	-9.44079
▁Pro	-9.4409
▁görevi	-9.441
▁la	-9.44125
▁Şehrin	-9.44144
▁yıldız	-9.44156
▁sınır	-9.44198
▁oynanan	-9.44206
▁ışık	-9.44219
19	-9.44329
▁4.	-9.44343
bir	-9.44403
▁değer	-9.44406
▁gelmiştir	-9.44414
▁ilçesi	-9.44475
▁yabancı	-9.44551
▁19.	-9.44644
fi	-9.44864
ül	-9.44875
▁Sonuçlar	-9.44903
▁takımyıldızı	-9.45048
="19	-9.45126
▁çıkmıştır	-9.45174
▁kişilik	-9.45185
▁gösteren	-9.45232
▁Özel	-9.45258
▁Mar	-9.45266
▁İsveç	-9.45386
▁Grubu	-9.45474
▁oyunu	-9.45501
▁Spor	-9.45614
▁Lo	-9.45687
▁Ordusu	-9.45883
▁eşi	-9.45896
▁James	-9.45957
▁Y	-9.46108
▁oy	-9.46119
▁Belediye	-9.46171
▁güney	-9.46206
▁Krallığı	-9.46414
▁Ben	-9.46429
▁ili	-9.46658
▁David	-9.46728
▁Gürcistan	-9.46801
▁konusu	-9.46809
▁etmiş	-9.46817
▁mahalle	-9.4704
▁etkisi	-9.47142
▁İç	-9.47245
▁Do	-9.47253
▁Ermeni	-9.47339
▁Berlin	-9.4736
▁sene	-9.47367
▁canlı	-9.47374
▁Beyaz	-9.47393
▁mevcut	-9.47472
Z	-9.47524
ah	-9.47559
▁ölçüde	-9.47575
ker	-9.47634
▁Müslüman	-9.47644
▁yaş	-9.47664
▁metal	-9.47676
▁1998	-9.47682
▁resmî	-9.47689
▁ilçesinde	-9.47726
▁açıkladı	-9.47799
can	-9.47829
▁grubun	-9.47914
▁Kemal	-9.47955
]	-9.47959
Ö	-9.47962
▁dizisi	-9.48041
▁kullanarak	-9.48101
▁yasa	-9.48203
▁Birinci	-9.48244
▁On	-9.48307
▁gece	-9.48355
▁isim	-9.48454
▁model	-9.48495
▁Muharebesi	-9.48496
ey	-9.48589
▁Tek	-9.48735
▁adında	-9.48875
▁tercih	-9.48914
▁eğitimi	-9.49026
▁Küçük	-9.49046
ına	-9.49134
▁Kral	-9.49272
▁sol	-9.49455
▁olma	-9.49494
▁doğu	-9.49511
▁üye	-9.49537
▁yapmaktadır	-9.4959
▁şirketi	-9.49821
tepe	-9.50006
▁sistem	-9.50055
▁süren	-9.50122
▁asker	-9.50165
▁doğrudan	-9.50318
▁milletvekili	-9.50331
▁etmeye	-9.50418
▁görülür	-9.50491
▁sözleşme	-9.50583
▁Bakanı	-9.50719
▁Se	-9.50723
▁di	-9.50723
let	-9.50832
▁re	-9.50915
sk	-9.50946
▁işgal	-9.50991
▁Meclisi	-9.51037
▁yeri	-9.51116
▁gösterir	-9.51145
▁dikkat	-9.51168
▁(),	-9.51177
ster	-9.51255
▁kent	-9.51275
▁bilgisayar	-9.51304
▁kendisini	-9.51425
lin	-9.51532
▁gelmektedir	-9.51579
▁fark	-9.51826
▁üretim	-9.51829
▁plan	-9.5198
▁yüz	-9.52
▁Kültür	-9.521
▁dili	-9.52239
▁inç	-9.52259
▁çevre	-9.52299
▁yapmak	-9.5243
▁Vi	-9.52499
▁yan	-9.52508
▁kültür	-9.52547
iz	-9.52611
▁açısından	-9.5263
▁dördüncü	-9.52643
▁sınırları	-9.52662
▁siyasetçi	-9.52855
▁Te	-9.52899
▁Di	-9.52912
▁FIFA	-9.52923
▁veri	-9.52929
▁verilmiştir	-9.52935
▁Irak	-9.52991
▁sırasıyla	-9.53004
▁Akdeniz	-9.53241
▁erken	-9.53444
▁yerini	-9.53489
▁ortalama	-9.53493
▁çocuğu	-9.5363
▁nasıl	-9.53656
▁hak	-9.53691
▁Kadın	-9.5373
tü	-9.53781
▁yılındaki	-9.53835
am	-9.53877
▁kullanılmıştır	-9.54106
▁(18	-9.54139
▁ticaret	-9.54156
▁normal	-9.54206
ör	-9.54211
▁örnek	-9.54225
▁radyo	-9.54331
▁bölümünde	-9.54431
▁1992	-9.54526
ru	-9.54642
ic	-9.54752
▁kitabı	-9.54811
▁çaplı	-9.54894
▁Tarih	-9.54962
▁Da	-9.54967
▁Yaşamı	-9.5508
▁Moskova	-9.55089
▁Michael	-9.55183
▁Bo	-9.5519
yen	-9.55253
unu	-9.55271
ım	-9.55292
▁hayatı	-9.55339
▁kesin	-9.55364
kullanılmaktadır	-9.55367
▁bulunmuştur	-9.55462
▁şehrinde	-9.55477
=6	-9.55481
▁alındı	-9.55519
sh	-9.55748
▁keşfedilmiştir	-9.55772
▁Go	-9.55782
▁Beşiktaş	-9.55839
▁1994	-9.5591
yum	-9.55918
▁Kulüp	-9.55938
▁Güneş	-9.56012
▁saha	-9.56026
▁1995	-9.56038
▁etkili	-9.56097
▁yazı	-9.56186
▁1996	-9.56304
▁dini	-9.56308
▁etki	-9.56369
▁parça	-9.56464
▁He	-9.5658
▁çizgi	-9.56616
▁aktif	-9.56669
▁Du	-9.56747
▁Sanat	-9.56773
▁taş	-9.5678
leşmiş	-9.56855
▁üyeleri	-9.5691
lığa	-9.56928
▁sağlar	-9.56955
▁kırmızı	-9.5698
▁Ka	-9.56981
▁Günümüzde	-9.57012
–	-9.57115
▁Derneği	-9.57128
▁ziyaret	-9.57222
▁2012'	-9.57406
▁Müzesi	-9.57436
▁uzak	-9.5746
▁Si	-9.57515
▁tahmin	-9.57553
▁böylece	-9.57571
▁=	-9.57572
▁durumu	-9.57612
▁öncesi	-9.57622
▁hayatını	-9.57655
▁gitti	-9.5771
▁ödül	-9.57713
▁görevini	-9.57776
▁yolu	-9.5779
▁Kadınlar	-9.57877
▁yüzden	-9.58062
▁Kar	-9.58121
▁arka	-9.58121
dere	-9.58182
40	-9.58261
▁i	-9.58314
▁vermiştir	-9.58318
NGC	-9.5835
▁Akademisi	-9.58384
▁tane	-9.58701
▁Bursa	-9.5871
▁zengin	-9.58711
hi	-9.58794
▁tamamladı	-9.58814
▁2020'	-9.58846
▁elektrik	-9.58874
▁yaşadığı	-9.59126
▁bilimsel	-9.59237
▁1991	-9.5933
▁annesi	-9.5936
▁ince	-9.59425
▁terk	-9.59428
▁giren	-9.59522
nce	-9.59524
▁sağlayan	-9.59547
▁dışı	-9.59634
15	-9.59756
En	-9.59816
▁eş	-9.59822
▁der	-9.59834
▁yönetimi	-9.5988
▁kökenli	-9.59988
▁mevcuttur	-9.60028
▁takımında	-9.60142
▁kaynağı	-9.60219
▁yapılmış	-9.6023
mon	-9.6029
▁olmadığı	-9.60292
▁üretilen	-9.60295
▁gerçekleştiril	-9.60308
▁1990	-9.60416
00	-9.60474
▁As	-9.60626
sında	-9.60656
▁geçirdi	-9.6066
▁f	-9.60822
▁hala	-9.60866
mar	-9.60903
▁Kızıl	-9.60925
▁1993	-9.60941
▁kararı	-9.60962
▁adamı	-9.60967
▁Robert	-9.6107
▁2011'	-9.61096
▁Britanya	-9.61145
▁et	-9.61163
▁Po	-9.61188
▁Kilisesi	-9.61244
▁Tanrı	-9.61303
▁Or	-9.61307
▁k	-9.61326
▁filmin	-9.61351
▁Paul	-9.61412
▁bazen	-9.61589
Sa	-9.616
▁Bunlar	-9.61608
▁Ni	-9.61622
▁astronom	-9.61649
▁denir	-9.61658
▁alınan	-9.61886
▁oyuncusu	-9.61911
▁Ro	-9.61973
▁1997	-9.62037
▁başta	-9.622
▁gördü	-9.62213
▁başarı	-9.62312
▁oynadığı	-9.62462
▁katı	-9.62485
▁başlarında	-9.6261
▁silah	-9.62639
ion	-9.6277
▁kaynak	-9.62799
▁p	-9.62835
▁City	-9.6289
lanan	-9.629
san	-9.62923
▁Baş	-9.62997
▁5.	-9.63093
so	-9.6314
▁Hasan	-9.63202
▁George	-9.63235
lardı	-9.63244
▁2017'	-9.63306
21	-9.63459
▁top	-9.63499
▁Tüm	-9.63608
▁kuzeyinde	-9.63679
▁siyah	-9.63725
2'	-9.63762
▁içindeki	-9.63835
▁dakika	-9.63844
je	-9.63852
▁Teknik	-9.63913
pe	-9.63961
▁uzay	-9.63966
▁amacı	-9.64118
▁2016'	-9.64132
▁neredeyse	-9.64134
▁müziği	-9.64261
▁orijinal	-9.64341
▁ölmüştür	-9.64718
▁Bi	-9.64741
▁Aday	-9.64781
▁hükûmet	-9.64901
▁Özellikle	-9.6492
▁Ta	-9.64928
abilir	-9.65072
▁İsviçre	-9.65176
▁şirket	-9.65247
▁2009'	-9.65253
▁Brezilya	-9.65312
dy	-9.65523
▁2018'	-9.65529
▁çapında	-9.65555
▁finalde	-9.65634
▁sivil	-9.65768
▁bilinmektedir	-9.6586
▁Pa	-9.66014
▁göstermektedir	-9.66067
ers	-9.66141
▁ayrıldı	-9.66148
▁yayımlanan	-9.6624
▁edilmesi	-9.66252
▁atandı	-9.66324
▁özellikleri	-9.66353
▁toprak	-9.66358
▁araya	-9.66364
▁Hristiyan	-9.6641
▁buna	-9.66421
▁hatta	-9.66464
ğı	-9.66511
▁almak	-9.66518
▁kulübünde	-9.66544
▁gücü	-9.66587
▁sebep	-9.66622
▁çoğunlukla	-9.66655
dar	-9.66665
▁dalga	-9.66673
▁Efendi	-9.66706
▁Ba	-9.66731
▁onları	-9.66833
▁Portekiz	-9.66835
▁takımın	-9.66847
▁yükseldi	-9.66866
▁2019'	-9.66874
ının	-9.66881
▁Ukrayna	-9.66893
▁2014'	-9.66972
▁yayınladı	-9.66988
▁açtı	-9.67016
▁Albüm	-9.67066
▁söyler	-9.67102
▁tur	-9.67103
▁sekiz	-9.67105
▁belli	-9.67116
gu	-9.67276
▁Li	-9.67499
▁İlçenin	-9.67514
▁Stadyumu	-9.67526
ron	-9.6755
▁Park	-9.67559
▁2008'	-9.67739
var	-9.68052
▁almış	-9.68247
▁mi	-9.6841
▁karakter	-9.6847
Ar	-9.6848
▁Los	-9.68541
▁2015'	-9.68634
ecek	-9.68698
▁savunma	-9.68722
Geçersiz	-9.68908
Ş	-9.68923
▁ulaştı	-9.68995
ren	-9.69058
17	-9.69075
16	-9.69102
▁ülkede	-9.692
▁insanların	-9.69236
▁faaliyet	-9.69291
▁çalışmalar	-9.69338
▁ailesi	-9.69409
▁sebebiyle	-9.69426
▁durumda	-9.69515
ku	-9.69542
▁tarım	-9.69641
▁yaz	-9.69658
▁bitki	-9.69709
▁Camii	-9.69924
▁Havalimanı	-9.69952
▁Şah	-9.70067
▁60	-9.70091
▁ila	-9.70214
▁biçimde	-9.70331
▁2007'	-9.70348
shi	-9.70482
▁Dönem	-9.70494
▁ticari	-9.70602
25	-9.70628
Ha	-9.70708
min	-9.70725
ll	-9.70745
▁madde	-9.70793
ty	-9.70793
chi	-9.70867
▁yoluyla	-9.70903
▁teslim	-9.70912
▁takımının	-9.70975
▁Fa	-9.71146
▁bitirdi	-9.71161
▁klasik	-9.71216
▁Müdürlüğü	-9.71268
ser	-9.71277
▁Konseyi	-9.71358
▁giydi	-9.71416
18	-9.71473
▁kar	-9.71535
başı	-9.71645
▁Dış	-9.72028
▁ateş	-9.72072
▁Çok	-9.72159
▁Basketbol	-9.72207
ret	-9.72253
▁sert	-9.72311
▁öğretim	-9.72397
▁kullanımı	-9.72418
▁Kur	-9.72504
▁2013'	-9.72571
▁b	-9.72576
▁günlük	-9.7268
▁oluştuğu	-9.72735
▁yapısı	-9.72811
14	-9.72938
les	-9.72986
▁yavaş	-9.73028
▁listesinde	-9.7304
ham	-9.73125
▁İbrahim	-9.73183
▁Oyuncu	-9.73244
▁dönemin	-9.7332
▁General	-9.73377
▁doğumlu	-9.73389
▁Charles	-9.73401
ez	-9.735
em	-9.73508
▁karşılık	-9.73535
acak	-9.73609
▁teleskopla	-9.73613
▁kendine	-9.73676
▁nüfusunun	-9.73738
ok	-9.73777
▁yapmaya	-9.73789
▁mm	-9.73864
▁roman	-9.73876
▁geçiş	-9.73892
▁köyü	-9.739
▁oluşmaktadır	-9.73912
▁tedavi	-9.74117
▁öğrenci	-9.74133
▁Hukuk	-9.74217
▁sabit	-9.74225
layan	-9.7425
▁insanlar	-9.743
▁oluşturan	-9.74312
▁evlendi	-9.74332
▁Atatürk	-9.74339
▁olmadığını	-9.74351
▁Karadeniz	-9.74352
!	-9.74355
kları	-9.74377
cık	-9.74431
▁Per	-9.74439
▁lisans	-9.74452
▁Ra	-9.74454
▁1990'	-9.74475
▁Gölü	-9.74487
▁ordu	-9.74507
▁kaybetti	-9.74524
▁gerekli	-9.7453
lanmış	-9.74539
▁Pe	-9.74543
▁geçer	-9.74563
▁kentinde	-9.74577
▁ölüm	-9.74598
▁geçmektedir	-9.74684
▁sağladı	-9.74702
70	-9.74773
50	-9.74777
11	-9.74784
▁2010'	-9.74888
▁alma	-9.74937
▁kralı	-9.74957
▁Bal	-9.75009
▁olacak	-9.75048
▁sağlık	-9.75079
▁okul	-9.75122
="11	-9.75188
▁kalmıştır	-9.75207
▁Takımı	-9.75278
uz	-9.75305
▁sağlamak	-9.75334
▁Peter	-9.75358
▁çalışmaya	-9.75461
▁yayımlandı	-9.75511
▁güneyinde	-9.75521
▁Car	-9.75544
▁Lu	-9.75593
▁hakkı	-9.75635
▁Aydın	-9.75635
▁Katalog	-9.75727
▁sahipliği	-9.75747
▁pozisyonunda	-9.75807
▁zarar	-9.75818
▁araç	-9.75913
▁hayvan	-9.75932
▁Federasyonu	-9.76027
▁gaz	-9.76054
tra	-9.76109
▁Grand	-9.76128
▁Osman	-9.76153
eli	-9.76212
▁Gökyüzünde	-9.76217
▁Şu	-9.76229
ie	-9.7632
up	-9.76384
▁Üç	-9.76409
▁Mu	-9.76457
liğini	-9.76493
▁32	-9.76522
=3	-9.76554
▁yapılır	-9.76587
tor	-9.76616
▁özelliği	-9.76643
▁Yine	-9.76677
▁Sosyal	-9.76723
▁adam	-9.76753
▁1989	-9.76811
com	-9.76815
▁Uzun	-9.76854
90	-9.76895
▁Adası	-9.769
met	-9.77002
fe	-9.77036
▁yıllar	-9.77061
fer	-9.77071
yken	-9.77079
▁oluşturur	-9.77083
27	-9.77124
▁programı	-9.77134
▁Oyunları	-9.77138
▁yapar	-9.77218
▁üretimi	-9.77253
Al	-9.77259
▁sayılı	-9.7737
ıp	-9.77393
▁Erkekler	-9.7743
▁c	-9.77481
▁sarı	-9.7755
ian	-9.77572
▁Bölümü	-9.77645
▁performans	-9.77681
q	-9.7772
rak	-9.77771
▁aracılığıyla	-9.77844
▁sınıf	-9.77873
▁İrlanda	-9.78013
▁yerde	-9.78021
▁İspanyol	-9.78184
po	-9.78218
lanma	-9.78223
▁emekli	-9.78248
▁alanda	-9.7826
▁arada	-9.78423
▁yük	-9.78434
▁Trabzon	-9.78514
▁gelebilir	-9.78682
▁standart	-9.78703
▁World	-9.7873
▁do	-9.78731
▁getirildi	-9.78735
▁olay	-9.78786
gar	-9.78854
▁6.	-9.78979
▁polis	-9.79009
▁mümkün	-9.79022
▁ilişki	-9.79051
▁35	-9.79061
▁değişik	-9.79086
▁20.	-9.79092
▁TBMM	-9.79099
▁ilinde	-9.79182
▁hafif	-9.79195
▁önünde	-9.79307
▁2021	-9.79349
▁lideri	-9.79391
vo	-9.79445
23	-9.79473
▁Süleyman	-9.79474
▁resim	-9.795
▁suç	-9.79573
▁kalma	-9.79755
▁güvenlik	-9.79769
▁Arjantin	-9.79794
ng	-9.79801
▁saldırı	-9.79824
▁motor	-9.79837
▁bölgesine	-9.7986
▁hedef	-9.79908
Se	-9.79945
tal	-9.79949
▁haber	-9.79981
▁doğum	-9.8006
▁şöyle	-9.80091
bar	-9.80105
▁1980'	-9.8013
▁nedeni	-9.80136
▁Belediyesi	-9.8023
▁fiziksel	-9.80274
▁İnsan	-9.80392
▁renk	-9.80433
▁Babası	-9.80437
▁bazıları	-9.80448
▁for	-9.8055
▁işaret	-9.80579
▁çıkış	-9.80594
lak	-9.80646
12	-9.80694
▁0	-9.80764
▁Sam	-9.80819
▁olduğuna	-9.80846
▁filminde	-9.80872
▁Dağı	-9.80977
▁kurulu	-9.80982
▁Mi	-9.81
▁koruma	-9.81021
▁200	-9.81035
▁henüz	-9.81113
▁sefer	-9.81157
▁Bulgaristan	-9.8119
▁Meksika	-9.81214
á	-9.81232
▁:	-9.81326
pi	-9.81329
Ma	-9.81362
▁ölümünden	-9.81397
▁etmesi	-9.81397
▁halkı	-9.81403
=	-9.8148
▁Mac	-9.81502
▁baskı	-9.81508
▁yaparak	-9.81536
▁eser	-9.81562
▁yüzünden	-9.81645
yo	-9.81645
▁kültürel	-9.8165
▁uçak	-9.81686
▁Microsoft	-9.8176
36	-9.81763
▁Ev	-9.81765
ebilir	-9.81779
per	-9.81793
▁dolayısıyla	-9.81882
▁hukuk	-9.81889
▁Ga	-9.81932
▁Belçika	-9.81957
▁filmde	-9.82014
▁üniversite	-9.82052
▁Tur	-9.82072
ris	-9.82091
▁Angeles	-9.82117
Le	-9.82131
▁Adana	-9.82172
="10	-9.82262
▁Antalya	-9.82345
▁içine	-9.82361
bey	-9.8237
▁Final	-9.82392
ski	-9.82534
▁1980	-9.82535
▁güzel	-9.82571
▁belirtti	-9.82726
wa	-9.82773
▁seri	-9.82779
ho	-9.82804
▁Birçok	-9.82834
▁olduğundan	-9.82935
ant	-9.83005
▁[	-9.83055
▁Erzurum	-9.83166
off	-9.83179
▁imza	-9.83213
▁Milli	-9.83221
▁Jean	-9.83298
▁At	-9.83479
▁aşırı	-9.83532
="2"|	-9.83547
▁sürdü	-9.83549
22	-9.83624
▁eseri	-9.83649
▁bugün	-9.83679
▁adlandırılan	-9.83732
▁yönetmen	-9.83761
▁Ri	-9.83792
lenmiş	-9.838
▁maçına	-9.83804
▁geç	-9.8383
▁yandan	-9.83831
Kara	-9.83887
▁kilise	-9.83921
▁Ver	-9.8397
sin	-9.84015
▁von	-9.84041
▁1988	-9.84093
▁karşın	-9.8419
▁gemi	-9.84194
don	-9.84385
▁Hüseyin	-9.84397
▁şampiyon	-9.84402
▁görülen	-9.84414
29	-9.8442
91	-9.84423
ros	-9.84616
96	-9.84661
▁Sivas	-9.84707
▁Kralı	-9.84747
lat	-9.84771
▁basit	-9.84802
inden	-9.84853
▁My	-9.84981
24	-9.85007
▁orada	-9.85063
Me	-9.85074
▁kulüp	-9.85078
▁gizli	-9.85135
▁Denizi	-9.85176
▁merkezli	-9.85216
39	-9.85418
nca	-9.85465
▁milyar	-9.85485
▁içi	-9.85504
▁Gül	-9.85532
▁Ge	-9.85662
▁Ho	-9.85667
▁Nazi	-9.85667
▁gösterdi	-9.85695
▁güneş	-9.85706
▁hazır	-9.85734
▁şair	-9.85757
▁NBA	-9.85762
▁)	-9.85884
▁aslında	-9.85895
▁halka	-9.86135
▁1987	-9.86206
▁er	-9.86298
▁ak	-9.86417
▁kale	-9.86444
▁ikisi	-9.86524
▁gerek	-9.86539
▁verilir	-9.86546
▁1970'	-9.86556
▁asıl	-9.86567
▁Bay	-9.86802
▁noktası	-9.8694
60	-9.86955
▁Konya	-9.86963
▁ödülü	-9.8698
kin	-9.87123
95	-9.87123
▁Ardından	-9.87191
▁ciddi	-9.87322
▁yere	-9.87323
▁Dışişleri	-9.87329
▁Çağ	-9.87362
▁Har	-9.87367
▁rock	-9.8748
â	-9.87501
▁sonlarında	-9.87511
▁tahta	-9.8758
▁Cumhurbaşkanı	-9.87658
▁Hint	-9.8773
▁şiir	-9.87748
▁kapsamında	-9.87825
-18	-9.87827
▁Con	-9.87871
pınar	-9.87923
▁görüntü	-9.87951
▁Hitler	-9.88
▁konser	-9.88015
▁Adaylık	-9.88051
▁1984	-9.88061
▁barış	-9.88088
▁cinsel	-9.88099
▁şampiyonu	-9.8812
▁sonradan	-9.88127
▁ilişkin	-9.88222
▁1986	-9.88228
▁anlamlara	-9.88234
▁katılan	-9.88264
="8	-9.88346
▁kullanan	-9.88414
nik	-9.88496
lanır	-9.885
▁dile	-9.88539
▁kişisel	-9.88583
32	-9.88688
▁internet	-9.88696
Türkiye	-9.88766
▁ağ	-9.88803
▁Samsun	-9.88816
▁uygulama	-9.88842
▁dağ	-9.88882
▁zayıf	-9.88901
az	-9.88991
▁Komünist	-9.89065
liğin	-9.89082
▁kişidir	-9.89141
▁Sosyalist	-9.89165
="6"	-9.89191
▁hızla	-9.89221
▁Katolik	-9.89234
asyon	-9.89374
▁kişiler	-9.89379
▁Demir	-9.8942
▁Bölge	-9.8945
▁aksine	-9.89463
▁gereken	-9.89521
▁Milletler	-9.89578
▁Antlaşması	-9.8961
▁yaşındayken	-9.89718
▁Macaristan	-9.89822
▁ortadan	-9.89839
▁birisi	-9.89857
▁Mehmed	-9.89877
taş	-9.89891
▁Ahmed	-9.89965
▁doğan	-9.90019
▁Pan	-9.90044
Bir	-9.90051
?	-9.90058
▁antik	-9.90117
▁yılda	-9.90154
▁Eğer	-9.90264
▁kullanıldı	-9.90281
▁istifa	-9.90292
hane	-9.90553
%	-9.9058
▁Tom	-9.9061
he	-9.90626
35	-9.90668
▁başardı	-9.90712
▁ismini	-9.90724
▁seçilmiştir	-9.90734
▁Tiyatrosu	-9.90744
io	-9.90744
Ne	-9.90766
▁Ölümü	-9.90954
▁2006'	-9.90985
▁Yu	-9.91005
▁getirdi	-9.9105
▁Fransızca	-9.91114
▁anlaşma	-9.91154
▁geçmiştir	-9.91182
ür	-9.91214
▁biraz	-9.91343
▁ettiler	-9.91351
ville	-9.91356
unun	-9.91394
▁giderek	-9.91398
▁giden	-9.914
▁Hacı	-9.91401
▁League	-9.91429
▁Fe	-9.91547
bel	-9.91555
▁yerli	-9.91557
▁oynayan	-9.91568
▁oldukları	-9.9158
▁Eyaleti	-9.91639
▁kuvvetleri	-9.91647
yon	-9.91771
▁Ek	-9.91846
▁taşındı	-9.91849
▁İş	-9.91902
▁bunların	-9.91925
▁sanayi	-9.91931
▁kullanılabilir	-9.91954
zan	-9.92027
▁yapma	-9.92039
▁mal	-9.9207
▁Olimpiyat	-9.92072
▁iletişim	-9.92078
lis	-9.92098
▁Martin	-9.92104
▁yurt	-9.92125
55	-9.92238
ius	-9.92316
▁Chi	-9.92363
▁IV	-9.92401
▁kg	-9.92492
▁7.	-9.9252
▁sonuçları	-9.92545
▁Adaları	-9.92608
▁itibarı	-9.92639
▁esas	-9.92683
13	-9.92765
▁geldiği	-9.92769
▁1982	-9.92782
45	-9.92784
▁Gürcü	-9.92836
▁ısı	-9.92863
▁web	-9.92932
▁Norveç	-9.92963
net	-9.92979
kaya	-9.92996
▁Var	-9.93095
▁yılın	-9.93161
▁Antik	-9.93256
▁toplum	-9.93286
▁imzaladı	-9.93289
▁Kal	-9.933
▁babasının	-9.93307
▁Gi	-9.93345
▁‘	-9.93408
▁civarında	-9.93434
▁Başkan	-9.93442
▁eşit	-9.93468
▁vermektedir	-9.93503
ts	-9.9352
а	-9.93555
▁Kırım	-9.93604
34	-9.93608
▁ada	-9.93733
▁asıllı	-9.93819
▁kimyasal	-9.93821
▁toplamda	-9.93868
▁ilişkileri	-9.93887
▁yarış	-9.93903
berg	-9.93933
31	-9.93967
De	-9.93992
ık	-9.94014
▁Ermenistan	-9.9402
75	-9.94091
▁takımına	-9.94225
▁girmiştir	-9.94247
▁Ö	-9.94324
+	-9.94367
▁Jo	-9.94393
▁1985	-9.94469
48	-9.94506
▁1983	-9.94525
▁düzenli	-9.94636
▁Filmin	-9.94757
▁Ja	-9.94787
▁1960	-9.94947
▁başkan	-9.94955
▁dek	-9.94961
▁Ke	-9.94967
38	-9.94974
lay	-9.94993
▁yeşil	-9.94994
▁"(	-9.95039
▁çekti	-9.95057
▁hakları	-9.95117
Kategori	-9.95119
▁edilebilir	-9.95127
▁Genç	-9.95143
▁Dağları	-9.95148
las	-9.95237
▁onların	-9.95276
lılar	-9.95301
▁Meclis	-9.95301
97	-9.95304
ap	-9.95382
▁Dil	-9.95384
▁katıldığı	-9.95404
▁Henry	-9.95434
80	-9.95482
▁hücre	-9.95551
▁nokta	-9.95566
aj	-9.95587
▁yerleşimi	-9.95588
kleri	-9.95687
▁köyün	-9.95716
▁Kan	-9.95731
▁rolü	-9.95784
▁geçmiş	-9.95901
▁sonuç	-9.95997
▁Yönetim	-9.96026
▁birbirine	-9.96065
▁pazar	-9.96121
▁gümüş	-9.9624
iyle	-9.9629
lenen	-9.96337
▁Komitesi	-9.96397
▁Oyun	-9.96411
▁You	-9.9643
▁kuş	-9.96433
▁Thomas	-9.96476
▁gerekir	-9.96557
▁90	-9.96666
▁bölgeye	-9.9667
▁Love	-9.96676
▁Cor	-9.96715
▁Cha	-9.96747
Na	-9.96747
▁çekildi	-9.96747
ana	-9.9686
▁liste	-9.9687
▁test	-9.97016
▁engel	-9.97023
ara	-9.97111
▁kayıtlarında	-9.97168
giller	-9.97181
Re	-9.97187
una	-9.97205
-1	-9.97209
▁yemek	-9.97209
▁askerî	-9.97212
▁İsa	-9.97212
94	-9.97284
▁as	-9.97295
▁Adam	-9.9734
▁bıraktı	-9.97416
▁ilişkiler	-9.97522
▁genelde	-9.97692
▁yaşadı	-9.97727
▁zamanında	-9.97744
▁Danimarka	-9.97757
▁hükûmeti	-9.97767
▁Ku	-9.97815
▁finale	-9.97837
▁başlamış	-9.97906
▁dans	-9.97998
▁Venedik	-9.9806
▁sıcak	-9.98089
▁edebiyat	-9.98123
▁Gün	-9.98204
07	-9.98215
tis	-9.98215
iyet	-9.98221
86	-9.98257
▁tehdit	-9.98317
mann	-9.98354
▁darbe	-9.98393
▁işlem	-9.98443
▁sarmal	-9.98463
▁savaşı	-9.98468
▁Washington	-9.98512
▁dönüş	-9.98577
▁gerektiğini	-9.98617
idae	-9.98674
nes	-9.98751
▁Kısa	-9.98759
37	-9.98783
▁Ki	-9.98784
▁Sarı	-9.98791
▁amaçlı	-9.98807
▁türüdür	-9.98829
▁Gu	-9.98876
▁çalışır	-9.98894
▁45	-9.98902
▁önde	-9.98978
▁Sol	-9.98997
▁1928	-9.98998
▁kolay	-9.98999
▁kayıt	-9.99002
▁Parkı	-9.99009
dü	-9.99121
49	-9.9916
▁çıkardı	-9.99216
▁Va	-9.99232
33	-9.99256
▁dolar	-9.99269
ac	-9.99317
sta	-9.99343
▁Şampiyonlar	-9.99352
▁sıvı	-9.9938
▁yayınlanmıştır	-9.99408
▁durumunda	-9.99444
87	-9.99502
▁albümün	-9.99558
▁United	-9.99568
▁etnik	-9.99607
▁asit	-9.99608
▁1970	-9.99647
▁Finlandiya	-9.99788
▁beşinci	-9.99797
▁gerçekleşen	-9.99866
▁1960'	-9.99885
▁Açık	-9.99899
▁Çek	-9.99935
cılık	-9.99938
▁sahipti	-9.99954
▁şehridir	-9.99968
▁yazılan	-10.0003
▁Doktor	-10.0005
▁kullanılarak	-10.0006
99	-10.0008
El	-10.0013
▁kamu	-10.0014
▁dizisinde	-10.0014
▁kulübü	-10.0022
▁kral	-10.0024
▁dalında	-10.0028
▁demir	-10.0031
▁Ya	-10.0036
41	-10.0046
▁tasarım	-10.0047
28	-10.0051
▁Yıldız	-10.0051
▁Erkek	-10.0059
ven	-10.0062
▁Yerli	-10.0062
▁sorumlu	-10.0064
▁Papa	-10.0068
▁kilometre	-10.0071
▁Güzel	-10.0083
▁Araştırma	-10.0089
tz	-10.0094
▁vb	-10.0094
▁yüzey	-10.0099
▁satış	-10.0102
▁politik	-10.0106
ina	-10.0107
▁Tu	-10.0108
▁zamanlarda	-10.0111
▁Richard	-10.0114
▁seçimlerinde	-10.0114
▁kullanım	-10.0117
▁modeli	-10.0118
▁gider	-10.012
▁petrol	-10.0124
▁hareketi	-10.0129
▁devre	-10.0133
▁Baba	-10.0138
▁yanlış	-10.0143
▁Dar	-10.0148
ang	-10.0149
▁derin	-10.015
oloji	-10.015
▁Latin	-10.0153
▁Genellikle	-10.0155
Be	-10.0159
▁serisi	-10.0169
ard	-10.0171
▁g	-10.0175
▁Top	-10.0176
▁babasıdır	-10.0185
by	-10.019
46	-10.0193
▁bas	-10.0196
▁yaşamı	-10.0198
uk	-10.0212
mıştı	-10.0212
▁böyle	-10.0216
▁önem	-10.0221
zo	-10.0231
▁otomobil	-10.0243
▁()	-10.0246
▁sonuna	-10.0255
▁karmaşık	-10.0257
uş	-10.0257
landı	-10.0262
š	-10.0273
▁günümüze	-10.0273
maya	-10.0279
▁Vakfı	-10.028
▁gören	-10.0283
▁ders	-10.0286
▁çalışması	-10.0287
▁Diyarbakır	-10.0288
▁bunlar	-10.0288
▁80	-10.0289
▁doğusunda	-10.029
▁Bel	-10.0293
▁Akademi	-10.0295
▁+	-10.0295
▁başlıca	-10.0298
▁ölümü	-10.0299
▁halde	-10.0301
▁elinde	-10.0306
▁Gar	-10.0308
▁ton	-10.0312
▁Romanya	-10.0316
▁Saint	-10.0316
▁teklif	-10.0318
▁davet	-10.0319
leşme	-10.0321
▁istedi	-10.0322
▁Ol	-10.0326
▁proje	-10.0326
ino	-10.0328
cilik	-10.0331
lanması	-10.0343
▁Hi	-10.0344
▁batısında	-10.0353
▁aynalı	-10.0354
Mo	-10.0356
▁Is	-10.0363
▁Ci	-10.0365
▁yazılmış	-10.0365
▁birliği	-10.0366
▁Arapça	-10.0369
▁yaşanan	-10.037
har	-10.0377
▁Records	-10.0387
yor	-10.0394
▁lise	-10.0399
▁olumlu	-10.04
▁benzeri	-10.04
▁Don	-10.0402
▁zamanlar	-10.0403
▁isteyen	-10.0404
lon	-10.0404
▁kullandığı	-10.0418
47	-10.0424
▁türleri	-10.0429
▁başladığı	-10.043
din	-10.0436
tin	-10.0442
▁eline	-10.0444
▁Mor	-10.0446
▁birimi	-10.0466
▁aralarında	-10.0469
▁Ti	-10.047
▁Tan	-10.047
▁All	-10.0472
if	-10.0477
ünü	-10.0478
Ka	-10.048
▁aracı	-10.0481
sch	-10.0482
▁ekiplerinden	-10.0483
▁almaya	-10.0493
▁tren	-10.0495
▁Taş	-10.0496
▁Pers	-10.0498
▁ülkeler	-10.0514
▁yazılım	-10.0519
▁eyalet	-10.0531
▁Yarı	-10.054
▁Tiyatro	-10.054
▁medya	-10.0541
▁ürün	-10.0541
▁ekibi	-10.0549
▁iklim	-10.0561
▁Lee	-10.0565
71	-10.0567
suz	-10.0573
▁önceleri	-10.0578
kon	-10.0584
her	-10.0585
▁Fatih	-10.0586
▁Sağlık	-10.0587
▁Mark	-10.0589
▁geçici	-10.059
▁Kulübü	-10.0595
▁70	-10.0602
▁adlandırılır	-10.0604
▁program	-10.0606
▁Yer	-10.0613
ment	-10.0617
▁ceza	-10.0619
▁sürdürdü	-10.0622
▁görülmektedir	-10.0624
▁Video	-10.0625
▁takımları	-10.0626
▁başlandı	-10.0626
▁1974	-10.0629
|	-10.0634
▁düşman	-10.0641
Türk	-10.0642
▁bölgenin	-10.0645
▁Louis	-10.065
89	-10.0651
▁versiyonu	-10.0661
44	-10.0663
▁Yüzölçümü	-10.0664
ban	-10.0676
▁Kalesi	-10.0676
▁anlamda	-10.0676
▁İsmail	-10.0677
▁yönetmenliğini	-10.0679
▁Ber	-10.0683
▁Cu	-10.0685
rat	-10.0694
▁Sırbistan	-10.0694
▁Murat	-10.0697
62	-10.0704
▁Atina	-10.0705
▁kadınlar	-10.0708
▁duyurdu	-10.0709
▁sezonunun	-10.0711
▁Evli	-10.0712
sar	-10.0715
isi	-10.0723
▁seyahat	-10.0724
kal	-10.0727
▁buz	-10.0728
cik	-10.073
▁Ön	-10.073
▁West	-10.0735
▁Cup	-10.0741
▁kaza	-10.075
67	-10.0751
▁ligi	-10.0752
ından	-10.0754
▁anti	-10.0755
▁birlikleri	-10.0756
▁sanatçısı	-10.0757
▁bakımından	-10.0758
▁ediyor	-10.0763
▁olmadan	-10.0767
▁ailesinin	-10.0773
▁Tam	-10.0776
▁Kaya	-10.0786
ünün	-10.0793
▁gösterildi	-10.0795
▁Sal	-10.0801
▁düşünce	-10.0805
eri	-10.0809
▁yönettiği	-10.0816
26	-10.0816
▁bakış	-10.0817
lenir	-10.0817
tt	-10.082
▁katılmıştır	-10.082
▁talep	-10.0822
ks	-10.0823
▁8.	-10.0825
▁av	-10.0835
▁desteği	-10.0836
▁Modern	-10.0837
▁1979	-10.0842
▁gazeteci	-10.0846
76	-10.085
ab	-10.0854
▁Ru	-10.0854
▁idam	-10.0857
▁kalp	-10.0858
şi	-10.0859
ği	-10.086
▁Frank	-10.0862
▁Savunma	-10.0866
▁yağ	-10.0873
▁pop	-10.0881
▁maruz	-10.0883
▁sınıfı	-10.0885
▁numaraya	-10.0886
▁sinir	-10.0887
▁eserleri	-10.0891
▁ad	-10.0894
▁Üçüncü	-10.0894
▁Mahkemesi	-10.0901
▁ta	-10.0903
▁1981	-10.0907
▁Ara	-10.0913
▁yeterli	-10.0915
▁yakınlarında	-10.092
▁önceden	-10.0922
miz	-10.0927
▁düzey	-10.0929
▁toplumsal	-10.0935
▁basketbol	-10.0935
▁yapım	-10.0936
▁ağaç	-10.0937
▁kurucusu	-10.094
▁buldu	-10.0944
▁altındaki	-10.0948
▁mağlup	-10.0948
▁hüküm	-10.0951
lığını	-10.0953
▁direktör	-10.0954
▁düz	-10.0969
▁1978	-10.0972
ize	-10.0974
▁muhtemelen	-10.0979
kov	-10.0982
▁Gazi	-10.0986
▁tarzı	-10.0994
▁Joseph	-10.0997
▁geçirdiği	-10.0999
▁çevresinde	-10.0999
che	-10.1
▁süresi	-10.1
▁Kudüs	-10.1002
▁oynamıştır	-10.1005
▁taşımaktadır	-10.1007
▁500	-10.1009
od	-10.102
ici	-10.102
93	-10.1028
▁Rock	-10.103
▁Güvenlik	-10.1034
68	-10.1041
▁idare	-10.1048
▁Kim	-10.1052
lenme	-10.1054
▁adım	-10.1055
▁Par	-10.1058
▁kullanır	-10.106
▁hız	-10.1064
ong	-10.1064
▁değeri	-10.1066
▁hayatta	-10.1067
▁klip	-10.1072
▁Makedonya	-10.1073
▁sezonda	-10.1083
rit	-10.1086
ling	-10.1101
▁se	-10.1102
hat	-10.1105
▁ihtiyaç	-10.111
▁yönetmeni	-10.1115
▁komedi	-10.1124
▁gitar	-10.1124
val	-10.1124
▁görüş	-10.1131
▁vermek	-10.1134
▁şekil	-10.1138
▁9.	-10.114
yordu	-10.1141
▁renkli	-10.1142
▁Devrimi	-10.1146
▁Viyana	-10.1146
Ç	-10.1148
▁1973	-10.1161
04	-10.1162
▁Takım	-10.1164
▁Star	-10.1164
▁1968	-10.1166
ladı	-10.1166
▁dünyada	-10.1168
ıyor	-10.117
▁takımlar	-10.1171
▁Barış	-10.1176
vin	-10.1177
▁telefon	-10.1178
▁Ömer	-10.1179
▁kendisinin	-10.1183
▁Hu	-10.1187
▁Roman	-10.1187
▁adayı	-10.1197
▁halkın	-10.1199
▁x	-10.12
▁Jackson	-10.1205
rt	-10.1205
▁DNA	-10.1207
sıyla	-10.1209
▁işbirliği	-10.121
▁saf	-10.1213
78	-10.1213
▁katkıda	-10.1223
▁Arka	-10.1226
▁Aziz	-10.1227
▁başarısız	-10.1229
▁Üniversite	-10.1234
▁edildiği	-10.1235
▁İmparator	-10.1236
▁gelişmiş	-10.1238
▁Kış	-10.1242
▁eserler	-10.1243
▁Q	-10.1244
▁teşvik	-10.1247
▁kaya	-10.125
▁teknoloji	-10.1255
64	-10.1258
Li	-10.1259
gerçekleştirilen	-10.1261
88	-10.1263
▁Arnavutluk	-10.1264
▁gazete	-10.1264
ıl	-10.1268
▁1965	-10.1273
▁maça	-10.1275
▁Sar	-10.1275
zade	-10.1278
▁kuvvet	-10.1279
sinden	-10.1282
mu	-10.1283
▁bilgiler	-10.1284
▁hayat	-10.1288
▁1976	-10.129
▁sezonun	-10.1292
▁koyu	-10.1294
dil	-10.1295
▁çoğunluğu	-10.1295
▁düştü	-10.1297
Yeni	-10.1298
▁ma	-10.1301
▁Apple	-10.132
res	-10.1322
08	-10.1323
ss	-10.1323
▁Fi	-10.1326
57	-10.1328
▁Sarayı	-10.1328
▁karakteri	-10.1329
74	-10.1339
▁İn	-10.134
▁bağ	-10.1342
▁dijital	-10.1347
▁kamera	-10.1356
▁Dan	-10.1361
lem	-10.1368
42	-10.1371
▁müzisyen	-10.1372
▁Mü	-10.1373
▁°	-10.1378
▁Madrid	-10.1381
▁ürünleri	-10.1382
▁Hanedanı	-10.139
▁suyu	-10.1397
▁miktarda	-10.1399
▁yolcu	-10.1399
▁Adalet	-10.14
▁Maria	-10.14
▁1972	-10.1401
▁kuru	-10.1407
59	-10.1409
▁örneğin	-10.1409
ig	-10.1414
ent	-10.1414
▁tanınan	-10.1415
lendi	-10.1417
▁18.	-10.1419
▁Ce	-10.142
▁etrafında	-10.1422
baş	-10.1433
Ro	-10.1435
92	-10.1439
▁kapalı	-10.1442
▁elektronik	-10.1442
▁Selçuklu	-10.1451
▁Beş	-10.1452
▁ederken	-10.1455
▁yardımcısı	-10.1458
▁ekonomi	-10.146
Si	-10.1461
▁yola	-10.1462
▁başkanlığı	-10.1467
▁kol	-10.1468
▁mu	-10.147
▁Çanakkale	-10.147
▁yasal	-10.1475
▁ressam	-10.1476
▁Tar	-10.1477
▁Google	-10.1483
▁tepki	-10.1489
Ü	-10.1493
54	-10.1497
▁alınmıştır	-10.1501
▁kulüplerinde	-10.1502
▁sistemleri	-10.1505
▁dik	-10.1507
▁bağlantılar	-10.1509
▁2005'	-10.151
▁olaylar	-10.1511
▁verme	-10.1518
hu	-10.1522
▁hattı	-10.1526
▁oynamaktadır	-10.1527
▁mavi	-10.1528
▁te	-10.1529
▁temsilcisi	-10.1529
▁yaşlı	-10.154
▁Tıp	-10.1549
▁aittir	-10.155
▁Hot	-10.1554
luğu	-10.1559
gel	-10.1567
▁kaydetti	-10.1569
▁yapılması	-10.1571
iç	-10.1572
▁küme	-10.1579
▁Bulgar	-10.1579
73	-10.158
▁İlçe	-10.1582
ud	-10.1583
í	-10.1583
▁Mer	-10.1584
▁Altı	-10.1584
layarak	-10.1585
65	-10.159
▁kıyısında	-10.1599
▁opera	-10.1601
▁ödülünü	-10.1602
▁Red	-10.1603
▁Komutanlığı	-10.161
▁1975	-10.1612
▁yirmi	-10.1612
▁demiryolu	-10.1613
▁Kayseri	-10.1616
▁soğuk	-10.1618
▁komutanı	-10.162
▁Ticaret	-10.1625
06	-10.1626
▁1977	-10.163
||	-10.163
▁Mal	-10.164
meye	-10.1646
▁bağlantı	-10.1649
▁Ye	-10.1654
▁vergi	-10.1657
▁Sha	-10.1661
▁öz	-10.1667
ydu	-10.1669
▁ayak	-10.1672
diğini	-10.1672
77	-10.1675
▁erdi	-10.1676
▁kod	-10.1678
▁hangi	-10.1683
op	-10.1692
▁Erken	-10.1692
▁gözlem	-10.1692
▁yöntemi	-10.1694
bet	-10.1694
▁Bundan	-10.1694
72	-10.1695
▁sınırlı	-10.1697
ft	-10.1704
▁Büyükşehir	-10.1705
▁sıcaklık	-10.1711
▁karısı	-10.1716
iyor	-10.1721
▁Za	-10.1722
▁oluşturduğu	-10.1724
▁Cephesi	-10.1725
▁açıldı	-10.1731
İngilizce	-10.1734
▁açıdan	-10.1738
▁kurucu	-10.174
▁Black	-10.1741
▁sürede	-10.1741
▁Yunanca	-10.1744
▁hikâye	-10.1749
▁grubunun	-10.175
▁dergisi	-10.1757
▁Sen	-10.1758
▁1971	-10.1763
lim	-10.1763
▁Kürt	-10.1764
▁Bankası	-10.1768
▁Ju	-10.1771
▁Kitap	-10.1772
▁Zaman	-10.1774
▁kasaba	-10.1778
▁Am	-10.178
▁ister	-10.1784
▁Tri	-10.1785
▁çıkmış	-10.1785
ou	-10.1787
▁işçi	-10.1787
ó	-10.1789
▁kap	-10.1793
▁değildi	-10.1793
▁Demokratik	-10.1797
▁Rum	-10.1799
▁yüzde	-10.1805
▁hayatına	-10.1807
jo	-10.1807
▁Bilim	-10.1808
▁Bunların	-10.1813
şa	-10.1819
kı	-10.1821
Q	-10.1822
▁Doğan	-10.1824
▁Tour	-10.1825
▁Mersin	-10.1829
▁bina	-10.1835
▁Men	-10.1837
▁çıktığı	-10.1846
▁unvanını	-10.1846
▁süreci	-10.1847
dığını	-10.1848
▁art	-10.1849
▁kopya	-10.1851
84	-10.1852
▁şunlardır	-10.1854
▁boyu	-10.1855
▁1950'	-10.1857
siyle	-10.186
▁etkin	-10.1861
▁Karl	-10.1862
▁sayım	-10.1864
▁kelime	-10.1865
▁filmidir	-10.1868
▁mimari	-10.1868
qui	-10.1868
▁özgü	-10.1872
е	-10.1874
▁esnasında	-10.1877
▁konuşma	-10.188
53	-10.1882
▁sebebi	-10.1882
43	-10.1884
▁Tra	-10.1884
Katılım	-10.1887
▁üyesidir	-10.1888
05	-10.189
▁33	-10.1892
▁onlara	-10.1893
▁Herschel	-10.1894
▁görevine	-10.1899
veya	-10.1904
▁cam	-10.191
▁esir	-10.1916
Su	-10.1917
▁Ab	-10.1921
▁senesinde	-10.1922
▁malzeme	-10.1923
▁36	-10.1923
eceği	-10.1924
81	-10.1926
▁eğitimini	-10.1928
▁Pi	-10.193
▁ayrılır	-10.1931
▁Show	-10.1931
▁devletin	-10.1932
▁Sezon	-10.1932
▁açılan	-10.1932
ä	-10.1937
▁geliştirme	-10.1941
▁Val	-10.1943
▁bünyesinde	-10.1945
▁öncesinde	-10.1948
Ra	-10.1952
▁1945	-10.1954
▁alanları	-10.1954
▁seçilen	-10.1956
▁başarısı	-10.1957
▁gönderildi	-10.1958
▁Kutsal	-10.1958
▁Şirket	-10.1959
▁Çünkü	-10.1961
bit	-10.1965
▁korku	-10.1968
ysa	-10.1969
▁ötürü	-10.1971
▁Bosna	-10.1971
▁Kent	-10.1976
▁kanal	-10.1977
▁belge	-10.1983
▁dağılımı	-10.1984
▁Ada	-10.1986
▁eleme	-10.1991
▁ikili	-10.1991
▁gelmiş	-10.1993
▁Kon	-10.1996
▁giyen	-10.1997
▁besteci	-10.2002
▁16.	-10.2004
▁terimi	-10.2006
que	-10.2008
▁Kraliyet	-10.2009
▁eğer	-10.2014
ō	-10.2017
▁çocukları	-10.2024
▁geçerek	-10.2027
▁Kastamonu	-10.2027
▁tarafında	-10.2028
▁kıyı	-10.203
01	-10.203
▁Edirne	-10.2035
▁34	-10.2036
▁Ekonomi	-10.2038
▁sa	-10.2042
▁Kurtuluş	-10.2043
▁dokuz	-10.2046
▁olmakla	-10.2048
Ta	-10.2048
the	-10.2048
▁bağlıdır	-10.2049
tes	-10.2051
▁üstlendi	-10.2055
▁Sir	-10.2071
▁be	-10.2073
sü	-10.2076
▁yorum	-10.2078
▁ailenin	-10.2079
▁1969	-10.2088
▁38	-10.2089
▁şarkının	-10.2103
0.000	-10.2103
▁Mc	-10.2108
▁eşlik	-10.2109
▁kullandı	-10.2113
▁Ger	-10.2117
85	-10.2117
▁yanına	-10.2118
▁edip	-10.2119
▁is	-10.2124
bin	-10.2128
lam	-10.2142
▁1961	-10.2144
▁oluşturulan	-10.2152
▁Para	-10.2153
▁numaralı	-10.2155
▁kanun	-10.216
▁gruba	-10.2168
58	-10.2172
cha	-10.2173
▁boya	-10.2178
ral	-10.218
tel	-10.2184
▁Fer	-10.2186
▁felsefe	-10.2189
▁kazandığı	-10.2191
▁Play	-10.2192
▁Şa	-10.2193
low	-10.2194
▁del	-10.2195
▁ülkelerde	-10.2196
▁Sırp	-10.2196
laşma	-10.2196
▁10.	-10.2197
03	-10.2203
▁düşünülmektedir	-10.2204
▁du	-10.2204
▁no	-10.2209
▁çeşit	-10.2213
▁durumlarda	-10.2215
▁me	-10.2222
ney	-10.223
▁tarihsel	-10.2231
▁Balıkesir	-10.2232
ju	-10.2236
▁kalın	-10.2246
▁takımlarından	-10.2248
▁seçimi	-10.2252
▁Almanca	-10.2257
▁yaşamaktadır	-10.2262
Te	-10.2279
▁Sonraki	-10.228
▁Art	-10.2284
▁dedi	-10.2284
cılar	-10.2284
ağı	-10.2286
▁teorisi	-10.2287
▁karşılığında	-10.229
▁olmaya	-10.229
▁tıp	-10.2293
▁ka	-10.2294
▁yönetilen	-10.2299
▁kanalı	-10.2305
52	-10.2305
▁ar	-10.2306
maz	-10.2308
▁yapılmaktadır	-10.231
▁forması	-10.231
▁siyaset	-10.2311
▁küresel	-10.2312
▁hasar	-10.2317
▁Kız	-10.232
muş	-10.2323
ans	-10.2323
yse	-10.2325
▁Del	-10.2328
mişti	-10.2329
▁Kazakistan	-10.2332
▁ayı	-10.2334
▁Voleybol	-10.2337
▁yumurta	-10.2337
▁Ad	-10.2342
▁birisidir	-10.2343
▁Ağa	-10.2346
Bo	-10.2347
gin	-10.2348
98	-10.2348
▁We	-10.2361
ası	-10.2362
▁şampiyonluğu	-10.2379
wi	-10.238
▁türlü	-10.238
▁hastalığı	-10.2383
▁Eskişehir	-10.2384
▁37	-10.2386
ören	-10.239
▁uzunluğu	-10.2395
02	-10.2395
tus	-10.2396
▁reklam	-10.2399
▁fotoğraf	-10.2399
▁açıklama	-10.2402
▁sürümü	-10.2404
▁Prix	-10.241
▁olacaktır	-10.2413
lüğü	-10.2414
▁Şam	-10.2427
▁1964	-10.2433
▁etkileri	-10.2438
▁alternatif	-10.244
▁Yol	-10.2441
▁1963	-10.2445
▁11.	-10.2447
ef	-10.2465
▁yarışma	-10.2466
▁erkekler	-10.2466
▁Az	-10.2472
▁Ren	-10.2474
om	-10.2474
An	-10.2476
79	-10.2481
▁Ege	-10.2482
09	-10.2483
▁şehirde	-10.2486
66	-10.2487
▁MS	-10.2492
evi	-10.2494
▁savaşın	-10.2495
ice	-10.2497
▁1950	-10.2498
▁ayrılmıştır	-10.2504
oz	-10.2505
▁dayanan	-10.2507
dal	-10.2511
ura	-10.2512
ış	-10.2514
▁Hem	-10.2514
▁2004'	-10.2514
sından	-10.2515
▁kon	-10.252
▁Ze	-10.2521
▁varlığı	-10.2521
▁gemisi	-10.2523
▁Music	-10.2524
▁Ser	-10.253
▁1967	-10.2536
▁cami	-10.2537
▁gelişme	-10.2538
▁bugünkü	-10.254
▁kaldığı	-10.2548
▁çalışmalarına	-10.2549
Fa	-10.2551
▁İşçi	-10.2553
▁Gençlik	-10.2556
▁yöntem	-10.2565
▁genelinde	-10.2571
ff	-10.2573
▁bar	-10.2576
▁İlçesi	-10.2576
▁tarihlerinde	-10.258
In	-10.2581
▁ettiğini	-10.2582
▁kanıt	-10.2584
▁önüne	-10.2584
▁silahlı	-10.2594
▁Edward	-10.2595
▁Abdullah	-10.2598
▁Es	-10.2601
▁yazılmıştır	-10.261
=30	-10.261
▁uzanan	-10.262
▁ordusunun	-10.262
▁imparator	-10.262
▁göstermiştir	-10.2621
▁bölümde	-10.2626
▁ortasında	-10.2626
Er	-10.2632
▁Pu	-10.2633
▁hasta	-10.2634
▁Arizona	-10.2636
▁zamanla	-10.2637
▁dilleri	-10.2639
▁özellikler	-10.264
▁açıklandı	-10.2641
▁başkent	-10.2644
for	-10.2653
ep	-10.2657
▁Boy	-10.2659
▁orman	-10.2659
Do	-10.266
mus	-10.2662
▁WWE	-10.2662
▁gıda	-10.2663
ğa	-10.2663
▁Bra	-10.2666
▁Daniel	-10.2667
ano	-10.2667
▁gördüğü	-10.2669
▁hat	-10.2669
▁kullanma	-10.2671
▁belediyeye	-10.2674
▁solo	-10.2675
▁yazmıştır	-10.2676
▁tarihinin	-10.2682
▁yargı	-10.2682
▁Yan	-10.2684
▁analiz	-10.2687
▁1956	-10.269
▁yapımcı	-10.269
▁Aşağı	-10.2692
▁Kor	-10.2692
▁geliştirilen	-10.2693
▁artan	-10.2694
▁sergi	-10.2696
▁Çocuk	-10.2699
Co	-10.2699
▁dayalı	-10.2704
▁seyirci	-10.2706
▁sisteminin	-10.2714
▁hakim	-10.2714
▁romanı	-10.2727
▁hızı	-10.2735
▁görüldü	-10.2739
▁Askeri	-10.2742
unda	-10.275
tro	-10.2758
=19	-10.2764
▁Demokrat	-10.2767
▁Selim	-10.2769
▁Yerel	-10.277
▁Pop	-10.2774
▁kalır	-10.2774
▁Sonra	-10.2774
▁nüfusun	-10.2775
▁atan	-10.2777
▁Manisa	-10.2782
▁ederler	-10.2785
▁öğrencisi	-10.2787
hisar	-10.279
▁One	-10.2791
liler	-10.2793
bra	-10.2796
▁kuruluş	-10.28
▁uçuş	-10.2803
▁gruplar	-10.2818
▁başkanlık	-10.2818
▁yakıt	-10.2819
▁biriydi	-10.2825
▁yapıldığı	-10.2826
▁dolu	-10.2829
▁cevap	-10.2829
▁Ata	-10.2829
ford	-10.283
▁Kurumu	-10.2836
▁attığı	-10.2844
▁denilen	-10.2846
▁öldürüldü	-10.285
▁işletim	-10.2853
▁derecede	-10.288
▁uzaklıkta	-10.2886
▁evinde	-10.2887
▁Sun	-10.2887
▁akım	-10.2892
ys	-10.2895
dik	-10.2897
▁1966	-10.2907
lerdi	-10.291
▁hakkındaki	-10.2918
▁kardeş	-10.293
▁2000'	-10.2933
▁kart	-10.2935
▁Smith	-10.2936
lidir	-10.2937
▁yazılı	-10.2939
▁Alan	-10.294
▁beyin	-10.2942
▁Filistin	-10.2944
▁TRT	-10.2947
▁Bunlardan	-10.295
lanmıştır	-10.2953
51	-10.2955
bil	-10.2957
▁doğa	-10.2964
▁örgüt	-10.2965
▁ölümüne	-10.2967
▁sıklıkla	-10.2969
▁nesil	-10.2969
▁acı	-10.297
▁ölü	-10.2971
zar	-10.2975
▁olduktan	-10.2981
▁baskın	-10.2983
▁dergi	-10.2988
▁kurduğu	-10.2989
▁Köyü	-10.2995
▁1959	-10.2997
▁kısmında	-10.3001
▁paralel	-10.3005
ras	-10.3005
▁Komisyonu	-10.3013
ska	-10.3015
ama	-10.3016
▁Kay	-10.3017
▁kontrolü	-10.3021
▁değişiklik	-10.3023
▁manyetik	-10.3028
▁filmleri	-10.3038
▁tarihte	-10.304
altı	-10.3041
▁saldırısı	-10.3041
▁sporcu	-10.3044
▁Bugün	-10.3047
Ak	-10.3047
▁Fin	-10.3048
ther	-10.3057
▁liman	-10.3059
▁1962	-10.306
▁plak	-10.306
▁Bakü	-10.3061
▁sonu	-10.3063
ktedir	-10.3063
▁tipik	-10.3064
▁isyan	-10.3066
▁kısmını	-10.3068
▁Yayın	-10.307
ola	-10.3072
▁Real	-10.3076
albüm	-10.308
▁korumak	-10.308
1'	-10.3087
▁anlamı	-10.3094
▁gerçekleşti	-10.3095
car	-10.3098
▁300	-10.3099
ny	-10.3101
▁Onun	-10.3103
bas	-10.3105
ktadır	-10.3109
▁1954	-10.3112
▁),	-10.3113
▁Sta	-10.3113
▁okudu	-10.3115
eti	-10.3123
▁Ed	-10.3125
▁süper	-10.3128
▁Sayımı	-10.3131
▁kullanılması	-10.3139
▁yaptıkları	-10.314
▁bulunması	-10.3142
82	-10.3144
lanarak	-10.3145
="25	-10.3147
▁kenti	-10.3149
▁olumsuz	-10.3152
3'	-10.3152
▁insanları	-10.3158
▁yayımladı	-10.3159
▁Hanım	-10.3162
▁dev	-10.3165
▁aşağı	-10.3166
▁Anne	-10.3171
▁nükleer	-10.3171
­	-10.3171
nan	-10.3172
▁Ortodoks	-10.3172
▁yerlerde	-10.3176
▁17.	-10.3179
▁sürüldü	-10.3191
▁yarışı	-10.3191
▁başı	-10.3192
ps	-10.3193
▁tasvir	-10.3195
▁bölgelerde	-10.3199
▁or	-10.3202
▁Başbakan	-10.3204
▁Aşağıdaki	-10.3205
To	-10.3209
eceğini	-10.321
▁Çoğu	-10.3214
▁bundan	-10.3214
zer	-10.3215
▁göreve	-10.3216
▁yaşamış	-10.322
▁kendilerini	-10.3221
▁köşe	-10.3222
▁Ebu	-10.3224
▁ulaşım	-10.3227
ril	-10.3234
▁parlak	-10.3235
▁işlemi	-10.3236
▁(;	-10.3236
▁müdahale	-10.3241
we	-10.3242
▁Fu	-10.3247
63	-10.3248
▁Bilimler	-10.3248
▁Kosova	-10.3258
▁Av	-10.3264
=9	-10.3264
▁Çağı	-10.3274
▁iptal	-10.3276
ıcı	-10.3281
▁Ç	-10.3284
=11	-10.3286
▁Mon	-10.3288
▁Edebiyat	-10.3293
zen	-10.3293
?"	-10.3297
▁Haçlı	-10.33
▁13.	-10.3301
pp	-10.3303
▁van	-10.3304
▁göl	-10.3311
▁birer	-10.3314
▁Club	-10.3316
▁olmasını	-10.3316
No	-10.3319
▁ilişkisi	-10.3319
▁saray	-10.3321
▁Konusu	-10.3323
▁dışındaki	-10.3325
▁politika	-10.3327
▁kütle	-10.333
▁duvar	-10.3334
▁aileden	-10.3334
mp	-10.3336
Büyük	-10.3336
▁kullanıcı	-10.334
yev	-10.3343
▁tanınmış	-10.3344
▁gösteri	-10.3346
▁Jack	-10.3347
▁marka	-10.3353
▁Latince	-10.3353
▁adının	-10.3355
▁karakterini	-10.3361
▁1946	-10.3362
▁Min	-10.3363
kta	-10.3363
▁aktör	-10.3369
▁kısmen	-10.3373
▁içermektedir	-10.3373
▁gönderdi	-10.3374
▁Din	-10.3375
▁Yılın	-10.3379
▁Bor	-10.338
▁Türkmen	-10.3382
▁başlangıçta	-10.3384
▁Uzay	-10.3387
dağ	-10.3388
So	-10.339
kat	-10.3391
▁42	-10.3392
ix	-10.3395
▁oyunculuk	-10.3399
zu	-10.3403
▁Balkan	-10.3404
▁komündür	-10.3405
▁arama	-10.3407
▁aylarında	-10.3409
Ni	-10.3414
▁olayı	-10.3415
▁Mag	-10.3419
▁Yeşil	-10.3422
▁statüsü	-10.3428
▁mesafe	-10.3433
mez	-10.3434
▁75	-10.3434
▁anne	-10.3437
▁Yaş	-10.344
▁Macar	-10.3441
▁sözcüğü	-10.3441
mat	-10.3443
▁belirgin	-10.3444
lenmesi	-10.3445
▁Sanayi	-10.3448
▁Yugoslavya	-10.3449
▁şarkıları	-10.3456
▁1944	-10.3457
▁Kongresi	-10.3463
şe	-10.3464
án	-10.3466
▁Sinema	-10.3469
▁olayları	-10.347
▁uç	-10.347
▁lider	-10.347
▁unvanı	-10.3471
▁çalışmalarını	-10.3472
▁le	-10.3477
▁voleybol	-10.3478
▁merkezinde	-10.3478
▁Radyo	-10.348
▁doktora	-10.3484
у	-10.3488
▁şarap	-10.3489
▁Yılmaz	-10.3492
▁oluşturmak	-10.3492
▁numara	-10.3493
▁Bre	-10.3494
56	-10.3495
▁dar	-10.3497
▁Nur	-10.3497
idir	-10.3499
▁dönemlerde	-10.3501
▁Bas	-10.3503
▁Yusuf	-10.3505
▁Belediyespor	-10.3505
▁Litvanya	-10.3506
▁taraf	-10.3508
▁başlattı	-10.3511
▁intihar	-10.3516
tre	-10.3518
▁İdari	-10.3534
▁dönen	-10.3538
▁artış	-10.354
par	-10.3541
▁bölgesinin	-10.3544
▁takıma	-10.3544
▁ben	-10.3547
▁ülkesi	-10.3554
▁araba	-10.3555
▁köle	-10.3558
▁tanınır	-10.3561
▁Gök	-10.3562
▁Carl	-10.3565
-2	-10.3565
▁Afganistan	-10.3568
top	-10.3568
ali	-10.3574
cü	-10.3574
▁insanın	-10.3581
▁katılma	-10.3583
lıdır	-10.3587
▁gösterilmiştir	-10.3587
▁çekilen	-10.3588
▁Federal	-10.359
▁performansı	-10.3598
art	-10.3599
▁rapor	-10.3601
▁zemin	-10.3604
▁meyve	-10.3604
▁yarısında	-10.3609
▁galibiyet	-10.3611
▁geçerli	-10.3616
▁Ah	-10.3619
▁turda	-10.3624
▁golünü	-10.3635
▁tabanlı	-10.3639
▁gösterdiği	-10.3643
ation	-10.3643
▁For	-10.3643
rin	-10.3644
▁It	-10.365
▁görsel	-10.365
▁Manchester	-10.3654
▁rolünü	-10.3655
gal	-10.3656
▁sorunları	-10.3656
▁asist	-10.3658
mir	-10.3669
▁filmler	-10.367
▁bölümünü	-10.3671
▁Hall	-10.3672
▁Körfezi	-10.3675
▁İli	-10.3679
▁fikir	-10.3679
▁Live	-10.368
83	-10.368
▁arasına	-10.3682
▁Wa	-10.3684
lığın	-10.3689
▁layık	-10.3689
▁sözü	-10.3689
▁ilişkili	-10.3691
▁boy	-10.3693
▁Prof	-10.3696
▁dava	-10.3696
field	-10.3698
▁tasarımı	-10.3699
▁sözleri	-10.37
▁1957	-10.37
▁okulu	-10.3701
▁inşaat	-10.3701
▁görevinden	-10.3703
▁yılların	-10.3706
▁kişilerin	-10.3708
▁Ur	-10.3708
▁mü	-10.3709
iyordu	-10.371
leyici	-10.3714
▁çıkardığı	-10.3716
▁t	-10.3719
▁taşı	-10.3728
▁hariç	-10.373
▁hastalık	-10.3735
▁Ban	-10.3736
▁55	-10.374
▁balık	-10.3741
▁yarışması	-10.3742
Ba	-10.3742
▁150	-10.3748
▁Vadisi	-10.375
▁Zelanda	-10.375
▁planı	-10.3751
▁kaydı	-10.3751
til	-10.3755
▁satışa	-10.3755
▁toplama	-10.376
▁u	-10.3763
▁konuk	-10.3765
▁Sel	-10.3767
▁çalışmıştır	-10.377
sidir	-10.3771
▁hazırlık	-10.3772
▁kır	-10.3773
▁Sistemi	-10.3773
▁yara	-10.3777
▁SSCB	-10.3777
_	-10.3781
▁sorun	-10.3785
▁Saray	-10.3785
69	-10.3787
▁CD	-10.379
▁bayrağı	-10.3791
▁pilot	-10.3794
▁işleme	-10.3795
▁birinin	-10.3796
▁projesi	-10.3798
▁COVID	-10.3801
▁Jan	-10.3807
▁can	-10.3812
ā	-10.3824
▁;	-10.3824
Mi	-10.3824
▁Kurt	-10.383
▁Wi	-10.3832
▁uydu	-10.3832
!"	-10.3834
▁Massachusetts	-10.3838
▁güreş	-10.3838
▁kişiden	-10.3844
yer	-10.3847
▁Silahlı	-10.3848
▁vokal	-10.385
leyen	-10.385
▁arazi	-10.3853
▁değerli	-10.3855
▁Marmara	-10.3855
61	-10.3856
He	-10.3858
▁alanlarda	-10.3859
lerdeki	-10.3861
▁tanrı	-10.3865
▁kavramı	-10.3866
▁1948	-10.3868
▁Kafkasya	-10.3869
lia	-10.3871
▁Örgütü	-10.3871
▁65	-10.3876
=29	-10.3876
▁albümleri	-10.3883
▁yapılar	-10.3884
▁fi	-10.3885
▁tehlike	-10.3889
▁listesine	-10.3889
▁şarkılar	-10.3891
▁dersleri	-10.3895
▁taşır	-10.39
▁kaynakları	-10.3904
▁işi	-10.3906
esi	-10.3907
▁katkı	-10.3909
uri	-10.3911
▁kültürü	-10.3911
ledi	-10.3913
▁Alt	-10.3915
▁Musa	-10.3916
▁kelimesi	-10.392
▁köprü	-10.3925
▁kutsal	-10.3928
▁evlilik	-10.3929
▁kas	-10.3932
▁1955	-10.3936
ram	-10.3937
▁getiren	-10.3943
▁çağdaş	-10.3944
ú	-10.3945
ladığı	-10.3946
▁meclis	-10.3948
▁Dört	-10.3948
▁Santa	-10.395
▁dizinin	-10.395
▁si	-10.3951
Di	-10.3952
au	-10.3953
▁şekli	-10.3954
öz	-10.3955
▁tepe	-10.3958
nd	-10.396
▁gelecek	-10.396
▁üstünde	-10.3961
▁olanak	-10.3961
abilen	-10.3961
▁kendilerine	-10.3964
▁Albümün	-10.3966
▁Tor	-10.3969
▁den	-10.3971
▁tartışma	-10.3972
imi	-10.3975
▁fizik	-10.3976
▁gövde	-10.3979
▁metin	-10.3982
▁gerçekleştirdi	-10.3982
▁Çe	-10.3985
▁güçleri	-10.3989
▁profesör	-10.399
▁Entertainment	-10.3992
▁jüri	-10.3996
yar	-10.4005
▁parçaları	-10.4005
bur	-10.4007
▁Koleji	-10.4009
▁binası	-10.401
▁400	-10.4017
▁Çelebi	-10.4021
▁kitabında	-10.4021
▁taarruz	-10.4022
▁1943	-10.4023
▁kaleme	-10.4026
▁görülmüştür	-10.4026
▁Zi	-10.403
▁Bütün	-10.403
▁Topluluğu	-10.403
▁anlatır	-10.4032
illa	-10.4033
▁ekran	-10.4034
▁araştırmalar	-10.4036
▁yenerek	-10.4037
▁Pat	-10.4041
▁olmaktadır	-10.4043
▁şeker	-10.4046
▁akademik	-10.4046
ciler	-10.4048
▁birden	-10.4051
▁çalıştığı	-10.4052
▁Prens	-10.4052
▁sayılabilir	-10.4053
▁arkadaşları	-10.4053
burg	-10.4061
bek	-10.4067
▁Pakistan	-10.4076
▁şehristanı	-10.4076
▁evli	-10.4077
▁Ertesi	-10.4079
▁Cemiyeti	-10.4082
▁oyunları	-10.4082
▁cinsiyet	-10.4082
▁devleti	-10.4086
18,7	-10.4086
▁köyünde	-10.4087
▁isimler	-10.4092
▁Komünün	-10.4092
ince	-10.4092
▁Kars	-10.4093
ec	-10.4102
▁kristal	-10.4103
▁kazanarak	-10.4104
▁Söz	-10.4107
▁altıncı	-10.4107
As	-10.4119
bal	-10.412
▁ulaşan	-10.412
▁bölgesel	-10.4121
▁doğmuştur	-10.4124
▁Bölüm	-10.4126
▁Sinan	-10.4126
▁basın	-10.4127
▁edecek	-10.4128
▁işe	-10.4132
▁Teksas	-10.4134
▁Dizi	-10.4135
gü	-10.4135
▁hane	-10.414
▁47,5	-10.4143
о	-10.4146
▁Kendi	-10.4152
▁tamamı	-10.4153
▁14.	-10.4154
tim	-10.4156
▁istediği	-10.4156
▁Albert	-10.4157
ero	-10.416
▁Sch	-10.4167
▁oyuncular	-10.4168
▁vücut	-10.4169
▁Sur	-10.4173
gun	-10.4175
▁değişikliği	-10.4176
▁kanat	-10.4177
▁muharebe	-10.4179
▁alması	-10.418
▁48	-10.4182
▁mümkündür	-10.4184
▁Ter	-10.4185
TV	-10.4189
▁Anna	-10.4197
▁$	-10.4199
▁müze	-10.4201
▁yalnız	-10.4202
▁Virginia	-10.4202
▁Tokyo	-10.4206
lardaki	-10.421
▁kadınların	-10.4231
stra	-10.4243
▁Harry	-10.4246
▁Rey	-10.4251
mı	-10.4254
▁ilham	-10.4258
ung	-10.426
▁blok	-10.426
▁Hal	-10.4264
▁Anayasa	-10.4268
▁hazırlanan	-10.4269
▁bölgedeki	-10.4272
▁Alp	-10.4273
▁SS	-10.4274
▁Şeyh	-10.4277
▁Sakarya	-10.4279
▁Angel	-10.4279
ell	-10.4279
paşa	-10.4282
▁işletme	-10.4283
▁kuruluşu	-10.4284
▁rengi	-10.4284
▁başlayarak	-10.4285
▁bölgelerinde	-10.4288
▁kapsayan	-10.4289
▁hizmeti	-10.4291
▁Williams	-10.4292
▁Konu	-10.4293
▁yasak	-10.4295
▁aşk	-10.4297
▁Nüfusu	-10.4298
▁ruh	-10.4301
▁yardımıyla	-10.4304
▁ekip	-10.4307
▁Mel	-10.4319
▁1941	-10.432
tum	-10.4323
▁park	-10.4325
▁Der	-10.4327
▁Tel	-10.4328
kara	-10.4332
▁bronz	-10.4332
▁özgün	-10.4333
▁Bunu	-10.4334
▁yerinde	-10.4334
▁coğrafi	-10.4337
çu	-10.4338
▁uygulaması	-10.4339
▁anahtar	-10.434
8'	-10.4343
tr	-10.4346
▁otomatik	-10.4346
▁yapımcısı	-10.4347
▁Orhan	-10.4347
▁büyü	-10.435
▁Demografi	-10.4354
▁Euro	-10.4356
▁kare	-10.4358
▁Bon	-10.4359
bat	-10.4367
▁Kas	-10.4368
▁tarihçi	-10.4374
▁kalmış	-10.4374
▁mikro	-10.4375
▁Gor	-10.4376
▁Bur	-10.4376
▁bölümleri	-10.438
▁satan	-10.4383
▁patlama	-10.4383
▁Far	-10.4384
bol	-10.439
▁görür	-10.4393
▁saygı	-10.4395
ıyordu	-10.4397
ire	-10.4397
▁toprakları	-10.4398
▁baba	-10.4403
▁dilinde	-10.4407
▁çözüm	-10.4408
▁Nu	-10.4414
▁şarkıyı	-10.4415
▁pro	-10.4415
▁baskısı	-10.4415
▁komşu	-10.4417
▁Ş	-10.442
ach	-10.442
▁na	-10.4421
▁yaşamını	-10.4428
▁sal	-10.4429
▁bölgeleri	-10.443
cho	-10.443
▁oda	-10.4432
5'	-10.4432
▁Kale	-10.4432
▁formasını	-10.4433
▁mahallesi	-10.4434
-3	-10.4439
▁organizasyon	-10.4439
▁bulunmaktaydı	-10.4442
▁Max	-10.4443
cak	-10.4444
▁64	-10.4445
▁Amatör	-10.4453
▁Kütahya	-10.4454
mız	-10.4457
▁şiddet	-10.4461
▁İs	-10.4462
mekteydi	-10.4468
log	-10.4468
av	-10.4468
▁Hükûmeti	-10.4476
ağa	-10.4479
rma	-10.4479
▁Özerk	-10.4481
▁matematik	-10.4486
▁albümüdür	-10.4489
kent	-10.4492
▁Tarım	-10.4496
▁şimdi	-10.4497
mal	-10.4502
ben	-10.4504
tion	-10.4508
▁valisi	-10.451
▁takımda	-10.4511
▁deri	-10.4511
▁taşıma	-10.4512
Ca	-10.4513
▁tanıştı	-10.4514
dra	-10.4517
aş	-10.4518
▁sayfa	-10.4525
tay	-10.4526
▁Kanal	-10.4528
üm	-10.4531
▁kuşatma	-10.4532
▁senaryo	-10.4533
▁özerk	-10.4534
▁Yukarı	-10.4536
Da	-10.4537
▁potansiyel	-10.4537
▁birim	-10.4538
▁karşıtı	-10.4541
▁kal	-10.4544
▁fikri	-10.4549
▁mezar	-10.455
▁Yaklaşık	-10.455
▁girer	-10.4556
▁hapis	-10.4559
▁halen	-10.4561
▁mezunudur	-10.4563
▁varlığını	-10.4563
▁AB	-10.4565
▁değişim	-10.4565
▁düşen	-10.457
▁kapı	-10.4571
▁makine	-10.4574
▁39	-10.4574
▁2002'	-10.4578
▁King	-10.4583
ić	-10.4585
▁komutasındaki	-10.4586
▁olacağını	-10.4593
▁zafer	-10.4595
▁Et	-10.4597
▁Jersey	-10.4597
▁1953	-10.4598
▁öğretmen	-10.4599
▁üyeliği	-10.46
▁Mary	-10.4601
▁Asyalı	-10.4605
▁işgali	-10.4606
sey	-10.4606
▁İskoçya	-10.4608
▁Münih	-10.4608
▁bağış	-10.462
▁2003'	-10.4623
▁kış	-10.463
▁Ailesi	-10.4635
▁oluşturmaktadır	-10.4637
▁Mah	-10.4638
▁Ala	-10.4639
▁gen	-10.464
Ke	-10.4645
▁karşıya	-10.4646
▁dişi	-10.4648
▁halkının	-10.4648
▁Karolina	-10.465
Konstantinopolis	-10.4652
ə	-10.4652
kor	-10.4659
▁çeken	-10.466
▁ölen	-10.4662
▁1999'	-10.467
▁bit	-10.4671
▁karbon	-10.468
▁olası	-10.468
▁hizmete	-10.4683
wood	-10.4686
Man	-10.4688
▁kazan	-10.4695
▁görme	-10.4695
▁şehirler	-10.4696
▁Sadece	-10.4698
Ko	-10.4698
▁Kongre	-10.4701
▁değişken	-10.4702
▁konum	-10.4708
tti	-10.4709
▁Kanunu	-10.471
▁Nobel	-10.4713
▁sağlamıştır	-10.4713
▁Ülke	-10.4716
▁Emir	-10.4716
▁getirir	-10.4716
▁Günü	-10.4717
4'	-10.4718
▁12.	-10.4718
▁gösterime	-10.4721
▁İmparatoru	-10.4722
lek	-10.4727
▁1930'	-10.4727
▁konuda	-10.4735
▁şampiyonluk	-10.4738
ica	-10.4744
▁organize	-10.4745
▁Air	-10.4746
▁(17	-10.475
tri	-10.475
▁Nokia	-10.4752
Ho	-10.4753
▁denge	-10.4755
▁Tokat	-10.4755
▁Je	-10.4758
nos	-10.476
▁başlanmıştır	-10.4761
6'	-10.4762
▁mil	-10.4765
vet	-10.4766
▁makale	-10.4767
▁Finali	-10.4767
▁imparatorluk	-10.4767
Vi	-10.4768
▁Green	-10.4769
rik	-10.4774
ier	-10.4775
gon	-10.4775
▁Brown	-10.4775
ğını	-10.4776
▁Grubun	-10.4777
▁tablo	-10.4782
ise	-10.4783
bert	-10.4785
▁değiştirildi	-10.4785
lip	-10.4789
▁hal	-10.479
▁yaklaşım	-10.479
="13	-10.4791
▁savaşa	-10.4792
▁aylık	-10.4793
tma	-10.4797
▁ağı	-10.4802
▁yükselen	-10.4803
Lo	-10.4805
▁terim	-10.4811
▁uygulamaları	-10.4811
▁tanesi	-10.4812
Mar	-10.4817
▁ilçedir	-10.4821
▁eyaletinin	-10.4825
▁Mezarlığı	-10.4827
▁içeriği	-10.483
▁kurum	-10.4834
▁boyutlu	-10.4837
▁•	-10.4843
▁Yarışma	-10.4845
▁gereği	-10.4846
▁play	-10.4847
▁sundu	-10.4849
▁v	-10.4853
▁Mahallenin	-10.4858
▁Alexander	-10.486
▁vererek	-10.4864
▁1952	-10.4865
▁yarım	-10.4866
▁ligde	-10.4866
▁1920	-10.4866
Avrupa	-10.487
▁dakikada	-10.487
▁1942	-10.4876
Türkçe	-10.4877
▁programında	-10.488
▁doktor	-10.4881
▁özellik	-10.4883
▁1940	-10.4884
dis	-10.4888
▁2021'	-10.4893
▁tayin	-10.4893
▁Kol	-10.4894
▁FA	-10.4897
▁akıl	-10.4899
hal	-10.4903
▁disk	-10.4906
▁Kaynakça	-10.4911
layıcı	-10.4915
▁kökeni	-10.4918
▁servis	-10.4922
▁Company	-10.4924
▁1920'	-10.4924
Pa	-10.493
▁ülkelerin	-10.493
▁Super	-10.4932
▁hesap	-10.4933
▁başladılar	-10.4934
▁Devletler	-10.4941
▁ertesi	-10.4947
-16	-10.495
▁Ham	-10.495
▁düzeyde	-10.495
▁güven	-10.4952
▁Yarımadası	-10.4954
ora	-10.4957
▁turizm	-10.4958
ella	-10.4959
pen	-10.4959
▁yaşındaki	-10.496
San	-10.496
▁ondan	-10.496
▁yanıt	-10.4965
▁ağırlıklı	-10.4969
▁Hastanesi	-10.4972
▁Lübnan	-10.4972
ray	-10.4973
▁tatlı	-10.4973
▁oyunun	-10.4977
▁savaşta	-10.4978
▁albümünü	-10.4979
▁yönetiminde	-10.4981
▁düzenlendi	-10.4983
▁Trabzonspor	-10.4984
tek	-10.4987
▁“"	-10.499
▁olsun	-10.499
▁familyasından	-10.499
▁1000	-10.4991
▁mimar	-10.4991
▁uyar	-10.4993
▁onunla	-10.4997
bay	-10.5
▁reddetti	-10.5006
="1"	-10.5018
▁grupları	-10.5019
▁ayrılan	-10.5019
▁şiddetli	-10.5019
▁açı	-10.5022
▁çatışma	-10.5023
▁sahil	-10.5024
▁International	-10.5025
Kar	-10.5026
=8	-10.5028
▁faaliyetleri	-10.5029
▁Erdoğan	-10.5031
▁etmeyi	-10.5033
▁yatırım	-10.5039
▁ikna	-10.5043
eddin	-10.5047
▁arasındadır	-10.505
▁Yapı	-10.5052
▁Florida	-10.5057
dor	-10.5057
age	-10.5059
▁san	-10.5061
▁Bilgi	-10.5064
▁Millet	-10.5065
▁çıkma	-10.5071
▁Temel	-10.5073
▁boz	-10.5076
▁üste	-10.5078
ting	-10.5078
▁kolu	-10.5082
▁edilerek	-10.5083
▁hepsi	-10.5087
▁Hırvatistan	-10.5091
▁Gaziantep	-10.5092
▁bireysel	-10.5093
▁Chris	-10.5095
▁seçilmiş	-10.5097
Ya	-10.5098
mur	-10.5098
▁Sanatlar	-10.5098
▁anılan	-10.51
▁büyüme	-10.5101
ón	-10.5102
▁yangın	-10.5102
ph	-10.5107
-15	-10.5108
▁adamları	-10.5108
landığı	-10.512
mb	-10.5121
▁alıp	-10.5125
▁Royal	-10.5129
istan	-10.513
▁doğrultusunda	-10.5132
▁yağış	-10.5133
▁süreli	-10.5135
▁bomba	-10.5137
▁sonuçlar	-10.5139
▁antlaşma	-10.5139
▁alana	-10.514
▁hayata	-10.5142
▁1958	-10.5143
▁Arabistan	-10.5144
▁Üyeliği	-10.515
iki	-10.5154
▁olmuştu	-10.5155
▁Yardımcısı	-10.516
▁resmen	-10.5162
▁alınarak	-10.5162
▁öykü	-10.5164
likleri	-10.5167
▁1992'	-10.5168
▁kalıcı	-10.5171
▁forvet	-10.5172
▁süt	-10.5177
▁İnternet	-10.5179
▁bırakıldı	-10.518
lamıştır	-10.5181
▁Kum	-10.5184
ilen	-10.5184
▁Yıl	-10.5187
tter	-10.5193
);	-10.5198
▁değişen	-10.5199
▁Okyanusu	-10.52
▁Allah	-10.5202
▁kısaca	-10.5202
▁Yıldırım	-10.5205
Billboard	-10.5207
▁52	-10.521
▁duruma	-10.521
▁Big	-10.5212
▁Has	-10.5213
sis	-10.5214
▁firması	-10.5215
SS	-10.5218
▁şirketin	-10.5226
▁Çorum	-10.5227
abilecek	-10.5229
▁Gen	-10.5232
los	-10.5235
-17	-10.5238
▁yoğunluğu	-10.5241
▁geliştirilmesi	-10.5242
▁vermeye	-10.5243
▁Chicago	-10.5245
▁Sin	-10.5248
▁süreç	-10.525
▁(1	-10.525
▁Android	-10.5251
▁binlerce	-10.5251
tif	-10.5252
rek	-10.5253
ıdır	-10.5253
▁bilgileri	-10.5256
oid	-10.5258
▁politikacı	-10.5263
well	-10.5267
▁uzunluğunda	-10.5267
▁kere	-10.5271
▁ayrılarak	-10.5271
leştirme	-10.5274
▁Dağ	-10.5275
▁Türkler	-10.5277
▁belirtir	-10.5277
▁Malatya	-10.5277
▁hayal	-10.528
č	-10.528
▁EP	-10.528
▁üstün	-10.5283
ecektir	-10.5288
gil	-10.529
▁sınırı	-10.5297
▁Stalin	-10.5298
▁miktarı	-10.5298
süz	-10.53
▁açıkça	-10.5301
▁döner	-10.5304
▁ayrım	-10.5305
▁Jones	-10.5306
kte	-10.5311
▁birimleri	-10.5311
▁yerleşti	-10.5312
▁bakan	-10.5315
▁sıradan	-10.5319
Her	-10.5321
aç	-10.5323
▁Siyasi	-10.5324
▁kalıntıları	-10.5326
▁sürü	-10.5326
masına	-10.5327
▁kullanıldığı	-10.5331
▁basınç	-10.5337
▁oranda	-10.5338
-10	-10.5339
▁em	-10.5339
▁ağırlık	-10.5341
▁kısım	-10.5344
▁ke	-10.5344
▁li	-10.5344
▁(16	-10.5345
cy	-10.5345
▁Pre	-10.5347
▁isteği	-10.5352
yn	-10.5356
▁ortalarında	-10.5359
▁Vietnam	-10.5365
▁sayede	-10.5366
mm	-10.5371
▁mahkûm	-10.5375
_2	-10.5377
▁1939	-10.5379
▁algı	-10.538
lanabilir	-10.5381
▁43	-10.5382
ium	-10.5383
▁Çeşitli	-10.5384
▁41	-10.5384
▁44	-10.5389
lerindeki	-10.5393
▁şehrinin	-10.5394
▁ters	-10.5396
▁parçasıdır	-10.5397
ow	-10.5399
▁Koruma	-10.54
▁Au	-10.5402
▁insanı	-10.5404
▁1998'	-10.5406
▁Premier	-10.5406
▁ç	-10.5408
▁nehir	-10.5412
▁kanalında	-10.5413
▁Cem	-10.5419
▁gerilim	-10.542
▁birini	-10.5423
▁Sonuç	-10.5425
▁Che	-10.5426
▁düzen	-10.5429
▁zorunlu	-10.5431
▁National	-10.5435
▁gücünü	-10.5435
▁47	-10.5442
▁per	-10.5443
▁geçmişi	-10.545
tta	-10.5451
▁1935	-10.5455
▁krizi	-10.5455
alan	-10.5459
▁açılmıştır	-10.5466
▁albümde	-10.5467
▁Listesi	-10.547
▁1918	-10.5473
İstanbul	-10.5473
▁1947	-10.5478
▁Turu	-10.5478
ınca	-10.5482
▁toplu	-10.5483
▁Pasifik	-10.5484
▁görünür	-10.5487
ika	-10.5487
▁Ulu	-10.5489
con	-10.5491
▁cephe	-10.5492
ria	-10.5494
▁Of	-10.5495
▁1949	-10.5497
▁Bölgesel	-10.5497
▁klibi	-10.5497
▁değişiklikler	-10.5498
▁genetik	-10.5504
ıyla	-10.5504
▁dir	-10.5506
▁erişim	-10.5508
masını	-10.5511
Ge	-10.5514
▁rekabet	-10.5515
▁hizmetleri	-10.5518
▁maddeler	-10.5519
laş	-10.5523
mik	-10.5534
▁katılımcı	-10.5536
▁Liga	-10.5538
▁gönüllü	-10.5539
▁parlamento	-10.5544
▁cihaz	-10.5544
▁Altay	-10.5545
▁bulur	-10.5546
▁tekli	-10.5547
▁Ceza	-10.5552
▁kuvveti	-10.5553
▁tarihindeki	-10.5556
▁War	-10.5557
▁Bağdat	-10.5559
▁rakibi	-10.5562
▁cumhurbaşkanı	-10.5562
▁isimleri	-10.5563
▁sosyalist	-10.5565
▁2001'	-10.5565
▁amaç	-10.5567
▁söylemiştir	-10.5567
ens	-10.5568
▁yaşama	-10.5568
▁zamana	-10.5568
▁giymektedir	-10.5569
"”	-10.557
▁bildirdi	-10.557
▁bilimi	-10.5571
▁pozitif	-10.5574
▁Halil	-10.5577
▁amatör	-10.5578
▁belgesel	-10.558
▁Hay	-10.5582
ile	-10.5583
▁Mahmud	-10.5583
▁ilaç	-10.5584
jan	-10.5588
▁ödeme	-10.5589
▁alınması	-10.5589
▁kapsamlı	-10.559
tör	-10.559
▁maçın	-10.5591
▁Kupa	-10.5592
▁Rusça	-10.5597
▁sesi	-10.5601
▁harekete	-10.5604
▁partisi	-10.5605
▁askerleri	-10.5607
lâ	-10.5608
▁yüzyıldan	-10.5614
▁temas	-10.562
▁1951	-10.5621
▁Anti	-10.5622
▁ürünler	-10.5627
▁çalışmaktadır	-10.5634
▁DVD	-10.5639
▁Moğol	-10.5639
▁örnekleri	-10.5639
▁kahraman	-10.5644
▁46	-10.5646
▁süreçte	-10.5647
port	-10.565
mışlardır	-10.5651
▁Scott	-10.5652
▁konuşan	-10.5652
▁sitesi	-10.5654
▁Hat	-10.5655
▁kadro	-10.5658
▁Suudi	-10.5661
▁Fas	-10.5665
▁şansı	-10.5668
▁Mil	-10.5669
▁arttı	-10.5672
▁teori	-10.5674
▁mektup	-10.5675
ita	-10.5676
▁meydan	-10.5678
▁Orman	-10.5679
▁kimlik	-10.5684
▁Ker	-10.5684
▁protesto	-10.5685
▁par	-10.5692
▁Fen	-10.5698
▁bulmak	-10.5699
▁kurulması	-10.5701
▁grafik	-10.5705
▁yapılacak	-10.5705
и	-10.5706
▁görülebilir	-10.5711
▁Şanlıurfa	-10.5711
▁gök	-10.5712
▁Simon	-10.5715
muştur	-10.5718
ish	-10.5719
▁diş	-10.572
▁kimi	-10.572
aklı	-10.5723
ary	-10.5725
mit	-10.5729
▁Şarkının	-10.5729
Cumhurbaşkanlığı	-10.5732
ello	-10.5734
▁bağımsızlığını	-10.5736
9'	-10.5736
▁Birlik	-10.5737
▁tarihine	-10.575
▁ha	-10.5752
▁yüksekliği	-10.5754
Jo	-10.5755
▁anlaşması	-10.5769
of	-10.577
▁yönetici	-10.5772
▁Yaşam	-10.5774
▁sap	-10.5774
▁1930	-10.5777
▁Geç	-10.5781
▁ikiye	-10.5781
ket	-10.5784
▁pay	-10.5784
▁seviye	-10.5787
▁senarist	-10.579
▁Grammy	-10.5797
olog	-10.5801
▁İmparatorluk	-10.5802
▁Dönemi	-10.5805
▁emir	-10.5805
est	-10.5809
şan	-10.5809
▁otel	-10.581
▁kullanmak	-10.581
▁Kuş	-10.5812
ılan	-10.5815
gg	-10.5816
▁1997'	-10.5818
eği	-10.5818
▁Cami	-10.5821
▁cezası	-10.5824
rem	-10.5827
fo	-10.583
▁suikast	-10.5832
▁Slav	-10.5832
▁anlatan	-10.5835
▁sıkı	-10.5839
mil	-10.5842
▁yakınlarındaki	-10.5842
▁birbirinden	-10.5843
▁Pazar	-10.5844
▁şeyi	-10.5844
▁vermiş	-10.5844
Ay	-10.585
▁yöntemleri	-10.585
▁Klasik	-10.5851
Ben	-10.5852
▁biçiminde	-10.5853
▁özgür	-10.5855
▁ilerleyen	-10.5857
sun	-10.586
▁mahkeme	-10.5865
▁Rio	-10.5873
▁düzenleme	-10.5874
▁tank	-10.5876
▁Koç	-10.5876
▁bağımsızlık	-10.5877
af	-10.5877
▁köyde	-10.5879
cher	-10.5882
▁hep	-10.5884
hl	-10.5886
sak	-10.5886
kol	-10.5887
▁Donanması	-10.5889
sha	-10.5891
Po	-10.5892
lendirme	-10.5893
lit	-10.5897
▁partinin	-10.5897
Pe	-10.5898
▁üstlenmiştir	-10.591
▁suçlu	-10.591
▁müzikal	-10.591
▁l	-10.5911
▁Erzincan	-10.5915
▁1936	-10.5918
▁VI	-10.5923
Ja	-10.5927
larındaki	-10.5934
▁İskender	-10.5934
▁temiz	-10.5936
▁gerekçesiyle	-10.5937
▁geliştirilmiş	-10.5941
kes	-10.5942
▁olmasından	-10.5943
▁Friedrich	-10.5945
▁görüşü	-10.5946
▁besin	-10.5946
Fi	-10.5947
▁sak	-10.5948
▁maçları	-10.5954
acağı	-10.5956
▁başlangıç	-10.5957
▁h	-10.5958
▁kemer	-10.5958
nis	-10.5964
▁iz	-10.5964
üs	-10.5967
▁gelişimi	-10.5972
▁animasyon	-10.5977
▁olacağı	-10.5982
▁elektron	-10.5985
▁canlandırdığı	-10.5986
way	-10.5986
▁eylem	-10.5988
ari	-10.5989
▁Mars	-10.5991
-4	-10.5991
▁net	-10.6002
▁güncel	-10.6002
şehir	-10.6004
▁Aşk	-10.6006
▁bi	-10.6006
▁Göl	-10.6008
▁Başka	-10.6011
▁Kilise	-10.6014
▁Hoca	-10.6016
▁karşılıklı	-10.6016
▁1991'	-10.6016
ر	-10.6016
▁Seferi	-10.6017
tos	-10.6022
▁gösterilen	-10.6023
▁Kalkınma	-10.6025
▁kay	-10.6026
▁geldiğinde	-10.6035
▁Şili	-10.6041
▁zırhlı	-10.6041
ich	-10.6046
▁soru	-10.6046
▁politikası	-10.6047
▁oldular	-10.605
▁tekniği	-10.6051
▁örneği	-10.6051
▁karanlık	-10.6053
▁kişiye	-10.6054
▁pi	-10.6059
▁Day	-10.606
▁alkol	-10.6061
▁bulunuyordu	-10.6063
▁Buffy	-10.6064
▁Shi	-10.6065
ih	-10.6065
▁Okul	-10.6072
▁Francisco	-10.608
▁anayasa	-10.6082
▁sendromu	-10.6085
▁komünist	-10.6088
ns	-10.6088
▁Cam	-10.6092
▁sonlarına	-10.6092
▁çıkması	-10.6097
▁57	-10.6102
kel	-10.6103
▁1923	-10.6103
xi	-10.6105
▁Televizyon	-10.6105
▁ayar	-10.6105
▁puanla	-10.6107
▁bayrak	-10.6109
▁yakınında	-10.6109
▁tanı	-10.6115
liğine	-10.612
▁Belarus	-10.6121
▁ahşap	-10.6124
▁modelleri	-10.6127
▁atmıştır	-10.6131
OS	-10.6133
▁ilçesinin	-10.6134
▁eğlence	-10.6139
ılır	-10.614
row	-10.614
▁Col	-10.614
ds	-10.6145
▁hükümet	-10.6146
▁uçağı	-10.615
▁hata	-10.615
▁Mardin	-10.6152
Pro	-10.6154
▁OS	-10.6156
▁Bil	-10.6161
ct	-10.6163
▁meslek	-10.6163
▁Caddesi	-10.6164
▁ihtiyacı	-10.6166
▁54	-10.6166
▁İçişleri	-10.6166
▁albümünde	-10.6167
yal	-10.6167
▁ücretsiz	-10.6167
sıdır	-10.6168
▁yağmur	-10.6168
▁Üst	-10.6168
leyerek	-10.6174
▁usta	-10.6175
▁—	-10.6178
▁Saat	-10.6181
▁Şen	-10.6182
ub	-10.6183
▁Ekonomik	-10.6185
▁NATO	-10.6188
▁yazma	-10.6191
▁ün	-10.6194
▁buzul	-10.6195
▁hikâyesi	-10.6195
▁1924	-10.6196
û	-10.6196
bus	-10.6196
▁derecesi	-10.6197
▁dikkate	-10.6199
▁Gazete	-10.6204
▁y	-10.6207
▁getirdiği	-10.6212
▁sorgu	-10.6213
lus	-10.6215
▁dayanmaktadır	-10.6219
▁sonraları	-10.6221
▁yaparken	-10.6223
ses	-10.6224
▁sistemin	-10.6225
▁am	-10.6228
Ali	-10.6228
▁avukat	-10.6229
emi	-10.6236
▁istasyonu	-10.6244
dos	-10.6246
▁gazetesi	-10.6246
▁yerleri	-10.6246
ight	-10.6246
▁albümünün	-10.6249
mesine	-10.6253
▁dayanır	-10.6255
▁kullanılmaya	-10.6256
▁çeyrek	-10.6257
▁eleştiriler	-10.6258
▁yedinci	-10.6258
▁1-0	-10.626
▁vali	-10.6261
▁geçiren	-10.6261
org	-10.6262
-5	-10.6263
▁Il	-10.6266
▁şüphe	-10.6267
▁araçlar	-10.6267
▁verimli	-10.6267
▁gezegen	-10.6269
▁biçimi	-10.6276
▁sürgün	-10.628
▁Ken	-10.6282
▁yapması	-10.6286
▁ba	-10.6288
▁Çalışma	-10.6289
▁motoru	-10.629
▁Seri	-10.6291
▁girişimi	-10.6291
▁dönüştü	-10.6292
leştirilmiş	-10.6292
ib	-10.6292
▁kafa	-10.6296
Bar	-10.6299
▁atom	-10.6305
▁hali	-10.6306
acağını	-10.6306
▁Timur	-10.6309
gün	-10.631
▁orkestra	-10.6312
▁BBC	-10.6312
▁tutuklandı	-10.6317
▁düzenledi	-10.6317
▁1938	-10.6319
▁deneme	-10.6321
▁hit	-10.6322
▁topluluk	-10.6322
▁ata	-10.6324
▁Seçim	-10.6325
amaz	-10.6328
eb	-10.6329
▁kaybı	-10.6331
ori	-10.6332
▁ittifak	-10.6333
▁mekanik	-10.6333
▁ekonomisi	-10.6335
▁Estonya	-10.6336
▁Artvin	-10.6336
▁Aslan	-10.6337
▁okyanus	-10.634
▁etkinliği	-10.6344
▁anıt	-10.6347
▁kaleci	-10.6347
▁sorunu	-10.6348
▁kuramı	-10.6351
▁töreni	-10.6352
▁mekan	-10.6354
▁yaşta	-10.6354
▁yüzyıla	-10.6356
▁terfi	-10.6357
▁Parlamentosu	-10.6358
▁olmaması	-10.6358
▁Afrikan	-10.6359
▁rakip	-10.6361
▁oluşturdu	-10.6361
▁bellek	-10.6366
="12	-10.6367
▁Birkaç	-10.6368
▁düşer	-10.6372
▁Un	-10.6373
▁yolları	-10.6378
▁sıralama	-10.6378
▁mali	-10.6381
▁Kendisi	-10.6382
▁geçtiği	-10.6383
▁1933	-10.6386
▁(15	-10.6387
ite	-10.6391
▁Kazan	-10.6393
▁Yozgat	-10.6395
Or	-10.6395
▁Nor	-10.6397
▁Polis	-10.6399
çü	-10.6401
örneğin	-10.6405
▁turu	-10.6405
▁posta	-10.6405
set	-10.6408
▁1996'	-10.6409
▁Hill	-10.641
▁çekirdek	-10.6413
▁kurma	-10.6416
▁Gece	-10.6417
▁finalinde	-10.6419
▁kırsal	-10.6421
mekte	-10.6423
▁Vo	-10.6425
▁Annesi	-10.6426
abad	-10.6426
▁kadrosunda	-10.6428
laştırma	-10.6429
▁değin	-10.6432
▁salonu	-10.6433
▁bol	-10.6437
▁Rize	-10.644
▁Alaska	-10.6443
▁Hareketi	-10.6446
▁girdiği	-10.6446
▁üstlendiği	-10.6449
ktaydı	-10.6451
▁çıkarak	-10.6453
▁keşif	-10.6456
▁kupa	-10.6459
▁Life	-10.6461
▁piyade	-10.6462
▁kemik	-10.6467
▁birlik	-10.6468
▁cins	-10.647
▁hedefi	-10.6472
zon	-10.6473
▁Dal	-10.6478
▁yaşar	-10.6478
▁Serbest	-10.6478
▁icra	-10.6479
▁evi	-10.648
ë	-10.648
▁çağ	-10.6485
▁akıllı	-10.6486
▁yöneticisi	-10.6491
▁Aile	-10.6492
rus	-10.6493
▁Kamu	-10.6495
▁oluşuyordu	-10.65
▁Hazar	-10.6501
▁kıyasla	-10.6501
▁meclisi	-10.6504
▁tak	-10.6504
▁ülkeleri	-10.6509
ato	-10.651
▁May	-10.6511
▁Ağ	-10.6512
▁Koca	-10.6512
▁Sho	-10.6514
ona	-10.6516
▁kalabalık	-10.6519
▁Sanatçı	-10.652
dem	-10.6525
▁hayvanlar	-10.6525
vel	-10.6525
▁dönme	-10.6526
▁kazanmış	-10.6527
▁banka	-10.6531
▁Nar	-10.6532
▁eyaletine	-10.6533
▁Konferansı	-10.6534
▁Başlangıçta	-10.6536
▁Gaz	-10.654
=20	-10.6545
▁yön	-10.6545
▁rolüyle	-10.6553
▁anlam	-10.6553
▁heykel	-10.6557
▁gelerek	-10.656
▁alfabesi	-10.6561
▁Savaşları	-10.6564
▁uyum	-10.6568
▁olabileceği	-10.6569
▁Atletizm	-10.657
▁1940'	-10.657
▁ediyordu	-10.6571
▁önemlidir	-10.6573
▁belirtmiştir	-10.6574
▁diğerleri	-10.6575
▁denk	-10.6576
▁2-1	-10.6576
▁Milletvekilliği	-10.6577
▁Dor	-10.6578
▁önlemek	-10.6579
▁Elizabeth	-10.658
▁bölümler	-10.6581
▁Muğla	-10.6582
▁analizi	-10.6583
▁kaynaklar	-10.6584
▁tanım	-10.6588
▁Halep	-10.6589
▁ismiyle	-10.6589
▁turnuva	-10.6589
▁kanser	-10.6589
mes	-10.659
▁sahneye	-10.659
▁dizide	-10.6591
▁Yakın	-10.6592
▁56	-10.6592
▁görevlisi	-10.6592
▁ulaşmıştır	-10.6593
istik	-10.6594
lendirilmiştir	-10.6596
▁kazı	-10.6596
▁Yolu	-10.6597
▁işleri	-10.6598
▁kıta	-10.6599
▁kök	-10.66
▁önemi	-10.6601
▁Hor	-10.6601
▁testi	-10.6602
▁Boz	-10.6608
▁teklifi	-10.6609
▁eleştiri	-10.661
▁Formula	-10.6612
Har	-10.6621
▁Göz	-10.6624
▁zamanlı	-10.6625
▁arkasında	-10.6625
▁serisinin	-10.663
▁tanındı	-10.6631
▁olmasıdır	-10.6632
mos	-10.6635
▁aşı	-10.6636
▁1919	-10.664
▁Çevre	-10.6646
▁1921	-10.6646
▁geriye	-10.6647
▁oyuna	-10.6647
▁1922	-10.6651
▁(%	-10.6651
lla	-10.6652
▁girmiş	-10.6652
▁olursa	-10.6659
uç	-10.6662
▁Mir	-10.6664
▁72	-10.6665
▁topu	-10.6669
▁gerektiği	-10.6672
▁Zo	-10.6672
▁Tre	-10.6673
▁çocuklar	-10.6674
pol	-10.6676
▁topraklarına	-10.6676
▁protein	-10.6679
▁tanımı	-10.668
▁Pas	-10.6681
▁kentin	-10.6685
tsu	-10.6686
▁okuma	-10.6687
▁Young	-10.6689
▁49	-10.6689
▁Küre	-10.6689
▁has	-10.6691
▁Hareket	-10.6693
▁müdürü	-10.6695
Dünya	-10.6696
▁olmayı	-10.6697
▁Stone	-10.6697
▁Hükümeti	-10.6698
▁120	-10.6701
hr	-10.6701
▁gelindiğinde	-10.6702
▁kariyerini	-10.6704
▁kaba	-10.6704
▁asla	-10.6708
▁filminin	-10.6709
▁ülkeye	-10.6712
=25	-10.6713
▁hidrojen	-10.6715
▁bo	-10.6716
▁sunuldu	-10.6718
▁yukarı	-10.6722
▁White	-10.6725
▁Kişisel	-10.6728
▁kimse	-10.6734
▁tabi	-10.6735
▁Denizli	-10.6748
▁gelişim	-10.6748
▁ortam	-10.6752
▁bölgeyi	-10.6752
▁dahi	-10.6753
▁Mont	-10.6758
▁yıldızı	-10.6759
▁nispeten	-10.6761
▁uygulanan	-10.6766
▁UNESCO	-10.6772
sil	-10.6774
▁gelmesi	-10.6777
ucu	-10.6778
▁Sicilya	-10.678
▁geliştirdi	-10.6781
▁anılır	-10.6783
cumhurbaşkanlığı	-10.6785
▁vurgu	-10.6791
▁es	-10.6792
▁konuş	-10.6794
▁Vali	-10.6796
▁alanlarında	-10.6798
ê	-10.6799
▁1934	-10.6801
▁Ash	-10.6803
eg	-10.6803
▁Oscar	-10.6805
▁getirilmiştir	-10.6808
▁Masa	-10.6808
▁getirmiştir	-10.6808
▁53	-10.6809
=10	-10.6811
▁Tren	-10.6814
kle	-10.6814
oviç	-10.6814
▁1925	-10.6816
▁yenilgi	-10.6818
▁sistemine	-10.6819
▁general	-10.682
▁bağlantılı	-10.6821
▁katılım	-10.6821
makta	-10.6831
▁1927	-10.6833
▁CHP	-10.6834
line	-10.6836
▁açar	-10.6837
sim	-10.6841
▁ettikleri	-10.6845
▁sağlam	-10.6847
▁Say	-10.6849
nt	-10.6853
▁pa	-10.6855
▁Miss	-10.686
▁başrol	-10.6866
▁daire	-10.6867
▁Teknoloji	-10.6867
▁inceleme	-10.6871
▁İstasyonu	-10.6872
▁etkiler	-10.6876
▁zamanı	-10.6882
▁Bin	-10.6883
bor	-10.6885
▁üyelerinin	-10.6886
▁günümüz	-10.689
cus	-10.6893
▁Plan	-10.6896
cer	-10.6897
oma	-10.6897
my	-10.6899
▁kadının	-10.6903
▁olduklarını	-10.6905
New	-10.6905
▁Yahudiler	-10.6906
▁hükümdarı	-10.6908
▁kamp	-10.6911
▁yönde	-10.6911
▁sanatı	-10.6912
▁kuantum	-10.6917
▁1945'	-10.6918
▁Tak	-10.6918
▁Çi	-10.692
▁değiştirme	-10.6924
▁enerjisi	-10.6926
▁sorunlar	-10.6928
▁yıldır	-10.693
▁numarası	-10.6931
▁yayımlanmıştır	-10.6932
▁şarkısıyla	-10.6932
▁Köprüsü	-10.6938
Ga	-10.6939
▁Lord	-10.6944
▁ci	-10.6945
Farsça	-10.6945
ula	-10.6946
▁toplanan	-10.6947
▁arasından	-10.6947
era	-10.6953
▁edici	-10.6956
dizi	-10.6956
▁Kat	-10.6957
▁15.	-10.6957
▁yoktu	-10.6958
▁Bak	-10.6958
▁Seçimleri	-10.6959
▁co	-10.6959
è	-10.6962
▁maddi	-10.6962
▁çiçek	-10.6962
▁uzman	-10.6963
▁birbirlerine	-10.6963
▁çekim	-10.6966
gur	-10.6967
▁cilt	-10.6969
hem	-10.697
▁eşcinsel	-10.6971
eh	-10.6973
▁Program	-10.6974
▁vi	-10.6975
▁dışına	-10.6976
▁Ses	-10.6977
▁değişimi	-10.6977
▁tıbbi	-10.698
▁nadir	-10.698
▁Ford	-10.6989
р	-10.6993
▁sokak	-10.6993
▁Yasası	-10.6995
▁Mus	-10.6996
▁verilerine	-10.6997
▁siyasal	-10.6997
▁nüfuslu	-10.6999
ring	-10.7
gue	-10.7
▁sunucu	-10.7
▁Öte	-10.7002
sto	-10.7007
cia	-10.701
▁Farsça	-10.7011
▁Pir	-10.7011
▁Gri	-10.7011
▁miktar	-10.7013
▁çekilmiştir	-10.7014
▁değiştirdi	-10.7015
▁Motor	-10.7015
▁Resmi	-10.7017
▁sayıları	-10.702
▁diğeri	-10.7024
▁değişir	-10.7028
▁görevinde	-10.7029
▁Bell	-10.7029
▁maddesi	-10.7032
lığına	-10.7037
▁türler	-10.7038
▁Yönetimi	-10.7039
og	-10.7039
▁Maine	-10.704
▁Web	-10.7041
▁Kong	-10.7042
▁oyunlar	-10.7044
▁saniye	-10.7044
acaktır	-10.7045
rie	-10.7045
lenmiştir	-10.7046
▁gri	-10.7049
ure	-10.7054
ân	-10.7055
▁başvuru	-10.7055
▁site	-10.7061
▁bulunmuş	-10.7063
▁Mimar	-10.7064
▁piyano	-10.7065
▁Gal	-10.7066
▁Em	-10.7067
▁noktada	-10.7069
▁roket	-10.707
▁yerleşme	-10.7071
▁yazıları	-10.7071
▁askerler	-10.7073
▁kilisesi	-10.7076
▁51	-10.7079
▁uğradı	-10.7079
▁kolayca	-10.708
▁tasarlanmış	-10.7081
▁FK	-10.7084
▁sistemini	-10.7084
▁des	-10.7084
nas	-10.7085
ms	-10.7088
▁Port	-10.7088
▁Kanun	-10.709
▁Şahin	-10.7092
▁kum	-10.7094
lediği	-10.7096
▁Brezilyalı	-10.7097
▁Karabağ	-10.7099
▁başbakan	-10.7103
▁She	-10.7104
▁kurmak	-10.7105
stan	-10.7109
▁mühendisliği	-10.7111
fen	-10.7114
▁çıkarılan	-10.7115
▁kocası	-10.7117
▁diplomatik	-10.712
▁1937	-10.712
▁Malta	-10.7121
▁direniş	-10.7122
▁güvenli	-10.7125
▁Bob	-10.7131
▁farkı	-10.7132
dikleri	-10.7132
gı	-10.7134
▁koydu	-10.7136
▁adları	-10.7138
▁subay	-10.7139
▁ideal	-10.714
▁Mahmut	-10.7141
▁biyolojik	-10.7145
▁bölgesinden	-10.7149
▁Cezayir	-10.7152
▁ufak	-10.7154
daş	-10.7155
▁kitapları	-10.7155
▁Prusya	-10.7158
▁bilgisi	-10.716
▁tamamlamıştır	-10.7162
▁1995'	-10.7162
yl	-10.7163
▁oksijen	-10.7164
kh	-10.7165
▁milli	-10.7165
▁Parlamento	-10.7167
▁vatandaşı	-10.717
="289	-10.7171
mesini	-10.7173
▁Kel	-10.7173
iler	-10.7173
MS	-10.7177
▁belirlenmiştir	-10.7177
▁döneminin	-10.7178
▁araçları	-10.7181
▁ayrılmış	-10.7186
▁Selanik	-10.7186
▁demokrasi	-10.7189
mel	-10.7193
▁Endonezya	-10.7198
▁Johnson	-10.7201
▁Leon	-10.7201
avi	-10.7202
▁Sim	-10.7202
▁açılış	-10.7204
▁Gür	-10.7207
▁konumu	-10.7208
▁Bad	-10.7209
▁eserinde	-10.7209
▁futbolu	-10.7215
▁Group	-10.7219
▁buraya	-10.7222
▁1993'	-10.7224
▁Kahramanmaraş	-10.7231
▁alanlar	-10.7232
▁açan	-10.7234
▁üstüne	-10.7237
▁yapay	-10.7237
▁Ülkenin	-10.7237
▁Koreli	-10.7239
▁58	-10.724
▁sonuçlandı	-10.7241
▁dizisinin	-10.7244
▁düzeni	-10.7245
kü	-10.7245
▁hâlâ	-10.7247
▁günde	-10.7248
°	-10.725
▁ölçü	-10.7255
▁bağlantısı	-10.7256
▁Holding	-10.7258
▁tuz	-10.7259
sur	-10.726
▁direktörü	-10.7264
▁takımıyla	-10.7265
▁Times	-10.7266
▁frekans	-10.7266
2)	-10.7266
ex	-10.7271
▁Metin	-10.7273
▁kadrosuna	-10.7274
raf	-10.7281
▁kategorisinde	-10.7281
iyye	-10.7281
ous	-10.7282
[	-10.7284
nus	-10.7286
▁organı	-10.7286
tic	-10.7288
▁hisse	-10.729
▁Wilhelm	-10.729
▁Şehirdeki	-10.729
▁yetersiz	-10.7292
elli	-10.7292
▁bulun	-10.7293
▁programları	-10.7293
klarını	-10.7293
▁saldırıya	-10.7294
▁Model	-10.7294
▁rüzgâr	-10.7298
▁Güreş	-10.7298
▁canlandırdı	-10.7299
ıt	-10.73
▁kurban	-10.7302
▁tarihten	-10.7304
▁Amasya	-10.7304
▁bunlardan	-10.7308
▁İbn	-10.731
▁ziyade	-10.7312
▁Shin	-10.7313
▁mükemmel	-10.7314
▁Not	-10.7315
▁Şehri	-10.7318
kla	-10.7318
▁listelerinde	-10.732
▁filozof	-10.732
▁oran	-10.732
▁sürecinde	-10.732
fan	-10.7321
▁Up	-10.7321
▁Şirketi	-10.7322
▁Fox	-10.7323
▁Rıza	-10.7325
▁kimya	-10.733
▁başkanlığını	-10.733
ls	-10.7333
▁Hong	-10.7334
▁kur	-10.7334
Rus	-10.7336
▁Hol	-10.7338
▁maden	-10.7338
▁ra	-10.7343
▁toplumun	-10.7345
▁Ağrı	-10.7346
▁tavsiye	-10.7346
▁akış	-10.7348
dia	-10.7349
="291	-10.7351
▁federal	-10.7356
▁kodu	-10.7356
▁College	-10.7357
▁gelişmeler	-10.736
▁Kraliçe	-10.7363
▁Bill	-10.7364
▁ağırlığı	-10.7365
▁vermesi	-10.7366
▁anı	-10.7366
=4	-10.7368
▁vefat	-10.7368
şarkı	-10.7369
▁gelişen	-10.737
▁Turizm	-10.7372
▁Dede	-10.7374
▁ayırt	-10.7375
▁yay	-10.7376
ios	-10.7378
▁Araç	-10.7379
▁Meydanı	-10.738
▁çerçevesinde	-10.7384
▁r	-10.7388
▁Adı	-10.7389
▁MTV	-10.739
▁sistemler	-10.739
▁teşkil	-10.7392
▁Mahallesi	-10.7392
yü	-10.7394
▁destekleyen	-10.7394
▁Mat	-10.7394
▁yasası	-10.7395
▁tanıma	-10.7401
▁Opera	-10.7402
▁deprem	-10.7403
▁yörünge	-10.7405
▁dağı	-10.7407
▁suyun	-10.7407
▁1926	-10.7407
▁Karşı	-10.7411
▁arkadaş	-10.7417
one	-10.7419
Tu	-10.742
▁bakım	-10.7421
üp	-10.7423
▁biyo	-10.7424
▁Geleneksel	-10.7424
rum	-10.7425
▁fonksiyonu	-10.7428
▁1917	-10.743
▁hükümeti	-10.7432
▁Villa	-10.7433
ebilen	-10.7436
vir	-10.7436
▁tatil	-10.7436
ović	-10.7436
▁Gerçek	-10.7437
-12	-10.7438
müş	-10.744
▁Ölüm	-10.7441
▁çaba	-10.7441
bre	-10.7445
mut	-10.7445
▁katılmış	-10.7446
dim	-10.7447
del	-10.7447
Ri	-10.7449
▁gönderme	-10.745
▁Pen	-10.7453
▁İşletme	-10.7455
ebilecek	-10.7457
▁risk	-10.7458
▁Us	-10.7459
=7	-10.7462
ity	-10.7463
▁kahverengi	-10.7465
▁defans	-10.7467
▁1994'	-10.7468
▁Yo	-10.747
▁harfi	-10.747
▁bunları	-10.7471
▁Dev	-10.7473
▁çoğunu	-10.7476
▁Pri	-10.7479
▁edebiyatı	-10.748
▁kayıp	-10.7486
▁alınmış	-10.7494
öl	-10.7495
yol	-10.7495
MÖ	-10.7499
▁Vol	-10.7499
▁hacmi	-10.7501
yama	-10.7505
▁iklimi	-10.7507
▁1914	-10.7508
▁davranış	-10.7508
ي	-10.751
▁with	-10.7518
sson	-10.7522
▁Vladimir	-10.7522
▁sabah	-10.7528
▁gerekmektedir	-10.7528
▁Gra	-10.7531
▁Haber	-10.7531
▁devamı	-10.7532
▁hatır	-10.7532
▁üreten	-10.7533
lanmaktadır	-10.7537
▁62	-10.7537
sion	-10.7537
II	-10.7537
sor	-10.7538
▁Kırmızı	-10.7538
▁Hatta	-10.7544
▁tamamlayan	-10.7544
▁çay	-10.7546
▁tarihinden	-10.7548
▁etkinlik	-10.7549
▁fabrika	-10.7549
▁sıraya	-10.7554
▁alınır	-10.7555
▁Çayı	-10.7555
▁Kütüphanesi	-10.7556
▁vaka	-10.7557
town	-10.7562
▁yapımcılığını	-10.7563
▁tarif	-10.7565
▁tanımlanır	-10.7565
▁Time	-10.7567
▁Mad	-10.757
▁Hollandalı	-10.7571
▁oğulları	-10.7573
▁Eserleri	-10.7573
▁olayların	-10.7576
▁Yani	-10.7577
▁yendi	-10.7577
=289	-10.7577
▁n	-10.758
▁yazısı	-10.7586
▁karışık	-10.759
▁Küba	-10.7593
AS	-10.7594
▁Tunus	-10.7594
▁Pek	-10.7594
▁Madalyası	-10.7594
ι	-10.7594
▁iktidar	-10.7598
▁Kır	-10.7601
▁festival	-10.7605
▁Oğuz	-10.7605
▁Mes	-10.7617
▁buradan	-10.7618
▁kütüphane	-10.7619
▁yiyecek	-10.7619
▁göstermek	-10.7621
▁gökada	-10.7622
▁dergisinde	-10.7624
▁Karadağ	-10.7625
▁Antonio	-10.7628
▁not	-10.7629
ımı	-10.7631
mayı	-10.7631
▁Çift	-10.7633
▁bilinmemektedir	-10.7634
▁bölgesindeki	-10.7635
▁SK	-10.7637
▁belirlemek	-10.7637
▁Doğal	-10.7638
stein	-10.7638
▁yeteneği	-10.7638
▁kaynaklarda	-10.7639
▁yönetti	-10.764
▁aktris	-10.7641
Rusça	-10.7642
▁doku	-10.7642
bul	-10.7645
▁mensup	-10.7646
ū	-10.765
▁girerek	-10.7651
▁endişe	-10.7653
Pi	-10.7654
ettin	-10.7655
▁donanma	-10.7662
▁komuta	-10.7662
▁eyaleti	-10.7663
Hersek	-10.7664
▁Yahudilerin	-10.7667
kçe	-10.7667
▁gelip	-10.7668
▁neticesinde	-10.767
▁Pra	-10.7672
▁ifadesi	-10.7674
▁parçalar	-10.7677
▁Ray	-10.7679
▁Wil	-10.768
▁çatı	-10.7681
mis	-10.7682
-6	-10.7683
▁köpek	-10.7683
▁dönemlerinde	-10.7684
▁tedavisi	-10.7684
cker	-10.7685
▁68	-10.7686
oy	-10.7686
▁Tatar	-10.7687
lenebilir	-10.7692
▁rahat	-10.7694
▁olmalıdır	-10.7694
▁dosya	-10.7696
▁soy	-10.7699
▁olduğunda	-10.7701
▁yedek	-10.7702
ğu	-10.7702
▁optik	-10.7703
▁alıyor	-10.7704
▁otobüs	-10.7707
ette	-10.7708
▁Osmanlılar	-10.7708
▁Romalılar	-10.7709
▁korunması	-10.7712
▁Aleksandr	-10.7713
▁63	-10.7715
▁Hollywood	-10.7716
▁formasıyla	-10.7721
şar	-10.7722
▁mobil	-10.7723
▁poli	-10.7724
▁Ji	-10.7725
▁Mas	-10.7726
ilir	-10.7727
▁devir	-10.7731
▁Tepe	-10.7732
▁ab	-10.7735
▁atarak	-10.7736
▁İz	-10.7737
▁Arthur	-10.7738
Du	-10.774
▁muhalefet	-10.7743
▁gayet	-10.7744
▁oluşmuştur	-10.7744
▁fa	-10.7746
▁Önce	-10.7753
▁akademisyen	-10.776
▁Kir	-10.7761
▁denen	-10.7762
▁1912	-10.7763
▁Dili	-10.7767
▁olmaları	-10.7767
Ti	-10.7768
-14	-10.7771
▁kariyerinin	-10.7771
▁Başbakanı	-10.7772
▁oynamaya	-10.7773
▁Konservatuvarı	-10.7777
▁Bolu	-10.7778
▁öğrenimini	-10.7781
▁öğrenciler	-10.7782
▁markası	-10.7784
▁tanımlar	-10.7785
ata	-10.7785
▁halklardan	-10.7786
▁Dairesi	-10.7786
▁Mirası	-10.7787
▁sürmüştür	-10.7789
▁And	-10.779
▁gerçekten	-10.779
▁School	-10.7791
▁pe	-10.7791
▁öğretmeni	-10.7792
▁çalışırken	-10.7793
sol	-10.7798
▁kullanmıştır	-10.7802
▁yarışmada	-10.7804
▁Fo	-10.7804
▁bölgeler	-10.7806
▁Ex	-10.7808
▁şehre	-10.7808
▁tarz	-10.7811
▁getirmek	-10.7811
▁oradan	-10.7818
▁Şi	-10.782
▁hatları	-10.782
▁çelik	-10.7822
▁Alex	-10.7826
▁çekici	-10.7829
▁Juan	-10.783
cal	-10.7831
▁Mihail	-10.7833
▁sürdürmektedir	-10.7838
▁aşkın	-10.7838
▁yürürlüğe	-10.7839
section	-10.7842
▁Lise	-10.7842
▁gazetesinde	-10.7843
▁görmek	-10.7843
tme	-10.7845
▁işler	-10.7846
▁Siyasal	-10.7846
Arapça	-10.7847
▁Harp	-10.7849
▁kurgu	-10.7853
▁Pierre	-10.7856
▁kemeri	-10.7859
asyonu	-10.7864
▁Carlos	-10.7865
▁1989'	-10.7866
▁zaten	-10.7871
▁Night	-10.7872
▁Ziya	-10.7872
▁seçimlerde	-10.7873
▁Poli	-10.7875
▁Mühendisliği	-10.7876
▁açıklamıştır	-10.7876
▁verilmesi	-10.7877
▁Com	-10.7877
▁Barajı	-10.7877
▁mağara	-10.7879
ılma	-10.7879
▁po	-10.7879
▁tutar	-10.788
Son	-10.7881
tem	-10.7882
▁donanım	-10.7883
▁76	-10.7889
▁sağlamaktadır	-10.789
▁bal	-10.7892
▁man	-10.7893
▁Boğazı	-10.7893
izasyon	-10.7894
▁büyüdü	-10.7896
▁zorla	-10.7896
=5	-10.79
vat	-10.79
▁Ag	-10.7901
▁aşamasında	-10.7901
▁değerlendirme	-10.7902
ES	-10.7902
bank	-10.7902
▁Antakya	-10.7904
▁atlet	-10.7905
▁görmüştür	-10.7906
▁getirilen	-10.7906
▁şeyler	-10.7907
▁imha	-10.7909
sia	-10.7909
▁felsefesi	-10.7911
▁harita	-10.7913
▁Polonyalı	-10.7913
▁ürünü	-10.7915
zel	-10.7915
▁sağlığı	-10.7915
gül	-10.7916
▁karakterler	-10.7917
▁dönemine	-10.7923
rı	-10.7923
win	-10.7926
▁deney	-10.7926
▁Pensilvanya	-10.7927
▁müşteri	-10.7932
▁sessiz	-10.7939
▁Cer	-10.7939
▁verilmektedir	-10.7943
▁üstü	-10.7946
▁Os	-10.7949
▁gönderilen	-10.7949
nak	-10.7949
▁1931	-10.795
▁İzlanda	-10.7955
▁Lewis	-10.7957
▁tel	-10.7957
▁sattı	-10.796
▁istasyon	-10.7962
▁fon	-10.7964
▁topladı	-10.7965
▁gruptan	-10.7968
tha	-10.7969
▁sisteminde	-10.797
and	-10.7976
gre	-10.7976
▁şarkısını	-10.7977
▁Kılıç	-10.7978
▁North	-10.7978
▁Kap	-10.7978
▁mimarisi	-10.7982
▁Fizik	-10.7983
▁birlikler	-10.7984
▁cinayet	-10.7985
▁Tuna	-10.7986
▁Trakya	-10.7986
▁Ruh	-10.7987
▁merkezidir	-10.7989
و	-10.7991
▁yumuşak	-10.7991
▁Joe	-10.7993
▁depolama	-10.7993
▁mor	-10.7995
mas	-10.7995
▁Karaca	-10.7996
▁söylenir	-10.7997
▁ağız	-10.8
▁başlıklı	-10.8
▁yolculuk	-10.8001
▁kim	-10.8002
▁ırk	-10.8002
▁teknolojisi	-10.8005
▁Libya	-10.8006
▁Christian	-10.8007
▁kariyerinde	-10.8007
▁alanına	-10.8008
▁gösterilir	-10.8009
▁1932	-10.8011
▁görevli	-10.8011
▁Ateş	-10.8014
▁etkisiyle	-10.8017
ves	-10.8021
▁Rose	-10.8021
▁Tim	-10.8021
hir	-10.8023
▁Lenin	-10.8023
▁çektiği	-10.8024
oğulları	-10.8025
▁Yazı	-10.8025
▁ip	-10.8026
▁eskiden	-10.8029
mba	-10.8029
▁Arena	-10.8029
▁anlamında	-10.8031
▁ko	-10.8032
▁sahte	-10.8036
▁Ok	-10.8038
▁plastik	-10.8039
▁it	-10.8048
▁1915	-10.8052
▁Gemi	-10.8054
▁gerçekleştir	-10.8056
▁Yedi	-10.8059
▁fe	-10.806
jin	-10.8061
▁uygulamalar	-10.8063
▁Giresun	-10.8064
‘	-10.8064
▁yazılar	-10.8064
▁Hatay	-10.8065
▁(3	-10.807
▁biçim	-10.8071
▁kurmuştur	-10.8077
des	-10.8077
▁piyasa	-10.8081
▁trans	-10.8086
iv	-10.8086
dıkları	-10.8087
▁uyuşturucu	-10.8087
ılmış	-10.8088
▁yazarlar	-10.8092
▁66	-10.8092
▁Gre	-10.8092
▁kaybeden	-10.8092
▁tabaka	-10.8094
abileceği	-10.8095
▁baz	-10.8098
▁tüfek	-10.8099
▁Elazığ	-10.8099
▁Yavuz	-10.8102
_1	-10.8102
▁1929	-10.8104
ction	-10.8108
▁yazan	-10.811
▁saç	-10.8115
▁kraliyet	-10.8117
▁takma	-10.8118
şı	-10.8121
▁ikincisi	-10.8121
▁Marie	-10.8122
▁Türkçesi	-10.8122
▁Tro	-10.8123
▁sandalye	-10.8128
▁ter	-10.8133
▁Gold	-10.8134
▁Cemal	-10.8135
▁Bol	-10.8135
▁so	-10.8137
▁drama	-10.8138
ré	-10.8139
▁olayın	-10.8139
▁olmasının	-10.814
türk	-10.814
ilmesi	-10.8144
▁Kocaeli	-10.8144
▁baraj	-10.8145
Ce	-10.8146
ami	-10.8147
tasyon	-10.8149
▁fırsat	-10.8154
▁paket	-10.8156
bon	-10.8156
▁yıldan	-10.8157
▁muhalif	-10.8158
▁Championship	-10.8159
SA	-10.8163
▁Yayınları	-10.8163
Car	-10.8164
▁harf	-10.8164
tas	-10.8167
▁sürüm	-10.8168
▁Hy	-10.8168
▁Eli	-10.8171
▁akışı	-10.8172
▁karşılaştı	-10.8172
▁Hükûmet	-10.8174
▁va	-10.8176
▁öncü	-10.8179
▁American	-10.818
▁Sinop	-10.818
▁uzaklığı	-10.8181
▁girişi	-10.8184
▁dikkatini	-10.8185
▁hâlen	-10.8187
▁Bilgiler	-10.8188
▁özelliklerini	-10.8189
Can	-10.8192
▁Taylor	-10.8193
▁Napolyon	-10.8193
▁Long	-10.8194
▁çevresindeki	-10.8194
Don	-10.8195
▁herkes	-10.8196
▁kesiminde	-10.8196
▁şampiyonluğunu	-10.8199
▁yeraltı	-10.8201
▁bağı	-10.8204
▁istediğini	-10.8206
▁sinyal	-10.8207
▁aşaması	-10.8208
▁operasyon	-10.8208
▁ülkeden	-10.8212
▁yarışmasında	-10.8212
ili	-10.8213
▁Kanadalı	-10.8214
▁yazında	-10.8218
örü	-10.822
Go	-10.8224
▁Island	-10.8229
▁ortamda	-10.823
▁organik	-10.8231
▁kurşun	-10.8233
▁çekimi	-10.8234
▁deneysel	-10.8236
▁z	-10.8237
▁vize	-10.8237
▁keskin	-10.8238
▁%0,1	-10.8241
▁elektro	-10.8243
bilim	-10.8244
▁kiralık	-10.8244
▁avcı	-10.8245
▁Op	-10.8247
▁birçoğu	-10.8248
▁Mike	-10.8249
▁kariyer	-10.8251
gor	-10.8252
layıp	-10.8252
▁konularda	-10.8254
▁değişikliğin	-10.8255
▁Güneydoğu	-10.8259
▁kor	-10.826
▁kuzeybatısında	-10.8261
▁olmasa	-10.8262
▁fiyat	-10.8264
▁bak	-10.8265
▁bant	-10.8266
▁kullanmaya	-10.8268
▁José	-10.8268
▁katlı	-10.8269
▁Gel	-10.8271
▁bulan	-10.8276
▁golle	-10.8281
▁Stephen	-10.8285
▁ayaklanma	-10.8285
▁gezi	-10.8287
▁alacak	-10.8287
▁soyadı	-10.8294
▁yarısı	-10.8294
▁katılır	-10.8295
▁matematiksel	-10.8297
▁değişme	-10.8298
▁Evi	-10.8299
▁Win	-10.8303
▁yetişkin	-10.8304
▁edebilir	-10.8308
▁verici	-10.831
tte	-10.8313
yr	-10.8314
▁süvari	-10.8314
▁Uşak	-10.8318
Ve	-10.8322
▁Ünlü	-10.8322
▁Zu	-10.8322
üş	-10.8323
▁Jon	-10.8323
▁kişiyi	-10.8325
▁Elektrik	-10.8326
="271	-10.8326
▁evine	-10.8328
ل	-10.8329
▁maksimum	-10.8329
▁etmişlerdir	-10.8331
name	-10.8332
▁oranında	-10.8333
▁Illinois	-10.8333
▁İşleri	-10.8335
▁yürüttü	-10.8336
▁mo	-10.8336
▁Özbekistan	-10.8336
▁örnekler	-10.8336
▁İklim	-10.8338
Güney	-10.834
▁hükümdar	-10.8341
▁üzüm	-10.8346
▁Şampiyon	-10.8347
▁ödüller	-10.8347
▁Kafkas	-10.8349
▁Bağ	-10.8351
▁Yardımcı	-10.8352
▁kitabın	-10.8353
▁Who	-10.8355
▁verileri	-10.8358
▁oğludur	-10.8358
▁varsa	-10.8362
▁tehlikeli	-10.8362
▁set	-10.8362
▁görmüş	-10.8363
abı	-10.8364
▁elemeleri	-10.8366
▁görevleri	-10.8374
▁başlaması	-10.8374
▁dayanarak	-10.8375
▁Tunç	-10.8376
▁üreticisi	-10.8377
▁çıkarıldı	-10.8379
▁hareketleri	-10.8381
▁fayda	-10.8381
▁Yüz	-10.8388
▁Eğitimi	-10.8391
▁topluluğu	-10.8393
On	-10.8398
▁bitkiler	-10.8399
▁Ten	-10.8399
▁sıfır	-10.8401
▁İskoç	-10.8402
▁İspanyolca	-10.8402
▁nehri	-10.8403
▁dışarı	-10.8407
▁sanatçılar	-10.8409
▁kaldırıldı	-10.8411
▁kaldırılması	-10.8414
sam	-10.8417
▁Bla	-10.8419
://	-10.8422
▁yükselmiştir	-10.8425
▁BM	-10.8425
م	-10.8427
▁alın	-10.8427
ensis	-10.8428
▁kurgusal	-10.8428
▁Liverpool	-10.8428
▁örgütü	-10.8429
▁un	-10.8429
▁konuşulan	-10.8431
▁saldırıları	-10.8432
St	-10.8432
▁tanımlamak	-10.8434
▁Biyografi	-10.8435
▁kimliği	-10.8435
▁videosu	-10.8437
▁kurul	-10.8444
▁giymiştir	-10.8445
▁Turnuva	-10.8446
▁Jr	-10.8447
▁yıldızlar	-10.8448
▁girişim	-10.8449
▁cinsi	-10.8449
▁şunları	-10.845
▁ücret	-10.8453
▁Sonunda	-10.8453
▁düzenlediği	-10.8454
▁altyapı	-10.8457
▁Ul	-10.8457
▁kriz	-10.8459
▁ticareti	-10.8461
göz	-10.8463
ence	-10.8466
▁Cho	-10.8468
▁Hakları	-10.8468
▁dünyadaki	-10.847
Star	-10.8471
▁seslendirilen	-10.8471
▁bahşı	-10.8474
▁başlangıcı	-10.848
kadın	-10.8481
▁kazanır	-10.8482
ünde	-10.8484
▁seslendirme	-10.8486
▁saldırdı	-10.8488
▁Ohio	-10.8488
▁Sezar	-10.8489
▁parmak	-10.849
▁sayılar	-10.8491
▁ni	-10.8493
▁aldılar	-10.8494
sik	-10.8498
▁Eyalet	-10.8498
▁verilmiş	-10.8498
▁karışımı	-10.85
500	-10.8504
lum	-10.8504
▁bisiklet	-10.8504
▁küre	-10.8504
▁stadyum	-10.8505
▁Balkanlar	-10.8505
▁Kom	-10.8506
çiler	-10.8507
▁koloni	-10.851
▁Arnavut	-10.8512
leşen	-10.8512
▁adıdır	-10.8513
▁yakından	-10.8514
=291	-10.8515
▁oluşturma	-10.852
▁meşhur	-10.8522
▁River	-10.8523
▁tutan	-10.8524
laması	-10.8525
-20	-10.8526
▁kuvvetlerinin	-10.8526
rah	-10.8527
▁Bisiklet	-10.8529
iya	-10.8532
▁Samsung	-10.8533
▁döneme	-10.8534
▁Onur	-10.8536
▁bilinmeyen	-10.8537
▁Bek	-10.8538
▁öğrenim	-10.8538
▁güreşçi	-10.8538
ız	-10.8539
▁Orada	-10.8539
▁Ruslar	-10.854
▁olurken	-10.8541
ert	-10.8542
likler	-10.8546
▁öldürülmesi	-10.8549
100	-10.855
▁sin	-10.855
▁merkezleri	-10.8551
▁Karaman	-10.8551
▁Normal	-10.8552
▁Uygur	-10.8554
Hu	-10.8556
▁çeviri	-10.8558
▁kitaplar	-10.8558
▁Dol	-10.8559
duğu	-10.8566
▁zamanın	-10.8571
▁67	-10.8574
▁dövüş	-10.8576
▁bebek	-10.8576
▁Post	-10.8576
▁93	-10.8577
▁onay	-10.8577
▁hakem	-10.8582
▁arkeolojik	-10.8583
▁85	-10.8586
▁bölümünün	-10.8587
▁profesörü	-10.8587
▁çocukların	-10.859
nç	-10.8591
▁görevden	-10.8592
▁Müze	-10.8594
▁filmlerinde	-10.8595
▁yüzölçümüne	-10.8595
▁hapse	-10.8601
▁Billboard	-10.8601
pro	-10.8604
▁Oblastı	-10.8604
▁Aslında	-10.8604
▁güneyde	-10.8605
lenerek	-10.8609
▁God	-10.8609
▁sekizinci	-10.8609
▁bırakma	-10.861
göl	-10.8611
▁Işık	-10.8612
larıdır	-10.8615
▁düşmesi	-10.8616
özü	-10.8616
▁Tony	-10.8617
Mu	-10.8618
▁içerik	-10.8619
ž	-10.8619
т	-10.8619
lıyor	-10.862
▁Ch	-10.8623
▁kuzeyde	-10.8625
▁Kazak	-10.8627
▁kendisinden	-10.863
▁Şampiyonluğu	-10.8631
▁akşam	-10.8634
▁açmıştır	-10.8634
▁Dolayısıyla	-10.8636
▁stratejik	-10.8637
ğini	-10.8639
lanıp	-10.8641
aki	-10.8642
▁psikolojik	-10.8642
▁boru	-10.8643
▁Boston	-10.8645
▁doğduğu	-10.8646
▁ayakta	-10.8647
▁çıkarma	-10.8649
tia	-10.8649
▁demektir	-10.865
tch	-10.8652
▁Maliye	-10.8654
▁depo	-10.8655
▁eksikliği	-10.8656
▁Madonna	-10.8657
▁sunulan	-10.8657
▁referans	-10.8661
▁semtinde	-10.8662
▁kuralları	-10.8665
▁devrim	-10.8668
▁emri	-10.8668
ılması	-10.8669
▁Yazar	-10.8671
▁personel	-10.8671
▁kule	-10.8673
▁negatif	-10.8674
▁endüstri	-10.8677
▁çatışmalar	-10.8677
▁Pala	-10.8679
tiği	-10.868
AC	-10.8681
▁Mari	-10.8681
▁Yapım	-10.8682
▁AK	-10.8684
▁çekimleri	-10.8685
▁oluşumu	-10.8685
▁yüzü	-10.8689
▁cumhuriyet	-10.8689
▁milletvekilleri	-10.869
▁bakanı	-10.8692
eme	-10.8695
kale	-10.8696
▁alıcı	-10.8697
▁bulunma	-10.8698
▁platform	-10.8699
▁sözleşmesi	-10.8699
▁kaçtı	-10.8701
hor	-10.8703
▁Bank	-10.8703
▁Metal	-10.8704
Ku	-10.8705
▁grubuna	-10.8705
▁bulunmamaktadır	-10.8708
▁farklıdır	-10.8708
▁çöl	-10.8709
▁Murad	-10.8709
▁topraklarında	-10.8709
▁idaresi	-10.8711
▁seçme	-10.8714
▁Aires	-10.8719
▁Mis	-10.8722
▁yarattığı	-10.8723
▁Victoria	-10.8723
▁orduları	-10.8725
▁Michigan	-10.8728
▁yazmaya	-10.8731
▁dal	-10.8733
▁yardımı	-10.8734
nov	-10.8736
▁tesis	-10.8738
▁soruşturma	-10.8739
ag	-10.8746
▁kümesi	-10.875
▁Örnek	-10.875
▁sayısının	-10.8754
▁kaynaklı	-10.8754
▁imzalanan	-10.8755
▁Harekâtı	-10.8755
▁denize	-10.8757
▁Arslan	-10.876
▁anlama	-10.8761
▁amaçla	-10.8761
▁macera	-10.8762
▁sırt	-10.8762
▁platformu	-10.8763
▁çıkışı	-10.8769
▁Özgür	-10.877
▁gemileri	-10.877
via	-10.8771
iyeti	-10.8773
▁ağacı	-10.8775
▁etmişti	-10.8775
▁hazırladığı	-10.8776
▁Çay	-10.8778
▁siyasetçidir	-10.8781
▁katılmaya	-10.8782
▁YouTube	-10.8786
▁Konstantin	-10.8789
abilmektedir	-10.8792
▁Matt	-10.8795
▁61	-10.8796
▁Kra	-10.8799
▁ülkeyi	-10.88
▁miras	-10.8804
▁yaşına	-10.8804
▁belde	-10.8806
▁nesne	-10.8806
sti	-10.8806
▁geldiğini	-10.8807
ī	-10.8808
▁Mora	-10.8808
▁dağılım	-10.8809
▁Cengiz	-10.8811
ydü	-10.8812
▁Reg	-10.8812
▁dersler	-10.8812
▁manastır	-10.8813
▁semt	-10.8813
▁tablosu	-10.8814
▁Hans	-10.8815
▁izleyici	-10.8815
▁Palm	-10.8822
more	-10.8829
▁moda	-10.8837
▁adındaki	-10.8837
▁Yabancı	-10.8837
▁onlar	-10.884
▁yayım	-10.884
▁Mavi	-10.8842
▁şirketler	-10.8843
▁aşık	-10.8845
▁tanımlanan	-10.8847
zin	-10.8848
▁çubuklu	-10.8849
hara	-10.885
▁Hakkında	-10.8852
▁Trans	-10.8853
▁Belgrad	-10.8854
▁grupta	-10.8855
▁Walter	-10.8857
▁Sibirya	-10.8857
▁bugüne	-10.8859
▁Ant	-10.8862
▁işkence	-10.8863
="288	-10.8864
▁olabileceğini	-10.8865
▁milliyetçi	-10.8866
▁yarattı	-10.8868
▁59	-10.8871
▁kapsar	-10.8872
▁kütlesi	-10.8873
▁temsilcileri	-10.8876
▁seçti	-10.8877
▁koşulları	-10.8878
tığı	-10.8879
▁gül	-10.8879
▁tuttu	-10.888
▁içeriyordu	-10.8882
▁filo	-10.8882
phi	-10.8886
▁harekât	-10.8887
▁Cat	-10.8889
▁Michel	-10.8896
▁öldüğü	-10.8896
▁Peru	-10.89
▁yerler	-10.8901
▁farklılıklar	-10.8902
▁yaratıcı	-10.8908
▁bey	-10.8909
mişlerdir	-10.8911
IN	-10.8912
eski	-10.8915
▁bildiri	-10.8915
eş	-10.8917
▁toz	-10.8917
ER	-10.8919
yurt	-10.8921
▁kıl	-10.8924
▁gençlik	-10.8924
▁Projesi	-10.8924
▁haftalık	-10.8926
▁saldırgan	-10.8927
▁Recep	-10.8929
▁Tümeni	-10.8934
▁Brian	-10.8936
▁gir	-10.894
▁Müdürü	-10.8942
▁kavga	-10.8943
ε	-10.8945
ichi	-10.8945
▁annesinin	-10.8946
▁kaynaklanan	-10.8946
tak	-10.8947
▁mutfağı	-10.8949
▁çalış	-10.8951
▁kayıtları	-10.8954
▁Disney	-10.8957
sco	-10.8957
▁kalıp	-10.8959
▁bulunabilir	-10.8961
▁Sami	-10.8962
▁devrimci	-10.8962
key	-10.8962
kay	-10.8965
iği	-10.8968
▁gibidir	-10.8969
-8	-10.8971
▁benim	-10.8973
▁onur	-10.8974
▁kalması	-10.8976
▁istihbarat	-10.8978
▁ortalaması	-10.8982
▁yanlısı	-10.8985
▁2011-12	-10.8988
▁ca	-10.8989
▁Dam	-10.8989
gra	-10.8989
▁pil	-10.8992
▁almakta	-10.8994
▁yerleşik	-10.8994
ی	-10.8995
Ser	-10.8996
▁sürer	-10.8997
▁biten	-10.8999
=271	-10.9001
▁donanması	-10.9001
▁Football	-10.9006
▁görünen	-10.9007
▁Will	-10.9007
▁sıcaklığı	-10.9007
▁Mur	-10.9008
▁Eric	-10.9008
▁1886	-10.9009
▁Sil	-10.901
▁oyuncuları	-10.9011
▁ulaşır	-10.9015
▁kedi	-10.9017
▁olağanüstü	-10.9018
▁Anayasası	-10.902
▁SC	-10.902
▁inanç	-10.9022
▁Bro	-10.9027
▁1988'	-10.9028
▁başarıyla	-10.9028
▁yüksel	-10.9029
▁hayatının	-10.903
▁(12	-10.9032
▁geçirmek	-10.9033
▁trafik	-10.9034
▁İsveçli	-10.9037
gh	-10.9038
▁başlığı	-10.9041
zy	-10.9041
▁kilit	-10.9044
▁Emin	-10.9045
▁direkt	-10.9049
▁Cuma	-10.9051
▁Kahire	-10.9051
▁Emre	-10.9051
▁University	-10.9052
yarak	-10.9052
▁mesaj	-10.9053
▁mühendislik	-10.9054
▁yapımında	-10.9055
▁şa	-10.9056
▁rahatsız	-10.9057
▁Buenos	-10.906
▁konuları	-10.906
▁Des	-10.9061
▁gitmek	-10.9063
▁kut	-10.9065
▁nüfusa	-10.9066
▁topçu	-10.9067
▁Hel	-10.9069
▁etkinlikler	-10.9069
out	-10.9071
▁yarışmaya	-10.9076
▁Milletvekili	-10.9077
▁PKK	-10.9077
▁fil	-10.9078
▁Wilson	-10.9079
▁Rick	-10.9081
▁Corporation	-10.9081
▁karşılaşma	-10.9082
▁haklarını	-10.9083
▁İslami	-10.9086
▁Ey	-10.9088
▁Steve	-10.9091
▁sanatçının	-10.9094
▁Eser	-10.9096
▁gitarist	-10.9097
▁devamlı	-10.9098
▁düşünür	-10.9099
▁Sey	-10.91
▁öncelikle	-10.91
▁«	-10.9101
▁Galler	-10.9105
▁Eş	-10.9106
▁250	-10.9107
▁Barcelona	-10.9108
aceae	-10.9109
▁izledi	-10.9109
▁altyapısında	-10.9111
▁600	-10.9111
▁iniş	-10.9111
▁Inter	-10.9112
▁kuvvetler	-10.9114
▁güzellik	-10.9114
▁belediyesi	-10.9115
▁başbakanı	-10.9117
AR	-10.9119
▁kapasitesi	-10.9122
▁doğuda	-10.9122
landırma	-10.9124
▁karşılığı	-10.9126
▁Salonu	-10.9127
▁Çalışmaları	-10.9127
▁Hamilton	-10.9127
▁oynama	-10.9131
▁kitapta	-10.9133
▁tanrısı	-10.9135
▁Fil	-10.9135
▁Maç	-10.9136
▁bakteri	-10.9137
▁güvenliği	-10.9139
▁etkileşim	-10.9139
▁boyut	-10.914
▁savunan	-10.914
▁yöntemler	-10.9142
▁öyküsü	-10.9143
▁uyumlu	-10.9145
▁hayvanların	-10.9148
▁sembolü	-10.9155
▁Eu	-10.9159
▁atıfta	-10.9161
yet	-10.9161
▁Tal	-10.9164
▁Sü	-10.9165
▁Gö	-10.9166
▁1987'	-10.9168
irler	-10.9169
▁Panzer	-10.917
▁Kulesi	-10.9171
▁geçme	-10.9172
▁problem	-10.9173
▁varlık	-10.9174
▁karakterleri	-10.9175
▁Game	-10.9177
▁Benzer	-10.9177
ilmiş	-10.9179
▁öğrencileri	-10.9179
▁insanlara	-10.918
bb	-10.9181
nar	-10.9183
malıdır	-10.9184
▁Bri	-10.9185
▁ilerleme	-10.9186
Mehmet	-10.9187
▁bölümden	-10.9189
▁tasarlanmıştır	-10.919
▁tarafı	-10.9193
="278	-10.9195
▁masa	-10.9195
▁düzeyi	-10.9196
▁üreme	-10.9199
▁şehirleri	-10.92
▁Evren	-10.9206
ât	-10.9207
»	-10.9208
▁anlaştı	-10.9211
▁Land	-10.9211
nci	-10.9211
▁sat	-10.9212
▁Bou	-10.9212
We	-10.9215
▁Özellikleri	-10.9216
ste	-10.9218
▁2-0	-10.922
▁he	-10.9221
▁ibadet	-10.9221
rs	-10.9222
lemiştir	-10.9223
▁Şiir	-10.9224
▁çalışmak	-10.9225
▁dönüşüm	-10.9228
▁hoş	-10.9228
▁69	-10.9228
rü	-10.9229
uf	-10.9232
ön	-10.9232
kâr	-10.9239
▁sözcük	-10.9239
▁HD	-10.9239
mber	-10.9243
▁kömür	-10.9243
▁Sev	-10.9244
Gu	-10.9244
▁benzeyen	-10.9248
▁değerleri	-10.9249
▁Rumeli	-10.9249
▁dağlık	-10.925
▁Çelik	-10.925
▁hücum	-10.925
▁Avrupalı	-10.9252
▁bağlayan	-10.9253
▁Mektebi	-10.9254
▁açtığı	-10.9256
▁İnşaat	-10.926
▁(5	-10.926
▁Silah	-10.9261
IS	-10.9262
▁galip	-10.9262
▁eti	-10.9265
▁gösterme	-10.9267
▁kör	-10.9268
▁ok	-10.9268
▁ışığın	-10.927
▁koalisyon	-10.927
syon	-10.9271
▁Nil	-10.9272
-21	-10.9272
vis	-10.9273
▁oyuncudur	-10.9276
▁farklılık	-10.9279
▁hakkını	-10.9283
Fe	-10.9283
▁öldürür	-10.9284
▁ayrılması	-10.9285
▁süredir	-10.9285
▁düzenlenmiştir	-10.9286
yolu	-10.9287
▁mı	-10.929
şah	-10.9293
Kuzey	-10.9293
▁döneminden	-10.9295
▁ordusunu	-10.9296
hin	-10.9297
▁Team	-10.9297
▁Inc	-10.9298
kur	-10.93
▁Dizinin	-10.9302
="294	-10.9303
ala	-10.9303
*	-10.9306
▁eleştirmenler	-10.931
▁haricinde	-10.931
pon	-10.9311
lamak	-10.9312
▁disiplin	-10.9312
▁Proje	-10.9313
▁Dur	-10.9315
▁sebeple	-10.9316
▁kabile	-10.9316
▁evde	-10.9322
▁Cal	-10.9323
▁Otto	-10.9326
▁çıkıp	-10.9328
▁Devrim	-10.9329
▁rekoru	-10.9332
luğa	-10.9333
▁Laz	-10.9334
▁oylama	-10.9334
muz	-10.9336
▁han	-10.9336
▁zincir	-10.9338
▁seviyesi	-10.9338
ñ	-10.9339
▁kanseri	-10.9342
kas	-10.9345
▁Kitabı	-10.935
rken	-10.935
▁İmam	-10.9351
▁tanımlanmıştır	-10.9352
▁kısımları	-10.9354
▁balığı	-10.9354
ding	-10.9355
▁77	-10.9355
▁(10	-10.9362
▁Kam	-10.9363
ksiyon	-10.9363
▁hücreler	-10.9364
▁Sistem	-10.9366
▁Dergisi	-10.9367
▁geride	-10.937
nal	-10.9371
▁kavram	-10.9372
lendiği	-10.9375
=288	-10.9376
▁Zonguldak	-10.9379
▁uygulanması	-10.938
▁yak	-10.9385
▁konferans	-10.9385
DP	-10.9387
▁senaryosunu	-10.9388
▁eve	-10.9389
▁Meslek	-10.939
▁Doğa	-10.9393
▁açıklamada	-10.9395
▁Monte	-10.9397
▁Swift	-10.9399
bağ	-10.9399
▁alınma	-10.94
çay	-10.94
▁Vilayeti	-10.9401
▁Halife	-10.9404
mü	-10.9404
▁kalite	-10.9404
▁Center	-10.9404
▁çerçeve	-10.9407
▁Jun	-10.9408
▁makinesi	-10.9408
▁verdiler	-10.9409
▁boyun	-10.9409
▁Ac	-10.941
ssa	-10.9411
soy	-10.9411
▁Las	-10.9412
▁sev	-10.9416
▁kurulduğu	-10.9418
▁egemen	-10.9418
▁Türkçeye	-10.9421
▁şarkıcısı	-10.9422
ick	-10.9423
▁Dördüncü	-10.9424
▁Sc	-10.9425
▁toplantı	-10.9425
▁Hayat	-10.9428
▁Salih	-10.9429
ble	-10.943
▁binalar	-10.9432
▁(11	-10.9432
▁Tele	-10.9432
sky	-10.9433
▁davası	-10.9433
▁Ste	-10.9435
ρ	-10.9436
▁anlayışı	-10.9437
Av	-10.9437
▁(14	-10.9438
▁atıldı	-10.9439
kul	-10.9445
abilmesi	-10.9446
▁kuşu	-10.9446
▁resimleri	-10.9448
▁listede	-10.945
▁formül	-10.9451
Gi	-10.9451
▁basıncı	-10.9452
▁Sahne	-10.9453
▁zamandan	-10.9453
▁şirketleri	-10.9455
▁isyanı	-10.9458
▁bulmuştur	-10.9458
▁tahmini	-10.946
▁Enerji	-10.9463
▁kanadı	-10.9463
_3	-10.9463
▁Dünyanın	-10.9466
▁Sh	-10.9471
ük	-10.9472
α	-10.9476
▁düşünülen	-10.9478
▁Oxford	-10.9478
▁Bazen	-10.948
▁öğrenme	-10.9481
▁Yapılan	-10.9483
wer	-10.9483
▁Bülent	-10.9484
▁merkezinin	-10.9485
▁dağılımının	-10.9486
▁atanmıştır	-10.9488
▁men	-10.9489
▁fakülte	-10.9489
▁noktaları	-10.9491
yorum	-10.9492
▁coğrafya	-10.9494
▁fabrikası	-10.9496
▁seslendirdi	-10.9497
▁formu	-10.9498
▁Komutanı	-10.9499
▁değiş	-10.95
dom	-10.95
▁Bundesliga	-10.9501
fu	-10.9504
▁François	-10.9506
▁bireyler	-10.9507
ă	-10.9507
▁Out	-10.9508
▁cezasına	-10.9509
▁etkinlikleri	-10.9511
▁amcası	-10.9512
▁Gümüş	-10.9513
▁kullanmaktadır	-10.9513
sko	-10.9514
▁tri	-10.9514
▁krallık	-10.9514
maktaydı	-10.9515
▁veriler	-10.9516
▁uyarlaması	-10.9522
itler	-10.9524
▁sel	-10.9524
▁kablo	-10.9525
▁Piyade	-10.9525
Sen	-10.9526
▁yayınladığı	-10.9527
▁kararlı	-10.9527
▁torunu	-10.9529
▁Letonya	-10.953
▁yaşamıştır	-10.9531
▁işlemleri	-10.9531
▁kuran	-10.9535
▁otuz	-10.9536
▁tahliye	-10.9539
▁demokratik	-10.954
indeki	-10.9545
rio	-10.9546
▁dua	-10.9548
Küçük	-10.955
▁araştırmaları	-10.9551
▁kitle	-10.9551
▁ser	-10.9551
day	-10.9552
doğan	-10.9553
John	-10.9554
enko	-10.9554
=117	-10.9555
▁organ	-10.9555
▁Hell	-10.9555
▁1908	-10.9559
▁Geri	-10.9561
▁Manastırı	-10.9563
▁Türkleri	-10.9565
▁aldıktan	-10.9565
▁girme	-10.9567
▁ye	-10.9567
▁Hikâye	-10.9571
▁Bilgisayar	-10.9571
▁Ürdün	-10.9573
lov	-10.9574
▁stil	-10.9575
Con	-10.9576
hil	-10.9576
▁Stra	-10.9576
ale	-10.9577
▁Gaga	-10.9579
=15	-10.9587
ullah	-10.9587
▁Ram	-10.9588
▁Gro	-10.9592
hen	-10.9593
▁teorik	-10.9593
▁Sak	-10.9594
ğe	-10.9595
▁düzeyinde	-10.9596
▁bakır	-10.96
▁Cra	-10.9601
▁salon	-10.9602
▁Napoli	-10.9604
▁başlayıp	-10.9604
▁geliştirmek	-10.9605
▁çıkmaya	-10.9605
▁hekim	-10.9606
Bel	-10.9607
400	-10.9609
▁öğrendi	-10.9609
τ	-10.9611
▁oluşu	-10.9613
▁Nuri	-10.9619
oba	-10.9624
▁dergisinin	-10.9624
▁Georgia	-10.9625
tom	-10.9625
▁Yönetmen	-10.9626
▁Anton	-10.9626
▁yaygındır	-10.9627
DA	-10.9629
rd	-10.9629
▁AC	-10.9632
▁Bağımsız	-10.9632
▁Çar	-10.9633
▁hip	-10.9634
▁kuşlar	-10.9636
▁ku	-10.9639
▁kullanılmış	-10.964
ille	-10.9642
qua	-10.9644
uch	-10.9645
▁işlemci	-10.9646
▁Alanı	-10.9648
rim	-10.9648
▁Selçuk	-10.9649
▁800	-10.9652
▁dünyasında	-10.9653
beyli	-10.9653
▁özgürlüğü	-10.9655
gerçekleştirildi	-10.9657
▁...	-10.9659
▁düşme	-10.9662
▁bırakarak	-10.9663
à	-10.9667
▁güneybatısında	-10.9668
▁Orkestrası	-10.9668
▁Hakan	-10.967
▁örtüsü	-10.9673
arı	-10.9674
▁vs	-10.9674
▁Siyah	-10.9675
▁Hü	-10.9677
▁gelenek	-10.9677
▁üçlü	-10.9677
▁milyondan	-10.9681
▁sayısını	-10.9685
▁katılmak	-10.9688
▁güneybatı	-10.9689
▁şeyin	-10.969
▁Çinli	-10.9691
▁kaplı	-10.9694
▁yüzlerce	-10.9695
▁şefi	-10.9695
ა	-10.9698
▁görüşleri	-10.9699
▁Francis	-10.9699
▁Aksu	-10.9699
▁belirlenen	-10.97
▁Veli	-10.9701
▁kulübün	-10.9702
▁bırakır	-10.9702
▁Tasarım	-10.9703
▁kuzeydoğusunda	-10.9704
▁Buz	-10.9704
▁savundu	-10.9705
▁Tiflis	-10.9706
▁günümüzdeki	-10.9706
▁yüzyıllar	-10.9708
▁belediyedir	-10.9708
▁birinde	-10.971
ense	-10.971
▁fosil	-10.971
▁direktörlük	-10.971
н	-10.9712
Der	-10.9716
▁Luis	-10.9716
▁öğrenir	-10.9716
▁aşama	-10.9717
▁karayolu	-10.972
▁yapıya	-10.9721
▁Veri	-10.9721
ness	-10.9722
▁batıda	-10.9724
▁Muş	-10.9727
MA	-10.9728
▁2010-11	-10.9729
▁aracın	-10.973
▁tesisleri	-10.973
▁Gökçe	-10.9736
lıkları	-10.9739
200	-10.9741
▁bulunuyor	-10.9741
="47	-10.9742
▁finansal	-10.9743
▁modeller	-10.9744
▁limanı	-10.9744
▁Mak	-10.9745
▁Die	-10.9747
ani	-10.9747
▁izleyen	-10.9751
▁ülkesinde	-10.9751
ografi	-10.9756
Orta	-10.9756
▁eklendi	-10.9761
▁göçmen	-10.9761
▁Sab	-10.9763
λ	-10.9764
▁Allen	-10.9764
nie	-10.9764
▁Hart	-10.9765
▁kapısı	-10.9768
▁icat	-10.9769
▁bulma	-10.9769
▁House	-10.977
▁kredi	-10.9771
▁zinciri	-10.9771
▁Sezonu	-10.9772
▁(4	-10.9772
▁Sony	-10.9773
▁yapıları	-10.9773
yazı	-10.9774
▁özet	-10.9774
Es	-10.9774
▁ayrıntılı	-10.9777
▁İletişim	-10.9779
raz	-10.9781
My	-10.9782
fet	-10.9783
değiştirilmiştir	-10.9784
pus	-10.9784
▁ed	-10.9786
Lu	-10.9788
▁Sınır	-10.979
▁ilçenin	-10.979
▁edebi	-10.9793
▁ilgisi	-10.9793
▁padişah	-10.9794
▁ordunun	-10.9794
▁döngü	-10.9795
▁Kurucu	-10.9795
AN	-10.9795
ias	-10.9796
▁Gur	-10.9797
▁şart	-10.9799
▁yuva	-10.9799
▁yapının	-10.9802
lerce	-10.9805
▁tahrip	-10.9806
▁getirilmesi	-10.9807
bot	-10.9816
▁haftasında	-10.9819
olojik	-10.9819
▁Etimoloji	-10.982
▁takviye	-10.982
▁Bul	-10.982
▁taç	-10.9822
▁Mahkeme	-10.9822
▁açısı	-10.9823
ges	-10.9823
uma	-10.9825
▁VII	-10.9829
▁hakimiyeti	-10.983
▁taraftan	-10.983
▁dağıtım	-10.9831
▁beden	-10.9831
AP	-10.9832
▁efsane	-10.9836
=278	-10.9836
istler	-10.9837
lamış	-10.9839
▁Müdür	-10.9841
▁ol	-10.9842
üstü	-10.9842
▁yaprak	-10.9844
▁sunar	-10.9845
▁1916	-10.9846
nny	-10.9846
▁sevgilisi	-10.9847
▁Adıyaman	-10.9848
▁Milan	-10.9849
▁görevlerinde	-10.985
▁birincil	-10.9851
▁Almanyası	-10.9852
▁teoremi	-10.9852
▁Lake	-10.9852
▁fonksiyon	-10.9857
▁Genelkurmay	-10.9857
eus	-10.9857
ira	-10.986
▁1986'	-10.9863
▁etmesini	-10.9863
▁etiketiyle	-10.9864
▁şeklindedir	-10.9865
▁sonsuz	-10.9867
="285	-10.9868
▁Saldırı	-10.9868
▁kılıç	-10.987
▁mermi	-10.9874
▁götür	-10.9875
▁güneydoğu	-10.9876
▁kutu	-10.988
▁soyu	-10.9882
▁sağlama	-10.9883
▁con	-10.9884
▁Sağ	-10.989
▁yazılımı	-10.989
▁uzmanı	-10.9891
nova	-10.9893
▁Düz	-10.9893
▁belki	-10.9893
").	-10.9895
▁(2001)	-10.9895
yak	-10.9898
▁söylediği	-10.9901
▁mağlubiyet	-10.9904
Eski	-10.9905
▁olurlar	-10.9906
▁vadi	-10.9908
▁hâline	-10.991
▁eserin	-10.991
▁Kimya	-10.991
lah	-10.9911
▁öldürdü	-10.9911
▁kurumu	-10.9912
-13	-10.9914
At	-10.9918
▁liderleri	-10.9922
▁gerçekleşmiştir	-10.9926
▁beklenen	-10.9933
▁Bern	-10.9935
▁payı	-10.9935
▁Taka	-10.9937
Am	-10.9939
▁ham	-10.9941
rip	-10.9942
▁firma	-10.9943
▁odası	-10.9943
▁finali	-10.9944
▁pratik	-10.9945
▁ani	-10.9947
▁sayılır	-10.9958
lly	-10.9959
şu	-10.9959
▁yatak	-10.996
▁büyüklüğü	-10.996
▁adası	-10.9961
Han	-10.9963
pt	-10.9963
л	-10.9964
▁mühendis	-10.9964
▁olmasıyla	-10.9964
▁başarmıştır	-10.9964
udur	-10.9965
siyon	-10.9966
alı	-10.9966
▁çoklu	-10.9968
▁Horasan	-10.9971
▁bil	-10.9971
▁soyundan	-10.9972
▁konular	-10.9972
daha	-10.9976
▁başar	-10.9976
▁çağrı	-10.9978
▁Andrew	-10.9982
▁diyerek	-10.9982
▁atış	-10.9983
▁geçmesi	-10.9984
▁grubudur	-10.9985
▁Abbas	-10.9985
▁Vir	-10.9986
▁1944'	-10.9986
ena	-10.9987
▁hayran	-10.999
▁şubesi	-10.9991
▁Valisi	-10.9991
▁Turan	-10.9992
▁%5	-10.9994
▁etmekte	-10.9995
nen	-10.9996
lenmektedir	-10.9997
▁mutlak	-10.9998
▁yöre	-10.9999
▁yeğeni	-10.9999
▁üretildi	-11.0003
star	-11.0003
▁etkisini	-11.0004
▁planlanan	-11.0006
▁kızıl	-11.0008
▁Mücadele	-11.0008
mont	-11.0012
▁Sonrasında	-11.0013
FC	-11.0016
▁eğitimine	-11.0017
sizlik	-11.0017
▁Yardımcılığı	-11.0017
TA	-11.0018
▁deneyim	-11.0018
▁mini	-11.0024
▁metrosu	-11.0025
▁130	-11.0026
▁havalimanı	-11.0027
▁71	-11.0027
▁yeterince	-11.0028
▁görüldüğü	-11.0028
▁takımdan	-11.003
ruk	-11.0031
▁kesme	-11.0032
▁İoannis	-11.0032
▁endüstriyel	-11.0032
▁soylu	-11.0034
▁rolünde	-11.0034
kir	-11.0034
▁sürülen	-11.0035
fon	-11.0037
▁Tab	-11.0038
▁Toprak	-11.0038
▁üniversitesi	-11.0041
▁oynandı	-11.0042
▁yasama	-11.0042
cht	-11.0045
ğü	-11.0048
▁Linux	-11.0049
▁ülkedeki	-11.0052
▁1982'	-11.0053
baba	-11.0054
▁gerçekleşir	-11.0057
▁inşası	-11.0059
▁ot	-11.006
▁Çerkes	-11.0061
▁74	-11.0061
▁demiştir	-11.0061
▁gittiği	-11.0062
▁73	-11.0066
▁Kul	-11.0066
▁yayını	-11.0067
▁%2	-11.007
▁tanıtıldı	-11.0071
▁tarihe	-11.0073
▁Pol	-11.0074
▁imkânı	-11.0074
fin	-11.0078
▁Med	-11.0079
▁88	-11.008
▁sürülmüştür	-11.008
▁tarzında	-11.0081
▁şimdiki	-11.0082
çin	-11.0083
inus	-11.0084
vil	-11.0087
▁kampanya	-11.0088
Kan	-11.0089
Mü	-11.0089
AL	-11.0091
▁uzanır	-11.0094
ug	-11.0096
▁Jim	-11.0099
▁Connecticut	-11.0099
▁çevrimiçi	-11.01
▁ilave	-11.0101
▁başından	-11.0103
▁atma	-11.0104
▁kullanıcıların	-11.0104
lıklar	-11.0105
pur	-11.0105
▁kapak	-11.0105
▁oluşturulmuştur	-11.0105
▁faz	-11.0108
▁yollar	-11.0108
ator	-11.0108
▁beslenme	-11.011
▁takımını	-11.0112
ildi	-11.0117
▁hukuku	-11.0122
▁sınıflandırma	-11.0122
▁Milano	-11.0124
▁yaşamaya	-11.0124
▁Gazetesi	-11.0125
▁duygusal	-11.0126
▁tören	-11.0127
▁Mali	-11.0129
▁parçacık	-11.0132
Per	-11.0133
▁aşağıda	-11.0133
▁plana	-11.0133
з	-11.0138
müştür	-11.0142
end	-11.0144
▁maçlarını	-11.0146
▁çevresi	-11.0147
▁Programı	-11.0149
▁maçlar	-11.0151
wan	-11.0152
▁işlevi	-11.0153
▁alırken	-11.0154
▁ligin	-11.0158
▁özgürlük	-11.0159
▁kampanyası	-11.0159
▁kahve	-11.0159
Osmanlı	-11.0162
▁Deli	-11.0163
dd	-11.0163
▁uyarı	-11.0164
▁caz	-11.0165
▁Böyle	-11.0166
▁1979'	-11.0166
▁hesaplama	-11.0168
▁seferi	-11.017
▁(6	-11.017
▁göze	-11.0171
▁stili	-11.0172
▁anısına	-11.0173
Za	-11.0176
▁Bru	-11.0177
▁hücreleri	-11.0178
▁bırakmıştır	-11.0179
lerarası	-11.0179
fra	-11.018
▁tanımlama	-11.0181
▁programlama	-11.0181
▁peri	-11.0184
▁Ardahan	-11.0187
▁sezonunu	-11.0187
▁çık	-11.0187
▁Çam	-11.0188
Yu	-11.0189
▁ikamet	-11.0189
mbo	-11.019
▁birey	-11.0192
▁Adolf	-11.0192
▁Fırat	-11.0194
▁mineral	-11.0195
▁güneydoğusunda	-11.0196
▁Newton	-11.0197
▁Wood	-11.0201
▁sıkça	-11.0203
▁ortamı	-11.0204
="58	-11.0206
▁sertifika	-11.0206
▁olasılık	-11.0207
leridir	-11.0207
▁Edebiyatı	-11.0207
old	-11.0208
▁Girit	-11.0208
▁Mun	-11.021
▁evrenin	-11.0211
▁Medya	-11.0212
▁halife	-11.0212
▁kontrolünü	-11.0213
▁1913	-11.0213
▁Havaalanı	-11.0215
▁psikoloji	-11.0216
▁istila	-11.0216
▁doğmuş	-11.022
▁August	-11.0221
▁Blue	-11.0221
▁üçgen	-11.0223
▁sahası	-11.0223
▁denizaltı	-11.0226
▁Babil	-11.0228
▁kritik	-11.023
▁atlama	-11.0232
▁Zafer	-11.0232
▁tamamlandı	-11.0234
Hi	-11.0235
dio	-11.0236
▁birleşme	-11.0236
▁Rad	-11.0238
▁başlamıştı	-11.0238
laşmış	-11.024
▁ge	-11.024
▁Romalı	-11.024
▁seks	-11.024
sunu	-11.024
▁düşüncesi	-11.0241
Ju	-11.0242
demir	-11.0245
▁hazırladı	-11.0246
▁Yoshi	-11.0246
▁yaklaşımı	-11.0246
▁Festival	-11.0246
▁by	-11.0248
▁Kil	-11.025
▁Adnan	-11.025
”,	-11.0251
▁pencere	-11.0254
▁Şirketin	-11.0254
▁sanal	-11.0254
▁oyunda	-11.0255
▁yapmayı	-11.0257
▁Prag	-11.0257
▁gelin	-11.0257
▁Karşıyaka	-11.0263
▁ağabeyi	-11.0264
▁Open	-11.0266
ا	-11.0266
▁Kin	-11.0269
our	-11.0269
düğü	-11.0271
▁Uygulama	-11.0273
dî	-11.0273
▁Ron	-11.0273
▁buhar	-11.0274
▁itiraz	-11.0274
=294	-11.0274
▁kül	-11.0274
klerini	-11.0274
ning	-11.0276
▁belediyesine	-11.0276
▁Porto	-11.0278
▁bahçe	-11.0279
▁Power	-11.028
are	-11.028
▁buğday	-11.0281
▁aş	-11.0283
▁Cur	-11.0285
▁belirlenmesi	-11.0287
▁pas	-11.0287
▁araştırmacılar	-11.0287
▁gitme	-11.0288
κ	-11.0288
▁1941'	-11.0289
▁Futbolculuk	-11.029
▁desteğini	-11.029
▁sektör	-11.0293
▁alanının	-11.0294
▁durumuna	-11.0295
▁Kulüpler	-11.0298
sit	-11.0301
▁akciğer	-11.0303
▁Song	-11.0307
TP	-11.0308
="41	-11.0312
▁belirlenir	-11.0313
▁işareti	-11.0314
▁yarar	-11.0315
ese	-11.0315
▁yürütme	-11.0316
0,000	-11.0318
▁dokuzuncu	-11.0318
ric	-11.0319
▁ödülleri	-11.0319
▁Toplum	-11.0321
Ad	-11.0324
bak	-11.0325
▁görüşme	-11.0326
▁rekor	-11.0328
moto	-11.0328
▁sütun	-11.0329
Bay	-11.0331
oyun	-11.0331
▁Şampiyonu	-11.0332
▁kala	-11.0332
▁Turnuvası	-11.0333
▁Samsunspor	-11.0337
▁ucu	-11.0337
="117	-11.034
▁Bilimleri	-11.0343
▁Sudan	-11.0345
▁bulunmakta	-11.0352
sın	-11.0353
▁Street	-11.0354
▁1918'	-11.0357
▁tema	-11.0357
▁bakınız	-11.0357
▁komplo	-11.0358
▁numaradan	-11.0359
▁kaydedilmiştir	-11.0359
▁78	-11.0361
▁kâğıt	-11.0362
▁rüya	-11.0362
▁terör	-11.0366
lot	-11.0368
▁ilgisini	-11.037
▁yüklü	-11.0371
▁yayınlanmış	-11.0375
м	-11.0376
▁desteklemek	-11.0378
▁Resim	-11.0382
Doğu	-11.0384
▁duyuruldu	-11.0385
▁ülkelerinde	-11.0385
▁devletler	-11.0388
▁hükûmetin	-11.039
likle	-11.0393
oo	-11.0394
Bur	-11.0394
▁liberal	-11.0397
▁Matematik	-11.0398
EC	-11.0399
▁diplomat	-11.04
▁Den	-11.0401
▁pat	-11.0402
oni	-11.0403
▁anlayış	-11.0404
▁Liste	-11.0404
▁vatandaşları	-11.0405
▁yemeği	-11.0406
▁Lin	-11.0407
rov	-11.0409
=285	-11.041
▁aç	-11.041
="57	-11.0412
▁oluşturuldu	-11.0414
emez	-11.0415
▁Kri	-11.0417
▁Your	-11.0425
▁evden	-11.0425
▁hanedanı	-11.0426
▁çeker	-11.0426
▁yetkisi	-11.0426
▁kalesi	-11.0426
▁golü	-11.0428
▁talebi	-11.0428
▁ez	-11.043
▁mah	-11.0432
▁komutan	-11.0433
▁etmesine	-11.0434
▁iyice	-11.0439
▁Bina	-11.044
▁ilçeleri	-11.044
г	-11.044
▁ihraç	-11.0441
geliştirilmiştir	-11.0441
▁Network	-11.0442
▁Sat	-11.0443
▁Odası	-11.0443
▁kuzeydoğu	-11.0447
▁kuzeybatı	-11.0447
▁Henri	-11.0448
▁kısmının	-11.045
▁Orijinal	-11.0451
▁oluşturulması	-11.0452
▁mevki	-11.0452
▁Öğretmen	-11.0454
▁açığa	-11.0457
üz	-11.0457
▁köye	-11.0458
▁95	-11.0459
▁Alfred	-11.0459
▁gösterimi	-11.0459
▁ilginç	-11.0462
▁imparatoru	-11.0463
▁yorumlar	-11.0465
▁eliptik	-11.0466
▁müttefik	-11.0467
▁malzemeler	-11.0468
▁ekledi	-11.0469
üt	-11.047
▁South	-11.047
▁Galaxy	-11.0471
▁akımı	-11.0473
▁Soğuk	-11.0475
▁hassas	-11.0477
▁indi	-11.0478
▁ailesine	-11.048
▁İçin	-11.0481
▁taşın	-11.0482
▁Afyonkarahisar	-11.0483
tica	-11.0484
▁birine	-11.0485
dışı	-11.0486
▁Türklerin	-11.0486
şir	-11.049
hy	-11.0491
▁110	-11.0491
pin	-11.0491
▁belirtilen	-11.0492
▁France	-11.0492
▁dere	-11.0492
▁go	-11.0493
▁Town	-11.0497
▁temeli	-11.0498
▁İbranice	-11.0499
▁rejim	-11.0502
▁olasılığı	-11.0503
Ev	-11.0504
▁ova	-11.0507
▁his	-11.0509
▁East	-11.051
▁Sand	-11.051
▁Reis	-11.0511
▁İnönü	-11.0511
▁Farklı	-11.0514
▁maddenin	-11.0518
▁duyduğu	-11.0521
heim	-11.0521
▁medrese	-11.0521
abilmek	-11.0521
▁yetki	-11.0524
sek	-11.0524
ıldı	-11.0526
▁şartları	-11.0527
▁Profesör	-11.0527
▁güvenilir	-11.053
▁verdikleri	-11.0531
▁Radio	-11.0532
▁Raw	-11.0533
▁sürdüren	-11.0533
▁konusundaki	-11.0533
ço	-11.0534
▁yetkilileri	-11.0535
▁filmlerde	-11.0536
▁şehrine	-11.0537
BA	-11.0539
▁radikal	-11.0541
▁sır	-11.0543
▁düzensiz	-11.0544
▁iletken	-11.0544
▁işlev	-11.0545
▁Ajansı	-11.0545
gy	-11.0545
▁başa	-11.0546
▁rütbesine	-11.0546
form	-11.0547
▁yönlü	-11.0549
▁kenarında	-11.0549
▁Lan	-11.055
fre	-11.0552
▁oluşturulmuş	-11.0554
▁Kolombiya	-11.0554
▁evlenme	-11.0555
▁Cro	-11.0555
▁bitiren	-11.0555
▁w	-11.0556
▁Askerî	-11.0557
▁sonuçlanan	-11.0558
▁ti	-11.056
▁kaç	-11.056
▁Hırvat	-11.0562
=47	-11.0562
▁Ross	-11.0563
▁Yaşar	-11.0564
▁sunucusu	-11.0568
tam	-11.0571
▁müsabakaları	-11.0572
▁satışı	-11.0573
▁evrim	-11.0573
▁Ob	-11.0577
▁kav	-11.0579
▁bağlanmıştır	-11.0579
ston	-11.0583
oto	-11.0584
Ana	-11.0586
nor	-11.0589
Em	-11.0593
niz	-11.0594
▁adlandırıldı	-11.0596
▁yüzme	-11.0596
▁Minnesota	-11.0597
▁maçını	-11.0598
3)	-11.0599
▁Heinrich	-11.06
meyen	-11.0603
▁zırh	-11.0604
▁Kaptan	-11.0608
lıların	-11.061
▁edilmesini	-11.061
▁odak	-11.061
▁dönmüştür	-11.0612
roman	-11.0614
▁duvarları	-11.0614
▁10.000	-11.0616
–19	-11.0617
▁çocuğun	-11.0617
pu	-11.0618
▁Hikmet	-11.062
▁haftada	-11.062
ы	-11.062
▁egemenliği	-11.0621
▁yazıldı	-11.0622
▁beğeni	-11.0622
▁İslâm	-11.0626
▁turunda	-11.0626
▁keşfi	-11.0627
dağı	-11.0627
▁Standart	-11.0627
▁kesim	-11.0628
▁salgını	-11.063
▁şarkıyla	-11.0631
▁Media	-11.0633
▁tasarlanan	-11.0634
▁Venezuela	-11.0634
▁grubunu	-11.0635
ref	-11.0635
Sal	-11.0637
ağaç	-11.0639
▁Tür	-11.0642
▁hediye	-11.0643
▁Albümde	-11.0643
kli	-11.0645
▁görünüm	-11.0645
▁yağma	-11.0647
к	-11.0647
▁tarihçiler	-11.0647
▁Victor	-11.065
ky	-11.065
▁araştırmacı	-11.0651
▁topraklarını	-11.0651
▁mermer	-11.0653
▁belirtilmiştir	-11.0653
▁ölür	-11.0654
▁bizzat	-11.0657
▁Char	-11.0658
▁yöneten	-11.0661
▁dayan	-11.0661
▁Dead	-11.0664
="284	-11.0666
▁Kolordu	-11.0667
▁Ermeniler	-11.0669
▁iyon	-11.0669
▁acil	-11.067
▁tamir	-11.0671
▁Yurt	-11.0671
▁türünde	-11.0672
madan	-11.0674
▁ri	-11.0677
▁okuyucu	-11.0678
▁Ros	-11.0679
▁Columbia	-11.0683
PA	-11.0684
Bal	-11.0684
000	-11.0684
▁düşmüştür	-11.0685
▁1904	-11.0686
▁yayla	-11.0687
liğinin	-11.0688
▁Kiev	-11.0689
▁dur	-11.0691
▁haberi	-11.0693
▁isminin	-11.0693
▁izler	-11.0695
▁uygulamaya	-11.0695
▁Görev	-11.0695
SC	-11.0696
ai	-11.0697
pel	-11.0698
eva	-11.0699
▁destekledi	-11.0699
ılmıştır	-11.0701
▁1896	-11.0702
▁Bingöl	-11.0704
▁Tayland	-11.0704
▁şampiyona	-11.0706
ه	-11.0706
▁artması	-11.0708
▁af	-11.0712
▁Said	-11.0718
▁Büyükelçisi	-11.0718
▁düşür	-11.0719
ebilmek	-11.072
▁oyuncunun	-11.0722
▁cemaat	-11.0722
▁görevde	-11.0722
▁kulak	-11.0723
▁bozulma	-11.0727
▁Teşkilatı	-11.0727
▁şeklindeki	-11.0729
▁durumun	-11.0729
▁Gol	-11.0729
▁aksiyon	-11.073
▁barındıran	-11.0732
▁grubunda	-11.0732
umu	-11.0734
▁sömürge	-11.0734
▁Kuşatması	-11.0735
▁Çekoslovakya	-11.0736
▁Ağır	-11.0736
▁geçmişte	-11.0736
ere	-11.0737
Mer	-11.074
pha	-11.0742
mini	-11.0742
▁Meryem	-11.0743
▁oluştu	-11.0743
▁Kevin	-11.0746
▁bunlara	-11.0748
▁High	-11.0749
teri	-11.0752
▁atılan	-11.0755
light	-11.0755
▁Üsküdar	-11.0757
▁Bayanlar	-11.0758
▁Ang	-11.076
cio	-11.076
="40	-11.0763
▁mücadelesi	-11.0763
▁adalet	-11.0763
beyaz	-11.0764
▁dağılması	-11.0764
▁hayvancılık	-11.0766
▁kayda	-11.0767
▁içeri	-11.0768
iti	-11.0773
▁koyun	-11.0773
▁İdare	-11.0774
Bi	-11.0774
kom	-11.0774
▁Kes	-11.0777
larca	-11.0779
▁çarpışma	-11.0781
▁bağlandı	-11.0782
▁Mut	-11.0783
Yunanca	-11.0784
yat	-11.0785
▁rekorunu	-11.0785
▁Tekirdağ	-11.0787
▁yuvarlak	-11.0791
▁Charlie	-11.0793
▁Hun	-11.0795
▁ağrı	-11.0795
▁Yemen	-11.0795
▁Tay	-11.0797
▁şiiri	-11.0797
▁doları	-11.08
▁çeşitleri	-11.0801
▁Nişanı	-11.0805
▁entegre	-11.0806
▁Pekin	-11.0806
kâ	-11.0809
▁olanlar	-11.081
▁gidip	-11.0811
▁izni	-11.0812
▁Kardeş	-11.0813
▁form	-11.0819
▁Oyunun	-11.0819
▁Yar	-11.0821
▁ispat	-11.0822
sy	-11.0824
tip	-11.0824
▁sahibidir	-11.0827
▁Mekke	-11.0828
▁yayınlanması	-11.0829
▁Gabriel	-11.0831
=14	-11.0831
▁Senato	-11.0832
▁İnsanlar	-11.0832
▁isteme	-11.0833
▁gölge	-11.0833
meyi	-11.0834
diler	-11.0836
▁içinden	-11.0837
▁Sara	-11.0838
▁girmesi	-11.0839
▁Atlas	-11.084
▁sıralaması	-11.0843
▁ateşi	-11.0843
▁çekmiştir	-11.0845
▁pahalı	-11.0847
▁aydın	-11.0847
psi	-11.0848
▁Celal	-11.0849
dri	-11.0851
pot	-11.0851
▁üyesiydi	-11.0852
▁oranları	-11.0852
▁manken	-11.0852
▁ihanet	-11.0852
▁fikrini	-11.0854
▁Berk	-11.0854
▁1910	-11.0857
▁Parça	-11.0859
▁iOS	-11.0859
▁yaptıktan	-11.0862
▁Gümüşhane	-11.0863
▁tanıtım	-11.0863
▁sadık	-11.0865
ł	-11.0865
had	-11.0865
▁yerden	-11.0867
▁okur	-11.0868
▁alışveriş	-11.0869
▁Samuel	-11.0872
include	-11.0873
▁Varşova	-11.0878
eo	-11.0879
▁Hattı	-11.0879
▁hastane	-11.088
▁turne	-11.0881
Baş	-11.0883
âm	-11.0884
▁Hamburg	-11.0884
▁Cumhuriyetçi	-11.0887
▁büyüyen	-11.089
▁cep	-11.0891
▁Kü	-11.0892
▁Cambridge	-11.0893
▁kurumlar	-11.0897
▁Azeri	-11.0899
▁Atlantik	-11.0902
Portekizce	-11.0902
leştirilmiştir	-11.0903
iyo	-11.0907
▁Bakanlar	-11.0909
▁oyunudur	-11.091
▁kilo	-11.0913
▁dalı	-11.0918
="274	-11.0919
sat	-11.0921
▁yılan	-11.0921
▁Önemli	-11.0924
▁romantik	-11.0924
▁Universe	-11.0925
▁birliklerinin	-11.0925
rdı	-11.0931
▁birbirleriyle	-11.0932
sse	-11.0933
▁IP	-11.0934
▁tutum	-11.0935
▁sakin	-11.0935
gas	-11.0935
▁Nick	-11.0935
▁1974'	-11.0937
▁bitti	-11.0939
="46	-11.0941
▁1985'	-11.0942
▁cümle	-11.0943
▁kuşak	-11.0945
=58	-11.0947
▁açılması	-11.0949
boy	-11.0952
anti	-11.0953
trop	-11.0954
▁Uçak	-11.0955
masıyla	-11.0959
ín	-11.096
▁Slovenya	-11.0962
▁Ça	-11.0962
▁Good	-11.0963
▁gelme	-11.0964
▁Serie	-11.0966
▁İtalyanca	-11.0967
▁metro	-11.0967
å	-11.0972
amadı	-11.0973
▁yönelim	-11.0973
▁Kemer	-11.0973
▁Dükü	-11.0974
▁sultan	-11.0976
▁İlişkiler	-11.0977
freguesia	-11.0977
▁21.	-11.0978
="286	-11.0979
▁Bizanslılar	-11.098
▁oyuncuların	-11.098
▁sipariş	-11.098
▁kira	-11.0985
▁96	-11.0985
▁Kartal	-11.0987
▁kanıtlar	-11.0987
▁yolunu	-11.099
▁bölümün	-11.0991
leşmesi	-11.0992
▁sayılan	-11.0996
▁cadde	-11.0997
▁vektör	-11.0997
▁Britanyalı	-11.0999
▁Biz	-11.0999
▁nefret	-11.1
▁(2	-11.1
▁Mini	-11.1001
-7	-11.1001
▁lige	-11.1004
cek	-11.1004
▁--	-11.1007
ies	-11.1008
▁gerektirir	-11.1008
▁görevlerini	-11.1009
▁Ap	-11.1011
▁peygamber	-11.1012
malı	-11.1014
▁Hak	-11.1016
▁cisim	-11.1017
▁İkili	-11.1018
▁ucuz	-11.1019
▁bek	-11.1022
▁filosu	-11.1025
AT	-11.1026
▁DC	-11.1028
▁fizikçi	-11.1029
="264	-11.1029
▁azınlık	-11.103
="49	-11.1032
gram	-11.1032
▁figür	-11.1033
="59	-11.1034
▁%3	-11.1038
▁Bab	-11.1039
▁Boğaz	-11.1041
▁kulesi	-11.1041
less	-11.1043
Tek	-11.1044
▁ışığı	-11.1044
cle	-11.1045
▁yapısal	-11.1047
▁şirketinin	-11.1047
▁memnun	-11.1048
▁DJ	-11.1049
▁har	-11.1051
▁saldırılar	-11.1051
▁bilimkurgu	-11.1051
▁yerleşen	-11.1054
▁Johann	-11.1055
▁Artık	-11.1055
▁aldıkları	-11.1057
▁projeleri	-11.1059
▁1978'	-11.106
▁dâhil	-11.1062
gerçekleştirdiği	-11.1062
▁gi	-11.1062
▁yenildi	-11.1063
▁ayrılma	-11.1066
cısı	-11.1066
▁mayın	-11.1066
▁2013-14	-11.1069
Kon	-11.1072
▁çalışmalarının	-11.1074
="275	-11.1075
▁Jacob	-11.1076
▁kurtarma	-11.1076
▁bürokrat	-11.1078
▁gözü	-11.1079
▁üssü	-11.108
▁desteğiyle	-11.1081
▁Kadıköy	-11.1084
▁pul	-11.1085
▁problemi	-11.1088
▁yapacak	-11.1089
▁üretmek	-11.1091
▁engelli	-11.1092
▁bölgeden	-11.1095
▁Â	-11.1096
vaz	-11.1097
▁üs	-11.1097
=284	-11.1098
ington	-11.1099
▁Uğur	-11.1099
▁başkanları	-11.1101
▁im	-11.1102
vers	-11.1102
▁Tok	-11.1103
▁Müslümanlar	-11.1105
jen	-11.1105
hid	-11.1105
▁toplamı	-11.1106
▁Güven	-11.1107
▁Hristiyanlık	-11.1107
▁Ovası	-11.1108
och	-11.1109
▁laboratuvar	-11.1109
▁mono	-11.1109
▁Miller	-11.1111
▁1,5	-11.1111
▁memur	-11.1112
▁Davis	-11.1113
▁rüzgar	-11.1115
▁tecavüz	-11.1115
▁fakir	-11.1115
lli	-11.1115
hur	-11.1116
▁verilebilir	-11.1116
▁solunum	-11.1122
▁genişliği	-11.1122
▁kolları	-11.1123
▁Jacques	-11.1124
▁Association	-11.1126
▁Filmde	-11.1126
dam	-11.1126
▁Mimarlık	-11.1128
▁moleküler	-11.1129
▁oluşmuş	-11.113
▁savaştan	-11.113
▁fırtına	-11.1133
▁geçir	-11.1135
Aşk	-11.1138
▁kademe	-11.1139
▁California	-11.1139
▁borç	-11.1142
▁tra	-11.1142
▁konut	-11.1144
inger	-11.1145
▁koşullar	-11.1145
maları	-11.1149
▁korudu	-11.115
▁aktar	-11.115
▁87	-11.115
▁alanındaki	-11.115
▁PlayStation	-11.1152
▁3-1	-11.1152
▁temelini	-11.1154
▁İm	-11.1154
mine	-11.1155
▁Little	-11.1157
▁Society	-11.1157
▁Dio	-11.1159
▁Sparta	-11.1159
▁Hakkı	-11.1162
▁Müziği	-11.1163
▁gerekse	-11.1163
▁oturum	-11.1164
▁yükselme	-11.1164
Ye	-11.1166
Sp	-11.117
▁2012-13	-11.117
▁Avcı	-11.117
▁1919'	-11.1171
gol	-11.1173
▁kırk	-11.1173
Amerikan	-11.1176
▁Old	-11.1176
▁bildirildi	-11.1177
▁şans	-11.1179
▁yürüyüş	-11.1179
▁dinamik	-11.118
▁1928'	-11.1182
▁çekilme	-11.1184
▁sayımı	-11.1185
▁evrensel	-11.1186
▁ettikten	-11.1187
▁kutup	-11.1188
▁koruyucu	-11.1188
▁çekilmesi	-11.1194
▁ilgilidir	-11.1195
▁Deresi	-11.1195
not	-11.1199
▁Kayıt	-11.1199
▁İzmit	-11.1201
▁alçak	-11.1202
ett	-11.1202
▁Gençler	-11.1202
aba	-11.1204
▁Metro	-11.1204
▁cenaze	-11.1205
▁tez	-11.1206
▁1972'	-11.1207
▁sunmaktadır	-11.1207
▁yöneticileri	-11.1208
▁penaltı	-11.1208
▁eğri	-11.1208
▁Philip	-11.121
▁düşüş	-11.1211
▁görevlendirildi	-11.1211
▁çalışmalarında	-11.1212
İş	-11.1213
▁Chelsea	-11.1213
ew	-11.1221
▁gu	-11.1221
▁Maya	-11.1222
-11	-11.1223
▁elinden	-11.1223
▁1983'	-11.1223
içi	-11.1225
▁üzeri	-11.1225
▁akarsu	-11.1226
For	-11.1228
▁AS	-11.1229
▁Hitit	-11.123
▁PC	-11.123
▁yolculuğu	-11.123
şen	-11.1231
▁şarkısının	-11.1233
▁merceksi	-11.1235
▁yaralandı	-11.1236
▁bağımlı	-11.1236
▁Ty	-11.1237
▁felsefi	-11.1238
▁Köyde	-11.1239
▁Gençlerbirliği	-11.124
▁oynamış	-11.1241
▁kadrosu	-11.1241
▁mod	-11.1243
▁öğren	-11.1243
▁Şehzade	-11.1243
▁Arjantinli	-11.1244
▁hanedan	-11.1245
▁kasabası	-11.1245
ost	-11.1245
▁pozisyon	-11.1246
nia	-11.1248
▁Protestan	-11.1249
▁belirten	-11.1249
▁inancı	-11.1249
▁çukur	-11.125
▁gözden	-11.1251
▁Noel	-11.1254
▁anlaşılmaktadır	-11.1254
aga	-11.1256
▁Savaşın	-11.1256
▁Lau	-11.1256
▁2.0	-11.1257
mura	-11.1258
▁bakıldığında	-11.126
▁eşdeğer	-11.126
▁görevler	-11.126
▁cihazlar	-11.126
▁Olay	-11.1262
▁sevdiği	-11.1262
▁RNA	-11.1263
▁mitolojisinde	-11.1264
▁Güç	-11.1267
▁öğrencilerin	-11.1267
▁konserler	-11.1275
▁Harvard	-11.1276
get	-11.1276
ical	-11.1278
/&	-11.1278
=264	-11.1279
▁geçirildi	-11.1279
▁çıkarmak	-11.128
cular	-11.128
▁Arsenal	-11.1282
▁etkileyen	-11.1282
▁Lev	-11.1283
rarak	-11.1284
▁Dream	-11.1285
olo	-11.1287
п	-11.1287
▁kaplama	-11.1288
▁tabakası	-11.1289
▁Sky	-11.129
ılarak	-11.1291
▁yazarları	-11.1291
▁kahramanı	-11.1293
ν	-11.1294
▁öyle	-11.1295
gs	-11.1295
▁boyutu	-11.1296
▁okulun	-11.1297
vit	-11.1298
▁filme	-11.1299
▁anlamıyla	-11.1299
▁Frankfurt	-11.13
▁galaksi	-11.1303
▁alanın	-11.1303
Batı	-11.1305
▁kubbe	-11.1306
ο	-11.1307
▁dilde	-11.1308
▁mekân	-11.1308
▁günleri	-11.1309
▁oyuncusudur	-11.131
▁politikaları	-11.131
▁Bernard	-11.1311
pat	-11.1314
▁Luc	-11.1314
▁iktidarı	-11.1319
▁Dun	-11.1324
▁kolej	-11.1325
▁yayılan	-11.1326
▁askerlik	-11.1328
▁göğüs	-11.1329
▁Heart	-11.133
▁ısrar	-11.133
âr	-11.133
▁önemini	-11.1331
▁mutlu	-11.1331
ıldığı	-11.1331
▁davranışları	-11.1332
▁çıkmaktadır	-11.1333
▁Kenan	-11.1334
▁Chan	-11.1335
▁zehir	-11.1335
▁81	-11.1335
▁teklisi	-11.1336
▁açıklar	-11.1338
▁Einstein	-11.134
Kızıl	-11.134
▁söyleyerek	-11.1341
▁çekilmiş	-11.1341
▁(13	-11.1342
▁Lincoln	-11.1344
▁günlerde	-11.1344
▁ال	-11.1345
acı	-11.1345
▁defnedildi	-11.1346
etti	-11.1346
▁sü	-11.1347
▁Ai	-11.1348
▁devri	-11.1348
▁gündeme	-11.1349
▁foto	-11.1349
▁Avusturyalı	-11.135
▁Kont	-11.1351
▁çete	-11.1351
dol	-11.1351
▁hafıza	-11.1351
▁pre	-11.1352
tık	-11.1353
▁seçkin	-11.1353
▁cerrahi	-11.1354
▁Fra	-11.1354
▁bahseder	-11.1357
▁meşru	-11.1357
▁kuralı	-11.1359
▁çalışmış	-11.1359
▁tamamladıktan	-11.1359
EN	-11.1361
gos	-11.1363
▁Yüksel	-11.1364
▁Zeki	-11.1364
▁üyelerinden	-11.1365
PS	-11.1367
▁Arif	-11.1368
▁Usta	-11.1368
▁ucunda	-11.1368
Dr	-11.1369
▁Anderson	-11.137
bro	-11.137
▁Amsterdam	-11.1371
="45	-11.1371
▁ettirdi	-11.1372
▁silahlar	-11.1373
ن	-11.1373
▁sivri	-11.1374
özellikle	-11.1376
▁faaliyetlerini	-11.1376
▁1939'	-11.1377
▁çeşidi	-11.1377
▁sok	-11.1377
▁Pin	-11.1378
▁1500	-11.1378
▁Marc	-11.1379
▁mahallenin	-11.1379
▁yönetimine	-11.1381
çılık	-11.1382
▁yüzyıllarda	-11.1383
oh	-11.1384
▁1876	-11.1385
▁ödülüne	-11.1387
▁okulda	-11.1388
doğum	-11.1389
▁sektöründe	-11.139
▁yazarın	-11.1393
▁Hampshire	-11.1395
▁Bah	-11.1396
▁ayının	-11.1396
▁Bavyera	-11.1397
IP	-11.1401
▁çıkarılmıştır	-11.1403
5.000	-11.1403
▁uçağın	-11.1403
▁özelliğini	-11.1404
▁Bush	-11.1404
▁sürece	-11.1404
▁bozukluğu	-11.1406
▁sağladığı	-11.1407
mun	-11.1409
yalı	-11.1409
▁sitesinde	-11.1411
yeceğini	-11.1412
▁takiben	-11.1415
▁Vikipedi	-11.1417
Yo	-11.1418
aro	-11.1421
▁önderliğinde	-11.1423
Je	-11.1423
▁Ayşe	-11.1425
▁karıştı	-11.1427
▁içerisindeki	-11.1428
inci	-11.1428
▁tutmak	-11.1428
▁sil	-11.1429
▁gününde	-11.143
▁sermaye	-11.143
▁Sor	-11.1432
▁3-0	-11.1432
▁takdirde	-11.1433
▁çıkarmıştır	-11.1434
▁topraklarının	-11.1436
Un	-11.1438
▁sıralarda	-11.1439
▁Alice	-11.144
▁sağlanması	-11.1441
▁versiyon	-11.1443
▁Fort	-11.1444
="55	-11.1446
▁mekanizması	-11.1446
▁ordusuna	-11.1453
▁pandemisi	-11.1453
▁kayıtlı	-11.1453
▁geçit	-11.1454
▁şöyledir	-11.1455
rî	-11.1455
▁Gine	-11.1455
▁düğün	-11.1457
▁köyleri	-11.1457
▁getirme	-11.1457
):	-11.1459
▁Adams	-11.1459
▁eserlerini	-11.1462
▁1911	-11.1463
▁Lüksemburg	-11.1464
▁Kapı	-11.1468
▁ölçekli	-11.1469
▁Anthony	-11.1471
▁Türkmenistan	-11.1473
▁matematikçi	-11.1473
▁Bursaspor	-11.1474
▁tersine	-11.1474
▁röportajda	-11.1475
▁reform	-11.1476
▁alıyordu	-11.1477
ore	-11.1479
▁Tibet	-11.1479
▁yapılabilir	-11.148
Ter	-11.1481
▁monarşi	-11.1481
ath	-11.1481
▁Ele	-11.1483
▁tartışmalar	-11.1483
=57	-11.1484
▁kesimi	-11.1486
eau	-11.1486
▁dönüşü	-11.1487
▁sahipleri	-11.1487
▁önerdi	-11.1488
▁elektrikli	-11.1488
="290	-11.1491
▁bağlar	-11.1492
▁mercekli	-11.1492
Wa	-11.1497
laşan	-11.15
uro	-11.1502
▁kaybetmiştir	-11.1503
▁Sto	-11.1504
▁açıklanmıştır	-11.1504
▁yüzölçümü	-11.1504
▁çember	-11.1505
▁içe	-11.1505
▁gerçeği	-11.1505
▁Drama	-11.1507
▁Ona	-11.1508
▁mar	-11.1508
leş	-11.1509
▁alay	-11.151
▁hesabı	-11.151
▁Tü	-11.1512
Ze	-11.1512
aka	-11.1512
▁Kut	-11.1517
▁maliyeti	-11.1518
▁Band	-11.1518
▁tümü	-11.1522
▁fırın	-11.1522
▁86	-11.1522
▁Batman	-11.1523
feld	-11.1524
▁dinî	-11.1526
▁Senatosu	-11.1528
▁doğası	-11.1528
▁başarılar	-11.153
▁turnuvada	-11.153
▁Ertuğrul	-11.1531
likten	-11.1534
▁pasaport	-11.1536
▁belgeler	-11.1536
▁sar	-11.1537
▁1975'	-11.1538
yıl	-11.1539
▁eşliğinde	-11.1539
▁dolarlık	-11.154
▁gemiler	-11.1543
=286	-11.1544
▁ulaşmak	-11.1544
э	-11.1544
▁içme	-11.1544
▁materyal	-11.1545
▁muhafaza	-11.1545
▁Albay	-11.1548
▁İdaresi	-11.1549
oka	-11.1549
▁bütçe	-11.155
="56	-11.155
▁nesli	-11.1551
lüğe	-11.1552
▁Norman	-11.1553
▁Cin	-11.1555
▁şekildedir	-11.1555
▁Terim	-11.1556
▁bombardıman	-11.1557
▁olmaktan	-11.1561
▁Mobile	-11.1561
ito	-11.1565
▁kalitesi	-11.1566
▁MP	-11.1567
▁mevkiinde	-11.1567
▁olmadı	-11.1568
▁uçuşu	-11.1568
anlar	-11.1572
say	-11.1572
mor	-11.1574
▁teknikleri	-11.1574
▁Tunceli	-11.1575
én	-11.158
▁Malezya	-11.158
▁1.5	-11.1581
▁çalı	-11.1583
▁bölümünden	-11.1584
▁Vas	-11.1584
▁çevirisi	-11.1586
AK	-11.1587
▁Jar	-11.1588
aw	-11.1588
▁öfke	-11.1588
üdür	-11.159
▁salgı	-11.1592
çılar	-11.1593
▁Jay	-11.1594
="77	-11.1594
▁strateji	-11.1595
б	-11.1598
atif	-11.1601
▁Lisans	-11.1602
▁süresince	-11.1602
▁hapishane	-11.1602
▁seviyede	-11.1604
▁Boğaziçi	-11.1605
▁restoran	-11.1606
sp	-11.1608
▁aldığını	-11.1609
amayan	-11.161
▁satıldı	-11.1612
▁turnuvası	-11.1614
▁örtü	-11.1614
eira	-11.1614
▁tahtta	-11.1616
▁almayı	-11.1617
▁zamanki	-11.1617
▁Moldova	-11.1619
back	-11.1619
▁sığır	-11.162
gio	-11.1621
▁yaptığını	-11.1623
▁başlı	-11.1624
▁sığ	-11.1625
▁Cre	-11.1626
▁kızları	-11.1627
х	-11.1628
▁Çiçek	-11.163
▁yolunda	-11.1631
▁kuzeni	-11.1633
▁1977'	-11.1634
gazi	-11.1634
▁kurtarmak	-11.1634
▁edilmesine	-11.1635
▁1968'	-11.1636
▁1984'	-11.164
ojen	-11.164
▁olmaz	-11.1642
▁üretilmiştir	-11.1643
▁temin	-11.1644
▁kurak	-11.1646
▁Neo	-11.1646
▁türün	-11.1648
▁denetim	-11.1651
▁taşınması	-11.1651
▁ürettiği	-11.1654
▁Leo	-11.1654
=45	-11.1655
lma	-11.1655
▁hastanede	-11.1656
far	-11.1656
▁manga	-11.1658
▁1967'	-11.1658
Altın	-11.166
▁burun	-11.1661
▁Kariyer	-11.1664
sem	-11.1665
ülü	-11.1667
qu	-11.167
д	-11.1671
head	-11.1672
yani	-11.1672
rk	-11.1673
▁Kongo	-11.1674
▁biçimleri	-11.1675
▁adanın	-11.1675
▁1900	-11.1676
▁sentez	-11.1679
▁bulgular	-11.168
▁Cel	-11.1682
▁Sad	-11.1682
▁listesidir	-11.1684
▁başarıları	-11.1685
enberg	-11.1686
▁Hatun	-11.169
=41	-11.1692
▁fer	-11.1692
▁liderliğindeki	-11.1693
▁geçirmiş	-11.1694
▁şifre	-11.1694
▁süs	-11.1696
▁eki	-11.1698
▁Franz	-11.1699
▁binanın	-11.1699
="279	-11.17
▁kazası	-11.17
▁Tayvan	-11.1702
▁ölçümü	-11.1702
▁girişimleri	-11.1702
ters	-11.1705
="51	-11.1706
▁aykırı	-11.1707
▁84	-11.1707
▁Diego	-11.1708
▁aralığı	-11.1709
▁kompleksi	-11.1709
▁misafir	-11.1712
Hal	-11.1713
▁başlık	-11.1715
▁katil	-11.1716
▁Yerleşim	-11.1718
izmin	-11.1718
▁Demiryolu	-11.1718
▁sırayı	-11.1718
▁kenar	-11.1719
▁dizileri	-11.172
▁Kab	-11.1721
▁geçirmiştir	-11.1722
llo	-11.1725
ava	-11.1727
▁Valiliği	-11.1728
▁kurdular	-11.1729
▁1981'	-11.173
idi	-11.1733
▁sürdürmüştür	-11.1735
▁yatay	-11.1735
▁1969'	-11.1736
▁hareketin	-11.1737
▁derleme	-11.1737
▁ulus	-11.1737
red	-11.1739
▁82	-11.174
▁patlak	-11.1741
luğunu	-11.1743
▁ortağı	-11.1743
▁Gil	-11.1744
▁Dom	-11.1744
▁SA	-11.1745
▁tesisi	-11.1747
Ah	-11.1747
▁Kuru	-11.1747
▁geleneği	-11.1747
▁yükseklikte	-11.1748
medi	-11.175
▁karakterlerin	-11.175
▁çağrıldı	-11.1751
▁garanti	-11.1752
▁lo	-11.1752
=55	-11.1752
▁durumunu	-11.1752
▁Bitki	-11.1754
▁Way	-11.1754
chen	-11.1754
▁Hizmet	-11.1757
▁kumaş	-11.1758
▁İranlı	-11.1758
▁eşya	-11.1758
▁yaşadıkları	-11.1759
▁Mezopotamya	-11.1759
▁zar	-11.1759
▁nadiren	-11.1761
▁artar	-11.1761
▁iri	-11.1763
▁itiraf	-11.1763
▁Kağan	-11.1763
▁Oda	-11.1764
=169	-11.1769
▁Girl	-11.1769
▁heyeti	-11.177
Gün	-11.1771
▁füze	-11.1772
▁Avustralyalı	-11.1772
▁kemerini	-11.1773
▁programlar	-11.1773
cin	-11.1773
▁Mühendislik	-11.1774
▁Yunus	-11.1775
=40	-11.1775
="44	-11.1775
▁sulama	-11.1776
▁kompleks	-11.1777
▁Mr	-11.1779
▁Baltık	-11.1781
▁yoksa	-11.1782
cılığı	-11.1784
▁maddelerin	-11.1785
▁Bayezid	-11.1785
▁kilisenin	-11.1787
▁köylü	-11.1787
▁Spe	-11.1789
gua	-11.1794
oku	-11.1796
=46	-11.1797
▁sonucuna	-11.1798
alizm	-11.1798
-9	-11.1799
▁1943'	-11.18
meli	-11.1804
▁Cannes	-11.1806
▁tetik	-11.1806
▁Fri	-11.1809
▁Les	-11.181
=274	-11.1811
▁79	-11.1812
▁Filipinler	-11.1812
rap	-11.1812
▁Efes	-11.1814
▁Üniversitesinde	-11.1815
▁çıkışlı	-11.1818
=275	-11.1818
▁almıştı	-11.1818
▁artışı	-11.182
▁eksen	-11.182
▁Bekir	-11.1821
iri	-11.1822
▁danışmanı	-11.1823
▁isten	-11.1825
▁Beni	-11.1825
bia	-11.183
▁Petrol	-11.1832
▁boğaz	-11.1832
▁yaparlar	-11.1833
leştirilmesi	-11.1833
▁gönderdiği	-11.1834
="172	-11.1836
▁unvan	-11.1837
▁Bart	-11.1838
ştır	-11.1839
▁ikiz	-11.1839
▁belirsiz	-11.1841
orta	-11.1841
▁ayakkabı	-11.1843
hip	-11.1843
▁oluşum	-11.1845
▁kural	-11.1846
▁destekler	-11.1847
▁içer	-11.1848
σ	-11.1849
▁anlatı	-11.185
▁1973'	-11.1851
▁dönüşür	-11.1854
▁şirketidir	-11.1855
▁kuruluşlar	-11.1856
▁virüs	-11.1856
atlı	-11.1856
▁olunca	-11.1858
▁Milliyetçi	-11.1859
▁bilme	-11.1859
▁başkanlığında	-11.1859
▁Got	-11.1859
▁mimarlık	-11.186
▁sergiledi	-11.186
▁Helen	-11.1861
▁Nova	-11.1864
Gül	-11.1865
▁topraklar	-11.1866
▁Epi	-11.1868
Mor	-11.1869
atör	-11.1869
▁ihtimali	-11.1869
▁buradaki	-11.187
▁birleşik	-11.1871
▁Nikolay	-11.1872
▁adres	-11.1873
▁Tai	-11.1874
▁endüstrisi	-11.1875
▁sınırında	-11.1875
▁kuvvetli	-11.1876
▁şikayet	-11.1877
▁Tarsus	-11.1877
▁Lige	-11.1879
▁Köln	-11.1883
▁Zen	-11.1884
▁delege	-11.1884
▁ro	-11.1885
▁konak	-11.1886
▁tanımladı	-11.1888
▁Mario	-11.1889
▁helikopter	-11.189
▁açma	-11.189
abileceğini	-11.1891
▁İnan	-11.1891
▁dağlar	-11.1891
▁Kızılderili	-11.1894
▁bıçak	-11.1894
SE	-11.1895
▁duyar	-11.1895
▁uzatma	-11.1897
▁planları	-11.1898
erler	-11.1902
▁Kun	-11.1903
▁Douglas	-11.1904
zh	-11.1905
▁İskenderiye	-11.1907
▁karşısına	-11.1908
▁berabere	-11.1908
dılar	-11.1908
▁doğrusal	-11.1911
▁Almanlar	-11.1912
▁Şerif	-11.1914
cre	-11.1915
▁%4	-11.1915
▁Soy	-11.1917
ted	-11.1919
▁ayna	-11.1921
▁formülü	-11.1921
▁kullanıma	-11.1922
▁tanınmıştır	-11.1923
▁Isparta	-11.1926
▁ho	-11.1927
▁başarısını	-11.1928
posta	-11.1933
▁yayına	-11.1933
▁korsan	-11.1934
▁heykeli	-11.1936
▁pazarlama	-11.1937
▁arazisi	-11.1938
▁mevsim	-11.1938
zlar	-11.1941
▁gözaltın	-11.1942
▁sağlanır	-11.1942
işi	-11.1943
▁dikey	-11.1944
fil	-11.1946
▁sunulmuştur	-11.1946
▁yüksektir	-11.1946
▁1864	-11.1947
▁İsyanı	-11.1949
▁Pel	-11.1952
abi	-11.1952
▁Roger	-11.1953
▁Koz	-11.1956
▁çekme	-11.1956
▁Çağdaş	-11.1957
▁Floransa	-11.1958
▁doçent	-11.1958
▁oluşturmuştur	-11.1958
▁azından	-11.1958
▁GB	-11.1961
ico	-11.1962
▁paketi	-11.1963
=56	-11.1963
Mal	-11.1964
▁diz	-11.1965
▁Kartaca	-11.1967
▁pist	-11.1967
▁Nes	-11.1967
▁Bryan	-11.1969
▁statü	-11.1969
▁zamanların	-11.1972
▁Halen	-11.1972
▁yoğunluk	-11.1973
▁VIII	-11.1973
▁düzenlenmiş	-11.1973
س	-11.1974
▁rapçi	-11.1976
Ch	-11.1978
▁ölmesi	-11.1978
Kal	-11.198
▁Pet	-11.1982
▁Felsefe	-11.1983
Th	-11.1984
fir	-11.1985
▁Res	-11.1985
İn	-11.1988
▁from	-11.1989
▁olacaktı	-11.1989
▁turnuvaya	-11.1989
▁yükselti	-11.1989
elle	-11.1991
▁olimpiyat	-11.1992
▁beste	-11.1993
etik	-11.1994
▁anki	-11.1994
▁Sekreteri	-11.1997
▁asistan	-11.1999
▁Moğolistan	-11.1999
4)	-11.2
▁üretir	-11.2
▁hükümdarlığı	-11.2002
ér	-11.2003
▁İngilizler	-11.2003
ebileceği	-11.2003
▁Sümer	-11.2005
▁yayınlar	-11.2005
="280	-11.2007
undan	-11.2007
▁Çince	-11.2007
▁kurumları	-11.2009
▁83	-11.201
▁çıplak	-11.201
▁sayısız	-11.2013
pper	-11.2014
▁teşkilatı	-11.2015
▁Fre	-11.2018
▁yaka	-11.202
▁kongre	-11.2023
▁Yarış	-11.2024
EL	-11.2024
etta	-11.2025
▁hop	-11.2026
▁Ryan	-11.2026
=153	-11.2027
▁Oğlu	-11.2027
▁post	-11.203
ald	-11.2032
▁kuyruk	-11.2032
▁sayısal	-11.2033
▁uçakları	-11.2034
▁tanık	-11.2035
▁dönerek	-11.2035
▁kurarak	-11.2043
▁Š	-11.2045
▁uyku	-11.2045
▁şiirleri	-11.2048
rick	-11.2049
▁Thor	-11.2049
baz	-11.2049
▁renkleri	-11.205
▁içki	-11.2053
▁partiler	-11.2055
▁gölü	-11.2057
▁ribaund	-11.2062
▁vahşi	-11.2062
▁değerlendiril	-11.2064
="42	-11.2065
▁ameliyat	-11.2066
layacak	-11.2068
▁tahıl	-11.2069
tron	-11.207
▁teması	-11.2075
▁uyarınca	-11.2075
▁biz	-11.2079
▁Asur	-11.208
▁yetenekli	-11.208
zı	-11.208
▁tarafsız	-11.2081
▁güneye	-11.2082
▁duyu	-11.2083
bis	-11.2084
▁sevk	-11.2085
Mil	-11.2085
ima	-11.2085
▁100'	-11.2086
▁Sem	-11.2086
▁Oyuncular	-11.2087
▁klavye	-11.2087
▁€	-11.2089
▁dinsel	-11.209
onia	-11.209
▁Meydan	-11.209
▁yayımladığı	-11.2091
▁kaz	-11.2091
▁hareketli	-11.2092
uff	-11.2092
▁vasıtasıyla	-11.2093
▁kasabasında	-11.2093
▁yayınlamıştır	-11.2095
▁öncülük	-11.2097
iano	-11.2097
▁yetkililer	-11.2097
▁Çankırı	-11.2097
▁ağa	-11.2098
die	-11.2099
▁Türkçede	-11.2099
▁kasabadır	-11.2102
kül	-11.2102
▁radyasyon	-11.2103
▁97	-11.2105
▁koro	-11.2107
itz	-11.211
▁end	-11.211
▁İsmet	-11.211
sing	-11.2111
▁Jane	-11.2114
lamaktadır	-11.2114
▁durumdadır	-11.2115
▁Bilimsel	-11.2116
▁sancak	-11.2116
rich	-11.2118
▁dis	-11.2118
▁Rumen	-11.2119
rian	-11.2119
▁Kaynak	-11.2121
▁bilen	-11.2122
vor	-11.2123
="145	-11.2123
▁Stefan	-11.2124
▁yazması	-11.2124
▁bulut	-11.2124
▁yetenekleri	-11.2125
▁Patrick	-11.2127
▁Sk	-11.2128
▁eşitlik	-11.2128
▁yayıncı	-11.2128
Sha	-11.2129
▁temsilci	-11.213
ışı	-11.2131
memiş	-11.2133
▁şişe	-11.2133
▁projeler	-11.2133
▁Kuruluş	-11.2133
ple	-11.2133
▁yoksul	-11.2134
▁Dark	-11.2137
▁çiftlik	-11.2138
siniz	-11.2138
▁Üyesi	-11.2139
▁giyim	-11.2139
▁bireylerin	-11.2141
=49	-11.2141
▁mekaniği	-11.2143
▁klinik	-11.2143
▁ulaşma	-11.2144
▁Siyaset	-11.2144
lle	-11.2145
▁Dia	-11.2145
▁Af	-11.2146
▁Bağımsızlık	-11.2147
▁düşünme	-11.2147
▁160	-11.2148
▁çıkarılması	-11.2148
▁askerlerin	-11.2149
ele	-11.2149
▁Kişi	-11.2151
▁1942'	-11.2151
▁isimdir	-11.2152
▁çabaları	-11.2156
▁Eb	-11.2156
▁Benjamin	-11.216
ob	-11.216
▁doz	-11.2161
▁sürdüğü	-11.2161
▁ikincil	-11.2164
▁kıyılarında	-11.2165
▁Yahya	-11.2165
▁canlandırılmış	-11.2167
▁yolla	-11.2167
▁Slovakya	-11.2167
▁grupların	-11.2168
▁savaşçı	-11.217
▁Turgut	-11.2172
▁elendi	-11.2172
▁Müttefik	-11.2174
▁Down	-11.2176
eng	-11.2177
▁paylaştığı	-11.2177
tina	-11.2179
▁NASA	-11.218
▁mühendisi	-11.218
leşir	-11.2181
▁ilkokul	-11.2181
▁Marcus	-11.2185
▁mezarı	-11.2185
▁bununla	-11.2185
▁kişiliği	-11.2186
▁çevresel	-11.2187
▁zaferi	-11.2187
▁şekilleri	-11.219
▁tanıttı	-11.219
▁türünün	-11.2191
▁taban	-11.2191
kapı	-11.2192
zzi	-11.2196
▁durumlar	-11.2198
▁gittikçe	-11.2199
▁kazanma	-11.2201
▁üçte	-11.2201
▁gereklidir	-11.2202
▁Ör	-11.2203
▁koşu	-11.2204
▁hu	-11.2208
▁mutfak	-11.221
▁Xbox	-11.221
sburg	-11.2211
▁planlama	-11.2212
▁Kahraman	-11.2213
▁Studios	-11.2214
pet	-11.2215
▁say	-11.2216
▁kaçan	-11.2219
uncu	-11.2219
▁öldürmek	-11.2219
▁havaalanı	-11.2222
▁halini	-11.2223
▁Önceki	-11.2223
▁Yıllar	-11.2223
▁açıklaması	-11.2225
▁düet	-11.2226
▁kurt	-11.2227
▁okula	-11.2229
cil	-11.223
▁Franklin	-11.223
▁Rap	-11.223
oc	-11.223
▁eklenmiştir	-11.2231
▁vizyona	-11.2231
▁Tank	-11.2233
▁Twitter	-11.2233
▁ger	-11.2234
=104	-11.2234
▁riski	-11.2234
▁bölümüne	-11.2235
▁Ziraat	-11.2235
▁Düzce	-11.2237
▁sekreteri	-11.224
klarında	-11.2241
▁şarkıların	-11.2241
▁aza	-11.2241
ward	-11.2241
▁yaptılar	-11.2241
kitap	-11.2244
AM	-11.2244
▁faktör	-11.2244
▁ölümcül	-11.2245
rad	-11.2245
▁mısır	-11.2245
▁Mikro	-11.2246
▁geliyor	-11.2248
Sev	-11.2249
▁Uruguay	-11.2249
suke	-11.2249
▁yönetimindeki	-11.225
▁Öykü	-11.2251
▁motorlu	-11.2251
▁hitap	-11.2252
▁Haçlılar	-11.2253
▁nişan	-11.2254
▁tüccar	-11.2255
ati	-11.2255
▁tutuklu	-11.2256
▁Şii	-11.2256
▁Polat	-11.2259
▁İstatistikleri	-11.2259
▁keşfedildi	-11.2262
▁sahada	-11.2264
▁Temsilciler	-11.2264
▁üretilmiş	-11.2265
▁Had	-11.2265
lüğünü	-11.2266
▁potansiyeli	-11.2267
▁Cenevre	-11.2269
▁kırdı	-11.2269
▁nöro	-11.227
▁1971'	-11.2271
▁arabası	-11.2272
▁satılan	-11.2272
=134	-11.2272
hon	-11.2274
önü	-11.2274
▁Ot	-11.2275
▁ring	-11.2275
="152	-11.2276
▁1-1	-11.2276
▁düzenlenmesi	-11.2277
▁Etiyopya	-11.2277
▁Potter	-11.2278
▁reaksiyon	-11.2278
▁vücudun	-11.228
▁rahip	-11.228
="54	-11.228
lıyordu	-11.2283
▁kayna	-11.2284
▁Akça	-11.2285
▁kesinlikle	-11.2286
▁seslendirdiği	-11.2289
▁hareketinin	-11.229
=59	-11.229
para	-11.229
▁ardı	-11.2291
▁Mai	-11.2293
▁Tsu	-11.2294
▁Gazze	-11.2295
▁mantık	-11.2295
▁izleme	-11.2297
▁Özet	-11.2298
▁kaptan	-11.2298
▁olmuşlardır	-11.23
▁iktidara	-11.2301
▁Tat	-11.2301
▁yapıların	-11.2305
rif	-11.2306
▁ihlal	-11.2306
▁gelişmesi	-11.2306
▁Guy	-11.2307
=116	-11.2308
SP	-11.231
▁gizlice	-11.2312
▁başkanlığına	-11.2312
rey	-11.2315
▁döngüsü	-11.2318
▁yaşı	-11.2318
▁büyüktür	-11.2318
▁tura	-11.2318
▁92	-11.2319
lme	-11.232
▁taşıyıcı	-11.232
▁taraftarları	-11.232
▁Justin	-11.232
▁Por	-11.2322
▁kalkan	-11.2325
▁koruması	-11.2326
dr	-11.2326
ux	-11.2327
▁sur	-11.2328
Ger	-11.2328
▁bes	-11.233
▁1909	-11.233
ebilmektedir	-11.2336
▁yaralı	-11.2337
▁2009-10	-11.2339
▁yönü	-11.234
▁tepkiler	-11.234
▁sevgi	-11.2341
▁duygu	-11.2342
▁1905	-11.2342
▁çubuk	-11.2343
▁Tip	-11.2343
="48	-11.2344
▁kardeşleri	-11.2345
▁Hen	-11.2346
=64	-11.2347
▁Part	-11.2347
▁öneri	-11.2347
▁düş	-11.235
▁zararlı	-11.2351
="52	-11.2352
▁hastalıklar	-11.2352
▁Yüzyıl	-11.2353
only	-11.2353
ture	-11.2361
▁tarihini	-11.2362
▁çekmek	-11.2362
▁duyma	-11.2364
▁dansçı	-11.2364
▁yönet	-11.2367
▁Doğru	-11.2369
▁komutasında	-11.2371
RA	-11.2372
▁koşul	-11.2372
▁Wolf	-11.2375
▁Basın	-11.2376
▁Eleme	-11.2377
د	-11.2379
=177	-11.238
▁yarıştı	-11.2382
▁Tapınağı	-11.2383
;&	-11.2384
gia	-11.2384
▁edilmişti	-11.2384
▁1885	-11.2384
▁komut	-11.2386
▁TL	-11.2389
▁yürütülmektedir	-11.239
▁Tuva	-11.239
▁kurmuş	-11.2391
▁iade	-11.2392
shire	-11.2392
▁rastgele	-11.2395
▁olabilecek	-11.2396
▁şok	-11.2396
▁çözümü	-11.2398
▁ekmek	-11.2399
tit	-11.2399
lemek	-11.2399
sus	-11.2401
▁1899	-11.2403
▁serinin	-11.2406
▁çikolata	-11.2407
▁Dere	-11.241
Ankara	-11.241
▁Lawrence	-11.241
▁perde	-11.2411
ets	-11.2412
pop	-11.2412
rol	-11.2413
▁istasyonları	-11.2413
▁toplar	-11.2413
Ab	-11.2415
▁Anlaşması	-11.2417
▁Ivan	-11.2418
▁kişilere	-11.2421
▁Yara	-11.2422
▁dönüm	-11.2424
▁eksik	-11.2425
▁seti	-11.2425
ife	-11.2427
▁1976'	-11.2427
▁Dön	-11.2428
▁Yahudileri	-11.2428
▁hiper	-11.2429
▁amaçlayan	-11.243
▁Yurdu	-11.2431
stri	-11.2432
▁Emmy	-11.2432
hiro	-11.2432
▁dizisidir	-11.2436
▁faktörler	-11.2439
üne	-11.244
tiv	-11.2441
▁Devrimci	-11.2441
ast	-11.2443
▁puanı	-11.2447
▁hazırlanmış	-11.2448
▁çocukluk	-11.2448
▁ayrılmaktadır	-11.245
▁Bitlis	-11.2451
="153	-11.2452
▁röportaj	-11.2454
▁devletlerin	-11.2457
▁Bayram	-11.2457
▁Ly	-11.2458
▁inşaatı	-11.2459
▁Tut	-11.246
▁Best	-11.246
▁Maden	-11.2461
▁lehine	-11.2462
meleri	-11.2462
▁şeridi	-11.2462
▁yararlı	-11.2463
▁etrafındaki	-11.2466
▁duvarı	-11.2466
▁Cihaz	-11.2468
yacağını	-11.2469
▁ivme	-11.2469
sz	-11.2471
▁Prenses	-11.2473
▁yetkili	-11.2474
▁kanı	-11.2475
▁Prensi	-11.2477
▁gösteriyor	-11.2477
▁tarımsal	-11.2481
▁3000	-11.2482
▁almasına	-11.2485
▁kes	-11.2487
▁sözlü	-11.2488
▁Hanlığı	-11.2491
▁geçim	-11.2492
▁başlanan	-11.2492
▁çeşme	-11.2493
▁İrlandalı	-11.2494
▁gel	-11.2495
▁Lady	-11.2495
lanacak	-11.2495
▁zirve	-11.2499
="43	-11.2502
zam	-11.2502
▁mülk	-11.2502
▁yi	-11.2503
▁sunduğu	-11.2505
▁anlatım	-11.2507
▁komite	-11.2507
laşır	-11.2508
▁koleksiyonu	-11.2511
▁hü	-11.2512
ons	-11.2512
с	-11.2514
▁topluluklar	-11.2514
▁genişleme	-11.2519
▁katkısı	-11.252
▁Bahçe	-11.2521
matik	-11.2521
ym	-11.2522
=48	-11.2522
▁Wall	-11.2523
▁ailesiyle	-11.2524
▁seç	-11.2526
▁futbola	-11.2527
▁üvey	-11.2527
▁yapıp	-11.2528
kça	-11.253
nge	-11.2532
▁Yazılım	-11.2536
=280	-11.2536
▁Ef	-11.254
▁Poe	-11.2541
▁Haz	-11.2541
▁sigara	-11.2541
▁cüce	-11.2542
▁engellemek	-11.2543
▁Haydar	-11.2543
Macaristan	-11.2544
ism	-11.2544
▁uygulanır	-11.2545
▁Öğrenci	-11.2546
▁patent	-11.2547
▁kromozom	-11.2547
▁Cena	-11.2549
▁şarkıdır	-11.2551
▁yayınlanmaya	-11.2552
▁Çukur	-11.2552
▁Qua	-11.2553
▁manzara	-11.2553
▁taklit	-11.2554
▁Doğum	-11.2555
▁benzerlik	-11.2555
▁başlatılan	-11.2555
▁ışın	-11.2557
▁problemleri	-11.2558
▁São	-11.2558
▁oynuyor	-11.256
▁çevrili	-11.2563
Holstein	-11.2566
▁köpeği	-11.2566
▁hâlinde	-11.2567
çok	-11.2568
▁ülkesinin	-11.2568
▁Dönemin	-11.2571
▁söyle	-11.2572
▁seçilir	-11.2572
▁Yama	-11.2574
lé	-11.2575
▁ülkelere	-11.2576
▁savunması	-11.2576
▁kanalları	-11.2578
gus	-11.2581
▁kelimesinden	-11.2582
All	-11.2587
▁rastlanır	-11.2587
▁arı	-11.2588
▁belirlenmiş	-11.2589
1)	-11.2589
ime	-11.259
▁gelişi	-11.2591
▁Adını	-11.2593
▁LGBT	-11.2594
▁rütbesi	-11.2595
▁oto	-11.2595
▁Tümen	-11.2597
▁tahsis	-11.2597
▁Amazon	-11.2597
▁kıyısı	-11.2599
▁metredir	-11.2601
rom	-11.2603
TS	-11.2605
▁silahı	-11.2605
▁ölümünün	-11.2606
▁Kardeşler	-11.2608
▁zihinsel	-11.261
▁bulundukları	-11.2612
▁Mau	-11.2613
▁Giovanni	-11.2614
▁başlatıldı	-11.2614
ctor	-11.2615
▁Lang	-11.2615
▁tabanı	-11.2618
▁görüşler	-11.2619
Bas	-11.2619
▁Indiana	-11.2619
RI	-11.262
▁davul	-11.2621
▁İktisat	-11.2621
▁Stockholm	-11.2621
▁fu	-11.2622
▁Türkistan	-11.2622
▁Rönesans	-11.2623
▁Wal	-11.2623
bach	-11.2627
▁sonuçlarına	-11.2627
▁Ky	-11.2628
▁element	-11.2628
▁dram	-11.2629
▁́	-11.263
▁tenis	-11.2631
▁elemanları	-11.2633
▁bulduğu	-11.2634
ão	-11.2634
▁Özbek	-11.2636
ılabilir	-11.264
▁Lefkoşa	-11.2643
hay	-11.2645
▁deyişle	-11.2646
ija	-11.2647
▁olgun	-11.2647
▁sürücü	-11.2647
Çin	-11.2647
▁bucaktır	-11.2648
▁sürmektedir	-11.2648
▁tartışmalı	-11.2651
▁elbise	-11.2651
▁İdman	-11.2652
▁Fire	-11.2652
▁uğraş	-11.2653
▁geliştirildi	-11.2657
yeni	-11.2658
▁yeme	-11.2658
ibi	-11.2659
▁intikam	-11.266
=279	-11.2662
▁günün	-11.2662
▁akraba	-11.2663
wo	-11.2663
▁edindi	-11.2663
▁evre	-11.2664
▁infaz	-11.2665
▁Sofya	-11.2667
ort	-11.2668
▁yakaladı	-11.2668
▁üyeliğine	-11.2668
▁organları	-11.2669
▁rast	-11.267
ique	-11.267
▁toprağa	-11.2671
=77	-11.2672
=17	-11.2673
▁bağımsızlığı	-11.2673
▁işlemler	-11.2674
▁kiralandı	-11.2679
▁Geniş	-11.2679
▁havayolu	-11.2679
oş	-11.2679
▁Ts	-11.2679
▁albümünden	-11.268
▁Babasının	-11.268
eci	-11.2682
LA	-11.2682
▁Katedrali	-11.2683
▁düzgün	-11.2684
metre	-11.2684
▁seçilmesi	-11.2685
▁Qui	-11.2686
▁Ph	-11.2686
ess	-11.2687
▁fırsatı	-11.2687
dus	-11.2689
▁anime	-11.269
▁yazılır	-11.2691
enler	-11.2691
▁kaynaklara	-11.2695
▁Beyliği	-11.2695
▁98	-11.2695
▁Nintendo	-11.2696
▁devletleri	-11.2698
▁denklemi	-11.2699
▁um	-11.2699
▁1907	-11.27
▁gazı	-11.2701
ianus	-11.2701
▁uzakta	-11.2702
riz	-11.2704
▁etkilenen	-11.2705
▁kurumsal	-11.2705
▁Christopher	-11.2706
▁Hei	-11.2707
▁Bilecik	-11.2708
▁tercüme	-11.2708
▁bayram	-11.271
▁hamile	-11.271
▁İttifak	-11.2711
▁kültürünün	-11.2711
▁görüşmeler	-11.2713
▁Kimi	-11.2713
▁Dokuz	-11.2714
▁Nitekim	-11.2714
▁Siirt	-11.2714
▁Otomobil	-11.2715
▁fethi	-11.2715
▁sahiptirler	-11.2716
▁Çetin	-11.2718
▁hayali	-11.2718
▁Asıl	-11.2718
▁anket	-11.2718
▁çaldı	-11.2719
▁kapasiteli	-11.272
▁patlayıcı	-11.2721
▁yapısını	-11.2722
▁bırak	-11.2724
▁kadını	-11.2724
nel	-11.2724
▁Marino	-11.2727
=135	-11.2728
▁Ulaşım	-11.273
▁Cap	-11.273
anne	-11.273
▁evlenmiştir	-11.2732
▁düşmanı	-11.2732
▁üretilir	-11.2733
▁nefes	-11.2734
▁ateşkes	-11.2735
▁kullanılmak	-11.2736
▁sesli	-11.2737
Cl	-11.2744
▁belirleme	-11.2745
▁gecesi	-11.2746
▁Ayı	-11.2746
▁Ağaç	-11.2746
▁suretiyle	-11.2746
▁belirlendi	-11.2746
AD	-11.2749
▁yapıyor	-11.275
▁Bran	-11.2752
▁Games	-11.2752
▁gör	-11.2755
▁adamın	-11.2755
▁Araplar	-11.2756
▁99	-11.2757
▁denklem	-11.2758
▁Menderes	-11.2758
–20	-11.2759
▁iddiaları	-11.2759
▁katılarak	-11.2759
▁desteklenen	-11.2762
▁Çal	-11.2764
▁hizmetler	-11.2764
▁bulunduğunu	-11.2764
▁tele	-11.2769
=27	-11.277
▁ötesinde	-11.277
▁arşiv	-11.2772
lemesi	-11.2773
▁verilme	-11.2773
▁bölünme	-11.2774
▁Beyoğlu	-11.2774
▁2"	-11.2776
▁durdu	-11.2777
▁rakam	-11.2781
▁düzenlemesi	-11.2783
▁oranla	-11.2783
▁Muharebe	-11.2783
▁Schleswig	-11.2783
▁Shu	-11.2783
▁kazanması	-11.2788
▁pirinç	-11.279
▁Katar	-11.279
▁Mol	-11.2794
▁faaliyetler	-11.2794
▁prens	-11.2795
▁Facebook	-11.2796
▁Anıtı	-11.2796
▁fan	-11.2797
▁birimler	-11.2798
▁Kaş	-11.2798
=105	-11.28
▁rivayet	-11.28
vol	-11.2801
▁Gösteri	-11.2802
▁elektromanyetik	-11.2802
▁Sancağı	-11.2803
▁edin	-11.2804
▁koleksiyon	-11.2804
▁Tarihsel	-11.2809
atı	-11.2813
="277	-11.2814
▁azaltmak	-11.2815
▁görüntüleri	-11.2815
Mac	-11.2815
▁dokun	-11.2815
▁maliyet	-11.2817
▁alırlar	-11.2818
Ver	-11.282
▁Kürdistan	-11.2821
▁Kontrol	-11.2822
▁günden	-11.2823
▁ödüllendirildi	-11.2824
▁çıkarır	-11.2824
▁yaşıyordu	-11.2827
▁karakterdir	-11.2827
▁Tahran	-11.2829
▁maçlarda	-11.283
▁deneyler	-11.2833
▁çiftler	-11.2833
▁göstererek	-11.2834
▁1946'	-11.2837
liğinden	-11.2837
▁100.000	-11.2837
▁kalarak	-11.2837
▁tarafta	-11.2838
▁memuru	-11.2838
▁verecek	-11.2839
kos	-11.2839
alis	-11.2841
▁Aş	-11.2843
cisi	-11.2843
▁Gürcüce	-11.2846
▁Binası	-11.2846
▁Sincan	-11.2848
▁Anıt	-11.2849
▁(7	-11.285
▁finanse	-11.2852
gir	-11.2852
▁kâr	-11.2854
▁ulaş	-11.2854
eth	-11.2855
▁gençler	-11.2858
▁Böylelikle	-11.286
▁Rob	-11.286
▁Salon	-11.2862
▁tarihî	-11.2863
▁açılmış	-11.2863
▁End	-11.2864
▁köşesinde	-11.2866
=42	-11.2867
eğin	-11.2867
▁Nijerya	-11.287
▁konularında	-11.287
▁Üretim	-11.287
▁ihracat	-11.2871
▁anlatılır	-11.2872
ABD	-11.2872
▁güne	-11.2874
▁maçlarında	-11.2875
▁keman	-11.2877
▁tanımlanmış	-11.2878
▁pilotu	-11.2878
▁tanınmaktadır	-11.2879
="2018	-11.2879
=172	-11.2879
▁kartı	-11.2879
▁kazanmak	-11.2879
▁André	-11.288
tarak	-11.288
med	-11.2882
tle	-11.2882
▁kurucularından	-11.2883
Ek	-11.2884
mond	-11.2886
▁Vincent	-11.2888
▁öde	-11.289
▁Futbola	-11.289
▁geminin	-11.2892
yüz	-11.2892
▁tıpkı	-11.2892
▁Dağlık	-11.2893
▁gelecekte	-11.2893
▁tünel	-11.2893
▁aktivist	-11.2894
▁*	-11.2895
hab	-11.2896
▁vur	-11.2897
ndi	-11.2897
▁basılan	-11.2898
▁otorite	-11.29
▁yükü	-11.2901
▁kupayı	-11.2902
rıldı	-11.2902
▁İstihbarat	-11.2903
▁yerleşmiş	-11.2904
▁bölme	-11.2905
taşı	-11.2906
▁versiyonları	-11.2908
▁adresi	-11.2908
ado	-11.2909
▁1889	-11.2912
▁dünyayı	-11.2912
▁olun	-11.2913
▁Bölgede	-11.2915
▁hamam	-11.2915
dro	-11.2915
▁Çoban	-11.2915
▁%1	-11.2917
▁kardeşler	-11.2917
house	-11.2918
▁yemin	-11.2918
▁Ermenice	-11.2918
▁anlamlı	-11.2918
ár	-11.2919
▁Bulut	-11.2919
▁Moğollar	-11.2919
▁Heykel	-11.292
▁imparatorluğun	-11.2921
▁derecesini	-11.2923
▁kalkınma	-11.2923
▁karşılaşmasında	-11.2923
time	-11.2924
▁paylaştı	-11.2925
▁çalışmalara	-11.2926
▁tapınak	-11.2929
▁Philadelphia	-11.2929
▁Ereğli	-11.2929
▁sanatsal	-11.2929
▁hastalıkları	-11.2932
▁adaları	-11.2932
▁herkesin	-11.2932
▁1895	-11.2932
▁Konak	-11.2934
lıktan	-11.2935
▁takımların	-11.2936
▁sayımlarına	-11.2936
▁pembe	-11.2936
▁sürgüne	-11.2939
▁bağlanır	-11.2939
zzo	-11.294
▁Free	-11.2941
▁tekne	-11.2941
▁Abdül	-11.2942
▁geometri	-11.2943
▁700	-11.2943
▁Saka	-11.2946
▁zirveye	-11.2948
▁Saha	-11.2949
büyük	-11.295
́	-11.2952
▁Ortak	-11.2953
▁Mevcut	-11.2954
▁söyleyen	-11.2955
▁pan	-11.2956
▁devrinde	-11.2959
=290	-11.2962
▁volkanik	-11.2962
▁belir	-11.2963
▁sağlıklı	-11.2964
▁Kök	-11.2964
ball	-11.2965
▁125	-11.2966
grad	-11.2967
▁Antarktika	-11.2967
▁dikdörtgen	-11.2967
=44	-11.2968
▁yarışmanın	-11.297
▁duran	-11.297
▁Afrikalı	-11.2972
fal	-11.2972
▁soyut	-11.2972
▁takvim	-11.2973
▁istihdam	-11.2974
▁sınav	-11.2974
pr	-11.2976
▁serileri	-11.2976
Ala	-11.2976
▁Sub	-11.2977
Kur	-11.2977
▁pasaportu	-11.2977
uba	-11.2977
▁tuş	-11.298
_4	-11.298
="154	-11.2981
▁Off	-11.2981
▁atar	-11.2983
▁Bit	-11.2983
▁kazandırdı	-11.2983
▁kil	-11.2987
▁(9	-11.2988
▁Arı	-11.2988
▁1898	-11.299
▁Hugo	-11.299
Paul	-11.2992
▁Yeniden	-11.2992
▁Büyükelçiliği	-11.2996
ß	-11.2997
▁öğretmenlik	-11.2997
▁tüketimi	-11.3002
▁Pay	-11.3002
▁Abdul	-11.3002
Ham	-11.3003
▁erkeklerin	-11.3003
yıp	-11.3004
▁sistemde	-11.3009
▁Demokrasi	-11.3009
▁Stan	-11.3011
okrat	-11.3012
yâ	-11.3014
▁Enver	-11.3015
▁Çakır	-11.3015
oth	-11.3015
▁yüzeyi	-11.3015
batı	-11.3016
▁bölgelere	-11.3018
▁Çarşamba	-11.3019
▁gömüldü	-11.3019
▁Vermont	-11.3019
▁İnce	-11.3019
▁Kö	-11.3021
▁maddeleri	-11.3022
▁başaran	-11.3023
▁mili	-11.3025
▁Emniyet	-11.3025
▁haklar	-11.3025
=145	-11.3026
▁bölgesini	-11.3028
▁hayvanları	-11.3029
▁müzikleri	-11.3031
▁yapılma	-11.3031
▁Popüler	-11.3031
▁tamamlayarak	-11.3032
▁doktorasını	-11.3032
▁Ayaklanması	-11.3033
▁ayağı	-11.3033
▁performansını	-11.3033
▁kayıtlarda	-11.3033
▁bekleme	-11.3034
vent	-11.3034
▁Home	-11.3034
▁seviyesinde	-11.3035
▁geçişi	-11.3036
▁mizah	-11.3038
▁Dir	-11.3038
▁Özgürlük	-11.3038
mmer	-11.3039
Fo	-11.304
▁Tevfik	-11.3041
kut	-11.3041
▁Bala	-11.3041
▁sayısında	-11.3042
▁Vit	-11.3042
▁Light	-11.3042
▁Madde	-11.3045
▁sunan	-11.3045
BC	-11.3045
awa	-11.3046
▁kapağı	-11.3047
▁modelidir	-11.3048
ave	-11.3048
▁kuruluşları	-11.3049
▁ülkelerden	-11.3051
www	-11.3051
▁geçirilmesi	-11.3051
ebilmesi	-11.3051
▁zeka	-11.3052
▁Maz	-11.3053
tıcı	-11.3053
▁Camp	-11.3054
▁Rod	-11.3056
▁çekirdeği	-11.3057
▁Kırgızistan	-11.3058
▁olaydan	-11.3058
▁çıkmak	-11.3058
▁Rayonu	-11.3058
▁91	-11.306
="50	-11.3061
▁propaganda	-11.3061
lular	-11.3061
▁etken	-11.3063
▁denetimi	-11.3065
nız	-11.3065
▁Sivil	-11.3065
▁karakteristik	-11.3065
toloji	-11.3065
▁Yayla	-11.3067
nek	-11.3068
laşması	-11.3068
▁gelişmiştir	-11.3069
lock	-11.3071
▁uy	-11.3071
▁imkân	-11.3071
▁batıya	-11.3071
▁kitabını	-11.3071
Ki	-11.3072
▁geçmeden	-11.3072
▁Fars	-11.3072
ago	-11.3072
▁tohum	-11.3072
▁bitirmiştir	-11.3073
▁uzaktan	-11.3074
ışma	-11.3074
kır	-11.3076
▁turnuvanın	-11.3076
▁fazladır	-11.3078
▁çıkaran	-11.3079
lerindendir	-11.3079
▁millet	-11.308
rme	-11.3083
yazar	-11.3086
▁noktalar	-11.3087
SO	-11.3087
▁öngörü	-11.3088
▁familya	-11.3091
▁Çan	-11.3092
▁sektörü	-11.3092
yıldız	-11.3093
▁Ferdinand	-11.3093
▁Th	-11.3094
▁Şimdi	-11.3094
▁Sezonun	-11.3095
söz	-11.3096
▁yazmış	-11.3096
stone	-11.3096
068"	-11.3097
▁uyan	-11.3098
▁fazlası	-11.3099
▁sergiler	-11.3099
▁programını	-11.3102
▁şifreleme	-11.3104
=43	-11.3105
▁Augustus	-11.3106
▁tarafına	-11.3107
ates	-11.3109
▁Toronto	-11.3109
▁yöneldi	-11.311
▁taht	-11.3114
▁adaylık	-11.3116
dım	-11.3117
="272	-11.3117
▁kullanılma	-11.3117
çam	-11.3117
▁sıralamasında	-11.3118
▁katılımı	-11.3121
▁170	-11.3122
İng	-11.3125
▁Fal	-11.3126
Gra	-11.3126
▁komedyen	-11.3129
▁şov	-11.3129
▁alındığında	-11.3129
▁Grek	-11.313
ırlar	-11.313
в	-11.3132
▁rap	-11.3132
ilmiştir	-11.3132
▁Stein	-11.3133
▁ormanları	-11.3135
▁Hacettepe	-11.3135
▁89	-11.3138
cul	-11.3138
▁By	-11.3139
▁gözlemci	-11.3141
▁1921'	-11.3142
sper	-11.3143
▁Uluslar	-11.3145
ilebilir	-11.3146
▁görüntüleme	-11.3146
▁Budapeşte	-11.3148
▁tersi	-11.3148
Sch	-11.3149
▁Yakup	-11.3149
▁Kırgız	-11.315
▁Warner	-11.315
lor	-11.3153
▁etiket	-11.3154
▁aradan	-11.3155
▁CEO	-11.3156
▁kentsel	-11.3156
▁savunur	-11.3157
▁koltuk	-11.3157
▁Ludwig	-11.3157
▁Lar	-11.316
nica	-11.3161
▁edildiğini	-11.3164
▁etmedi	-11.3165
▁subayı	-11.3166
▁takdir	-11.3167
▁Genelde	-11.3169
▁öte	-11.317
▁yürütülen	-11.3171
lag	-11.3172
▁yönetme	-11.3175
İki	-11.3176
▁gücünün	-11.3176
▁konumundadır	-11.3177
Miss	-11.3178
Qu	-11.3179
▁çoğal	-11.3179
▁Ticari	-11.3181
▁organizasyonu	-11.3182
▁liderlik	-11.3183
=118	-11.3183
▁1938'	-11.3184
shima	-11.3185
▁Manuel	-11.3188
▁noktasına	-11.319
▁serisinde	-11.3191
▁Sınıf	-11.3195
▁1948'	-11.3195
lamaya	-11.3195
▁Are	-11.3196
▁bulunmayan	-11.32
Çe	-11.3201
▁üretiminde	-11.3201
Fu	-11.3204
="72	-11.3205
Va	-11.3206
▁restore	-11.3207
▁gösterilebilir	-11.3208
735"	-11.3208
dre	-11.3208
▁atletizm	-11.3212
Tar	-11.3213
▁360	-11.3215
▁yayınları	-11.3217
▁kapatıldı	-11.3221
ough	-11.3222
▁hi	-11.3222
▁Liberal	-11.3222
▁Endülüs	-11.3227
▁görüntüler	-11.3229
▁Aba	-11.3231
▁Ödül	-11.3233
▁formayı	-11.3233
▁Rai	-11.3234
▁değiştirilmiş	-11.3234
▁üniversitede	-11.3234
AB	-11.3235
▁Havacılık	-11.3236
İs	-11.3237
▁hac	-11.3239
▁ala	-11.324
▁Marx	-11.324
▁düşünülür	-11.324
▁uyarlanan	-11.3241
▁America	-11.3241
▁sahnede	-11.3243
▁Hard	-11.3244
▁derinliği	-11.3245
▁aralık	-11.3246
laştırılmış	-11.3247
▁azaltma	-11.3248
=51	-11.3249
bun	-11.3251
pal	-11.3251
▁Missouri	-11.3253
hei	-11.3254
▁ilkesi	-11.3256
▁buluş	-11.3257
ilerek	-11.3258
Aşağı	-11.3258
▁st	-11.3259
▁zevk	-11.326
ET	-11.326
▁ağzı	-11.3261
uka	-11.3263
▁Hac	-11.3265
▁araştırması	-11.3266
gat	-11.3267
ía	-11.3268
gli	-11.327
▁1966'	-11.3272
▁yaban	-11.3272
▁sayısına	-11.3273
▁ailesinden	-11.3273
▁oynar	-11.3273
▁esin	-11.3273
▁aralığında	-11.3274
▁Lie	-11.3275
▁Nehir	-11.3275
▁deneyimi	-11.3276
="148	-11.3276
Kim	-11.3276
▁Bayan	-11.3277
▁ölmüş	-11.3277
▁giderken	-11.3278
alist	-11.3279
İl	-11.328
▁plaj	-11.3281
▁3-2	-11.3281
▁Boris	-11.3282
▁geçirme	-11.3282
▁yoluna	-11.3283
▁karakterize	-11.3284
737"	-11.3286
▁seçimler	-11.3287
skaya	-11.3288
Ru	-11.3289
meden	-11.3291
727"	-11.3291
fik	-11.3292
▁dönmüş	-11.3292
Ara	-11.3292
▁alet	-11.3293
▁140	-11.3293
▁göstermiş	-11.3295
▁Od	-11.3298
372"	-11.3299
▁Wrestling	-11.3299
▁çene	-11.3302
883"	-11.3303
▁Çu	-11.3303
luğun	-11.3305
▁Jin	-11.3305
▁saati	-11.3305
able	-11.3306
▁ilaçlar	-11.3306
▁Nadir	-11.3306
▁eriş	-11.3309
▁kuzeyindeki	-11.3309
Kat	-11.331
▁Sy	-11.331
▁London	-11.331
▁görevlileri	-11.3311
▁sağlayacak	-11.3311
▁Coğrafi	-11.3312
kuyu	-11.3313
▁birincisi	-11.3313
▁ayrılıp	-11.3313
▁ilki	-11.3316
▁oyu	-11.3318
▁demo	-11.332
▁tat	-11.3321
“	-11.3323
ان	-11.3323
▁işlet	-11.3323
▁Ami	-11.3324
kawa	-11.3325
▁makam	-11.3325
▁Irmağı	-11.3326
▁adalar	-11.3326
lıca	-11.3327
▁peynir	-11.3328
▁yoksun	-11.3329
▁kendileri	-11.333
Yeşil	-11.3331
▁ürünlerin	-11.3331
="116	-11.3332
▁Divan	-11.3332
▁sezonudur	-11.3332
▁Lor	-11.3335
îr	-11.3335
▁Pur	-11.3335
yerek	-11.3336
ebe	-11.3337
▁Bahar	-11.3338
borg	-11.334
▁1958'	-11.3341
şma	-11.3341
▁marşı	-11.3342
▁hücresi	-11.3342
ulmuş	-11.3343
▁Ball	-11.3345
▁atmosfer	-11.3345
734"	-11.3345
▁Santos	-11.3347
▁koruyan	-11.3347
783"	-11.3347
bah	-11.3349
▁kaçır	-11.3349
▁Bat	-11.335
▁boyları	-11.335
▁çapraz	-11.3352
738"	-11.3353
▁karşılamak	-11.3353
971"	-11.3354
ildiği	-11.3354
▁Uzman	-11.3354
023"	-11.3355
▁Call	-11.3355
rul	-11.3356
▁tutma	-11.3358
leyip	-11.3358
▁bastır	-11.3359
▁taşıdı	-11.3359
bani	-11.3361
▁kullan	-11.3361
▁FM	-11.3363
▁Gustav	-11.3364
vy	-11.3364
▁atık	-11.3364
num	-11.3366
="144	-11.3366
▁kaybetme	-11.3366
▁Serdar	-11.3368
▁istatistik	-11.3371
▁servisi	-11.3372
▁astronomi	-11.3373
=54	-11.3373
▁ayrıldıktan	-11.3374
laştırılması	-11.3378
=89	-11.3379
794"	-11.3379
=94	-11.3379
▁sinemaya	-11.3381
▁imzalandı	-11.3382
=50	-11.3383
▁tamamını	-11.3384
rab	-11.3384
▁eklem	-11.3385
="53	-11.3385
▁Charlotte	-11.339
▁ekleme	-11.339
▁arzu	-11.3391
ıç	-11.3392
▁Singapur	-11.3392
▁milletvekilliği	-11.3392
▁Division	-11.3393
▁keşfetti	-11.3394
▁karma	-11.3395
Love	-11.3396
gah	-11.3397
hel	-11.3399
▁Resmî	-11.3399
080"	-11.3399
▁Başbakanlık	-11.34
Par	-11.3403
ive	-11.3404
▁destekli	-11.3404
Dan	-11.3405
380"	-11.3406
▁kategori	-11.3406
illi	-11.3407
▁Göztepe	-11.3407
▁Dance	-11.3408
▁gerçekçi	-11.341
▁koku	-11.341
▁şarj	-11.341
▁1957'	-11.341
iro	-11.3412
▁Cemil	-11.3412
▁1933'	-11.3412
sever	-11.3413
bik	-11.3414
▁1962'	-11.3416
has	-11.3416
▁hastalığın	-11.3418
▁oyununda	-11.3418
▁sansür	-11.3419
▁katliam	-11.3421
▁don	-11.3422
▁günah	-11.3422
▁Neu	-11.3422
osu	-11.3423
▁malzemeleri	-11.3424
▁Köprü	-11.3428
709"	-11.3429
444"	-11.343
▁eylemleri	-11.3432
▁Akhisar	-11.3436
▁News	-11.3436
▁boyunda	-11.3436
▁Dü	-11.3439
▁kemiği	-11.3439
▁Marshall	-11.3439
▁İznik	-11.344
▁değişiklikleri	-11.3441
▁seferleri	-11.3442
588"	-11.3442
ışık	-11.3443
=110	-11.3443
192"	-11.3444
790"	-11.3444
▁dostu	-11.3444
rdi	-11.3446
812"	-11.3449
▁Sıra	-11.345
▁Harris	-11.3452
▁adaylığı	-11.3453
=226	-11.3453
373"	-11.3454
▁Silva	-11.3454
▁vuruş	-11.3455
▁kuzeye	-11.3455
▁durma	-11.3456
559"	-11.3456
▁makineleri	-11.3457
tah	-11.3457
▁1947'	-11.3459
▁programının	-11.3459
▁giyme	-11.3459
▁ikon	-11.3459
312"	-11.346
▁Bölgenin	-11.3461
▁gidil	-11.3461
▁Makedon	-11.3466
▁seramik	-11.3466
sindeki	-11.3467
pra	-11.3467
Deniz	-11.3467
▁Tag	-11.3468
alp	-11.3469
▁bilimler	-11.3469
pes	-11.3469
▁başlarına	-11.3469
▁arz	-11.347
071"	-11.347
MP	-11.3472
▁elli	-11.3472
▁Sea	-11.3473
EP	-11.3476
▁App	-11.3477
▁özdeş	-11.3477
rup	-11.3477
▁Höyük	-11.3479
▁özelliklere	-11.348
eç	-11.3481
▁felaket	-11.3482
▁ga	-11.3482
Ed	-11.3482
▁Kürtçe	-11.3483
▁Moore	-11.3484
443"	-11.3485
511"	-11.3485
▁İvan	-11.3486
916"	-11.3486
523"	-11.3486
▁kurar	-11.3486
▁enzim	-11.3487
▁krallığı	-11.3487
▁karşılaşmada	-11.3488
▁Rol	-11.3489
▁yağı	-11.3489
▁yalan	-11.3491
▁Demirci	-11.3493
▁Tayyip	-11.3493
▁hükümetin	-11.3493
ois	-11.3494
▁fren	-11.3495
▁öğreti	-11.3495
▁simgesi	-11.3496
▁rütbe	-11.3496
▁görmesi	-11.3496
▁ahlak	-11.3497
▁Mira	-11.3498
▁çe	-11.3498
▁sür	-11.3499
ე	-11.35
▁böcek	-11.3503
▁hocası	-11.3504
▁yasaları	-11.3504
▁geçirir	-11.3504
Alman	-11.3506
▁geliyordu	-11.3508
▁gözleri	-11.3511
▁Mani	-11.3514
ø	-11.3514
▁fırlatma	-11.3515
813"	-11.3515
▁Theo	-11.3519
920"	-11.3519
▁böbrek	-11.352
▁yapabilir	-11.3522
adlandırılmıştır	-11.3523
=277	-11.3523
▁Mahalle	-11.3523
▁Robin	-11.3523
=65	-11.3524
305"	-11.3525
bü	-11.3525
izmi	-11.3525
kuş	-11.3525
▁fakültesi	-11.3526
879"	-11.3526
aq	-11.3527
▁Çoğunlukla	-11.3527
▁Erol	-11.3529
788"	-11.3529
090"	-11.3529
461"	-11.353
▁kura	-11.353
▁Mori	-11.353
▁taktik	-11.353
▁format	-11.353
▁Jam	-11.3531
732"	-11.3531
▁yayılması	-11.3531
▁jet	-11.3531
▁yıllara	-11.3531
▁Ödüller	-11.3534
▁Howard	-11.3534
▁Gordon	-11.3535
▁Akademik	-11.3535
ée	-11.3536
zler	-11.3537
▁yayıldı	-11.3538
▁sadrazam	-11.3541
750"	-11.3543
▁çanak	-11.3543
▁emin	-11.3544
▁1961'	-11.3546
▁adaya	-11.3546
▁Def	-11.3546
▁Fon	-11.3547
▁yollarını	-11.3547
786"	-11.3548
▁Pınar	-11.3548
▁geçmek	-11.3549
▁çek	-11.3551
hak	-11.3555
Tur	-11.3556
=95	-11.3557
▁tanrıça	-11.3557
▁Tah	-11.3557
▁sorumludur	-11.3558
▁kurucuları	-11.3558
924"	-11.3558
Şa	-11.3558
▁Uzak	-11.3559
ries	-11.356
▁1963'	-11.3561
226"	-11.3563
▁oksit	-11.3564
▁programına	-11.3565
▁ulaşıl	-11.3566
782"	-11.3566
▁yarışan	-11.3566
▁şartlar	-11.3566
▁Nev	-11.3567
▁bileşeni	-11.3568
▁ex	-11.3569
210"	-11.357
077"	-11.3571
şır	-11.3571
▁Bruce	-11.3573
all	-11.3573
690"	-11.3574
="173	-11.3575
▁Miami	-11.3576
kop	-11.3576
711"	-11.3577
▁olamadı	-11.3578
725"	-11.3578
▁kaliteli	-11.3579
▁kaldılar	-11.3579
EM	-11.358
▁çizgisi	-11.3581
▁soğutma	-11.3581
▁canlandırmıştır	-11.3581
lanıyor	-11.3581
▁ilişkilerini	-11.3582
▁bilgisayarlar	-11.3582
▁birleşerek	-11.3583
401"	-11.3584
▁Dans	-11.3585
▁gerektiren	-11.3585
▁sub	-11.3585
▁vakıf	-11.3588
272"	-11.3589
▁Bayrak	-11.359
▁yaşandı	-11.359
▁mitolojisi	-11.359
▁üçü	-11.3592
▁seviyesinden	-11.3593
▁heykeltıraş	-11.3595
▁kaydedilen	-11.3595
▁unsurları	-11.3595
151"	-11.3596
496"	-11.3596
▁duyulan	-11.3596
▁Günümüz	-11.3597
▁tutarlı	-11.3597
▁Ani	-11.36
▁kelimesinin	-11.3601
919"	-11.3601
=152	-11.3601
▁cihazları	-11.3601
▁Yüksekokulu	-11.3601
IC	-11.3603
▁getirilmiş	-11.3604
▁geliştir	-11.3604
hri	-11.3605
▁görmektedir	-11.3605
▁toplantısında	-11.3606
alım	-11.3607
=109	-11.3607
546"	-11.3607
▁Abdülhamid	-11.3608
▁yaşarlar	-11.3609
▁türbe	-11.3609
▁tanımlayan	-11.361
▁giydiği	-11.3611
▁1959'	-11.3611
535"	-11.3611
▁ediliyor	-11.3612
▁fare	-11.3612
▁damar	-11.3613
▁birleşmesi	-11.3613
▁yayılmış	-11.3613
939"	-11.3614
▁Kate	-11.3615
▁Yargıtay	-11.3615
729"	-11.3615
467"	-11.3616
▁renkte	-11.3618
rell	-11.3618
216"	-11.3618
▁Ferrari	-11.3619
DS	-11.362
▁izole	-11.362
▁üretimine	-11.362
411"	-11.3621
▁Mid	-11.3623
▁yükleme	-11.3623
=108	-11.3625
▁kaçak	-11.3626
390"	-11.3631
552"	-11.3632
▁nemli	-11.3633
▁beldeye	-11.3634
387"	-11.3635
diğinde	-11.3635
▁tamamlanması	-11.3636
787"	-11.3637
242"	-11.3637
▁lehçesi	-11.3638
447"	-11.3638
▁konusudur	-11.3641
▁kullanıcılar	-11.3641
▁geliş	-11.3642
war	-11.3642
▁Sadrazam	-11.3642
▁More	-11.3645
▁sen	-11.3645
▁simge	-11.3646
▁Margaret	-11.3646
▁Tang	-11.3647
liyor	-11.3647
▁inanma	-11.3647
196"	-11.3648
▁Tennessee	-11.3649
▁elverişli	-11.3649
γ	-11.3649
▁kaplıdır	-11.3652
739"	-11.3652
Tra	-11.3653
▁Road	-11.3654
▁Jordan	-11.3654
polis	-11.3655
çak	-11.3655
blo	-11.3655
▁Br	-11.3656
▁Abhazya	-11.3657
yip	-11.3657
▁Budist	-11.3658
997"	-11.3659
▁meta	-11.3661
▁Aviv	-11.3662
▁uyu	-11.3662
▁Zürih	-11.3663
945"	-11.3664
▁Melek	-11.3664
789"	-11.3664
▁inanılır	-11.3664
▁karakterin	-11.3665
müzik	-11.3665
oli	-11.3665
▁2014-15	-11.3667
▁köyünün	-11.3668
▁karşılaştığı	-11.3668
382"	-11.3669
▁kralın	-11.367
▁Pedro	-11.367
▁çoğunun	-11.367
dığında	-11.3671
▁radar	-11.3671
▁gelişti	-11.3672
▁kurallar	-11.3673
▁turistik	-11.3673
742"	-11.3674
747"	-11.3676
▁duyarlı	-11.3677
zza	-11.3677
422"	-11.3678
259"	-11.3678
448"	-11.3679
▁bağları	-11.368
▁Wei	-11.3682
202"	-11.3682
▁Tenis	-11.3683
055"	-11.3684
741"	-11.3688
417"	-11.3688
203"	-11.3688
174"	-11.3689
zor	-11.3689
327"	-11.3689
▁Karakter	-11.3689
333"	-11.3689
▁tümüyle	-11.369
820"	-11.369
▁Kennedy	-11.369
▁Jandarma	-11.369
▁tüp	-11.3691
▁boyutları	-11.3692
▁bireyin	-11.3692
119"	-11.3692
▁Aşağıda	-11.3693
▁katman	-11.3694
▁öldürme	-11.3694
▁yetenek	-11.3695
351"	-11.3696
▁yıldızın	-11.3697
Azerbaycan	-11.3697
▁Gran	-11.3698
ound	-11.3698
▁Yay	-11.3698
▁uçaklar	-11.37
▁bilimci	-11.3701
412"	-11.3702
▁1964'	-11.3702
▁Takımlar	-11.3703
669"	-11.3704
▁çıkmasına	-11.3705
▁1877	-11.3705
881"	-11.3706
▁Phone	-11.3707
070"	-11.3707
200"	-11.3707
▁sözlerini	-11.3708
▁bağlamda	-11.3708
410"	-11.371
▁Niğde	-11.3711
733"	-11.3712
585"	-11.3712
▁boşluk	-11.3713
281"	-11.3713
ovo	-11.3714
▁antlaşması	-11.3715
936"	-11.3715
815"	-11.3717
898"	-11.3718
051"	-11.3718
802"	-11.3719
826"	-11.3721
825"	-11.3721
857"	-11.3722
368"	-11.3722
▁Ras	-11.3723
abildi	-11.3724
▁yayılma	-11.3724
▁evin	-11.3727
Fer	-11.3727
801"	-11.3727
lıkla	-11.3729
▁verildiği	-11.3729
Cor	-11.3731
=52	-11.3732
deniz	-11.3732
ب	-11.3732
▁Öztürk	-11.3733
▁geçirmesi	-11.3734
583"	-11.3734
▁1922'	-11.3734
▁Viktor	-11.3736
451"	-11.3737
186"	-11.3738
▁1902	-11.3738
ülasyon	-11.3738
▁sakatlık	-11.3739
=90	-11.3739
867"	-11.3739
610"	-11.3739
▁Küresel	-11.374
▁bilinç	-11.3741
▁nesneler	-11.3741
amamıştır	-11.3741
804"	-11.3742
929"	-11.3743
▁Dis	-11.3745
▁satır	-11.3745
▁çalışmasını	-11.3745
▁Kolordusu	-11.3746
▁koy	-11.3748
▁taşınmıştır	-11.3749
631"	-11.3749
▁katılımıyla	-11.375
570"	-11.3751
▁Şehirde	-11.3751
▁İstasyon	-11.3752
▁duyan	-11.3752
Mustafa	-11.3753
▁köken	-11.3753
505"	-11.3753
▁emriyle	-11.3754
doğu	-11.3754
▁ayıran	-11.3755
▁protokol	-11.3756
504"	-11.3756
949"	-11.3757
▁Meta	-11.3759
261"	-11.3759
▁dilin	-11.376
526"	-11.376
▁kararıyla	-11.3761
740"	-11.3761
▁Kre	-11.3762
▁Russell	-11.3763
884"	-11.3763
çer	-11.3763
695"	-11.3763
173"	-11.3763
▁kullanımını	-11.3764
▁Filo	-11.3764
582"	-11.3766
git	-11.3766
▁şövalye	-11.3766
▁yaşamın	-11.3766
▁edilme	-11.3767
▁kapasite	-11.3767
▁yayımlanmış	-11.3769
▁Yi	-11.3769
▁altındadır	-11.3769
388"	-11.3769
441"	-11.377
907"	-11.3771
▁sakat	-11.3771
▁(8	-11.3772
▁alev	-11.3773
445"	-11.3774
455"	-11.3774
▁asil	-11.3774
922"	-11.3774
▁diller	-11.3775
▁oynanmıştır	-11.3775
fur	-11.3775
968"	-11.3775
▁sınıflandırıl	-11.3776
▁İsrailli	-11.3777
▁rejimi	-11.3778
486"	-11.3779
▁ru	-11.3779
▁saz	-11.378
▁Cy	-11.378
▁vampir	-11.378
213"	-11.378
408"	-11.3781
404"	-11.3782
▁suları	-11.3782
▁Buradaki	-11.3782
▁kitabının	-11.3783
476"	-11.3786
▁Terakki	-11.3787
▁kabartma	-11.3787
▁Store	-11.3787
▁Burdur	-11.3788
▁Kırşehir	-11.3788
▁Kanalı	-11.3788
▁Dre	-11.3789
▁Arg	-11.3789
613"	-11.3789
▁yavru	-11.379
="24	-11.379
▁çevirdi	-11.379
689"	-11.379
791"	-11.3791
769"	-11.3791
807"	-11.3791
692"	-11.3791
="37	-11.3792
175"	-11.3792
▁görülme	-11.3794
▁Sultanı	-11.3794
▁Brüksel	-11.3794
="207	-11.3795
▁noktasında	-11.3796
▁Kapısı	-11.3796
▁Rou	-11.3797
sındaki	-11.3798
İlk	-11.3798
▁Sarah	-11.3798
159"	-11.3798
▁Zeynep	-11.3799
485"	-11.3799
384"	-11.38
ē	-11.3801
▁dayanıklı	-11.3801
221"	-11.3802
407"	-11.3802
▁imzalamıştır	-11.3803
▁gecikme	-11.3803
▁seçilme	-11.3804
219"	-11.3805
500"	-11.3805
▁tar	-11.3806
329"	-11.3806
837"	-11.3807
061"	-11.3807
796"	-11.3807
TE	-11.3808
=13	-11.3808
=155	-11.3809
317"	-11.381
489"	-11.381
416"	-11.381
ela	-11.3811
469"	-11.3811
340"	-11.3812
959"	-11.3813
302"	-11.3813
▁halı	-11.3814
428"	-11.3814
▁kadroya	-11.3815
▁satranç	-11.3815
386"	-11.3815
▁Kadı	-11.3815
▁göçebe	-11.3816
▁devletinin	-11.3816
917"	-11.3817
▁Kule	-11.3817
369"	-11.3817
▁Gla	-11.3818
994"	-11.3818
717"	-11.3818
▁artı	-11.3819
918"	-11.382
833"	-11.382
105"	-11.3822
841"	-11.3823
▁domuz	-11.3824
587"	-11.3825
sunun	-11.3825
▁koç	-11.3825
hit	-11.3828
763"	-11.3828
818"	-11.3829
şit	-11.3829
955"	-11.3831
▁Başkanlık	-11.3831
▁yetişen	-11.3831
▁Met	-11.3832
▁Nam	-11.3832
254"	-11.3832
▁suya	-11.3833
752"	-11.3833
▁yaprakları	-11.3834
▁gövdesi	-11.3834
Mon	-11.3834
iyat	-11.3835
▁kalanı	-11.3835
682"	-11.3835
▁bahçesi	-11.3835
694"	-11.3836
▁metni	-11.3836
▁Gan	-11.3836
205"	-11.3836
▁sürümleri	-11.3836
065"	-11.3836
▁sürme	-11.3838
▁Get	-11.3838
▁doktoru	-11.3839
▁incelenmesi	-11.3839
420"	-11.384
ED	-11.384
470"	-11.384
="104	-11.3843
▁Şey	-11.3843
▁tazminat	-11.3843
Uluslararası	-11.3843
▁Solo	-11.3844
731"	-11.3844
▁sakinleri	-11.3844
770"	-11.3846
792"	-11.3846
▁güçler	-11.3846
619"	-11.3847
081"	-11.3847
▁üretti	-11.3847
568"	-11.3848
▁başlamadan	-11.3849
237"	-11.3849
▁Harbi	-11.3849
558"	-11.3849
003"	-11.3849
▁Senaryo	-11.385
lığının	-11.385
969"	-11.385
▁üret	-11.385
▁monte	-11.3851
703"	-11.3853
▁1965'	-11.3854
679"	-11.3854
649"	-11.3854
oro	-11.3855
761"	-11.3855
▁Somali	-11.3856
▁Eyaletin	-11.3856
645"	-11.3857
793"	-11.3857
▁nihai	-11.3857
178"	-11.3858
066"	-11.3858
▁durumları	-11.3859
▁atı	-11.3861
214"	-11.3861
▁Operasyonu	-11.3862
464"	-11.3863
▁Jason	-11.3864
483"	-11.3864
rid	-11.3864
▁Antalyaspor	-11.3864
ull	-11.3865
▁j	-11.3866
▁eşitliği	-11.3866
Bey	-11.3867
▁filmdir	-11.3868
▁giymiş	-11.3868
▁Burak	-11.3869
976"	-11.387
▁1906	-11.387
▁Fernando	-11.387
▁girmek	-11.387
▁bilet	-11.387
664"	-11.3871
▁Tara	-11.3871
▁Ann	-11.3872
hra	-11.3872
abildiği	-11.3873
▁çevreleyen	-11.3873
▁CO	-11.3873
▁ten	-11.3873
▁merdiven	-11.3873
457"	-11.3874
479"	-11.3875
632"	-11.3876
581"	-11.3876
▁Sco	-11.3876
797"	-11.3877
553"	-11.3877
429"	-11.3877
▁gösterileri	-11.3877
▁Yasa	-11.3879
323"	-11.3879
630"	-11.3879
230"	-11.3879
▁güçlerini	-11.388
784"	-11.3881
gö	-11.3881
547"	-11.3882
280"	-11.3882
▁alacağı	-11.3882
685"	-11.3884
093"	-11.3885
▁üyeler	-11.3885
▁İşbirliği	-11.3885
▁öldürülmüştür	-11.3885
▁Kitabın	-11.3887
▁etmez	-11.3888
▁bölgelerinden	-11.3888
▁PS	-11.3889
662"	-11.389
▁Hur	-11.389
vu	-11.389
466"	-11.3891
602"	-11.3891
▁kurtar	-11.3892
tern	-11.3892
063"	-11.3892
253"	-11.3893
▁şarkılarını	-11.3894
270"	-11.3895
▁State	-11.3896
▁yatağı	-11.3896
138"	-11.3897
▁çağı	-11.3898
çık	-11.3899
359"	-11.3899
082"	-11.39
926"	-11.3901
399"	-11.3901
767"	-11.3901
367"	-11.3902
▁Paulo	-11.3902
▁kaydedildi	-11.3903
▁kütüphanesi	-11.3903
▁Devri	-11.3904
▁"“	-11.3905
▁ülkesine	-11.3905
▁atanan	-11.3906
951"	-11.3906
▁Jeff	-11.3906
▁hasılat	-11.3907
923"	-11.3907
▁yıllardan	-11.3907
266"	-11.3907
468"	-11.3907
thy	-11.3908
İnsan	-11.3908
▁şeytan	-11.3908
▁ima	-11.3908
508"	-11.3908
▁kamyon	-11.3909
123"	-11.3909
▁tasarlandı	-11.3911
▁editör	-11.3911
▁standardı	-11.3912
116"	-11.3912
▁seviyeleri	-11.3913
▁Bayburt	-11.3913
▁entelektüel	-11.3913
▁Japonca	-11.3913
lic	-11.3914
▁sebze	-11.3914
477"	-11.3914
697"	-11.3915
hos	-11.3915
656"	-11.3915
413"	-11.3916
336"	-11.3916
ilk	-11.3916
▁çamur	-11.3916
157"	-11.3917
046"	-11.3917
928"	-11.3917
319"	-11.3917
211"	-11.3917
▁Kane	-11.3917
383"	-11.3918
Amerika	-11.3918
ht	-11.3918
846"	-11.3919
▁kavuştu	-11.392
490"	-11.392
lebilir	-11.3921
▁Kelly	-11.3922
712"	-11.3923
060"	-11.3925
993"	-11.3925
047"	-11.3926
Almanca	-11.3926
üç	-11.3927
▁ölçüm	-11.3928
795"	-11.3928
▁yazarıdır	-11.3928
074"	-11.3929
▁Kai	-11.3929
ales	-11.3929
▁otoyol	-11.393
kum	-11.3932
848"	-11.3932
ush	-11.3932
499"	-11.3932
▁planda	-11.3932
▁Kolej	-11.3932
628"	-11.3933
▁çatısı	-11.3934
125"	-11.3934
465"	-11.3934
▁çıkıntı	-11.3934
▁Reich	-11.3935
112"	-11.3935
▁değerler	-11.3935
▁1894	-11.3936
607"	-11.3937
▁sisteme	-11.3937
▁gönderir	-11.3937
▁Rihanna	-11.3938
342"	-11.3938
▁faaliyete	-11.3939
560"	-11.3941
814"	-11.3941
433"	-11.3943
=37	-11.3943
011"	-11.3944
▁telefonu	-11.3944
678"	-11.3944
▁Sabah	-11.3944
Off	-11.3945
▁Diş	-11.3945
kra	-11.3945
ith	-11.3946
▁Limanı	-11.3946
236"	-11.3946
▁turist	-11.3946
045"	-11.3948
lemiş	-11.3949
▁skorla	-11.395
TC	-11.395
683"	-11.3951
5)	-11.3951
405"	-11.3951
963"	-11.3952
824"	-11.3953
▁Onlar	-11.3953
▁gelince	-11.3953
-25	-11.3953
030"	-11.3954
=113	-11.3954
067"	-11.3955
446"	-11.3956
▁manevi	-11.3956
513"	-11.3956
865"	-11.3956
887"	-11.3956
▁komün	-11.3957
475"	-11.3958
=129	-11.3959
617"	-11.3959
▁Körfez	-11.3959
374"	-11.396
995"	-11.396
780"	-11.396
rac	-11.3962
▁âşık	-11.3962
385"	-11.3963
472"	-11.3963
114"	-11.3963
▁Katliamı	-11.3963
çuk	-11.3964
▁festivali	-11.3964
079"	-11.3964
181"	-11.3965
914"	-11.3965
▁detaylı	-11.3965
atik	-11.3966
941"	-11.3968
▁Fabrikası	-11.3968
020"	-11.3968
]]'	-11.3968
579"	-11.397
▁%1,2	-11.397
▁É	-11.397
▁takımlarında	-11.3971
169"	-11.3971
▁aynıdır	-11.3971
ppe	-11.3973
423"	-11.3974
726"	-11.3974
294"	-11.3974
▁Muh	-11.3974
▁haberler	-11.3975
miyor	-11.3975
▁kanunu	-11.3975
▁taşıdığı	-11.3976
798"	-11.3976
232"	-11.3977
615"	-11.3977
957"	-11.3978
▁aşamada	-11.3979
284"	-11.3979
▁Dave	-11.398
381"	-11.398
▁havada	-11.398
▁emretti	-11.3981
tav	-11.3981
Pan	-11.3981
728"	-11.3981
370"	-11.3981
Tanrı	-11.3981
326"	-11.3981
029"	-11.3982
▁şeklini	-11.3983
193"	-11.3983
▁gerekçe	-11.3983
487"	-11.3984
▁Geçici	-11.3985
749"	-11.3986
▁müzesi	-11.3986
▁180	-11.3986
▁pompa	-11.3987
528"	-11.3987
▁edilecek	-11.3988
▁Saf	-11.3988
layabilir	-11.3988
191"	-11.3988
775"	-11.3989
515"	-11.399
ت	-11.399
▁yapısına	-11.3991
▁dallarında	-11.3991
024"	-11.3991
817"	-11.3991
▁takvimi	-11.3991
▁takımla	-11.3991
942"	-11.3992
452"	-11.3992
▁paşa	-11.3992
mesiyle	-11.3992
▁kışın	-11.3994
▁Cruz	-11.3994
621"	-11.3994
▁akan	-11.3995
521"	-11.3996
я	-11.3996
882"	-11.3997
▁Medine	-11.3997
076"	-11.3997
kam	-11.3998
▁istenen	-11.3998
▁yıla	-11.3999
▁Müslümanların	-11.3999
758"	-11.3999
fel	-11.3999
194"	-11.3999
684"	-11.3999
▁1.0	-11.4
666"	-11.4
▁resimler	-11.4
▁bileşenleri	-11.4002
575"	-11.4002
904"	-11.4002
101"	-11.4002
▁çam	-11.4002
894"	-11.4003
mıyor	-11.4003
102"	-11.4004
256"	-11.4004
▁kayma	-11.4005
604"	-11.4005
▁İktisadi	-11.4005
378"	-11.4005
246"	-11.4005
▁türlerinin	-11.4006
▁yapımlar	-11.4006
▁danışman	-11.4007
686"	-11.4008
▁Elektronik	-11.4009
718"	-11.4009
▁görmeye	-11.401
776"	-11.401
274"	-11.401
886"	-11.401
852"	-11.401
713"	-11.401
967"	-11.401
049"	-11.401
276"	-11.4011
032"	-11.4011
873"	-11.4012
▁Fuat	-11.4012
▁Mareşal	-11.4012
▁Auto	-11.4012
▁şerit	-11.4012
▁Kadir	-11.4013
▁geçirerek	-11.4013
109"	-11.4013
304"	-11.4013
498"	-11.4015
748"	-11.4016
▁vermeyi	-11.4016
▁nehrin	-11.4016
▁İpek	-11.4017
657"	-11.4017
ces	-11.4017
078"	-11.4017
▁buçuk	-11.4018
536"	-11.4018
▁bez	-11.4018
▁sanatçıların	-11.4018
707"	-11.4019
▁direnç	-11.4019
=154	-11.4019
▁Senfoni	-11.4019
▁oğlunun	-11.4021
▁Pul	-11.4022
=111	-11.4022
668"	-11.4022
gri	-11.4022
164"	-11.4023
522"	-11.4024
▁Kaz	-11.4024
540"	-11.4025
557"	-11.4025
231"	-11.4026
▁heyecan	-11.4026
iza	-11.4027
431"	-11.4027
π	-11.4027
567"	-11.4028
▁konumunda	-11.4028
530"	-11.4028
438"	-11.4028
▁sanatları	-11.4029
510"	-11.403
311"	-11.403
460"	-11.4031
▁yazarlığı	-11.4031
287"	-11.4031
▁ortamında	-11.4031
▁Test	-11.4031
▁verdiğini	-11.4031
▁Matthew	-11.4031
248"	-11.4032
449"	-11.4032
391"	-11.4033
="105	-11.4034
627"	-11.4034
▁kaldıktan	-11.4034
623"	-11.4034
843"	-11.4034
yim	-11.4036
▁savaştı	-11.4036
419"	-11.4036
▁bilimleri	-11.4037
110"	-11.4037
▁Dai	-11.4038
▁okun	-11.4039
US	-11.4039
escu	-11.4039
946"	-11.404
▁Kırklareli	-11.404
▁Ven	-11.4041
913"	-11.4041
004"	-11.4041
sızlık	-11.4042
▁faaliyetlerine	-11.4042
902"	-11.4042
980"	-11.4042
▁artırmak	-11.4043
142"	-11.4043
108"	-11.4043
463"	-11.4043
▁yolda	-11.4044
212"	-11.4044
▁kalem	-11.4044
▁iğne	-11.4045
361"	-11.4045
▁Batılı	-11.4046
554"	-11.4047
334"	-11.4047
▁Okyanus	-11.4047
▁görünümü	-11.4047
tura	-11.4047
▁hipo	-11.4047
392"	-11.4048
377"	-11.4048
414"	-11.4048
224"	-11.4048
551"	-11.4048
402"	-11.4048
▁belirleyen	-11.4048
168"	-11.4048
▁1956'	-11.4049
803"	-11.405
179"	-11.405
360"	-11.405
710"	-11.4051
943"	-11.4051
300"	-11.4051
357"	-11.4052
▁başladığında	-11.4052
425"	-11.4052
350"	-11.4052
▁ilişkilidir	-11.4052
146"	-11.4053
tto	-11.4053
250"	-11.4053
409"	-11.4053
233"	-11.4054
992"	-11.4054
ος	-11.4055
▁Om	-11.4056
nez	-11.4057
▁ulaşımı	-11.4057
038"	-11.4057
fat	-11.4057
832"	-11.4057
▁Kür	-11.4058
375"	-11.4058
022"	-11.4058
243"	-11.406
609"	-11.406
118"	-11.4061
605"	-11.4062
808"	-11.4062
366"	-11.4062
▁karın	-11.4062
543"	-11.4062
▁indirme	-11.4063
▁gelecekteki	-11.4064
▁geçerlidir	-11.4064
835"	-11.4065
723"	-11.4066
▁mahallesinde	-11.4066
▁yıldızların	-11.4066
▁basketbolcu	-11.4067
241"	-11.4068
▁Cab	-11.4068
▁nüfuz	-11.4069
▁Kaba	-11.4071
514"	-11.4071
▁hikâyeleri	-11.4071
▁Law	-11.4072
288"	-11.4072
177"	-11.4073
154"	-11.4073
▁İsim	-11.4073
▁prensibi	-11.4073
765"	-11.4074
026"	-11.4074
474"	-11.4074
Ber	-11.4074
▁tehlikesi	-11.4075
▁Fotoğraf	-11.4076
▁Boeing	-11.4076
283"	-11.4076
859"	-11.4077
▁oraya	-11.4077
▁adasında	-11.4077
592"	-11.4078
İran	-11.4078
▁dağları	-11.4078
779"	-11.408
512"	-11.408
hai	-11.408
492"	-11.408
="76	-11.4081
▁hormon	-11.4081
▁1949'	-11.4081
▁cihazın	-11.4081
252"	-11.4081
▁çağır	-11.4083
122"	-11.4083
ndedir	-11.4083
507"	-11.4084
lamaz	-11.4084
829"	-11.4086
148"	-11.4086
014"	-11.4087
▁nedenlerle	-11.4087
745"	-11.4088
614"	-11.4088
850"	-11.4088
757"	-11.4088
541"	-11.4089
577"	-11.409
▁İttihat	-11.409
▁Sayı	-11.4091
426"	-11.4091
295"	-11.4091
▁kurulmasına	-11.4091
▁Belçikalı	-11.4093
415"	-11.4094
328"	-11.4094
527"	-11.4094
362"	-11.4094
932"	-11.4095
▁Sünni	-11.4095
940"	-11.4095
▁kalmaya	-11.4095
278"	-11.4096
565"	-11.4096
743"	-11.4096
▁anlaşmaya	-11.4096
453"	-11.4096
806"	-11.4096
teydi	-11.4097
▁zordur	-11.4097
480"	-11.4097
him	-11.4097
▁ermiştir	-11.4098
960"	-11.4098
▁Mesih	-11.4098
189"	-11.4099
▁Dergi	-11.4099
▁kurmaya	-11.41
218"	-11.41
418"	-11.41
785"	-11.4101
▁katılması	-11.4101
▁parçacıklar	-11.4103
▁Erdem	-11.4104
339"	-11.4104
027"	-11.4105
▁Bilge	-11.4105
▁1936'	-11.4105
569"	-11.4105
▁%33,	-11.4105
223"	-11.4105
▁vezir	-11.4106
▁Ü	-11.4106
▁lüks	-11.4106
722"	-11.4107
104"	-11.4109
=93	-11.4109
878"	-11.4109
888"	-11.4109
365"	-11.4109
516"	-11.4109
eks	-11.411
="75	-11.411
208"	-11.411
▁patlaması	-11.4111
ole	-11.4111
▁Gir	-11.4111
000"	-11.4112
uru	-11.4112
235"	-11.4112
691"	-11.4112
▁1893	-11.4113
▁Kıta	-11.4113
542"	-11.4113
291"	-11.4114
=36	-11.4114
dık	-11.4114
908"	-11.4114
201"	-11.4114
970"	-11.4114
525"	-11.4115
▁Steven	-11.4115
183"	-11.4116
348"	-11.4116
006"	-11.4117
Ağ	-11.4117
901"	-11.4117
="78	-11.4118
▁Bolşevik	-11.4118
▁tarihçisi	-11.4118
978"	-11.4118
822"	-11.4118
730"	-11.4118
ue	-11.4119
025"	-11.4119
▁Iğdır	-11.4119
▁Bürosu	-11.4119
471"	-11.4119
271"	-11.4119
548"	-11.412
979"	-11.412
459"	-11.4121
264"	-11.4121
hn	-11.4122
982"	-11.4124
293"	-11.4124
800"	-11.4125
755"	-11.4126
▁gösteriler	-11.4127
436"	-11.4127
257"	-11.4127
618"	-11.4127
▁Özellikler	-11.4128
035"	-11.4128
Ahmet	-11.4129
▁Wayne	-11.4129
▁gerçekleştirmiş	-11.4129
001"	-11.4129
CD	-11.4129
964"	-11.413
892"	-11.413
517"	-11.4131
▁memleketi	-11.4131
937"	-11.4131
▁Tepesi	-11.4131
562"	-11.4131
▁antrenör	-11.4131
989"	-11.4132
698"	-11.4132
107"	-11.4133
537"	-11.4133
427"	-11.4133
533"	-11.4133
862"	-11.4135
809"	-11.4135
836"	-11.4135
176"	-11.4135
180"	-11.4136
598"	-11.4136
332"	-11.4137
▁şef	-11.4137
379"	-11.4137
586"	-11.4137
494"	-11.4139
811"	-11.4139
▁sistemidir	-11.4139
671"	-11.414
034"	-11.4141
▁Aleksios	-11.4141
▁amaçları	-11.4142
nch	-11.4142
909"	-11.4142
143"	-11.4142
608"	-11.4143
834"	-11.4143
667"	-11.4144
495"	-11.4145
▁tutulan	-11.4145
▁müdür	-11.4146
▁Platon	-11.4147
▁Lisa	-11.4147
▁çıkışını	-11.4147
Mak	-11.4147
▁içerdiği	-11.4148
198"	-11.4148
▁Yok	-11.4148
▁senaryosu	-11.4149
041"	-11.4149
310"	-11.4149
094"	-11.415
▁Cass	-11.415
▁sade	-11.415
228"	-11.415
534"	-11.4151
tekin	-11.4151
▁dönmesi	-11.4151
394"	-11.4152
972"	-11.4152
715"	-11.4152
481"	-11.4152
603"	-11.4152
▁istatistikleri	-11.4153
206"	-11.4154
153"	-11.4154
▁belirler	-11.4154
759"	-11.4154
347"	-11.4155
877"	-11.4156
▁FIBA	-11.4156
▁eylemi	-11.4156
▁imkânsız	-11.4156
▁teknolojik	-11.4156
Tri	-11.4156
bara	-11.4157
531"	-11.4157
sten	-11.4157
650"	-11.4157
▁düşün	-11.4157
kim	-11.4158
456"	-11.4158
868"	-11.4158
545"	-11.4159
965"	-11.416
▁eleştirmen	-11.416
268"	-11.416
▁Şeker	-11.416
▁Marksist	-11.416
Cu	-11.416
▁İncil	-11.4161
844"	-11.4161
uca	-11.4162
▁yenilgiy	-11.4162
430"	-11.4163
phe	-11.4163
363"	-11.4164
▁Lyon	-11.4164
640"	-11.4164
▁vazgeç	-11.4165
▁lazer	-11.4165
273"	-11.4165
▁biyoloji	-11.4166
961"	-11.4167
▁ilkel	-11.4167
▁Tiyatroları	-11.4167
μ	-11.4168
849"	-11.4169
▁1901	-11.4169
195"	-11.417
▁Channel	-11.417
255"	-11.417
▁Aksaray	-11.4171
651"	-11.4171
▁zarfında	-11.4171
140"	-11.4171
▁eserini	-11.4172
875"	-11.4172
▁elçi	-11.4173
▁1914'	-11.4173
462"	-11.4174
▁hazine	-11.4174
434"	-11.4175
2000	-11.4175
092"	-11.4175
058"	-11.4175
vâ	-11.4176
▁sözler	-11.4176
ciliği	-11.4176
▁salgın	-11.4176
▁kazanılan	-11.4177
hard	-11.4178
▁arayüzü	-11.4179
İslam	-11.4179
810"	-11.4181
171"	-11.4181
lio	-11.4182
048"	-11.4182
▁yönetiminin	-11.4183
437"	-11.4183
400"	-11.4184
▁Houston	-11.4184
▁noktaya	-11.4184
805"	-11.4184
▁taraflı	-11.4185
984"	-11.4185
706"	-11.4185
616"	-11.4185
636"	-11.4186
▁güvence	-11.4186
158"	-11.4186
245"	-11.4186
529"	-11.4187
524"	-11.4188
tius	-11.4188
▁Fuji	-11.4188
751"	-11.419
▁istilası	-11.419
599"	-11.4191
595"	-11.4191
▁yenilerek	-11.4192
299"	-11.4192
rar	-11.4192
beş	-11.4193
017"	-11.4193
005"	-11.4194
▁Est	-11.4194
▁Esen	-11.4195
alt	-11.4195
389"	-11.4196
ûr	-11.4196
435"	-11.4196
▁şiirler	-11.4196
▁kabine	-11.4196
925"	-11.4197
397"	-11.4198
187"	-11.4198
▁ömür	-11.4198
331"	-11.4199
▁Kansas	-11.4199
099"	-11.4199
519"	-11.42
956"	-11.4201
det	-11.4201
642"	-11.4201
▁Kenya	-11.4202
▁ilkeleri	-11.4202
▁bölünmesi	-11.4202
▁bakanlığı	-11.4203
▁Yön	-11.4203
899"	-11.4203
▁etkisiz	-11.4205
880"	-11.4205
▁dakikalık	-11.4207
Cha	-11.4207
561"	-11.4208
845"	-11.4209
634"	-11.421
343"	-11.421
677"	-11.4211
▁105	-11.4211
▁şüpheli	-11.4212
âl	-11.4213
="265	-11.4213
▁Baron	-11.4214
096"	-11.4214
573"	-11.4215
199"	-11.4215
163"	-11.4215
996"	-11.4216
675"	-11.4217
117"	-11.4217
778"	-11.4217
975"	-11.4218
364"	-11.4218
iko	-11.4219
▁kalenin	-11.4219
600"	-11.422
maç	-11.4221
260"	-11.4222
▁Kav	-11.4222
▁kullanması	-11.4222
947"	-11.4223
▁Konsey	-11.4223
▁doğuya	-11.4223
062"	-11.4224
▁konumda	-11.4224
756"	-11.4224
054"	-11.4226
tsch	-11.4226
▁İleri	-11.4226
▁1882	-11.4227
934"	-11.4227
▁Wu	-11.4227
040"	-11.4227
938"	-11.4228
▁enfeksiyon	-11.4228
161"	-11.4228
977"	-11.4229
207"	-11.4229
039"	-11.423
kil	-11.423
580"	-11.4231
222"	-11.4231
249"	-11.4231
693"	-11.4232
▁olasılıkla	-11.4232
vas	-11.4233
▁Sav	-11.4234
344"	-11.4234
590"	-11.4234
838"	-11.4234
950"	-11.4234
adi	-11.4234
933"	-11.4235
073"	-11.4237
696"	-11.4237
858"	-11.4237
687"	-11.4238
893"	-11.424
083"	-11.424
564"	-11.424
896"	-11.424
641"	-11.4241
013"	-11.4241
klar	-11.4241
▁2008-09	-11.4242
316"	-11.4242
▁söyleme	-11.4242
701"	-11.4242
688"	-11.4243
▁dedesi	-11.4243
▁Gogh	-11.4243
▁Gü	-11.4244
▁baştan	-11.4244
▁yakalandı	-11.4244
354"	-11.4244
▁gram	-11.4244
170"	-11.4244
▁rehber	-11.4246
uğu	-11.4248
482"	-11.4248
çilik	-11.4249
352"	-11.4249
629"	-11.4251
539"	-11.4251
308"	-11.4252
▁yüksekliğinde	-11.4253
478"	-11.4253
▁1952'	-11.4254
="281	-11.4254
661"	-11.4255
009"	-11.4256
966"	-11.4257
084"	-11.4258
▁silindir	-11.4259
▁belediyenin	-11.4259
724"	-11.4259
yas	-11.426
028"	-11.4261
376"	-11.4262
▁Copa	-11.4262
▁suda	-11.4263
▁avantaj	-11.4263
▁yükselmesi	-11.4264
091"	-11.4264
=148	-11.4264
571"	-11.4264
238"	-11.4265
277"	-11.4265
860"	-11.4265
816"	-11.4266
699"	-11.4266
059"	-11.4267
781"	-11.4267
▁kaybeder	-11.4268
▁cephesi	-11.4269
301"	-11.4269
440"	-11.4269
▁getir	-11.4269
330"	-11.427
869"	-11.427
905"	-11.427
▁sorumluluk	-11.4271
▁%0,6'	-11.4271
wing	-11.4272
RT	-11.4272
▁hastaneye	-11.4273
493"	-11.4273
▁evliliği	-11.4273
660"	-11.4274
▁tüketici	-11.4274
625"	-11.4275
▁orduya	-11.4275
▁Fiziksel	-11.4275
985"	-11.4276
▁bakanlık	-11.4276
371"	-11.4276
stro	-11.4277
Ci	-11.4279
197"	-11.4279
204"	-11.428
760"	-11.428
532"	-11.428
▁1.1	-11.428
loji	-11.428
611"	-11.4281
▁grubundan	-11.4281
991"	-11.4282
872"	-11.4282
289"	-11.4282
864"	-11.4282
▁İhsan	-11.4283
659"	-11.4283
296"	-11.4284
704"	-11.4285
075"	-11.4285
▁Dakota	-11.4286
▁pamuk	-11.4286
403"	-11.4286
▁Oliver	-11.4286
768"	-11.4289
538"	-11.429
▁çiz	-11.4292
990"	-11.4292
▁haz	-11.4292
871"	-11.4292
948"	-11.4293
754"	-11.4293
=103	-11.4293
454"	-11.4294
▁sit	-11.4295
▁kullanımına	-11.4295
▁Hıristiyan	-11.4295
008"	-11.4296
oko	-11.4297
774"	-11.4298
952"	-11.4298
larken	-11.4299
215"	-11.4299
▁Morgan	-11.4299
450"	-11.43
095"	-11.43
▁Bayern	-11.4302
▁düştüğü	-11.4302
▁ormanlık	-11.4303
▁bakımı	-11.4303
160"	-11.4303
601"	-11.4303
987"	-11.4303
314"	-11.4304
▁Ligue	-11.4304
▁ilahi	-11.4305
▁1937'	-11.4305
473"	-11.4305
▁zorundadır	-11.4306
▁temelli	-11.4307
unt	-11.4308
652"	-11.4308
866"	-11.4309
▁geometrik	-11.4309
799"	-11.4309
▁Biyo	-11.4311
▁eğilim	-11.4313
▁etkileme	-11.4313
550"	-11.4314
424"	-11.4314
düzenlenmektedir	-11.4314
921"	-11.4314
831"	-11.4314
503"	-11.4315
▁karaciğer	-11.4315
106"	-11.4317
▁Yöre	-11.4318
644"	-11.4318
▁maske	-11.4319
▁eylemler	-11.4319
▁Take	-11.4321
▁arması	-11.4321
954"	-11.4321
▁meşe	-11.4322
269"	-11.4322
▁Hus	-11.4322
▁Altyapı	-11.4323
▁Derin	-11.4323
▁Intel	-11.4323
033"	-11.4323
▁renkler	-11.4324
053"	-11.4324
▁sahasında	-11.4324
217"	-11.4325
▁ofis	-11.4325
▁kadınlara	-11.4325
▁gitmiştir	-11.4326
▁oluş	-11.4326
442"	-11.4328
mî	-11.4328
▁beraberlik	-11.4329
▁%6	-11.4329
056"	-11.433
▁Üzerine	-11.433
167"	-11.433
▁begin	-11.4331
▁kaybetmiş	-11.4331
906"	-11.4332
889"	-11.4332
626"	-11.4333
▁Şubesi	-11.4333
563"	-11.4333
şt	-11.4333
981"	-11.4334
▁Donanma	-11.4334
072"	-11.4334
262"	-11.4335
Kap	-11.4337
▁Mez	-11.4337
▁zeytin	-11.4337
861"	-11.4337
▁amaçlar	-11.4337
876"	-11.4337
▁1892	-11.4338
087"	-11.4338
reti	-11.4341
321"	-11.4341
700"	-11.4341
855"	-11.4342
▁yukarıda	-11.4342
▁British	-11.4343
137"	-11.4343
▁usulü	-11.4343
655"	-11.4343
▁anlattığı	-11.4344
▁Konser	-11.4344
458"	-11.4344
911"	-11.4345
777"	-11.4346
▁dağıtımı	-11.4347
115"	-11.4348
131"	-11.4349
▁Çınar	-11.435
▁bakımdan	-11.435
870"	-11.435
612"	-11.435
681"	-11.435
▁yardımcılığı	-11.435
120"	-11.4351
509"	-11.4351
▁yönetimini	-11.4351
012"	-11.4351
736"	-11.4351
658"	-11.4351
▁giril	-11.4352
708"	-11.4352
762"	-11.4352
ulu	-11.4352
064"	-11.4352
▁Flor	-11.4353
=24	-11.4353
746"	-11.4354
▁Ozan	-11.4354
983"	-11.4355
▁hacim	-11.4356
▁Kit	-11.4356
▁Beach	-11.4357
821"	-11.4357
335"	-11.4358
▁Kaza	-11.4359
▁teknolojileri	-11.4359
futbol	-11.4359
225"	-11.4359
596"	-11.4359
502"	-11.4359
laştı	-11.436
bury	-11.4361
306"	-11.4361
315"	-11.4362
aux	-11.4362
639"	-11.4363
▁Makine	-11.4364
▁yanındaki	-11.4364
▁siyaseti	-11.4364
130"	-11.4365
▁savaşları	-11.4365
▁iTunes	-11.4366
263"	-11.4367
050"	-11.4367
▁papa	-11.4368
111"	-11.4368
676"	-11.4368
▁Hamdi	-11.4369
lenmeye	-11.437
▁çalışmalarıyla	-11.437
▁Oto	-11.4371
▁dairesel	-11.4371
▁pu	-11.4372
680"	-11.4373
282"	-11.4373
▁İlin	-11.4373
089"	-11.4373
251"	-11.4374
▁sistematik	-11.4374
897"	-11.4375
578"	-11.4375
▁kökleri	-11.4376
052"	-11.4377
▁metrelik	-11.4377
ğında	-11.4377
▁ilçeye	-11.4377
kendi	-11.4378
002"	-11.4378
620"	-11.4378
lendirilmiş	-11.4379
285"	-11.4379
974"	-11.4379
324"	-11.4379
▁eserlerin	-11.438
265"	-11.438
185"	-11.438
▁Alay	-11.4381
▁çömlek	-11.4381
▁1953'	-11.4381
133"	-11.4381
716"	-11.4381
▁tecrübe	-11.4382
874"	-11.4382
▁büyümesi	-11.4382
▁Halkın	-11.4383
915"	-11.4383
121"	-11.4383
958"	-11.4384
▁gösterim	-11.4384
▁Alayı	-11.4384
396"	-11.4385
▁kullanılabil	-11.4385
267"	-11.4385
▁Aliyev	-11.4386
▁Tha	-11.4386
240"	-11.4387
yeceği	-11.4388
036"	-11.4389
721"	-11.4389
643"	-11.4389
ault	-11.4391
007"	-11.4393
tov	-11.4393
itt	-11.4393
▁toplulukları	-11.4395
▁1955'	-11.4395
lış	-11.4395
Gök	-11.4395
▁ordusunda	-11.4398
124"	-11.4399
188"	-11.4399
▁İlkokulu	-11.4399
nat	-11.4401
135"	-11.4402
113"	-11.4402
491"	-11.4402
439"	-11.4402
▁yarışmayı	-11.4402
566"	-11.4403
▁direnci	-11.4403
018"	-11.4403
488"	-11.4404
998"	-11.4404
▁konsol	-11.4404
▁Ankaragücü	-11.4405
AF	-11.4405
593"	-11.4406
518"	-11.4406
öv	-11.4406
584"	-11.4406
549"	-11.4406
▁Utah	-11.4406
=115	-11.4407
▁Stadı	-11.4407
▁şekillerde	-11.4408
▁Ner	-11.4409
637"	-11.441
▁kapat	-11.441
▁zi	-11.441
nom	-11.441
606"	-11.441
▁Portakal	-11.4411
▁Geçidi	-11.4412
297"	-11.4413
842"	-11.4413
▁Sait	-11.4414
653"	-11.4415
398"	-11.4415
▁personeli	-11.4415
318"	-11.4417
234"	-11.4417
ücü	-11.4417
229"	-11.4417
▁hâkim	-11.4417
▁bize	-11.4418
▁papaz	-11.4418
▁canavar	-11.4418
▁nu	-11.4419
=21	-11.442
▁oynan	-11.4422
903"	-11.4422
927"	-11.4423
▁Eşi	-11.4423
576"	-11.4423
▁Lind	-11.4423
bl	-11.4424
714"	-11.4424
▁%64,0	-11.4425
▁Donald	-11.4427
764"	-11.4427
▁Lou	-11.4428
▁Gay	-11.4429
▁bağlantıları	-11.4431
ırken	-11.4431
638"	-11.4432
▁anlar	-11.4434
▁bana	-11.4434
▁halefi	-11.4434
828"	-11.4434
406"	-11.4436
▁töreninde	-11.4436
▁beyan	-11.4436
Dar	-11.4438
346"	-11.4439
▁davranışı	-11.4439
127"	-11.4439
393"	-11.4439
Com	-11.4439
497"	-11.4439
▁tehdidi	-11.444
sergilenmektedir	-11.444
insan	-11.4441
▁cihazı	-11.4441
▁yerleşmiştir	-11.4442
019"	-11.4443
▁kalmak	-11.4443
421"	-11.4444
823"	-11.4444
244"	-11.4444
227"	-11.4445
591"	-11.4445
▁ideoloji	-11.4445
572"	-11.4445
239"	-11.4446
="166	-11.4446
▁modül	-11.4446
Fransızca	-11.4446
▁ft	-11.4446
▁gücüne	-11.4447
298"	-11.4448
▁söylenen	-11.4448
Öz	-11.4448
▁gerekiyordu	-11.4449
▁eyaletleri	-11.445
▁gelmişti	-11.445
▁tuğla	-11.445
▁göstermesi	-11.4451
▁ilişkilendiril	-11.4451
çik	-11.4452
103"	-11.4452
209"	-11.4453
594"	-11.4453
▁Bros	-11.4454
metrik	-11.4454
162"	-11.4455
▁Yalçın	-11.4455
719"	-11.4455
▁Ün	-11.4456
▁Valley	-11.4456
▁kümesidir	-11.4456
PC	-11.4457
885"	-11.4457
098"	-11.4459
▁sendika	-11.446
152"	-11.446
▁Hemen	-11.446
▁ruhu	-11.4461
▁Kütüphane	-11.4461
▁1835	-11.4461
ш	-11.4462
▁Oklahoma	-11.4462
▁1881	-11.4463
931"	-11.4463
▁görünme	-11.4465
uga	-11.4466
▁modu	-11.4466
▁babasını	-11.4467
Fransa	-11.4468
854"	-11.4469
▁gitmiş	-11.447
▁tepkime	-11.447
▁sayımında	-11.4471
057"	-11.4471
▁malzemesi	-11.4471
▁robot	-11.4471
292"	-11.4472
▁ibn	-11.4472
150"	-11.4473
136"	-11.4473
▁Mik	-11.4473
▁tedarik	-11.4474
999"	-11.4474
986"	-11.4474
▁olanağı	-11.4474
574"	-11.4475
▁kampı	-11.4476
cel	-11.4476
▁doldur	-11.4476
▁sembol	-11.4476
672"	-11.4476
144"	-11.4477
▁eşittir	-11.4477
▁sigorta	-11.4479
830"	-11.448
▁planlı	-11.4482
624"	-11.4483
▁Petro	-11.4483
▁güneyindeki	-11.4484
▁Hamza	-11.4485
▁kararını	-11.4485
ings	-11.4486
▁Carol	-11.4487
▁ü	-11.4487
705"	-11.4488
▁Death	-11.4488
Rusya	-11.4489
vre	-11.449
Hacı	-11.449
589"	-11.4491
▁kullandıkları	-11.4492
▁müziğe	-11.4492
▁gişe	-11.4493
744"	-11.4493
085"	-11.4494
▁Sankt	-11.4494
dadır	-11.4494
670"	-11.4495
▁Konstantinos	-11.4495
▁Arts	-11.4496
▁akışkan	-11.4496
▁Lizbon	-11.4496
▁Pictures	-11.4496
▁taarruzu	-11.4497
▁düşündü	-11.4497
▁geçip	-11.4497
771"	-11.4498
gın	-11.4498
313"	-11.4499
307"	-11.4499
037"	-11.4499
819"	-11.4501
▁Vel	-11.4502
enburg	-11.4502
646"	-11.4503
▁mezhebi	-11.4504
▁eğilimi	-11.4505
▁foton	-11.4506
895"	-11.4506
▁Airlines	-11.4507
▁örümcek	-11.4507
149"	-11.4508
▁gösterge	-11.4508
▁türe	-11.451
▁ilerledi	-11.451
▁alfabe	-11.451
-30	-11.4511
484"	-11.4511
▁karşıt	-11.4512
▁tükenmiş	-11.4512
▁yitirdi	-11.4512
258"	-11.4513
▁yakalama	-11.4513
▁1923'	-11.4513
▁His	-11.4514
827"	-11.4514
165"	-11.4514
▁Erivan	-11.4515
▁tekstil	-11.4515
▁Sidney	-11.4515
355"	-11.4516
▁dostluk	-11.4516
▁yaratma	-11.4516
▁etmeleri	-11.4516
diye	-11.4517
345"	-11.4518
190"	-11.4518
▁hükûmetinin	-11.4519
▁Mirza	-11.452
▁Miguel	-11.452
belirtilmektedir	-11.4521
▁Sis	-11.4521
665"	-11.4522
129"	-11.4522
▁tamamlanan	-11.4523
100"	-11.4523
mizi	-11.4523
Men	-11.4524
▁kullanıcının	-11.4525
847"	-11.4525
yel	-11.4525
ij	-11.4526
=272	-11.4527
▁Gelen	-11.4527
▁Ernst	-11.4527
▁Muhafız	-11.4528
▁eserlerinin	-11.4528
▁hipotez	-11.4528
▁Hasta	-11.4528
ağın	-11.453
▁finans	-11.453
▁kafatası	-11.453
▁platin	-11.453
▁problemler	-11.4531
▁Gui	-11.4531
▁Moon	-11.4532
597"	-11.4532
▁Karar	-11.4532
520"	-11.4533
▁bilmektedir	-11.4533
▁bölüme	-11.4533
cat	-11.4534
▁Kerim	-11.4535
▁Kavak	-11.4535
▁mekanizma	-11.4537
156"	-11.4539
▁port	-11.4539
▁hikâyesini	-11.4539
▁konulu	-11.454
147"	-11.454
▁aktarma	-11.4542
▁verirler	-11.4544
633"	-11.4546
303"	-11.4548
▁etap	-11.4549
▁Kuveyt	-11.4549
chan	-11.455
▁tu	-11.4551
=265	-11.4552
▁Beh	-11.4552
▁Thi	-11.4552
▁batarya	-11.4552
dov	-11.4552
▁Başlıca	-11.4553
988"	-11.4554
umi	-11.4554
▁çalın	-11.4554
044"	-11.4556
▁Daire	-11.4557
=258	-11.4558
766"	-11.4558
[...]
