{"<unk>":0,"<s>":1,"</s>":2,"<pad>":3,"!":4,"\"":5,"#":6,"$":7,"%":8,"&":9,"'":10,"(":11,")":12,"*":13,"+":14,",":15,"-":16,".":17,"/":18,"0":19,"1":20,"2":21,"3":22,"4":23,"5":24,"6":25,"7":26,"8":27,"9":28,":":29,";":30,"<":31,"=":32,">":33,"?":34,"@":35,"A":36,"B":37,"C":38,"D":39,"E":40,"F":41,"G":42,"H":43,"I":44,"J":45,"K":46,"L":47,"M":48,"N":49,"O":50,"P":51,"Q":52,"R":53,"S":54,"T":55,"U":56,"V":57,"W":58,"X":59,"Y":60,"Z":61,"[":62,"\\":63,"]":64,"^":65,"_":66,"`":67,"a":68,"b":69,"c":70,"d":71,"e":72,"f":73,"g":74,"h":75,"i":76,"j":77,"k":78,"l":79,"m":80,"n":81,"o":82,"p":83,"q":84,"r":85,"s":86,"t":87,"u":88,"v":89,"w":90,"x":91,"y":92,"z":93,"{":94,"|":95,"}":96,"~":97,"¡":98,"£":99,"¥":100,"§":101,"¨":102,"«":103,"®":104,"°":105,"±":106,"²":107,"³":108,"´":109,"µ":110,"·":111,"¹":112,"º":113,"»":114,"¼":115,"½":116,"¿":117,"À":118,"Á":119,"Â":120,"Ä":121,"Å":122,"Æ":123,"Ç":124,"È":125,"É":126,"Ê":127,"Í":128,"Î":129,"Ñ":130,"Ó":131,"Ô":132,"Ö":133,"×":134,"Ø":135,"Ú":136,"Û":137,"Ü":138,"Ý":139,"Þ":140,"ß":141,"à":142,"á":143,"â":144,"ã":145,"ä":146,"å":147,"æ":148,"ç":149,"è":150,"é":151,"ê":152,"ë":153,"ì":154,"í":155,"î":156,"ï":157,"ð":158,"ñ":159,"ò":160,"ó":161,"ô":162,"õ":163,"ö":164,"ø":165,"ù":166,"ú":167,"û":168,"ü":169,"ý":170,"þ":171,"ÿ":172,"Ā":173,"ā":174,"ă":175,"ą":176,"Ć":177,"ć":178,"Č":179,"č":180,"ď":181,"Đ":182,"đ":183,"Ē":184,"ē":185,"ĕ":186,"ė":187,"ę":188,"ě":189,"ĝ":190,"Ğ":191,"ğ":192,"ġ":193,"Ħ":194,"ħ":195,"ĩ":196,"ī":197,"ĭ":198,"į":199,"İ":200,"ı":201,"ķ":202,"ļ":203,"Ľ":204,"ľ":205,"Ł":206,"ł":207,"ń":208,"ņ":209,"ň":210,"ŋ":211,"Ō":212,"ō":213,"ŏ":214,"ő":215,"œ":216,"ř":217,"Ś":218,"ś":219,"ŝ":220,"Ş":221,"ş":222,"Š":223,"š":224,"ţ":225,"ť":226,"ũ":227,"ū":228,"ŭ":229,"ů":230,"ű":231,"ų":232,"ź":233,"Ż":234,"ż":235,"Ž":236,"ž":237,"Ə":238,"ƒ":239,"ơ":240,"ư":241,"ǎ":242,"ǐ":243,"ǒ":244,"ǔ":245,"ǧ":246,"ǫ":247,"Ș":248,"ș":249,"Ț":250,"ț":251,"ȟ":252,"ɐ":253,"ɑ":254,"ɒ":255,"ɔ":256,"ɕ":257,"ə":258,"ɛ":259,"ɡ":260,"ɣ":261,"ɪ":262,"ɾ":263,"ʁ":264,"ʃ":265,"ʉ":266,"ʊ":267,"ʒ":268,"ʔ":269,"ʙ":270,"ʰ":271,"ʲ":272,"ʷ":273,"ʻ":274,"ʼ":275,"ʾ":276,"ʿ":277,"ˈ":278,"ˌ":279,"ː":280,"˚":281,"̀":282,"́":283,"̂":284,"̃":285,"̇":286,"̈":287,"̡":288,"̣":289,"̨":290,"͡":291,"΄":292,"Ά":293,"Έ":294,"Α":295,"Β":296,"Γ":297,"Δ":298,"Ε":299,"Ζ":300,"Η":301,"Θ":302,"Ι":303,"Κ":304,"Λ":305,"Μ":306,"Ν":307,"Ξ":308,"Ο":309,"Π":310,"Ρ":311,"Σ":312,"Τ":313,"Υ":314,"Φ":315,"Χ":316,"Ψ":317,"Ω":318,"ά":319,"έ":320,"ή":321,"ί":322,"α":323,"β":324,"γ":325,"δ":326,"ε":327,"ζ":328,"η":329,"θ":330,"ι":331,"κ":332,"λ":333,"μ":334,"ν":335,"ξ":336,"ο":337,"π":338,"ρ":339,"ς":340,"σ":341,"τ":342,"υ":343,"φ":344,"χ":345,"ψ":346,"ω":347,"ό":348,"ύ":349,"ώ":350,"І":351,"Ј":352,"А":353,"Б":354,"В":355,"Г":356,"Д":357,"Е":358,"Ж":359,"З":360,"И":361,"Й":362,"К":363,"Л":364,"М":365,"Н":366,"О":367,"П":368,"Р":369,"С":370,"Т":371,"У":372,"Ф":373,"Х":374,"Ц":375,"Ч":376,"Ш":377,"Щ":378,"Ы":379,"Ь":380,"Э":381,"Ю":382,"Я":383,"а":384,"б":385,"в":386,"г":387,"д":388,"е":389,"ж":390,"з":391,"и":392,"й":393,"к":394,"л":395,"м":396,"н":397,"о":398,"п":399,"р":400,"с":401,"т":402,"у":403,"ф":404,"х":405,"ц":406,"ч":407,"ш":408,"щ":409,"ъ":410,"ы":411,"ь":412,"э":413,"ю":414,"я":415,"ё":416,"і":417,"ї":418,"ј":419,"љ":420,"њ":421,"ћ":422,"ў":423,"ғ":424,"Қ":425,"қ":426,"ң":427,"Ү":428,"ү":429,"ұ":430,"һ":431,"Ӏ":432,"ӏ":433,"Ә":434,"ә":435,"ӧ":436,"Ө":437,"ө":438,"Ա":439,"Բ":440,"Գ":441,"Ե":442,"Կ":443,"Հ":444,"Մ":445,"Ն":446,"Ս":447,"Վ":448,"ա":449,"բ":450,"գ":451,"դ":452,"ե":453,"զ":454,"թ":455,"ի":456,"լ":457,"կ":458,"հ":459,"ղ":460,"մ":461,"յ":462,"ն":463,"շ":464,"ո":465,"պ":466,"ռ":467,"ս":468,"վ":469,"տ":470,"ր":471,"ց":472,"ւ":473,"ք":474,"ְ":475,"ֲ":476,"ִ":477,"ֵ":478,"ֶ":479,"ַ":480,"ָ":481,"ֹ":482,"ּ":483,"ׁ":484,"א":485,"ב":486,"ג":487,"ד":488,"ה":489,"ו":490,"ז":491,"ח":492,"ט":493,"י":494,"ך":495,"כ":496,"ל":497,"ם":498,"מ":499,"ן":500,"נ":501,"ס":502,"ע":503,"פ":504,"צ":505,"ק":506,"ר":507,"ש":508,"ת":509,"،":510,"ء":511,"آ":512,"أ":513,"ؤ":514,"إ":515,"ئ":516,"ا":517,"ب":518,"ة":519,"ت":520,"ث":521,"ج":522,"ح":523,"خ":524,"د":525,"ذ":526,"ر":527,"ز":528,"س":529,"ش":530,"ص":531,"ض":532,"ط":533,"ظ":534,"ع":535,"غ":536,"ـ":537,"ف":538,"ق":539,"ك":540,"ل":541,"م":542,"ن":543,"ه":544,"و":545,"ى":546,"ي":547,"َ":548,"ُ":549,"ِ":550,"ّ":551,"ْ":552,"ٱ":553,"پ":554,"چ":555,"ک":556,"ڭ":557,"گ":558,"ھ":559,"ہ":560,"ۆ":561,"ۇ":562,"ی":563,"ۍ":564,"ە":565,"ܐ":566,"ܕ":567,"ܘ":568,"ܝ":569,"ܡ":570,"ܢ":571,"ܪ":572,"ܬ":573,"ं":574,"क":575,"ग":576,"ज":577,"ण":578,"त":579,"द":580,"न":581,"प":582,"ब":583,"भ":584,"म":585,"य":586,"र":587,"ल":588,"व":589,"श":590,"स":591,"ह":592,"ा":593,"ि":594,"ी":595,"ु":596,"े":597,"ो":598,"्":599,"ন":600,"ব":601,"র":602,"া":603,"্":604,"ા":605,"ી":606,"க":607,"த":608,"ப":609,"ம":610,"ர":611,"ா":612,"ி":613,"்":614,"್":615,"්":616,"ก":617,"ต":618,"ท":619,"น":620,"ม":621,"ย":622,"ร":623,"ล":624,"ว":625,"อ":626,"ั":627,"า":628,"ิ":629,"ุ":630,"་":631,"်":632,"ა":633,"ბ":634,"გ":635,"დ":636,"ე":637,"ვ":638,"ზ":639,"თ":640,"ი":641,"კ":642,"ლ":643,"მ":644,"ნ":645,"ო":646,"პ":647,"რ":648,"ს":649,"ტ":650,"უ":651,"ფ":652,"ქ":653,"ღ":654,"ყ":655,"შ":656,"ჩ":657,"ც":658,"ძ":659,"წ":660,"ჭ":661,"ხ":662,"ჯ":663,"ር":664,"ን":665,"፡":666,"ᐃ":667,"ᐊ":668,"ᑦ":669,"ᖅ":670,"រ":671,"ា":672,"្":673,"ᴀ":674,"ḍ":675,"ḏ":676,"ḗ":677,"Ḥ":678,"ḥ":679,"Ḫ":680,"ḫ":681,"ḳ":682,"ḵ":683,"ḷ":684,"ṇ":685,"ṣ":686,"ṭ":687,"ṯ":688,"ạ":689,"ả":690,"ấ":691,"ầ":692,"ắ":693,"ế":694,"ễ":695,"ệ":696,"ỉ":697,"ị":698,"ọ":699,"ố":700,"ồ":701,"ộ":702,"ự":703,"ἀ":704,"ἄ":705,"Ἀ":706,"ἐ":707,"ὁ":708,"ὐ":709,"ῆ":710,"ῖ":711,"ῦ":712,"ῶ":713,"‐":714,"‑":715,"–":716,"—":717,"‘":718,"’":719,"‚":720,"“":721,"”":722,"„":723,"‟":724,"†":725,"‡":726,"•":727,"…":728,"‰":729,"′":730,"″":731,"›":732,"⁄":733,"€":734,"₺":735,"ℓ":736,"№":737,"™":738,"←":739,"→":740,"∈":741,"−":742,"√":743,"∞":744,"∥":745,"≈":746,"≠":747,"≡":748,"≤":749,"≥":750,"⋅":751,"─":752,"│":753,"└":754,"├":755,"►":756,"●":757,"☉":758,"♦":759,"♭":760,"♯":761,"⟨":762,"⟩":763,"ⴰ":764,"い":765,"う":766,"か":767,"き":768,"し":769,"な":770,"の":771,"も":772,"り":773,"ん":774,"ア":775,"ィ":776,"イ":777,"ウ":778,"エ":779,"オ":780,"カ":781,"ガ":782,"キ":783,"ク":784,"グ":785,"コ":786,"サ":787,"シ":788,"ジ":789,"ス":790,"ソ":791,"タ":792,"ダ":793,"チ":794,"ッ":795,"テ":796,"デ":797,"ト":798,"ド":799,"ナ":800,"ニ":801,"バ":802,"パ":803,"ビ":804,"フ":805,"ブ":806,"マ":807,"ミ":808,"ム":809,"モ":810,"ャ":811,"ュ":812,"ラ":813,"リ":814,"ル":815,"レ":816,"ロ":817,"ン":818,"・":819,"ー":820,"一":821,"三":822,"上":823,"中":824,"主":825,"之":826,"乡":827,"事":828,"于":829,"五":830,"京":831,"人":832,"代":833,"伊":834,"会":835,"元":836,"克":837,"党":838,"八":839,"公":840,"共":841,"兵":842,"勒":843,"北":844,"区":845,"十":846,"南":847,"原":848,"县":849,"古":850,"可":851,"台":852,"史":853,"合":854,"吉":855,"和":856,"單":857,"回":858,"国":859,"國":860,"地":861,"城":862,"大":863,"天":864,"太":865,"女":866,"子":867,"学":868,"安":869,"宗":870,"家":871,"寺":872,"小":873,"尔":874,"居":875,"山":876,"島":877,"川":878,"州":879,"市":880,"帝":881,"平":882,"建":883,"式":884,"後":885,"戦":886,"手":887,"拉":888,"教":889,"文":890,"斯":891,"新":892,"方":893,"族":894,"日":895,"明":896,"月":897,"朝":898,"木":899,"本":900,"李":901,"村":902,"東":903,"松":904,"株":905,"正":906,"武":907,"民":908,"汗":909,"江":910,"沙":911,"河":912,"治":913,"法":914,"海":915,"湖":916,"特":917,"王":918,"生":919,"田":920,"疆":921,"白":922,"石":923,"社":924,"神":925,"空":926,"縣":927,"義":928,"自":929,"英":930,"華":931,"西":932,"語":933,"軍":934,"道":935,"那":936,"郎":937,"部":938,"都":939,"里":940,"野":941,"金":942,"镇":943,"長":944,"門":945,"阿":946,"隊":947,"韓":948,"馬":949,"高":950,"龍":951,"가":952,"고":953,"공":954,"국":955,"군":956,"기":957,"김":958,"나":959,"니":960,"다":961,"당":962,"대":963,"도":964,"동":965,"라":966,"로":967,"리":968,"미":969,"민":970,"박":971,"사":972,"상":973,"선":974,"성":975,"소":976,"수":977,"스":978,"시":979,"신":980,"아":981,"에":982,"연":983,"영":984,"우":985,"원":986,"유":987,"의":988,"이":989,"인":990,"자":991,"전":992,"정":993,"조":994,"주":995,"지":996,"진":997,"최":998,"트":999,"하":1000,"한":1001,"화":1002,"～":1003,"5</w>":1004,"2</w>":1005,"a</w>":1006,"e</w>":1007,"7</w>":1008,"t</w>":1009,"3</w>":1010,"n</w>":1011,"o</w>":1012,"9</w>":1013,"0</w>":1014,"r</w>":1015,"s</w>":1016,"ş</w>":1017,"ı</w>":1018,"ن</w>":1019,"z</w>":1020,"h</w>":1021,"6</w>":1022,"m</w>":1023,"ě</w>":1024,"8</w>":1025,"i</w>":1026,"l</w>":1027,"w</w>":1028,"y</w>":1029,"d</w>":1030,"-</w>":1031,"ē</w>":1032,"k</w>":1033,"g</w>":1034,"u</w>":1035,"î</w>":1036,"1</w>":1037,"4</w>":1038,"v</w>":1039,"ç</w>":1040,"х</w>":1041,"x</w>":1042,"j</w>":1043,"а</w>":1044,"н</w>":1045,"α</w>":1046,"p</w>":1047,"A</w>":1048,"ä</w>":1049,"ü</w>":1050,"c</w>":1051,"T</w>":1052,"b</w>":1053,"ी</w>":1054,"G</w>":1055,"S</w>":1056,"Х</w>":1057,"ḗ</w>":1058,",</w>":1059,"Y</w>":1060,"İ</w>":1061,"X</w>":1062,"O</w>":1063,"р</w>":1064,"ნ</w>":1065,"ι</w>":1066,"f</w>":1067,"ì</w>":1068,"ō</w>":1069,"о</w>":1070,"E</w>":1071,"R</w>":1072,"Ş</w>":1073,"с</w>":1074,"э</w>":1075,"ն</w>":1076,"ţ</w>":1077,"ų</w>":1078,"P</w>":1079,"й</w>":1080,"ā</w>":1081,"V</w>":1082,":</w>":1083,"\"</w>":1084,"ت</w>":1085,"в</w>":1086,"ğ</w>":1087,"ر</w>":1088,"C</w>":1089,"ּ</w>":1090,"ы</w>":1091,"I</w>":1092,"ი</w>":1093,"д</w>":1094,"س</w>":1095,"ố</w>":1096,"ς</w>":1097,"W</w>":1098,"L</w>":1099,"q</w>":1100,"ة</w>":1101,"M</w>":1102,"ه</w>":1103,"»</w>":1104,"к</w>":1105,"D</w>":1106,"B</w>":1107,"я</w>":1108,"ی</w>":1109,"ي</w>":1110,"د</w>":1111,"ל</w>":1112,"N</w>":1113,"ч</w>":1114,"ա</w>":1115,"е</w>":1116,"é</w>":1117,"â</w>":1118,"Ğ</w>":1119,"ë</w>":1120,"и</w>":1121,"ć</w>":1122,"ī</w>":1123,"H</w>":1124,"K</w>":1125,"≥</w>":1126,"U</w>":1127,"ן</w>":1128,"]</w>":1129,"ū</w>":1130,"共</w>":1131,"ب</w>":1132,"ћ</w>":1133,"י</w>":1134,"ν</w>":1135,"Ü</w>":1136,"َ</w>":1137,"т</w>":1138,"“</w>":1139,"ô</w>":1140,"ق</w>":1141,"정</w>":1142,"م</w>":1143,"ل</w>":1144,"ê</w>":1145,"º</w>":1146,"(</w>":1147,"ת</w>":1148,"з</w>":1149,"ω</w>":1150,"č</w>":1151,"ή</w>":1152,"Э</w>":1153,"/</w>":1154,"_</w>":1155,"ă</w>":1156,"=</w>":1157,"F</w>":1158,"ʁ</w>":1159,")</w>":1160,"ׁ</w>":1161,"̀</w>":1162,"п</w>":1163,"ά</w>":1164,"ö</w>":1165,"Q</w>":1166,"한</w>":1167,"υ</w>":1168,"ა</w>":1169,"ف</w>":1170,"ᖅ</w>":1171,"û</w>":1172,"ï</w>":1173,"ا</w>":1174,"ñ</w>":1175,"&</w>":1176,"ص</w>":1177,"ط</w>":1178,"ь</w>":1179,"ß</w>":1180,"ė</w>":1181,"Z</w>":1182,"ú</w>":1183,"ý</w>":1184,"м</w>":1185,"á</w>":1186,"ม</w>":1187,"ِ</w>":1188,"̣</w>":1189,"ж</w>":1190,"í</w>":1191,"ე</w>":1192,"도</w>":1193,"η</w>":1194,"´</w>":1195,"Ö</w>":1196,"ラ</w>":1197,"у</w>":1198,"ش</w>":1199,"ք</w>":1200,"주</w>":1201,"レ</w>":1202,"시</w>":1203,"љ</w>":1204,"ъ</w>":1205,"J</w>":1206,"ს</w>":1207,".</w>":1208,"ُ</w>":1209,"л</w>":1210,"ɕ</w>":1211,"’</w>":1212,"…</w>":1213,"ǔ</w>":1214,"ى</w>":1215,"\\</w>":1216,"ո</w>":1217,"ó</w>":1218,"ֹ</w>":1219,"ك</w>":1220,"ṇ</w>":1221,"У</w>":1222,"‐</w>":1223,"շ</w>":1224,"ー</w>":1225,"ە</w>":1226,"ん</w>":1227,"ǐ</w>":1228,"რ</w>":1229,"ό</w>":1230,"ę</w>":1231,";</w>":1232,"の</w>":1233,"상</w>":1234,"О</w>":1235,"ň</w>":1236,"ɒ</w>":1237,"š</w>":1238,"ḳ</w>":1239,"ð</w>":1240,"ː</w>":1241,"ο</w>":1242,"τ</w>":1243,"국</w>":1244,"ئ</w>":1245,"Ш</w>":1246,"Д</w>":1247,"ْ</w>":1248,"א</w>":1249,"ң</w>":1250,"ự</w>":1251,"Щ</w>":1252,"ə</w>":1253,"%</w>":1254,"Ч</w>":1255,"?</w>":1256,"त</w>":1257,"è</w>":1258,"스</w>":1259,"></w>":1260,"Σ</w>":1261,"의</w>":1262,"ю</w>":1263,"|</w>":1264,"Έ</w>":1265,"Ж</w>":1266,"다</w>":1267,"ી</w>":1268,"ث</w>":1269,"`</w>":1270,"당</w>":1271,"า</w>":1272,"à</w>":1273,"#</w>":1274,"፡</w>":1275,"ρ</w>":1276,"[</w>":1277,"ב</w>":1278,"Ç</w>":1279,"ⴰ</w>":1280,"×</w>":1281,"ș</w>":1282,"ア</w>":1283,"ो</w>":1284,"ز</w>":1285,"ш</w>":1286,"µ</w>":1287,"ɾ</w>":1288,"ო</w>":1289,"ř</w>":1290,"ռ</w>":1291,"り</w>":1292,"ᑦ</w>":1293,"モ</w>":1294,"い</w>":1295,"タ</w>":1296,"Ι</w>":1297,"র</w>":1298,"†</w>":1299,"σ</w>":1300,"ド</w>":1301,"ʼ</w>":1302,"ί</w>":1303,"ج</w>":1304,"ã</w>":1305,"£</w>":1306,"ù</w>":1307,"리</w>":1308,"φ</w>":1309,"}</w>":1310,"ń</w>":1311,"غ</w>":1312,"Ε</w>":1313,"چ</w>":1314,"ώ</w>":1315,"ン</w>":1316,"史</w>":1317,"ʉ</w>":1318,"б</w>":1319,"ө</w>":1320,"ם</w>":1321,"і</w>":1322,"ť</w>":1323,"イ</w>":1324,"կ</w>":1325,"ク</w>":1326,"수</w>":1327,"ւ</w>":1328,"თ</w>":1329,"ε</w>":1330,"—</w>":1331,"و</w>":1332,"خ</w>":1333,"մ</w>":1334,"우</w>":1335,"+</w>":1336,"ト</w>":1337,"ś</w>":1338,"자</w>":1339,"æ</w>":1340,"←</w>":1341,"А</w>":1342,"江</w>":1343,"이</w>":1344,"Ӏ</w>":1345,"대</w>":1346,"バ</w>":1347,"ṭ</w>":1348,"‘</w>":1349,"́</w>":1350,"화</w>":1351,"ा</w>":1352,"”</w>":1353,"ʙ</w>":1354,"'</w>":1355,"į</w>":1356,"ح</w>":1357,"ә</w>":1358,"ц</w>":1359,"ט</w>":1360,"ò</w>":1361,"ک</w>":1362,"γ</w>":1363,"ł</w>":1364,"ה</w>":1365,"գ</w>":1366,"ル</w>":1367,"ɑ</w>":1368,"̈</w>":1369,"ા</w>":1370,"{</w>":1371,"म</w>":1372,"ր</w>":1373,"ի</w>":1374,"Т</w>":1375,"ّ</w>":1376,"ტ</w>":1377,"里</w>":1378,"щ</w>":1379,"ר</w>":1380,"μ</w>":1381,"̇</w>":1382,"에</w>":1383,"ʃ</w>":1384,"տ</w>":1385,"군</w>":1386,"龍</w>":1387,"Р</w>":1388,"ʊ</w>":1389,"г</w>":1390,"동</w>":1391,"ɪ</w>":1392,"न</w>":1393,"克</w>":1394,"қ</w>":1395,"!</w>":1396,"β</w>":1397,"ῆ</w>":1398,"Ф</w>":1399,"̃</w>":1400,"州</w>":1401,"ŋ</w>":1402,"ɐ</w>":1403,"ṯ</w>":1404,"κ</w>":1405,"դ</w>":1406,"В</w>":1407,"ע</w>":1408,"영</w>":1409,"ʔ</w>":1410,"ξ</w>":1411,"로</w>":1412,"ύ</w>":1413,"ך</w>":1414,"ス</w>":1415,"ზ</w>":1416,"선</w>":1417,"گ</w>":1418,"ع</w>":1419,"∥</w>":1420,"社</w>":1421,"ლ</w>":1422,"ғ</w>":1423,"Ν</w>":1424,"木</w>":1425,"Ο</w>":1426,"ḷ</w>":1427,"å</w>":1428,"И</w>":1429,"ו</w>":1430,"→</w>":1431,"ब</w>":1432,"ד</w>":1433,"ム</w>":1434,"Я</w>":1435,"¡</w>":1436,"ž</w>":1437,"ھ</w>":1438,"기</w>":1439,"ő</w>":1440,"Υ</w>":1441,"¼</w>":1442,"र</w>":1443,"小</w>":1444,"მ</w>":1445,"̂</w>":1446,"ா</w>":1447,"아</w>":1448,"ζ</w>":1449,"ש</w>":1450,"ø</w>":1451,"ர</w>":1452,"К</w>":1453,"კ</w>":1454,"व</w>":1455,"ბ</w>":1456,"진</w>":1457,"ض</w>":1458,"θ</w>":1459,"ء</w>":1460,"њ</w>":1461,"Š</w>":1462,"·</w>":1463,"ց</w>":1464,"ۇ</w>":1465,"소</w>":1466,"ʿ</w>":1467,"Θ</w>":1468,"Ц</w>":1469,"ǎ</w>":1470,"ḍ</w>":1471,"Î</w>":1472,"յ</w>":1473,"ż</w>":1474,"ח</w>":1475,"ۆ</w>":1476,"स</w>":1477,"ק</w>":1478,"キ</w>":1479,"É</w>":1480,"ĭ</w>":1481,"λ</w>":1482,"朝</w>":1483,"ร</w>":1484,"া</w>":1485,"ф</w>":1486,"С</w>":1487,"–</w>":1488,"ү</w>":1489,"ŭ</w>":1490,"ɛ</w>":1491,"ą</w>":1492,"²</w>":1493,"्</w>":1494,"^</w>":1495,"ď</w>":1496,"უ</w>":1497,"Н</w>":1498,"ڭ</w>":1499,"Ա</w>":1500,"«</w>":1501,"М</w>":1502,"წ</w>":1503,"ন</w>":1504,"δ</w>":1505,"ہ</w>":1506,"ʒ</w>":1507,"π</w>":1508,"̡</w>":1509,"ї</w>":1510,"전</w>":1511,"น</w>":1512,"Ю</w>":1513,"国</w>":1514,"ÿ</w>":1515,"デ</w>":1516,"하</w>":1517,"*</w>":1518,"ʷ</w>":1519,"±</w>":1520,"Ն</w>":1521,"本</w>":1522,"آ</w>":1523,"ग</w>":1524,"ュ</w>":1525,"Τ</w>":1526,"Û</w>":1527,"인</w>":1528,"்</w>":1529,"ɡ</w>":1530,"ḥ</w>":1531,"阿</w>":1532,"ְ</w>":1533,"지</w>":1534,"І</w>":1535,"트</w>":1536,"ј</w>":1537,"ṣ</w>":1538,"ț</w>":1539,"Й</w>":1540,"″</w>":1541,"원</w>":1542,"연</w>":1543,"Ê</w>":1544,"니</w>":1545,"թ</w>":1546,"라</w>":1547,"민</w>":1548,"も</w>":1549,"े</w>":1550,"∈</w>":1551,"§</w>":1552,"Η</w>":1553,"ז</w>":1554,"ս</w>":1555,"ल</w>":1556,"ị</w>":1557,"ナ</w>":1558,"प</w>":1559,"Л</w>":1560,"‡</w>":1561,"်</w>":1562,"フ</w>":1563,"ܐ</w>":1564,"•</w>":1565,"リ</w>":1566,"川</w>":1567,"Ž</w>":1568,"क</w>":1569,"˚</w>":1570,"Ω</w>":1571,"Ș</w>":1572,"사</w>":1573,"₺</w>":1574,"ܢ</w>":1575,"~</w>":1576,"●</w>":1577,"√</w>":1578,"›</w>":1579,"ɔ</w>":1580,"法</w>":1581,"ג</w>":1582,"空</w>":1583,"द</w>":1584,"ḫ</w>":1585,"$</w>":1586,"ե</w>":1587,"ܬ</w>":1588,"ܝ</w>":1589,"ё</w>":1590,"ミ</w>":1591,"ů</w>":1592,"─</w>":1593,"№</w>":1594,"½</w>":1595,"Φ</w>":1596,"門</w>":1597,"ɣ</w>":1598,"ʾ</w>":1599,"Ь</w>":1600,"和</w>":1601,"Α</w>":1602,"ण</w>":1603,"්</w>":1604,"ס</w>":1605,"ि</w>":1606,"լ</w>":1607,"õ</w>":1608,"ज</w>":1609,"έ</w>":1610,"ウ</w>":1611,"マ</w>":1612,"Е</w>":1613,"@</w>":1614,"ย</w>":1615,"დ</w>":1616,"な</w>":1617,"բ</w>":1618,"Χ</w>":1619,"∞</w>":1620,"Þ</w>":1621,"軍</w>":1622,"島</w>":1623,"☉</w>":1624,"³</w>":1625,"ź</w>":1626,"≈</w>":1627,"吉</w>":1628,"य</w>":1629,"հ</w>":1630,"ĕ</w>":1631,"ʻ</w>":1632,"う</w>":1633,"中</w>":1634,"Í</w>":1635,"ġ</w>":1636,"コ</w>":1637,"ۍ</w>":1638,"ǫ</w>":1639,"Ż</w>":1640,"Ζ</w>":1641,"த</w>":1642,"ـ</w>":1643,"پ</w>":1644,"ܪ</w>":1645,"Ә</w>":1646,"Ø</w>":1647,"„</w>":1648,"°</w>":1649,"Б</w>":1650,"ӏ</w>":1651,"ᐊ</w>":1652,"ָ</w>":1653,"ダ</w>":1654,"유</w>":1655,"З</w>":1656,"镇</w>":1657,"պ</w>":1658,"ű</w>":1659,"ʲ</w>":1660,"Ρ</w>":1661,"ӧ</w>":1662,"đ</w>":1663,"金</w>":1664,"グ</w>":1665,"ニ</w>":1666,"П</w>":1667,"−</w>":1668,"古</w>":1669,"ĩ</w>":1670,"パ</w>":1671,"か</w>":1672,"し</w>":1673,"조</w>":1674,"ḏ</w>":1675,"ļ</w>":1676,"‰</w>":1677,"ჩ</w>":1678,"Ú</w>":1679,"ˈ</w>":1680,"최</w>":1681,"ว</w>":1682,"ψ</w>":1683,"ロ</w>":1684,"ũ</w>":1685,"ظ</w>":1686,"西</w>":1687,"ў</w>":1688,"Г</w>":1689,"五</w>":1690,"Ы</w>":1691,"ყ</w>":1692,"Č</w>":1693,"≠</w>":1694,"ế</w>":1695,"チ</w>":1696,"き</w>":1697,"ǧ</w>":1698,"ồ</w>":1699,"신</w>":1700,"宗</w>":1701,"վ</w>":1702,"神</w>":1703,"合</w>":1704,"Ə</w>":1705,"′</w>":1706,"Π</w>":1707,"生</w>":1708,"ิ</w>":1709,"ி</w>":1710,"田</w>":1711,"ˌ</w>":1712,"ह</w>":1713,"נ</w>":1714,"성</w>":1715,"һ</w>":1716,"भ</w>":1717,"⟩</w>":1718,"└</w>":1719,"χ</w>":1720,"華</w>":1721,"ា</w>":1722,"ु</w>":1723,"道</w>":1724,"미</w>":1725,"가</w>":1726,"ħ</w>":1727,"ỉ</w>":1728,"台</w>":1729,"¿</w>":1730,"Μ</w>":1731,"テ</w>":1732,"三</w>":1733,"ư</w>":1734,"Ä</w>":1735,"方</w>":1736,"고</w>":1737,"之</w>":1738,"զ</w>":1739,"ַ</w>":1740,"義</w>":1741,"ệ</w>":1742,"ղ</w>":1743,"月</w>":1744,"ソ</w>":1745,"党</w>":1746,"学</w>":1747,"カ</w>":1748,"株</w>":1749,"会</w>":1750,"ก</w>":1751,"オ</w>":1752,"ं</w>":1753,"រ</w>":1754,"공</w>":1755,"伊</w>":1756,"®</w>":1757,"隊</w>":1758,"大</w>":1759,"ʰ</w>":1760,"武</w>":1761,"ֶ</w>":1762,"ガ</w>":1763,"北</w>":1764,"≤</w>":1765,"ķ</w>":1766,"박</w>":1767,"ც</w>":1768,"ǒ</w>":1769,"Λ</w>":1770,"汗</w>":1771,"Հ</w>":1772,"나</w>":1773,"李</w>":1774,"შ</w>":1775,"ŏ</w>":1776,"Ā</w>":1777,"主</w>":1778,"ን</w>":1779,"ブ</w>":1780,"代</w>":1781,"河</w>":1782,"Â</w>":1783,"單</w>":1784,"ィ</w>":1785,"أ</w>":1786,"ᴀ</w>":1787,"石</w>":1788,"Æ</w>":1789,"ビ</w>":1790,"可</w>":1791,"│</w>":1792,"ล</w>":1793,"Ψ</w>":1794,"ℓ</w>":1795,"・</w>":1796,"ャ</w>":1797,"Ḥ</w>":1798,"‟</w>":1799,"Ө</w>":1800,"高</w>":1801,"¨</w>":1802,"ĝ</w>":1803,"ር</w>":1804,"Ү</w>":1805,"͡</w>":1806,"̨</w>":1807,"英</w>":1808,"Ô</w>":1809,"ľ</w>":1810,"ḵ</w>":1811,"エ</w>":1812,"白</w>":1813,"居</w>":1814,"פ</w>":1815,"‑</w>":1816,"ქ</w>":1817,"¹</w>":1818,"正</w>":1819,"シ</w>":1820,"海</w>":1821,"ῦ</w>":1822,"ņ</w>":1823,"श</w>":1824,"于</w>":1825,"ῖ</w>":1826,"ต</w>":1827,"ộ</w>":1828,"南</w>":1829,"沙</w>":1830,"Ս</w>":1831,"Ξ</w>":1832,"È</w>":1833,"Ý</w>":1834,"Κ</w>":1835,"國</w>":1836,"ძ</w>":1837,"צ</w>":1838,"ƒ</w>":1839,"王</w>":1840,"¥</w>":1841,"都</w>":1842,"建</w>":1843,"€</w>":1844,"ذ</w>":1845,"十</w>":1846,"‚</w>":1847,"山</w>":1848,"க</w>":1849,"ܡ</w>":1850,"新</w>":1851,"♦</w>":1852,"治</w>":1853,"Δ</w>":1854,"Ł</w>":1855,"ფ</w>":1856,"族</w>":1857,"Կ</w>":1858,"ọ</w>":1859,"サ</w>":1860,"כ</w>":1861,"ơ</w>":1862,"ジ</w>":1863,"乡</w>":1864,"Ħ</w>":1865,"⋅</w>":1866,"野</w>":1867,"尔</w>":1868,"元</w>":1869,"自</w>":1870,"་</w>":1871,"ả</w>":1872,"ხ</w>":1873,"þ</w>":1874,"韓</w>":1875,"Ñ</w>":1876,"ŝ</w>":1877,"特</w>":1878,"馬</w>":1879,"ღ</w>":1880,"回</w>":1881,"县</w>":1882,"拉</w>":1883,"ჯ</w>":1884,"♭</w>":1885,"ჭ</w>":1886,"Ե</w>":1887,"ὐ</w>":1888,"Մ</w>":1889,"文</w>":1890,"Қ</w>":1891,"Ō</w>":1892,"מ</w>":1893,"原</w>":1894,"ؤ</w>":1895,"太</w>":1896,"天</w>":1897,"安</w>":1898,"გ</w>":1899,"Ć</w>":1900,"Á</w>":1901,"家</w>":1902,"郎</w>":1903,"├</w>":1904,"ব</w>":1905,"城</w>":1906,"™</w>":1907,"長</w>":1908,"斯</w>":1909,"勒</w>":1910,"Å</w>":1911,"区</w>":1912,"Ј</w>":1913,"≡</w>":1914,"民</w>":1915,"œ</w>":1916,"松</w>":1917,"À</w>":1918,"Ē</w>":1919,"縣</w>":1920,"⟨</w>":1921,"事</w>":1922,"明</w>":1923,"΄</w>":1924,"♯</w>":1925,"Ά</w>":1926,"語</w>":1927,"್</w>":1928,"إ</w>":1929,"ἐ</w>":1930,"김</w>":1931,"一</w>":1932,"<</w>":1933,"帝</w>":1934,"Գ</w>":1935,"ვ</w>":1936,"式</w>":1937,"⁄</w>":1938,"京</w>":1939,"公</w>":1940,"Γ</w>":1941,"Ś</w>":1942,"日</w>":1943,"部</w>":1944,"ұ</w>":1945,"ἀ</w>":1946,"ッ</w>":1947,"～</w>":1948,"手</w>":1949,"ܘ</w>":1950,"教</w>":1951,"疆</w>":1952,"Վ</w>":1953,"戦</w>":1954,"那</w>":1955,"Բ</w>":1956,"子</w>":1957,"Ț</w>":1958,"ท</w>":1959,"八</w>":1960,"湖</w>":1961,"市</w>":1962,"女</w>":1963,"ὁ</w>":1964,"،</w>":1965,"寺</w>":1966,"兵</w>":1967,"Ó</w>":1968,"►</w>":1969,"地</w>":1970,"上</w>":1971,"東</w>":1972,"Ľ</w>":1973,"平</w>":1974,"Đ</w>":1975,"後</w>":1976,"Β</w>":1977,"村</w>":1978,"პ</w>":1979,"人</w>":1980,"ạ</w>":1981,"ar":1982,"er":1983,"nd":1984,"la":1985,"il":1986,"an":1987,"in":1988,"al":1989,"ir</w>":1990,"an</w>":1991,"ur":1992,"le":1993,"ti":1994,"lar":1995,"as":1996,"in</w>":1997,"ve</w>":1998,"en":1999,"ak":2000,"en</w>":2001,"es":2002,"ay":2003,"do":2004,"ınd":2005,"ad":2006,"on":2007,"is":2008,"ın":2009,"ol":2010,"ek":2011,"ler":2012,"ir":2013,"=\"</w>":2014,"id</w>":2015,"ın</w>":2016,"doc</w>":2017,"ıl":2018,"or":2019,"et":2020,"iy":2021,"le</w>":2022,"at":2023,"bir</w>":2024,"ed":2025,"un":2026,"ak</w>":2027,"am":2028,"el":2029,"er</w>":2030,"ır</w>":2031,"aş":2032,"ik":2033,"ında</w>":2034,"ind":2035,"ul":2036,"de</w>":2037,"em":2038,"şt":2039,"da</w>":2040,"ür":2041,"ah":2042,"ap":2043,"19":2044,"ya</w>":2045,"ır":2046,"az":2047,"20":2048,"lar</w>":2049,"ün":2050,"im":2051,"lan":2052,"tit":2053,"ağ":2054,"cur":2055,"=\"":2056,"title</w>":2057,"url</w>":2058,"=\"?</w>":2059,"</</w>":2060,"curid</w>":2061,"\"></w>":2062,"inde</w>":2063,"ey":2064,"lan</w>":2065,"ine</w>":2066,"it":2067,"gö":2068,"ev":2069,"iş":2070,"ön":2071,"iç":2072,"tar":2073,"ik</w>":2074,"ler</w>":2075,"ab":2076,"üz":2077,"on</w>":2078,"un</w>":2079,"st":2080,"iğ":2081,"ığ":2082,"yıl":2083,"ek</w>":2084,"esi</w>":2085,"larak</w>":2086,"leri</w>":2087,"af":2088,"ası</w>":2089,"ım":2090,"ları</w>":2091,"ık":2092,"id":2093,"olarak</w>":2094,"iz":2095,"el</w>":2096,"la</w>":2097,"ile</w>":2098,"ini</w>":2099,"ından</w>":2100,"mı":2101,"lı</w>":2102,"av":2103,"ar</w>":2104,"yap":2105,"baş":2106,"al</w>":2107,"li</w>":2108,"du":2109,"ro":2110,"son":2111,"kar":2112,"inin</w>":2113,"bir":2114,"ge":2115,"dı</w>":2116,"ke":2117,"ını</w>":2118,"ık</w>":2119,"mi":2120,"ış":2121,"um":2122,"us":2123,"ına</w>":2124,"ıs":2125,"di</w>":2126,"öl":2127,"eğ":2128,"om":2129,"ül":2130,"üm":2131,"gör":2132,"bil":2133,"nda</w>":2134,"ver":2135,"ist":2136,"oy":2137,"ac":2138,"akt":2139,"için</w>":2140,"bu</w>":2141,"ığı</w>":2142,"et</w>":2143,"ec":2144,"ıy":2145,"yü":2146,"201":2147,"ut":2148,"aç":2149,"se":2150,"te</w>":2151,"op":2152,"ma</w>":2153,"ının</w>":2154,"ih":2155,"olan</w>":2156,"ur</w>":2157,"at</w>":2158,"mışt":2159,"aki</w>":2160,"bul":2161,"eri</w>":2162,"ço":2163,"ra</w>":2164,"mu":2165,"du</w>":2166,"alar":2167,"ele":2168,"ark":2169,"ğu</w>":2170,"kul":2171,"ru":2172,"ic":2173,"ib":2174,"tir":2175,"taraf":2176,"mıştır</w>":2177,"eş":2178,"200":2179,"eh":2180,"ekt":2181,"iği</w>":2182,"uz":2183,"man":2184,"adır</w>":2185,"yılında</w>":2186,"mişt":2187,"im</w>":2188,"ta</w>":2189,"tarafından</w>":2190,"lik":2191,"aya</w>":2192,"dır</w>":2193,"asında</w>":2194,"lam":2195,"edil":2196,"eti":2197,"kur":2198,"ca</w>":2199,"iye</w>":2200,"ör":2201,"Bu</w>":2202,"ok":2203,"miştir</w>":2204,"eki</w>":2205,"dü":2206,"aha</w>":2207,"sonra</w>":2208,"An":2209,"il</w>":2210,"Tür":2211,"or</w>":2212,"bü":2213,"ım</w>":2214,"Ar":2215,"kad":2216,"lu":2217,"os":2218,"ig":2219,"leş":2220,"isi</w>":2221,"ti</w>":2222,"nde</w>":2223,"yar":2224,"mer":2225,"am</w>":2226,"nin</w>":2227,"bulun":2228,"ce</w>":2229,"gel":2230,"öz":2231,"dan</w>":2232,"olu":2233,"edir</w>":2234,"len":2235,"and":2236,"Al":2237,"makt":2238,"oğ":2239,"nın</w>":2240,"ün</w>":2241,"inden</w>":2242,"oldu":2243,"kon":2244,"ot":2245,"par":2246,"ların</w>":2247,"den</w>":2248,"bağ":2249,"ız":2250,"çok</w>":2251,"ıyla</w>":2252,"ans":2253,"kullan":2254,"ks":2255,"tak":2256,"böl":2257,"),</w>":2258,"sür":2259,"18":2260,"lay":2261,"tarih":2262,"ması</w>":2263,"iz</w>":2264,"land":2265,"ilm":2266,"laş":2267,"gen":2268,"mas":2269,"daha</w>":2270,"us</w>":2271,"ilk</w>":2272,"12":2273,"yer":2274,"iler":2275,"çık":2276,"tı</w>":2277,"tr":2278,"cak</w>":2279,"ez":2280,"ise</w>":2281,"uy":2282,"geç":2283,"tan":2284,"lu</w>":2285,"me</w>":2286,"ki</w>":2287,"unda</w>":2288,"ibi</w>":2289,"üzer":2290,"kal":2291,"idir</w>":2292,"iti":2293,"ger":2294,"değ":2295,"kö":2296,"ey</w>":2297,"önem":2298,"yay":2299,"is</w>":2300,"inc":2301,"anı</w>":2302,"maktadır</w>":2303,"çal":2304,"ol</w>":2305,"mekt":2306,"ay</w>":2307,"ul</w>":2308,"ada</w>":2309,"ve":2310,"unu</w>":2311,"ip":2312,"doğ":2313,"199":2314,"yön":2315,"say":2316,"if":2317,"yaz":2318,"eni</w>":2319,"lık</w>":2320,"yaş":2321,"13":2322,"sah":2323,"ort":2324,"var":2325,"tü":2326,"gil":2327,"ter":2328,"lerin</w>":2329,"ov":2330,"dir</w>":2331,"ılan</w>":2332,"kay":2333,"iyle</w>":2334,"Türk":2335,"yer</w>":2336,"it</w>":2337,"kat":2338,"ent":2339,"alı</w>":2340,"mü":2341,"yük</w>":2342,"mış</w>":2343,"cu":2344,"top":2345,"lü":2346,"az</w>":2347,"karş":2348,"ayr":2349,"esine</w>":2350,"gibi</w>":2351,"re":2352,"sp":2353,"yon":2354,"har":2355,"gü":2356,"mak</w>":2357,"çek":2358,"hal":2359,"17":2360,"ati":2361,"Mar":2362,"00</w>":2363,"od":2364,"ip</w>":2365,"Kar":2366,"ep":2367,"15":2368,"und":2369,"es</w>":2370,"san":2371,"yan":2372,"eye</w>":2373,"sır":2374,"mektedir</w>":2375,"miş</w>":2376,"dev":2377,"ala":2378,"eb":2379,"iler</w>":2380,"arasında</w>":2381,"ısı</w>":2382,"eti</w>":2383,"oyun":2384,"16":2385,"etm":2386,"14":2387,"yak":2388,"23":2389,"iki</w>":2390,"zam":2391,"kend":2392,"lem":2393,"tek":2394,"bel":2395,"kadar</w>":2396,"gün":2397,"os</w>":2398,"um</w>":2399,"gr":2400,"ız</w>":2401,"eden</w>":2402,"lik</w>":2403,"tan</w>":2404,"diğ":2405,"em</w>":2406,"ku":2407,"veya</w>":2408,"for":2409,"ne</w>":2410,"şeh":2411,"kan":2412,"ia</w>":2413,"pro":2414,"çalış":2415,"ıdır</w>":2416,"yüz":2417,"198":2418,"Fr":2419,"unun</w>":2420,"ıl</w>":2421,"İn":2422,"büyük</w>":2423,"uc":2424,"Av":2425,"adı</w>":2426,"larında</w>":2427,"den":2428,"ag":2429,"muşt":2430,"başla":2431,"ilç":2432,"öy":2433,"ster":2434,"28":2435,"ılar</w>":2436,"ust":2437,"ken</w>":2438,"Bir":2439,"liği</w>":2440,"alt":2441,"esinde</w>":2442,"ımı</w>":2443,"end":2444,"Ay":2445,"tem":2446,"ef":2447,"eler":2448,"cı</w>":2449,"nı</w>":2450,"10":2451,"piy":2452,"Er":2453,"kaz":2454,"alan</w>":2455,"tür":2456,"İs":2457,"ındaki</w>":2458,"larda</w>":2459,"üs":2460,"he</w>":2461,"29":2462,"aş</w>":2463,"muştur</w>":2464,"göre</w>":2465,"ren":2466,"oldu</w>":2467,"as</w>":2468,"man</w>":2469,"yon</w>":2470,"der":2471,"Or":2472,"ub":2473,"20</w>":2474,"Türkiye</w>":2475,"alan":2476,"lara</w>":2477,"ük":2478,"ış</w>":2479,"ken":2480,"bağlı</w>":2481,"Amer":2482,"inci</w>":2483,"lığı</w>":2484,"ilen</w>":2485,"göster":2486,"vers":2487,"mad":2488,"ser":2489,"daki</w>":2490,"üf":2491,"seç":2492,"let":2493,"tal":2494,"Par":2495,"dur":2496,"kiş":2497,"ıt":2498,"aları</w>":2499,"rup":2500,"birlik":2501,"bar":2502,"res":2503,"gir":2504,"şek":2505,"ko":2506,"Amerik":2507,"olo":2508,"kez":2509,"düş":2510,"etk":2511,"mil":2512,"dığı</w>":2513,"una</w>":2514,"197":2515,"ye</w>":2516,"olduğu</w>":2517,"ellik":2518,"sel</w>":2519,"istan</w>":2520,"30":2521,"lık":2522,"düz":2523,"larını</w>":2524,"uç":2525,"ask":2526,"ch":2527,"ede</w>":2528,"etti</w>":2529,"kap":2530,"üç":2531,"lend":2532,"ana</w>":2533,"lerini</w>":2534,"ür</w>":2535,"şark":2536,"may":2537,"ola":2538,"son</w>":2539,"ıldı</w>":2540,"bulunan</w>":2541,"ıca</w>":2542,"usu</w>":2543,"maya</w>":2544,"sez":2545,"sav":2546,"met":2547,"na</w>":2548,"ildi</w>":2549,"mi</w>":2550,"art":2551,"gu":2552,"tarihinde</w>":2553,"bilir</w>":2554,"ivers":2555,"alar</w>":2556,"kıs":2557,"oz":2558,"onu</w>":2559,"eli</w>":2560,"han":2561,"oyn":2562,"sağ":2563,"dönem":2564,"km</w>":2565,"yüks":2566,"utb":2567,"ulu":2568,"196":2569,"dur</w>":2570,"27":2571,"erek</w>":2572,"len</w>":2573,"25":2574,"10</w>":2575,"çe</w>":2576,"kab":2577,"bölg":2578,"si</w>":2579,"24":2580,"iş</w>":2581,"ili</w>":2582,"değiş":2583,"İl":2584,"iversit":2585,"26":2586,"ber":2587,"birlikte</w>":2588,"St":2589,"re</w>":2590,"ağı</w>":2591,"üy":2592,"ard":2593,"Ad":2594,"liğ":2595,"belir":2596,"ünya</w>":2597,"enin</w>":2598,"larının</w>":2599,"ük</w>":2600,"indeki</w>":2601,"gi</w>":2602,"merkez":2603,"stan":2604,"takım":2605,"ev</w>":2606,"mes":2607,"aç</w>":2608,"ka</w>":2609,"atı</w>":2610,"ışt":2611,"her</w>":2612,"diği</w>":2613,"lerinde</w>":2614,"lerde</w>":2615,"siy":2616,"oloj":2617,"dön":2618,"arak</w>":2619,"eleri</w>":2620,"öğ":2621,"yıl</w>":2622,"diğer</w>":2623,"ten</w>":2624,"iv":2625,"yen":2626,"nüf":2627,"Türk</w>":2628,"Gen":2629,"Dev":2630,"tır":2631,"est":2632,"lü</w>":2633,"lerinin</w>":2634,"film":2635,"imi</w>":2636,"hay":2637,"istem":2638,"Ku":2639,"maç":2640,"ordu</w>":2641,"enter</w>":2642,"hak":2643,"İngil":2644,"ğunu</w>":2645,"Kon":2646,"Baş":2647,"sın":2648,"geliş":2649,"Os":2650,"kom":2651,"ünde</w>":2652,"ileri</w>":2653,"Gün":2654,"tiğ":2655,"eyi</w>":2656,"içer":2657,"lığ":2658,"ign</w>":2659,"\",</w>":2660,"195":2661,"oluş":2662,"kr":2663,"dür":2664,"Ch":2665,"Tar":2666,"aynı</w>":2667,"yayın":2668,"194":2669,"lam</w>":2670,"dır":2671,"mesi</w>":2672,"ştur":2673,"taş":2674,"gru":2675,"larına</w>":2676,"align</w>":2677,"kez</w>":2678,"deki</w>":2679,"Sav":2680,"Ün":2681,"center</w>":2682,"tam":2683,"müz":2684,"leştir":2685,"büm":2686,"ellikle</w>":2687,"12</w>":2688,"landır":2689,"Avrup":2690,"adlı</w>":2691,"hur":2692,"sa</w>":2693,"ley":2694,"Kr":2695,"anda</w>":2696,"ing</w>":2697,"azı</w>":2698,"ned":2699,"landı</w>":2700,"bul</w>":2701,"dül":2702,"eg":2703,"yeni</w>":2704,"15</w>":2705,"İstan":2706,"raf":2707,"Br":2708,"yas":2709,"ıla":2710,"tas":2711,"nun</w>":2712,"Frans":2713,"cu</w>":2714,"arı</w>":2715,"İstanbul</w>":2716,"bur":2717,"aldı</w>":2718,"ünü</w>":2719,"ampiy":2720,"eler</w>":2721,"su</w>":2722,"bak":2723,"mek</w>":2724,"ça</w>":2725,"ılmıştır</w>":2726,"lere</w>":2727,"Avrupa</w>":2728,"ayı":2729,"Üniversit":2730,"ob":2731,"umhur":2732,"ri</w>":2733,"dü</w>":2734,"ahal":2735,"şekil":2736,"ilçesine</w>":2737,"Dünya</w>":2738,"bilin":2739,"düzen":2740,"sal":2741,"ünd":2742,"li":2743,"cü</w>":2744,"ilm</w>":2745,"alık</w>":2746,"Ağ":2747,"kor":2748,"futb":2749,"oc":2750,"diz":2751,"las":2752,"iden</w>":2753,"lanan</w>":2754,"19</w>":2755,"18</w>":2756,"karşı</w>":2757,"uk":2758,"üst":2759,"yol":2760,"önemli</w>":2761,"As":2762,"Kas":2763,"isti":2764,"11</w>":2765,"ama</w>":2766,"fark":2767,"ed</w>":2768,"Ey":2769,"ılır</w>":2770,"oluştur":2771,"21</w>":2772,"let</w>":2773,"ancak</w>":2774,"uş":2775,"aşı</w>":2776,"görev":2777,"per":2778,"ing":2779,"lardan</w>":2780,"kes":2781,"gerçek":2782,"başladı</w>":2783,"16</w>":2784,"albüm":2785,"men</w>":2786,"iyi</w>":2787,"lat":2788,"eski</w>":2789,"dir":2790,"lerine</w>":2791,"30</w>":2792,"ist</w>":2793,"The</w>":2794,"met</w>":2795,"neden":2796,"çev":2797,"üt":2798,"men":2799,"önce</w>":2800,"tir</w>":2801,"üş":2802,"ece</w>":2803,"ant":2804,"arası</w>":2805,"kurul":2806,"Öz":2807,"eş</w>":2808,"ge</w>":2809,"edi</w>":2810,"eği</w>":2811,"gerek":2812,"14</w>":2813,"olmuştur</w>":2814,"sistem":2815,"ıp</w>":2816,"başar":2817,"Tem":2818,"II</w>":2819,"17</w>":2820,"lendir":2821,"ilir</w>":2822,"se</w>":2823,"tamam":2824,"bölüm":2825,"lerinden</w>":2826,"sonr":2827,"asyon":2828,"eşit":2829,"ıc":2830,"Ek":2831,"13</w>":2832,"getir":2833,"Ne":2834,"tin</w>":2835,"kit":2836,"dür</w>":2837,"ladı</w>":2838,"malar":2839,"yapılan</w>":2840,"Osman":2841,"Üniversitesi</w>":2842,"ap</w>":2843,"dün":2844,"list":2845,"mak":2846,"sat":2847,"vardır</w>":2848,"faz":2849,"Kur":2850,"Mil":2851,"ila":2852,"şekilde</w>":2853,"dik":2854,"olduğunu</w>":2855,"içinde</w>":2856,"ilmiştir</w>":2857,"söy":2858,"Mu":2859,"Cumhur":2860,"Ayr":2861,"bo":2862,"ans</w>":2863,"larından</w>":2864,"has":2865,"sor":2866,"Haz":2867,"Bir</w>":2868,"üzerine</w>":2869,")\"></w>":2870,"üzere</w>":2871,"ayı</w>":2872,"At":2873,"br":2874,"itibar":2875,"Mer":2876,"açık":2877,"tığı</w>":2878,"tur":2879,"kazan":2880,"uz</w>":2881,"ika</w>":2882,"çi</w>":2883,"oğlu</w>":2884,"önc":2885,"Rom":2886,"adan</w>":2887,"gün</w>":2888,"tes":2889,"birçok</w>":2890,"rak":2891,"193":2892,"eled":2893,"ele</w>":2894,"Do":2895,"ıları</w>":2896,"dış":2897,"Jo":2898,"ıcı</w>":2899,"25</w>":2900,"amı</w>":2901,"Ayrıca</w>":2902,"oğraf":2903,"ampiyon":2904,"Ak":2905,"üm</w>":2906,"ılı</w>":2907,"Pro":2908,"tik</w>":2909,"kabul</w>":2910,"Mart</w>":2911,"parat":2912,"masına</w>":2913,"lama</w>":2914,"aj":2915,"çocu":2916,"sahip</w>":2917,"layan</w>":2918,"ad</w>":2919,"anın</w>":2920,"2010</w>":2921,"üç</w>":2922,"Mayı":2923,"luğu</w>":2924,"ığını</w>":2925,"esinin</w>":2926,"Mayıs</w>":2927,"mod":2928,"ilinin</w>":2929,"ali</w>":2930,"kayn":2931,"Ul":2932,"yük":2933,"AB":2934,"ben":2935,"ağ</w>":2936,"sad":2937,"devam</w>":2938,"üçük</w>":2939,"ikinci</w>":2940,"Hal":2941,"Har":2942,"Kal":2943,"of":2944,"pol":2945,"bas":2946,"sen":2947,"tiği</w>":2948,"durum":2949,"üne</w>":2950,"parç":2951,"Tr":2952,"Kö":2953,"Bil":2954,"Ocak</w>":2955,"iran</w>":2956,"ülk":2957,"ğü</w>":2958,"ıda</w>":2959,"muş</w>":2960,"yaklaş":2961,"gelen</w>":2962,"sahip":2963,"Nis":2964,"Co":2965,"uygu":2966,"mahal":2967,"22</w>":2968,"ah</w>":2969,"000</w>":2970,"ör</w>":2971,"ilik</w>":2972,"Kasım</w>":2973,"harek":2974,"lül</w>":2975,"çeşit":2976,").</w>":2977,"Birleş":2978,"muz</w>":2979,"hük":2980,"col":2981,"tüm</w>":2982,"fazla</w>":2983,"yaptı</w>":2984,"Tarih":2985,"24</w>":2986,"Bur":2987,"isinde</w>":2988,"Kat":2989,"iyet</w>":2990,"eç":2991,"köy":2992,"of</w>":2993,"söz":2994,"tut":2995,"işk":2996,"ud":2997,"ina</w>":2998,"anlam":2999,"kendi</w>":3000,"ılmış</w>":3001,"kariy":3002,"En":3003,"Eylül</w>":3004,"26</w>":3005,"Alman":3006,"28</w>":3007,"ci</w>":3008,"ail":3009,"iyet":3010,"eğiti":3011,"ABD</w>":3012,"geçir":3013,"Bü":3014,"ez</w>":3015,"yi</w>":3016,"yöneti":3017,"fes":3018,"23</w>":3019,"sezon":3020,"yan</w>":3021,"Haziran</w>":3022,"yal":3023,"Ekim</w>":3024,"Osmanlı</w>":3025,"Amerika</w>":3026,"rol</w>":3027,"erb":3028,"fin":3029,"yüksek</w>":3030,"uzak":3031,"ustos</w>":3032,"lo":3033,"Kom":3034,"ran":3035,"dem":3036,"Rus":3037,"müşt":3038,"hem</w>":3039,"36":3040,"iç</w>":3041,"tek</w>":3042,"Temmuz</w>":3043,"Nisan</w>":3044,"Ağustos</w>":3045,"ebil":3046,"bazı</w>":3047,"andı</w>":3048,"dör":3049,"Son":3050,"San":3051,"ardından</w>":3052,"lî</w>":3053,"tasar":3054,"mey":3055,"biri</w>":3056,"bu":3057,"İm":3058,"anya</w>":3059,"Sh":3060,"lerden</w>":3061,"edilmiştir</w>":3062,"üzerinde</w>":3063,"okt":3064,"ond":3065,"Ulus":3066,"iyeti</w>":3067,"tele":3068,"ton</w>":3069,"olup</w>":3070,"farklı</w>":3071,"olmak</w>":3072,"35":3073,"ins":3074,"tür</w>":3075,"Le":3076,"Bak":3077,"ie</w>":3078,"ünün</w>":3079,"48":3080,"bulund":3081,"haf":3082,"sin":3083,"Aralık</w>":3084,"zaman</w>":3085,"çıkar":3086,"aras":3087,"27</w>":3088,"Daha</w>":3089,"isim":3090,"üc":3091,"şehr":3092,"kül":3093,"yard":3094,"47":3095,"yet":3096,"45":3097,"te":3098,"luk</w>":3099,"aştır":3100,"Şub":3101,"ucu</w>":3102,"span</w>":3103,"sırasında</w>":3104,"Ancak</w>":3105,"tah":3106,"sun":3107,"Böl":3108,"fr":3109,"colspan</w>":3110,"undan</w>":3111,"parator":3112,"kuz":3113,"mal":3114,"edildi</w>":3115,"görev</w>":3116,"kara</w>":3117,"masını</w>":3118,"hakk":3119,"aşa</w>":3120,"38":3121,"Kan":3122,"hat":3123,"öğren":3124,"ilerin</w>":3125,"göz":3126,"Ab":3127,"37":3128,"sal</w>":3129,"ade</w>":3130,"49":3131,"hav":3132,"ilgil":3133,"nder":3134,"ısında</w>":3135,"laşt":3136,"ara</w>":3137,"İlk</w>":3138,"her":3139,"Savaşı</w>":3140,"sev":3141,"bulunmaktadır</w>":3142,"ılık</w>":3143,"vv":3144,"kır":3145,"dağ":3146,"eder":3147,"ortaya</w>":3148,"esini</w>":3149,"mez":3150,"dah":3151,"Birleşik</w>":3152,"gan":3153,"Es":3154,"şir":3155,"46":3156,"film</w>":3157,"ado":3158,"mam":3159,"alın":3160,"Sp":3161,"39":3162,"io</w>":3163,"İtal":3164,"futbol":3165,"yarış":3166,"boyun":3167,"elde</w>":3168,"ecek</w>":3169,"yüzyıl":3170,"yılları</w>":3171,"çeşitli</w>":3172,"lararası</w>":3173,"yat":3174,"ug":3175,"tekn":3176,"Az":3177,"larla</w>":3178,"meye</w>":3179,"Pr":3180,"ilişk":3181,"küçük</w>":3182,"haz":3183,"uv":3184,"akat</w>":3185,"Şubat</w>":3186,"29</w>":3187,"ıf":3188,"edilen</w>":3189,"lim":3190,"yerleş":3191,"doğr":3192,"siyas":3193,"kanı</w>":3194,"ih</w>":3195,"tab":3196,"Ro":3197,"geri</w>":3198,"kem":3199,"iya</w>":3200,"düşün":3201,"40":3202,"2012</w>":3203,"bab":3204,"fer":3205,"amp":3206,"boyunca</w>":3207,"Bar":3208,"ebilir</w>":3209,"acı</w>":3210,"2009</w>":3211,"Man":3212,"Th":3213,"idd":3214,"tanım":3215,"2011</w>":3216,"mahalle":3217,"üp":3218,"duy":3219,"Yun":3220,"lenen</w>":3221,"geliştir":3222,"irler</w>":3223,"nedeniyle</w>":3224,"Kuz":3225,"ow":3226,"su":3227,"siz</w>":3228,"mem":3229,"zamanda</w>":3230,"ümü</w>":3231,"ide</w>":3232,"ölç":3233,"hiz":3234,"ari</w>":3235,"Ber":3236,"müştür</w>":3237,"Ödül":3238,"En</w>":3239,"ok</w>":3240,"ij":3241,"köy</w>":3242,"onun</w>":3243,"Şeh":3244,"ayan</w>":3245,"genel</w>":3246,"sadece</w>":3247,"(\"</w>":3248,"ulan</w>":3249,"şu</w>":3250,"dil":3251,"ram":3252,"kan</w>":3253,"75":3254,"git":3255,"Lig":3256,"yılı</w>":3257,"saldır":3258,"kas":3259,"yeniden</w>":3260,"66":3261,"benz":3262,"Oy":3263,"ann":3264,"rağ":3265,"ova</w>":3266,"katıl":3267,"yaklaşık</w>":3268,"insan":3269,"Den":3270,"uğ":3271,"progr":3272,"lardır</w>":3273,"Kor":3274,"kullanıl":3275,"zor":3276,"2008</w>":3277,"ince</w>":3278,"güç":3279,"can":3280,"lanmıştır</w>":3281,"görün":3282,"Li":3283,"atik</w>":3284,"sınır":3285,"Bo":3286,"üret":3287,"ulus":3288,"nüfusu</w>":3289,"anlar</w>":3290,"Yar":3291,"mev":3292,"elek":3293,"uzaklık":3294,"mek":3295,"78":3296,"Dem":3297,"spor</w>":3298,"onya</w>":3299,"pr":3300,"eder</w>":3301,"yayım":3302,"Top":3303,"idi</w>":3304,"süre</w>":3305,"ro</w>":3306,"bır":3307,"day":3308,"karakt":3309,"ona</w>":3310,"elik</w>":3311,"mayı</w>":3312,"ici</w>":3313,"gaz":3314,"Kup":3315,"sanat":3316,"Kral":3317,"65":3318,"2014</w>":3319,"ich":3320,"ven":3321,"mayan</w>":3322,"uzun</w>":3323,"görül":3324,"70":3325,"uğu</w>":3326,"isinin</w>":3327,"kayb":3328,"maları</w>":3329,"tems":3330,"tik":3331,"68":3332,"uk</w>":3333,"Coğraf":3334,"boy":3335,"31</w>":3336,"79":3337,"New</w>":3338,"des":3339,"yıld":3340,"Gö":3341,"Almanya</w>":3342,"\")</w>":3343,"ımc":3344,"giy":3345,"ide":3346,"bey":3347,"rol":3348,"imleri</w>":3349,"ra":3350,"isini</w>":3351,"din":3352,"ion</w>":3353,"eyal":3354,"ilmiş</w>":3355,"hız":3356,"Am":3357,"dö":3358,"sa":3359,"2013</w>":3360,"Fransa</w>":3361,"om</w>":3362,"2015</w>":3363,"kim":3364,"Jap":3365,"inş":3366,"2007</w>":3367,"yerine</w>":3368,"erk":3369,"Sov":3370,"dolay":3371,"viz":3372,"orn":3373,"ümüz":3374,"vvet":3375,"Genel</w>":3376,"aktadır</w>":3377,"leme</w>":3378,"Şark":3379,"ünden</w>":3380,"araştır":3381,"rağmen</w>":3382,"dal":3383,"eser":3384,"lerle</w>":3385,"Güney</w>":3386,"bat":3387,"ait</w>":3388,"Ser":3389,"nden</w>":3390,"ot</w>":3391,"the</w>":3392,"dav":3393,"2016</w>":3394,"ady":3395,"Bel":3396,"ulaş":3397,"Ankara</w>":3398,"Kad":3399,"ep</w>":3400,"ordu":3401,"etkil":3402,"kil":3403,"ştir":3404,"Şampiyon":3405,"2006</w>":3406,"69":3407,"hayat":3408,"40</w>":3409,"Coğrafya</w>":3410,"60":3411,"ast":3412,"gerçekleştir":3413,"Bun":3414,"asına</w>":3415,"yaptığı</w>":3416,"karşı":3417,"Yeni</w>":3418,"qu":3419,"bulunur</w>":3420,"kişi</w>":3421,"ıkları</w>":3422,"yol</w>":3423,"cad":3424,"sız</w>":3425,"El":3426,"onom":3427,"2020</w>":3428,"han</w>":3429,"In":3430,"Alman</w>":3431,"asyon</w>":3432,"örn":3433,"umu</w>":3434,"van":3435,"bah":3436,"ard</w>":3437,"altında</w>":3438,"tor":3439,"og":3440,"şehir</w>":3441,"etim</w>":3442,"tekr":3443,"ut</w>":3444,"öldür":3445,"Der":3446,"ilgili</w>":3447,"tadır</w>":3448,"yaşam":3449,"elediy":3450,"oloji</w>":3451,"kız":3452,"İmparator":3453,"Kuzey</w>":3454,"almıştır</w>":3455,"50</w>":3456,"kısa</w>":3457,"yı</w>":3458,"İr":3459,"gönder":3460,"olduk":3461,"Gür":3462,"etmiştir</w>":3463,"Wil":3464,"usunda</w>":3465,"aret</w>":3466,"Hol":3467,"anlaş":3468,"if</w>":3469,"isine</w>":3470,"est</w>":3471,"tiv":3472,"Per":3473,"bit":3474,"yür":3475,"asının</w>":3476,"Hav":3477,"Ma":3478,"değer":3479,"savaş":3480,"Pol":3481,"Amerikan</w>":3482,"dahil</w>":3483,"başkan":3484,"Müz":3485,"deş":3486,"takım</w>":3487,"can</w>":3488,"80":3489,"kaç</w>":3490,"Tarihçe</w>":3491,"özel</w>":3492,"190":3493,"Her":3494,"uzaklıktadır</w>":3495,"hazır":3496,"fer</w>":3497,"59":3498,"Sar":3499,"doğru</w>":3500,"ham":3501,"GC</w>":3502,"İngiliz</w>":3503,"Cumhuriyeti</w>":3504,"ni</w>":3505,"anan</w>":3506,"ayrıca</w>":3507,"kav":3508,"Hay":3509,"Tek":3510,"unt":3511,"Tur":3512,"İk":3513,"genellikle</w>":3514,"ice</w>":3515,"Tak":3516,"sar":3517,"seb":3518,"bin":3519,"kü</w>":3520,"halk":3521,"Ah":3522,"50":3523,"Bal":3524,"Kupası</w>":3525,"zaman":3526,"ov</w>":3527,"Devlet":3528,"tic":3529,"Em":3530,"tep":3531,"Avust":3532,"topl":3533,"çalışt":3534,"merkezi</w>":3535,"luk":3536,"Car":3537,"graf":3538,"üsü</w>":3539,"Bey":3540,"ıktan</w>":3541,"ıld":3542,"müzik</w>":3543,"tarihi</w>":3544,"başka</w>":3545,"İz":3546,"tü</w>":3547,"2018</w>":3548,"Fran":3549,"Yah":3550,"değiştir":3551,"İsp":3552,"şehir":3553,"grub":3554,"NGC</w>":3555,"lak</w>":3556,"yeti":3557,"les</w>":3558,"op</w>":3559,"dört</w>":3560,"millî</w>":3561,"ize</w>":3562,"ığında</w>":3563,"belirt":3564,"lük</w>":3565,"ket":3566,"ses":3567,"Rusya</w>":3568,"işt":3569,"udur</w>":3570,"aber</w>":3571,"bilg":3572,"2017</w>":3573,"kıy":3574,"adıyla</w>":3575,"kaç":3576,"58":3577,"kel":3578,"med":3579,"Tan":3580,"abil":3581,"Ko":3582,"Sam":3583,"dar":3584,"osy":3585,"bol</w>":3586,"ülke":3587,"Roma</w>":3588,"Su":3589,"tisi</w>":3590,"kaynak":3591,"bask":3592,"iyor</w>":3593,"2005</w>":3594,"abilir</w>":3595,"plan":3596,"Kay":3597,"Birliği</w>":3598,"üb":3599,"özellikle</w>":3600,"kazandı</w>":3601,"yüksel":3602,"fa":3603,"emen</w>":3604,"Büyük</w>":3605,"arasındaki</w>":3606,"Ed":3607,"ılması</w>":3608,"gar":3609,"Paşa</w>":3610,"Doğu</w>":3611,"kol":3612,"ret":3613,"beri</w>":3614,"2000</w>":3615,"ic</w>":3616,"grup":3617,"malar</w>":3618,"gı":3619,"bilinen</w>":3620,"elektr":3621,"kop":3622,"etin</w>":3623,"üz</w>":3624,"Alt":3625,"eng":3626,"sahiptir</w>":3627,"Joh":3628,"ektedir</w>":3629,"tekrar</w>":3630,"anlığı</w>":3631,"çevr":3632,"Kul":3633,"ork</w>":3634,"sız":3635,"tesi</w>":3636,"keş":3637,"iyat":3638,"and</w>":3639,"ettiği</w>":3640,"kullanılan</w>":3641,"tern":3642,"asını</w>":3643,"itir":3644,"Gru":3645,"manın</w>":3646,"bırak":3647,"mat":3648,"osu</w>":3649,"ıların</w>":3650,"bağlan":3651,"dok":3652,"Ev":3653,"Bu":3654,"üncü</w>":3655,"sonunda</w>":3656,"don":3657,"landa</w>":3658,"etmek</w>":3659,"kısm":3660,"th":3661,"lig":3662,"oluşan</w>":3663,"trans":3664,"Afr":3665,"olması</w>":3666,"ros":3667,"ekli</w>":3668,"imz":3669,"99":3670,"Meh":3671,"luğ":3672,"okr":3673,"bal":3674,"ire</w>":3675,"altı</w>":3676,"devlet</w>":3677,"gem":3678,"por</w>":3679,"2019</w>":3680,"sem":3681,"takımı</w>":3682,"lis":3683,"okul":3684,"büt":3685,"olay":3686,"ji</w>":3687,"destek":3688,"Kır":3689,"ödül":3690,"sırada</w>":3691,"öyle":3692,"oyuncu</w>":3693,"elen":3694,"birkaç</w>":3695,"gt</w>":3696,"tere</w>":3697,".\"</w>":3698,"hakkında</w>":3699,"yapan</w>":3700,"aw":3701,"tip":3702,"çoğ":3703,"ime</w>":3704,"med</w>":3705,"rek":3706,"ius</w>":3707,"mal</w>":3708,"eğin</w>":3709,"konuş":3710,"final":3711,"gazet":3712,"lerdir</w>":3713,"Sal":3714,"Mac":3715,"bağım":3716,"deniz</w>":3717,"Re":3718,"ry</w>":3719,"olmayan</w>":3720,"2004</w>":3721,"to</w>":3722,"FA</w>":3723,"asker":3724,"mücad":3725,"lt</w>":3726,"ekonom":3727,"pat":3728,"çap":3729,"ledi</w>":3730,"çıkan</w>":3731,"çı</w>":3732,"mıştı</w>":3733,"olmad":3734,"çiz":3735,"ıt</w>":3736,"lek":3737,"gid":3738,"kam":3739,"gelen":3740,"Aynı</w>":3741,"yarat":3742,"vur":3743,"fesyon":3744,"büm</w>":3745,"nit":3746,"Çin</w>":3747,"iyordu</w>":3748,"Eğ":3749,"ektör":3750,"ener":3751,"Fransız</w>":3752,"mahalledir</w>":3753,"nes":3754,"verdi</w>":3755,"düny":3756,"35</w>":3757,"Gaz":3758,"almaktadır</w>":3759,"duğu</w>":3760,"100</w>":3761,"yıldız":3762,"İngiltere</w>":3763,"iydi</w>":3764,"ırlar</w>":3765,"ekler</w>":3766,"yapmıştır</w>":3767,"sonuç":3768,"lendi</w>":3769,"grup</w>":3770,"67":3771,"Dan":3772,"merkezine</w>":3773,"Mü":3774,"land</w>":3775,"program":3776,"itibaren</w>":3777,"başkanı</w>":3778,"Eur":3779,"lamak</w>":3780,"189":3781,"sezonunda</w>":3782,"biç":3783,"yönetm":3784,"Aş":3785,"def":3786,"alya</w>":3787,"baz":3788,"ıya</w>":3789,"eceğ":3790,"mo":3791,"eks":3792,"kl":3793,"Lo":3794,"Film</w>":3795,"adını</w>":3796,"60</w>":3797,"mar":3798,"cin":3799,"İtalya</w>":3800,"asyonu</w>":3801,"kuzey":3802,"rak</w>":3803,"Ör":3804,"üks":3805,"cudur</w>":3806,"isyon":3807,"olojik</w>":3808,"vek":3809,"bölge":3810,"lid":3811,"futbol</w>":3812,"Mon":3813,"Sa":3814,"Sul":3815,"90":3816,"çif":3817,"Devletleri</w>":3818,"milyon</w>":3819,"bun":3820,"\"'</w>":3821,"Ge":3822,"34":3823,"88":3824,"Bul":3825,"yanı</w>":3826,"Has":3827,"sıra</w>":3828,"up</w>":3829,"savaş</w>":3830,"ıyor</w>":3831,"din</w>":3832,"adlandır":3833,"çıktı</w>":3834,"organ":3835,"karakter":3836,"da":3837,"yakın</w>":3838,"geldi</w>":3839,"ent</w>":3840,"acak</w>":3841,"üler</w>":3842,"aydı</w>":3843,"çağ":3844,"Ligi</w>":3845,"şekl":3846,"öğr":3847,"döneminde</w>":3848,"uma</w>":3849,"min":3850,"Gr":3851,"arkad":3852,"Anado":3853,"Partisi</w>":3854,"tiy":3855,"Ale":3856,"kitab":3857,"sh":3858,"kariyer":3859,"Fin":3860,"fesyonel</w>":3861,"And":3862,"van</w>":3863,"inşa</w>":3864,"bin</w>":3865,"kardeş":3866,"uku":3867,"osyal</w>":3868,"şarkı</w>":3869,"masıyla</w>":3870,"lad":3871,"izm</w>":3872,"mik":3873,"mon":3874,"ilah":3875,"Rus</w>":3876,"savun":3877,"ıştır</w>":3878,"komut":3879,"sınıf":3880,"umlu</w>":3881,"hangi</w>":3882,"verilen</w>":3883,"esinden</w>":3884,"kadın</w>":3885,"ilmesi</w>":3886,"pek</w>":3887,"32</w>":3888,"alır</w>":3889,"Mah":3890,"tam</w>":3891,"sam":3892,"vat":3893,"izi</w>":3894,"York</w>":3895,"Bab":3896,"eme</w>":3897,"ımına</w>":3898,"dışında</w>":3899,"Se":3900,"güney":3901,"eleştir":3902,"politi":3903,"num":3904,"lanmış</w>":3905,"Şarkı</w>":3906,"sonucu</w>":3907,"dolayı</w>":3908,"özellik":3909,"Anadolu</w>":3910,"Sur":3911,"Amerikalı</w>":3912,"33</w>":3913,"koy":3914,"öz</w>":3915,"55":3916,"yoğ":3917,"akül":3918,"kültür":3919,"Count":3920,"45</w>":3921,"İngiliz":3922,"77":3923,"Kız":3924,"ızca</w>":3925,"ga</w>":3926,"liğini</w>":3927,"neden</w>":3928,"Batı</w>":3929,"ölüm":3930,"gın</w>":3931,"olur</w>":3932,"sürdür":3933,"ta":3934,"toplam</w>":3935,"ımcı</w>":3936,"inan":3937,"nüfus</w>":3938,"anlat":3939,"üp</w>":3940,"Ali</w>":3941,"Futb":3942,"leriyle</w>":3943,"adığı</w>":3944,"bek":3945,"üreti":3946,"County</w>":3947,"yapıl":3948,"sayısı</w>":3949,"eğitim</w>":3950,"Kaz":3951,"çöz":3952,"Sch":3953,"maz</w>":3954,"edilir</w>":3955,"Dav":3956,"itibarıyla</w>":3957,"aldığı</w>":3958,"leyen</w>":3959,"47</w>":3960,"ian</w>":3961,"poz":3962,"bilim":3963,"kuş":3964,"sab":3965,"ıyordu</w>":3966,"elik":3967,"2002</w>":3968,"tanın":3969,"lüğ":3970,"uluk</w>":3971,"Pet":3972,"to":3973,"eci</w>":3974,"oyunc":3975,"aktır</w>":3976,"ılarak</w>":3977,"iyon":3978,"mişti</w>":3979,"dest":3980,"listesi</w>":3981,"ecl":3982,"Oyun":3983,"devr":3984,"ket</w>":3985,"güven":3986,"işle":3987,"kariyeri</w>":3988,"ümüzde</w>":3989,"iliğ":3990,"dönemde</w>":3991,"Mo":3992,"188":3993,"laştır":3994,"Cam":3995,"işi</w>":3996,"Ödülü</w>":3997,"sak":3998,"keşf":3999,"alt</w>":4000,"asıyla</w>":4001,"esidir</w>":4002,"ke</w>":4003,"birbir":4004,"ter</w>":4005,"Uluslararası</w>":4006,"ıydı</w>":4007,"34</w>":4008,"İş":4009,"John</w>":4010,"hüküm":4011,"gelir</w>":4012,"Mad":4013,"Lig</w>":4014,"min</w>":4015,"sık":4016,"Azerb":4017,"lo</w>":4018,"Nor":4019,"üst</w>":4020,"37</w>":4021,"çalışmalar":4022,"elediye</w>":4023,"Azerbay":4024,"Be":4025,"olduğ":4026,"form":4027,"Ulusal</w>":4028,"Han":4029,"\"),</w>":4030,"Doğ":4031,"70</w>":4032,"Fer":4033,"hi</w>":4034,"sezon</w>":4035,"ho":4036,"fakat</w>":4037,"uygulam":4038,"yor":4039,"üş</w>":4040,"esel</w>":4041,"mini</w>":4042,"tif":4043,"kayd":4044,"Olim":4045,"televiz":4046,"İmparatorluğu</w>":4047,"ilere</w>":4048,"formu":4049,"Ham":4050,"rah":4051,"olan":4052,"endi</w>":4053,"nik</w>":4054,"elerin</w>":4055,"36</w>":4056,"Orta</w>":4057,"Yunan":4058,"iforn":4059,"gele":4060,"2003</w>":4061,"2001</w>":4062,"Ger":4063,"ite</w>":4064,"gun</w>":4065,"ağını</w>":4066,"Bunun</w>":4067,"faal":4068,"larıyla</w>":4069,"1990</w>":4070,"kurulu":4071,"ern</w>":4072,"etinde</w>":4073,"çocuk":4074,"ai</w>":4075,"22":4076,"görüş":4077,"temsil</w>":4078,"albümü</w>":4079,"For":4080,"işlem":4081,"yalı</w>":4082,"çoğu</w>":4083,"Yer":4084,"yıllarında</w>":4085,"nokt":4086,"ağı":4087,"str":4088,"89":4089,"ani</w>":4090,"üçüncü</w>":4091,"ışı</w>":4092,"alam":4093,"tur</w>":4094,"De":4095,"sezonu</w>":4096,"teor":4097,"kuvvet":4098,"one</w>":4099,"ci":4100,"mesine</w>":4101,"yet</w>":4102,"alarında</w>":4103,"yaşında</w>":4104,"olu</w>":4105,"iliği</w>":4106,"sey":4107,"lanır</w>":4108,"nüfus":4109,"hareket":4110,"isimli</w>":4111,"38</w>":4112,"ındı</w>":4113,"ulu</w>":4114,"hed":4115,"Şampiyonası</w>":4116,"yakın":4117,"ell</w>":4118,"Her</w>":4119,"isesi</w>":4120,"Ter":4121,"toprak":4122,"üdür</w>":4123,"sek":4124,"karar":4125,"masının</w>":4126,"uyar":4127,"otor":4128,"beraber</w>":4129,"karar</w>":4130,"mış":4131,"Mus":4132,"yo</w>":4133,"öylece</w>":4134,"ograf":4135,"Azerbaycan</w>":4136,"kut":4137,"proj":4138,"seçim":4139,"lığını</w>":4140,"hemen</w>":4141,"esiyle</w>":4142,"iğer</w>":4143,"yanın</w>":4144,"kalan</w>":4145,"letvek":4146,"Uz":4147,"He":4148,"gür":4149,"var</w>":4150,"ley</w>":4151,"yapımı</w>":4152,"kadem":4153,"oynam":4154,"orta</w>":4155,"48</w>":4156,"insan</w>":4157,"Yaş":4158,"forman":4159,"ii</w>":4160,"fon":4161,"taş</w>":4162,"ayında</w>":4163,"değişik":4164,"çar":4165,"Mıs":4166,"ri":4167,"izin</w>":4168,"kurulan</w>":4169,"temel</w>":4170,"dünya</w>":4171,"fiz":4172,"teki</w>":4173,"lamıştır</w>":4174,"Yıl":4175,"elç":4176,"aların</w>":4177,"lin</w>":4178,"ılabilir</w>":4179,"açık</w>":4180,"ha</w>":4181,"futbolcudur</w>":4182,"Mich":4183,"şampiyon":4184,"afa</w>":4185,"biçim":4186,"gal":4187,"hastal":4188,"Mat":4189,"köydür</w>":4190,"Parti</w>":4191,"lüğü</w>":4192,"hükû":4193,"konu":4194,"sim":4195,"ation</w>":4196,"mac":4197,"mesini</w>":4198,"Biz":4199,"gerç":4200,"katıldı</w>":4201,"Yo":4202,"boz":4203,"bor":4204,"bulunduğu</w>":4205,"eceği</w>":4206,"Mor":4207,"yine</w>":4208,"Afrika</w>":4209,"Fil":4210,"On":4211,"sonraki</w>":4212,"Sır":4213,"amac":4214,"evi</w>":4215,"39</w>":4216,"po":4217,"sil":4218,"ifade</w>":4219,"kenin</w>":4220,"kaldır":4221,"Yarış":4222,"00":4223,"64</w>":4224,"Col":4225,"hüc":4226,"ban":4227,"ilan</w>":4228,"Bölg":4229,"Sovyet</w>":4230,"lin":4231,"vide":4232,"Mak":4233,"alanı</w>":4234,"askeri</w>":4235,"Port":4236,"Kil":4237,"zı</w>":4238,"TV</w>":4239,"Val":4240,"geçen</w>":4241,"Fakül":4242,"Pa":4243,"tif</w>":4244,"sonuc":4245,"Mal":4246,"ınt":4247,"hâ":4248,"nuv":4249,"oks":4250,"soy":4251,"oranı</w>":4252,"risti":4253,"beş</w>":4254,"gol</w>":4255,"kaldı</w>":4256,"teş":4257,"roman":4258,"mağ":4259,"doğdu</w>":4260,"uluslararası</w>":4261,"Olimpiy":4262,"Gala":4263,"up":4264,"lenmiştir</w>":4265,"lüm":4266,"İyi</w>":4267,"la_":4268,"filmi</w>":4269,"he":4270,"formula_":4271,"Bay":4272,"dak":4273,"ırken</w>":4274,"yılından</w>":4275,"42</w>":4276,"yerel</w>":4277,"ndan</w>":4278,"Gu":4279,"biridir</w>":4280,"od</w>":4281,"Kür":4282,"Sin":4283,"transfer</w>":4284,"Ol":4285,"Kı":4286,"geniş</w>":4287,"Kaliforn":4288,"ikâ":4289,"57":4290,"Ef":4291,"Char":4292,"kullanılır</w>":4293,"Devlet</w>":4294,"dönd":4295,"aber":4296,"Neh":4297,"pu":4298,"ck</w>":4299,"amaç":4300,"unla</w>":4301,"1999</w>":4302,"dayan":4303,"Paris</w>":4304,"piyas":4305,"İran</w>":4306,"yıllarda</w>":4307,"belediy":4308,"ektir</w>":4309,"gerçekleş":4310,"yen</w>":4311,"bitir":4312,"arlar</w>":4313,"oper":4314,"Yap":4315,"sol":4316,"Kaliforniya</w>":4317,"ch</w>":4318,"ht</w>":4319,"ema</w>":4320,"grubu</w>":4321,"içerisinde</w>":4322,"iri</w>":4323,"Yüks":4324,"rı</w>":4325,"Con":4326,"udi</w>":4327,"187":4328,"giriş":4329,"tesp":4330,"41</w>":4331,"Bey</w>":4332,"değil":4333,"bert</w>":4334,"üd":4335,"amp</w>":4336,"Geç":4337,"Mas":4338,"Ben":4339,"albüm</w>":4340,"kir":4341,"taki</w>":4342,"ker":4343,"derg":4344,"arka</w>":4345,"80</w>":4346,"madan</w>":4347,"çoğun":4348,"ision</w>":4349,"ılığı</w>":4350,"burada</w>":4351,"Un":4352,"mah":4353,"kâ":4354,"mit":4355,"sef":4356,"doğru":4357,"bütün</w>":4358,"leti</w>":4359,"Ban":4360,"yaln":4361,"yolu</w>":4362,"Yön":4363,"Ph":4364,"sik":4365,"üyesi</w>":4366,"avi</w>":4367,"oynadı</w>":4368,"oy</w>":4369,"hiç":4370,"be</w>":4371,"burg</w>":4372,"hareb":4373,"sistemi</w>":4374,"Fakat</w>":4375,"Gök":4376,"ziy":4377,"Kem":4378,"türü</w>":4379,"biy":4380,"1980</w>":4381,"imler</w>":4382,"aca</w>":4383,"masından</w>":4384,"43</w>":4385,"resmi</w>":4386,"Must":4387,"ae</w>":4388,"Ant":4389,"red":4390,"aban":4391,"uğr":4392,"lı":4393,"44</w>":4394,"mut":4395,"düzenlenen</w>":4396,"90</w>":4397,"tır</w>":4398,"eceğini</w>":4399,"pop":4400,"yıllık</w>":4401,"edilmiş</w>":4402,"ilmektedir</w>":4403,"ılığ":4404,"hend":4405,"Nüf":4406,"cut</w>":4407,"derec":4408,"çat":4409,"46</w>":4410,"MÖ</w>":4411,"Mes":4412,"sayıda</w>":4413,"suç":4414,"herhangi</w>":4415,"Ho":4416,"metre</w>":4417,"int</w>":4418,"kür":4419,"egor":4420,"ederek</w>":4421,"Go":4422,"lor":4423,"dep":4424,"ülen</w>":4425,"veç</w>":4426,"yaşayan</w>":4427,"sı":4428,"diler</w>":4429,"eydi</w>":4430,"yöntem":4431,"meyd":4432,"siyasi</w>":4433,"İngilizce</w>":4434,"ald":4435,"maçta</w>":4436,"iştir</w>":4437,"gol":4438,"eyen</w>":4439,"koş":4440,"49</w>":4441,"yanında</w>":4442,"performan":4443,"Yay":4444,"ınlar</w>":4445,"65</w>":4446,"ilerini</w>":4447,"ünlü</w>":4448,"fa</w>":4449,"Ver":4450,"kayıt":4451,"iline</w>":4452,"asıdır</w>":4453,"erkek</w>":4454,"yün</w>":4455,"vardı</w>":4456,"dizi</w>":4457,"ich</w>":4458,"eral</w>":4459,"Gir":4460,"Müs":4461,"his":4462,"müş</w>":4463,"makta</w>":4464,"bi</w>":4465,"Akadem":4466,"ett":4467,"öyle</w>":4468,"Gal":4469,"Mısır</w>":4470,"Diğer</w>":4471,"Bro":4472,"başarılı</w>":4473,"haline</w>":4474,"85":4475,"fel":4476,"ted":4477,"meler":4478,"fil":4479,"öğrenc":4480,"lay</w>":4481,"1992</w>":4482,"sı</w>":4483,"1998</w>":4484,"üniversit":4485,"televizyon</w>":4486,"erken</w>":4487,"oldukça</w>":4488,"ladığı</w>":4489,"mücadele</w>":4490,"sanatç":4491,"teh":4492,"Jac":4493,"büyük":4494,"şi":4495,"teknik</w>":4496,"meyi</w>":4497,"Far":4498,"mir</w>":4499,"lanması</w>":4500,"başlayan</w>":4501,"Mur":4502,"Mehmet</w>":4503,"tart":4504,"günü</w>":4505,"bildir":4506,"anlamına</w>":4507,"üşt":4508,"başına</w>":4509,"olabilir</w>":4510,"ly</w>":4511,"genç</w>":4512,"girdi</w>":4513,"Hak":4514,"Örn":4515,"Bat":4516,"Fen":4517,"forma</w>":4518,"ısını</w>":4519,"özel":4520,"masında</w>":4521,"işleri</w>":4522,"omet":4523,"cez":4524,"yılına</w>":4525,"çocuk</w>":4526,"ısına</w>":4527,"işlet":4528,"fik":4529,"ıs</w>":4530,"sahibi</w>":4531,"isay":4532,"model":4533,"Futbol</w>":4534,"sk":4535,"diğini</w>":4536,"gez":4537,"başı</w>":4538,"Willi":4539,"Lond":4540,"kont":4541,"ısıyla</w>":4542,"stit":4543,"sayımına</w>":4544,"paz":4545,"tespit</w>":4546,"lemek</w>":4547,"ick</w>":4548,"ale</w>":4549,"ismi</w>":4550,"ma":4551,"İspanya</w>":4552,"iken</w>":4553,"kral":4554,"başken":4555,"yem":4556,"lim</w>":4557,"Met":4558,"aret":4559,"III</w>":4560,"atları</w>":4561,"Com":4562,"Kit":4563,"mim":4564,"başlamıştır</w>":4565,"art</w>":4566,"ses</w>":4567,"lıdır</w>":4568,"İkinci</w>":4569,"asıl</w>":4570,"öldü</w>":4571,"Sen":4572,"hes":4573,"değil</w>":4574,"Geor":4575,"ünkü</w>":4576,"alama</w>":4577,"konusunda</w>":4578,"yla</w>":4579,"yüzyılda</w>":4580,"kin</w>":4581,"etmektedir</w>":4582,"1996</w>":4583,"tiğini</w>":4584,"geçti</w>":4585,"Fakültesi</w>":4586,"alarak</w>":4587,"bol":4588,"bunun</w>":4589,"Yak":4590,"ity</w>":4591,"adet</w>":4592,"ülke</w>":4593,"ağır":4594,"ayrıl":4595,"numar":4596,"dönem</w>":4597,"ian":4598,"87":4599,"ord":4600,"tiyat":4601,"İlç":4602,"rail</w>":4603,"çalıştı</w>":4604,"[[</w>":4605,"yarak</w>":4606,"uzun":4607,"yağ":4608,"Af":4609,"Yaz":4610,"düğü</w>":4611,"1995</w>":4612,"1994</w>":4613,"1991</w>":4614,"zar":4615,"seviy":4616,"yenil":4617,"Bakanlığı</w>":4618,"Kap":4619,"yarı</w>":4620,"Ok":4621,"1997</w>":4622,"sosyal</w>":4623,"Köy</w>":4624,"1993</w>":4625,"bilim</w>":4626,"landığı</w>":4627,"söz</w>":4628,"Qu":4629,"Merkez":4630,"Sultan</w>":4631,"ön</w>":4632,"andan</w>":4633,"gala":4634,"hiçbir</w>":4635,"veren</w>":4636,"pay":4637,"180":4638,"are</w>":4639,"ekleri</w>":4640,"amacıyla</w>":4641,"sonucunda</w>":4642,"aj</w>":4643,"ner":4644,"af</w>":4645,"urt</w>":4646,"itesi</w>":4647,"Japonya</w>":4648,"cm</w>":4649,"dönüş":4650,"lah</w>":4651,"tartış":4652,"Bas":4653,"hizmet":4654,"best":4655,"Avustur":4656,"bağlant":4657,"Feder":4658,"Başkan":4659,"değildir</w>":4660,"kah":4661,"hava</w>":4662,"yazıl":4663,"68</w>":4664,"dol":4665,"Sc":4666,"ısından</w>":4667,"Gör":4668,"sahn":4669,"canlandır":4670,"fot":4671,"Mecl":4672,"düğ":4673,"Te":4674,"oyun</w>":4675,"olac":4676,"hareket</w>":4677,"yazar</w>":4678,"İzmir</w>":4679,"İsrail</w>":4680,"ilerine</w>":4681,"Bah":4682,"alarda</w>":4683,"66</w>":4684,"FC</w>":4685,"silah":4686,"iğini</w>":4687,"başında</w>":4688,"So":4689,"astr":4690,"şehrin</w>":4691,"Mustafa</w>":4692,"67</w>":4693,"tör":4694,"1970</w>":4695,"güçlü</w>":4696,"edeki</w>":4697,"karşılaş":4698,"va</w>":4699,"muh":4700,"Naz":4701,"yani</w>":4702,"ba</w>":4703,"ülkenin</w>":4704,"madd":4705,"ınca</w>":4706,"siyaset":4707,"Oy</w>":4708,"dar</w>":4709,"benzer</w>":4710,"ica</w>":4711,"siz":4712,"fır":4713,"Yen":4714,"yık":4715,"rin</w>":4716,"61</w>":4717,"bilgi</w>":4718,"yana</w>":4719,"doğu</w>":4720,"Gürc":4721,"şeklinde</w>":4722,"Millî</w>":4723,"yası</w>":4724,"63</w>":4725,"Son</w>":4726,"lidir</w>":4727,"birleş":4728,"Str":4729,"hizmet</w>":4730,"95":4731,"Beş":4732,"tis":4733,"adaki</w>":4734,"isidir</w>":4735,"br</w>":4736,"ila</w>":4737,"Med":4738,"Gü":4739,"kitap":4740,"enn":4741,"üper</w>":4742,"etkin":4743,"miş":4744,"kasab":4745,"indir":4746,"Dar":4747,"Di":4748,"Asya</w>":4749,"edeb":4750,"lenir</w>":4751,"yayınlanan</w>":4752,"bes":4753,"Kam":4754,"andır":4755,"uyla</w>":4756,"ier</w>":4757,"Hat":4758,"meydana</w>":4759,"tu":4760,"98":4761,"taşıy":4762,"El</w>":4763,"önceki</w>":4764,"örgü":4765,"62</w>":4766,"ilerinin</w>":4767,"ortak</w>":4768,"Sez":4769,"yaygın</w>":4770,"uygun</w>":4771,"ue</w>":4772,"ürün":4773,"ham</w>":4774,"ino</w>":4775,"uldu</w>":4776,"Nehri</w>":4777,"nak":4778,"eph":4779,"yönet":4780,"ağıdaki</w>":4781,"yo":4782,"çarp":4783,"rom":4784,"Jam":4785,"yum":4786,"enc":4787,"Avustr":4788,"200</w>":4789,"zem":4790,"Erk":4791,"mezun</w>":4792,"Eğiti":4793,"ndeki</w>":4794,"Eurov":4795,"kapsam":4796,"69</w>":4797,"Ön":4798,"şirket":4799,"Eski</w>":4800,"Kol":4801,"ikleri</w>":4802,"üldü</w>":4803,"toplum":4804,"val":4805,"To":4806,"hey":4807,"inç</w>":4808,"mer</w>":4809,"olabil":4810,"sona</w>":4811,"sun</w>":4812,"ıyı</w>":4813,"lardı</w>":4814,"tamamen</w>":4815,"fab":4816,"au":4817,"Müslüm":4818,"Ven":4819,"sonrasında</w>":4820,"FI":4821,"sin</w>":4822,"Hristi":4823,"..</w>":4824,"1960</w>":4825,"ayrı</w>":4826,"galaks":4827,"Eurovision</w>":4828,"Don":4829,"kontr":4830,"arac":4831,"İslam</w>":4832,"yokt":4833,"Bağ":4834,"Pat":4835,"Göl":4836,"büyü":4837,"seslendir":4838,"tip</w>":4839,"Londra</w>":4840,"kelim":4841,"Bazı</w>":4842,"giz":4843,"etik</w>":4844,"cam":4845,"yazar":4846,"Ço":4847,"bulundu</w>":4848,"taşım":4849,"katk":4850,"lığına</w>":4851,"lem</w>":4852,"halk</w>":4853,"parçası</w>":4854,"Bizans</w>":4855,"hane</w>":4856,"seçildi</w>":4857,"Japon</w>":4858,"içeren</w>":4859,"laz":4860,"137":4861,"97":4862,"nedenle</w>":4863,"deney":4864,"Kıbr":4865,"iddia</w>":4866,"başlat":4867,"ansı</w>":4868,"batı</w>":4869,"keti</w>":4870,"iyat</w>":4871,"başlan":4872,"kale</w>":4873,"turnuv":4874,"babası</w>":4875,"milletvek":4876,"ahçe</w>":4877,"kat</w>":4878,"sü":4879,"ıdan</w>":4880,"128":4881,"üyle</w>":4882,"ulusal</w>":4883,"Sü":4884,"ayır":4885,"we":4886,"Hind":4887,"ilçe</w>":4888,"Yunan</w>":4889,"İki</w>":4890,"Tiyat":4891,"eksel</w>":4892,"mî</w>":4893,"ılık":4894,"Suriye</w>":4895,"Sovyet":4896,"Kül":4897,"dis":4898,"terc":4899,"renk":4900,"atür":4901,"mada</w>":4902,"sebeb":4903,"sur":4904,"üzerinden</w>":4905,"piyasaya</w>":4906,"Dağ":4907,"yalnızca</w>":4908,"ındadır</w>":4909,"Fo":4910,"aktı</w>":4911,"co</w>":4912,"estiv":4913,"part":4914,"Po":4915,"2021</w>":4916,"sözleş":4917,"engel":4918,"Bor":4919,"otom":4920,"bile</w>":4921,"ılmaktadır</w>":4922,"ris":4923,"ukar":4924,"ach":4925,"Yüz":4926,"kurulmuştur</w>":4927,"Ül":4928,"ig</w>":4929,"evr":4930,"Ordu":4931,"iel":4932,"hikâ":4933,"ütü":4934,"aday</w>":4935,"ekonomik</w>":4936,"sık</w>":4937,"hap":4938,"Fenerb":4939,"1989</w>":4940,"bilgisay":4941,"yum</w>":4942,"Res":4943,"Şir":4944,"düşük</w>":4945,"elerinin</w>":4946,"sch":4947,"alış":4948,"Belediy":4949,"konum":4950,"ilya</w>":4951,"ısının</w>":4952,"Krallık</w>":4953,"Brit":4954,"übü":4955,"Trab":4956,"Ap":4957,"za</w>":4958,"öner":4959,"rop":4960,"lav":4961,"yönünde</w>":4962,"diy":4963,"gerçek</w>":4964,"Kariy":4965,"arş":4966,"etbol</w>":4967,"kardeşi</w>":4968,"öm":4969,"Mos":4970,"Okul":4971,"ayn":4972,"inal</w>":4973,"laması</w>":4974,"profesyonel</w>":4975,"faaliyet":4976,"Kuvvet":4977,"bölgesinde</w>":4978,"nam":4979,"Büyük":4980,"üğ":4981,"ersiz</w>":4982,"suz</w>":4983,"Ot":4984,"ris</w>":4985,"Festiv":4986,"Fenerbahçe</w>":4987,"Müzik</w>":4988,"por":4989,"Başkanı</w>":4990,"ukuk</w>":4991,"meden</w>":4992,"birliği</w>":4993,"125":4994,"sorun":4995,"stüd":4996,"pan":4997,"yürüt":4998,"bölge</w>":4999,"anlam</w>":5000,"adam":5001,"ışık</w>":5002,"Portek":5003,"kent":5004,"Türkçe</w>":5005,"ier":5006,"enler</w>":5007,"kariyerine</w>":5008,"oyuncu":5009,"Avusturya</w>":5010,"itler</w>":5011,"sine</w>":5012,"ımcısı</w>":5013,"nor":5014,"Sim":5015,"bilinir</w>":5016,"eyin</w>":5017,"alim":5018,"cisi</w>":5019,"ner</w>":5020,"Ac":5021,"olmasına</w>":5022,"meleri</w>":5023,"kontrol</w>":5024,"gen</w>":5025,"meni</w>":5026,"osyal":5027,"boş":5028,"maktaydı</w>":5029,"Ermen":5030,"Yarışması</w>":5031,"indedir</w>":5032,"uf":5033,"verildi</w>":5034,"yıldızı</w>":5035,"boyut":5036,"Hük":5037,"mesiyle</w>":5038,"yör":5039,"yardım</w>":5040,"Je":5041,"lak":5042,"Muham":5043,"lider":5044,"kamp":5045,"alarını</w>":5046,"bağımsız</w>":5047,"kendisine</w>":5048,"tav":5049,"İtalyan</w>":5050,"ang":5051,"video</w>":5052,"ong</w>":5053,"yle</w>":5054,"240":5055,"Yahudi</w>":5056,"birinci</w>":5057,"meti</w>":5058,"Min":5059,"sonrası</w>":5060,"lük":5061,"kısmı</w>":5062,"Yahud":5063,"üle":5064,"liğinde</w>":5065,"başlar</w>":5066,"Galatasar":5067,"ayas":5068,"san</w>":5069,"sing":5070,"dağıl":5071,"ix</w>":5072,"doğal</w>":5073,"Örneğin</w>":5074,"Da":5075,"mez</w>":5076,"Film":5077,"diye</w>":5078,"olmuş</w>":5079,"köken":5080,"Merkezi</w>":5081,"İbr":5082,"yav":5083,"hale</w>":5084,"anlık</w>":5085,"Cor":5086,"ehir</w>":5087,"75</w>":5088,"Ödülleri</w>":5089,"Karad":5090,"Wind":5091,"Hen":5092,"Sak":5093,"atif</w>":5094,"Kıbrıs</w>":5095,"spor":5096,"yayınlandı</w>":5097,"yüksek":5098,"anlı</w>":5099,"yüzyılın</w>":5100,"mışlardır</w>":5101,"üs</w>":5102,"kent</w>":5103,"lenmiş</w>":5104,"Sovyetler</w>":5105,"oluşur</w>":5106,"Galatasaray</w>":5107,"ayd":5108,"önem</w>":5109,"55</w>":5110,"tanıt":5111,"kanal":5112,"maçında</w>":5113,"Arap</w>":5114,"eyaletinde</w>":5115,"arkadaş":5116,"bölümü</w>":5117,"defa</w>":5118,"best</w>":5119,"elerinde</w>":5120,"138":5121,"ael</w>":5122,"ihtiy":5123,"Kah":5124,"Yüksek</w>":5125,"ayak":5126,"manı</w>":5127,"Toplam</w>":5128,"attı</w>":5129,"abancı</w>":5130,"1988</w>":5131,"yorum":5132,"yapt":5133,"evl":5134,"imini</w>":5135,"altına</w>":5136,"ilerek</w>":5137,"Mc":5138,"ete</w>":5139,"durum</w>":5140,"şarkısı</w>":5141,"toplan":5142,"iksel</w>":5143,"temsil":5144,"redd":5145,"Tun":5146,"verdiği</w>":5147,"||</w>":5148,"Buna</w>":5149,"Halk</w>":5150,"yardımcı</w>":5151,"şampiy":5152,"alarının</w>":5153,"duyur":5154,"dünyanın</w>":5155,"Siv":5156,"küm":5157,"Siy":5158,"elerde</w>":5159,"tinde</w>":5160,"alet</w>":5161,"ılaşt":5162,"uş</w>":5163,"öy</w>":5164,"Demokr":5165,"Yunanistan</w>":5166,"pozisyon":5167,"ucu":5168,"yasal</w>":5169,"anları</w>":5170,"eve</w>":5171,"hendis":5172,"rap":5173,"günümüzde</w>":5174,"modern</w>":5175,"ılabil":5176,"kuruldu</w>":5177,"La":5178,"yapıldı</w>":5179,"178":5180,"onik</w>":5181,"olsa</w>":5182,"serbest</w>":5183,"içi</w>":5184,"ten":5185,"lılar</w>":5186,"kulübü":5187,"ıp":5188,"Arn":5189,"alo":5190,"st</w>":5191,"Avustralya</w>":5192,"uç</w>":5193,"arab":5194,"ion":5195,"Arap":5196,"und</w>":5197,"berg</w>":5198,"çalışan</w>":5199,"Nüfus</w>":5200,"alanında</w>":5201,"Tor":5202,"yönetim</w>":5203,"undaki</w>":5204,"yapı":5205,"ıcak":5206,"mekte</w>":5207,"UE":5208,"yok</w>":5209,"yapı</w>":5210,"edilmektedir</w>":5211,"tipi</w>":5212,"yapılmıştır</w>":5213,"]]</w>":5214,"elerini</w>":5215,"senar":5216,"örü</w>":5217,"Enstit":5218,"San</w>":5219,"söyle":5220,"saat</w>":5221,"isel</w>":5222,"maç</w>":5223,"Sad":5224,"Wh":5225,"Sonuç":5226,"sergil":5227,"beyaz</w>":5228,"uyu</w>":5229,"adına</w>":5230,"akta</w>":5231,"baş</w>":5232,"cih":5233,"Vi":5234,"ela":5235,"dük":5236,"bunu</w>":5237,"ly":5238,"çevir":5239,"1987</w>":5240,"tion</w>":5241,"irken</w>":5242,"çatış":5243,"eyalet":5244,"davran":5245,"Brez":5246,"motor":5247,"uvar":5248,"değerlendir":5249,"ıştır":5250,"Gre":5251,"doğan</w>":5252,"etmeye</w>":5253,"altın</w>":5254,"Ahmet</w>":5255,"yönetim":5256,"İspan":5257,"UEFA</w>":5258,"Seç":5259,"dil</w>":5260,"şarkıcı</w>":5261,"devlet":5262,"ille</w>":5263,"Mir":5264,"tarihli</w>":5265,"üzel</w>":5266,"sözc":5267,"satın</w>":5268,"kontrol":5269,"sanat</w>":5270,"miktar":5271,"hızlı</w>":5272,"fir":5273,"sit":5274,"far":5275,"Polonya</w>":5276,"ağır</w>":5277,"onları</w>":5278,"laştı</w>":5279,"Gel":5280,"Kanada</w>":5281,"Gar":5282,"düncü</w>":5283,"1986</w>":5284,"etmiş</w>":5285,"hafta</w>":5286,"ation":5287,"ül</w>":5288,"incele":5289,"Uy":5290,"Say":5291,"şehri</w>":5292,"Grup</w>":5293,"lesi</w>":5294,"mızı</w>":5295,"ekte</w>":5296,"ordus":5297,"seçimleri</w>":5298,"organiz":5299,"ınar</w>":5300,"kızı</w>":5301,"Hüs":5302,"Tay":5303,"müm":5304,"bölüm</w>":5305,"rady":5306,"ski</w>":5307,"verir</w>":5308,"şim":5309,"korum":5310,"kız</w>":5311,"tin":5312,"Merkez</w>":5313,"Trabz":5314,"cumhur":5315,"stand":5316,"bileş":5317,"cel":5318,"Erz":5319,"işg":5320,"09":5321,"Muhareb":5322,"Mez":5323,"elinde</w>":5324,"yapmış</w>":5325,"Süper</w>":5326,"çalışmaları</w>":5327,"Nik":5328,"Pas":5329,"lukla</w>":5330,")\"</w>":5331,"elen</w>":5332,"eşi</w>":5333,"tat":5334,"127":5335,"ows</w>":5336,"ölçü":5337,"tepe</w>":5338,"Yaz</w>":5339,"siv":5340,"hen":5341,"zorunda</w>":5342,"57</w>":5343,"pet":5344,"lıca</w>":5345,"güç</w>":5346,"Sah":5347,"yılının</w>":5348,"dönüşt":5349,"Is":5350,"kurum":5351,"galaksidir</w>":5352,"hedef":5353,"sinema</w>":5354,"lov":5355,"William</w>":5356,"Muhammed</w>":5357,"yolu":5358,"larındaki</w>":5359,"belediye</w>":5360,"ore</w>":5361,"ordusu</w>":5362,"şti</w>":5363,"Mod":5364,"şa":5365,"Ordu</w>":5366,"fi</w>":5367,"ıma</w>":5368,"aman</w>":5369,"imparator":5370,"uluğu</w>":5371,"boş</w>":5372,"ers</w>":5373,"yeten":5374,"içerir</w>":5375,"İç":5376,"Rec":5377,"dağıt":5378,"Şehir</w>":5379,"Kore</w>":5380,"ph":5381,"seri</w>":5382,"sayı</w>":5383,"çift":5384,"Ros":5385,"araz":5386,"şehirdir</w>":5387,"sen</w>":5388,"lif":5389,"ste":5390,"bayr":5391,"Cem":5392,"Windows</w>":5393,"ira</w>":5394,"asından</w>":5395,"aka</w>":5396,"Devleti</w>":5397,"soğ":5398,"Kut":5399,"mekan":5400,"meyen</w>":5401,"aşam":5402,"sıcak":5403,"karşısında</w>":5404,"kurtar":5405,"yoktur</w>":5406,"Olimpiyatları</w>":5407,"mümk":5408,"erli</w>":5409,"aşır":5410,"sayesinde</w>":5411,"yönelik</w>":5412,"Han</w>":5413,"52</w>":5414,"der</w>":5415,"179":5416,"1984</w>":5417,"lasik</w>":5418,"kuruluş":5419,"ate</w>":5420,"kin":5421,"gözlem":5422,"yoğun":5423,"anal":5424,"esn":5425,"Demir":5426,"sü</w>":5427,"210":5428,"dan":5429,"Ken":5430,"enerji</w>":5431,"Hollanda</w>":5432,"vatand":5433,"1950</w>":5434,"dünyaya</w>":5435,"sub":5436,"Mis":5437,"otur":5438,"Deniz</w>":5439,"ow</w>":5440,"ger</w>":5441,"sta</w>":5442,"51</w>":5443,"zeng":5444,"Tele":5445,"para</w>":5446,"56</w>":5447,"rik":5448,"dair</w>":5449,"single</w>":5450,"etkisi</w>":5451,"ios</w>":5452,"Bununla</w>":5453,"53</w>":5454,"küt":5455,"ff":5456,"kendini</w>":5457,"yayın</w>":5458,"ko</w>":5459,"Burada</w>":5460,"Sev":5461,"tor</w>":5462,"yüzyıl</w>":5463,"maçı</w>":5464,"ington</w>":5465,"ksiy":5466,"1985</w>":5467,"öğretm":5468,"ung</w>":5469,"Savaş":5470,"felsef":5471,"gu</w>":5472,"kası</w>":5473,"başkenti</w>":5474,"rosu</w>":5475,"End":5476,"üzerindeki</w>":5477,"Müdür":5478,"BA</w>":5479,"döndü</w>":5480,"ash":5481,"54</w>":5482,"Devr":5483,"maz":5484,"liğe</w>":5485,"1982</w>":5486,"kitap</w>":5487,"elend":5488,"şidd":5489,"amil":5490,"Hayatı</w>":5491,"dış</w>":5492,"Pap":5493,"Albüm":5494,"yerleşim</w>":5495,"NA</w>":5496,"göç":5497,"ight</w>":5498,"era</w>":5499,"\"\"</w>":5500,"Kızıl":5501,"Hindistan</w>":5502,"kulüp":5503,"Me":5504,"Wor":5505,"Sil":5506,"aylık</w>":5507,"ock</w>":5508,"tanr":5509,"alarına</w>":5510,"Ukr":5511,"James</w>":5512,"Tok":5513,"çünkü</w>":5514,"ata</w>":5515,"ism":5516,"ht":5517,"konu</w>":5518,"toplam":5519,"ano</w>":5520,"yazarı</w>":5521,"Pal":5522,"kişinin</w>":5523,"ef</w>":5524,"laşması</w>":5525,"artık</w>":5526,"yeri</w>":5527,"Tim":5528,"yönetmen":5529,"58</w>":5530,"Cen":5531,"civar":5532,"aktif</w>":5533,"David</w>":5534,"cev":5535,"ilebilir</w>":5536,"hak</w>":5537,"500</w>":5538,"belirli</w>":5539,"başkanlığı</w>":5540,"andır</w>":5541,"emi</w>":5542,"oran":5543,"Bölgesi</w>":5544,"gan</w>":5545,"idari</w>":5546,"geleneksel</w>":5547,"Bask":5548,"araç":5549,"Lit":5550,"ezi</w>":5551,"gelec":5552,"Tarihi</w>":5553,"Gran":5554,"lek</w>":5555,"Genç":5556,"229":5557,"omb":5558,"160":5559,"üny":5560,"karşılaşt":5561,"arken</w>":5562,"ıç":5563,"kazanmıştır</w>":5564,"ran</w>":5565,"Bla":5566,"Böylece</w>":5567,"lament":5568,"übü</w>":5569,"destek</w>":5570,"deniz":5571,"gelmiştir</w>":5572,"atör</w>":5573,"eyse</w>":5574,"hiç</w>":5575,"iyor":5576,"kurdu</w>":5577,"bahs":5578,"İsveç</w>":5579,"Eğitim</w>":5580,"cut":5581,"alara</w>":5582,"yazdığı</w>":5583,"Si":5584,"söyledi</w>":5585,"Ric":5586,"Lu":5587,"ital</w>":5588,"Et":5589,"bölgesi</w>":5590,"1983</w>":5591,"adında</w>":5592,"viç":5593,"sürekli</w>":5594,"İst":5595,"güney</w>":5596,"Harek":5597,"erler</w>":5598,"Dur":5599,"les":5600,"72</w>":5601,"hid":5602,"ipl":5603,"şey":5604,"şey</w>":5605,"resmî</w>":5606,"We":5607,"ekti</w>":5608,"(),</w>":5609,"gin</w>":5610,"ıf</w>":5611,"Cumhuriyet</w>":5612,"Köyün</w>":5613,"elektrik</w>":5614,"kuzey</w>":5615,"ternet</w>":5616,"ettir":5617,"Sey":5618,"uyordu</w>":5619,"hikây":5620,"üstü</w>":5621,"Tat":5622,"Gürcistan</w>":5623,"yerleştir":5624,"lıkla</w>":5625,"Ha":5626,"bölgede</w>":5627,"Kuvvetleri</w>":5628,"ediği</w>":5629,"ze</w>":5630,"dikten</w>":5631,"Sonuçlar</w>":5632,"ildiği</w>":5633,"rik</w>":5634,"uklu</w>":5635,"etkili</w>":5636,"114":5637,"prot":5638,"öne</w>":5639,"çalışma</w>":5640,"ayrımı</w>":5641,"59</w>":5642,"La</w>":5643,"ej":5644,"lığa</w>":5645,"Altın</w>":5646,"asi</w>":5647,"Birinci</w>":5648,"Profesyonel</w>":5649,"oynanan</w>":5650,"genin</w>":5651,"ekip":5652,"ilik":5653,"115":5654,"kurulmuş</w>":5655,"kadın":5656,"kazanan</w>":5657,"nu</w>":5658,"tiyatro</w>":5659,"kaf":5660,"Beyaz</w>":5661,"üğü</w>":5662,"Beşik":5663,"Bulgar":5664,"dılar</w>":5665,"makla</w>":5666,"Sab":5667,"mevcut":5668,"İd":5669,"\".</w>":5670,"ha":5671,"Sür":5672,"Şehrin</w>":5673,"Diy":5674,"aşağıdaki</w>":5675,"takip</w>":5676,"Yard":5677,"ker</w>":5678,"çıkmıştır</w>":5679,"Festivali</w>":5680,"meler</w>":5681,"final</w>":5682,"Yas":5683,"İsviç":5684,"taşıyan</w>":5685,"120":5686,"230":5687,"köpr":5688,"Mahal":5689,"Michael</w>":5690,"futbolcu</w>":5691,"co":5692,"eliği</w>":5693,"Özel</w>":5694,"ıllı</w>":5695,"kendisi</w>":5696,"istem</w>":5697,"kova</w>":5698,"madı</w>":5699,"ast</w>":5700,"sel":5701,"yu</w>":5702,"asındaki</w>":5703,"214":5704,"33":5705,"bakan</w>":5706,"acağı</w>":5707,"tiz":5708,"Sel":5709,"kötü</w>":5710,"Kurulu</w>":5711,"stat":5712,"görüntü":5713,"Kaf":5714,"ney</w>":5715,"Arj":5716,"gin":5717,"Dern":5718,"gösteren</w>":5719,"ijinal</w>":5720,"ku</w>":5721,"taşın":5722,"düşünül":5723,"Can":5724,"yoğun</w>":5725,"170":5726,"korun":5727,"ilçesi</w>":5728,"Mic":5729,"yanl":5730,"serv":5731,"imzala":5732,"ayet</w>":5733,"so":5734,"ansiy":5735,"Berlin</w>":5736,"koşul":5737,"BM":5738,"görevi</w>":5739,"dönemi</w>":5740,"Enstitüsü</w>":5741,"SC":5742,"Mag":5743,"elere</w>":5744,"Irak</w>":5745,"birleştir":5746,"lanmaktadır</w>":5747,"1979</w>":5748,"adem":5749,"göz</w>":5750,"Ermeni</w>":5751,"urlar</w>":5752,"gücü</w>":5753,"Başkanlığı</w>":5754,"Köy":5755,"Gi":5756,"Pren":5757,"ölçüde</w>":5758,"kullanarak</w>":5759,"kaya</w>":5760,"95</w>":5761,"eyn":5762,"oluşt":5763,"leşti</w>":5764,"Mem":5765,"don</w>":5766,"ilçesinde</w>":5767,"hayvan":5768,"matem":5769,"ura</w>":5770,"dam":5771,"ber</w>":5772,"Kir":5773,"Çocu":5774,"ımlar</w>":5775,"lanma</w>":5776,"çab":5777,"79</w>":5778,"Arnav":5779,"lıklı</w>":5780,"ondan</w>":5781,"takımyıldızı</w>":5782,"dek</w>":5783,"doğrudan</w>":5784,"213":5785,"hesap":5786,"FIFA</w>":5787,"tarihleri</w>":5788,"kı</w>":5789,"Sanat":5790,"açıl":5791,"lında</w>":5792,"yans":5793,"dışı</w>":5794,"urt":5795,"Öğ":5796,"halinde</w>":5797,"ecektir</w>":5798,"64":5799,"Grubu</w>":5800,"yedi</w>":5801,"güc":5802,"etraf":5803,"mevcut</w>":5804,"Çan":5805,"Pan":5806,"popüler</w>":5807,"sep":5808,"Lisesi</w>":5809,"acağını</w>":5810,"85</w>":5811,"rast":5812,"ografi</w>":5813,"yazdı</w>":5814,"atis":5815,"Vak":5816,"las</w>":5817,"psik":5818,"Meks":5819,"eşit</w>":5820,"ula</w>":5821,"my</w>":5822,"ündeki</w>":5823,"1981</w>":5824,"Beşiktaş</w>":5825,"grubun</w>":5826,"diğinde</w>":5827,"hard</w>":5828,"şun":5829,"süren</w>":5830,"Akdeniz</w>":5831,"oyunu</w>":5832,"71</w>":5833,"itik</w>":5834,"aktar":5835,"gec":5836,"Spor</w>":5837,"ütüp":5838,"donan":5839,"yaşam</w>":5840,"kategor":5841,"Okulu</w>":5842,"göç</w>":5843,"alog</w>":5844,"kendisini</w>":5845,"Türkç":5846,"liğine</w>":5847,"layarak</w>":5848,"ılara</w>":5849,"ikti":5850,"ague</w>":5851,"Art":5852,"oley":5853,"ikal</w>":5854,"Belediye</w>":5855,"onom</w>":5856,"isim</w>":5857,"1974</w>":5858,"Dr</w>":5859,"isinden</w>":5860,"ita</w>":5861,"çift</w>":5862,"Kemal</w>":5863,"Ra":5864,"ksiyon":5865,"215":5866,"78</w>":5867,"usal</w>":5868,"sırasıyla</w>":5869,"osyalist</w>":5870,"Cal":5871,"batısında</w>":5872,"Bol":5873,"Yeş":5874,"Moskova</w>":5875,"giler</w>":5876,"kapat":5877,"76</w>":5878,"Ru":5879,"sap":5880,"Stady":5881,"ndaki</w>":5882,"go</w>":5883,"yılındaki</w>":5884,"tane</w>":5885,"ere</w>":5886,"Ayd":5887,"1978</w>":5888,"Sonr":5889,"ret</w>":5890,"gelmektedir</w>":5891,"araştırma</w>":5892,"ünist</w>":5893,"Robert</w>":5894,"kullanılmaktadır</w>":5895,"ife</w>":5896,"ces":5897,"vaz":5898,"masıdır</w>":5899,"yıldız</w>":5900,"eriş":5901,"verilmiştir</w>":5902,"imli</w>":5903,"açısından</w>":5904,"kişilik</w>":5905,"bilimsel</w>":5906,"ford</w>":5907,"Kara</w>":5908,"yapmaktadır</w>":5909,"gösterir</w>":5910,"okul</w>":5911,"şirketi</w>":5912,"yerini</w>":5913,"92</w>":5914,"Macar":5915,"aklı</w>":5916,"kesin</w>":5917,"Bakanı</w>":5918,"isa</w>":5919,"Hava</w>":5920,"110":5921,"ifad":5922,"Öl":5923,"obil</w>":5924,"dağ</w>":5925,"çaplı</w>":5926,"eliğ":5927,"Kab":5928,"yüzünde</w>":5929,"elerine</w>":5930,"saat":5931,"ındır":5932,"akları</w>":5933,"çö":5934,"ayken</w>":5935,"uluğ":5936,"ola</w>":5937,"öldürül":5938,"Üç":5939,"kullanılmıştır</w>":5940,"karış":5941,"nasıl</w>":5942,"açıkladı</w>":5943,"93</w>":5944,"ilinde</w>":5945,"onların</w>":5946,"Muharebesi</w>":5947,"Kıs":5948,"Taş":5949,"dül</w>":5950,"açıklam":5951,"aat</w>":5952,"dördüncü</w>":5953,"bölümünde</w>":5954,"97</w>":5955,"stüdyo</w>":5956,"eğitimi</w>":5957,"edeyse</w>":5958,"228":5959,"Bursa</w>":5960,"üye</w>":5961,"77</w>":5962,"99</w>":5963,"Ordusu</w>":5964,"Kend":5965,"uştur":5966,"Küçük</w>":5967,"gı</w>":5968,"Dr":5969,"dili</w>":5970,"1973</w>":5971,"Kral</w>":5972,"Cr":5973,"74</w>":5974,"88</w>":5975,"siyasetçi</w>":5976,"esir</w>":5977,"bağımsız":5978,"teles":5979,"mark":5980,"bulunmuştur</w>":5981,"dikkat":5982,"ayna</w>":5983,"Vol":5984,"Krallığı</w>":5985,"ena</w>":5986,"illa</w>":5987,"ester</w>":5988,"ene</w>":5989,"seçim</w>":5990,"direktör":5991,"tef":5992,"225":5993,"lenmesi</w>":5994,"Ta":5995,"bazen</w>":5996,"113":5997,"ić</w>":5998,"keşfedilmiştir</w>":5999,"Sy":6000,"ilerde</w>":6001,"yapmak</w>":6002,"ser</w>":6003,"günümüz":6004,"Günümüzde</w>":6005,"Lib":6006,"1968</w>":6007,"tutuk":6008,"Ur":6009,"doktor":6010,"böylece</w>":6011,"yetiştir":6012,"ileş":6013,"George</w>":6014,"şehrinde</w>":6015,"enerj":6016,"meş":6017,"Kariyeri</w>":6018,"Ala":6019,"öncesi</w>":6020,"1977</w>":6021,"1975</w>":6022,"lerce</w>":6023,"uluk":6024,"doğusunda</w>":6025,"ımını</w>":6026,"tal</w>":6027,"dizisi</w>":6028,"Mik":6029,"dikleri</w>":6030,"kitabı</w>":6031,"Kültür</w>":6032,"Selç":6033,"malı</w>":6034,"Araştır":6035,"alındı</w>":6036,"akistan</w>":6037,"konusu</w>":6038,"laşma</w>":6039,"alimanı</w>":6040,"esindeki</w>":6041,"IV</w>":6042,"tikleri</w>":6043,"Antal":6044,"1972</w>":6045,"akadem":6046,"gar</w>":6047,"Rum":6048,"kup":6049,"1945</w>":6050,"yabancı</w>":6051,"Savaş</w>":6052,"tarih</w>":6053,"büy":6054,"mm</w>":6055,"tüm":6056,"vak":6057,"aile</w>":6058,"Belç":6059,"Britanya</w>":6060,"ders":6061,"Mel":6062,"görevini</w>":6063,"vermiştir</w>":6064,"73</w>":6065,"buna</w>":6066,"haber":6067,"gisi</w>":6068,"227":6069,"vir":6070,"pen":6071,"yurt</w>":6072,"ileti":6073,"görülür</w>":6074,"hayatını</w>":6075,"yüzden</w>":6076,"216":6077,"AT":6078,"ucusu</w>":6079,"malzem":6080,"yetiş":6081,"Tah":6082,"mücadele":6083,"Cez":6084,"sınırları</w>":6085,"86</w>":6086,"ood</w>":6087,"96</w>":6088,"kullanıc":6089,"Hır":6090,"sey</w>":6091,"Jer":6092,"Müslüman</w>":6093,"birey":6094,"ayi</w>":6095,"sefer":6096,"kum":6097,"örgüt":6098,"kök":6099,"tar</w>":6100,"bitk":6101,"lığın</w>":6102,"sahne</w>":6103,"tarz":6104,"hip":6105,"ane</w>":6106,"Süley":6107,"87</w>":6108,"metr":6109,"City</w>":6110,"arkadaşı</w>":6111,"Tab":6112,"ida</w>":6113,"nok":6114,"Komut":6115,"1976</w>":6116,"aklar</w>":6117,"imin</w>":6118,"bac":6119,"ükle":6120,"ver</w>":6121,"94</w>":6122,"Thom":6123,"mevcuttur</w>":6124,"lig</w>":6125,"onlar</w>":6126,"ıldığı</w>":6127,"126":6128,"kuşat":6129,"44":6130,"diren":6131,"anların</w>":6132,"83</w>":6133,"Lou":6134,"milletvekili</w>":6135,"Ekon":6136,"güm":6137,"ima</w>":6138,"feder":6139,"cinsel</w>":6140,"iplom":6141,"plat":6142,"stein</w>":6143,"sağlayan</w>":6144,"İsviçre</w>":6145,"dikkat</w>":6146,"nün</w>":6147,"Brezilya</w>":6148,"annesi</w>":6149,"Vir":6150,"mesaf":6151,"Kadınlar</w>":6152,"takımında</w>":6153,"işe</w>":6154,"Güneş</w>":6155,"ortalama</w>":6156,"ımları</w>":6157,"idar":6158,"Park":6159,"ikler</w>":6160,"çocuğu</w>":6161,"merkez</w>":6162,"The":6163,"üretilen</w>":6164,")'</w>":6165,"98</w>":6166,"gıç":6167,"kavram":6168,"kala":6169,"per</w>":6170,"ektör</w>":6171,"madalya</w>":6172,"parti</w>":6173,"durumu</w>":6174,"düşünc":6175,"81</w>":6176,"rad":6177,"Müzesi</w>":6178,"fet":6179,"hala</w>":6180,"sağlar</w>":6181,"oz</w>":6182,"ullah</w>":6183,"oft</w>":6184,"hayatı</w>":6185,"Gül":6186,"geçirdi</w>":6187,".)</w>":6188,"Sanat</w>":6189,"neredeyse</w>":6190,"Meclisi</w>":6191,"1969</w>":6192,"edilmesi</w>":6193,"Koc":6194,"üyeleri</w>":6195,"öğretim</w>":6196,"istik</w>":6197,"Tarih</w>":6198,"onda</w>":6199,"çoğunlukla</w>":6200,"beş":6201,"Atatür":6202,"84</w>":6203,"ciler</w>":6204,"komp":6205,"duvar":6206,"Hor":6207,"Ekonom":6208,"Yaşamı</w>":6209,"No":6210,"yapılmış</w>":6211,"Kulüp</w>":6212,"ilerden</w>":6213,"giren</w>":6214,"1920</w>":6215,"etmesi</w>":6216,"ıklar</w>":6217,"alınan</w>":6218,"kapas":6219,"olmam":6220,"Pe":6221,"kırmızı</w>":6222,"çer":6223,"ılım</w>":6224,"apın":6225,"filmin</w>":6226,"ne":6227,"Ür":6228,"Flor":6229,"almış</w>":6230,"içindeki</w>":6231,"tamamladı</w>":6232,"ait":6233,"ahim</w>":6234,"1928</w>":6235,"Boğ":6236,"au</w>":6237,"gitti</w>":6238,"araya</w>":6239,"dini</w>":6240,"Moğ":6241,"götür":6242,"sanatçı</w>":6243,"82</w>":6244,"oluşturul":6245,"Özellikle</w>":6246,"del":6247,"sağlam":6248,"iddi":6249,"hep":6250,"Kurt":6251,"nü</w>":6252,"canlı</w>":6253,"kolay":6254,"1971</w>":6255,"yönetimi</w>":6256,"CO":6257,"Derneği</w>":6258,"kın":6259,"Ex":6260,"endüst":6261,"başta</w>":6262,"yerek</w>":6263,"ıştı</w>":6264,"Portekiz</w>":6265,"ündür</w>":6266,"Kadın</w>":6267,"Bos":6268,"tih":6269,"değer</w>":6270,"tim":6271,"Var":6272,"mesinden</w>":6273,"önde</w>":6274,"Konstan":6275,"Eyal":6276,"andığı</w>":6277,"işgal</w>":6278,"vad":6279,"de":6280,"89</w>":6281,"Yıld":6282,"Bin":6283,"wn</w>":6284,"91</w>":6285,"130":6286,"Los</w>":6287,"Ukrayna</w>":6288,"ortam":6289,"denir</w>":6290,"içine</w>":6291,"ks</w>":6292,"düzey":6293,"mily":6294,"makin":6295,"Paul</w>":6296,"Charles</w>":6297,"kökenli</w>":6298,"neh":6299,"ölmüştür</w>":6300,"kov":6301,"bis":6302,"tel":6303,"siyon</w>":6304,"eğitim":6305,"bugün":6306,"sok":6307,"dakik":6308,"yarar":6309,"Sağ":6310,"ıb":6311,"yaşadığı</w>":6312,"lis</w>":6313,"tec":6314,"teleskop":6315,"mahalle</w>":6316,"Sem":6317,"hâl":6318,"Van</w>":6319,"ment</w>":6320,"1967</w>":6321,"ölçümü</w>":6322,"kans":6323,"olay</w>":6324,"famil":6325,"sol</w>":6326,"Teknik</w>":6327,"edr":6328,"irdi</w>":6329,"ettiler</w>":6330,"Tüm</w>":6331,"kıl":6332,"bilinmektedir</w>":6333,"ield</w>":6334,"paylaş":6335,"Hasan</w>":6336,"seyi</w>":6337,"başlarında</w>":6338,"vatandaş":6339,"gü</w>":6340,"Oğ":6341,"finalde</w>":6342,"Atatürk</w>":6343,"ılarını</w>":6344,"yonu</w>":6345,"150":6346,"rist":6347,"tercih</w>":6348,"Wal":6349,"ld</w>":6350,"cins":6351,"oleybol</w>":6352,"Dör":6353,"lardaki</w>":6354,"çıkar</w>":6355,"elerinden</w>":6356,"normal</w>":6357,"olmadığı</w>":6358,"gor":6359,"ational</w>":6360,"yayımlanan</w>":6361,"ls</w>":6362,"Hel":6363,"Akademisi</w>":6364,"puan</w>":6365,"oynadığı</w>":6366,"likler</w>":6367,"Kilisesi</w>":6368,"kes</w>":6369,"Ort":6370,"ığından</w>":6371,"duk":6372,"terk</w>":6373,"tu</w>":6374,"menin</w>":6375,"ısız</w>":6376,"İlçenin</w>":6377,"300":6378,"asker</w>":6379,"iğinde</w>":6380,"Ard":6381,"etme</w>":6382,"cihaz":6383,"köş":6384,"takımın</w>":6385,"int":6386,"mimar":6387,"belli</w>":6388,"göstermektedir</w>":6389,"Macaristan</w>":6390,"eniz</w>":6391,"üretim</w>":6392,"coğraf":6393,"kurt":6394,"Ker":6395,"uyru":6396,"çağr":6397,"parator</w>":6398,"Ama</w>":6399,"Aç":6400,"tehlik":6401,"derece</w>":6402,"etli</w>":6403,"pren":6404,"olog":6405,"ky</w>":6406,"demir":6407,"Bunlar</w>":6408,"unvan":6409,"astronom</w>":6410,"uyor</w>":6411,"kulübünde</w>":6412,"ülkede</w>":6413,"çapında</w>":6414,"çiler</w>":6415,"ülü</w>":6416,"1961</w>":6417,"use</w>":6418,"gaz</w>":6419,"pas":6420,"erleri</w>":6421,"aşık</w>":6422,"bakır</w>":6423,"teknoloj":6424,"OS</w>":6425,"etler</w>":6426,"age</w>":6427,"isiyle</w>":6428,"kın</w>":6429,"atandı</w>":6430,"genç":6431,"Geçersiz</w>":6432,"League</w>":6433,"ımından</w>":6434,"temel":6435,"Hac":6436,"uri</w>":6437,"Mit":6438,"likleri</w>":6439,"oyuncusu</w>":6440,"inler</w>":6441,"140":6442,"Mala":6443,"olas":6444,"ago</w>":6445,"eylem":6446,"oğul":6447,"söyler</w>":6448,"sebebiyle</w>":6449,"lum</w>":6450,"dönüştür":6451,"Mahkem":6452,"Ba":6453,"ies</w>":6454,"ill</w>":6455,"Cas":6456,"ilk":6457,"iller</w>":6458,"Deniz":6459,"adamı</w>":6460,"paşa</w>":6461,"göl</w>":6462,"takımının</w>":6463,"performans":6464,"Elek":6465,"hatta</w>":6466,"kanıt":6467,"Ana</w>":6468,"yaptır":6469,"ayrıldı</w>":6470,"ost</w>":6471,"kuzeyinde</w>":6472,"yoluyla</w>":6473,"olma</w>":6474,"dos":6475,"fark</w>":6476,"tahmin</w>":6477,"özellikleri</w>":6478,"sistem</w>":6479,"New":6480,"Kel":6481,"culuk</w>":6482,"mesinin</w>":6483,"ew":6484,"Şah":6485,"lıkları</w>":6486,"pot":6487,"1965</w>":6488,"net</w>":6489,"metal</w>":6490,"300</w>":6491,"tim</w>":6492,"ilgi</w>":6493,"liğin</w>":6494,"ette</w>":6495,"Karab":6496,"ticari</w>":6497,"cid":6498,"ırdı</w>":6499,"ığına</w>":6500,"Efendi</w>":6501,"vanya</w>":6502,"durumda</w>":6503,"yaş</w>":6504,"()</w>":6505,"ern":6506,"kı":6507,"Dış":6508,"onay":6509,"müziği</w>":6510,"Çok</w>":6511,"Tanrı</w>":6512,"gece</w>":6513,"Sek":6514,"orijinal</w>":6515,"ığın</w>":6516,"Camii</w>":6517,"politik":6518,"kendine</w>":6519,"ımının</w>":6520,"yapısı</w>":6521,"abilm":6522,"sağ</w>":6523,"konser":6524,"Div":6525,"acaktır</w>":6526,"kural":6527,"Sat":6528,"ling</w>":6529,"arada</w>":6530,"aşırı</w>":6531,"1966</w>":6532,"Gam":6533,"biçimde</w>":6534,"gördü</w>":6535,"226":6536,"Lor":6537,"yerde</w>":6538,"İbrahim</w>":6539,"yayınladı</w>":6540,"port":6541,"çalışmalar</w>":6542,"uel</w>":6543,"117":6544,"Danim":6545,"NBA</w>":6546,"Aday</w>":6547,"örnek</w>":6548,"insanların</w>":6549,"Jean</w>":6550,"Tal":6551,"üme</w>":6552,"sürec":6553,"Kongr":6554,"BMM</w>":6555,"ılarının</w>":6556,"yükseldi</w>":6557,"amam":6558,"TBMM</w>":6559,"lenme</w>":6560,"yıllar</w>":6561,"eline</w>":6562,"ılığıyla</w>":6563,"kilomet":6564,"zayı":6565,"şar":6566,"217":6567,"Del":6568,"Sosyal</w>":6569,".,</w>":6570,"tren":6571,"nüfusunun</w>":6572,"erk</w>":6573,"ticaret</w>":6574,"şim</w>":6575,"Göz":6576,"pil":6577,"çekir":6578,"Tom":6579,"dönemin</w>":6580,"Ir":6581,"1930</w>":6582,"fotoğraf":6583,"1964</w>":6584,"İç</w>":6585,"amacı</w>":6586,"antin</w>":6587,"Micros":6588,"vok":6589,"Nev":6590,"kabil":6591,"pazar":6592,"ındayken</w>":6593,"kole":6594,"Stadyumu</w>":6595,"yed":6596,"etleri</w>":6597,"anlay":6598,"mağlu":6599,"Dis":6600,"lıklar</w>":6601,"almak</w>":6602,"geniş":6603,"116":6604,"Dönem</w>":6605,"urum</w>":6606,"alanda</w>":6607,"nan</w>":6608,"eth</w>":6609,"Ag":6610,"Ren":6611,"ılac":6612,"oluşmaktadır</w>":6613,"yetik</w>":6614,"mahkem":6615,"Edeb":6616,"Aks":6617,"ort</w>":6618,"mekteydi</w>":6619,"Çek":6620,"Abd":6621,"demir</w>":6622,"Est":6623,"Yine</w>":6624,"orum</w>":6625,"kararı</w>":6626,"Hristiyan</w>":6627,"Karadeniz</w>":6628,"Arjantin</w>":6629,"letler</w>":6630,"doğum</w>":6631,"220":6632,"kalmıştır</w>":6633,"dalg":6634,"Make":6635,"siyah</w>":6636,"hücre":6637,"geçmektedir</w>":6638,"ela</w>":6639,"1940</w>":6640,"şer":6641,"müzis":6642,"Alex":6643,"kültürel</w>":6644,"mot":6645,"olmadığını</w>":6646,"satış":6647,"diplom":6648,"oluşturan</w>":6649,"yeş":6650,"azalt":6651,"teleskopla</w>":6652,"\"|</w>":6653,"Il":6654,"Luc":6655,"sınıflandır":6656,"hac":6657,"Basketbol</w>":6658,"epe</w>":6659,"bilgisayar</w>":6660,"tehd":6661,"112":6662,"sk</w>":6663,"İrlanda</w>":6664,"muştu</w>":6665,"sekiz</w>":6666,"Trabzon</w>":6667,"Şey":6668,"ılacak</w>":6669,"ilah</w>":6670,"...</w>":6671,"ati</w>":6672,"Microsoft</w>":6673,"vü":6674,"prob":6675,"edik</w>":6676,"gâ":6677,"malıdır</w>":6678,"ki":6679,"Yal":6680,"lit":6681,"by</w>":6682,"oj":6683,"atin</w>":6684,"Arnavut":6685,"klasik</w>":6686,"Havalimanı</w>":6687,"Mey":6688,"olik</w>":6689,"profes":6690,"açtı</w>":6691,"Katalog</w>":6692,"şart":6693,"ımında</w>":6694,"dr":6695,"günlük</w>":6696,"ailesi</w>":6697,"ateş":6698,"çalışmaya</w>":6699,"Bayr":6700,"ong":6701,"lisi</w>":6702,"Peter</w>":6703,"mec":6704,"Gökyüzünde</w>":6705,"Hüseyin</w>":6706,"World</w>":6707,"şiir":6708,"veri</w>":6709,"Grand</w>":6710,"köyü</w>":6711,"toprak</w>":6712,"Meksika</w>":6713,"ıklı</w>":6714,"kilis":6715,"Sor":6716,"süreç":6717,"Belçika</w>":6718,"Ze":6719,"giriş</w>":6720,"Dokt":6721,"ajı</w>":6722,"düşt":6723,"ium</w>":6724,"Değ":6725,"örneğin</w>":6726,"Ram":6727,"ağa</w>":6728,"rö":6729,"General</w>":6730,"ziyaret</w>":6731,"oluştuğu</w>":6732,"ula":6733,"Albüm</w>":6734,"Fre":6735,"zir":6736,"Bulgaristan</w>":6737,"Ann":6738,"mel":6739,"oyu</w>":6740,"endir</w>":6741,"1963</w>":6742,"pe</w>":6743,"fiziksel</w>":6744,"lası</w>":6745,"sonradan</w>":6746,"yılda</w>":6747,"doğu":6748,"yazı</w>":6749,"lediği</w>":6750,"bed":6751,"Çif":6752,"Dir":6753,"ence</w>":6754,"que</w>":6755,"Mi":6756,"teslim</w>":6757,"olduğuna</w>":6758,"aracılığıyla</w>":6759,"pozisyonunda</w>":6760,"şah":6761,"görülen</w>":6762,"yapmaya</w>":6763,"ütüphan":6764,"yn":6765,"yılın</w>":6766,"yere</w>":6767,"opol":6768,"sektör":6769,"Gölü</w>":6770,"War":6771,"Haç":6772,"lendiği</w>":6773,"listesinde</w>":6774,"ısal</w>":6775,"mişlerdir</w>":6776,"Antalya</w>":6777,"lerdeki</w>":6778,"ens</w>":6779,"uzunluğ":6780,"müd":6781,"Vic":6782,"insanlar</w>":6783,"yayımlandı</w>":6784,"eğini</w>":6785,"Ind":6786,"Arapça</w>":6787,"oluşturur</w>":6788,"rock</w>":6789,"şirket</w>":6790,"dam</w>":6791,"durdur":6792,"zaf":6793,"Kim":6794,"balık</w>":6795,"Mim":6796,"gam":6797,"birim":6798,"ımın</w>":6799,"etim":6800,"sorum":6801,"ludur</w>":6802,"emiştir</w>":6803,"başvur":6804,"Konseyi</w>":6805,"sağlık</w>":6806,"Kav":6807,"Adana</w>":6808,"ilerinden</w>":6809,"Süleyman</w>":6810,"ruh":6811,"karşılık</w>":6812,"İspanyol</w>":6813,"gerekli</w>":6814,"bölgesine</w>":6815,"parçac":6816,"118":6817,"yüzünden</w>":6818,"Güven":6819,"04</w>":6820,"ams</w>":6821,"sebep</w>":6822,"ımıyla</w>":6823,"henüz</w>":6824,"gelebilir</w>":6825,"inli</w>":6826,"kuvv":6827,"larca</w>":6828,"Lat":6829,"Tic":6830,"doğumlu</w>":6831,"lerindeki</w>":6832,"sözleşme</w>":6833,"çıkart":6834,"ular</w>":6835,"kullanımı</w>":6836,"isyon</w>":6837,"bölün":6838,"filmde</w>":6839,"ıncı</w>":6840,"atan":6841,"rem":6842,"Çalış":6843,"filminde</w>":6844,"likle</w>":6845,"Boz":6846,"enf":6847,"ıza</w>":6848,"yapılır</w>":6849,"wit":6850,"huku":6851,"kentinde</w>":6852,"Sın":6853,"1944</w>":6854,"lus</w>":6855,"ölümünden</w>":6856,"Fel":6857,"gören</w>":6858,"Pen":6859,"mann</w>":6860,"etkilen":6861,"olur":6862,"ud</w>":6863,"send":6864,"Park</w>":6865,"dolayısıyla</w>":6866,"MS</w>":6867,"Ka":6868,"yandan</w>":6869,"acılık</w>":6870,"kaynağı</w>":6871,"Haned":6872,"Gro":6873,"geçer</w>":6874,"Dal":6875,"Dış</w>":6876,"Güm":6877,"aral":6878,"sayılı</w>":6879,"farkl":6880,"63":6881,"iel</w>":6882,"Birçok</w>":6883,"geles</w>":6884,"alarından</w>":6885,"iro</w>":6886,"yaparak</w>":6887,"olduğundan</w>":6888,"ace</w>":6889,"sahipliği</w>":6890,"eleme</w>":6891,"Çağ":6892,"Jos":6893,"karşın</w>":6894,"sığ":6895,"örf":6896,"Federasyonu</w>":6897,"sivil</w>":6898,"Bölümü</w>":6899,"ston</w>":6900,"von</w>":6901,"Hukuk</w>":6902,"1956</w>":6903,"Diyar":6904,"Söz":6905,"uluş</w>":6906,"yasa</w>":6907,"medi</w>":6908,"uzay</w>":6909,"vi</w>":6910,"bon</w>":6911,"artır":6912,"01</w>":6913,"getirildi</w>":6914,"luğunu</w>":6915,"özgür":6916,"Fa":6917,"1962</w>":6918,"kaybetti</w>":6919,"gıçta</w>":6920,"leyici</w>":6921,"şirke":6922,"Angeles</w>":6923,"Fransızca</w>":6924,"oto</w>":6925,"maçına</w>":6926,"\"(</w>":6927,"kahram":6928,"orman":6929,"Eş":6930,"göl":6931,"eda</w>":6932,"Gol":6933,"Rad":6934,"wood</w>":6935,"antik</w>":6936,"ea</w>":6937,"Eğer</w>":6938,"sıv":6939,"güvenlik</w>":6940,"1941</w>":6941,"edebil":6942,"yönel":6943,"for</w>":6944,"Andre":6945,"Takımı</w>":6946,"Müdürlüğü</w>":6947,"lığında</w>":6948,"Des":6949,"Men":6950,"suz":6951,"223":6952,"Oyuncu</w>":6953,"lilik</w>":6954,"güneyinde</w>":6955,"şöyle</w>":6956,"anc":6957,"danış":6958,"off</w>":6959,"yürü":6960,"liye</w>":6961,"Kategor":6962,"strat":6963,"ys":6964,"ald</w>":6965,"oda</w>":6966,"muş":6967,"alandı</w>":6968,"Sivas</w>":6969,"mümkün</w>":6970,"bazıları</w>":6971,"sağladı</w>":6972,"kesim":6973,"giden</w>":6974,"cil":6975,"ota</w>":6976,"endüstr":6977,"400</w>":6978,"yatır":6979,"1959</w>":6980,"kadros":6981,"tarım</w>":6982,"Air":6983,"kar</w>":6984,"aslında</w>":6985,"adlandırılan</w>":6986,"Samsun</w>":6987,"arru":6988,"rüt":6989,"aday":6990,"programı</w>":6991,"eyle</w>":6992,"bakanı</w>":6993,"lah":6994,"karm":6995,"kültür</w>":6996,"Kole":6997,"zengin</w>":6998,"Bit":6999,"kış":7000,"yukar":7001,"bugün</w>":7002,"liler</w>":7003,"Erkekler</w>":7004,"board</w>":7005,"Topl":7006,"Erzurum</w>":7007,"öyk":7008,"değişik</w>":7009,"galib":7010,"ward</w>":7011,"Ang":7012,"Düz":7013,"Franc":7014,"Bon":7015,"Adası</w>":7016,"yüzey":7017,"av</w>":7018,"Jul":7019,"Babası</w>":7020,"ang</w>":7021,"09</w>":7022,"okulu</w>":7023,"gın":7024,"ödül</w>":7025,"hr":7026,"toplant":7027,"Ardından</w>":7028,"önünde</w>":7029,"yüz</w>":7030,"rahat":7031,"kaynak</w>":7032,"liyet":7033,"haft":7034,"merkezli</w>":7035,"ister</w>":7036,"ala</w>":7037,"asal</w>":7038,"Arab":7039,"Mark":7040,"çiç":7041,"üretimi</w>":7042,"Sef":7043,"Cer":7044,"emr":7045,"oynan":7046,"bitki</w>":7047,"anla":7048,"bö":7049,"içe</w>":7050,"ple</w>":7051,"lisans</w>":7052,"Lev":7053,"ikisi</w>":7054,"mamış</w>":7055,"liğinden</w>":7056,"Üy":7057,"roman</w>":7058,"Hitler</w>":7059,"Belediyesi</w>":7060,"aynalı</w>":7061,"Mih":7062,"Oyunları</w>":7063,"1958</w>":7064,"Milli</w>":7065,"Din":7066,"pınar</w>":7067,"olacak</w>":7068,"SS</w>":7069,"sene</w>":7070,"büny":7071,"ander</w>":7072,"gesi</w>":7073,"123":7074,"uncu</w>":7075,"Konya</w>":7076,"Fati":7077,"dakika</w>":7078,"Mehmed</w>":7079,"yapar</w>":7080,"mühendis":7081,"hastan":7082,"uzak</w>":7083,"sağlamak</w>":7084,"Biy":7085,"Lin":7086,"birinc":7087,"05</w>":7088,"orada</w>":7089,"Kuş":7090,"lığının</w>":7091,"Oper":7092,"kralı</w>":7093,"web</w>":7094,"Osman</w>":7095,"diş":7096,"Dışişleri</w>":7097,"Lis":7098,"sc":7099,"Kralı</w>":7100,"mos":7101,"söylen":7102,"rekor":7103,"bistan</w>":7104,"lerdi</w>":7105,"Üç</w>":7106,"Karş":7107,"Unit":7108,"St</w>":7109,"ahş":7110,"ilerle</w>":7111,"sembol":7112,"çu</w>":7113,"verilm":7114,"yavaş</w>":7115,"eseri</w>":7116,"espor</w>":7117,"1957</w>":7118,"You</w>":7119,"ciddi</w>":7120,"cılık</w>":7121,"Nic":7122,"İsko":7123,"hiss":7124,"Ben</w>":7125,"denk":7126,"08</w>":7127,"Jon":7128,"layıp</w>":7129,"apol":7130,"Phil":7131,"odo":7132,"anlamlara</w>":7133,"Ermenistan</w>":7134,"kg</w>":7135,"On</w>":7136,"1946</w>":7137,"Ob":7138,"Ke":7139,"ortadan</w>":7140,"kişidir</w>":7141,"hakkı</w>":7142,"evlendi</w>":7143,"devle":7144,"dere</w>":7145,"yapımc":7146,"etkileş":7147,"muhal":7148,"gösterdi</w>":7149,"egem":7150,"geçmiştir</w>":7151,"hel":7152,"barındır":7153,"Fu":7154,"Mol":7155,"aktör":7156,"Thomas</w>":7157,"vin</w>":7158,"sonlarında</w>":7159,"Mahmu":7160,"model</w>":7161,"43":7162,"ilg":7163,"1918</w>":7164,"Denizi</w>":7165,"polis</w>":7166,"babasının</w>":7167,"rej":7168,"Antik</w>":7169,"gerçekleştirilen</w>":7170,"çizgi</w>":7171,"ain</w>":7172,"aksine</w>":7173,"Henry</w>":7174,"ayla</w>":7175,"sas</w>":7176,"belirtti</w>":7177,"ilişkin</w>":7178,"bon":7179,"geril":7180,"düşür":7181,"Rob":7182,"giydi</w>":7183,"Balık":7184,"yaşındayken</w>":7185,"İskend":7186,"Slov":7187,"Şer":7188,"temelen</w>":7189,"1954</w>":7190,"Sosyalist</w>":7191,"Wash":7192,"halkı</w>":7193,"ijital</w>":7194,"Mün":7195,"radyo</w>":7196,"demokr":7197,"Saf":7198,"başarı</w>":7199,"oku":7200,"nö":7201,"larıdır</w>":7202,"ismini</w>":7203,"kapsamında</w>":7204,"gizli</w>":7205,"ülebilir</w>":7206,"ult":7207,"lok":7208,"Sw":7209,"atom":7210,"sürüm":7211,"07</w>":7212,"hidro":7213,"versiy":7214,"vi":7215,"Ahmed</w>":7216,"ılığını</w>":7217,"madde</w>":7218,"karakter</w>":7219,"irli</w>":7220,"1943</w>":7221,"günd":7222,"bunların</w>":7223,"lav</w>":7224,"doku":7225,"yayınlan":7226,"Kızıl</w>":7227,"Makedon":7228,"Genç</w>":7229,"lâ":7230,"Köpr":7231,"seçilmiştir</w>":7232,"uydu</w>":7233,"Uzun</w>":7234,"ato</w>":7235,"Na":7236,"undu</w>":7237,"biraz</w>":7238,"leyic":7239,"RT</w>":7240,"grad</w>":7241,"giderek</w>":7242,"zer</w>":7243,"eser</w>":7244,"veril":7245,"nedeni</w>":7246,"ağına</w>":7247,"do</w>":7248,"Hristiyan":7249,"aktiv":7250,"kişisel</w>":7251,"tikten</w>":7252,"Yukar":7253,"unma</w>":7254,"Adaylık</w>":7255,"Hükû":7256,"toplamda</w>":7257,"Anayas":7258,"ödülü</w>":7259,"Richard</w>":7260,"genelde</w>":7261,"gerektir":7262,"Cap":7263,"AS":7264,"matemati":7265,"Hint</w>":7266,"tutul":7267,"ortak":7268,"Aleks":7269,"uf</w>":7270,"1939</w>":7271,"atan</w>":7272,"Proj":7273,"prote":7274,"Milletler</w>":7275,"hızla</w>":7276,"gun":7277,"makal":7278,"HP</w>":7279,"1955</w>":7280,"ımda</w>":7281,"ısıdır</w>":7282,"stan</w>":7283,"pak":7284,"boğ":7285,"lideri</w>":7286,"Washington</w>":7287,"oci":7288,"anti":7289,"Kategori</w>":7290,"popü":7291,"Fri":7292,"ru</w>":7293,"1948</w>":7294,"takımına</w>":7295,"Kos":7296,"silah</w>":7297,"Danimarka</w>":7298,"Çer":7299,"katılan</w>":7300,"ölüm</w>":7301,"mecl":7302,"Sol":7303,"si":7304,"oynayan</w>":7305,"elerden</w>":7306,"awa</w>":7307,"Record":7308,"çevres":7309,"Nas":7310,"düzenlem":7311,"Boy":7312,"arlı</w>":7313,"Norveç</w>":7314,"şampiyon</w>":7315,"zır":7316,"sınır</w>":7317,"girişim":7318,"Filmin</w>":7319,"olog</w>":7320,"Eskiş":7321,"Dam":7322,"BC</w>":7323,"ıldığında</w>":7324,"Cla":7325,"lerek</w>":7326,"faaliyet</w>":7327,"mezar":7328,"Vide":7329,"Progr":7330,"cık</w>":7331,"desi</w>":7332,"Plan":7333,"usudur</w>":7334,"mail</w>":7335,"Elektr":7336,"genişlet":7337,"fig":7338,"rolü</w>":7339,"Cumhurbaşkanı</w>":7340,"savunma</w>":7341,"isyonu</w>":7342,"212":7343,"özelliği</w>":7344,"Bill":7345,"kullanan</w>":7346,"sinem":7347,"fı</w>":7348,"hakim":7349,"United</w>":7350,"56":7351,"girmiştir</w>":7352,"ağın</w>":7353,"Sun":7354,"ilerinde</w>":7355,"tanesi</w>":7356,"leridir</w>":7357,"con":7358,"Gor":7359,"harf":7360,"elli</w>":7361,"218":7362,"getirdi</w>":7363,"sebep":7364,"nesn":7365,"Finland":7366,"Komünist</w>":7367,"liğinin</w>":7368,"Gürcü</w>":7369,"Dom":7370,"hor":7371,"ıyor":7372,"endir":7373,"alma</w>":7374,"aktan</w>":7375,"çıkış</w>":7376,"ami</w>":7377,"ulaştı</w>":7378,"güzel</w>":7379,"Abdül":7380,"gereken</w>":7381,"edilebilir</w>":7382,"verilir</w>":7383,"Maç":7384,"enleri</w>":7385,"Güney":7386,"üzel":7387,"sağlay":7388,"ikinc":7389,"Dönem":7390,"birbirine</w>":7391,"kıt":7392,"kalınt":7393,"ack</w>":7394,"başlam":7395,"birisi</w>":7396,"ılarına</w>":7397,"kavr":7398,"Dağı</w>":7399,"Antlaşması</w>":7400,"hem":7401,"telef":7402,"sıf":7403,"başardı</w>":7404,"fabrik":7405,"Parlament":7406,"WW":7407,"Yunanca</w>":7408,"alardan</w>":7409,"askerî</w>":7410,"vermektedir</w>":7411,"versiyon":7412,"bölgeye</w>":7413,"sert</w>":7414,"Bis":7415,"Lim":7416,"Fars":7417,"daş</w>":7418,"teb":7419,"beraber":7420,"ıklarını</w>":7421,"Love</w>":7422,"iti</w>":7423,"seyah":7424,"hükûmet</w>":7425,"eyr":7426,"lif</w>":7427,"almaya</w>":7428,"lanabilir</w>":7429,"Nazi</w>":7430,"rem</w>":7431,"sand":7432,"lüğünü</w>":7433,"Final</w>":7434,"dek":7435,"vet</w>":7436,"adırlar</w>":7437,"lenin</w>":7438,"finale</w>":7439,"ağaç":7440,"kullanıldı</w>":7441,"ezya</w>":7442,"edirler</w>":7443,"Saint</w>":7444,"üçük":7445,"kod":7446,"hol":7447,"hat</w>":7448,"ıcısı</w>":7449,"göv":7450,"136":7451,"hal</w>":7452,"makam":7453,"yasak":7454,"politik</w>":7455,"CA":7456,"Kn":7457,"Su</w>":7458,"Tiyatrosu</w>":7459,"06</w>":7460,"zor</w>":7461,"sürül":7462,"sis</w>":7463,"cular</w>":7464,"döv":7465,"Aydın</w>":7466,"Kahram":7467,"NE":7468,"odak":7469,"ükleer</w>":7470,"field</w>":7471,"Başkan</w>":7472,"Zam":7473,"Ju":7474,"ant</w>":7475,"etnik</w>":7476,"edin":7477,"ony</w>":7478,"Karak":7479,"mül":7480,"edildiği</w>":7481,"muhareb":7482,"bitirdi</w>":7483,"ster</w>":7484,"mensu":7485,"hast":7486,"ederken</w>":7487,"türüdür</w>":7488,"isten":7489,"1942</w>":7490,"hayvan</w>":7491,"düzenli</w>":7492,"itibarı</w>":7493,"eta</w>":7494,"arya</w>":7495,"Eyaleti</w>":7496,"yaz</w>":7497,"ağaç</w>":7498,"köyü":7499,"ville</w>":7500,"İnsan":7501,"esk":7502,"Paz":7503,"Yus":7504,"ımad":7505,"benim":7506,"Venedik</w>":7507,"ümüz</w>":7508,"Fatih</w>":7509,"DNA</w>":7510,"Billboard</w>":7511,"kişiler</w>":7512,"şampiyonu</w>":7513,"kson</w>":7514,"layıcı</w>":7515,"illeri</w>":7516,"albümün</w>":7517,"basit</w>":7518,"olojisi</w>":7519,"Nec":7520,"beklen":7521,"ters</w>":7522,"Diyarbakır</w>":7523,"Diz":7524,"Al</w>":7525,"işlerdir</w>":7526,"problem":7527,"Baz":7528,"Yönetim</w>":7529,"civarında</w>":7530,"Geliş":7531,"sayf":7532,"gerektiğini</w>":7533,"ışını</w>":7534,"kolon":7535,"hafif</w>":7536,"Kısa</w>":7537,"yayınlanmıştır</w>":7538,"etki</w>":7539,"alılar</w>":7540,"kulüp</w>":7541,"beğ":7542,"lağ":7543,"şehridir</w>":7544,"işti</w>":7545,"saha</w>":7546,"Bud":7547,"arttır":7548,"tay":7549,"1953</w>":7550,"araç</w>":7551,"ikli</w>":7552,"sürdü</w>":7553,"Kırım</w>":7554,"kapasit":7555,"Genellikle</w>":7556,"ömür":7557,"lib":7558,"yaşadı</w>":7559,"milyar</w>":7560,"tedavi</w>":7561,"vb</w>":7562,"çesi</w>":7563,"Tep":7564,"geldiği</w>":7565,"Tas":7566,"katı</w>":7567,"nad":7568,"noktası</w>":7569,"Şu</w>":7570,"kullanılarak</w>":7571,"Romanya</w>":7572,"Louis</w>":7573,"gür</w>":7574,"Ölümü</w>":7575,"Finlandiya</w>":7576,"asıllı</w>":7577,"ilet":7578,"dalga</w>":7579,"köyün</w>":7580,"dey":7581,"lamış</w>":7582,"hatır":7583,"Christ":7584,"gerçekleşen</w>":7585,"AR":7586,"familyas":7587,"onlara</w>":7588,"egemen":7589,"03</w>":7590,"224":7591,"olam":7592,"Milletvek":7593,"Şampiyonlar</w>":7594,"haber</w>":7595,"isti</w>":7596,"ksel</w>":7597,"çeş":7598,"ban</w>":7599,"uzman":7600,"Rady":7601,"Adaları</w>":7602,"Ga":7603,"basın":7604,"1952</w>":7605,"babasıdır</w>":7606,"Martin</w>":7607,"yerli</w>":7608,"undadır</w>":7609,"May":7610,"Nat":7611,"areti</w>":7612,"ılan":7613,"başlamış</w>":7614,"kullanılabilir</w>":7615,"çekilm":7616,"liy":7617,"tedav":7618,"Tek</w>":7619,"birden</w>":7620,"eral":7621,"aspor</w>":7622,"Fir":7623,"internet</w>":7624,"kimyasal</w>":7625,"rib":7626,"çıkt":7627,"Fır":7628,"top</w>":7629,"günümüze</w>":7630,"ugos":7631,"Sırbistan</w>":7632,"mamıştır</w>":7633,"kuvvetleri</w>":7634,"seçimlerinde</w>":7635,"yönetmen</w>":7636,"Alan":7637,"uth</w>":7638,"çekildi</w>":7639,"1919</w>":7640,"bay":7641,"ure</w>":7642,"sefer</w>":7643,"geçiş</w>":7644,"sonuna</w>":7645,"cek</w>":7646,"mir":7647,"sam</w>":7648,"öv":7649,"Çanak":7650,"Od":7651,"so</w>":7652,"yükse":7653,"pap":7654,"öğrenci</w>":7655,"Ty":7656,"no</w>":7657,"Erkek</w>":7658,"ac</w>":7659,"çok":7660,"idae</w>":7661,"ekten</w>":7662,"Silah":7663,"yir":7664,"akar":7665,"leşme</w>":7666,"belg":7667,"Tüm":7668,"görülmektedir</w>":7669,"beşinci</w>":7670,"istin</w>":7671,"dığını</w>":7672,"sabit</w>":7673,"iyileş":7674,"Hüküm":7675,"02</w>":7676,"elle</w>":7677,"ilgilen":7678,"zarar</w>":7679,"çıkardı</w>":7680,"Okyan":7681,"rapor":7682,"Vad":7683,"List":7684,"Viy":7685,"teklif":7686,"fos":7687,"oldukları</w>":7688,"tahta</w>":7689,"Kum":7690,"muhtemelen</w>":7691,"ike</w>":7692,"ulmuş</w>":7693,"hukuk</w>":7694,"Aug":7695,"ott</w>":7696,"imsel</w>":7697,"Parkı</w>":7698,"iliş":7699,"kenar":7700,"imzaladı</w>":7701,"los":7702,"pop</w>":7703,"yetkil":7704,"Anton":7705,"yazılan</w>":7706,"çalışır</w>":7707,"Rusça</w>":7708,"üretim":7709,"Ve</w>":7710,"ilişkileri</w>":7711,"ach</w>":7712,"saf":7713,"gerekir</w>":7714,"saldırı</w>":7715,"istasyon":7716,"Vik":7717,"Records</w>":7718,"imkâ":7719,"kayıtlarında</w>":7720,"238":7721,"benzeri</w>":7722,"leh":7723,"ings</w>":7724,"Aj":7725,"restor":7726,"ogle</w>":7727,"ded":7728,"uru</w>":7729,"1947</w>":7730,"köprü</w>":7731,"reak":7732,"basketbol</w>":7733,"Fiz":7734,"isar</w>":7735,"Gazi":7736,"İslam":7737,"Kudü":7738,"önceleri</w>":7739,"Hom":7740,"yaşan":7741,"dizisinde</w>":7742,"sıcak</w>":7743,"Ail":7744,"Cad":7745,"sar</w>":7746,"eğil":7747,"Körf":7748,"aat":7749,"irleri</w>":7750,"istifa</w>":7751,"Gazet":7752,"lamaya</w>":7753,"iyatı</w>":7754,"Mut":7755,"zamanlarda</w>":7756,"Kutsal</w>":7757,"görevlendir":7758,"hatt":7759,"katıldığı</w>":7760,"ero</w>":7761,"başkan</w>":7762,"potansiy":7763,"Almanca</w>":7764,"zamanında</w>":7765,"koruy":7766,"varsay":7767,"ny</w>":7768,"dalında</w>":7769,"sahipti</w>":7770,"Lee</w>":7771,"güneş</w>":7772,"Haf":7773,"sonuçları</w>":7774,"Sistem":7775,"edip</w>":7776,"ekiplerinden</w>":7777,"gümüş</w>":7778,"150</w>":7779,"taht":7780,"rid</w>":7781,"önceden</w>":7782,"olumlu</w>":7783,"sınıf</w>":7784,"ettiğini</w>":7785,"emekli</w>":7786,"di":7787,"geçici</w>":7788,"eddin</w>":7789,"Olimpiyat</w>":7790,"İnsan</w>":7791,"bölgenin</w>":7792,"İsa</w>":7793,"illiği</w>":7794,"aralarında</w>":7795,"muhaf":7796,"Hırv":7797,"ref":7798,"çalıştır":7799,"Yugos":7800,"Sand":7801,"sarı</w>":7802,"seph</w>":7803,"renk</w>":7804,"1949</w>":7805,"Kudüs</w>":7806,"fre":7807,"müdahal":7808,"taşındı</w>":7809,"ipp":7810,"Meclis</w>":7811,"54":7812,"amaçlı</w>":7813,"Cup</w>":7814,"uğraş":7815,"be":7816,"sarmal</w>":7817,"me":7818,"parça</w>":7819,"Oyun</w>":7820,"yeşil</w>":7821,"asla</w>":7822,"enz":7823,"çerçev":7824,"res</w>":7825,"Yayın":7826,"buz":7827,"Op":7828,"vik</w>":7829,"76":7830,"çak</w>":7831,"İl</w>":7832,"protest":7833,"ons</w>":7834,",\"</w>":7835,"vas":7836,"olmadan</w>":7837,"bunlar</w>":7838,"serisi</w>":7839,"Google</w>":7840,"adam</w>":7841,"ecek":7842,"niş":7843,"Joseph</w>":7844,"Afrik":7845,"Konstantin":7846,"ındır</w>":7847,"anayas":7848,"Katolik</w>":7849,"Üçüncü</w>":7850,"1938</w>":7851,"Kaynak":7852,"ulmuştur</w>":7853,"hakları</w>":7854,"malarını</w>":7855,"böyle</w>":7856,"Donan":7857,"det":7858,"koruma</w>":7859,"ılığında</w>":7860,"lie</w>":7861,"sorumlu</w>":7862,"rab":7863,"İt":7864,"barış</w>":7865,"Yüzölçümü</w>":7866,"raz":7867,"suyu</w>":7868,"yiy":7869,"isindeki</w>":7870,"Arnavutluk</w>":7871,"çisi</w>":7872,"Birleşmiş</w>":7873,"asa</w>":7874,"tizm</w>":7875,"Komitesi</w>":7876,"ailesinin</w>":7877,"adiş":7878,"ates</w>":7879,"Me</w>":7880,"Latin</w>":7881,"müdür":7882,"davranış":7883,"festiv":7884,"yönetmenliğini</w>":7885,"Yol":7886,"ka":7887,"Çağ</w>":7888,"ebi</w>":7889,"resim</w>":7890,"cem":7891,"atör":7892,"aga</w>":7893,"bakımından</w>":7894,"çalışması</w>":7895,"efsan":7896,"sezonunun</w>":7897,"yerleşimi</w>":7898,"Lar":7899,"altındaki</w>":7900,"com</w>":7901,"üce</w>":7902,"kurulu</w>":7903,"gıç</w>":7904,"emli</w>":7905,"ülük</w>":7906,"je":7907,"Sağlık</w>":7908,"Önc":7909,"(;</w>":7910,"bür":7911,"atlar</w>":7912,"abı</w>":7913,"John":7914,"tanı</w>":7915,"Çanakkale</w>":7916,"1936</w>":7917,"Farsça</w>":7918,"Wat":7919,"ağının</w>":7920,"başlandı</w>":7921,"car</w>":7922,"katılmıştır</w>":7923,"Pi":7924,"pir":7925,"lev":7926,"geze":7927,"numaraya</w>":7928,"performans</w>":7929,"nis":7930,"lanarak</w>":7931,"karşılaştır":7932,"Viyana</w>":7933,"Ca":7934,"şüp":7935,"düzenlen":7936,"hükûmeti</w>":7937,"yaşamı</w>":7938,"zi</w>":7939,"müzik":7940,"Mühendis":7941,"Güvenlik</w>":7942,"ceph":7943,"başrol":7944,"şif":7945,"1921</w>":7946,"unsur":7947,"isted":7948,"başladığı</w>":7949,"Adam</w>":7950,"mağlup</w>":7951,"Mev":7952,"Atina</w>":7953,"tro":7954,"Star":7955,"yos":7956,"çak":7957,"alfab":7958,"sezonda</w>":7959,"ID</w>":7960,"ılarından</w>":7961,"ılardan</w>":7962,"mezun":7963,"olmay":7964,"fi":7965,"Dağları</w>":7966,"yayıl":7967,"kazandır":7968,"taarru":7969,"toplumsal</w>":7970,"nef":7971,"topluluk":7972,"kuyru":7973,"İsmail</w>":7974,"yeter":7975,"Net":7976,"SC</w>":7977,"anlamda</w>":7978,"dular</w>":7979,"Ceph":7980,"tören":7981,"Modern</w>":7982,"Stal":7983,"modeli</w>":7984,"dünyada</w>":7985,"bomb":7986,"türleri</w>":7987,"iletişim</w>":7988,"başlıca</w>":7989,"ağında</w>":7990,"lon</w>":7991,"amik</w>":7992,"yönettiği</w>":7993,"yazılmış</w>":7994,"Hey":7995,"Som":7996,"durumunda</w>":7997,"Tes":7998,"leğ":7999,"ux</w>":8000,"ülkeler</w>":8001,"1951</w>":8002,"maktan</w>":8003,"not":8004,"tle</w>":8005,"kalp</w>":8006,"takv":8007,"Dor":8008,"1933</w>":8009,"Iş":8010,"anah":8011,"kulübü</w>":8012,"Yerli</w>":8013,"mesinde</w>":8014,"fen":8015,"santr":8016,"uçak</w>":8017,"oynamıştır</w>":8018,"Vakfı</w>":8019,"ücret":8020,"Açık</w>":8021,"hayr":8022,"umb":8023,"akla</w>":8024,"Ten":8025,"kendisinin</w>":8026,"1935</w>":8027,"sul":8028,"gösterildi</w>":8029,"anla</w>":8030,"Yav":8031,"CD</w>":8032,"bugünkü</w>":8033,"suy":8034,"aray":8035,"ığa</w>":8036,"zamanlar</w>":8037,"pla":8038,"iklet</w>":8039,"lemeye</w>":8040,"Makedonya</w>":8041,"halde</w>":8042,"cilik</w>":8043,"yok":8044,"Madrid</w>":8045,"plan</w>":8046,"halka</w>":8047,"alanan</w>":8048,"sini</w>":8049,"mutf":8050,"maça</w>":8051,"Muh":8052,"köp":8053,"antren":8054,"1923</w>":8055,"ternatif</w>":8056,"vol":8057,"kadınlar</w>":8058,"örnek":8059,"kayıt</w>":8060,"Oc":8061,"haned":8062,"Bundan</w>":8063,"çub":8064,"280":8065,"Murat</w>":8066,"savaşı</w>":8067,"Yan":8068,"aza</w>":8069,"işlev":8070,"taşımaktadır</w>":8071,"oğulları</w>":8072,"ılam":8073,"Kulübü</w>":8074,"1922</w>":8075,"kullandığı</w>":8076,"Savunma</w>":8077,"Fal":8078,"Yılın</w>":8079,"div":8080,"test</w>":8081,"kamu</w>":8082,"ödem":8083,"Kullan":8084,");</w>":8085,"gileri</w>":8086,"ugh</w>":8087,"Düş":8088,"gusal</w>":8089,"Mek":8090,"bakt":8091,"rütb":8092,"cüm":8093,"Katılım</w>":8094,"Laz":8095,"katkıda</w>":8096,"renkli</w>":8097,"ón</w>":8098,"evinde</w>":8099,"Napol":8100,"metin</w>":8101,"ordin":8102,"ölümü</w>":8103,"ölçüm":8104,"üniversite</w>":8105,"elektronik</w>":8106,"ulur</w>":8107,"Kayseri</w>":8108,"Sing":8109,"tidir</w>":8110,"ören</w>":8111,"lemesi</w>":8112,"Kalesi</w>":8113,"abilen</w>":8114,"kilise</w>":8115,"gök":8116,"Şehir":8117,"motor</w>":8118,"istedi</w>":8119,"hükûmet":8120,"bey</w>":8121,"tez":8122,"Adalet</w>":8123,"benzer":8124,"Piy":8125,"ment":8126,"mit</w>":8127,"veç":8128,"malarına</w>":8129,"ateş</w>":8130,"iana</w>":8131,"Şah</w>":8132,"eserleri</w>":8133,"standart</w>":8134,"Tiyatro</w>":8135,"yörün":8136,"Ömer</w>":8137,"Evli</w>":8138,"maruz</w>":8139,"abet</w>":8140,"Bölge</w>":8141,"deş</w>":8142,"bulundur":8143,"Cih":8144,"Hy":8145,"Andr":8146,"Edir":8147,"ilebil":8148,"finans":8149,"geçmiş</w>":8150,"heykel":8151,"mis":8152,"yor</w>":8153,"sanatçısı</w>":8154,"Clu":8155,"madal":8156,"sezonun</w>":8157,"çök":8158,"stady":8159,"alanları</w>":8160,"Dil":8161,"Had":8162,"takımları</w>":8163,"Jackson</w>":8164,"sıralam":8165,"IS":8166,"incan</w>":8167,"Plat":8168,"1924</w>":8169,"Mekt":8170,"çekti</w>":8171,"Apple</w>":8172,"Bek":8173,"ıç</w>":8174,"giller</w>":8175,"İb":8176,"cusu</w>":8177,"bastır":8178,"tapın":8179,"madığı</w>":8180,"Tam":8181,"prens":8182,"duyurdu</w>":8183,"Bosna</w>":8184,"yola</w>":8185,"Akademi</w>":8186,"astır":8187,"yakınlarında</w>":8188,"ürün</w>":8189,"Cat":8190,"ido":8191,"ese</w>":8192,"istler</w>":8193,"eğer</w>":8194,"adının</w>":8195,"cileri</w>":8196,"uzan":8197,"Demokratik</w>":8198,"ışma</w>":8199,"eo</w>":8200,"petrol</w>":8201,"fonksiyon":8202,"Küt":8203,"başarısız</w>":8204,"alınmıştır</w>":8205,"Mersin</w>":8206,"okum":8207,"değeri</w>":8208,"239":8209,"Atlan":8210,"Video</w>":8211,"eç</w>":8212,"hükümdar":8213,"Kiş":8214,"Örgü":8215,"uke</w>":8216,"uşu</w>":8217,"uygulama</w>":8218,"Nob":8219,"dile</w>":8220,"kas</w>":8221,"röport":8222,"Erken</w>":8223,"zinc":8224,"elt":8225,"ico</w>":8226,"Enter":8227,"ba":8228,"Intern":8229,"Moğol":8230,"no":8231,"ılarında</w>":8232,"Star</w>":8233,"dijital</w>":8234,"memektedir</w>":8235,"mikro":8236,"sürede</w>":8237,"Samsun":8238,"sek</w>":8239,"290":8240,"kurucusu</w>":8241,"My</w>":8242,"SK</w>":8243,"Barış</w>":8244,"form</w>":8245,"One</w>":8246,"iminin</w>":8247,"duğ":8248,"Büyükşehir</w>":8249,"Çocuk":8250,"Araştırma</w>":8251,"zorun":8252,"Çünkü</w>":8253,"geçerek</w>":8254,"209":8255,"likte</w>":8256,"erdi</w>":8257,"adayı</w>":8258,"Hil":8259,"kulüplerinde</w>":8260,"cılar</w>":8261,"Cin":8262,"ediyor</w>":8263,"yaşanan</w>":8264,"WWE</w>":8265,"kel</w>":8266,"lamaktadır</w>":8267,"tamonu</w>":8268,"tanınan</w>":8269,"yanlış</w>":8270,"Yıldız</w>":8271,"235":8272,"istih":8273,"schel</w>":8274,"ton":8275,"müt":8276,"koz":8277,"arke":8278,"aittir</w>":8279,"lec":8280,"atma</w>":8281,"ifik</w>":8282,"ros</w>":8283,"buldu</w>":8284,"halkın</w>":8285,"Doktor</w>":8286,"Kazakistan</w>":8287,"kus":8288,"fonksiy":8289,"ödülünü</w>":8290,"Eskişehir</w>":8291,"gitar":8292,"çocuğ":8293,"Kraliyet</w>":8294,"ılarda</w>":8295,"Hum":8296,"Bunların</w>":8297,"yanına</w>":8298,"dolar</w>":8299,"sürdürdü</w>":8300,"tuğ":8301,"edit":8302,"uygulan":8303,"şef":8304,"iğin</w>":8305,"etimi</w>":8306,"hek":8307,"mith</w>":8308,"cası</w>":8309,"Lak":8310,"bahar":8311,"memiş</w>":8312,"grubunun</w>":8313,"1937</w>":8314,"birer</w>":8315,"denklem":8316,"bas</w>":8317,"io":8318,"kenti</w>":8319,"74":8320,"raf</w>":8321,"yordu</w>":8322,"Aziz</w>":8323,"anlaşma</w>":8324,"ihr":8325,"komedi</w>":8326,"karmaşık</w>":8327,"Kes":8328,"ziyaret":8329,"aktör</w>":8330,"ock":8331,"tüke":8332,"Hir":8333,"gemi</w>":8334,"birlikleri</w>":8335,"olum":8336,"124":8337,"açıdan</w>":8338,"adlandırılır</w>":8339,"evlen":8340,"kullanır</w>":8341,"imiz</w>":8342,"Tıp</w>":8343,"bıraktı</w>":8344,"chester</w>":8345,"derin":8346,"hareketi</w>":8347,"isteyen</w>":8348,"şı</w>":8349,"Balıkesir</w>":8350,"Gazi</w>":8351,"oynamaktadır</w>":8352,"hayatına</w>":8353,"çevresinde</w>":8354,"edebiyat":8355,"ym":8356,"ligi</w>":8357,"Abdullah</w>":8358,"RA":8359,"şair</w>":8360,"dedi</w>":8361,"ty</w>":8362,"miktarda</w>":8363,"De</w>":8364,"Hab":8365,"tabak":8366,"komün":8367,"Büt":8368,"Şi":8369,"Edward</w>":8370,"dadır</w>":8371,"Türkmen":8372,"1914</w>":8373,"merc":8374,"istatis":8375,"açılan</w>":8376,"Yarı</w>":8377,"uşt":8378,"\";</w>":8379,"Sof":8380,"Vil":8381,"ei</w>":8382,"mavi</w>":8383,"etrafında</w>":8384,"Pier":8385,"filmidir</w>":8386,"th</w>":8387,"1934</w>":8388,"zirv":8389,"mil</w>":8390,"own</w>":8391,"erkek":8392,"vermek</w>":8393,"Tekn":8394,"Hu":8395,"Hiz":8396,"Koz":8397,"ımlı</w>":8398,"260":8399,"ava</w>":8400,"görevine</w>":8401,"yeterli</w>":8402,"büyüm":8403,"mor":8404,"des</w>":8405,"beb":8406,"şunlardır</w>":8407,"landalı</w>":8408,"rüz":8409,"etiyle</w>":8410,"Ask":8411,"edebiyat</w>":8412,"dair":8413,"Jun":8414,"ederler</w>":8415,"del</w>":8416,"emez</w>":8417,"Herschel</w>":8418,"yağm":8419,"istanı</w>":8420,"Buff":8421,"üyesidir</w>":8422,"Pop":8423,"hayv":8424,"kapsay":8425,"kaçır":8426,"Ep":8427,"belge":8428,"sak</w>":8429,"şiir</w>":8430,"eğitimini</w>":8431,"olmakla</w>":8432,"işaret</w>":8433,"ders</w>":8434,"şarkının</w>":8435,"müsab":8436,"karakteri</w>":8437,"600</w>":8438,"bard":8439,"ja</w>":8440,"person":8441,"ailenin</w>":8442,"gelişmiş</w>":8443,"Ticaret</w>":8444,"amadı</w>":8445,"oto":8446,"Gaziant":8447,"sınıfı</w>":8448,"Trans":8449,"way</w>":8450,"süt":8451,"Kürt</w>":8452,"medya</w>":8453,"lob":8454,"evren":8455,"kapalı</w>":8456,"evre</w>":8457,"ikili</w>":8458,"yönlendir":8459,"hayatta</w>":8460,"tipik</w>":8461,"ötürü</w>":8462,"olina</w>":8463,"unv":8464,"stratej":8465,"değildi</w>":8466,"ısındaki</w>":8467,"derin</w>":8468,"Kurtuluş</w>":8469,"ube</w>":8470,"geçirdiği</w>":8471,"bek</w>":8472,"ibidir</w>":8473,"platform":8474,"idge</w>":8475,"kuş</w>":8476,"lular</w>":8477,"ella</w>":8478,"idam</w>":8479,"eşlik</w>":8480,"ekibi</w>":8481,"ilişki</w>":8482,"giyen</w>":8483,"kısıt":8484,"11":8485,"yemek</w>":8486,"unvanını</w>":8487,"üyor</w>":8488,"numaralı</w>":8489,"zırh":8490,"SA":8491,"bilgiler</w>":8492,"Mahkemesi</w>":8493,"Andro":8494,"Kastamonu</w>":8495,"Bankası</w>":8496,"1925</w>":8497,"diğer":8498,"Le</w>":8499,"biz":8500,"davet</w>":8501,"gruba</w>":8502,"Sonraki</w>":8503,"bağlıdır</w>":8504,"Black</w>":8505,"imine</w>":8506,"Bilim</w>":8507,"esnasında</w>":8508,"açıldı</w>":8509,"Kafkas":8510,"los</w>":8511,"urdu</w>":8512,"ilişkiler</w>":8513,"lüğe</w>":8514,"alac":8515,"Sarayı</w>":8516,"yönetmeni</w>":8517,"dans</w>":8518,"Eser":8519,"ão</w>":8520,"indir</w>":8521,"balık":8522,"Litvanya</w>":8523,"seçilen</w>":8524,"Filistin</w>":8525,"doldur":8526,"ıtı</w>":8527,"enlerin</w>":8528,"olar</w>":8529,"1912</w>":8530,"paral":8531,"Prem":8532,"hisar</w>":8533,"ülkelerde</w>":8534,"Nok":8535,"dedir</w>":8536,"oluşturulan</w>":8537,"esas</w>":8538,"Buc":8539,"Wol":8540,"1917</w>":8541,"iliğini</w>":8542,"Rock</w>":8543,"düşünülmektedir</w>":8544,"Lad":8545,"oluşturduğu</w>":8546,"etkileri</w>":8547,"rom</w>":8548,"1927</w>":8549,"Ariz":8550,"traf":8551,"kilometre</w>":8552,"adım</w>":8553,"Nur":8554,"ayrılır</w>":8555,"takımlarından</w>":8556,"imza</w>":8557,"pa</w>":8558,"figür":8559,"ole</w>":8560,"tarihsel</w>":8561,"ho</w>":8562,"âh":8563,"İdar":8564,"bağlantılar</w>":8565,"yansıt":8566,"sistemleri</w>":8567,"ab</w>":8568,"Öğr":8569,"kesin":8570,"seyir":8571,"elendir":8572,"yonda</w>":8573,"bünyesinde</w>":8574,"gön":8575,"teşvik</w>":8576,"cer":8577,"yüzde</w>":8578,"lasyon</w>":8579,"soruml":8580,"Edirne</w>":8581,"Turnuv":8582,"tık":8583,"Devrimi</w>":8584,"Pin":8585,"lemiştir</w>":8586,"yaşamaktadır</w>":8587,"önüne</w>":8588,"İmparator</w>":8589,"ât":8590,"Dep":8591,"sburg</w>":8592,"ecik</w>":8593,"orth</w>":8594,"milliyet":8595,"kıyısında</w>":8596,"olmaya</w>":8597,"tarafında</w>":8598,"versiyonu</w>":8599,"ori</w>":8600,"gelmiş</w>":8601,"silahlı</w>":8602,"Music</w>":8603,"sayım</w>":8604,"Maria</w>":8605,"olacaktır</w>":8606,"lıların</w>":8607,"okun":8608,"120</w>":8609,"sınırlı</w>":8610,"karıştır":8611,"elerle</w>":8612,"asit</w>":8613,"birisidir</w>":8614,"küresel</w>":8615,"yapılmaktadır</w>":8616,"Soy":8617,"Fab":8618,"250</w>":8619,"şehirde</w>":8620,"na":8621,"Roy":8622,"eter":8623,"Kürt":8624,"etinin</w>":8625,"özgü</w>":8626,"karşılığında</w>":8627,"yona</w>":8628,"Prix</w>":8629,"Sırp</w>":8630,"ihtiyaç</w>":8631,"komutanı</w>":8632,"başlang":8633,"birinin</w>":8634,"konser</w>":8635,"düşman":8636,"Mec":8637,"All</w>":8638,"yazılım</w>":8639,"hücre</w>":8640,"imci</w>":8641,"olun":8642,"nak</w>":8643,"bağış":8644,"boyu</w>":8645,"tain":8646,"irse</w>":8647,"çıktığı</w>":8648,"yönetilen</w>":8649,"osh":8650,"Arizona</w>":8651,"ücü</w>":8652,"Wo":8653,"Ste":8654,"Nar":8655,"refer":8656,"My":8657,"biti":8658,"konfer":8659,"dört":8660,"darı</w>":8661,"ts</w>":8662,"Bakü</w>":8663,"önder":8664,"maların</w>":8665,"uki</w>":8666,"tesis":8667,"attığı</w>":8668,"talep</w>":8669,"anne</w>":8670,"Bern":8671,"muşlardır</w>":8672,"Kara":8673,"hayat</w>":8674,"Manisa</w>":8675,"yükselt":8676,"ua</w>":8677,"Seb":8678,"bay</w>":8679,"türlü</w>":8680,"iskop":8681,"çya</w>":8682,"dost":8683,"tis</w>":8684,"bundan</w>":8685,"tarihinin</w>":8686,"ordusunun</w>":8687,"çoğunluğu</w>":8688,"çalışmalarına</w>":8689,"tehdit</w>":8690,"baskı</w>":8691,"237":8692,"ado</w>":8693,"forması</w>":8694,"etn":8695,"Bulgar</w>":8696,"mamaktadır</w>":8697,"bom":8698,"emey":8699,"ican</w>":8700,"toplum</w>":8701,"Kim</w>":8702,"bozuk":8703,"ayrılmıştır</w>":8704,"uvarı</w>":8705,"rez":8706,"Şampiy":8707,"arlığı</w>":8708,"arasına</w>":8709,"ekib":8710,"durumlarda</w>":8711,"çevre</w>":8712,"yardımcısı</w>":8713,"org":8714,"Kıl":8715,"takımlar</w>":8716,"dayanan</w>":8717,"Yönetm":8718,"üstlendi</w>":8719,"Hanedanı</w>":8720,"ığ</w>":8721,"direktör</w>":8722,"Harry</w>":8723,"TRT</w>":8724,"aracı</w>":8725,"artan</w>":8726,"1926</w>":8727,"Blu":8728,"senesinde</w>":8729,"Mass":8730,"süresi</w>":8731,"sisteminin</w>":8732,"Portekiz":8733,"bron":8734,"Tro":8735,"rend":8736,"Askeri</w>":8737,"tarzı</w>":8738,"temiz":8739,"Selçuklu</w>":8740,"sig":8741,"kullandı</w>":8742,"Çay":8743,"göstermiştir</w>":8744,"gat</w>":8745,"general</w>":8746,"fat</w>":8747,"bec":8748,"pres":8749,"all</w>":8750,"yazılmıştır</w>":8751,"Afgan":8752,"Bus":8753,"noktas":8754,"bölümde</w>":8755,"urken</w>":8756,"Win":8757,"Sonra</w>":8758,"Show</w>":8759,"güreş":8760,"ekle</w>":8761,"Orto":8762,"ilişkil":8763,"dokuz</w>":8764,"uzanan</w>":8765,"çıkış":8766,"türk</w>":8767,"Güzel</w>":8768,"Çam":8769,"gönderildi</w>":8770,"mekaniz":8771,"car":8772,"işler</w>":8773,"Alp":8774,"park":8775,"eğe</w>":8776,"çıkmış</w>":8777,"yargı":8778,"anim":8779,"indi</w>":8780,"belediyeye</w>":8781,"öncesinde</w>":8782,"altyap":8783,"oma</w>":8784,"oph":8785,"temsilcisi</w>":8786,"Bes":8787,"yazmıştır</w>":8788,"demiryolu</w>":8789,"sanayi</w>":8790,"Fe":8791,"Sezon</w>":8792,"müsabak":8793,"alması</w>":8794,"sonuç</w>":8795,"yaşad":8796,"Dün":8797,"süs":8798,"Play":8799,"SSC":8800,"Ay</w>":8801,"ortalam":8802,"geliştirilen</w>":8803,"soğuk</w>":8804,"Ege</w>":8805,"Kitap</w>":8806,"Yerel</w>":8807,"gerek</w>":8808,"erin</w>":8809,"etic":8810,"Don</w>":8811,"opolis</w>":8812,"Cephesi</w>":8813,"Gençlik</w>":8814,"Fi":8815,"bütün":8816,"eğlen":8817,"işgal":8818,"Of":8819,"Voleybol</w>":8820,"led":8821,"açıklandı</w>":8822,"West</w>":8823,"Bunlardan</w>":8824,"lastik</w>":8825,"malara</w>":8826,"kaydetti</w>":8827,"leks":8828,"Kuzey":8829,"Rol":8830,"kurucu</w>":8831,"Ekonomi</w>":8832,"olaylar</w>":8833,"Yeşil":8834,"Yugoslav":8835,"Nam":8836,"tarihlerinde</w>":8837,"Rod":8838,"düğünü</w>":8839,"SSCB</w>":8840,"Vas":8841,"göreve</w>":8842,"mag":8843,"taşı</w>":8844,"cil</w>":8845,"biriydi</w>":8846,"Selim</w>":8847,"eklen":8848,"dayalı</w>":8849,"İspanyol":8850,"ér":8851,"aba</w>":8852,"yaspor</w>":8853,"ail</w>":8854,"kolay</w>":8855,"olduktan</w>":8856,"nüfusun</w>":8857,"Bugün</w>":8858,"denilen</w>":8859,"eksi</w>":8860,"ortasında</w>":8861,"Sas":8862,"Eleştir":8863,"win</w>":8864,"hakkındaki</w>":8865,"low</w>":8866,"düştü</w>":8867,"168":8868,"kalma</w>":8869,"Hot</w>":8870,"alandır":8871,"operasyon":8872,"yitir":8873,"ith":8874,"Bağım":8875,"285":8876,"Latince</w>":8877,"manyetik</w>":8878,"kadro":8879,"sıklıkla</w>":8880,"Gab":8881,"tıp</w>":8882,"159":8883,"ölümüne</w>":8884,"derecede</w>":8885,"görüldü</w>":8886,"Papa</w>":8887,"kütle":8888,"tiler</w>":8889,"Komutanlığı</w>":8890,"iter</w>":8891,"tepk":8892,"308":8893,"kestr":8894,"nükleer</w>":8895,"Pla":8896,"ren</w>":8897,"1932</w>":8898,"Çat":8899,"Takım</w>":8900,"298":8901,"ürünleri</w>":8902,"TC</w>":8903,"bölgesinin</w>":8904,"ıdaki</w>":8905,"Nak":8906,"Ebu</w>":8907,"Um":8908,"alist</w>":8909,"1929</w>":8910,"oluşum":8911,"işletim</w>":8912,"Club</w>":8913,"frek":8914,"cel</w>":8915,"Champ":8916,"Demokrat</w>":8917,"ory</w>":8918,"aydın":8919,"mara</w>":8920,"Manchester</w>":8921,"doks</w>":8922,"leyerek</w>":8923,"Onun</w>":8924,"tarihte</w>":8925,"Bölüm":8926,"ora</w>":8927,"eyrek</w>":8928,"akrab":8929,"devletin</w>":8930,"çocukları</w>":8931,"Asker":8932,"yirmi</w>":8933,"ias</w>":8934,"buz</w>":8935,"Yugoslavya</w>":8936,"Jack</w>":8937,"Smith</w>":8938,"zamanla</w>":8939,"mektedirler</w>":8940,"Maz":8941,"Yam":8942,"Malat":8943,"ayda</w>":8944,"liğindeki</w>":8945,"duğunu</w>":8946,"Chic":8947,"hattı</w>":8948,"ansa</w>":8949,"vücu":8950,"işaret":8951,"düz</w>":8952,"füz":8953,"izasyon</w>":8954,"Bağd":8955,"Can</w>":8956,"sinde</w>":8957,"isyan":8958,"kısmını</w>":8959,"İh":8960,"avant":8961,"jen</w>":8962,"Koca":8963,"işç":8964,"güne</w>":8965,"kullanım</w>":8966,"olmasını</w>":8967,"sonu</w>":8968,"ath</w>":8969,"COV":8970,"Karay":8971,"Kış</w>":8972,"Form":8973,"ıcılar</w>":8974,"ball</w>":8975,"otomobil</w>":8976,"Şen":8977,"jür":8978,"Stan":8979,"tiğinde</w>":8980,"kısmında</w>":8981,"Teş":8982,"kendilerini</w>":8983,"bakış</w>":8984,"harit":8985,"Ov":8986,"ando</w>":8987,"1931</w>":8988,"zer":8989,"BA":8990,"âr":8991,"onar":8992,"parlament":8993,"dergisi</w>":8994,"zu</w>":8995,"Yusuf</w>":8996,"297":8997,"shire</w>":8998,"letizm</w>":8999,"satış</w>":9000,"zade</w>":9001,"tainment</w>":9002,"geç</w>":9003,"Du":9004,"evin</w>":9005,"ish</w>":9006,"Ref":9007,"Köyü</w>":9008,"Afganistan</w>":9009,"itif</w>":9010,"COVID</w>":9011,"gruplar</w>":9012,"test":9013,"Gram":9014,"gur":9015,"Ni":9016,"lekül":9017,"mür</w>":9018,"Bed":9019,"kısmen</w>":9020,"desteği</w>":9021,"Patr":9022,"İlçe</w>":9023,"yerlerde</w>":9024,"üyordu</w>":9025,"bölgelerde</w>":9026,"Bi":9027,"Frank</w>":9028,"ıldığını</w>":9029,"antum</w>":9030,"Gil":9031,"sızlık</w>":9032,"Pot":9033,"tem</w>":9034,"dilleri</w>":9035,"düzey</w>":9036,"hüküm</w>":9037,"Çocuk</w>":9038,"oyuna</w>":9039,"ayar":9040,"Edebiyat</w>":9041,"VI</w>":9042,"ukur":9043,"aylarında</w>":9044,"uzaklıkta</w>":9045,"oyunun</w>":9046,"Nov":9047,"süreci</w>":9048,"kral</w>":9049,"Kosova</w>":9050,"Sus":9051,"dışındaki</w>":9052,"ihan":9053,"kol</w>":9054,"Pir":9055,"krist":9056,"ding</w>":9057,"sky</w>":9058,"birimi</w>":9059,"Ray":9060,"Karl</w>":9061,"800</w>":9062,"VD</w>":9063,"öğretmen":9064,"örtü":9065,"okuy":9066,"cus</w>":9067,"insanları</w>":9068,"teorisi</w>":9069,"güncel":9070,"lılık</w>":9071,"289":9072,"Televiz":9073,"rum</w>":9074,"ao</w>":9075,"may</w>":9076,"kazandığı</w>":9077,"Entertainment</w>":9078,"cen":9079,"ras":9080,"well</w>":9081,"dolaş":9082,"Başlan":9083,"Sayımı</w>":9084,"kınma</w>":9085,"day</w>":9086,"1915</w>":9087,"işçi</w>":9088,"Altı</w>":9089,"güçlendir":9090,"yapılması</w>":9091,"Çek</w>":9092,"ust</w>":9093,"Bilimler</w>":9094,"Let":9095,"leti":9096,"yılların</w>":9097,"erkekler</w>":9098,"aff":9099,"etts</w>":9100,"gerçekleşti</w>":9101,"Yaklaş":9102,"hastalığı</w>":9103,"ess</w>":9104,"incelen":9105,"komündür</w>":9106,"bahç":9107,"Lam":9108,"aileden</w>":9109,"Aşağıdaki</w>":9110,"karakterini</w>":9111,"..":9112,"Hig":9113,"gazeteci</w>":9114,"feth":9115,"Şan":9116,"İdari</w>":9117,"Buffy</w>":9118,"yoks":9119,"düşünd":9120,"hedef</w>":9121,"Len":9122,"ılmasına</w>":9123,"tutar":9124,"Chan":9125,"ayak</w>":9126,"etkin</w>":9127,"süz</w>":9128,"Konfer":9129,"dırım</w>":9130,"Mağ":9131,"masa</w>":9132,"gördüğü</w>":9133,"içermektedir</w>":9134,"Cel":9135,"çalışmalarını</w>":9136,"müzisyen</w>":9137,"malarda</w>":9138,"Daniel</w>":9139,"emedi</w>":9140,"ebr":9141,"kalır</w>":9142,"Konusu</w>":9143,"gazete</w>":9144,"eygam":9145,"faktör":9146,"sakat":9147,"ılarla</w>":9148,"Haçlı</w>":9149,"idare</w>":9150,"birik":9151,"hoş":9152,"genelinde</w>":9153,"ento</w>":9154,"Lan":9155,"teklif</w>":9156,"299":9157,"proje</w>":9158,"tabanlı</w>":9159,"Live</w>":9160,"ebe</w>":9161,"over</w>":9162,"Sic":9163,"53":9164,"Blo":9165,"dıktan</w>":9166,"Ec":9167,"alınd":9168,"solo</w>":9169,"him":9170,"vurgu":9171,"had":9172,"eksik":9173,"kil</w>":9174,"şte</w>":9175,"inleri</w>":9176,"görülmüştür</w>":9177,"Yılmaz</w>":9178,"Virgin":9179,"memiştir</w>":9180,"eleştirmen":9181,"Hid":9182,"achus":9183,"Belediyespor</w>":9184,"“\"</w>":9185,"başkanlık</w>":9186,"Tokyo</w>":9187,"işlem</w>":9188,"(,</w>":9189,"sent":9190,"Gelen":9191,"otlar</w>":9192,"Massachus":9193,"alternatif</w>":9194,"ges</w>":9195,"talık</w>":9196,"rit":9197,"158":9198,"edilerek</w>":9199,"Müt":9200,"play</w>":9201,"gösterilmiştir</w>":9202,"Federal</w>":9203,"şampiyonluğu</w>":9204,"yapıldığı</w>":9205,"nih":9206,"ölü</w>":9207,"Man</w>":9208,"gökad":9209,"arlık</w>":9210,"208":9211,"sıcaklık</w>":9212,"pe":9213,"olumsuz</w>":9214,"saç":9215,"vilay":9216,"alana</w>":9217,"Sakarya</w>":9218,"iver</w>":9219,"turn":9220,"eserler</w>":9221,"etinden</w>":9222,"Çele":9223,"Rot":9224,"Çeşit":9225,"1000</w>":9226,"öldürüldü</w>":9227,"molekül":9228,"Pic":9229,"şem":9230,"ittif":9231,"olağ":9232,"Alexander</w>":9233,"kısaca</w>":9234,"Massachusetts</w>":9235,"piş":9236,"atlı</w>":9237,"merkezinde</w>":9238,"kazand":9239,"besi</w>":9240,"dik</w>":9241,"suik":9242,"macı</w>":9243,"komş":9244,"görevinden</w>":9245,"Eb":9246,"karısı</w>":9247,"ınız</w>":9248,"yürür":9249,"amay":9250,"terimi</w>":9251,"satışa</w>":9252,"tanış":9253,"kanalı</w>":9254,"tasarım</w>":9255,"tom":9256,"yal</w>":9257,"kış</w>":9258,"aşağ":9259,"kalit":9260,"Nokia</w>":9261,"Silahlı</w>":9262,"gram</w>":9263,"Başbakan</w>":9264,"Balkan</w>":9265,"EP</w>":9266,"ith</w>":9267,"Pek":9268,"án</w>":9269,"layık</w>":9270,"Pu":9271,"unt</w>":9272,"sürüldü</w>":9273,"Dört</w>":9274,"kişiden</w>":9275,"akya</w>":9276,"gider</w>":9277,"til</w>":9278,"ilmesine</w>":9279,"yaşamış</w>":9280,"Jan":9281,"yl":9282,"ulması</w>":9283,"kork":9284,"Baba</w>":9285,"filmleri</w>":9286,"gerekç":9287,"bölümünü</w>":9288,"savaşın</w>":9289,"zayıf</w>":9290,"Kütah":9291,":\"</w>":9292,"Lüb":9293,"ardo</w>":9294,"aur":9295,"hum":9296,"ılmasını</w>":9297,"Zaman</w>":9298,"yaşlı</w>":9299,"çekilen</w>":9300,"Macar</w>":9301,"işli</w>":9302,"Çoğu</w>":9303,"Pres":9304,"lamalar</w>":9305,"360</w>":9306,"zih":9307,"İşçi</w>":9308,"yaprak":9309,"hariç</w>":9310,"isco</w>":9311,"çalışmıştır</w>":9312,"Komisyonu</w>":9313,"Şirket</w>":9314,"okudu</w>":9315,"zeh":9316,"Tour</w>":9317,"alanlarda</w>":9318,"listesine</w>":9319,"kontrolü</w>":9320,"liste</w>":9321,"cinsiy":9322,"ımdan</w>":9323,"başarısı</w>":9324,"100":9325,"birini</w>":9326,"mahk":9327,"Bütün</w>":9328,"iklim</w>":9329,"yarısında</w>":9330,"Trabzon":9331,"kişilerin</w>":9332,"ayrınt":9333,"şev":9334,"anti</w>":9335,"golünü</w>":9336,"No</w>":9337,"reh":9338,"parlak</w>":9339,"kurduğu</w>":9340,"Orhan</w>":9341,"Şim":9342,"Univers":9343,"Sadece</w>":9344,"doğrult":9345,"cep":9346,"ağan</w>":9347,"varlığı</w>":9348,"seyahat</w>":9349,"liliği</w>":9350,"Kaynakça</w>":9351,"Ne</w>":9352,"bro":9353,"ülkes":9354,"kendilerine</w>":9355,"ech":9356,"başlangıçta</w>":9357,"Vit":9358,"det</w>":9359,"insanın</w>":9360,"müttef":9361,"turda</w>":9362,"devam":9363,"mel</w>":9364,"yazılı</w>":9365,"önü</w>":9366,"bağlantı</w>":9367,"ois</w>":9368,"abeth</w>":9369,"Cy":9370,"uğram":9371,"konus":9372,"genetik</w>":9373,"ân":9374,"last":9375,"sömür":9376,"alarla</w>":9377,"Şam</w>":9378,"isimler</w>":9379,"tekrar":9380,"korumak</w>":9381,"Cev":9382,"larlar</w>":9383,".'</w>":9384,"yn</w>":9385,"bina</w>":9386,"ahı</w>":9387,"kamu":9388,"aram":9389,"akademik</w>":9390,"Rap":9391,"Tut":9392,"romanı</w>":9393,"Pon":9394,"gayr":9395,"anlamı</w>":9396,"organizasyon":9397,"günümüz</w>":9398,"sıvı</w>":9399,"otu</w>":9400,"Bunu</w>":9401,"Çak":9402,"ilişkili</w>":9403,"\").</w>":9404,"Hacı</w>":9405,"Ertesi</w>":9406,"bun</w>":9407,"lıktan</w>":9408,"Teksas</w>":9409,"aten</w>":9410,"bölgesel</w>":9411,"pag":9412,"ıklık</w>":9413,"Stud":9414,"Santa</w>":9415,"ıldıktan</w>":9416,"çizg":9417,"ân</w>":9418,"sizlik</w>":9419,"Def":9420,"fayd":9421,"tün":9422,"Bart":9423,"erini</w>":9424,"lemektedir</w>":9425,"ell":9426,"luğun</w>":9427,"Sig":9428,"yenerek</w>":9429,"iner</w>":9430,"denem":9431,"kaleme</w>":9432,"CE":9433,"esin":9434,"Ortodoks</w>":9435,"elin</w>":9436,"etmeyi</w>":9437,"dağılımı</w>":9438,"Virginia</w>":9439,"onur":9440,"Pav":9441,"ary</w>":9442,"telefon</w>":9443,"Kurumu</w>":9444,"Uzay</w>":9445,"alanlar</w>":9446,"Kafkasya</w>":9447,"ürler</w>":9448,"tasv":9449,"ien</w>":9450,"Albümün</w>":9451,"Sum":9452,"illi</w>":9453,"yayı</w>":9454,"dizinin</w>":9455,"ial</w>":9456,"yayımladı</w>":9457,"gezegen":9458,"tüf":9459,"Öğren":9460,"oks</w>":9461,"inen</w>":9462,"röportaj":9463,"gönül":9464,"acık</w>":9465,"Conn":9466,"atmos":9467,"tanınmış</w>":9468,"Pakistan</w>":9469,"laştığı</w>":9470,"lasyon":9471,"Emir":9472,"denin</w>":9473,"It</w>":9474,"nas":9475,"Pers</w>":9476,"kazanarak</w>":9477,"Büyükelç":9478,"alay":9479,"şarkıları</w>":9480,"imde</w>":9481,"zamanlı</w>":9482,"Play</w>":9483,"ag</w>":9484,"üv":9485,"oyunculuk</w>":9486,"Sultan":9487,"Albert</w>":9488,"özellikler</w>":9489,"Mot":9490,"ihti":9491,"rolünü</w>":9492,"International</w>":9493,"Sir":9494,"tel</w>":9495,"Lab":9496,"özgün</w>":9497,"doğmuştur</w>":9498,"dıkları</w>":9499,"işbirliği</w>":9500,"Arka</w>":9501,"kütüphan":9502,"234":9503,"çözüm":9504,"oğraf</w>":9505,"bar</w>":9506,"Rev":9507,"sus</w>":9508,"Çelebi</w>":9509,"Clar":9510,"statüsü</w>":9511,"King</w>":9512,"kaldığı</w>":9513,"aland":9514,"kutsal</w>":9515,"Komünün</w>":9516,"tuz":9517,"ikay":9518,"kapı</w>":9519,"mümkündür</w>":9520,"dünyas":9521,"kahver":9522,"yumuş":9523,"sayılabilir</w>":9524,"August":9525,"ship</w>":9526,"şimdi</w>":9527,"bet":9528,"Sk":9529,"Aleksand":9530,"bit</w>":9531,"ee</w>":9532,"oyuncular</w>":9533,"şov":9534,"bölgedeki</w>":9535,"dönen</w>":9536,"Dok":9537,"ındaydı</w>":9538,"abilecek</w>":9539,"73":9540,"maması</w>":9541,"sebebi</w>":9542,"altıncı</w>":9543,"tıb":9544,"iptal</w>":9545,"hab":9546,"Mont":9547,"Kub":9548,"olmaktadır</w>":9549,"278":9550,"doktora</w>":9551,"Real</w>":9552,"yerinde</w>":9553,"koordin":9554,"fakül":9555,"kitabında</w>":9556,"Max":9557,"Leon":9558,"engi</w>":9559,"ladılar</w>":9560,"yardımıyla</w>":9561,"mekten</w>":9562,"Kart":9563,"Tom</w>":9564,"Haw":9565,"Mark</w>":9566,"Yaklaşık</w>":9567,"net":9568,"başlayarak</w>":9569,"Eliz":9570,"yapım</w>":9571,"Android</w>":9572,"Marmara</w>":9573,"Uç":9574,"com":9575,"Konser":9576,"ulaşım</w>":9577,"muhalef":9578,"Vlad":9579,"çılık</w>":9580,"log":9581,"kapsayan</w>":9582,"155":9583,"Beh":9584,"Muhaf":9585,"halen</w>":9586,"getiren</w>":9587,"oğl":9588,"Williams</w>":9589,"Sekret":9590,"Chicago</w>":9591,"bölgelerinde</w>":9592,"Ast":9593,"takımda</w>":9594,"Özellik":9595,"temsilc":9596,"Prens</w>":9597,"mon</w>":9598,"hazırlanan</w>":9599,"otomo":9600,"Münih</w>":9601,"bet</w>":9602,"klip</w>":9603,"Trabzonspor</w>":9604,"245":9605,"yöntemi</w>":9606,"Mary</w>":9607,"yüzey</w>":9608,"mediği</w>":9609,"parti":9610,"eller</w>":9611,"takıma</w>":9612,"şarkıyı</w>":9613,"Kâ":9614,"Dön":9615,"Soğ":9616,"kub":9617,"zeme</w>":9618,"şö":9619,"şub":9620,"oyunları</w>":9621,"tablo":9622,"dergi</w>":9623,"kesi</w>":9624,"1908</w>":9625,"Nobel</w>":9626,"In</w>":9627,"seçen":9628,"Körfezi</w>":9629,"21":9630,"dönemlerde</w>":9631,"Compan":9632,"amin</w>":9633,"kuram":9634,"kurgu</w>":9635,"Tav":9636,"ettin</w>":9637,"lip":9638,"azi</w>":9639,"üstünde</w>":9640,"tamamı</w>":9641,"İlçesi</w>":9642,"anılan</w>":9643,"eth":9644,"formasını</w>":9645,"İskoçya</w>":9646,"Im":9647,"ult</w>":9648,"ikiye</w>":9649,"Hanım</w>":9650,"voleybol</w>":9651,"dor":9652,"yaşamını</w>":9653,"Vadisi</w>":9654,"AB</w>":9655,"izlen":9656,"Super":9657,"Dub":9658,"fizik</w>":9659,"akış":9660,"görür</w>":9661,"müziğ":9662,"unvanı</w>":9663,"lor</w>":9664,"tahr":9665,"dilinde</w>":9666,"ografik</w>":9667,"Kütahya</w>":9668,"taraftar":9669,"yaptıkları</w>":9670,"larken</w>":9671,"Hırvati":9672,"köyünde</w>":9673,"seçil":9674,"çıkardığı</w>":9675,"yenilg":9676,"emiş</w>":9677,"albümüdür</w>":9678,"Yarımad":9679,"dakikada</w>":9680,"Tib":9681,"boyutlu</w>":9682,"padiş":9683,"oya</w>":9684,"varlığını</w>":9685,"Nad":9686,"eğine</w>":9687,"mimari</w>":9688,"Dik":9689,"hakim</w>":9690,"kırı</w>":9691,"başladılar</w>":9692,"hizmete</w>":9693,"Hırvatistan</w>":9694,"Kongresi</w>":9695,"Georg":9696,"ayaklan":9697,"usya</w>":9698,"vergi</w>":9699,"öncelik":9700,"program</w>":9701,"yarışması</w>":9702,"Boğaz":9703,"Organ":9704,"Ri":9705,"bulunmaktaydı</w>":9706,"Futbol":9707,"Red</w>":9708,"Yağ":9709,"Çık":9710,"halkının</w>":9711,"standart":9712,"Oh":9713,"US":9714,"seçimi</w>":9715,"göm":9716,"tre</w>":9717,"Jersey</w>":9718,"ulaşan</w>":9719,"Uygu":9720,"ülebil":9721,"Gem":9722,"148":9723,"295":9724,"Nüfusu</w>":9725,"kart":9726,"değişiklik</w>":9727,"Allah</w>":9728,"barat</w>":9729,"Por":9730,"sed":9731,"çözün":9732,"sendrom":9733,"ilmesini</w>":9734,"Gaziantep</w>":9735,"çilik</w>":9736,"mezunudur</w>":9737,"savaşa</w>":9738,"yolları</w>":9739,"ımcılığı</w>":9740,"komutasındaki</w>":9741,"Mend":9742,"kullanıcı</w>":9743,"hit":9744,"edilebil":9745,"Pasifik</w>":9746,"Dre":9747,"etle</w>":9748,"sekret":9749,"fırlat":9750,"değerli</w>":9751,"mülk":9752,"Ass":9753,"lal</w>":9754,"Temsil":9755,"Amatör</w>":9756,"Jef":9757,"eğit":9758,"Tu":9759,"sürümü</w>":9760,"Dil</w>":9761,"alıp</w>":9762,"amaz</w>":9763,"geomet":9764,"Başar":9765,"hızı</w>":9766,"Altın":9767,"olacağını</w>":9768,"Küb":9769,"Demir</w>":9770,"Karolina</w>":9771,"ressam</w>":9772,"binlerce</w>":9773,"Tanr":9774,"eliğine</w>":9775,"Ner":9776,"ediler</w>":9777,"olası</w>":9778,"uda</w>":9779,"lüm</w>":9780,"ıman</w>":9781,"sergilen":9782,"iyileştir":9783,"Anne</w>":9784,"karşılık":9785,"sec":9786,"Mahallenin</w>":9787,"eksiy":9788,"otik</w>":9789,"Cart":9790,"gösterdiği</w>":9791,"kaynakları</w>":9792,"otomatik</w>":9793,"sağlamıştır</w>":9794,"felsefe</w>":9795,"lamaları</w>":9796,"reform":9797,"organize</w>":9798,"yakalan":9799,"Zelanda</w>":9800,"]]":9801,"288":9802,"139":9803,"Max</w>":9804,"ligde</w>":9805,"coğrafi</w>":9806,"kuvvet</w>":9807,"iyel</w>":9808,"Big</w>":9809,"gösterime</w>":9810,"kısalt":9811,"aşağı</w>":9812,"lendirme</w>":9813,"Erdoğan</w>":9814,"yolc":9815,"mik</w>":9816,"anında</w>":9817,"birlik</w>":9818,"kadınların</w>":9819,"Kars</w>":9820,"Özerk</w>":9821,"günde</w>":9822,"Sok":9823,"tepki</w>":9824,"alter</w>":9825,"mür":9826,"öt":9827,"bronz</w>":9828,"başlanmıştır</w>":9829,"karşıtı</w>":9830,"Bund":9831,"ırk":9832,"arasındadır</w>":9833,"koyu</w>":9834,"1913</w>":9835,"ibe</w>":9836,"Sinan</w>":9837,"opera</w>":9838,"Rah":9839,"Esp":9840,"ilçedir</w>":9841,"gitar</w>":9842,"Gümüş":9843,"ison</w>":9844,"ülkesi</w>":9845,"Konstantinopolis</w>":9846,"Prof</w>":9847,"opa</w>":9848,"arkadaşları</w>":9849,"taşı":9850,"Ky":9851,"National</w>":9852,"Miss</w>":9853,"1916</w>":9854,"tanın</w>":9855,"baba</w>":9856,"lise</w>":9857,"lıkta</w>":9858,"toprakları</w>":9859,"Rum</w>":9860,"gıda</w>":9861,"cısı</w>":9862,"âr</w>":9863,"Johan":9864,"nesil</w>":9865,"tus</w>":9866,"belirgin</w>":9867,"Üniversite</w>":9868,"Florida</w>":9869,"araştırmalar</w>":9870,"eyaletinin</w>":9871,"tihar</w>":9872,"zayıf":9873,"çek</w>":9874,"zat</w>":9875,"fikr":9876,"ope</w>":9877,"Demografi</w>":9878,"sıradan</w>":9879,"akademis":9880,"Niş":9881,"onunla</w>":9882,"vererek</w>":9883,"evli</w>":9884,"İş</w>":9885,"dişi</w>":9886,"Kardeş":9887,"egr":9888,"line</w>":9889,"Çağı</w>":9890,"Cemiyeti</w>":9891,"Malatya</w>":9892,"Tit":9893,"Dol":9894,"kila":9895,"unk</w>":9896,"aze</w>":9897,"bilgisayar":9898,"mond</w>":9899,"yarım</w>":9900,"uzunluğu</w>":9901,"Hein":9902,"Kur</w>":9903,"Ulu":9904,"”,</w>":9905,"aylar</w>":9906,"ck":9907,"tüy":9908,"Chris</w>":9909,"eyalet</w>":9910,"gemisi</w>":9911,"evlilik</w>":9912,"Company</w>":9913,"yaşay":9914,"kuruluş</w>":9915,"Roc":9916,"Asyalı</w>":9917,"gönderdi</w>":9918,"key</w>":9919,"Pierre</w>":9920,"Stand":9921,"düşen</w>":9922,"Christi":9923,"Liga</w>":9924,"Serv":9925,"end</w>":9926,"geliştirme</w>":9927,"130</w>":9928,"mede</w>":9929,"yapma</w>":9930,"Paul":9931,"yükselen</w>":9932,"mişi</w>":9933,"olsun</w>":9934,"isimleri</w>":9935,"yel":9936,"Ener":9937,"darbe</w>":9938,"Mid":9939,"Alas":9940,"Fac":9941,"özerk</w>":9942,"başlattı</w>":9943,"Çift":9944,"vit":9945,"Kırg":9946,"Life</w>":9947,"eus</w>":9948,"Hersek</w>":9949,"110</w>":9950,"Yür":9951,"kulüb":9952,"Cumhuriyet":9953,"Topluluğu</w>":9954,"bölgeleri</w>":9955,"lot":9956,"ât</w>":9957,"girer</w>":9958,"NAT":9959,"anlara</w>":9960,"Royal</w>":9961,"tank":9962,"filmler</w>":9963,"oluşturmak</w>":9964,"basket":9965,"konuda</w>":9966,"AK</w>":9967,"pasap":9968,"Mam":9969,"Profes":9970,"mar</w>":9971,"güçleri</w>":9972,"değiştirildi</w>":9973,"ülkelerin</w>":9974,"olayları</w>":9975,"ekonomi</w>":9976,"Olay":9977,"yaşındaki</w>":9978,"albümünü</w>":9979,"Dig":9980,"devleti</w>":9981,"duruma</w>":9982,"Maur":9983,"çalıştığı</w>":9984,"Jones</w>":9985,"ilham</w>":9986,"oluşturmaktadır</w>":9987,"ew</w>":9988,"çileri</w>":9989,"düşünce</w>":9990,"taraf</w>":9991,"ırsa</w>":9992,"İtalyan":9993,"kuruluşu</w>":9994,"167":9995,"169":9996,"kapan":9997,"karşıya</w>":9998,"metal":9999,"Friedr":10000,"veçli</w>":10001,"olmuştu</w>":10002,"Koleji</w>":10003,"çeken</w>":10004,"mekle</w>":10005,"kampan":10006,"belirlen":10007,"familyasından</w>":10008,"hayata</w>":10009,"gelecek</w>":10010,"çay</w>":10011,"eyh":10012,"sinin</w>":10013,"Serb":10014,"ikna</w>":10015,"ımız</w>":10016,"boy</w>":10017,"algı":10018,"kültürü</w>":10019,"DVD</w>":10020,"ayolu</w>":10021,"ifor":10022,"alabil":10023,"kasaba</w>":10024,"Siyasi</w>":10025,"Arth":10026,"kalın":10027,"resmen</w>":10028,"sözleri</w>":10029,"tılar</w>":10030,"Anna</w>":10031,"129":10032,"Elaz":10033,"FK</w>":10034,"ecekti</w>":10035,"kanun":10036,"Cezay":10037,"abilmektedir</w>":10038,"Champion":10039,"157":10040,"zamana</w>":10041,"Ağa</w>":10042,"Kent</w>":10043,"iko</w>":10044,"Roman</w>":10045,"maktadırlar</w>":10046,"süreli</w>":10047,"müş":10048,"aylı</w>":10049,"emin</w>":10050,"Sinema</w>":10051,"hom":10052,"oldular</w>":10053,"düzenlendi</w>":10054,"ettikleri</w>":10055,"236":10056,"araştırmac":10057,"Euro":10058,"__":10059,"şimd":10060,"atmıştır</w>":10061,"alınarak</w>":10062,"dans":10063,"şehrinin</w>":10064,"şe</w>":10065,"meli</w>":10066,"ıkların</w>":10067,"görüntü</w>":10068,"dığında</w>":10069,"ağırlıklı</w>":10070,"akş":10071,"ızı</w>":10072,"TC":10073,"kayıp":10074,"öğrencisi</w>":10075,"savaşta</w>":10076,"satan</w>":10077,"kok":10078,"suç</w>":10079,"Reg":10080,"m2</w>":10081,"sesi</w>":10082,"Örgütü</w>":10083,"ışın":10084,"Bölgesel</w>":10085,"Gur":10086,"agon</w>":10087,"albümleri</w>":10088,"beğen":10089,"hy</w>":10090,"çekimi</w>":10091,"gerçekleştirildi</w>":10092,"Rem":10093,"üste</w>":10094,"Türkler</w>":10095,"neg":10096,"set</w>":10097,"Devletler</w>":10098,"şiddetli</w>":10099,"elendi</w>":10100,"Bru":10101,"güzel":10102,"Suudi</w>":10103,"anlatır</w>":10104,"Bre":10105,"yüzü</w>":10106,"tanınır</w>":10107,"119":10108,"iy</w>":10109,"geçerli</w>":10110,"sonraları</w>":10111,"Şanlı":10112,"gur</w>":10113,"Hür":10114,"wig</w>":10115,"teknoloji</w>":10116,"pul":10117,"Çorum</w>":10118,"eğiyle</w>":10119,"Sanatlar</w>":10120,"dersleri</w>":10121,"vokal":10122,"mater":10123,"asist</w>":10124,"sim</w>":10125,"dolu</w>":10126,"uçuş":10127,"İli</w>":10128,"old</w>":10129,"Van":10130,"usa</w>":10131,"ipleri</w>":10132,"ikalı</w>":10133,"ahisar</w>":10134,"oynay":10135,"Nij":10136,"izler</w>":10137,"değişikliğinden</w>":10138,"çekil":10139,"ayrılarak</w>":10140,"yüzyıldan</w>":10141,"Belar":10142,"abilmek</w>":10143,"305":10144,"sorgu":10145,"Vel":10146,"yönetiminde</w>":10147,"mitoloj":10148,"Lübnan</w>":10149,"ikl":10150,"Şanlıur":10151,"Şarkının</w>":10152,"Aşk</w>":10153,"Radyo</w>":10154,"kim</w>":10155,"vez":10156,"açıkça</w>":10157,"iliğe</w>":10158,"700</w>":10159,"sorunları</w>":10160,"Hâ":10161,"kelime</w>":10162,"igan</w>":10163,"konuk</w>":10164,"ukları</w>":10165,"Arabistan</w>":10166,"acak":10167,"sanay":10168,"plak</w>":10169,"gücünü</w>":10170,"tok":10171,"Hem</w>":10172,"statüs":10173,"bakanlık</w>":10174,"ularak</w>":10175,"American</w>":10176,"etr":10177,"düşman</w>":10178,"albümde</w>":10179,"luğuna</w>":10180,"post":10181,"Tokat</w>":10182,"paralel</w>":10183,"Yu":10184,"akım</w>":10185,"bağlam":10186,"kelimesi</w>":10187,"nah":10188,"ertesi</w>":10189,"başlay":10190,"posta</w>":10191,"şirketin</w>":10192,"sayede</w>":10193,"Bağdat</w>":10194,"mahkû":10195,"Yüksek":10196,"naz":10197,"isyan</w>":10198,"Sanayi</w>":10199,"Universit":10200,"fikir</w>":10201,"Kütüphan":10202,"1910</w>":10203,"mız":10204,"arz":10205,"görüş</w>":10206,"öğrend":10207,"Grubun</w>":10208,"şehirler</w>":10209,"Yıldırım</w>":10210,"yakala":10211,"doğrultusunda</w>":10212,"ünc":10213,"Sonuç</w>":10214,"fiyat":10215,"filoz":10216,"Cro":10217,"TE":10218,"hazır</w>":10219,"kıyaf":10220,"kalmış</w>":10221,"harekete</w>":10222,"tarihindeki</w>":10223,"esiydi</w>":10224,"şüph":10225,"Cur":10226,"iv</w>":10227,"labor":10228,"arasından</w>":10229,"büs</w>":10230,"konuşma</w>":10231,"pozitif</w>":10232,"hapis</w>":10233,"alıdır</w>":10234,"kurucu":10235,"parçasıdır</w>":10236,"oranda</w>":10237,"siyaset</w>":10238,"ins</w>":10239,"yarış</w>":10240,"mektup":10241,"\"”</w>":10242,"Kız</w>":10243,"MA":10244,"Dun":10245,"ölçek":10246,"yolcu</w>":10247,"soruştur":10248,"ques</w>":10249,"alarıyla</w>":10250,"Ki":10251,"BM</w>":10252,"ekt</w>":10253,"ax</w>":10254,"Cre":10255,"Kahraman":10256,"ılıp</w>":10257,"gül</w>":10258,"liga</w>":10259,"luğa</w>":10260,"açılmıştır</w>":10261,"bank":10262,"netic":10263,"ven</w>":10264,"Üsk":10265,"İstatis":10266,"projesi</w>":10267,"Şeyh</w>":10268,"Time</w>":10269,"nitelik":10270,"matematik</w>":10271,"Ander":10272,"solu":10273,"spon":10274,"imparator</w>":10275,"parçaları</w>":10276,"landırma</w>":10277,"Hem":10278,"Premier</w>":10279,"uzat":10280,"ende</w>":10281,"Moğol</w>":10282,"ía</w>":10283,"imir</w>":10284,"Türkmen</w>":10285,"uçuş</w>":10286,"Soci":10287,"klas":10288,"İmparatoru</w>":10289,"abilirler</w>":10290,"306":10291,"Tw":10292,"ou</w>":10293,"kalıcı</w>":10294,"toplama</w>":10295,"şekli</w>":10296,"Rh":10297,"Tol":10298,"Zir":10299,"slan</w>":10300,"yarışı</w>":10301,"grupları</w>":10302,"Alan</w>":10303,"Ez":10304,"ivan</w>":10305,"gazi</w>":10306,"beyin</w>":10307,"Francisco</w>":10308,"Friedrich</w>":10309,"fol":10310,"Üst":10311,"programında</w>":10312,"öly":10313,"çidir</w>":10314,"kısım":10315,"iliğin</w>":10316,"tiyle</w>":10317,"valisi</w>":10318,"maçın</w>":10319,"Yardımcısı</w>":10320,"ush":10321,"Şili</w>":10322,"ost":10323,"kullanılabil":10324,"kulland":10325,"Muğ":10326,"vari</w>":10327,"bulgu":10328,"elek</w>":10329,"ortalarında</w>":10330,"söylemiştir</w>":10331,"bölümleri</w>":10332,"hastalık</w>":10333,"Amas":10334,"buluş":10335,"tarihine</w>":10336,"lisans":10337,"nes</w>":10338,"dışına</w>":10339,"ace":10340,"bırakt":10341,"orman</w>":10342,"1900</w>":10343,"ecilik</w>":10344,"Altay</w>":10345,"Scott</w>":10346,"bireysel</w>":10347,"Tapın":10348,"ardı</w>":10349,"evine</w>":10350,"NATO</w>":10351,"lider</w>":10352,"PS</w>":10353,"enos</w>":10354,"zorunlu</w>":10355,"har</w>":10356,"köyde</w>":10357,"İnternet</w>":10358,"giymektedir</w>":10359,"Çeşitli</w>":10360,"che</w>":10361,"analiz</w>":10362,"nokta</w>":10363,"karbon</w>":10364,"Grammy</w>":10365,"yuv":10366,"evleri</w>":10367,"ift</w>":10368,"mühend":10369,"elidir</w>":10370,"ayrılan</w>":10371,"yakıt</w>":10372,"kaçın":10373,"ustin</w>":10374,"tül":10375,"kıyı</w>":10376,"Keş":10377,"yaygın":10378,"üstün":10379,"cher</w>":10380,"Gires":10381,"dem</w>":10382,"âtı</w>":10383,"dışar":10384,"147":10385,"Fern":10386,"bağl":10387,"dönüş</w>":10388,"Yoz":10389,"hep</w>":10390,"ase</w>":10391,"Klasik</w>":10392,"alg":10393,"Hükûmeti</w>":10394,"eva</w>":10395,"Ekonomik</w>":10396,"Nih":10397,"ior</w>":10398,"izmin</w>":10399,"berto</w>":10400,"Scho":10401,"lywood</w>":10402,"Kızılder":10403,"Day":10404,"penc":10405,"çağdaş</w>":10406,"mevk":10407,"Artvin</w>":10408,"şeyi</w>":10409,"undur</w>":10410,"festival":10411,"intihar</w>":10412,"Bec":10413,"mali</w>":10414,"üt</w>":10415,"doğuda</w>":10416,"Camp":10417,"ediyordu</w>":10418,"ödüllendir":10419,"205":10420,"kullanılması</w>":10421,"Halil</w>":10422,"azın":10423,"Finali</w>":10424,"partinin</w>":10425,"iminde</w>":10426,"kardeş</w>":10427,"beli</w>":10428,"bot":10429,"kalk":10430,"fizik":10431,"sözü</w>":10432,"Barbar":10433,"maktır</w>":10434,"döner</w>":10435,"cevap</w>":10436,"eyken</w>":10437,"kapsamlı</w>":10438,"laborat":10439,"Fat":10440,"ideki</w>":10441,"tasvir</w>":10442,"bilimi</w>":10443,"indendir</w>":10444,"tikçe</w>":10445,"birbirinden</w>":10446,"Que":10447,"malzeme</w>":10448,"ben</w>":10449,"vermeye</w>":10450,"yürüyü":10451,"Bot":10452,"bulam":10453,"ışın</w>":10454,"ilerleyen</w>":10455,"Musa</w>":10456,"hepsi</w>":10457,"inşaat</w>":10458,"CHP</w>":10459,"Lew":10460,"Tasar":10461,"KK</w>":10462,"unut":10463,"yakınlarındaki</w>":10464,"ame</w>":10465,"Pow":10466,"görsel</w>":10467,"dern":10468,"şarkılar</w>":10469,"Erzincan</w>":10470,"enko</w>":10471,"rar</w>":10472,"binası</w>":10473,"BBC</w>":10474,"hoc":10475,"riv":10476,"orlar</w>":10477,"görülebilir</w>":10478,"yerleri</w>":10479,"toplu</w>":10480,"gerçekleştirdi</w>":10481,"But":10482,"ısız":10483,"nehir</w>":10484,"protok":10485,"sekiz":10486,"anlatan</w>":10487,"tasarımı</w>":10488,"Nes":10489,"dele":10490,"şehristanı</w>":10491,"peş":10492,"Ailesi</w>":10493,"ib</w>":10494,"uçak":10495,"Mezarlığı</w>":10496,"lerken</w>":10497,"öğret":10498,"uzunluğunda</w>":10499,"pool</w>":10500,"dak</w>":10501,"üleri</w>":10502,"organik</w>":10503,"name</w>":10504,"kişiye</w>":10505,"lüğüne</w>":10506,"anüstü</w>":10507,"lığından</w>":10508,"Stalin</w>":10509,"1911</w>":10510,"mektir</w>":10511,"Elizabeth</w>":10512,"anlaşmaz":10513,"Dum":10514,"hazırlık</w>":10515,"olanak</w>":10516,"Günü</w>":10517,"Çiç":10518,"247":10519,"üstlenmiştir</w>":10520,"gerekçesiyle</w>":10521,"arazi</w>":10522,"servis</w>":10523,"oynad":10524,"TA</w>":10525,"izmi</w>":10526,"cami</w>":10527,"basın</w>":10528,"yalnız</w>":10529,"olmasından</w>":10530,"Konservat":10531,"Gön":10532,"rest":10533,"İskender":10534,"ilin</w>":10535,"düler</w>":10536,"mus":10537,"yr":10538,"etini</w>":10539,"Ern":10540,"elenmiştir</w>":10541,"ble</w>":10542,"ağından</w>":10543,"Jes":10544,"yerleşti</w>":10545,"sevgil":10546,"Vilay":10547,"duyar":10548,"edecek</w>":10549,"yapımcı</w>":10550,"ıköy</w>":10551,"irlik</w>":10552,"nitelendir":10553,"etnam</w>":10554,"zek":10555,"Peter":10556,"Doğan</w>":10557,"düzeyde</w>":10558,"Denizli</w>":10559,"sonlarına</w>":10560,"katli":10561,"):</w>":10562,"çel":10563,"resim":10564,"komünist</w>":10565,"oni</w>":10566,"lenerek</w>":10567,"gereği</w>":10568,"Alaska</w>":10569,"ute</w>":10570,"döngü":10571,"off":10572,"hizmeti</w>":10573,"?\"</w>":10574,"mesidir</w>":10575,"Koruma</w>":10576,"Hö":10577,"bakan":10578,"peten</w>":10579,"SCO</w>":10580,"Cav":10581,"Vietnam</w>":10582,"yüzyıla</w>":10583,"iyetini</w>":10584,"mun":10585,"aşk</w>":10586,"ال":10587,"katkı</w>":10588,"Victor":10589,"Rize</w>":10590,"RNA</w>":10591,"gıt":10592,"Birlik</w>":10593,"albümünde</w>":10594,"dikkate</w>":10595,"Üyeliği</w>":10596,"Sub":10597,"yurt":10598,"bulunuyordu</w>":10599,"ilçesinin</w>":10600,"inger</w>":10601,"Özbek":10602,"reaksiy":10603,"karşılıklı</w>":10604,"Bad":10605,"dy</w>":10606,"kimi</w>":10607,"Polon":10608,"Sistemi</w>":10609,"Sant":10610,"doğa</w>":10611,"İçişleri</w>":10612,"Karac":10613,"sistemin</w>":10614,"kanalında</w>":10615,"piskop":10616,"çısı</w>":10617,"his</w>":10618,"küçük":10619,"devre</w>":10620,"format":10621,"Millet</w>":10622,"Kalkınma</w>":10623,"uğunu</w>":10624,"birim</w>":10625,"canlandırdığı</w>":10626,"fotoğraf</w>":10627,"sığın":10628,"Pala":10629,"246":10630,"uygulamaları</w>":10631,"AN":10632,"UNE":10633,"hız</w>":10634,"atın</w>":10635,"Yor":10636,"dök":10637,"mo</w>":10638,"İmparatorluk</w>":10639,"Jor":10640,"Aşağı</w>":10641,"Sün":10642,"ron":10643,"tarihçi</w>":10644,"saldırısı</w>":10645,"kullanıldığı</w>":10646,"bilgileri</w>":10647,"Mardin</w>":10648,"Yarımadası</w>":10649,"Yör":10650,"Angel":10651,"alanına</w>":10652,"uyum":10653,"çekirdeğ":10654,"Serbest</w>":10655,"Ayak":10656,"Sed":10657,"lez":10658,"etmişlerdir</w>":10659,"Anayasa</w>":10660,"ılmaya</w>":10661,"yapımcısı</w>":10662,"olayı</w>":10663,"yada</w>":10664,"okyan":10665,"Kamp":10666,"tüc":10667,"yab":10668,"ruh</w>":10669,"çılar</w>":10670,"gorit":10671,"kavramı</w>":10672,"Şanlıurfa</w>":10673,"yenilen":10674,"danışman":10675,"Okyanusu</w>":10676,"Arthur</w>":10677,"Cum":10678,"sül":10679,"kulu</w>":10680,"İskender</w>":10681,"iyetin</w>":10682,"reddetti</w>":10683,"Bod":10684,"maçları</w>":10685,"Saldır":10686,"indiğinde</w>":10687,"Hip":10688,"parta</w>":10689,"Bilg":10690,"topluluğ":10691,"Cumhurbaşkanlığı</w>":10692,"DP</w>":10693,"Hap":10694,"Ox":10695,"Birkaç</w>":10696,"tic</w>":10697,"etine</w>":10698,"yapıt":10699,"ropol":10700,"gösterilen</w>":10701,"albümünün</w>":10702,"bakter":10703,"Marie</w>":10704,"sınırı</w>":10705,"Dair":10706,"yaparken</w>":10707,"adamları</w>":10708,"hukuk":10709,"amatör</w>":10710,"zo</w>":10711,"taşır</w>":10712,"ect</w>":10713,"dayanmaktadır</w>":10714,"yuvar":10715,"ves</w>":10716,"ilişkisi</w>":10717,"yapılacak</w>":10718,"bozul":10719,"yağ</w>":10720,"Madal":10721,"cinay":10722,"sinir</w>":10723,"bağımsızlığını</w>":10724,"Eu":10725,"Şek":10726,"onca</w>":10727,"175":10728,"batıda</w>":10729,"yoğunluğu</w>":10730,"Anti":10731,"süper</w>":10732,"puanla</w>":10733,"dolf</w>":10734,"yürütül":10735,"lüdür</w>":10736,"Kont":10737,"Tarım</w>":10738,"soy</w>":10739,"yetk":10740,"kuru</w>":10741,"Endon":10742,"Laur":10743,"hur</w>":10744,"Fransız":10745,"Formula</w>":10746,"Hayr":10747,"ester":10748,"Merc":10749,"göğ":10750,"sağlan":10751,"komşu</w>":10752,"tayin</w>":10753,"Bölüm</w>":10754,"köle":10755,"109":10756,"Temel</w>":10757,"geriye</w>":10758,"fazla":10759,"yönetic":10760,"komutan":10761,"alat</w>":10762,"forvet</w>":10763,"Matem":10764,"Bolşev":10765,"atil</w>":10766,"değişen</w>":10767,"yedinci</w>":10768,"süreçte</w>":10769,"üstün</w>":10770,"Wilhel":10771,"Mahmud</w>":10772,"Ly":10773,"üyeliği</w>":10774,"lat</w>":10775,"Dönemi</w>":10776,"Num":10777,"pal":10778,"uları</w>":10779,"Filip":10780,"Kanal</w>":10781,"saray</w>":10782,"Afrikan</w>":10783,"dokun":10784,"galibiyet</w>":10785,"Young</w>":10786,"Karadağ</w>":10787,"itz</w>":10788,"Brown</w>":10789,"sözcüğü</w>":10790,"filminin</w>":10791,"zengin":10792,"vazgeç":10793,"Belarus</w>":10794,"Trak":10795,"eklerin</w>":10796,"(%</w>":10797,"sundu</w>":10798,"emektedir</w>":10799,"değişiklikler</w>":10800,"206":10801,"ceza</w>":10802,"laşmış</w>":10803,"şarkıc":10804,"Kanunu</w>":10805,"etmişti</w>":10806,"diğerleri</w>":10807,"Colle":10808,"basketbol":10809,"Carlos</w>":10810,"meyve</w>":10811,"askerleri</w>":10812,"MTV</w>":10813,"itleri</w>":10814,"çıkarak</w>":10815,"seçilmiş</w>":10816,"Kırmızı</w>":10817,"Stre":10818,"Uş":10819,"Meş":10820,"enden</w>":10821,"polis":10822,"öğrenimini</w>":10823,"engiz</w>":10824,"Meyd":10825,"fe":10826,"kalın</w>":10827,"kanun</w>":10828,"Ein":10829,"kullanılmaya</w>":10830,"ance</w>":10831,"abileceği</w>":10832,"fikir":10833,"UNESCO</w>":10834,"çalışmaktadır</w>":10835,"luğunun</w>":10836,"lüğünde</w>":10837,"kand":10838,"İlişk":10839,"konsol":10840,"önemlidir</w>":10841,"başkent</w>":10842,"fan":10843,"insanı</w>":10844,"lukları</w>":10845,"üçlü</w>":10846,"hasar</w>":10847,"AP</w>":10848,"pazarı</w>":10849,"ımsal</w>":10850,"yayımlan":10851,"defn":10852,"294":10853,"Oscar</w>":10854,"geçiren</w>":10855,"mand":10856,"Carl</w>":10857,"ts":10858,"olmasıdır</w>":10859,"oluşuyordu</w>":10860,"bulur</w>":10861,"ilyalı</w>":10862,"Hastanesi</w>":10863,"eyaletine</w>":10864,"gelerek</w>":10865,"Stev":10866,"biyolojik</w>":10867,"sahneye</w>":10868,"eon</w>":10869,"kere</w>":10870,"kütle</w>":10871,"rich</w>":10872,"açan</w>":10873,"entegr":10874,"SE":10875,"ığının</w>":10876,"oksij":10877,"imparatorluk</w>":10878,"rolüyle</w>":10879,"ild</w>":10880,"çeşit</w>":10881,"180</w>":10882,"Otom":10883,"Yozgat</w>":10884,"yöntem</w>":10885,"ismiyle</w>":10886,"bırakıldı</w>":10887,"Listesi</w>":10888,"Ford</w>":10889,"serisinin</w>":10890,"kitle":10891,"Selan":10892,"arama</w>":10893,"izm":10894,"ulaşmıştır</w>":10895,"1909</w>":10896,"José</w>":10897,"Caddesi</w>":10898,"adıdır</w>":10899,"belirtmiştir</w>":10900,"sonuçlar</w>":10901,"geldiğinde</w>":10902,"atarak</w>":10903,"145":10904,"dal</w>":10905,"tarihinden</w>":10906,"dayanır</w>":10907,"Beş</w>":10908,"Lef":10909,"Down</w>":10910,"başlangıç</w>":10911,"besteci</w>":10912,"Halk":10913,"yumur":10914,"Kişisel</w>":10915,"Cezayir</w>":10916,"topraklarına</w>":10917,"astronom":10918,"Bundes":10919,"Inter":10920,"emin":10921,"166":10922,"terfi</w>":10923,"ega</w>":10924,"profesör</w>":10925,"Wrest":10926,"arları</w>":10927,"vermiş</w>":10928,"ical</w>":10929,"ülkeye</w>":10930,"uvar</w>":10931,"hipot":10932,"yarışma</w>":10933,"trop":10934,"ador</w>":10935,"Hon":10936,"Estonya</w>":10937,"Cast":10938,"kentin</w>":10939,"ölen</w>":10940,"adon":10941,"Kongre</w>":10942,"Sn":10943,"buc":10944,"aktaydı</w>":10945,"yonun</w>":10946,"belirtir</w>":10947,"kamera</w>":10948,"tarak</w>":10949,"açar</w>":10950,"bulut":10951,"Yerleş":10952,"bildirdi</w>":10953,"nispeten</w>":10954,"Müc":10955,"Frank":10956,"İbn</w>":10957,"Kent":10958,"sistemine</w>":10959,"İspanyolca</w>":10960,"fırs":10961,"Angel</w>":10962,"sosyalist</w>":10963,"iss":10964,"kariyerini</w>":10965,"ce":10966,"üstlendiği</w>":10967,"iklerin</w>":10968,"çoğunu</w>":10969,"Konu</w>":10970,"çeyrek</w>":10971,"müştü</w>":10972,"ingen</w>":10973,"işlemi</w>":10974,"mekanik</w>":10975,"ilaç":10976,"bez":10977,"şansı</w>":10978,"mükem":10979,"Bay</w>":10980,"Vo":10981,"reli</w>":10982,"veda</w>":10983,"bölgeyi</w>":10984,"tecr":10985,"finalinde</w>":10986,"özü</w>":10987,"söylem":10988,"Uğ":10989,"istediği</w>":10990,"oluşturdu</w>":10991,"ılma</w>":10992,"eleriyle</w>":10993,"Halep</w>":10994,"kıv":10995,"ücretsiz</w>":10996,"reg":10997,"çam":10998,"Kendisi</w>":10999,"İttif":11000,"Tev":11001,"umun</w>":11002,"düzelt":11003,"hikâye</w>":11004,"Başlangıçta</w>":11005,"Muğla</w>":11006,"ello</w>":11007,"Zey":11008,"oları</w>":11009,"sosy":11010,"wa</w>":11011,"gelindiğinde</w>":11012,"laştırma</w>":11013,"Hot":11014,"melerini</w>":11015,"Milletvekilliği</w>":11016,"ayıp</w>":11017,"dukları</w>":11018,"celi</w>":11019,"vey":11020,"tanı":11021,"Dizi</w>":11022,"Mans":11023,"farklılık":11024,"LE":11025,"sh</w>":11026,"Turu</w>":11027,"dizide</w>":11028,"ear":11029,"azak":11030,"279":11031,"üyelerinin</w>":11032,"Phone</w>":11033,"vücut</w>":11034,"çilerin</w>":11035,"kurulması</w>":11036,"Pil":11037,"etmesine</w>":11038,"Öğretm":11039,"Dünyanın</w>":11040,"Televizyon</w>":11041,"233":11042,"rakam":11043,"Johnson</w>":11044,"Spr":11045,"performansı</w>":11046,"Times</w>":11047,"Kahramanmar":11048,"Ces":11049,"ME":11050,"tüken":11051,"getirilmiştir</w>":11052,"skor":11053,"geler</w>":11054,"etik":11055,"getirmiştir</w>":11056,"ebilen</w>":11057,";/</w>":11058,"Nah":11059,"lamanın</w>":11060,"mes</w>":11061,"çelik</w>":11062,"mesaj":11063,"katılımc":11064,"kolu</w>":11065,"sının</w>":11066,"yapılar</w>":11067,"uluğunu</w>":11068,"Atletizm</w>":11069,"Joe</w>":11070,"grafik</w>":11071,"ikten</w>":11072,"kurmay</w>":11073,"yüzölçüm":11074,"uygulanan</w>":11075,"süper":11076,"kadının</w>":11077,"sırt":11078,"SA</w>":11079,"gül":11080,"Maine</w>":11081,"!\"</w>":11082,"PA":11083,"eleman":11084,"Leh":11085,"iklim":11086,"ülkeleri</w>":11087,"eskiden</w>":11088,"dos</w>":11089,"mas</w>":11090,"elenen</w>":11091,"simum</w>":11092,"akıllı</w>":11093,"kazanmış</w>":11094,"birbirlerine</w>":11095,"hapis":11096,"tıbbi</w>":11097,"yaralan":11098,"Donanması</w>":11099,"kuantum</w>":11100,"284":11101,"girdiği</w>":11102,"şarkısıyla</w>":11103,"\"’</w>":11104,"sunuldu</w>":11105,"Raw</w>":11106,"duğunda</w>":11107,"Geleneksel</w>":11108,"Hollywood</w>":11109,"iğine</w>":11110,"Saray":11111,"eğinde</w>":11112,"Değiş":11113,"doğus":11114,"olduklarını</w>":11115,"Prusya</w>":11116,"bo</w>":11117,"arkasında</w>":11118,"maddi</w>":11119,"Hakk":11120,"potansiyel</w>":11121,"yayımlanmıştır</w>":11122,"gn":11123,"ight":11124,"Yaşam</w>":11125,"Liv":11126,"balığı</w>":11127,"Aydın":11128,"Dim":11129,"fik</w>":11130,"sorun</w>":11131,"sporcu</w>":11132,"bisik":11133,"koleksiyon":11134,"rus</w>":11135,"süreç</w>":11136,"alanlarında</w>":11137,"yoktu</w>":11138,"yaları</w>":11139,"verilerine</w>":11140,"malarının</w>":11141,"İbran":11142,"geçer":11143,"ego</w>":11144,"rü</w>":11145,"tac":11146,"mahallesi</w>":11147,"Balkan":11148,"Red":11149,"süz":11150,"ukat":11151,"tahmin":11152,"saray":11153,"Günd":11154,"dahi</w>":11155,"Annesi</w>":11156,"Düny":11157,"turizm</w>":11158,"bulmak</w>":11159,"döneminin</w>":11160,"rul</w>":11161,"estra</w>":11162,"Yeşil</w>":11163,"ilki</w>":11164,"Yayın</w>":11165,"Antonio</w>":11166,"yıldır</w>":11167,"blo":11168,"getirir</w>":11169,"Hug":11170,"iral</w>":11171,"dün</w>":11172,"siyasal</w>":11173,"üğünü</w>":11174,"Hur":11175,"Rek":11176,"spekt":11177,"kolayca</w>":11178,"lileri</w>":11179,"gers</w>":11180,"çekilmiştir</w>":11181,"255":11182,"sözcük":11183,"Balt":11184,"artış</w>":11185,"Top</w>":11186,"yayg":11187,"doğum":11188,"tüket":11189,"şiddet</w>":11190,"diplomatik</w>":11191,"ido</w>":11192,"125</w>":11193,"Kırk":11194,"ksiyon</w>":11195,"Kendi</w>":11196,"gs</w>":11197,"engel</w>":11198,"atik":11199,"Mart":11200,"Müf":11201,"toplanan</w>":11202,"iano</w>":11203,"bölgesinden</w>":11204,"üstüne</w>":11205,"1905</w>":11206,"inf":11207,"çağır":11208,"DE":11209,"sınav":11210,"molek":11211,"karanlık</w>":11212,"bayrak</w>":11213,".&</w>":11214,"Fah":11215,"Anth":11216,"huz":11217,"Ceza</w>":11218,"VII</w>":11219,"tirler</w>":11220,"kamer":11221,"oann":11222,"Ülkenin</w>":11223,"Küba</w>":11224,"Corn":11225,"işini</w>":11226,"Tif":11227,"sistemini</w>":11228,"Hall</w>":11229,"lus":11230,"klibi</w>":11231,"emek</w>":11232,"cumhurbaşkanı</w>":11233,"işgali</w>":11234,"verimli</w>":11235,"iliğinden</w>":11236,"Rıza</w>":11237,"ılmaz</w>":11238,"Tam</w>":11239,"buraya</w>":11240,"sitesi</w>":11241,"Şar":11242,"aşir":11243,"önlemek</w>":11244,"sertif":11245,"olduğunda</w>":11246,"--</w>":11247,"dun</w>":11248,"inanç":11249,"rüzgâ":11250,"agu":11251,"örneği</w>":11252,"Parlamentosu</w>":11253,"ason</w>":11254,"Niz":11255,"türet":11256,"Esk":11257,"İşlet":11258,"çarpış":11259,"sıraya</w>":11260,"dizisinin</w>":11261,"tamamlamıştır</w>":11262,"etkinlik":11263,"anahtar":11264,"Ever":11265,"Juan</w>":11266,"ecti":11267,"gelişme</w>":11268,"nüfuslu</w>":11269,"bulunması</w>":11270,"belirlenmiştir</w>":11271,"iliğine</w>":11272,"uygulaması</w>":11273,"283":11274,"Whit":11275,"307":11276,"Köprüsü</w>":11277,"//</w>":11278,"atıf":11279,"yerleşim":11280,"Sicilya</w>":11281,"Arist":11282,"140</w>":11283,"telefon":11284,"yosunu</w>":11285,"asıydı</w>":11286,"Mahmut</w>":11287,"Küçük":11288,"lit</w>":11289,"bunlardan</w>":11290,"üğünde</w>":11291,"PC</w>":11292,"Başka</w>":11293,"350</w>":11294,"Amasya</w>":11295,"Yaş</w>":11296,"takımıyla</w>":11297,"Yani</w>":11298,"afer</w>":11299,"kron":11300,"emek":11301,"karahisar</w>":11302,"saldırıya</w>":11303,"Ölüm</w>":11304,"oyunda</w>":11305,"rev":11306,"tığını</w>":11307,"Ölüm":11308,"olmayı</w>":11309,"Final":11310,"ign":11311,"terim":11312,"dükten</w>":11313,"mut</w>":11314,"ahşap</w>":11315,"ps</w>":11316,"üretteb":11317,"baskın</w>":11318,"bağlantılı</w>":11319,"hâlâ</w>":11320,"uzu</w>":11321,"andar":11322,"lıklarını</w>":11323,"amet</w>":11324,"çıkarılan</w>":11325,"Şehirdeki</w>":11326,"Nit":11327,"optik</w>":11328,"geçmiş":11329,"matematik":11330,"dev</w>":11331,"ien":11332,"Kanad":11333,"melerine</w>":11334,"Resmi</w>":11335,"kökeni</w>":11336,"duktan</w>":11337,"Yukarı</w>":11338,"Cle":11339,"ök":11340,"tarihten</w>":11341,"Müttef":11342,"yıldan</w>":11343,"ange</w>":11344,"Spor":11345,"bilgisi</w>":11346,"abi</w>":11347,"hali</w>":11348,"Malta</w>":11349,"kadrosuna</w>":11350,"denet":11351,"acaktı</w>":11352,"anlayış":11353,"ilişkilendir":11354,"otomobil":11355,"Steph":11356,"gazetesi</w>":11357,"1878</w>":11358,"manda</w>":11359,"İnc":11360,"bour":11361,"dava</w>":11362,"yukarı</w>":11363,"şimdiki</w>":11364,"başkanlığını</w>":11365,"öylelikle</w>":11366,"güvenli</w>":11367,"SB":11368,"Savaşları</w>":11369,"sche</w>":11370,"inik</w>":11371,"diğine</w>":11372,"küme</w>":11373,"Law":11374,"ilke":11375,"ünce</w>":11376,"şeker</w>":11377,"strüm":11378,"Columb":11379,"becer":11380,"beld":11381,"bridge</w>":11382,"adonna</w>":11383,"tia</w>":11384,"org</w>":11385,"yapay</w>":11386,"yüksekliği</w>":11387,"tren</w>":11388,"eserinde</w>":11389,"yaşar</w>":11390,"Kraliçe</w>":11391,"kopya</w>":11392,"Nav":11393,"Nag":11394,"adi</w>":11395,"park</w>":11396,"reklam</w>":11397,"anının</w>":11398,"une</w>":11399,"Ağrı</w>":11400,"geliştirilmiş</w>":11401,"sıkınt":11402,"böc":11403,"toprağ":11404,"1907</w>":11405,"Franço":11406,"Hareketi</w>":11407,"with</w>":11408,"ırı</w>":11409,"açıklama</w>":11410,"tap":11411,"klor":11412,"öğretmen</w>":11413,"ray":11414,"edici</w>":11415,"korku</w>":11416,"sandal":11417,"College</w>":11418,"GB</w>":11419,"madığını</w>":11420,"otorit":11421,"West":11422,"evler</w>":11423,"Mavi</w>":11424,"noktada</w>":11425,"yakınında</w>":11426,"Liver":11427,"elektron</w>":11428,"Sanatçı</w>":11429,"ladıktan</w>":11430,"subay</w>":11431,"aalanı</w>":11432,"diğeri</w>":11433,"Shak":11434,"ilidir</w>":11435,"gri</w>":11436,"politikası</w>":11437,"Dolay":11438,"Antak":11439,"105</w>":11440,"gelişen</w>":11441,"Yahudiler</w>":11442,"163":11443,"buradan</w>":11444,"Hamil":11445,"gerçekten</w>":11446,"kadrosunda</w>":11447,"jüri</w>":11448,"ihtiyaç":11449,"Taylor</w>":11450,"Kocaeli</w>":11451,"Hann":11452,"Not":11453,"Cela":11454,"iber</w>":11455,"derecesi</w>":11456,"Ped":11457,"anj":11458,"omp":11459,"bayrağı</w>":11460,"kurt</w>":11461,"hır":11462,"101</w>":11463,"türk":11464,"Brezilyalı</w>":11465,"Om":11466,"küç":11467,"Selanik</w>":11468,"lent</w>":11469,"Eng":11470,"alınması</w>":11471,"Kans":11472,"şampiyonluk</w>":11473,"Comp":11474,"kahverengi</w>":11475,"96":11476,"görmüştür</w>":11477,"kariyerinin</w>":11478,"rengi</w>":11479,"budur</w>":11480,"bunları</w>":11481,"klu</w>":11482,"ović</w>":11483,"teker":11484,"ziyade</w>":11485,"Vladimir</w>":11486,"kongr":11487,"ayrım</w>":11488,"tasarlanmış</w>":11489,"faaliyetleri</w>":11490,"enli</w>":11491,"istis":11492,"Bilgi</w>":11493,"bestele":11494,"DC</w>":11495,"Yel":11496,"uni</w>":11497,"abat</w>":11498,"Bob</w>":11499,"Bolu</w>":11500,"biçiminde</w>":11501,"dönüştürül":11502,"Samsung</w>":11503,"fak":11504,"146":11505,"Kahramanmaraş</w>":11506,"Lind":11507,"beyi</w>":11508,"terim</w>":11509,"duygu":11510,"tiyatro":11511,"yapımcılığını</w>":11512,"Day</w>":11513,"Doc":11514,"ekim</w>":11515,"160</w>":11516,"som":11517,"reklam":11518,"yararlan":11519,"Wilhelm</w>":11520,"Rio</w>":11521,"ds</w>":11522,"Yer</w>":11523,"sur</w>":11524,"lenmektedir</w>":11525,"kov</w>":11526,"Prim":11527,"ulus</w>":11528,"diğinden</w>":11529,"gerekmektedir</w>":11530,"Doğal</w>":11531,"birine</w>":11532,"şans":11533,"konuşan</w>":11534,"Karam":11535,"Madonna</w>":11536,"indeydi</w>":11537,"emesi</w>":11538,"sendromu</w>":11539,"Dük":11540,"TÜ</w>":11541,"oslov":11542,"hizmetleri</w>":11543,"tutuklandı</w>":11544,"başlangıc":11545,"omen</w>":11546,"vefat</w>":11547,"Siyasal</w>":11548,"uyuştur":11549,"rapor</w>":11550,"Hong</w>":11551,"püs":11552,"bölümler</w>":11553,"Ülke</w>":11554,"gus":11555,"yem</w>":11556,"ileriyle</w>":11557,"Yavuz</w>":11558,"86":11559,"sayıları</w>":11560,"264":11561,"Cem</w>":11562,"Metin</w>":11563,"Tac":11564,"eğinin</w>":11565,"ecekleri</w>":11566,"bulunmuş</w>":11567,"gelip</w>":11568,"Elazığ</w>":11569,"görünür</w>":11570,"görevinde</w>":11571,"Konferansı</w>":11572,"çocuklar</w>":11573,"federal</w>":11574,"miy":11575,"ekr":11576,"uzay":11577,"kilatı</w>":11578,"özellik</w>":11579,"ft</w>":11580,"nez":11581,"Ron":11582,"steri</w>":11583,"Py":11584,"xy</w>":11585,"ilip</w>":11586,"planı</w>":11587,"pazar</w>":11588,"Aut":11589,"geçtiği</w>":11590,"Yönetimi</w>":11591,"ex</w>":11592,"girerek</w>":11593,"mant":11594,"249":11595,"intik":11596,"cezası</w>":11597,"Tir":11598,"ric":11599,"gram":11600,"canlandırdı</w>":11601,"türler</w>":11602,"Öte</w>":11603,"bilinmemektedir</w>":11604,"keli</w>":11605,"Çarş":11606,"bölgesindeki</w>":11607,"Aşağ":11608,"1886</w>":11609,"ianus</w>":11610,"Fik":11611,"265":11612,"sinyal":11613,"üreten</w>":11614,"Endonezya</w>":11615,"inus</w>":11616,"Bizans":11617,"neticesinde</w>":11618,"Apol":11619,"Hikâ":11620,"tiş":11621,"köğ":11622,"saniye</w>":11623,"özgür</w>":11624,"formasıyla</w>":11625,"kaynaklar</w>":11626,"ys</w>":11627,"olmasının</w>":11628,"kavuş":11629,"kiralık</w>":11630,"Kop":11631,"Giresun</w>":11632,"Özbekistan</w>":11633,"oh":11634,"tanındı</w>":11635,"amamıştır</w>":11636,"pand":11637,"lüler</w>":11638,"Psik":11639,"Tot":11640,"Pensil":11641,"suyun</w>":11642,"ümlü</w>":11643,"ilmeye</w>":11644,"değişim</w>":11645,"değişiklik":11646,"aldılar</w>":11647,"algorit":11648,"müşter":11649,"ayırt</w>":11650,"Ada</w>":11651,"zaten</w>":11652,"fah":11653,"lé":11654,"asız</w>":11655,"eleştiriler</w>":11656,"Lewis</w>":11657,"ish":11658,"luklar</w>":11659,"Şirketi</w>":11660,"Uru":11661,"gey":11662,"gayet</w>":11663,"oradan</w>":11664,"135":11665,"değişir</w>":11666,"kaynaklarda</w>":11667,"fred</w>":11668,"iktidar":11669,"sızın</w>":11670,"amış</w>":11671,"Kupa</w>":11672,"TÜ":11673,"²'</w>":11674,"azlar</w>":11675,"174":11676,"dönemine</w>":11677,"Turizm</w>":11678,"heim</w>":11679,"Theodo":11680,"Hes":11681,"usta</w>":11682,"Kulüp":11683,"oluşmuştur</w>":11684,"çerçevesinde</w>":11685,"ekran":11686,"ingham</w>":11687,"Wood":11688,"dram":11689,"vel</w>":11690,"gut</w>":11691,"listelerinde</w>":11692,"Pensilvanya</w>":11693,"sea</w>":11694,"tamamlayan</w>":11695,"deplas":11696,"Felsef":11697,"kart</w>":11698,"krizi</w>":11699,"düzenledi</w>":11700,"ito</w>":11701,"mişte</w>":11702,"müzikal</w>":11703,"Christian</w>":11704,"şarap</w>":11705,"uh":11706,"atıl":11707,"esiz</w>":11708,"emir</w>":11709,"nan":11710,"Kitap":11711,"Mihail</w>":11712,"çalışırken</w>":11713,"yeğ":11714,"sürmüştür</w>":11715,"büyükelç":11716,"Foot":11717,"basınç</w>":11718,"kullanmıştır</w>":11719,"alınmış</w>":11720,"İstasyonu</w>":11721,"Group</w>":11722,"kanat</w>":11723,"girmiş</w>":11724,"kırsal</w>":11725,"Kamu</w>":11726,"Wit":11727,"105":11728,"cam</w>":11729,"öğrenim</w>":11730,"Super</w>":11731,"School</w>":11732,"uzaklaştır":11733,"olursa</w>":11734,"yönde</w>":11735,"aham</w>":11736,"linois</w>":11737,"Yahudilerin</w>":11738,"\":</w>":11739,"niyet</w>":11740,"bağır":11741,"ilmesiyle</w>":11742,"kimya</w>":11743,"kalabalık</w>":11744,"Got":11745,"Lenin</w>":11746,"iske":11747,"gene</w>":11748,"içinden</w>":11749,"müzak":11750,"halklardan</w>":11751,"stil</w>":11752,"ork":11753,"gerektiği</w>":11754,"inanc":11755,"peygam":11756,"âz":11757,"ilde</w>":11758,"aster</w>":11759,"yürürlüğe</w>":11760,"fo":11761,"pi":11762,"çevre":11763,"Kle":11764,"açıklamıştır</w>":11765,"yarışmada</w>":11766,"olanlar</w>":11767,"iga</w>":11768,"katılmış</w>":11769,"Sibir":11770,"/&</w>":11771,"merkezidir</w>":11772,"Özgür</w>":11773,"bağımsızlık</w>":11774,"ancı</w>":11775,"gereksin":11776,"gerilim</w>":11777,"Hill</w>":11778,"Tru":11779,"rakibi</w>":11780,"cumhurbaşkanlığı</w>":11781,"GS":11782,"km2</w>":11783,"ürken</w>":11784,"numara</w>":11785,"mağaz":11786,"Simon</w>":11787,"Gez":11788,"mensup":11789,"amb":11790,"sisteminde</w>":11791,"Oğuz</w>":11792,"Karabağ</w>":11793,"Seferi</w>":11794,"Air</w>":11795,"Ses":11796,"sir":11797,"isteği</w>":11798,"ekip</w>":11799,"kötü":11800,"etmesini</w>":11801,"başarısız":11802,"Libya</w>":11803,"ihrac":11804,"Rey</w>":11805,"DS</w>":11806,"egen</w>":11807,"gruptan</w>":11808,"alışver":11809,"Timur</w>":11810,"atmosfer":11811,"fe</w>":11812,"zamanı</w>":11813,"Liverpool</w>":11814,"nat":11815,"aray</w>":11816,"anına</w>":11817,"olacağı</w>":11818,"idin</w>":11819,"Steve</w>":11820,"elektro":11821,"port</w>":11822,"dim</w>":11823,"nik":11824,"not</w>":11825,"örler</w>":11826,"Osmanlılar</w>":11827,"maliyet":11828,"seyr":11829,"ann</w>":11830,"Team</w>":11831,"ex":11832,"iklerini</w>":11833,"mont</w>":11834,"Sınıf":11835,"olmalıdır</w>":11836,"Yasası</w>":11837,"başlıklı</w>":11838,"oynamaya</w>":11839,"Pam":11840,"çan":11841,"ets</w>":11842,"verilmektedir</w>":11843,"ilan":11844,"risk":11845,"pek":11846,"çem":11847,"ekran</w>":11848,"kaplı</w>":11849,"mevsim":11850,"eksü":11851,"yerler</w>":11852,"tanıştı</w>":11853,"şarkısını</w>":11854,"Sanc":11855,"section</w>":11856,"bağ</w>":11857,"unduğu</w>":11858,"şehre</w>":11859,"Aslında</w>":11860,"tank</w>":11861,"gelişimi</w>":11862,"Berg":11863,"Çekoslov":11864,"Hükümeti</w>":11865,"Pop</w>":11866,"Brun":11867,"rekabet</w>":11868,"maddeler</w>":11869,"saptan":11870,"atının</w>":11871,"yaşta</w>":11872,"Güzel":11873,"ning</w>":11874,"Gra":11875,"duc":11876,"etkisiyle</w>":11877,"istikr":11878,"Venez":11879,"Saray</w>":11880,"Süm":11881,"doğur":11882,"uçağı</w>":11883,"Meydanı</w>":11884,"aşkın</w>":11885,"bury</w>":11886,"Yaln":11887,"Kanadalı</w>":11888,"296":11889,"milli</w>":11890,"Hik":11891,"ron</w>":11892,"Emir</w>":11893,"nahiy":11894,"biye</w>":11895,"ketin</w>":11896,"getirdiği</w>":11897,"oksit</w>":11898,"araba</w>":11899,"düğünde</w>":11900,"Napolyon</w>":11901,"MS":11902,"ıoğlu</w>":11903,"ressam":11904,"ekonomisi</w>":11905,"Kafkas</w>":11906,"Aile</w>":11907,"rezer":11908,"University</w>":11909,"Mars</w>":11910,"hastalık":11911,"Hız":11912,"amel":11913,"bestec":11914,"Oz":11915,"sayısının</w>":11916,"ülkeden</w>":11917,"Seçimleri</w>":11918,"getirilen</w>":11919,"Mirası</w>":11920,"Bill</w>":11921,"yalılar</w>":11922,"astır</w>":11923,"bürokr":11924,"ediğini</w>":11925,"Boston</w>":11926,"Victoria</w>":11927,"Portekizce</w>":11928,"kurmuştur</w>":11929,"programları</w>":11930,"golle</w>":11931,"Rub":11932,"aw</w>":11933,"oviç</w>":11934,"Koreli</w>":11935,"bahar</w>":11936,"imiçi</w>":11937,"ital":11938,"birimleri</w>":11939,"renin</w>":11940,"hâlen</w>":11941,"kitapları</w>":11942,"süt</w>":11943,"soğut":11944,"bellek</w>":11945,"Motor":11946,"Sap":11947,"Tuğ":11948,"Yat":11949,"zey":11950,"Çal":11951,"örlük</w>":11952,"ondur</w>":11953,"miktarı</w>":11954,"Christop":11955,"AC</w>":11956,"Cann":11957,"tedir</w>":11958,"Ülk":11959,"zırhlı</w>":11960,"Arena</w>":11961,"Konfeder":11962,"Madalyası</w>":11963,"tika</w>":11964,"Gon":11965,"Görün":11966,"Cru":11967,"nel</w>":11968,"Güneydoğu</w>":11969,"gönderilen</w>":11970,"serg":11971,"macer":11972,"ılıkla</w>":11973,"Illinois</w>":11974,"resi</w>":11975,"133":11976,"Part":11977,"ilaç</w>":11978,"kategorisinde</w>":11979,"DS":11980,"matematiksel</w>":11981,"destekleyen</w>":11982,"You":11983,"yönetici</w>":11984,"askerler</w>":11985,"politika</w>":11986,"özelliklerini</w>":11987,"rov":11988,"Mühendisliği</w>":11989,"François</w>":11990,"Tony</w>":11991,"şah</w>":11992,"ağıdır</w>":11993,"uch":11994,"eceğine</w>":11995,"Fox</w>":11996,"elikop":11997,"Ry":11998,"akı</w>":11999,"eklerini</w>":12000,"azal":12001,"kanal</w>":12002,"saltan":12003,"birinde</w>":12004,"saygı</w>":12005,"sanc":12006,"1906</w>":12007,"kariyerinde</w>":12008,"katman":12009,"Stef":12010,"luğunda</w>":12011,"Ohio</w>":12012,"yazan</w>":12013,"lıyor</w>":12014,"îler</w>":12015,"asan</w>":12016,"atıldı</w>":12017,"ipler</w>":12018,"France</w>":12019,"Trakya</w>":12020,"püskür":12021,"Cengiz</w>":12022,"177":12023,"kut</w>":12024,"ılama</w>":12025,"lenebilir</w>":12026,"Jim":12027,"şampiyonluğunu</w>":12028,"tatlı</w>":12029,"Dic":12030,"yapım":12031,"dünyadaki</w>":12032,"müdahale</w>":12033,"Of</w>":12034,"Pola":12035,"porn":12036,"iren</w>":12037,"usul":12038,"uyum</w>":12039,"yas</w>":12040,"erlik</w>":12041,"ıştığı</w>":12042,"Tunus</w>":12043,"Çayı</w>":12044,"direktörü</w>":12045,"Reş":12046,"iat</w>":12047,"müdürü</w>":12048,"akç":12049,"elip":12050,"önemi</w>":12051,"Sonunda</w>":12052,"radyas":12053,"Vek":12054,"mobil</w>":12055,"oğun":12056,"verim":12057,"İzlanda</w>":12058,"Hamp":12059,"ca":12060,"ettikten</w>":12061,"box</w>":12062,"White</w>":12063,"eğlence</w>":12064,"omi</w>":12065,"radyo":12066,"Sele":12067,"hu":12068,"şiş":12069,"avir":12070,"antlaş":12071,"oğludur</w>":12072,"Kong</w>":12073,"kişiyi</w>":12074,"görevlisi</w>":12075,"Who</w>":12076,"Pazar</w>":12077,"lano</w>":12078,"abad</w>":12079,"htt":12080,"dikkatini</w>":12081,"IP</w>":12082,"Çin":12083,"adındaki</w>":12084,"ilerlem":12085,"anni</w>":12086,"kısım</w>":12087,"deneysel</w>":12088,"Sec":12089,"1877</w>":12090,"yazında</w>":12091,"ılığa</w>":12092,"görevden</w>":12093,"Bilgisay":12094,"osen</w>":12095,"tamamlan":12096,"Hatta</w>":12097,"sözcüğ":12098,"grubuna</w>":12099,"imkân":12100,"Rep":12101,"malarında</w>":12102,"kurtul":12103,"eh</w>":12104,"amet":12105,"gibidir</w>":12106,"Sibirya</w>":12107,"Grup":12108,"Sir</w>":12109,"Sinop</w>":12110,"Yıldız":12111,"IX</w>":12112,"Ran":12113,"ake</w>":12114,"piyano</w>":12115,"maksızın</w>":12116,"siye</w>":12117,"eyn</w>":12118,"saniy":12119,"yakından</w>":12120,"anlamında</w>":12121,"ault</w>":12122,"Çukur":12123,"koru":12124,"hasta</w>":12125,"sorunu</w>":12126,"Kütüphanesi</w>":12127,"PKK</w>":12128,"kurgusal</w>":12129,"hazırlan":12130,"gecik":12131,"IA</w>":12132,"stratejik</w>":12133,"Hic":12134,"Night</w>":12135,"Walter</w>":12136,"has</w>":12137,"termin":12138,"motoru</w>":12139,"Çalışma</w>":12140,"Ley":12141,"annesinin</w>":12142,"God":12143,"ırt":12144,"yorum</w>":12145,"sağlamaktadır</w>":12146,"Sam</w>":12147,"erişim</w>":12148,"kestrası</w>":12149,"Antakya</w>":12150,"Başbakanı</w>":12151,"Not</w>":12152,"klav":12153,"anılır</w>":12154,"ety</w>":12155,"ayrılmış</w>":12156,"Bülent</w>":12157,"biçimi</w>":12158,"Uzun":12159,"disip":12160,"108":12161,"yörüng":12162,"element":12163,"kuvvetlerinin</w>":12164,"mı</w>":12165,"ín</w>":12166,"olurken</w>":12167,"Dak":12168,"alıyor</w>":12169,"ispor</w>":12170,"formas":12171,"avantaj":12172,"çıkması</w>":12173,"denize</w>":12174,"1902</w>":12175,"sürdürmektedir</w>":12176,"şunları</w>":12177,"Aslan</w>":12178,"Hollandalı</w>":12179,"ayları</w>":12180,"ımız":12181,"lemi</w>":12182,"YouT":12183,"sw":12184,"vel":12185,"psikolojik</w>":12186,"dayanarak</w>":12187,"Linux</w>":12188,"Bac":12189,"alanının</w>":12190,"gider":12191,"kompleks":12192,"Oblast":12193,"olas</w>":12194,"Belgrad</w>":12195,"Sezar</w>":12196,"sson</w>":12197,"İler":12198,"ıntı</w>":12199,"mimar</w>":12200,"leşmesi</w>":12201,"259":12202,"yükselmiştir</w>":12203,"VIII</w>":12204,"erya</w>":12205,"ec</w>":12206,"çekim</w>":12207,"giymiştir</w>":12208,"bölgeler</w>":12209,"nadir</w>":12210,"Kıy":12211,"boyn":12212,"yöneticisi</w>":12213,"anlaşması</w>":12214,"Ferr":12215,"eira</w>":12216,"tekli</w>":12217,"Şampiyon</w>":12218,"Sol</w>":12219,"amıştır</w>":12220,"275":12221,"://</w>":12222,"dağı</w>":12223,"în</w>":12224,"krip":12225,"fikri</w>":12226,"büyüme</w>":12227,"Cey":12228,"Jr</w>":12229,"kıyasla</w>":12230,"güneyde</w>":12231,"Football</w>":12232,"Pit":12233,"urn":12234,"uydu":12235,"yönetti</w>":12236,"komed":12237,"Performan":12238,"kuzeyde</w>":12239,"Ful":12240,"karışık</w>":12241,"Barajı</w>":12242,"dönüştü</w>":12243,"Tos":12244,"sonuçlandı</w>":12245,"sorunlar</w>":12246,"değiştirdi</w>":12247,"seslendirilen</w>":12248,"Dairesi</w>":12249,"elçi</w>":12250,"kendisinden</w>":12251,"Çift</w>":12252,"arkeolojik</w>":12253,"akan</w>":12254,"143":12255,"Dolayısıyla</w>":12256,"lum":12257,"haric":12258,"geliştirdi</w>":12259,"Holding</w>":12260,"Michigan</w>":12261,"ray</w>":12262,"ufak</w>":12263,"ongul":12264,"ınc":12265,"manastır":12266,"açılış</w>":12267,".(</w>":12268,"Tuna</w>":12269,"lice</w>":12270,"yalar</w>":12271,"tartışma</w>":12272,"Bilgiler</w>":12273,"Teknoloji</w>":12274,"go":12275,"etkiler</w>":12276,"Manastır":12277,"Bet":12278,"etten</w>":12279,"tanrı</w>":12280,"Tel":12281,"Zeyn":12282,"müze</w>":12283,"doktor</w>":12284,"Recep</w>":12285,"Brian</w>":12286,"polim":12287,"konuşulan</w>":12288,"Cemal</w>":12289,"UC":12290,"mom":12291,"Şev":12292,"tanımlan":12293,"Kin":12294,"madır</w>":12295,"Kurt</w>":12296,"Barcel":12297,"aux</w>":12298,"vokal</w>":12299,"izleyic":12300,"Simp":12301,"Ut":12302,"marka</w>":12303,"Genel":12304,"söylenir</w>":12305,"turu</w>":12306,"yarışmasında</w>":12307,"Elektrik</w>":12308,"atom</w>":12309,"uva</w>":12310,"liman</w>":12311,"niteliğ":12312,"imha</w>":12313,"Kale</w>":12314,"örnekleri</w>":12315,"yüzölçümüne</w>":12316,"baz</w>":12317,"protesto</w>":12318,"raz</w>":12319,"işleme</w>":12320,"bugüne</w>":12321,"Station</w>":12322,"bölümünün</w>":12323,"Mac</w>":12324,"Teor":12325,"1904</w>":12326,"İşleri</w>":12327,"AM":12328,"işken":12329,"denk</w>":12330,"maksimum</w>":12331,"1896</w>":12332,"Gerçek</w>":12333,"Gürcüce</w>":12334,"belirlemek</w>":12335,"İslami</w>":12336,"sekizinci</w>":12337,"Boğazı</w>":12338,"protein</w>":12339,"Öy":12340,"ert":12341,"anik</w>":12342,"leyebil":12343,"ektif</w>":12344,"düşer</w>":12345,"Hatay</w>":12346,"açmıştır</w>":12347,"otop":12348,"prodük":12349,"dönemlerinde</w>":12350,"eyaleti</w>":12351,"rekab":12352,"sıkı</w>":12353,"Kaya</w>":12354,"Mob":12355,"konumu</w>":12356,"materyal":12357,"Raf":12358,"tive</w>":12359,"Konservatuvarı</w>":12360,"Meg":12361,"distan</w>":12362,"İoann":12363,"emeyen</w>":12364,"1890</w>":12365,"dokuz":12366,"kurum</w>":12367,"normal":12368,"Kob":12369,"arın</w>":12370,"kullanmak</w>":12371,"değişken":12372,"demektir</w>":12373,"450</w>":12374,"tanımlanır</w>":12375,"Corpor":12376,"günümüzdeki</w>":12377,"ılacağı</w>":12378,"sipar":12379,"Ras":12380,"eksiyon</w>":12381,"taz":12382,"Sport":12383,"Maj":12384,"Vah":12385,"kaleci</w>":12386,"cuları</w>":12387,"Yayınları</w>":12388,"pişir":12389,"Fark":12390,"ürünü</w>":12391,"evde</w>":12392,"sunuc":12393,"ves":12394,"ender</w>":12395,"Sid":12396,"ği</w>":12397,"121</w>":12398,"Harp</w>":12399,"Buenos</w>":12400,"Dah":12401,"uya</w>":12402,"yarısı</w>":12403,"hayal</w>":12404,"nüfusa</w>":12405,"drama</w>":12406,"sıralan":12407,"kitabın</w>":12408,"teşkil</w>":12409,"Bundesliga</w>":12410,"gelmesi</w>":12411,"170</w>":12412,"ebo":12413,"ürünler</w>":12414,"çevresindeki</w>":12415,"köle</w>":12416,"kod</w>":12417,"memur":12418,"Ön</w>":12419,"inter":12420,"iyev</w>":12421,"sattı</w>":12422,"teklifi</w>":12423,"aa</w>":12424,"ude</w>":12425,"etkiley":12426,"büyüdü</w>":12427,"Mike</w>":12428,"inlerin</w>":12429,"lamada</w>":12430,"halif":12431,"sponsor":12432,"akıl</w>":12433,"irin</w>":12434,"ülkeyi</w>":12435,"Küre</w>":12436,"Bank</w>":12437,"amayan</w>":12438,"ağz":12439,"Kilise</w>":12440,"Hun":12441,"ezid</w>":12442,"Özgür":12443,"negatif</w>":12444,"die</w>":12445,"enj":12446,"ındandır</w>":12447,"yatırım</w>":12448,"Yabancı</w>":12449,"etlerin</w>":12450,"verilmiş</w>":12451,"zamandan</w>":12452,"ards</w>":12453,"Biyografi</w>":12454,"saf</w>":12455,"Jacques</w>":12456,"siyasetçidir</w>":12457,"oranında</w>":12458,"Andrew</w>":12459,"hall</w>":12460,"bulunmamaktadır</w>":12461,"olama</w>":12462,"Pro</w>":12463,"sunulan</w>":12464,"istediğini</w>":12465,"yumuşak</w>":12466,"eyz":12467,"Emre</w>":12468,"Championship</w>":12469,"Buz":12470,"amaç</w>":12471,"etmekte</w>":12472,"Polis</w>":12473,"omer":12474,"yaşına</w>":12475,"Aires</w>":12476,"geçmişi</w>":12477,"İnşa":12478,"hayatının</w>":12479,"komuta</w>":12480,"aktivit":12481,"ticaret":12482,"hükümeti</w>":12483,"tegr":12484,"parçalan":12485,"seçimlerde</w>":12486,"hidrojen</w>":12487,"Associ":12488,"Giz":12489,"Nep":12490,"ark</w>":12491,"Sarı</w>":12492,"luluk</w>":12493,"müretteb":12494,"Anim":12495,"sanatı</w>":12496,"oyunlar</w>":12497,"makale</w>":12498,"ave</w>":12499,"fas":12500,"yanıt</w>":12501,"imzalanan</w>":12502,"olağanüstü</w>":12503,"gönüllü</w>":12504,"AP":12505,"LG":12506,"Zongul":12507,"esia</w>":12508,"Wilson</w>":12509,"aceae</w>":12510,"Stephen</w>":12511,"Lud":12512,"topraklarında</w>":12513,"ağırlık</w>":12514,"olabileceği</w>":12515,"kuvveti</w>":12516,"aralık":12517,"Shar":12518,"kraliyet</w>":12519,"Hakkında</w>":12520,"Barcelona</w>":12521,"sonlandır":12522,"grupta</w>":12523,"iyorum</w>":12524,"Kahire</w>":12525,"semp":12526,"dergisinde</w>":12527,"oo</w>":12528,"ped":12529,"sosyal":12530,"ashi</w>":12531,"geldiğini</w>":12532,"abilir":12533,"Island</w>":12534,"Pok":12535,"kare</w>":12536,"Çav":12537,"landığını</w>":12538,"kesiminde</w>":12539,"kristal":12540,"buğ":12541,"keşif</w>":12542,"ektörü</w>":12543,"House</w>":12544,"Yakın</w>":12545,"Web":12546,"oa</w>":12547,"başbakan</w>":12548,"yazmaya</w>":12549,"ojen</w>":12550,"TP</w>":12551,"Yıl</w>":12552,"hop</w>":12553,"devamı</w>":12554,"ışta</w>":12555,"Hans</w>":12556,"Yol</w>":12557,"lıkların</w>":12558,"bombard":12559,"orta":12560,"149":12561,"farklıdır</w>":12562,"üşü</w>":12563,"Hazar</w>":12564,"havz":12565,"Murad</w>":12566,"kolaylaştır":12567,"row</w>":12568,"cerrah":12569,"önlem":12570,"çubuklu</w>":12571,"omi":12572,"ılarıyla</w>":12573,"düzenlediği</w>":12574,"Şehri</w>":12575,"parçalar</w>":12576,"Schw":12577,"Elec":12578,"troman":12579,"Lord</w>":12580,"koc":12581,"içeriyordu</w>":12582,"burg":12583,"kins</w>":12584,"ibr":12585,"geride</w>":12586,"gençlik</w>":12587,"gövd":12588,"fonksiyonu</w>":12589,"taç</w>":12590,"ıyan</w>":12591,"128</w>":12592,"kaldırıldı</w>":12593,"Yardımcı</w>":12594,"meclis</w>":12595,"219":12596,"deri</w>":12597,"Chel":12598,"mağı</w>":12599,"mevki":12600,"see</w>":12601,"salon":12602,"Rak":12603,"tisat</w>":12604,"sürecinde</w>":12605,"Ted":12606,"rakip</w>":12607,"kullanmaya</w>":12608,"Tig":12609,"oshi</w>":12610,"insanlara</w>":12611,"His":12612,"delik":12613,"alat":12614,"enerjisi</w>":12615,"chi</w>":12616,"sanatçının</w>":12617,"işim</w>":12618,"yapması</w>":12619,"endiği</w>":12620,"alınır</w>":12621,"olabileceğini</w>":12622,"Gece</w>":12623,"döneminden</w>":12624,"ukat</w>":12625,"Disney</w>":12626,"ater</w>":12627,"terek</w>":12628,"görevleri</w>":12629,"tanımlanan</w>":12630,"taşıma</w>":12631,"araçları</w>":12632,"belgesel</w>":12633,"ilme</w>":12634,"Abdülham":12635,"ildir</w>":12636,"takdir":12637,"katlı</w>":12638,"1901</w>":12639,"uca</w>":12640,"ımlarına</w>":12641,"Step":12642,"Ash":12643,"Söz</w>":12644,"Çev":12645,"iğinin</w>":12646,"çalın":12647,"kaynaklanan</w>":12648,"Galler</w>":12649,"leştirme</w>":12650,"ydu</w>":12651,"adları</w>":12652,"gili</w>":12653,"Lil":12654,"rük</w>":12655,"anıt":12656,"How":12657,"Sı":12658,"293":12659,"Cami</w>":12660,"hus":12661,"başarıyla</w>":12662,"bölümden</w>":12663,"asyonlar</w>":12664,"Mahallesi</w>":12665,"YouTube</w>":12666,"edebilir</w>":12667,"İran":12668,"imlerini</w>":12669,"başrol</w>":12670,"değiştirilmiştir</w>":12671,"sıkıştır":12672,"Liz":12673,"iyer":12674,"aver":12675,"temas</w>":12676,"salg":12677,"haftalık</w>":12678,"Marks":12679,"hit</w>":12680,"atılan</w>":12681,"Arke":12682,"alanın</w>":12683,"mezar</w>":12684,"tabl":12685,"gazetesinde</w>":12686,"riba":12687,"Fon":12688,"eb</w>":12689,"çay":12690,"verme</w>":12691,"Ruslar</w>":12692,"Senat":12693,"Üzer":12694,"yang":12695,"ısıt":12696,"Seçim</w>":12697,"urlu</w>":12698,"geliştirilmiştir</w>":12699,"ihtiyacı</w>":12700,"Önce</w>":12701,"kalıntıları</w>":12702,"öncelikle</w>":12703,"peyn":12704,"belki</w>":12705,"İkti":12706,"UN":12707,"endiş":12708,"öğrenciler</w>":12709,"Eğitimi</w>":12710,"toplumun</w>":12711,"Lid":12712,"Yolu</w>":12713,"alıların</w>":12714,"ırlı</w>":12715,"igo</w>":12716,"filmlerinde</w>":12717,"makine</w>":12718,"yarışmaya</w>":12719,"memesi</w>":12720,"çocukların</w>":12721,"fırt":12722,"Program":12723,"KP</w>":12724,"Mul":12725,"gal</w>":12726,"şeb":12727,"kurmak</w>":12728,"süredir</w>":12729,"haklarını</w>":12730,"ündü</w>":12731,"analiz":12732,"nötr":12733,"BS</w>":12734,"merkezinin</w>":12735,"kimlik</w>":12736,"holm</w>":12737,"yosu</w>":12738,"topu</w>":12739,"Land":12740,"RO":12741,"cor":12742,"rev</w>":12743,"Dördüncü</w>":12744,"je</w>":12745,"rika</w>":12746,"HD</w>":12747,"sadraz":12748,"icra</w>":12749,"Corporation</w>":12750,"84":12751,"Dizinin</w>":12752,"Fot":12753,"try</w>":12754,"tana</w>":12755,"menler</w>":12756,"Vis":12757,"ertele":12758,"iktir</w>":12759,"gey</w>":12760,"Bakan":12761,"Hakan</w>":12762,"aktris</w>":12763,"Bazen</w>":12764,"Tiflis</w>":12765,"ıyaman</w>":12766,"Jose":12767,"ordunun</w>":12768,"hayvanlar</w>":12769,"protokol":12770,"kanın</w>":12771,"leştirilmiş</w>":12772,"mensup</w>":12773,"verdiler</w>":12774,"pasaport":12775,"İtalyanca</w>":12776,"basam":12777,"tün</w>":12778,"cezalandır":12779,"Selçuk</w>":12780,"enstrüm":12781,"ayne</w>":12782,"Freder":12783,"Batman</w>":12784,"animasyon</w>":12785,"Çevre</w>":12786,"ath":12787,"solun":12788,"Şahin</w>":12789,"atıfta</w>":12790,"atması</w>":12791,"omur":12792,"partisi</w>":12793,"bilinmeyen</w>":12794,"kâğ":12795,"tehlikeli</w>":12796,"gövde</w>":12797,"Kitab":12798,"ordusunu</w>":12799,"Wel":12800,"va":12801,"vs</w>":12802,"uğradı</w>":12803,"İskoç</w>":12804,".”</w>":12805,"İsr":12806,"sermay":12807,"sadi</w>":12808,"Kevin</w>":12809,"ağız</w>":12810,"kapsar</w>":12811,"bağlantısı</w>":12812,"suzluk</w>":12813,"osa</w>":12814,"mektup</w>":12815,"deng":12816,"104</w>":12817,"çözüm</w>":12818,"yumurta</w>":12819,"yapımında</w>":12820,"umi</w>":12821,"Hi":12822,"buhar":12823,"Pep":12824,"zan":12825,"Hakları</w>":12826,"mus</w>":12827,"gösterilir</w>":12828,"tasarlanmıştır</w>":12829,"meydan</w>":12830,"Lyn":12831,"koal":12832,"görünen</w>":12833,"şifr":12834,"İbranice</w>":12835,"Eyü":12836,"vard</w>":12837,"Onur</w>":12838,"115</w>":12839,"zamanın</w>":12840,"Charlie</w>":12841,"Türkçeye</w>":12842,"İleti":12843,"tabi</w>":12844,"Afyon":12845,"cs</w>":12846,"ram</w>":12847,"hazırladığı</w>":12848,"lukta</w>":12849,"Müdürü</w>":12850,"Oxford</w>":12851,"ph</w>":12852,"Hamilton</w>":12853,"Arsen":12854,"103</w>":12855,"Geliştir":12856,"Gün</w>":12857,"şan</w>":12858,"görmüş</w>":12859,"istasyonu</w>":12860,"ics</w>":12861,"oyuncudur</w>":12862,"Adnan</w>":12863,"mesafe</w>":12864,"mükemmel</w>":12865,"diş</w>":12866,"ahi</w>":12867,"kurş":12868,"ıcılık</w>":12869,"katılımcı</w>":12870,"yürüttü</w>":12871,"Endüst":12872,"oi</w>":12873,"ilmişti</w>":12874,"Eric</w>":12875,"aldıktan</w>":12876,"Özellikleri</w>":12877,"riy":12878,"Akç":12879,"Sony</w>":12880,"çıkarıldı</w>":12881,"enfeksiy":12882,"Fas</w>":12883,"Nu":12884,"sağlam</w>":12885,"yanlısı</w>":12886,"Kaş":12887,"Off":12888,"çet":12889,"aması</w>":12890,"135</w>":12891,"Uşak</w>":12892,"çıkıp</w>":12893,"düzenlenmiştir</w>":12894,"Faz":12895,"ST":12896,"oke</w>":12897,"bulan</w>":12898,"uygulamalar</w>":12899,"kond":12900,"Nem":12901,"bağlayan</w>":12902,"ody</w>":12903,"pilot</w>":12904,"ıysa</w>":12905,"leşmiş</w>":12906,"ükten</w>":12907,"ağr":12908,"Alb":12909,"257":12910,"keskin</w>":12911,"meşhur</w>":12912,"Karşıy":12913,"oter":12914,"benzeyen</w>":12915,"bank</w>":12916,"yumurt":12917,"ikincisi</w>":12918,"mine</w>":12919,"yenler</w>":12920,"konularda</w>":12921,"Broad":12922,"ağab":12923,"Jenn":12924,"Ünlü</w>":12925,"seviye</w>":12926,"ahşi</w>":12927,"irdir</w>":12928,"mühendisliği</w>":12929,"Nort":12930,"Vez":12931,"luca</w>":12932,"gazetec":12933,"Ek</w>":12934,"unca</w>":12935,"Stone</w>":12936,"1876</w>":12937,"156":12938,"teorik</w>":12939,"Matth":12940,"Gust":12941,"oti":12942,"tanımlanmıştır</w>":12943,"klib":12944,"Hoca</w>":12945,"direkt</w>":12946,"ranç</w>":12947,"Örnek</w>":12948,"Web</w>":12949,"enya</w>":12950,"cinsiyet</w>":12951,"betim":12952,"ayol":12953,"topladı</w>":12954,"kabı</w>":12955,"Türkleri</w>":12956,"Ürdün</w>":12957,"vize</w>":12958,"Arnavut</w>":12959,"farkı</w>":12960,"mışlardı</w>":12961,"çiçek</w>":12962,"seyirci</w>":12963,"uyuşturucu</w>":12964,"Gec":12965,"yaya</w>":12966,"Center</w>":12967,"köğr":12968,"Lom":12969,"aleyh":12970,"Alfred</w>":12971,"uyumlu</w>":12972,"siniz</w>":12973,"dağılımının</w>":12974,"cer</w>":12975,"yendi</w>":12976,"ücu":12977,"duvar</w>":12978,"isimlendir":12979,"Hard":12980,"XX":12981,"orat":12982,"256":12983,"sayısını</w>":12984,"Kulesi</w>":12985,"Politi":12986,"Toy":12987,"ert</w>":12988,"İsveçli</w>":12989,"yürütü":12990,"BT</w>":12991,"olim":12992,"204":12993,"ens":12994,"ebilecek</w>":12995,"göze</w>":12996,"900</w>":12997,"bulmuştur</w>":12998,"alay</w>":12999,"efi</w>":13000,"kaza</w>":13001,"Black":13002,"blok":13003,"ingrad</w>":13004,"genel":13005,"Bav":13006,"ketiyle</w>":13007,"melidir</w>":13008,"sebeple</w>":13009,"İslâ":13010,"ağacı</w>":13011,"içesi</w>":13012,"kolt":13013,"iyorlardı</w>":13014,"Pur":13015,"obi</w>":13016,"demli</w>":13017,"Emin</w>":13018,"yavaş":13019,"firması</w>":13020,"Him":13021,"lemiş</w>":13022,"ean</w>":13023,"Çar":13024,"kaybeden</w>":13025,"emri</w>":13026,"krit":13027,"olmaması</w>":13028,"atanmıştır</w>":13029,"Polonyalı</w>":13030,"Burs":13031,"Swift</w>":13032,"Nil":13033,"work</w>":13034,"yapının</w>":13035,"cezasına</w>":13036,"Rumeli</w>":13037,"Cab":13038,"iciler</w>":13039,"landıktan</w>":13040,"kanat":13041,"102</w>":13042,"beyaz":13043,"1903</w>":13044,"ortamda</w>":13045,"anahtar</w>":13046,"Mun":13047,"cas":13048,"tw":13049,"ılığına</w>":13050,"demokratik</w>":13051,"Gabri":13052,"iğe</w>":13053,"Alt</w>":13054,"yapıya</w>":13055,"yaşamıştır</w>":13056,"ütüphane</w>":13057,"Bisiklet</w>":13058,"edilmesini</w>":13059,"hareketleri</w>":13060,"milyondan</w>":13061,"kitapta</w>":13062,"eşte</w>":13063,"eke</w>":13064,"Alice</w>":13065,"Kırgız":13066,"oid</w>":13067,"tiz</w>":13068,"240</w>":13069,"dergisinin</w>":13070,"Karakt":13071,"Hareket</w>":13072,"birincil</w>":13073,"insel</w>":13074,"yerden</w>":13075,"Sırp":13076,"Oblastı</w>":13077,"evden</w>":13078,"hayal":13079,"Eg":13080,"sans":13081,"109</w>":13082,"dökül":13083,"defans</w>":13084,"low":13085,"Yapım</w>":13086,"açıklamada</w>":13087,"vasıt":13088,"İsrail":13089,"ff</w>":13090,"şeyin</w>":13091,"amba</w>":13092,"apur</w>":13093,"çektiği</w>":13094,"furt</w>":13095,"106</w>":13096,"baskısı</w>":13097,"ladığını</w>":13098,"mühendislik</w>":13099,"SS":13100,"helikop":13101,"landığında</w>":13102,"1280":13103,"134":13104,"artış":13105,"iyetine</w>":13106,"üreticisi</w>":13107,"Olym":13108,"cinsel":13109,"imlerin</w>":13110,"başlayıp</w>":13111,"köpek</w>":13112,"Karşıyaka</w>":13113,"denen</w>":13114,"Zonguldak</w>":13115,"propag":13116,"tanımlamak</w>":13117,"Fırat</w>":13118,"önd":13119,"Şem":13120,"modern":13121,"Geç</w>":13122,"153":13123,"ebev":13124,"Sher":13125,"hata</w>":13126,"evlilik":13127,"mahkeme</w>":13128,"ever</w>":13129,"dahan</w>":13130,"Alex</w>":13131,"hükümdarı</w>":13132,"almakta</w>":13133,"olmasıyla</w>":13134,"Green</w>":13135,"trafik</w>":13136,"Açık":13137,"bakınız</w>":13138,"dağlık</w>":13139,"maddesi</w>":13140,"senarist</w>":13141,"Maliye</w>":13142,"Is</w>":13143,"plastik</w>":13144,"takma</w>":13145,"üretic":13146,"Emil":13147,"melerin</w>":13148,"tutan</w>":13149,"suya</w>":13150,"olayların</w>":13151,"laşım</w>":13152,"303":13153,"belediyedir</w>":13154,"Letonya</w>":13155,"Hit":13156,"ikil":13157,"kızıl":13158,"isminin</w>":13159,"Harekâtı</w>":13160,"bırakarak</w>":13161,"Miss":13162,"Tatar</w>":13163,"Giov":13164,"Mand":13165,"şaşır":13166,"başından</w>":13167,"yazıları</w>":13168,"uch</w>":13169,"güreş</w>":13170,"ınar":13171,"sürük":13172,"şeyler</w>":13173,"ilçenin</w>":13174,"etindeki</w>":13175,"108</w>":13176,"bula":13177,"yardımc":13178,"melere</w>":13179,"volkan":13180,"Askerî</w>":13181,"etta</w>":13182,"Projesi</w>":13183,"işle</w>":13184,"meslek</w>":13185,"750</w>":13186,"topluluk</w>":13187,"Strat":13188,"Etim":13189,"Hub":13190,"Yed":13191,"yerleşik</w>":13192,"Güreş</w>":13193,"Abr":13194,"alis</w>":13195,"finansal</w>":13196,"Mücad":13197,"çü</w>":13198,"mediğini</w>":13199,"karşılaştı</w>":13200,"umda</w>":13201,"173":13202,"piyade</w>":13203,"Dost":13204,"düşünülen</w>":13205,"Luis</w>":13206,"Seri</w>":13207,"büs":13208,"yazarlar</w>":13209,"Adıyaman</w>":13210,"Georgia</w>":13211,"isleri</w>":13212,"konsep":13213,"İoannis</w>":13214,"prodü":13215,"Roman":13216,"ebilmektedir</w>":13217,"Ev</w>":13218,"Tümeni</w>":13219,"Heinrich</w>":13220,"Yedi</w>":13221,"Şö":13222,"tarafı</w>":13223,"devir":13224,"istif":13225,"periy":13226,"görünüm":13227,"ittifak</w>":13228,"sia</w>":13229,"207":13230,"Senar":13231,"virüs":13232,"Blue</w>":13233,"Vinc":13234,"bel</w>":13235,"sın</w>":13236,"Ortak":13237,"deprem":13238,"kaynaklı</w>":13239,"ayrıntılı</w>":13240,"yp":13241,"belirlenen</w>":13242,"Zer":13243,"ismin</w>":13244,"gue</w>":13245,"demiştir</w>":13246,"Bür":13247,"Wr":13248,"kuran</w>":13249,"uygar":13250,"takımdan</w>":13251,"Kasab":13252,"darb":13253,"Orijinal</w>":13254,"Zen":13255,"107</w>":13256,"idaresi</w>":13257,"yaygındır</w>":13258,"Rab":13259,"miz":13260,"Avrupalı</w>":13261,"krom":13262,"vili</w>":13263,"Çince</w>":13264,"Ardahan</w>":13265,"çekici</w>":13266,"Kilis":13267,"Sci":13268,"ötesi</w>":13269,"gerçekleştirilmiştir</w>":13270,"koydu</w>":13271,"Tunç</w>":13272,"Milano</w>":13273,"endüstriyel</w>":13274,"tecrüb":13275,"olmasa</w>":13276,"döneme</w>":13277,"Mimar</w>":13278,"Urugu":13279,"Send":13280,"tör</w>":13281,"ayakta</w>":13282,"gömül":13283,"içeri</w>":13284,"bilen</w>":13285,"yetersiz</w>":13286,"hakkını</w>":13287,"tıp":13288,"takib":13289,"topluluğu</w>":13290,"Newton</w>":13291,"Ceb":13292,"Brand":13293,"Doug":13294,"etkinlik</w>":13295,"yiyecek</w>":13296,"bıç":13297,"Çor":13298,"ayının</w>":13299,"Philip":13300,"83":13301,"Go</w>":13302,"sır</w>":13303,"taraftan</w>":13304,"rakib":13305,"ebilmek</w>":13306,"Enerji</w>":13307,"listede</w>":13308,"1880</w>":13309,"toz":13310,"direktörlük</w>":13311,"Connecti":13312,"ors</w>":13313,"Amaz":13314,"Gazete</w>":13315,"haftasında</w>":13316,"çözünür":13317,"etiketiyle</w>":13318,"müst":13319,"yüzlerce</w>":13320,"sunul":13321,"Bahç":13322,"ıyorlardı</w>":13323,"edilmesine</w>":13324,"girişimi</w>":13325,"pencer":13326,"mesele":13327,"tablo</w>":13328,"katılmaya</w>":13329,"ichi</w>":13330,"AC":13331,"PS":13332,"öldüğü</w>":13333,"alarındaki</w>":13334,"dışarı</w>":13335,"Dili</w>":13336,"kuzeybatısında</w>":13337,"Bad</w>":13338,"ikola":13339,"yöntemleri</w>":13340,"senaryosunu</w>":13341,"Ded":13342,"Tur</w>":13343,"partis":13344,"94":13345,"eum</w>":13346,"lamayı</w>":13347,"tarihe</w>":13348,"tiğine</w>":13349,"hâline</w>":13350,"yun":13351,"embe</w>":13352,"diyerek</w>":13353,"vatandaşı</w>":13354,"Komutanı</w>":13355,"aşağı":13356,"köye</w>":13357,"istihbarat</w>":13358,"irdağ</w>":13359,"görevlerinde</w>":13360,"herkes</w>":13361,"galip</w>":13362,"Kağ":13363,"ni":13364,"akc":13365,"Araç</w>":13366,"yazma</w>":13367,"şeklindedir</w>":13368,"ografisi</w>":13369,"Yosh":13370,"nar":13371,"Şampiyonluğu</w>":13372,"değerleri</w>":13373,"gerçekleşmiştir</w>":13374,"Moz":13375,"Ther":13376,"getirmek</w>":13377,"Meslek</w>":13378,"eğitimine</w>":13379,"Napoli</w>":13380,"gâh":13381,"112</w>":13382,"Ral":13383,"mıyla</w>":13384,"ob</w>":13385,"ria</w>":13386,"yeterince</w>":13387,"grubudur</w>":13388,"Kariyer":13389,"Türkçesi</w>":13390,"agan</w>":13391,"Salih</w>":13392,"gro":13393,"olo</w>":13394,"1237":13395,"1369":13396,"Orta":13397,"etkisini</w>":13398,"Romalılar</w>":13399,"ülkedeki</w>":13400,"Sonrasında</w>":13401,"isiydi</w>":13402,"sabah</w>":13403,"oyuncuları</w>":13404,"Little</w>":13405,"ıkça</w>":13406,"sürüc":13407,"yayınladığı</w>":13408,"başarmıştır</w>":13409,"fesh":13410,"Californ":13411,"bilimci</w>":13412,"Vali</w>":13413,"plaz":13414,"1370":13415,"plana</w>":13416,"tedavisi</w>":13417,"sahib":13418,"menz":13419,"Mektebi</w>":13420,"1500</w>":13421,"İnönü</w>":13422,"Orman</w>":13423,"taleb":13424,"Connecticut</w>":13425,"ule</w>":13426,"arda</w>":13427,"edes</w>":13428,"Kitabı</w>":13429,"North</w>":13430,"alırken</w>":13431,"aksiyon</w>":13432,"fazlas":13433,"isiz</w>":13434,"iyye</w>":13435,"çevrimiçi</w>":13436,"Salonu</w>":13437,"Les":13438,"Ts":13439,"po</w>":13440,"Doctor</w>":13441,"Lah":13442,"alım</w>":13443,"boya</w>":13444,"çarptır":13445,"elemeleri</w>":13446,"sırad":13447,"meslek":13448,"töreni</w>":13449,"zafer</w>":13450,"fen</w>":13451,"esince</w>":13452,"olurlar</w>":13453,"203":13454,"oka</w>":13455,"liğiyle</w>":13456,"tüketi":13457,"gele</w>":13458,"vermesi</w>":13459,"osunda</w>":13460,"maddenin</w>":13461,"Francis</w>":13462,"MI":13463,"Nef":13464,"yetm":13465,"tark":13466,"Kanun</w>":13467,"ink":13468,"takımını</w>":13469,"İngilizc":13470,"PE":13471,"olitik</w>":13472,"ropolit":13473,"ndur":13474,"Ankar":13475,"uth":13476,"üdar</w>":13477,"Britan":13478,"cül</w>":13479,"bakım</w>":13480,"Stock":13481,"sistemler</w>":13482,"Euro</w>":13483,"mutlu</w>":13484,"Venezu":13485,"Electr":13486,"lop":13487,"eres</w>":13488,"ayn</w>":13489,"Benzer</w>":13490,"seviyesi</w>":13491,"çatışma</w>":13492,"Hükûmet</w>":13493,"Afyonkarahisar</w>":13494,"rat</w>":13495,"Hz</w>":13496,"Pac":13497,"lilerin</w>":13498,"ilmez</w>":13499,"250":13500,"lige</w>":13501,"ness</w>":13502,"depolama</w>":13503,"zemin</w>":13504,"analizi</w>":13505,"yc":13506,"elinden</w>":13507,"Art</w>":13508,"resm":13509,"uluğa</w>":13510,"sürülmüştür</w>":13511,"Orkestrası</w>":13512,"kulübün</w>":13513,"haftada</w>":13514,"loy":13515,"Dergisi</w>":13516,"mahkûm</w>":13517,"Hend":13518,"ales</w>":13519,"lerindendir</w>":13520,"uli</w>":13521,"Cha":13522,"salonu</w>":13523,"oluşturulmuştur</w>":13524,"Genelkurmay</w>":13525,"Jon</w>":13526,"eklendi</w>":13527,"emy</w>":13528,"ough</w>":13529,"yarg":13530,"öğreti":13531,"zehir":13532,"Kiev</w>":13533,"Müst":13534,"1368":13535,"reng":13536,"kararlaştır":13537,"beslen":13538,"111</w>":13539,"Ton":13540,"azz":13541,"çatışmalar</w>":13542,"ther":13543,"oynandı</w>":13544,"öğrencileri</w>":13545,"Nuri</w>":13546,"agen</w>":13547,"1899</w>":13548,"boşalt":13549,"Ital":13550,"lard":13551,"iha</w>":13552,"modelleri</w>":13553,"valy":13554,"likten</w>":13555,"Kadıköy</w>":13556,"Galaxy</w>":13557,"akademisyen</w>":13558,"nic":13559,
[...]
