<unk>
<s>
</s>
.
,
'
▁ve
"
doc
>
▁<
▁bir
="
/
▁"
▁id
▁title
▁url
="?
curid
▁(
da
▁olarak
de
)
a
▁ile
▁
e
in
-
i
nin
nın
▁için
n
▁bu
▁olan
▁da
lar
’
ler
ın
▁de
▁yılında
▁tarafından
▁Bu
▁sonra
ya
te
s
na
;
ne
:
▁ilk
▁daha
▁en
den
un
nda
nde
dan
ı
▁yer
d
▁ise
dir
ları
k
leri
ni
▁gibi
ye
li
ta
▁çok
▁arasında
u
▁kadar
la
dır
lı
▁büyük
le
▁iki
si
▁veya
▁göre
),
▁oldu
▁bağlı
t
▁Türkiye
▁olduğu
m
daki
nı
2
o
▁bulunan
nun
▁-
ların
▁tarihinde
▁km
lerin
▁birlikte
▁alan
y
z
▁ya
▁diğer
▁Türk
▁A
nden
l
r
lik
▁!
ndan
▁1
▁karşı
▁aynı
yı
center
▁align
en
▁|
yi
▁yeni
▁yıl
▁etti
di
er
▁adlı
sı
yla
▁her
▁3
▁aldı
an
deki
1
▁ilçesine
▁2
▁İstanbul
▁Dünya
▁önemli
3
▁Avrupa
ki
▁adı
▁başladı
yle
▁Bir
▁I
▁ancak
▁eski
▁önce
)"
▁son
4
▁Üniversitesi
▁olmuştur
▁yapılan
ten
tan
▁vardır
▁şekilde
▁4
▁olduğunu
▁üzerine
▁üzere
▁içinde
▁Mart
p
▁sahip
▁kez
▁birçok
5
▁5
▁kabul
ca
7
ti
▁o
lu
▁O
8
▁15
A
▁Ayrıca
larını
pan
▁S
lara
6
▁üç
▁ikinci
▁devam
▁Mayıs
▁gelen
lık
ma
▁yaptı
▁fazla
9
▁Ocak
▁10
▁tüm
▁kendi
▁Kasım
lere
▁yüksek
▁görev
▁eden
▁ilinin
▁iyi
▁tek
▁zaman
▁Eylül
0
▁Ekim
▁Haziran
▁farklı
▁bazı
▁Osmanlı
se
▁Amerika
▁olmak
▁Temmuz
▁ABD
▁Nisan
▁Ağustos
▁üzerinde
▁ardından
sa
▁hem
lerini
▁olup
▁En
▁Aralık
▁sırasında
▁Savaşı
h
▁İlk
f
▁Daha
ken
man
▁geri
▁cols
▁Ancak
larda
me
▁16
▁“
▁6
▁of
tir
S
al
▁bulunmaktadır
▁ortaya
”
▁çeşitli
▁yılları
▁küçük
ce
▁12
▁biri
▁Birleşik
▁E
▁genel
▁Şubat
lerde
▁17
▁boyunca
▁nedeniyle
▁7
▁süre
▁yılı
▁zamanda
&
larının
▁sadece
▁nüfusu
▁yeniden
▁B
▁II
▁20
▁8
▁The
C
dur
▁M
▁C
▁yaklaşık
ün
lerinin
▁2010
▁T
ü
on
▁kişi
▁uzun
dı
g
▁edilen
▁New
c
▁edildi
▁14
▁doğru
▁su
ci
▁the
▁yaptığı
B
▁yerine
▁Genel
lt
▁Almanya
us
▁az
▁Güney
▁rağmen
▁K
▁ana
▁Fransa
b
▁bulunur
▁Coğrafya
▁Yeni
")
tır
▁kısa
▁takım
▁ilgili
lardan
▁11
▁başka
▁özel
el
▁9
▁altında
▁Alman
▁gün
▁Ankara
▁müzik
▁ait
ini
lerden
▁Cumhuriyeti
▁Kuzey
▁13
The
▁tekrar
▁Tarihçe
▁dahil
▁'
▁Kupası
ir
▁merkezi
▁uzaklıktadır
K
ar
sel
▁D
▁almıştır
larına
▁tarihi
▁30
▁İngiliz
▁eder
▁kazandı
▁edilmiştir
is
▁G
▁film
ik
▁ayrıca
▁elde
▁P
▁devlet
ka
▁Roma
es
▁("
▁dört
▁on
lerinden
▁Birliği
tı
▁genellikle
▁millî
su
▁savaş
ine
▁Amerikan
▁Paşa
at
lerine
▁U
▁yakın
▁adıyla
▁F
▁Büyük
ş
▁bilinen
O
▁Rusya
▁ele
▁arasındaki
x
D
▁Doğu
nu
▁yol
▁sahiptir
▁sıra
▁kullanılan
▁sonunda
▁18
▁olması
▁oyuncu
▁&
E
gt
▁Film
ra
▁yapan
▁takımı
▁birkaç
▁hakkında
▁oluşan
▁olmayan
G
T
larından
▁şu
▁beri
I
oğlu
▁çıkan
M
▁sırada
▁onun
▁çıktı
▁özellikle
yan
▁25
▁el
▁El
▁H
▁Her
▁onu
▁grup
▁verdi
▁ne
▁Çin
re
▁köy
▁Ali
▁mahalledir
▁milyon
▁Şarkı
▁sezonunda
▁Devletleri
▁yapmıştır
▁Aynı
lerle
to
▁almaktadır
▁eğitim
▁açık
▁itibaren
larla
▁merkezine
▁Fransız
▁Partisi
▁Ligi
P
il
▁bin
ydı
ydi
▁m
▁neden
▁R
▁Al
▁geldi
▁futbol
▁Rus
▁karar
liği
▁üst
▁İngiltere
▁a
▁gelir
▁inşa
▁etmiştir
os
▁İtalya
▁ama
▁ev
▁26
larında
▁dolayı
▁döneminde
F
▁nüfus
▁24
▁sonucu
▁2009
▁2.
▁il
▁York
▁sezon
▁2012
▁22
▁verilen
▁idi
ndeki
▁Bey
▁toplam
▁kadın
(
▁yanı
▁19
▁tam
ge
▁21
▁adını
ndaki
br
="4"
▁insan
▁listesi
▁Lig
▁iş
du
lü
▁dışında
▁Orta
▁in
▁Amerikalı
▁Anadolu
▁şarkı
▁Batı
▁V
▁sayısı
H
▁alır
▁Kara
▁aldığı
▁23
▁2011
▁olur
▁oğlu
▁rol
▁ay
▁alt
▁İmparatorluğu
▁kariyeri
▁County
mi
lerinde
▁Ödülü
ba
ing
▁itibarıyla
▁De
▁ifade
▁1.
cı
▁etmek
▁temsil
son
et
▁dönemde
▁ki
▁La
no
ia
▁2008
▁şehir
it
ter
▁gol
ktan
▁geniş
▁beş
▁beraber
▁N
▁kalan
▁Şampiyonası
▁albümü
▁2014
▁Parti
▁ö
▁yapımı
▁2006
▁yaşında
▁27
▁sezonu
ton
▁2015
im
▁üçüncü
▁dünya
v
▁fakat
▁iç
▁yıllarında
ov
▁bulunduğu
▁var
lama
amp
ç
spor
▁NGC
▁Bunun
▁Su
va
▁28
▁isimli
ve
▁yine
▁Ulusal
▁temel
ri
sal
▁askeri
mış
▁Uluslararası
▁John
▁edilir
ur
▁oynadı
▁hemen
▁kurulan
▁katıldı
▁hava
▁transfer
î
ır
▁kaldı
▁Han
yu
▁bütün
▁oranı
▁2016
▁futbolcudur
▁2013
▁köydür
▁2007
V
▁dönem
▁geçen
▁resmi
▁–
▁altı
▁filmi
▁Afrika
j
▁üyesi
▁İyi
um
▁pek
▁Sovyet
▁çoğu
▁(19
▁sonraki
▁L
▁orta
▁Azerbaycan
▁doğdu
▁içerisinde
▁mücadele
▁televizyon
▁dizi
luk
köy
▁kullanılır
▁ayında
ını
R
▁yerel
▁uluslararası
▁2020
ga
L
▁grubu
▁biridir
▁tür
lan
N
▁Devlet
ak
U
▁d
▁sistemi
▁çalıştı
▁3.
"),
▁31
▁yıllarda
▁ettiği
▁29
▁bilgi
▁and
▁2000
▁ona
▁deniz
lığı
▁Paris
▁hizmet
▁burada
▁Kaliforniya
▁ek
▁yaşayan
▁San
teki
▁girdi
▁teknik
▁vardı
mıştır
▁çocuk
▁yarı
kten
▁metre
ke
▁yılından
▁forma
▁2005
han
st
sini
miştir
▁ünlü
▁Sultan
▁genç
▁öldü
▁düzenlenen
ko
▁sayıda
▁İran
▁hareket
▁yıllık
▁formula
nün
▁erkek
▁yanında
▁başarılı
▁Fakat
▁maçta
▁Ar
▁ön
▁değil
▁herhangi
▁Oy
▁sahibi
ha
▁Köy
▁siyasi
▁Son
▁günü
▁Fakültesi
▁tespit
▁Diğer
miş
▁olabilir
do
▁Bakanlığı
ist
▁söz
ran
▁başlayan
▁haline
▁Me
▁e
▁Le
be
ed
▁yayın
▁ülke
▁gerçek
▁yaygın
▁ayrı
taki
▁başkanı
▁oldukça
▁Futbol
▁anlamına
▁Mısır
ro
▁ismi
as
sını
-19
▁başına
▁ilan
▁100
men
▁yazar
▁yılına
▁2004
▁benzer
ck
▁konusunda
arak
▁sayımına
▁başlamıştır
▁ortak
▁iddia
▁iline
▁Ak
▁izin
▁X
▁güçlü
▁J
▁Nehri
▁para
▁hiçbir
tur
dür
▁İkinci
▁Er
▁geçti
▁yüzyılda
▁an
▁İspanya
▁değildir
▁güç
▁yardım
▁mezun
der
▁sonucunda
▁parçası
▁baş
tu
▁ilçe
çi
▁amacıyla
nü
▁halk
▁sosyal
go
▁şeklinde
▁başında
▁bilim
▁sık
▁ses
▁Re
▁cm
▁şehrin
▁2018
ması
sine
mak
▁veren
▁yana
▁[[
▁bunun
kan
ö
▁bile
▁kontrol
▁oyun
za
ek
▁alanı
▁Japonya
▁albüm
▁ülkenin
▁video
▁İzmir
▁iken
▁önceki
▁adet
▁yayınlanan
▁uygun
▁Ay
▁bulundu
▁etmektedir
▁meydana
▁Mehmet
▁seçildi
ch
▁yapı
▁İslam
▁kız
▁MÖ
siz
gen
▁Millî
▁yerleşim
▁2017
▁yönetim
▁İ
▁Halk
▁Asya
▁durum
▁İngilizce
▁Ne
film
ol
▁Japon
lo
▁saat
▁Yaz
▁sonrasında
ver
▁İsrail
▁nedenle
▁aday
▁tip
▁sanat
▁ederek
▁Na
▁profesyonel
leme
sen
▁tamamen
▁sayı
▁içeren
▁çıkar
▁Eski
▁Bazı
co
vi
▁sona
mo
▁Mustafa
▁Yahudi
▁çalışan
▁Londra
▁edilmiş
▁s
ley
▁kısmı
▁Eurovision
▁Başkanı
▁kardeşi
or
▁ulusal
W
sız
▁hafta
▁düşük
bi
len
▁Müzik
▁piyasaya
▁sinema
▁Yunan
▁Bizans
▁bağımsız
inde
▁Krallık
▁bölge
▁üzerinden
▁kurulmuştur
▁Grup
▁İki
ry
▁yönünde
▁bilinir
cu
▁2002
▁Ödülleri
▁yalnızca
▁Merkezi
▁ağır
mektedir
▁oluşur
w
▁döndü
▁bölgesinde
▁Yarışması
]]
▁yok
▁yayınlandı
▁Ca
▁alarak
inin
▁verdiği
▁destek
▁konu
gi
▁W
İ
▁İtalyan
▁babası
▁birinci
▁göç
▁Suriye
▁belediye
▁yardımcı
▁kara
▁dış
▁verildi
▁bölüm
▁şarkıcı
leriyle
▁kariyerine
▁at
▁serbest
▁defa
ip
▁olmuş
▁sonrası
▁Yüksek
▁/
▁anda
erek
▁başlar
▁maç
▁Ve
ner
▁50
▁tiyatro
▁ekonomik
▁maçında
▁boş
▁olmasına
iş
▁kuruldu
▁kendisine
▁2019
th
ul
▁doğal
▁Sovyetler
▁2003
▁yapıldı
lerdir
▁şarkısı
id
▁TV
é
▁bölümü
▁kızı
▁enerji
▁eyaletinde
▁Deniz
▁Arap
▁ara
▁hale
zi
▁sahne
▁tipi
▁yüzyılın
Y
▁seçimleri
▁spor
▁to
▁So
çe
▁Hayatı
▁olsa
▁Şehir
▁Merkez
▁beyaz
▁Nüfus
▁Avusturya
▁Ordu
▁An
▁sağ
▁Altın
▁Örneğin
▁Toplam
▁çalışma
▁yani
▁dil
lardır
izm
ça
▁Mo
van
kar
▁din
▁altın
Bu
▁Be
▁yapılmıştır
▁modern
▁hızlı
▁Olimpiyatları
30
▁Fenerbahçe
▁verir
▁dünyanın
mek
iye
▁türü
▁başkenti
▁kötü
▁Ana
pa
▁Buna
▁arası
▁Kıbrıs
▁içerir
▁tarihli
tür
▁yüzyıl
▁çalışmaları
larıyla
▁satın
▁Devleti
▁yapmış
▁şey
ger
▁Süper
▁Z
▁St
▁Kore
maktadır
▁Savaş
▁Avustralya
▁final
▁yönelik
▁yaşam
▁Man
▁zorunda
▁2001
▁ileri
▁kitap
mer
▁Galatasaray
bu
▁Bölgesi
▁maçı
gan
▁yoğun
="6
▁tarih
anlam
▁göz
▁Yunanistan
liğe
▁Dr
▁şehri
▁çift
▁bunu
▁alanında
ze
sinde
land
▁galaksidir
▁FC
▁günümüzde
▁Türkçe
ay
ber
▁söyledi
▁III
▁Kuvvetleri
▁Polonya
▁parti
▁karşısında
▁araştırma
▁yılının
▁yazdığı
▁Kanada
20
ly
çı
▁şehirdir
ğ
sına
▁sayesinde
▁merkez
▁Hava
▁adına
lük
▁yoktur
▁Kurulu
10
▁kurdu
▁UEFA
ji
▁Can
▁yazarı
▁kazanan
dığı
▁yazdı
▁kat
▁stüdyo
▁Eğitim
ja
▁Tarihi
tar
▁No
▁Ahmet
▁edilmektedir
▁popüler
▁dünyaya
▁single
diği
▁artık
▁dair
▁kendini
▁Co
sinin
▁Sa
mesi
▁Hollanda
▁diye
▁Ko
▁Enstitüsü
▁üzerindeki
▁William
▁sürekli
▁derece
▁Lisesi
▁ayrımı
ev
▁Bununla
▁aşağıdaki
▁Festivali
▁yedi
▁Burada
▁Bar
tik
▁40
▁bölgesi
▁hiç
▁Hindistan
▁batı
ında
▁Muhammed
▁belirli
▁Ha
sının
▁kuzey
▁öne
▁kendisi
▁Öz
▁çünkü
▁geleneksel
ad
▁%
ova
▁kişinin
▁idari
▁Köyün
▁aile
▁kazanmıştır
▁zor
▁al
▁takip
▁Windows
▁In
▁futbolcu
▁İl
▁lig
X
▁etme
▁tarihleri
▁sanatçı
▁arkadaşı
="3
▁bölgede
ut
▁Okulu
▁ilgi
▁giriş
▁1999
▁altına
▁dönemi
▁attı
▁Böylece
▁seçim
▁Van
ot
▁Ma
▁puan
J
▁halinde
▁kurulmuş
▁kan
▁Kariyeri
="9
bo
▁madalya
▁taşıyan
▁Başkanlığı
▁Ama
La
▁Cumhuriyet
▁Profesyonel
fa
▁ordusu
▁To
▁Pro
▁görevi
▁la
▁Şehrin
▁yıldız
▁sınır
▁oynanan
▁ışık
19
▁4.
bir
▁değer
▁gelmiştir
▁ilçesi
▁yabancı
▁19.
fi
ül
▁Sonuçlar
▁takımyıldızı
="19
▁çıkmıştır
▁kişilik
▁gösteren
▁Özel
▁Mar
▁İsveç
▁Grubu
▁oyunu
▁Spor
▁Lo
▁Ordusu
▁eşi
▁James
▁Y
▁oy
▁Belediye
▁güney
▁Krallığı
▁Ben
▁ili
▁David
▁Gürcistan
▁konusu
▁etmiş
▁mahalle
▁etkisi
▁İç
▁Do
▁Ermeni
▁Berlin
▁sene
▁canlı
▁Beyaz
▁mevcut
Z
ah
▁ölçüde
ker
▁Müslüman
▁yaş
▁metal
▁1998
▁resmî
▁ilçesinde
▁açıkladı
can
▁grubun
▁Kemal
]
Ö
▁dizisi
▁kullanarak
▁yasa
▁Birinci
▁On
▁gece
▁isim
▁model
▁Muharebesi
ey
▁Tek
▁adında
▁tercih
▁eğitimi
▁Küçük
ına
▁Kral
▁sol
▁olma
▁doğu
▁üye
▁yapmaktadır
▁şirketi
tepe
▁sistem
▁süren
▁asker
▁doğrudan
▁milletvekili
▁etmeye
▁görülür
▁sözleşme
▁Bakanı
▁Se
▁di
let
▁re
sk
▁işgal
▁Meclisi
▁yeri
▁gösterir
▁dikkat
▁(),
ster
▁kent
▁bilgisayar
▁kendisini
lin
▁gelmektedir
▁fark
▁üretim
▁plan
▁yüz
▁Kültür
▁dili
▁inç
▁çevre
▁yapmak
▁Vi
▁yan
▁kültür
iz
▁açısından
▁dördüncü
▁sınırları
▁siyasetçi
▁Te
▁Di
▁FIFA
▁veri
▁verilmiştir
▁Irak
▁sırasıyla
▁Akdeniz
▁erken
▁yerini
▁ortalama
▁çocuğu
▁nasıl
▁hak
▁Kadın
tü
▁yılındaki
am
▁kullanılmıştır
▁(18
▁ticaret
▁normal
ör
▁örnek
▁radyo
▁bölümünde
▁1992
ru
ic
▁kitabı
▁çaplı
▁Tarih
▁Da
▁Yaşamı
▁Moskova
▁Michael
▁Bo
yen
unu
ım
▁hayatı
▁kesin
kullanılmaktadır
▁bulunmuştur
▁şehrinde
=6
▁alındı
sh
▁keşfedilmiştir
▁Go
▁Beşiktaş
▁1994
yum
▁Kulüp
▁Güneş
▁saha
▁1995
▁etkili
▁yazı
▁1996
▁dini
▁etki
▁parça
▁He
▁çizgi
▁aktif
▁Du
▁Sanat
▁taş
leşmiş
▁üyeleri
lığa
▁sağlar
▁kırmızı
▁Ka
▁Günümüzde
–
▁Derneği
▁ziyaret
▁2012'
▁Müzesi
▁uzak
▁Si
▁tahmin
▁böylece
▁=
▁durumu
▁öncesi
▁hayatını
▁gitti
▁ödül
▁görevini
▁yolu
▁Kadınlar
▁yüzden
▁Kar
▁arka
dere
40
▁i
▁vermiştir
NGC
▁Akademisi
▁tane
▁Bursa
▁zengin
hi
▁tamamladı
▁2020'
▁elektrik
▁yaşadığı
▁bilimsel
▁1991
▁annesi
▁ince
▁terk
▁giren
nce
▁sağlayan
▁dışı
15
En
▁eş
▁der
▁yönetimi
▁kökenli
▁mevcuttur
▁takımında
▁kaynağı
▁yapılmış
mon
▁olmadığı
▁üretilen
▁gerçekleştiril
▁1990
00
▁As
sında
▁geçirdi
▁f
▁hala
mar
▁Kızıl
▁1993
▁kararı
▁adamı
▁Robert
▁2011'
▁Britanya
▁et
▁Po
▁Kilisesi
▁Tanrı
▁Or
▁k
▁filmin
▁Paul
▁bazen
Sa
▁Bunlar
▁Ni
▁astronom
▁denir
▁alınan
▁oyuncusu
▁Ro
▁1997
▁başta
▁gördü
▁başarı
▁oynadığı
▁katı
▁başlarında
▁silah
ion
▁kaynak
▁p
▁City
lanan
san
▁Baş
▁5.
so
▁Hasan
▁George
lardı
▁2017'
21
▁top
▁Tüm
▁kuzeyinde
▁siyah
2'
▁içindeki
▁dakika
je
▁Teknik
pe
▁uzay
▁amacı
▁2016'
▁neredeyse
▁müziği
▁orijinal
▁ölmüştür
▁Bi
▁Aday
▁hükûmet
▁Özellikle
▁Ta
abilir
▁İsviçre
▁şirket
▁2009'
▁Brezilya
dy
▁2018'
▁çapında
▁finalde
▁sivil
▁bilinmektedir
▁Pa
▁göstermektedir
ers
▁ayrıldı
▁yayımlanan
▁edilmesi
▁atandı
▁özellikleri
▁toprak
▁araya
▁Hristiyan
▁buna
▁hatta
ğı
▁almak
▁kulübünde
▁gücü
▁sebep
▁çoğunlukla
dar
▁dalga
▁Efendi
▁Ba
▁onları
▁Portekiz
▁takımın
▁yükseldi
▁2019'
ının
▁Ukrayna
▁2014'
▁yayınladı
▁açtı
▁Albüm
▁söyler
▁tur
▁sekiz
▁belli
gu
▁Li
▁İlçenin
▁Stadyumu
ron
▁Park
▁2008'
var
▁almış
▁mi
▁karakter
Ar
▁Los
▁2015'
ecek
▁savunma
Geçersiz
Ş
▁ulaştı
ren
17
16
▁ülkede
▁insanların
▁faaliyet
▁çalışmalar
▁ailesi
▁sebebiyle
▁durumda
ku
▁tarım
▁yaz
▁bitki
▁Camii
▁Havalimanı
▁Şah
▁60
▁ila
▁biçimde
▁2007'
shi
▁Dönem
▁ticari
25
Ha
min
ll
▁madde
ty
chi
▁yoluyla
▁teslim
▁takımının
▁Fa
▁bitirdi
▁klasik
▁Müdürlüğü
ser
▁Konseyi
▁giydi
18
▁kar
başı
▁Dış
▁ateş
▁Çok
▁Basketbol
ret
▁sert
▁öğretim
▁kullanımı
▁Kur
▁2013'
▁b
▁günlük
▁oluştuğu
▁yapısı
14
les
▁yavaş
▁listesinde
ham
▁İbrahim
▁Oyuncu
▁dönemin
▁General
▁doğumlu
▁Charles
ez
em
▁karşılık
acak
▁teleskopla
▁kendine
▁nüfusunun
ok
▁yapmaya
▁mm
▁roman
▁geçiş
▁köyü
▁oluşmaktadır
▁tedavi
▁öğrenci
▁Hukuk
▁sabit
layan
▁insanlar
▁oluşturan
▁evlendi
▁Atatürk
▁olmadığını
▁Karadeniz
!
kları
cık
▁Per
▁lisans
▁Ra
▁1990'
▁Gölü
▁ordu
▁kaybetti
▁gerekli
lanmış
▁Pe
▁geçer
▁kentinde
▁ölüm
▁geçmektedir
▁sağladı
70
50
11
▁2010'
▁alma
▁kralı
▁Bal
▁olacak
▁sağlık
▁okul
="11
▁kalmıştır
▁Takımı
uz
▁sağlamak
▁Peter
▁çalışmaya
▁yayımlandı
▁güneyinde
▁Car
▁Lu
▁hakkı
▁Aydın
▁Katalog
▁sahipliği
▁pozisyonunda
▁zarar
▁araç
▁hayvan
▁Federasyonu
▁gaz
tra
▁Grand
▁Osman
eli
▁Gökyüzünde
▁Şu
ie
up
▁Üç
▁Mu
liğini
▁32
=3
▁yapılır
tor
▁özelliği
▁Yine
▁Sosyal
▁adam
▁1989
com
▁Uzun
90
▁Adası
met
fe
▁yıllar
fer
yken
▁oluşturur
27
▁programı
▁Oyunları
▁yapar
▁üretimi
Al
▁sayılı
ıp
▁Erkekler
▁c
▁sarı
ian
▁Bölümü
▁performans
q
rak
▁aracılığıyla
▁sınıf
▁İrlanda
▁yerde
▁İspanyol
po
lanma
▁emekli
▁alanda
▁arada
▁yük
▁Trabzon
▁gelebilir
▁standart
▁World
▁do
▁getirildi
▁olay
gar
▁6.
▁polis
▁mümkün
▁ilişki
▁35
▁değişik
▁20.
▁TBMM
▁ilinde
▁hafif
▁önünde
▁2021
▁lideri
vo
23
▁Süleyman
▁resim
▁suç
▁kalma
▁güvenlik
▁Arjantin
ng
▁saldırı
▁motor
▁bölgesine
▁hedef
Se
tal
▁haber
▁doğum
▁şöyle
bar
▁1980'
▁nedeni
▁Belediyesi
▁fiziksel
▁İnsan
▁renk
▁Babası
▁bazıları
▁for
▁işaret
▁çıkış
lak
12
▁0
▁Sam
▁olduğuna
▁filminde
▁Dağı
▁kurulu
▁Mi
▁koruma
▁200
▁henüz
▁sefer
▁Bulgaristan
▁Meksika
á
▁:
pi
Ma
▁ölümünden
▁etmesi
▁halkı
=
▁Mac
▁baskı
▁yaparak
▁eser
▁yüzünden
yo
▁kültürel
▁uçak
▁Microsoft
36
▁Ev
ebilir
per
▁dolayısıyla
▁hukuk
▁Ga
▁Belçika
▁filmde
▁üniversite
▁Tur
ris
▁Angeles
Le
▁Adana
="10
▁Antalya
▁içine
bey
▁Final
ski
▁1980
▁güzel
▁belirtti
wa
▁seri
ho
▁Birçok
▁olduğundan
ant
▁[
▁Erzurum
off
▁imza
▁Milli
▁Jean
▁At
▁aşırı
="2"|
▁sürdü
22
▁eseri
▁bugün
▁adlandırılan
▁yönetmen
▁Ri
lenmiş
▁maçına
▁geç
▁yandan
Kara
▁kilise
▁Ver
sin
▁von
▁1988
▁karşın
▁gemi
don
▁Hüseyin
▁şampiyon
▁görülen
29
91
ros
96
▁Sivas
▁Kralı
lat
▁basit
inden
▁My
24
▁orada
Me
▁kulüp
▁gizli
▁Denizi
▁merkezli
39
nca
▁milyar
▁içi
▁Gül
▁Ge
▁Ho
▁Nazi
▁gösterdi
▁güneş
▁hazır
▁şair
▁NBA
▁)
▁aslında
▁halka
▁1987
▁er
▁ak
▁kale
▁ikisi
▁gerek
▁verilir
▁1970'
▁asıl
▁Bay
▁noktası
60
▁Konya
▁ödülü
kin
95
▁Ardından
▁ciddi
▁yere
▁Dışişleri
▁Çağ
▁Har
▁rock
â
▁sonlarında
▁tahta
▁Cumhurbaşkanı
▁Hint
▁şiir
▁kapsamında
-18
▁Con
pınar
▁görüntü
▁Hitler
▁konser
▁Adaylık
▁1984
▁barış
▁cinsel
▁şampiyonu
▁sonradan
▁ilişkin
▁1986
▁anlamlara
▁katılan
="8
▁kullanan
nik
lanır
▁dile
▁kişisel
32
▁internet
Türkiye
▁ağ
▁Samsun
▁uygulama
▁dağ
▁zayıf
az
▁Komünist
liğin
▁kişidir
▁Sosyalist
="6"
▁hızla
▁Katolik
asyon
▁kişiler
▁Demir
▁Bölge
▁aksine
▁gereken
▁Milletler
▁Antlaşması
▁yaşındayken
▁Macaristan
▁ortadan
▁birisi
▁Mehmed
taş
▁Ahmed
▁doğan
▁Pan
Bir
?
▁antik
▁yılda
▁Eğer
▁kullanıldı
▁istifa
hane
%
▁Tom
he
35
▁başardı
▁ismini
▁seçilmiştir
▁Tiyatrosu
io
Ne
▁Ölümü
▁2006'
▁Yu
▁getirdi
▁Fransızca
▁anlaşma
▁geçmiştir
ür
▁biraz
▁ettiler
ville
unun
▁giderek
▁giden
▁Hacı
▁League
▁Fe
bel
▁yerli
▁oynayan
▁oldukları
▁Eyaleti
▁kuvvetleri
yon
▁Ek
▁taşındı
▁İş
▁bunların
▁sanayi
▁kullanılabilir
zan
▁yapma
▁mal
▁Olimpiyat
▁iletişim
lis
▁Martin
▁yurt
55
ius
▁Chi
▁IV
▁kg
▁7.
▁sonuçları
▁Adaları
▁itibarı
▁esas
13
▁geldiği
▁1982
45
▁Gürcü
▁ısı
▁web
▁Norveç
net
kaya
▁Var
▁yılın
▁Antik
▁toplum
▁imzaladı
▁Kal
▁babasının
▁Gi
▁‘
▁civarında
▁Başkan
▁eşit
▁vermektedir
ts
а
▁Kırım
34
▁ada
▁asıllı
▁kimyasal
▁toplamda
▁ilişkileri
▁yarış
berg
31
De
ık
▁Ermenistan
75
▁takımına
▁girmiştir
▁Ö
+
▁Jo
▁1985
48
▁1983
▁düzenli
▁Filmin
▁Ja
▁1960
▁başkan
▁dek
▁Ke
38
lay
▁yeşil
▁"(
▁çekti
▁hakları
Kategori
▁edilebilir
▁Genç
▁Dağları
las
▁onların
lılar
▁Meclis
97
ap
▁Dil
▁katıldığı
▁Henry
80
▁hücre
▁nokta
aj
▁yerleşimi
kleri
▁köyün
▁Kan
▁rolü
▁geçmiş
▁sonuç
▁Yönetim
▁birbirine
▁pazar
▁gümüş
iyle
lenen
▁Komitesi
▁Oyun
▁You
▁kuş
▁Thomas
▁gerekir
▁90
▁bölgeye
▁Love
▁Cor
▁Cha
Na
▁çekildi
ana
▁liste
▁test
▁engel
ara
▁kayıtlarında
giller
Re
una
-1
▁yemek
▁askerî
▁İsa
94
▁as
▁Adam
▁bıraktı
▁ilişkiler
▁genelde
▁yaşadı
▁zamanında
▁Danimarka
▁hükûmeti
▁Ku
▁finale
▁başlamış
▁dans
▁Venedik
▁sıcak
▁edebiyat
▁Gün
07
tis
iyet
86
▁tehdit
mann
▁darbe
▁işlem
▁sarmal
▁savaşı
▁Washington
▁dönüş
▁gerektiğini
idae
nes
▁Kısa
37
▁Ki
▁Sarı
▁amaçlı
▁türüdür
▁Gu
▁çalışır
▁45
▁önde
▁Sol
▁1928
▁kolay
▁kayıt
▁Parkı
dü
49
▁çıkardı
▁Va
33
▁dolar
ac
sta
▁Şampiyonlar
▁sıvı
▁yayınlanmıştır
▁durumunda
87
▁albümün
▁United
▁etnik
▁asit
▁1970
▁Finlandiya
▁beşinci
▁gerçekleşen
▁1960'
▁Açık
▁Çek
cılık
▁sahipti
▁şehridir
▁yazılan
▁Doktor
▁kullanılarak
99
El
▁kamu
▁dizisinde
▁kulübü
▁kral
▁dalında
▁demir
▁Ya
41
▁tasarım
28
▁Yıldız
▁Erkek
ven
▁Yerli
▁sorumlu
▁Papa
▁kilometre
▁Güzel
▁Araştırma
tz
▁vb
▁yüzey
▁satış
▁politik
ina
▁Tu
▁zamanlarda
▁Richard
▁seçimlerinde
▁kullanım
▁modeli
▁gider
▁petrol
▁hareketi
▁devre
▁Baba
▁yanlış
▁Dar
ang
▁derin
oloji
▁Latin
▁Genellikle
Be
▁serisi
ard
▁g
▁Top
▁babasıdır
by
46
▁bas
▁yaşamı
uk
mıştı
▁böyle
▁önem
zo
▁otomobil
▁()
▁sonuna
▁karmaşık
uş
landı
š
▁günümüze
maya
▁Vakfı
▁gören
▁ders
▁çalışması
▁Diyarbakır
▁bunlar
▁80
▁doğusunda
▁Bel
▁Akademi
▁+
▁başlıca
▁ölümü
▁halde
▁elinde
▁Gar
▁ton
▁Romanya
▁Saint
▁teklif
▁davet
leşme
▁istedi
▁Ol
▁proje
ino
cilik
lanması
▁Hi
▁batısında
▁aynalı
Mo
▁Is
▁Ci
▁yazılmış
▁birliği
▁Arapça
▁yaşanan
har
▁Records
yor
▁lise
▁olumlu
▁benzeri
▁Don
▁zamanlar
▁isteyen
lon
▁kullandığı
47
▁türleri
▁başladığı
din
tin
▁eline
▁Mor
▁birimi
▁aralarında
▁Ti
▁Tan
▁All
if
ünü
Ka
▁aracı
sch
▁ekiplerinden
▁almaya
▁tren
▁Taş
▁Pers
▁ülkeler
▁yazılım
▁eyalet
▁Yarı
▁Tiyatro
▁medya
▁ürün
▁ekibi
▁iklim
▁Lee
71
suz
▁önceleri
kon
her
▁Fatih
▁Sağlık
▁Mark
▁geçici
▁Kulübü
▁70
▁adlandırılır
▁program
▁Yer
ment
▁ceza
▁sürdürdü
▁görülmektedir
▁Video
▁takımları
▁başlandı
▁1974
|
▁düşman
Türk
▁bölgenin
▁Louis
89
▁versiyonu
44
▁Yüzölçümü
ban
▁Kalesi
▁anlamda
▁İsmail
▁yönetmenliğini
▁Ber
▁Cu
rat
▁Sırbistan
▁Murat
62
▁Atina
▁kadınlar
▁duyurdu
▁sezonunun
▁Evli
sar
isi
▁seyahat
kal
▁buz
cik
▁Ön
▁West
▁Cup
▁kaza
67
▁ligi
ından
▁anti
▁birlikleri
▁sanatçısı
▁bakımından
▁ediyor
▁olmadan
▁ailesinin
▁Tam
▁Kaya
ünün
▁gösterildi
▁Sal
▁düşünce
eri
▁yönettiği
26
▁bakış
lenir
tt
▁katılmıştır
▁talep
ks
▁8.
▁av
▁desteği
▁Modern
▁1979
▁gazeteci
76
ab
▁Ru
▁idam
▁kalp
şi
ği
▁Frank
▁Savunma
▁yağ
▁pop
▁maruz
▁sınıfı
▁numaraya
▁sinir
▁eserleri
▁ad
▁Üçüncü
▁Mahkemesi
▁ta
▁1981
▁Ara
▁yeterli
▁yakınlarında
▁önceden
miz
▁düzey
▁toplumsal
▁basketbol
▁yapım
▁ağaç
▁kurucusu
▁buldu
▁altındaki
▁mağlup
▁hüküm
lığını
▁direktör
▁düz
▁1978
ize
▁muhtemelen
kov
▁Gazi
▁tarzı
▁Joseph
▁geçirdiği
▁çevresinde
che
▁süresi
▁Kudüs
▁oynamıştır
▁taşımaktadır
▁500
od
ici
93
▁Rock
▁Güvenlik
68
▁idare
▁Kim
lenme
▁adım
▁Par
▁kullanır
▁hız
ong
▁değeri
▁hayatta
▁klip
▁Makedonya
▁sezonda
rit
ling
▁se
hat
▁ihtiyaç
▁yönetmeni
▁komedi
▁gitar
val
▁görüş
▁vermek
▁şekil
▁9.
yordu
▁renkli
▁Devrimi
▁Viyana
Ç
▁1973
04
▁Takım
▁Star
▁1968
ladı
▁dünyada
ıyor
▁takımlar
▁Barış
vin
▁telefon
▁Ömer
▁kendisinin
▁Hu
▁Roman
▁adayı
▁halkın
▁x
▁Jackson
rt
▁DNA
sıyla
▁işbirliği
▁saf
78
▁katkıda
▁Arka
▁Aziz
▁başarısız
▁Üniversite
▁edildiği
▁İmparator
▁gelişmiş
▁Kış
▁eserler
▁Q
▁teşvik
▁kaya
▁teknoloji
64
Li
gerçekleştirilen
88
▁Arnavutluk
▁gazete
ıl
▁1965
▁maça
▁Sar
zade
▁kuvvet
sinden
mu
▁bilgiler
▁hayat
▁1976
▁sezonun
▁koyu
dil
▁çoğunluğu
▁düştü
Yeni
▁ma
▁Apple
res
08
ss
▁Fi
57
▁Sarayı
▁karakteri
74
▁İn
▁bağ
▁dijital
▁kamera
▁Dan
lem
42
▁müzisyen
▁Mü
▁°
▁Madrid
▁ürünleri
▁Hanedanı
▁suyu
▁miktarda
▁yolcu
▁Adalet
▁Maria
▁1972
▁kuru
59
▁örneğin
ig
ent
▁tanınan
lendi
▁18.
▁Ce
▁etrafında
baş
Ro
92
▁kapalı
▁elektronik
▁Selçuklu
▁Beş
▁ederken
▁yardımcısı
▁ekonomi
Si
▁yola
▁başkanlığı
▁kol
▁mu
▁Çanakkale
▁yasal
▁ressam
▁Tar
▁Google
▁tepki
Ü
54
▁alınmıştır
▁kulüplerinde
▁sistemleri
▁dik
▁bağlantılar
▁2005'
▁olaylar
▁verme
hu
▁hattı
▁oynamaktadır
▁mavi
▁te
▁temsilcisi
▁yaşlı
▁Tıp
▁aittir
▁Hot
luğu
gel
▁kaydetti
▁yapılması
iç
▁küme
▁Bulgar
73
▁İlçe
ud
í
▁Mer
▁Altı
layarak
65
▁kıyısında
▁opera
▁ödülünü
▁Red
▁Komutanlığı
▁1975
▁yirmi
▁demiryolu
▁Kayseri
▁soğuk
▁komutanı
▁Ticaret
06
▁1977
||
▁Mal
meye
▁bağlantı
▁Ye
▁vergi
▁Sha
▁öz
ydu
▁ayak
diğini
77
▁erdi
▁kod
▁hangi
op
▁Erken
▁gözlem
▁yöntemi
bet
▁Bundan
72
▁sınırlı
ft
▁Büyükşehir
▁sıcaklık
▁karısı
iyor
▁Za
▁oluşturduğu
▁Cephesi
▁açıldı
İngilizce
▁açıdan
▁kurucu
▁Black
▁sürede
▁Yunanca
▁hikâye
▁grubunun
▁dergisi
▁Sen
▁1971
lim
▁Kürt
▁Bankası
▁Ju
▁Kitap
▁Zaman
▁kasaba
▁Am
▁ister
▁Tri
▁çıkmış
ou
▁işçi
ó
▁kap
▁değildi
▁Demokratik
▁Rum
▁yüzde
▁hayatına
jo
▁Bilim
▁Bunların
şa
kı
Q
▁Doğan
▁Tour
▁Mersin
▁bina
▁Men
▁çıktığı
▁unvanını
▁süreci
dığını
▁art
▁kopya
84
▁şunlardır
▁boyu
▁1950'
siyle
▁etkin
▁Karl
▁sayım
▁kelime
▁filmidir
▁mimari
qui
▁özgü
е
▁esnasında
▁konuşma
53
▁sebebi
43
▁Tra
Katılım
▁üyesidir
05
▁33
▁onlara
▁Herschel
▁görevine
veya
▁cam
▁esir
Su
▁Ab
▁senesinde
▁malzeme
▁36
eceği
81
▁eğitimini
▁Pi
▁ayrılır
▁Show
▁devletin
▁Sezon
▁açılan
ä
▁geliştirme
▁Val
▁bünyesinde
▁öncesinde
Ra
▁1945
▁alanları
▁seçilen
▁başarısı
▁gönderildi
▁Kutsal
▁Şirket
▁Çünkü
bit
▁korku
ysa
▁ötürü
▁Bosna
▁Kent
▁kanal
▁belge
▁dağılımı
▁Ada
▁eleme
▁ikili
▁gelmiş
▁Kon
▁giyen
▁besteci
▁16.
▁terimi
que
▁Kraliyet
▁eğer
ō
▁çocukları
▁geçerek
▁Kastamonu
▁tarafında
▁kıyı
01
▁Edirne
▁34
▁Ekonomi
▁sa
▁Kurtuluş
▁dokuz
▁olmakla
Ta
the
▁bağlıdır
tes
▁üstlendi
▁Sir
▁be
sü
▁yorum
▁ailenin
▁1969
▁38
▁şarkının
0.000
▁Mc
▁eşlik
▁kullandı
▁Ger
85
▁yanına
▁edip
▁is
bin
lam
▁1961
▁oluşturulan
▁Para
▁numaralı
▁kanun
▁gruba
58
cha
▁boya
ral
tel
▁Fer
▁felsefe
▁kazandığı
▁Play
▁Şa
low
▁del
▁ülkelerde
▁Sırp
laşma
▁10.
03
▁düşünülmektedir
▁du
▁no
▁çeşit
▁durumlarda
▁me
ney
▁tarihsel
▁Balıkesir
ju
▁kalın
▁takımlarından
▁seçimi
▁Almanca
▁yaşamaktadır
Te
▁Sonraki
▁Art
▁dedi
cılar
ağı
▁teorisi
▁karşılığında
▁olmaya
▁tıp
▁ka
▁yönetilen
▁kanalı
52
▁ar
maz
▁yapılmaktadır
▁forması
▁siyaset
▁küresel
▁hasar
▁Kız
muş
ans
yse
▁Del
mişti
▁Kazakistan
▁ayı
▁Voleybol
▁yumurta
▁Ad
▁birisidir
▁Ağa
Bo
gin
98
▁We
ası
▁şampiyonluğu
wi
▁türlü
▁hastalığı
▁Eskişehir
▁37
ören
▁uzunluğu
02
tus
▁reklam
▁fotoğraf
▁açıklama
▁sürümü
▁Prix
▁olacaktır
lüğü
▁Şam
▁1964
▁etkileri
▁alternatif
▁Yol
▁1963
▁11.
ef
▁yarışma
▁erkekler
▁Az
▁Ren
om
An
79
▁Ege
09
▁şehirde
66
▁MS
evi
▁savaşın
ice
▁1950
▁ayrılmıştır
oz
▁dayanan
dal
ura
ış
▁Hem
▁2004'
sından
▁kon
▁Ze
▁varlığı
▁gemisi
▁Music
▁Ser
▁1967
▁cami
▁gelişme
▁bugünkü
▁kaldığı
▁çalışmalarına
Fa
▁İşçi
▁Gençlik
▁yöntem
▁genelinde
ff
▁bar
▁İlçesi
▁tarihlerinde
In
▁ettiğini
▁kanıt
▁önüne
▁silahlı
▁Edward
▁Abdullah
▁Es
▁yazılmıştır
=30
▁uzanan
▁ordusunun
▁imparator
▁göstermiştir
▁bölümde
▁ortasında
Er
▁Pu
▁hasta
▁Arizona
▁zamanla
▁dilleri
▁özellikler
▁açıklandı
▁başkent
for
ep
▁Boy
▁orman
Do
mus
▁WWE
▁gıda
ğa
▁Bra
▁Daniel
ano
▁gördüğü
▁hat
▁kullanma
▁belediyeye
▁solo
▁yazmıştır
▁tarihinin
▁yargı
▁Yan
▁analiz
▁1956
▁yapımcı
▁Aşağı
▁Kor
▁geliştirilen
▁artan
▁sergi
▁Çocuk
Co
▁dayalı
▁seyirci
▁sisteminin
▁hakim
▁romanı
▁hızı
▁görüldü
▁Askeri
unda
tro
=19
▁Demokrat
▁Selim
▁Yerel
▁Pop
▁kalır
▁Sonra
▁nüfusun
▁atan
▁Manisa
▁ederler
▁öğrencisi
hisar
▁One
liler
bra
▁kuruluş
▁uçuş
▁gruplar
▁başkanlık
▁yakıt
▁biriydi
▁yapıldığı
▁dolu
▁cevap
▁Ata
ford
▁Kurumu
▁attığı
▁denilen
▁öldürüldü
▁işletim
▁derecede
▁uzaklıkta
▁evinde
▁Sun
▁akım
ys
dik
▁1966
lerdi
▁hakkındaki
▁kardeş
▁2000'
▁kart
▁Smith
lidir
▁yazılı
▁Alan
▁beyin
▁Filistin
▁TRT
▁Bunlardan
lanmıştır
51
bil
▁doğa
▁örgüt
▁ölümüne
▁sıklıkla
▁nesil
▁acı
▁ölü
zar
▁olduktan
▁baskın
▁dergi
▁kurduğu
▁Köyü
▁1959
▁kısmında
▁paralel
ras
▁Komisyonu
ska
ama
▁Kay
▁kontrolü
▁değişiklik
▁manyetik
▁filmleri
▁tarihte
altı
▁saldırısı
▁sporcu
▁Bugün
Ak
▁Fin
ther
▁liman
▁1962
▁plak
▁Bakü
▁sonu
ktedir
▁tipik
▁isyan
▁kısmını
▁Yayın
ola
▁Real
albüm
▁korumak
1'
▁anlamı
▁gerçekleşti
car
▁300
ny
▁Onun
bas
ktadır
▁1954
▁),
▁Sta
▁okudu
eti
▁Ed
▁süper
▁Sayımı
▁kullanılması
▁yaptıkları
▁bulunması
82
lanarak
="25
▁kenti
▁olumsuz
3'
▁insanları
▁yayımladı
▁Hanım
▁dev
▁aşağı
▁Anne
▁nükleer
­
nan
▁Ortodoks
▁yerlerde
▁17.
▁sürüldü
▁yarışı
▁başı
ps
▁tasvir
▁bölgelerde
▁or
▁Başbakan
▁Aşağıdaki
To
eceğini
▁Çoğu
▁bundan
zer
▁göreve
▁yaşamış
▁kendilerini
▁köşe
▁Ebu
▁ulaşım
ril
▁parlak
▁işlemi
▁(;
▁müdahale
we
▁Fu
63
▁Bilimler
▁Kosova
▁Av
=9
▁Çağı
▁iptal
ıcı
▁Ç
=11
▁Mon
▁Edebiyat
zen
?"
▁Haçlı
▁13.
pp
▁van
▁göl
▁birer
▁Club
▁olmasını
No
▁ilişkisi
▁saray
▁Konusu
▁dışındaki
▁politika
▁kütle
▁duvar
▁aileden
mp
Büyük
▁kullanıcı
yev
▁tanınmış
▁gösteri
▁Jack
▁marka
▁Latince
▁adının
▁karakterini
▁1946
▁Min
kta
▁aktör
▁kısmen
▁içermektedir
▁gönderdi
▁Din
▁Yılın
▁Bor
▁Türkmen
▁başlangıçta
▁Uzay
dağ
So
kat
▁42
ix
▁oyunculuk
zu
▁Balkan
▁komündür
▁arama
▁aylarında
Ni
▁olayı
▁Mag
▁Yeşil
▁statüsü
▁mesafe
mez
▁75
▁anne
▁Yaş
▁Macar
▁sözcüğü
mat
▁belirgin
lenmesi
▁Sanayi
▁Yugoslavya
▁şarkıları
▁1944
▁Kongresi
şe
án
▁Sinema
▁olayları
▁uç
▁lider
▁unvanı
▁çalışmalarını
▁le
▁voleybol
▁merkezinde
▁Radyo
▁doktora
у
▁şarap
▁Yılmaz
▁oluşturmak
▁numara
▁Bre
56
▁dar
▁Nur
idir
▁dönemlerde
▁Bas
▁Yusuf
▁Belediyespor
▁Litvanya
▁taraf
▁başlattı
▁intihar
tre
▁İdari
▁dönen
▁artış
par
▁bölgesinin
▁takıma
▁ben
▁ülkesi
▁araba
▁köle
▁tanınır
▁Gök
▁Carl
-2
▁Afganistan
top
ali
cü
▁insanın
▁katılma
lıdır
▁gösterilmiştir
▁çekilen
▁Federal
▁performansı
art
▁rapor
▁zemin
▁meyve
▁yarısında
▁galibiyet
▁geçerli
▁Ah
▁turda
▁golünü
▁tabanlı
▁gösterdiği
ation
▁For
rin
▁It
▁görsel
▁Manchester
▁rolünü
gal
▁sorunları
▁asist
mir
▁filmler
▁bölümünü
▁Hall
▁Körfezi
▁İli
▁fikir
▁Live
83
▁arasına
▁Wa
lığın
▁layık
▁sözü
▁ilişkili
▁boy
▁Prof
▁dava
field
▁tasarımı
▁sözleri
▁1957
▁okulu
▁inşaat
▁görevinden
▁yılların
▁kişilerin
▁Ur
▁mü
iyordu
leyici
▁çıkardığı
▁t
▁taşı
▁hariç
▁hastalık
▁Ban
▁55
▁balık
▁yarışması
Ba
▁150
▁Vadisi
▁Zelanda
▁planı
▁kaydı
til
▁satışa
▁toplama
▁u
▁konuk
▁Sel
▁çalışmıştır
sidir
▁hazırlık
▁kır
▁Sistemi
▁yara
▁SSCB
_
▁sorun
▁Saray
69
▁CD
▁bayrağı
▁pilot
▁işleme
▁birinin
▁projesi
▁COVID
▁Jan
▁can
ā
▁;
Mi
▁Kurt
▁Wi
▁uydu
!"
▁Massachusetts
▁güreş
▁kişiden
yer
▁Silahlı
▁vokal
leyen
▁arazi
▁değerli
▁Marmara
61
He
▁alanlarda
lerdeki
▁tanrı
▁kavramı
▁1948
▁Kafkasya
lia
▁Örgütü
▁65
=29
▁albümleri
▁yapılar
▁fi
▁tehlike
▁listesine
▁şarkılar
▁dersleri
▁taşır
▁kaynakları
▁işi
esi
▁katkı
uri
▁kültürü
ledi
▁Alt
▁Musa
▁kelimesi
▁köprü
▁kutsal
▁evlilik
▁kas
▁1955
ram
▁getiren
▁çağdaş
ú
ladığı
▁meclis
▁Dört
▁Santa
▁dizinin
▁si
Di
au
▁şekli
öz
▁tepe
nd
▁gelecek
▁üstünde
▁olanak
abilen
▁kendilerine
▁Albümün
▁Tor
▁den
▁tartışma
imi
▁fizik
▁gövde
▁metin
▁gerçekleştirdi
▁Çe
▁güçleri
▁profesör
▁Entertainment
▁jüri
yar
▁parçaları
bur
▁Koleji
▁binası
▁400
▁Çelebi
▁kitabında
▁taarruz
▁1943
▁kaleme
▁görülmüştür
▁Zi
▁Bütün
▁Topluluğu
▁anlatır
illa
▁ekran
▁araştırmalar
▁yenerek
▁Pat
▁olmaktadır
▁şeker
▁akademik
ciler
▁birden
▁çalıştığı
▁Prens
▁sayılabilir
▁arkadaşları
burg
bek
▁Pakistan
▁şehristanı
▁evli
▁Ertesi
▁Cemiyeti
▁oyunları
▁cinsiyet
▁devleti
18,7
▁köyünde
▁isimler
▁Komünün
ince
▁Kars
ec
▁kristal
▁kazanarak
▁Söz
▁altıncı
As
bal
▁ulaşan
▁bölgesel
▁doğmuştur
▁Bölüm
▁Sinan
▁basın
▁edecek
▁işe
▁Teksas
▁Dizi
gü
▁hane
▁47,5
о
▁Kendi
▁tamamı
▁14.
tim
▁istediği
▁Albert
ero
▁Sch
▁oyuncular
▁vücut
▁Sur
gun
▁değişikliği
▁kanat
▁muharebe
▁alması
▁48
▁mümkündür
▁Ter
TV
▁Anna
▁$
▁müze
▁yalnız
▁Virginia
▁Tokyo
lardaki
▁kadınların
stra
▁Harry
▁Rey
mı
▁ilham
ung
▁blok
▁Hal
▁Anayasa
▁hazırlanan
▁bölgedeki
▁Alp
▁SS
▁Şeyh
▁Sakarya
▁Angel
ell
paşa
▁işletme
▁kuruluşu
▁rengi
▁başlayarak
▁bölgelerinde
▁kapsayan
▁hizmeti
▁Williams
▁Konu
▁yasak
▁aşk
▁Nüfusu
▁ruh
▁yardımıyla
▁ekip
▁Mel
▁1941
tum
▁park
▁Der
▁Tel
kara
▁bronz
▁özgün
▁Bunu
▁yerinde
▁coğrafi
çu
▁uygulaması
▁anahtar
8'
tr
▁otomatik
▁yapımcısı
▁Orhan
▁büyü
▁Demografi
▁Euro
▁kare
▁Bon
bat
▁Kas
▁tarihçi
▁kalmış
▁mikro
▁Gor
▁Bur
▁bölümleri
▁satan
▁patlama
▁Far
bol
▁görür
▁saygı
ıyordu
ire
▁toprakları
▁baba
▁dilinde
▁çözüm
▁Nu
▁şarkıyı
▁pro
▁baskısı
▁komşu
▁Ş
ach
▁na
▁yaşamını
▁sal
▁bölgeleri
cho
▁oda
5'
▁Kale
▁formasını
▁mahallesi
-3
▁organizasyon
▁bulunmaktaydı
▁Max
cak
▁64
▁Amatör
▁Kütahya
mız
▁şiddet
▁İs
mekteydi
log
av
▁Hükûmeti
ağa
rma
▁Özerk
▁matematik
▁albümüdür
kent
▁Tarım
▁şimdi
mal
ben
tion
▁valisi
▁takımda
▁deri
▁taşıma
Ca
▁tanıştı
dra
aş
▁sayfa
tay
▁Kanal
üm
▁kuşatma
▁senaryo
▁özerk
▁Yukarı
Da
▁potansiyel
▁birim
▁karşıtı
▁kal
▁fikri
▁mezar
▁Yaklaşık
▁girer
▁hapis
▁halen
▁mezunudur
▁varlığını
▁AB
▁değişim
▁düşen
▁kapı
▁makine
▁39
▁2002'
▁King
ić
▁komutasındaki
▁olacağını
▁zafer
▁Et
▁Jersey
▁1953
▁öğretmen
▁üyeliği
▁Mary
▁Asyalı
▁işgali
sey
▁İskoçya
▁Münih
▁bağış
▁2003'
▁kış
▁Ailesi
▁oluşturmaktadır
▁Mah
▁Ala
▁gen
Ke
▁karşıya
▁dişi
▁halkının
▁Karolina
Konstantinopolis
ə
kor
▁çeken
▁ölen
▁1999'
▁bit
▁karbon
▁olası
▁hizmete
wood
Man
▁kazan
▁görme
▁şehirler
▁Sadece
Ko
▁Kongre
▁değişken
▁konum
tti
▁Kanunu
▁Nobel
▁sağlamıştır
▁Ülke
▁Emir
▁getirir
▁Günü
4'
▁12.
▁gösterime
▁İmparatoru
lek
▁1930'
▁konuda
▁şampiyonluk
ica
▁organize
▁Air
▁(17
tri
▁Nokia
Ho
▁denge
▁Tokat
▁Je
nos
▁başlanmıştır
6'
▁mil
vet
▁makale
▁Finali
▁imparatorluk
Vi
▁Green
rik
ier
gon
▁Brown
ğını
▁Grubun
▁tablo
ise
bert
▁değiştirildi
lip
▁hal
▁yaklaşım
="13
▁savaşa
▁aylık
tma
▁ağı
▁yükselen
Lo
▁terim
▁uygulamaları
▁tanesi
Mar
▁ilçedir
▁eyaletinin
▁Mezarlığı
▁içeriği
▁kurum
▁boyutlu
▁•
▁Yarışma
▁gereği
▁play
▁sundu
▁v
▁Mahallenin
▁Alexander
▁vererek
▁1952
▁yarım
▁ligde
▁1920
Avrupa
▁dakikada
▁1942
Türkçe
▁programında
▁doktor
▁özellik
▁1940
dis
▁2021'
▁tayin
▁Kol
▁FA
▁akıl
hal
▁disk
▁Kaynakça
layıcı
▁kökeni
▁servis
▁Company
▁1920'
Pa
▁ülkelerin
▁Super
▁hesap
▁başladılar
▁Devletler
▁ertesi
-16
▁Ham
▁düzeyde
▁güven
▁Yarımadası
ora
▁turizm
ella
pen
▁yaşındaki
San
▁ondan
▁yanıt
▁ağırlıklı
▁Hastanesi
▁Lübnan
ray
▁tatlı
▁oyunun
▁savaşta
▁albümünü
▁yönetiminde
▁düzenlendi
▁Trabzonspor
tek
▁“"
▁olsun
▁familyasından
▁1000
▁mimar
▁uyar
▁onunla
bay
▁reddetti
="1"
▁grupları
▁ayrılan
▁şiddetli
▁açı
▁çatışma
▁sahil
▁International
Kar
=8
▁faaliyetleri
▁Erdoğan
▁etmeyi
▁yatırım
▁ikna
eddin
▁arasındadır
▁Yapı
▁Florida
dor
age
▁san
▁Bilgi
▁Millet
▁çıkma
▁Temel
▁boz
▁üste
ting
▁kolu
▁edilerek
▁hepsi
▁Hırvatistan
▁Gaziantep
▁bireysel
▁Chris
▁seçilmiş
Ya
mur
▁Sanatlar
▁anılan
▁büyüme
ón
▁yangın
ph
-15
▁adamları
landığı
mb
▁alıp
▁Royal
istan
▁doğrultusunda
▁yağış
▁süreli
▁bomba
▁sonuçlar
▁antlaşma
▁alana
▁hayata
▁1958
▁Arabistan
▁Üyeliği
iki
▁olmuştu
▁Yardımcısı
▁resmen
▁alınarak
▁öykü
likleri
▁1992'
▁kalıcı
▁forvet
▁süt
▁İnternet
▁bırakıldı
lamıştır
▁Kum
ilen
▁Yıl
tter
);
▁değişen
▁Okyanusu
▁Allah
▁kısaca
▁Yıldırım
Billboard
▁52
▁duruma
▁Big
▁Has
sis
▁firması
SS
▁şirketin
▁Çorum
abilecek
▁Gen
los
-17
▁yoğunluğu
▁geliştirilmesi
▁vermeye
▁Chicago
▁Sin
▁süreç
▁(1
▁Android
▁binlerce
tif
rek
ıdır
▁bilgileri
oid
▁politikacı
well
▁uzunluğunda
▁kere
▁ayrılarak
leştirme
▁Dağ
▁Türkler
▁belirtir
▁Malatya
▁hayal
č
▁EP
▁üstün
ecektir
gil
▁sınırı
▁Stalin
▁miktarı
süz
▁açıkça
▁döner
▁ayrım
▁Jones
kte
▁birimleri
▁yerleşti
▁bakan
▁sıradan
Her
aç
▁Siyasi
▁kalıntıları
▁sürü
masına
▁kullanıldığı
▁basınç
▁oranda
-10
▁em
▁ağırlık
▁kısım
▁ke
▁li
▁(16
cy
▁Pre
▁isteği
yn
▁ortalarında
▁Vietnam
▁sayede
mm
▁mahkûm
_2
▁1939
▁algı
lanabilir
▁43
ium
▁Çeşitli
▁41
▁44
lerindeki
▁şehrinin
▁ters
▁parçasıdır
ow
▁Koruma
▁Au
▁insanı
▁1998'
▁Premier
▁ç
▁nehir
▁kanalında
▁Cem
▁gerilim
▁birini
▁Sonuç
▁Che
▁düzen
▁zorunlu
▁National
▁gücünü
▁47
▁per
▁geçmişi
tta
▁1935
▁krizi
alan
▁açılmıştır
▁albümde
▁Listesi
▁1918
İstanbul
▁1947
▁Turu
ınca
▁toplu
▁Pasifik
▁görünür
ika
▁Ulu
con
▁cephe
ria
▁Of
▁1949
▁Bölgesel
▁klibi
▁değişiklikler
▁genetik
ıyla
▁dir
▁erişim
masını
Ge
▁rekabet
▁hizmetleri
▁maddeler
laş
mik
▁katılımcı
▁Liga
▁gönüllü
▁parlamento
▁cihaz
▁Altay
▁bulur
▁tekli
▁Ceza
▁kuvveti
▁tarihindeki
▁War
▁Bağdat
▁rakibi
▁cumhurbaşkanı
▁isimleri
▁sosyalist
▁2001'
▁amaç
▁söylemiştir
ens
▁yaşama
▁zamana
▁giymektedir
"”
▁bildirdi
▁bilimi
▁pozitif
▁Halil
▁amatör
▁belgesel
▁Hay
ile
▁Mahmud
▁ilaç
jan
▁ödeme
▁alınması
▁kapsamlı
tör
▁maçın
▁Kupa
▁Rusça
▁sesi
▁harekete
▁partisi
▁askerleri
lâ
▁yüzyıldan
▁temas
▁1951
▁Anti
▁ürünler
▁çalışmaktadır
▁DVD
▁Moğol
▁örnekleri
▁kahraman
▁46
▁süreçte
port
mışlardır
▁Scott
▁konuşan
▁sitesi
▁Hat
▁kadro
▁Suudi
▁Fas
▁şansı
▁Mil
▁arttı
▁teori
▁mektup
ita
▁meydan
▁Orman
▁kimlik
▁Ker
▁protesto
▁par
▁Fen
▁bulmak
▁kurulması
▁grafik
▁yapılacak
и
▁görülebilir
▁Şanlıurfa
▁gök
▁Simon
muştur
ish
▁diş
▁kimi
aklı
ary
mit
▁Şarkının
Cumhurbaşkanlığı
ello
▁bağımsızlığını
9'
▁Birlik
▁tarihine
▁ha
▁yüksekliği
Jo
▁anlaşması
of
▁yönetici
▁Yaşam
▁sap
▁1930
▁Geç
▁ikiye
ket
▁pay
▁seviye
▁senarist
▁Grammy
olog
▁İmparatorluk
▁Dönemi
▁emir
est
şan
▁otel
▁kullanmak
▁Kuş
ılan
gg
▁1997'
eği
▁Cami
▁cezası
rem
fo
▁suikast
▁Slav
▁anlatan
▁sıkı
mil
▁yakınlarındaki
▁birbirinden
▁Pazar
▁şeyi
▁vermiş
Ay
▁yöntemleri
▁Klasik
Ben
▁biçiminde
▁özgür
▁ilerleyen
sun
▁mahkeme
▁Rio
▁düzenleme
▁tank
▁Koç
▁bağımsızlık
af
▁köyde
cher
▁hep
hl
sak
kol
▁Donanması
sha
Po
lendirme
lit
▁partinin
Pe
▁üstlenmiştir
▁suçlu
▁müzikal
▁l
▁Erzincan
▁1936
▁VI
Ja
larındaki
▁İskender
▁temiz
▁gerekçesiyle
▁geliştirilmiş
kes
▁olmasından
▁Friedrich
▁görüşü
▁besin
Fi
▁sak
▁maçları
acağı
▁başlangıç
▁h
▁kemer
nis
▁iz
üs
▁gelişimi
▁animasyon
▁olacağı
▁elektron
▁canlandırdığı
way
▁eylem
ari
▁Mars
-4
▁net
▁güncel
şehir
▁Aşk
▁bi
▁Göl
▁Başka
▁Kilise
▁Hoca
▁karşılıklı
▁1991'
ر
▁Seferi
tos
▁gösterilen
▁Kalkınma
▁kay
▁geldiğinde
▁Şili
▁zırhlı
ich
▁soru
▁politikası
▁oldular
▁tekniği
▁örneği
▁karanlık
▁kişiye
▁pi
▁Day
▁alkol
▁bulunuyordu
▁Buffy
▁Shi
ih
▁Okul
▁Francisco
▁anayasa
▁sendromu
▁komünist
ns
▁Cam
▁sonlarına
▁çıkması
▁57
kel
▁1923
xi
▁Televizyon
▁ayar
▁puanla
▁bayrak
▁yakınında
▁tanı
liğine
▁Belarus
▁ahşap
▁modelleri
▁atmıştır
OS
▁ilçesinin
▁eğlence
ılır
row
▁Col
ds
▁hükümet
▁uçağı
▁hata
▁Mardin
Pro
▁OS
▁Bil
ct
▁meslek
▁Caddesi
▁ihtiyacı
▁54
▁İçişleri
▁albümünde
yal
▁ücretsiz
sıdır
▁yağmur
▁Üst
leyerek
▁usta
▁—
▁Saat
▁Şen
ub
▁Ekonomik
▁NATO
▁yazma
▁ün
▁buzul
▁hikâyesi
▁1924
û
bus
▁derecesi
▁dikkate
▁Gazete
▁y
▁getirdiği
▁sorgu
lus
▁dayanmaktadır
▁sonraları
▁yaparken
ses
▁sistemin
▁am
Ali
▁avukat
emi
▁istasyonu
dos
▁gazetesi
▁yerleri
ight
▁albümünün
mesine
▁dayanır
▁kullanılmaya
▁çeyrek
▁eleştiriler
▁yedinci
▁1-0
▁vali
▁geçiren
org
-5
▁Il
▁şüphe
▁araçlar
▁verimli
▁gezegen
▁biçimi
▁sürgün
▁Ken
▁yapması
▁ba
▁Çalışma
▁motoru
▁Seri
▁girişimi
▁dönüştü
leştirilmiş
ib
▁kafa
Bar
▁atom
▁hali
acağını
▁Timur
gün
▁orkestra
▁BBC
▁tutuklandı
▁düzenledi
▁1938
▁deneme
▁hit
▁topluluk
▁ata
▁Seçim
amaz
eb
▁kaybı
ori
▁ittifak
▁mekanik
▁ekonomisi
▁Estonya
▁Artvin
▁Aslan
▁okyanus
▁etkinliği
▁anıt
▁kaleci
▁sorunu
▁kuramı
▁töreni
▁mekan
▁yaşta
▁yüzyıla
▁terfi
▁Parlamentosu
▁olmaması
▁Afrikan
▁rakip
▁oluşturdu
▁bellek
="12
▁Birkaç
▁düşer
▁Un
▁yolları
▁sıralama
▁mali
▁Kendisi
▁geçtiği
▁1933
▁(15
ite
▁Kazan
▁Yozgat
Or
▁Nor
▁Polis
çü
örneğin
▁turu
▁posta
set
▁1996'
▁Hill
▁çekirdek
▁kurma
▁Gece
▁finalinde
▁kırsal
mekte
▁Vo
▁Annesi
abad
▁kadrosunda
laştırma
▁değin
▁salonu
▁bol
▁Rize
▁Alaska
▁Hareketi
▁girdiği
▁üstlendiği
ktaydı
▁çıkarak
▁keşif
▁kupa
▁Life
▁piyade
▁kemik
▁birlik
▁cins
▁hedefi
zon
▁Dal
▁yaşar
▁Serbest
▁icra
▁evi
ë
▁çağ
▁akıllı
▁yöneticisi
▁Aile
rus
▁Kamu
▁oluşuyordu
▁Hazar
▁kıyasla
▁meclisi
▁tak
▁ülkeleri
ato
▁May
▁Ağ
▁Koca
▁Sho
ona
▁kalabalık
▁Sanatçı
dem
▁hayvanlar
vel
▁dönme
▁kazanmış
▁banka
▁Nar
▁eyaletine
▁Konferansı
▁Başlangıçta
▁Gaz
=20
▁yön
▁rolüyle
▁anlam
▁heykel
▁gelerek
▁alfabesi
▁Savaşları
▁uyum
▁olabileceği
▁Atletizm
▁1940'
▁ediyordu
▁önemlidir
▁belirtmiştir
▁diğerleri
▁denk
▁2-1
▁Milletvekilliği
▁Dor
▁önlemek
▁Elizabeth
▁bölümler
▁Muğla
▁analizi
▁kaynaklar
▁tanım
▁Halep
▁ismiyle
▁turnuva
▁kanser
mes
▁sahneye
▁dizide
▁Yakın
▁56
▁görevlisi
▁ulaşmıştır
istik
lendirilmiştir
▁kazı
▁Yolu
▁işleri
▁kıta
▁kök
▁önemi
▁Hor
▁testi
▁Boz
▁teklifi
▁eleştiri
▁Formula
Har
▁Göz
▁zamanlı
▁arkasında
▁serisinin
▁tanındı
▁olmasıdır
mos
▁aşı
▁1919
▁Çevre
▁1921
▁geriye
▁oyuna
▁1922
▁(%
lla
▁girmiş
▁olursa
uç
▁Mir
▁72
▁topu
▁gerektiği
▁Zo
▁Tre
▁çocuklar
pol
▁topraklarına
▁protein
▁tanımı
▁Pas
▁kentin
tsu
▁okuma
▁Young
▁49
▁Küre
▁has
▁Hareket
▁müdürü
Dünya
▁olmayı
▁Stone
▁Hükümeti
▁120
hr
▁gelindiğinde
▁kariyerini
▁kaba
▁asla
▁filminin
▁ülkeye
=25
▁hidrojen
▁bo
▁sunuldu
▁yukarı
▁White
▁Kişisel
▁kimse
▁tabi
▁Denizli
▁gelişim
▁ortam
▁bölgeyi
▁dahi
▁Mont
▁yıldızı
▁nispeten
▁uygulanan
▁UNESCO
sil
▁gelmesi
ucu
▁Sicilya
▁geliştirdi
▁anılır
cumhurbaşkanlığı
▁vurgu
▁es
▁konuş
▁Vali
▁alanlarında
ê
▁1934
▁Ash
eg
▁Oscar
▁getirilmiştir
▁Masa
▁getirmiştir
▁53
=10
▁Tren
kle
oviç
▁1925
▁yenilgi
▁sistemine
▁general
▁bağlantılı
▁katılım
makta
▁1927
▁CHP
line
▁açar
sim
▁ettikleri
▁sağlam
▁Say
nt
▁pa
▁Miss
▁başrol
▁daire
▁Teknoloji
▁inceleme
▁İstasyonu
▁etkiler
▁zamanı
▁Bin
bor
▁üyelerinin
▁günümüz
cus
▁Plan
cer
oma
my
▁kadının
▁olduklarını
New
▁Yahudiler
▁hükümdarı
▁kamp
▁yönde
▁sanatı
▁kuantum
▁1945'
▁Tak
▁Çi
▁değiştirme
▁enerjisi
▁sorunlar
▁yıldır
▁numarası
▁yayımlanmıştır
▁şarkısıyla
▁Köprüsü
Ga
▁Lord
▁ci
Farsça
ula
▁toplanan
▁arasından
era
▁edici
dizi
▁Kat
▁15.
▁yoktu
▁Bak
▁Seçimleri
▁co
è
▁maddi
▁çiçek
▁uzman
▁birbirlerine
▁çekim
gur
▁cilt
hem
▁eşcinsel
eh
▁Program
▁vi
▁dışına
▁Ses
▁değişimi
▁tıbbi
▁nadir
▁Ford
р
▁sokak
▁Yasası
▁Mus
▁verilerine
▁siyasal
▁nüfuslu
ring
gue
▁sunucu
▁Öte
sto
cia
▁Farsça
▁Pir
▁Gri
▁miktar
▁çekilmiştir
▁değiştirdi
▁Motor
▁Resmi
▁sayıları
▁diğeri
▁değişir
▁görevinde
▁Bell
▁maddesi
lığına
▁türler
▁Yönetimi
og
▁Maine
▁Web
▁Kong
▁oyunlar
▁saniye
acaktır
rie
lenmiştir
▁gri
ure
ân
▁başvuru
▁site
▁bulunmuş
▁Mimar
▁piyano
▁Gal
▁Em
▁noktada
▁roket
▁yerleşme
▁yazıları
▁askerler
▁kilisesi
▁51
▁uğradı
▁kolayca
▁tasarlanmış
▁FK
▁sistemini
▁des
nas
ms
▁Port
▁Kanun
▁Şahin
▁kum
lediği
▁Brezilyalı
▁Karabağ
▁başbakan
▁She
▁kurmak
stan
▁mühendisliği
fen
▁çıkarılan
▁kocası
▁diplomatik
▁1937
▁Malta
▁direniş
▁güvenli
▁Bob
▁farkı
dikleri
gı
▁koydu
▁adları
▁subay
▁ideal
▁Mahmut
▁biyolojik
▁bölgesinden
▁Cezayir
▁ufak
daş
▁kitapları
▁Prusya
▁bilgisi
▁tamamlamıştır
▁1995'
yl
▁oksijen
kh
▁milli
▁Parlamento
▁vatandaşı
="289
mesini
▁Kel
iler
MS
▁belirlenmiştir
▁döneminin
▁araçları
▁ayrılmış
▁Selanik
▁demokrasi
mel
▁Endonezya
▁Johnson
▁Leon
avi
▁Sim
▁açılış
▁Gür
▁konumu
▁Bad
▁eserinde
▁futbolu
▁Group
▁buraya
▁1993'
▁Kahramanmaraş
▁alanlar
▁açan
▁üstüne
▁yapay
▁Ülkenin
▁Koreli
▁58
▁sonuçlandı
▁dizisinin
▁düzeni
kü
▁hâlâ
▁günde
°
▁ölçü
▁bağlantısı
▁Holding
▁tuz
sur
▁direktörü
▁takımıyla
▁Times
▁frekans
2)
ex
▁Metin
▁kadrosuna
raf
▁kategorisinde
iyye
ous
[
nus
▁organı
tic
▁hisse
▁Wilhelm
▁Şehirdeki
▁yetersiz
elli
▁bulun
▁programları
klarını
▁saldırıya
▁Model
▁rüzgâr
▁Güreş
▁canlandırdı
ıt
▁kurban
▁tarihten
▁Amasya
▁bunlardan
▁İbn
▁ziyade
▁Shin
▁mükemmel
▁Not
▁Şehri
kla
▁listelerinde
▁filozof
▁oran
▁sürecinde
fan
▁Up
▁Şirketi
▁Fox
▁Rıza
▁kimya
▁başkanlığını
ls
▁Hong
▁kur
Rus
▁Hol
▁maden
▁ra
▁toplumun
▁Ağrı
▁tavsiye
▁akış
dia
="291
▁federal
▁kodu
▁College
▁gelişmeler
▁Kraliçe
▁Bill
▁ağırlığı
▁vermesi
▁anı
=4
▁vefat
şarkı
▁gelişen
▁Turizm
▁Dede
▁ayırt
▁yay
ios
▁Araç
▁Meydanı
▁çerçevesinde
▁r
▁Adı
▁MTV
▁sistemler
▁teşkil
▁Mahallesi
yü
▁destekleyen
▁Mat
▁yasası
▁tanıma
▁Opera
▁deprem
▁yörünge
▁dağı
▁suyun
▁1926
▁Karşı
▁arkadaş
one
Tu
▁bakım
üp
▁biyo
▁Geleneksel
rum
▁fonksiyonu
▁1917
▁hükümeti
▁Villa
ebilen
vir
▁tatil
ović
▁Gerçek
-12
müş
▁Ölüm
▁çaba
bre
mut
▁katılmış
dim
del
Ri
▁gönderme
▁Pen
▁İşletme
ebilecek
▁risk
▁Us
=7
ity
▁kahverengi
▁defans
▁1994'
▁Yo
▁harfi
▁bunları
▁Dev
▁çoğunu
▁Pri
▁edebiyatı
▁kayıp
▁alınmış
öl
yol
MÖ
▁Vol
▁hacmi
yama
▁iklimi
▁1914
▁davranış
ي
▁with
sson
▁Vladimir
▁sabah
▁gerekmektedir
▁Gra
▁Haber
▁devamı
▁hatır
▁üreten
lanmaktadır
▁62
sion
II
sor
▁Kırmızı
▁Hatta
▁tamamlayan
▁çay
▁tarihinden
▁etkinlik
▁fabrika
▁sıraya
▁alınır
▁Çayı
▁Kütüphanesi
▁vaka
town
▁yapımcılığını
▁tarif
▁tanımlanır
▁Time
▁Mad
▁Hollandalı
▁oğulları
▁Eserleri
▁olayların
▁Yani
▁yendi
=289
▁n
▁yazısı
▁karışık
▁Küba
AS
▁Tunus
▁Pek
▁Madalyası
ι
▁iktidar
▁Kır
▁festival
▁Oğuz
▁Mes
▁buradan
▁kütüphane
▁yiyecek
▁göstermek
▁gökada
▁dergisinde
▁Karadağ
▁Antonio
▁not
ımı
mayı
▁Çift
▁bilinmemektedir
▁bölgesindeki
▁SK
▁belirlemek
▁Doğal
stein
▁yeteneği
▁kaynaklarda
▁yönetti
▁aktris
Rusça
▁doku
bul
▁mensup
ū
▁girerek
▁endişe
Pi
ettin
▁donanma
▁komuta
▁eyaleti
Hersek
▁Yahudilerin
kçe
▁gelip
▁neticesinde
▁Pra
▁ifadesi
▁parçalar
▁Ray
▁Wil
▁çatı
mis
-6
▁köpek
▁dönemlerinde
▁tedavisi
cker
▁68
oy
▁Tatar
lenebilir
▁rahat
▁olmalıdır
▁dosya
▁soy
▁olduğunda
▁yedek
ğu
▁optik
▁alıyor
▁otobüs
ette
▁Osmanlılar
▁Romalılar
▁korunması
▁Aleksandr
▁63
▁Hollywood
▁formasıyla
şar
▁mobil
▁poli
▁Ji
▁Mas
ilir
▁devir
▁Tepe
▁ab
▁atarak
▁İz
▁Arthur
Du
▁muhalefet
▁gayet
▁oluşmuştur
▁fa
▁Önce
▁akademisyen
▁Kir
▁denen
▁1912
▁Dili
▁olmaları
Ti
-14
▁kariyerinin
▁Başbakanı
▁oynamaya
▁Konservatuvarı
▁Bolu
▁öğrenimini
▁öğrenciler
▁markası
▁tanımlar
ata
▁halklardan
▁Dairesi
▁Mirası
▁sürmüştür
▁And
▁gerçekten
▁School
▁pe
▁öğretmeni
▁çalışırken
sol
▁kullanmıştır
▁yarışmada
▁Fo
▁bölgeler
▁Ex
▁şehre
▁tarz
▁getirmek
▁oradan
▁Şi
▁hatları
▁çelik
▁Alex
▁çekici
▁Juan
cal
▁Mihail
▁sürdürmektedir
▁aşkın
▁yürürlüğe
section
▁Lise
▁gazetesinde
▁görmek
tme
▁işler
▁Siyasal
Arapça
▁Harp
▁kurgu
▁Pierre
▁kemeri
asyonu
▁Carlos
▁1989'
▁zaten
▁Night
▁Ziya
▁seçimlerde
▁Poli
▁Mühendisliği
▁açıklamıştır
▁verilmesi
▁Com
▁Barajı
▁mağara
ılma
▁po
▁tutar
Son
tem
▁donanım
▁76
▁sağlamaktadır
▁bal
▁man
▁Boğazı
izasyon
▁büyüdü
▁zorla
=5
vat
▁Ag
▁aşamasında
▁değerlendirme
ES
bank
▁Antakya
▁atlet
▁görmüştür
▁getirilen
▁şeyler
▁imha
sia
▁felsefesi
▁harita
▁Polonyalı
▁ürünü
zel
▁sağlığı
gül
▁karakterler
▁dönemine
rı
win
▁deney
▁Pensilvanya
▁müşteri
▁sessiz
▁Cer
▁verilmektedir
▁üstü
▁Os
▁gönderilen
nak
▁1931
▁İzlanda
▁Lewis
▁tel
▁sattı
▁istasyon
▁fon
▁topladı
▁gruptan
tha
▁sisteminde
and
gre
▁şarkısını
▁Kılıç
▁North
▁Kap
▁mimarisi
▁Fizik
▁birlikler
▁cinayet
▁Tuna
▁Trakya
▁Ruh
▁merkezidir
و
▁yumuşak
▁Joe
▁depolama
▁mor
mas
▁Karaca
▁söylenir
▁ağız
▁başlıklı
▁yolculuk
▁kim
▁ırk
▁teknolojisi
▁Libya
▁Christian
▁kariyerinde
▁alanına
▁gösterilir
▁1932
▁görevli
▁Ateş
▁etkisiyle
ves
▁Rose
▁Tim
hir
▁Lenin
▁çektiği
oğulları
▁Yazı
▁ip
▁eskiden
mba
▁Arena
▁anlamında
▁ko
▁sahte
▁Ok
▁plastik
▁it
▁1915
▁Gemi
▁gerçekleştir
▁Yedi
▁fe
jin
▁uygulamalar
▁Giresun
‘
▁yazılar
▁Hatay
▁(3
▁biçim
▁kurmuştur
des
▁piyasa
▁trans
iv
dıkları
▁uyuşturucu
ılmış
▁yazarlar
▁66
▁Gre
▁kaybeden
▁tabaka
abileceği
▁baz
▁tüfek
▁Elazığ
▁Yavuz
_1
▁1929
ction
▁yazan
▁saç
▁kraliyet
▁takma
şı
▁ikincisi
▁Marie
▁Türkçesi
▁Tro
▁sandalye
▁ter
▁Gold
▁Cemal
▁Bol
▁so
▁drama
ré
▁olayın
▁olmasının
türk
ilmesi
▁Kocaeli
▁baraj
Ce
ami
tasyon
▁fırsat
▁paket
bon
▁yıldan
▁muhalif
▁Championship
SA
▁Yayınları
Car
▁harf
tas
▁sürüm
▁Hy
▁Eli
▁akışı
▁karşılaştı
▁Hükûmet
▁va
▁öncü
▁American
▁Sinop
▁uzaklığı
▁girişi
▁dikkatini
▁hâlen
▁Bilgiler
▁özelliklerini
Can
▁Taylor
▁Napolyon
▁Long
▁çevresindeki
Don
▁herkes
▁kesiminde
▁şampiyonluğunu
▁yeraltı
▁bağı
▁istediğini
▁sinyal
▁aşaması
▁operasyon
▁ülkeden
▁yarışmasında
ili
▁Kanadalı
▁yazında
örü
Go
▁Island
▁ortamda
▁organik
▁kurşun
▁çekimi
▁deneysel
▁z
▁vize
▁keskin
▁%0,1
▁elektro
bilim
▁kiralık
▁avcı
▁Op
▁birçoğu
▁Mike
▁kariyer
gor
layıp
▁konularda
▁değişikliğin
▁Güneydoğu
▁kor
▁kuzeybatısında
▁olmasa
▁fiyat
▁bak
▁bant
▁kullanmaya
▁José
▁katlı
▁Gel
▁bulan
▁golle
▁Stephen
▁ayaklanma
▁gezi
▁alacak
▁soyadı
▁yarısı
▁katılır
▁matematiksel
▁değişme
▁Evi
▁Win
▁yetişkin
▁edebilir
▁verici
tte
yr
▁süvari
▁Uşak
Ve
▁Ünlü
▁Zu
üş
▁Jon
▁kişiyi
▁Elektrik
="271
▁evine
ل
▁maksimum
▁etmişlerdir
name
▁oranında
▁Illinois
▁İşleri
▁yürüttü
▁mo
▁Özbekistan
▁örnekler
▁İklim
Güney
▁hükümdar
▁üzüm
▁Şampiyon
▁ödüller
▁Kafkas
▁Bağ
▁Yardımcı
▁kitabın
▁Who
▁verileri
▁oğludur
▁varsa
▁tehlikeli
▁set
▁görmüş
abı
▁elemeleri
▁görevleri
▁başlaması
▁dayanarak
▁Tunç
▁üreticisi
▁çıkarıldı
▁hareketleri
▁fayda
▁Yüz
▁Eğitimi
▁topluluğu
On
▁bitkiler
▁Ten
▁sıfır
▁İskoç
▁İspanyolca
▁nehri
▁dışarı
▁sanatçılar
▁kaldırıldı
▁kaldırılması
sam
▁Bla
://
▁yükselmiştir
▁BM
م
▁alın
ensis
▁kurgusal
▁Liverpool
▁örgütü
▁un
▁konuşulan
▁saldırıları
St
▁tanımlamak
▁Biyografi
▁kimliği
▁videosu
▁kurul
▁giymiştir
▁Turnuva
▁Jr
▁yıldızlar
▁girişim
▁cinsi
▁şunları
▁ücret
▁Sonunda
▁düzenlediği
▁altyapı
▁Ul
▁kriz
▁ticareti
göz
ence
▁Cho
▁Hakları
▁dünyadaki
Star
▁seslendirilen
▁bahşı
▁başlangıcı
kadın
▁kazanır
ünde
▁seslendirme
▁saldırdı
▁Ohio
▁Sezar
▁parmak
▁sayılar
▁ni
▁aldılar
sik
▁Eyalet
▁verilmiş
▁karışımı
500
lum
▁bisiklet
▁küre
▁stadyum
▁Balkanlar
▁Kom
çiler
▁koloni
▁Arnavut
leşen
▁adıdır
▁yakından
=291
▁oluşturma
▁meşhur
▁River
▁tutan
laması
-20
▁kuvvetlerinin
rah
▁Bisiklet
iya
▁Samsung
▁döneme
▁Onur
▁bilinmeyen
▁Bek
▁öğrenim
▁güreşçi
ız
▁Orada
▁Ruslar
▁olurken
ert
likler
▁öldürülmesi
100
▁sin
▁merkezleri
▁Karaman
▁Normal
▁Uygur
Hu
▁çeviri
▁kitaplar
▁Dol
duğu
▁zamanın
▁67
▁dövüş
▁bebek
▁Post
▁93
▁onay
▁hakem
▁arkeolojik
▁85
▁bölümünün
▁profesörü
▁çocukların
nç
▁görevden
▁Müze
▁filmlerinde
▁yüzölçümüne
▁hapse
▁Billboard
pro
▁Oblastı
▁Aslında
▁güneyde
lenerek
▁God
▁sekizinci
▁bırakma
göl
▁Işık
larıdır
▁düşmesi
özü
▁Tony
Mu
▁içerik
ž
т
lıyor
▁Ch
▁kuzeyde
▁Kazak
▁kendisinden
▁Şampiyonluğu
▁akşam
▁açmıştır
▁Dolayısıyla
▁stratejik
ğini
lanıp
aki
▁psikolojik
▁boru
▁Boston
▁doğduğu
▁ayakta
▁çıkarma
tia
▁demektir
tch
▁Maliye
▁depo
▁eksikliği
▁Madonna
▁sunulan
▁referans
▁semtinde
▁kuralları
▁devrim
▁emri
ılması
▁Yazar
▁personel
▁kule
▁negatif
▁endüstri
▁çatışmalar
▁Pala
tiği
AC
▁Mari
▁Yapım
▁AK
▁çekimleri
▁oluşumu
▁yüzü
▁cumhuriyet
▁milletvekilleri
▁bakanı
eme
kale
▁alıcı
▁bulunma
▁platform
▁sözleşmesi
▁kaçtı
hor
▁Bank
▁Metal
Ku
▁grubuna
▁bulunmamaktadır
▁farklıdır
▁çöl
▁Murad
▁topraklarında
▁idaresi
▁seçme
▁Aires
▁Mis
▁yarattığı
▁Victoria
▁orduları
▁Michigan
▁yazmaya
▁dal
▁yardımı
nov
▁tesis
▁soruşturma
ag
▁kümesi
▁Örnek
▁sayısının
▁kaynaklı
▁imzalanan
▁Harekâtı
▁denize
▁Arslan
▁anlama
▁amaçla
▁macera
▁sırt
▁platformu
▁çıkışı
▁Özgür
▁gemileri
via
iyeti
▁ağacı
▁etmişti
▁hazırladığı
▁Çay
▁siyasetçidir
▁katılmaya
▁YouTube
▁Konstantin
abilmektedir
▁Matt
▁61
▁Kra
▁ülkeyi
▁miras
▁yaşına
▁belde
▁nesne
sti
▁geldiğini
ī
▁Mora
▁dağılım
▁Cengiz
ydü
▁Reg
▁dersler
▁manastır
▁semt
▁tablosu
▁Hans
▁izleyici
▁Palm
more
▁moda
▁adındaki
▁Yabancı
▁onlar
▁yayım
▁Mavi
▁şirketler
▁aşık
▁tanımlanan
zin
▁çubuklu
hara
▁Hakkında
▁Trans
▁Belgrad
▁grupta
▁Walter
▁Sibirya
▁bugüne
▁Ant
▁işkence
="288
▁olabileceğini
▁milliyetçi
▁yarattı
▁59
▁kapsar
▁kütlesi
▁temsilcileri
▁seçti
▁koşulları
tığı
▁gül
▁tuttu
▁içeriyordu
▁filo
phi
▁harekât
▁Cat
▁Michel
▁öldüğü
▁Peru
▁yerler
▁farklılıklar
▁yaratıcı
▁bey
mişlerdir
IN
eski
▁bildiri
eş
▁toz
ER
yurt
▁kıl
▁gençlik
▁Projesi
▁haftalık
▁saldırgan
▁Recep
▁Tümeni
▁Brian
▁gir
▁Müdürü
▁kavga
ε
ichi
▁annesinin
▁kaynaklanan
tak
▁mutfağı
▁çalış
▁kayıtları
▁Disney
sco
▁kalıp
▁bulunabilir
▁Sami
▁devrimci
key
kay
iği
▁gibidir
-8
▁benim
▁onur
▁kalması
▁istihbarat
▁ortalaması
▁yanlısı
▁2011-12
▁ca
▁Dam
gra
▁pil
▁almakta
▁yerleşik
ی
Ser
▁sürer
▁biten
=271
▁donanması
▁Football
▁görünen
▁Will
▁sıcaklığı
▁Mur
▁Eric
▁1886
▁Sil
▁oyuncuları
▁ulaşır
▁kedi
▁olağanüstü
▁Anayasası
▁SC
▁inanç
▁Bro
▁1988'
▁başarıyla
▁yüksel
▁hayatının
▁(12
▁geçirmek
▁trafik
▁İsveçli
gh
▁başlığı
zy
▁kilit
▁Emin
▁direkt
▁Cuma
▁Kahire
▁Emre
▁University
yarak
▁mesaj
▁mühendislik
▁yapımında
▁şa
▁rahatsız
▁Buenos
▁konuları
▁Des
▁gitmek
▁kut
▁nüfusa
▁topçu
▁Hel
▁etkinlikler
out
▁yarışmaya
▁Milletvekili
▁PKK
▁fil
▁Wilson
▁Rick
▁Corporation
▁karşılaşma
▁haklarını
▁İslami
▁Ey
▁Steve
▁sanatçının
▁Eser
▁gitarist
▁devamlı
▁düşünür
▁Sey
▁öncelikle
▁«
▁Galler
▁Eş
▁250
▁Barcelona
aceae
▁izledi
▁altyapısında
▁600
▁iniş
▁Inter
▁kuvvetler
▁güzellik
▁belediyesi
▁başbakanı
AR
▁kapasitesi
▁doğuda
landırma
▁karşılığı
▁Salonu
▁Çalışmaları
▁Hamilton
▁oynama
▁kitapta
▁tanrısı
▁Fil
▁Maç
▁bakteri
▁güvenliği
▁etkileşim
▁boyut
▁savunan
▁yöntemler
▁öyküsü
▁uyumlu
▁hayvanların
▁sembolü
▁Eu
▁atıfta
yet
▁Tal
▁Sü
▁Gö
▁1987'
irler
▁Panzer
▁Kulesi
▁geçme
▁problem
▁varlık
▁karakterleri
▁Game
▁Benzer
ilmiş
▁öğrencileri
▁insanlara
bb
nar
malıdır
▁Bri
▁ilerleme
Mehmet
▁bölümden
▁tasarlanmıştır
▁tarafı
="278
▁masa
▁düzeyi
▁üreme
▁şehirleri
▁Evren
ât
»
▁anlaştı
▁Land
nci
▁sat
▁Bou
We
▁Özellikleri
ste
▁2-0
▁he
▁ibadet
rs
lemiştir
▁Şiir
▁çalışmak
▁dönüşüm
▁hoş
▁69
rü
uf
ön
kâr
▁sözcük
▁HD
mber
▁kömür
▁Sev
Gu
▁benzeyen
▁değerleri
▁Rumeli
▁dağlık
▁Çelik
▁hücum
▁Avrupalı
▁bağlayan
▁Mektebi
▁açtığı
▁İnşaat
▁(5
▁Silah
IS
▁galip
▁eti
▁gösterme
▁kör
▁ok
▁ışığın
▁koalisyon
syon
▁Nil
-21
vis
▁oyuncudur
▁farklılık
▁hakkını
Fe
▁öldürür
▁ayrılması
▁süredir
▁düzenlenmiştir
yolu
▁mı
şah
Kuzey
▁döneminden
▁ordusunu
hin
▁Team
▁Inc
kur
▁Dizinin
="294
ala
*
▁eleştirmenler
▁haricinde
pon
lamak
▁disiplin
▁Proje
▁Dur
▁sebeple
▁kabile
▁evde
▁Cal
▁Otto
▁çıkıp
▁Devrim
▁rekoru
luğa
▁Laz
▁oylama
muz
▁han
▁zincir
▁seviyesi
ñ
▁kanseri
kas
▁Kitabı
rken
▁İmam
▁tanımlanmıştır
▁kısımları
▁balığı
ding
▁77
▁(10
▁Kam
ksiyon
▁hücreler
▁Sistem
▁Dergisi
▁geride
nal
▁kavram
lendiği
=288
▁Zonguldak
▁uygulanması
▁yak
▁konferans
DP
▁senaryosunu
▁eve
▁Meslek
▁Doğa
▁açıklamada
▁Monte
▁Swift
bağ
▁alınma
çay
▁Vilayeti
▁Halife
mü
▁kalite
▁Center
▁çerçeve
▁Jun
▁makinesi
▁verdiler
▁boyun
▁Ac
ssa
soy
▁Las
▁sev
▁kurulduğu
▁egemen
▁Türkçeye
▁şarkıcısı
ick
▁Dördüncü
▁Sc
▁toplantı
▁Hayat
▁Salih
ble
▁binalar
▁(11
▁Tele
sky
▁davası
▁Ste
ρ
▁anlayışı
Av
▁(14
▁atıldı
kul
abilmesi
▁kuşu
▁resimleri
▁listede
▁formül
Gi
▁basıncı
▁Sahne
▁zamandan
▁şirketleri
▁isyanı
▁bulmuştur
▁tahmini
▁Enerji
▁kanadı
_3
▁Dünyanın
▁Sh
ük
α
▁düşünülen
▁Oxford
▁Bazen
▁öğrenme
▁Yapılan
wer
▁Bülent
▁merkezinin
▁dağılımının
▁atanmıştır
▁men
▁fakülte
▁noktaları
yorum
▁coğrafya
▁fabrikası
▁seslendirdi
▁formu
▁Komutanı
▁değiş
dom
▁Bundesliga
fu
▁François
▁bireyler
ă
▁Out
▁cezasına
▁etkinlikleri
▁amcası
▁Gümüş
▁kullanmaktadır
sko
▁tri
▁krallık
maktaydı
▁veriler
▁uyarlaması
itler
▁sel
▁kablo
▁Piyade
Sen
▁yayınladığı
▁kararlı
▁torunu
▁Letonya
▁yaşamıştır
▁işlemleri
▁kuran
▁otuz
▁tahliye
▁demokratik
indeki
rio
▁dua
Küçük
▁araştırmaları
▁kitle
▁ser
day
doğan
John
enko
=117
▁organ
▁Hell
▁1908
▁Geri
▁Manastırı
▁Türkleri
▁aldıktan
▁girme
▁ye
▁Hikâye
▁Bilgisayar
▁Ürdün
lov
▁stil
Con
hil
▁Stra
ale
▁Gaga
=15
ullah
▁Ram
▁Gro
hen
▁teorik
▁Sak
ğe
▁düzeyinde
▁bakır
▁Cra
▁salon
▁Napoli
▁başlayıp
▁geliştirmek
▁çıkmaya
▁hekim
Bel
400
▁öğrendi
τ
▁oluşu
▁Nuri
oba
▁dergisinin
▁Georgia
tom
▁Yönetmen
▁Anton
▁yaygındır
DA
rd
▁AC
▁Bağımsız
▁Çar
▁hip
▁kuşlar
▁ku
▁kullanılmış
ille
qua
uch
▁işlemci
▁Alanı
rim
▁Selçuk
▁800
▁dünyasında
beyli
▁özgürlüğü
gerçekleştirildi
▁...
▁düşme
▁bırakarak
à
▁güneybatısında
▁Orkestrası
▁Hakan
▁örtüsü
arı
▁vs
▁Siyah
▁Hü
▁gelenek
▁üçlü
▁milyondan
▁sayısını
▁katılmak
▁güneybatı
▁şeyin
▁Çinli
▁kaplı
▁yüzlerce
▁şefi
ა
▁görüşleri
▁Francis
▁Aksu
▁belirlenen
▁Veli
▁kulübün
▁bırakır
▁Tasarım
▁kuzeydoğusunda
▁Buz
▁savundu
▁Tiflis
▁günümüzdeki
▁yüzyıllar
▁belediyedir
▁birinde
ense
▁fosil
▁direktörlük
н
Der
▁Luis
▁öğrenir
▁aşama
▁karayolu
▁yapıya
▁Veri
ness
▁batıda
▁Muş
MA
▁2010-11
▁aracın
▁tesisleri
▁Gökçe
lıkları
200
▁bulunuyor
="47
▁finansal
▁modeller
▁limanı
▁Mak
▁Die
ani
▁izleyen
▁ülkesinde
ografi
Orta
▁eklendi
▁göçmen
▁Sab
λ
▁Allen
nie
▁Hart
▁kapısı
▁icat
▁bulma
▁House
▁kredi
▁zinciri
▁Sezonu
▁(4
▁Sony
▁yapıları
yazı
▁özet
Es
▁ayrıntılı
▁İletişim
raz
My
fet
değiştirilmiştir
pus
▁ed
Lu
▁Sınır
▁ilçenin
▁edebi
▁ilgisi
▁padişah
▁ordunun
▁döngü
▁Kurucu
AN
ias
▁Gur
▁şart
▁yuva
▁yapının
lerce
▁tahrip
▁getirilmesi
bot
▁haftasında
olojik
▁Etimoloji
▁takviye
▁Bul
▁taç
▁Mahkeme
▁açısı
ges
uma
▁VII
▁hakimiyeti
▁taraftan
▁dağıtım
▁beden
AP
▁efsane
=278
istler
lamış
▁Müdür
▁ol
üstü
▁yaprak
▁sunar
▁1916
nny
▁sevgilisi
▁Adıyaman
▁Milan
▁görevlerinde
▁birincil
▁Almanyası
▁teoremi
▁Lake
▁fonksiyon
▁Genelkurmay
eus
ira
▁1986'
▁etmesini
▁etiketiyle
▁şeklindedir
▁sonsuz
="285
▁Saldırı
▁kılıç
▁mermi
▁götür
▁güneydoğu
▁kutu
▁soyu
▁sağlama
▁con
▁Sağ
▁yazılımı
▁uzmanı
nova
▁Düz
▁belki
").
▁(2001)
yak
▁söylediği
▁mağlubiyet
Eski
▁olurlar
▁vadi
▁hâline
▁eserin
▁Kimya
lah
▁öldürdü
▁kurumu
-13
At
▁liderleri
▁gerçekleşmiştir
▁beklenen
▁Bern
▁payı
▁Taka
Am
▁ham
rip
▁firma
▁odası
▁finali
▁pratik
▁ani
▁sayılır
lly
şu
▁yatak
▁büyüklüğü
▁adası
Han
pt
л
▁mühendis
▁olmasıyla
▁başarmıştır
udur
siyon
alı
▁çoklu
▁Horasan
▁bil
▁soyundan
▁konular
daha
▁başar
▁çağrı
▁Andrew
▁diyerek
▁atış
▁geçmesi
▁grubudur
▁Abbas
▁Vir
▁1944'
ena
▁hayran
▁şubesi
▁Valisi
▁Turan
▁%5
▁etmekte
nen
lenmektedir
▁mutlak
▁yöre
▁yeğeni
▁üretildi
star
▁etkisini
▁planlanan
▁kızıl
▁Mücadele
mont
▁Sonrasında
FC
▁eğitimine
sizlik
▁Yardımcılığı
TA
▁deneyim
▁mini
▁metrosu
▁130
▁havalimanı
▁71
▁yeterince
▁görüldüğü
▁takımdan
ruk
▁kesme
▁İoannis
▁endüstriyel
▁soylu
▁rolünde
kir
▁sürülen
fon
▁Tab
▁Toprak
▁üniversitesi
▁oynandı
▁yasama
cht
ğü
▁Linux
▁ülkedeki
▁1982'
baba
▁gerçekleşir
▁inşası
▁ot
▁Çerkes
▁74
▁demiştir
▁gittiği
▁73
▁Kul
▁yayını
▁%2
▁tanıtıldı
▁tarihe
▁Pol
▁imkânı
fin
▁Med
▁88
▁sürülmüştür
▁tarzında
▁şimdiki
çin
inus
vil
▁kampanya
Kan
Mü
AL
▁uzanır
ug
▁Jim
▁Connecticut
▁çevrimiçi
▁ilave
▁başından
▁atma
▁kullanıcıların
lıklar
pur
▁kapak
▁oluşturulmuştur
▁faz
▁yollar
ator
▁beslenme
▁takımını
ildi
▁hukuku
▁sınıflandırma
▁Milano
▁yaşamaya
▁Gazetesi
▁duygusal
▁tören
▁Mali
▁parçacık
Per
▁aşağıda
▁plana
з
müştür
end
▁maçlarını
▁çevresi
▁Programı
▁maçlar
wan
▁işlevi
▁alırken
▁ligin
▁özgürlük
▁kampanyası
▁kahve
Osmanlı
▁Deli
dd
▁uyarı
▁caz
▁Böyle
▁1979'
▁hesaplama
▁seferi
▁(6
▁göze
▁stili
▁anısına
Za
▁Bru
▁hücreleri
▁bırakmıştır
lerarası
fra
▁tanımlama
▁programlama
▁peri
▁Ardahan
▁sezonunu
▁çık
▁Çam
Yu
▁ikamet
mbo
▁birey
▁Adolf
▁Fırat
▁mineral
▁güneydoğusunda
▁Newton
▁Wood
▁sıkça
▁ortamı
="58
▁sertifika
▁olasılık
leridir
▁Edebiyatı
old
▁Girit
▁Mun
▁evrenin
▁Medya
▁halife
▁kontrolünü
▁1913
▁Havaalanı
▁psikoloji
▁istila
▁doğmuş
▁August
▁Blue
▁üçgen
▁sahası
▁denizaltı
▁Babil
▁kritik
▁atlama
▁Zafer
▁tamamlandı
Hi
dio
▁birleşme
▁Rad
▁başlamıştı
laşmış
▁ge
▁Romalı
▁seks
sunu
▁düşüncesi
Ju
demir
▁hazırladı
▁Yoshi
▁yaklaşımı
▁Festival
▁by
▁Kil
▁Adnan
”,
▁pencere
▁Şirketin
▁sanal
▁oyunda
▁yapmayı
▁Prag
▁gelin
▁Karşıyaka
▁ağabeyi
▁Open
ا
▁Kin
our
düğü
▁Uygulama
dî
▁Ron
▁buhar
▁itiraz
=294
▁kül
klerini
ning
▁belediyesine
▁Porto
▁bahçe
▁Power
are
▁buğday
▁aş
▁Cur
▁belirlenmesi
▁pas
▁araştırmacılar
▁gitme
κ
▁1941'
▁Futbolculuk
▁desteğini
▁sektör
▁alanının
▁durumuna
▁Kulüpler
sit
▁akciğer
▁Song
TP
="41
▁belirlenir
▁işareti
▁yarar
ese
▁yürütme
0,000
▁dokuzuncu
ric
▁ödülleri
▁Toplum
Ad
bak
▁görüşme
▁rekor
moto
▁sütun
Bay
oyun
▁Şampiyonu
▁kala
▁Turnuvası
▁Samsunspor
▁ucu
="117
▁Bilimleri
▁Sudan
▁bulunmakta
sın
▁Street
▁1918'
▁tema
▁bakınız
▁komplo
▁numaradan
▁kaydedilmiştir
▁78
▁kâğıt
▁rüya
▁terör
lot
▁ilgisini
▁yüklü
▁yayınlanmış
м
▁desteklemek
▁Resim
Doğu
▁duyuruldu
▁ülkelerinde
▁devletler
▁hükûmetin
likle
oo
Bur
▁liberal
▁Matematik
EC
▁diplomat
▁Den
▁pat
oni
▁anlayış
▁Liste
▁vatandaşları
▁yemeği
▁Lin
rov
=285
▁aç
="57
▁oluşturuldu
emez
▁Kri
▁Your
▁evden
▁hanedanı
▁çeker
▁yetkisi
▁kalesi
▁golü
▁talebi
▁ez
▁mah
▁komutan
▁etmesine
▁iyice
▁Bina
▁ilçeleri
г
▁ihraç
geliştirilmiştir
▁Network
▁Sat
▁Odası
▁kuzeydoğu
▁kuzeybatı
▁Henri
▁kısmının
▁Orijinal
▁oluşturulması
▁mevki
▁Öğretmen
▁açığa
üz
▁köye
▁95
▁Alfred
▁gösterimi
▁ilginç
▁imparatoru
▁yorumlar
▁eliptik
▁müttefik
▁malzemeler
▁ekledi
üt
▁South
▁Galaxy
▁akımı
▁Soğuk
▁hassas
▁indi
▁ailesine
▁İçin
▁taşın
▁Afyonkarahisar
tica
▁birine
dışı
▁Türklerin
şir
hy
▁110
pin
▁belirtilen
▁France
▁dere
▁go
▁Town
▁temeli
▁İbranice
▁rejim
▁olasılığı
Ev
▁ova
▁his
▁East
▁Sand
▁Reis
▁İnönü
▁Farklı
▁maddenin
▁duyduğu
heim
▁medrese
abilmek
▁yetki
sek
ıldı
▁şartları
▁Profesör
▁güvenilir
▁verdikleri
▁Radio
▁Raw
▁sürdüren
▁konusundaki
ço
▁yetkilileri
▁filmlerde
▁şehrine
BA
▁radikal
▁sır
▁düzensiz
▁iletken
▁işlev
▁Ajansı
gy
▁başa
▁rütbesine
form
▁yönlü
▁kenarında
▁Lan
fre
▁oluşturulmuş
▁Kolombiya
▁evlenme
▁Cro
▁bitiren
▁w
▁Askerî
▁sonuçlanan
▁ti
▁kaç
▁Hırvat
=47
▁Ross
▁Yaşar
▁sunucusu
tam
▁müsabakaları
▁satışı
▁evrim
▁Ob
▁kav
▁bağlanmıştır
ston
oto
Ana
nor
Em
niz
▁adlandırıldı
▁yüzme
▁Minnesota
▁maçını
3)
▁Heinrich
meyen
▁zırh
▁Kaptan
lıların
▁edilmesini
▁odak
▁dönmüştür
roman
▁duvarları
▁10.000
–19
▁çocuğun
pu
▁Hikmet
▁haftada
ы
▁egemenliği
▁yazıldı
▁beğeni
▁İslâm
▁turunda
▁keşfi
dağı
▁Standart
▁kesim
▁salgını
▁şarkıyla
▁Media
▁tasarlanan
▁Venezuela
▁grubunu
ref
Sal
ağaç
▁Tür
▁hediye
▁Albümde
kli
▁görünüm
▁yağma
к
▁tarihçiler
▁Victor
ky
▁araştırmacı
▁topraklarını
▁mermer
▁belirtilmiştir
▁ölür
▁bizzat
▁Char
▁yöneten
▁dayan
▁Dead
="284
▁Kolordu
▁Ermeniler
▁iyon
▁acil
▁tamir
▁Yurt
▁türünde
madan
▁ri
▁okuyucu
▁Ros
▁Columbia
PA
Bal
000
▁düşmüştür
▁1904
▁yayla
liğinin
▁Kiev
▁dur
▁haberi
▁isminin
▁izler
▁uygulamaya
▁Görev
SC
ai
pel
eva
▁destekledi
ılmıştır
▁1896
▁Bingöl
▁Tayland
▁şampiyona
ه
▁artması
▁af
▁Said
▁Büyükelçisi
▁düşür
ebilmek
▁oyuncunun
▁cemaat
▁görevde
▁kulak
▁bozulma
▁Teşkilatı
▁şeklindeki
▁durumun
▁Gol
▁aksiyon
▁barındıran
▁grubunda
umu
▁sömürge
▁Kuşatması
▁Çekoslovakya
▁Ağır
▁geçmişte
ere
Mer
pha
mini
▁Meryem
▁oluştu
▁Kevin
▁bunlara
▁High
teri
▁atılan
light
▁Üsküdar
▁Bayanlar
▁Ang
cio
="40
▁mücadelesi
▁adalet
beyaz
▁dağılması
▁hayvancılık
▁kayda
▁içeri
iti
▁koyun
▁İdare
Bi
kom
▁Kes
larca
▁çarpışma
▁bağlandı
▁Mut
Yunanca
yat
▁rekorunu
▁Tekirdağ
▁yuvarlak
▁Charlie
▁Hun
▁ağrı
▁Yemen
▁Tay
▁şiiri
▁doları
▁çeşitleri
▁Nişanı
▁entegre
▁Pekin
kâ
▁olanlar
▁gidip
▁izni
▁Kardeş
▁form
▁Oyunun
▁Yar
▁ispat
sy
tip
▁sahibidir
▁Mekke
▁yayınlanması
▁Gabriel
=14
▁Senato
▁İnsanlar
▁isteme
▁gölge
meyi
diler
▁içinden
▁Sara
▁girmesi
▁Atlas
▁sıralaması
▁ateşi
▁çekmiştir
▁pahalı
▁aydın
psi
▁Celal
dri
pot
▁üyesiydi
▁oranları
▁manken
▁ihanet
▁fikrini
▁Berk
▁1910
▁Parça
▁iOS
▁yaptıktan
▁Gümüşhane
▁tanıtım
▁sadık
ł
had
▁yerden
▁okur
▁alışveriş
▁Samuel
include
▁Varşova
eo
▁Hattı
▁hastane
▁turne
Baş
âm
▁Hamburg
▁Cumhuriyetçi
▁büyüyen
▁cep
▁Kü
▁Cambridge
▁kurumlar
▁Azeri
▁Atlantik
Portekizce
leştirilmiştir
iyo
▁Bakanlar
▁oyunudur
▁kilo
▁dalı
="274
sat
▁yılan
▁Önemli
▁romantik
▁Universe
▁birliklerinin
rdı
▁birbirleriyle
sse
▁IP
▁tutum
▁sakin
gas
▁Nick
▁1974'
▁bitti
="46
▁1985'
▁cümle
▁kuşak
=58
▁açılması
boy
anti
trop
▁Uçak
masıyla
ín
▁Slovenya
▁Ça
▁Good
▁gelme
▁Serie
▁İtalyanca
▁metro
å
amadı
▁yönelim
▁Kemer
▁Dükü
▁sultan
▁İlişkiler
freguesia
▁21.
="286
▁Bizanslılar
▁oyuncuların
▁sipariş
▁kira
▁96
▁Kartal
▁kanıtlar
▁yolunu
▁bölümün
leşmesi
▁sayılan
▁cadde
▁vektör
▁Britanyalı
▁Biz
▁nefret
▁(2
▁Mini
-7
▁lige
cek
▁--
ies
▁gerektirir
▁görevlerini
▁Ap
▁peygamber
malı
▁Hak
▁cisim
▁İkili
▁ucuz
▁bek
▁filosu
AT
▁DC
▁fizikçi
="264
▁azınlık
="49
gram
▁figür
="59
▁%3
▁Bab
▁Boğaz
▁kulesi
less
Tek
▁ışığı
cle
▁yapısal
▁şirketinin
▁memnun
▁DJ
▁har
▁saldırılar
▁bilimkurgu
▁yerleşen
▁Johann
▁Artık
▁aldıkları
▁projeleri
▁1978'
▁dâhil
gerçekleştirdiği
▁gi
▁yenildi
▁ayrılma
cısı
▁mayın
▁2013-14
Kon
▁çalışmalarının
="275
▁Jacob
▁kurtarma
▁bürokrat
▁gözü
▁üssü
▁desteğiyle
▁Kadıköy
▁pul
▁problemi
▁yapacak
▁üretmek
▁engelli
▁bölgeden
▁Â
vaz
▁üs
=284
ington
▁Uğur
▁başkanları
▁im
vers
▁Tok
▁Müslümanlar
jen
hid
▁toplamı
▁Güven
▁Hristiyanlık
▁Ovası
och
▁laboratuvar
▁mono
▁Miller
▁1,5
▁memur
▁Davis
▁rüzgar
▁tecavüz
▁fakir
lli
hur
▁verilebilir
▁solunum
▁genişliği
▁kolları
▁Jacques
▁Association
▁Filmde
dam
▁Mimarlık
▁moleküler
▁oluşmuş
▁savaştan
▁fırtına
▁geçir
Aşk
▁kademe
▁California
▁borç
▁tra
▁konut
inger
▁koşullar
maları
▁korudu
▁aktar
▁87
▁alanındaki
▁PlayStation
▁3-1
▁temelini
▁İm
mine
▁Little
▁Society
▁Dio
▁Sparta
▁Hakkı
▁Müziği
▁gerekse
▁oturum
▁yükselme
Ye
Sp
▁2012-13
▁Avcı
▁1919'
gol
▁kırk
Amerikan
▁Old
▁bildirildi
▁şans
▁yürüyüş
▁dinamik
▁1928'
▁çekilme
▁sayımı
▁evrensel
▁ettikten
▁kutup
▁koruyucu
▁çekilmesi
▁ilgilidir
▁Deresi
not
▁Kayıt
▁İzmit
▁alçak
ett
▁Gençler
aba
▁Metro
▁cenaze
▁tez
▁1972'
▁sunmaktadır
▁yöneticileri
▁penaltı
▁eğri
▁Philip
▁düşüş
▁görevlendirildi
▁çalışmalarında
İş
▁Chelsea
ew
▁gu
▁Maya
-11
▁elinden
▁1983'
içi
▁üzeri
▁akarsu
For
▁AS
▁Hitit
▁PC
▁yolculuğu
şen
▁şarkısının
▁merceksi
▁yaralandı
▁bağımlı
▁Ty
▁felsefi
▁Köyde
▁Gençlerbirliği
▁oynamış
▁kadrosu
▁mod
▁öğren
▁Şehzade
▁Arjantinli
▁hanedan
▁kasabası
ost
▁pozisyon
nia
▁Protestan
▁belirten
▁inancı
▁çukur
▁gözden
▁Noel
▁anlaşılmaktadır
aga
▁Savaşın
▁Lau
▁2.0
mura
▁bakıldığında
▁eşdeğer
▁görevler
▁cihazlar
▁Olay
▁sevdiği
▁RNA
▁mitolojisinde
▁Güç
▁öğrencilerin
▁konserler
▁Harvard
get
ical
/&
=264
▁geçirildi
▁çıkarmak
cular
▁Arsenal
▁etkileyen
▁Lev
rarak
▁Dream
olo
п
▁kaplama
▁tabakası
▁Sky
ılarak
▁yazarları
▁kahramanı
ν
▁öyle
gs
▁boyutu
▁okulun
vit
▁filme
▁anlamıyla
▁Frankfurt
▁galaksi
▁alanın
Batı
▁kubbe
ο
▁dilde
▁mekân
▁günleri
▁oyuncusudur
▁politikaları
▁Bernard
pat
▁Luc
▁iktidarı
▁Dun
▁kolej
▁yayılan
▁askerlik
▁göğüs
▁Heart
▁ısrar
âr
▁önemini
▁mutlu
ıldığı
▁davranışları
▁çıkmaktadır
▁Kenan
▁Chan
▁zehir
▁81
▁teklisi
▁açıklar
▁Einstein
Kızıl
▁söyleyerek
▁çekilmiş
▁(13
▁Lincoln
▁günlerde
▁ال
acı
▁defnedildi
etti
▁sü
▁Ai
▁devri
▁gündeme
▁foto
▁Avusturyalı
▁Kont
▁çete
dol
▁hafıza
▁pre
tık
▁seçkin
▁cerrahi
▁Fra
▁bahseder
▁meşru
▁kuralı
▁çalışmış
▁tamamladıktan
EN
gos
▁Yüksel
▁Zeki
▁üyelerinden
PS
▁Arif
▁Usta
▁ucunda
Dr
▁Anderson
bro
▁Amsterdam
="45
▁ettirdi
▁silahlar
ن
▁sivri
özellikle
▁faaliyetlerini
▁1939'
▁çeşidi
▁sok
▁Pin
▁1500
▁Marc
▁mahallenin
▁yönetimine
çılık
▁yüzyıllarda
oh
▁1876
▁ödülüne
▁okulda
doğum
▁sektöründe
▁yazarın
▁Hampshire
▁Bah
▁ayının
▁Bavyera
IP
▁çıkarılmıştır
5.000
▁uçağın
▁özelliğini
▁Bush
▁sürece
▁bozukluğu
▁sağladığı
mun
yalı
▁sitesinde
yeceğini
▁takiben
▁Vikipedi
Yo
aro
▁önderliğinde
Je
▁Ayşe
▁karıştı
▁içerisindeki
inci
▁tutmak
▁sil
▁gününde
▁sermaye
▁Sor
▁3-0
▁takdirde
▁çıkarmıştır
▁topraklarının
Un
▁sıralarda
▁Alice
▁sağlanması
▁versiyon
▁Fort
="55
▁mekanizması
▁ordusuna
▁pandemisi
▁kayıtlı
▁geçit
▁şöyledir
rî
▁Gine
▁düğün
▁köyleri
▁getirme
):
▁Adams
▁eserlerini
▁1911
▁Lüksemburg
▁Kapı
▁ölçekli
▁Anthony
▁Türkmenistan
▁matematikçi
▁Bursaspor
▁tersine
▁röportajda
▁reform
▁alıyordu
ore
▁Tibet
▁yapılabilir
Ter
▁monarşi
ath
▁Ele
▁tartışmalar
=57
▁kesimi
eau
▁dönüşü
▁sahipleri
▁önerdi
▁elektrikli
="290
▁bağlar
▁mercekli
Wa
laşan
uro
▁kaybetmiştir
▁Sto
▁açıklanmıştır
▁yüzölçümü
▁çember
▁içe
▁gerçeği
▁Drama
▁Ona
▁mar
leş
▁alay
▁hesabı
▁Tü
Ze
aka
▁Kut
▁maliyeti
▁Band
▁tümü
▁fırın
▁86
▁Batman
feld
▁dinî
▁Senatosu
▁doğası
▁başarılar
▁turnuvada
▁Ertuğrul
likten
▁pasaport
▁belgeler
▁sar
▁1975'
yıl
▁eşliğinde
▁dolarlık
▁gemiler
=286
▁ulaşmak
э
▁içme
▁materyal
▁muhafaza
▁Albay
▁İdaresi
oka
▁bütçe
="56
▁nesli
lüğe
▁Norman
▁Cin
▁şekildedir
▁Terim
▁bombardıman
▁olmaktan
▁Mobile
ito
▁kalitesi
▁MP
▁mevkiinde
▁olmadı
▁uçuşu
anlar
say
mor
▁teknikleri
▁Tunceli
én
▁Malezya
▁1.5
▁çalı
▁bölümünden
▁Vas
▁çevirisi
AK
▁Jar
aw
▁öfke
üdür
▁salgı
çılar
▁Jay
="77
▁strateji
б
atif
▁Lisans
▁süresince
▁hapishane
▁seviyede
▁Boğaziçi
▁restoran
sp
▁aldığını
amayan
▁satıldı
▁turnuvası
▁örtü
eira
▁tahtta
▁almayı
▁zamanki
▁Moldova
back
▁sığır
gio
▁yaptığını
▁başlı
▁sığ
▁Cre
▁kızları
х
▁Çiçek
▁yolunda
▁kuzeni
▁1977'
gazi
▁kurtarmak
▁edilmesine
▁1968'
▁1984'
ojen
▁olmaz
▁üretilmiştir
▁temin
▁kurak
▁Neo
▁türün
▁denetim
▁taşınması
▁ürettiği
▁Leo
=45
lma
▁hastanede
far
▁manga
▁1967'
Altın
▁burun
▁Kariyer
sem
ülü
qu
д
head
yani
rk
▁Kongo
▁biçimleri
▁adanın
▁1900
▁sentez
▁bulgular
▁Cel
▁Sad
▁listesidir
▁başarıları
enberg
▁Hatun
=41
▁fer
▁liderliğindeki
▁geçirmiş
▁şifre
▁süs
▁eki
▁Franz
▁binanın
="279
▁kazası
▁Tayvan
▁ölçümü
▁girişimleri
ters
="51
▁aykırı
▁84
▁Diego
▁aralığı
▁kompleksi
▁misafir
Hal
▁başlık
▁katil
▁Yerleşim
izmin
▁Demiryolu
▁sırayı
▁kenar
▁dizileri
▁Kab
▁geçirmiştir
llo
ava
▁Valiliği
▁kurdular
▁1981'
idi
▁sürdürmüştür
▁yatay
▁1969'
▁hareketin
▁derleme
▁ulus
red
▁82
▁patlak
luğunu
▁ortağı
▁Gil
▁Dom
▁SA
▁tesisi
Ah
▁Kuru
▁geleneği
▁yükseklikte
medi
▁karakterlerin
▁çağrıldı
▁garanti
▁lo
=55
▁durumunu
▁Bitki
▁Way
chen
▁Hizmet
▁kumaş
▁İranlı
▁eşya
▁yaşadıkları
▁Mezopotamya
▁zar
▁nadiren
▁artar
▁iri
▁itiraf
▁Kağan
▁Oda
=169
▁Girl
▁heyeti
Gün
▁füze
▁Avustralyalı
▁kemerini
▁programlar
cin
▁Mühendislik
▁Yunus
=40
="44
▁sulama
▁kompleks
▁Mr
▁Baltık
▁yoksa
cılığı
▁maddelerin
▁Bayezid
▁kilisenin
▁köylü
▁Spe
gua
oku
=46
▁sonucuna
alizm
-9
▁1943'
meli
▁Cannes
▁tetik
▁Fri
▁Les
=274
▁79
▁Filipinler
rap
▁Efes
▁Üniversitesinde
▁çıkışlı
=275
▁almıştı
▁artışı
▁eksen
▁Bekir
iri
▁danışmanı
▁isten
▁Beni
bia
▁Petrol
▁boğaz
▁yaparlar
leştirilmesi
▁gönderdiği
="172
▁unvan
▁Bart
ştır
▁ikiz
▁belirsiz
orta
▁ayakkabı
hip
▁oluşum
▁kural
▁destekler
▁içer
σ
▁anlatı
▁1973'
▁dönüşür
▁şirketidir
▁kuruluşlar
▁virüs
atlı
▁olunca
▁Milliyetçi
▁bilme
▁başkanlığında
▁Got
▁mimarlık
▁sergiledi
▁Helen
▁Nova
Gül
▁topraklar
▁Epi
Mor
atör
▁ihtimali
▁buradaki
▁birleşik
▁Nikolay
▁adres
▁Tai
▁endüstrisi
▁sınırında
▁kuvvetli
▁şikayet
▁Tarsus
▁Lige
▁Köln
▁Zen
▁delege
▁ro
▁konak
▁tanımladı
▁Mario
▁helikopter
▁açma
abileceğini
▁İnan
▁dağlar
▁Kızılderili
▁bıçak
SE
▁duyar
▁uzatma
▁planları
erler
▁Kun
▁Douglas
zh
▁İskenderiye
▁karşısına
▁berabere
dılar
▁doğrusal
▁Almanlar
▁Şerif
cre
▁%4
▁Soy
ted
▁ayna
▁formülü
▁kullanıma
▁tanınmıştır
▁Isparta
▁ho
▁başarısını
posta
▁yayına
▁korsan
▁heykeli
▁pazarlama
▁arazisi
▁mevsim
zlar
▁gözaltın
▁sağlanır
işi
▁dikey
fil
▁sunulmuştur
▁yüksektir
▁1864
▁İsyanı
▁Pel
abi
▁Roger
▁Koz
▁çekme
▁Çağdaş
▁Floransa
▁doçent
▁oluşturmuştur
▁azından
▁GB
ico
▁paketi
=56
Mal
▁diz
▁Kartaca
▁pist
▁Nes
▁Bryan
▁statü
▁zamanların
▁Halen
▁yoğunluk
▁VIII
▁düzenlenmiş
س
▁rapçi
Ch
▁ölmesi
Kal
▁Pet
▁Felsefe
Th
fir
▁Res
İn
▁from
▁olacaktı
▁turnuvaya
▁yükselti
elle
▁olimpiyat
▁beste
etik
▁anki
▁Sekreteri
▁asistan
▁Moğolistan
4)
▁üretir
▁hükümdarlığı
ér
▁İngilizler
ebileceği
▁Sümer
▁yayınlar
="280
undan
▁Çince
▁kurumları
▁83
▁çıplak
▁sayısız
pper
▁teşkilatı
▁Fre
▁yaka
▁kongre
▁Yarış
EL
etta
▁hop
▁Ryan
=153
▁Oğlu
▁post
ald
▁kuyruk
▁sayısal
▁uçakları
▁tanık
▁dönerek
▁kurarak
▁Š
▁uyku
▁şiirleri
rick
▁Thor
baz
▁renkleri
▁içki
▁partiler
▁gölü
▁ribaund
▁vahşi
▁değerlendiril
="42
▁ameliyat
layacak
▁tahıl
tron
▁teması
▁uyarınca
▁biz
▁Asur
▁yetenekli
zı
▁tarafsız
▁güneye
▁duyu
bis
▁sevk
Mil
ima
▁100'
▁Sem
▁Oyuncular
▁klavye
▁€
▁dinsel
onia
▁Meydan
▁yayımladığı
▁kaz
▁hareketli
uff
▁vasıtasıyla
▁kasabasında
▁yayınlamıştır
▁öncülük
iano
▁yetkililer
▁Çankırı
▁ağa
die
▁Türkçede
▁kasabadır
kül
▁radyasyon
▁97
▁koro
itz
▁end
▁İsmet
sing
▁Jane
lamaktadır
▁durumdadır
▁Bilimsel
▁sancak
rich
▁dis
▁Rumen
rian
▁Kaynak
▁bilen
vor
="145
▁Stefan
▁yazması
▁bulut
▁yetenekleri
▁Patrick
▁Sk
▁eşitlik
▁yayıncı
Sha
▁temsilci
ışı
memiş
▁şişe
▁projeler
▁Kuruluş
ple
▁yoksul
▁Dark
▁çiftlik
siniz
▁Üyesi
▁giyim
▁bireylerin
=49
▁mekaniği
▁klinik
▁ulaşma
▁Siyaset
lle
▁Dia
▁Af
▁Bağımsızlık
▁düşünme
▁160
▁çıkarılması
▁askerlerin
ele
▁Kişi
▁1942'
▁isimdir
▁çabaları
▁Eb
▁Benjamin
ob
▁doz
▁sürdüğü
▁ikincil
▁kıyılarında
▁Yahya
▁canlandırılmış
▁yolla
▁Slovakya
▁grupların
▁savaşçı
▁Turgut
▁elendi
▁Müttefik
▁Down
eng
▁paylaştığı
tina
▁NASA
▁mühendisi
leşir
▁ilkokul
▁Marcus
▁mezarı
▁bununla
▁kişiliği
▁çevresel
▁zaferi
▁şekilleri
▁tanıttı
▁türünün
▁taban
kapı
zzi
▁durumlar
▁gittikçe
▁kazanma
▁üçte
▁gereklidir
▁Ör
▁koşu
▁hu
▁mutfak
▁Xbox
sburg
▁planlama
▁Kahraman
▁Studios
pet
▁say
▁kaçan
uncu
▁öldürmek
▁havaalanı
▁halini
▁Önceki
▁Yıllar
▁açıklaması
▁düet
▁kurt
▁okula
cil
▁Franklin
▁Rap
oc
▁eklenmiştir
▁vizyona
▁Tank
▁Twitter
▁ger
=104
▁riski
▁bölümüne
▁Ziraat
▁Düzce
▁sekreteri
klarında
▁şarkıların
▁aza
ward
▁yaptılar
kitap
AM
▁faktör
▁ölümcül
rad
▁mısır
▁Mikro
▁geliyor
Sev
▁Uruguay
suke
▁yönetimindeki
▁Öykü
▁motorlu
▁hitap
▁Haçlılar
▁nişan
▁tüccar
ati
▁tutuklu
▁Şii
▁Polat
▁İstatistikleri
▁keşfedildi
▁sahada
▁Temsilciler
▁üretilmiş
▁Had
lüğünü
▁potansiyeli
▁Cenevre
▁kırdı
▁nöro
▁1971'
▁arabası
▁satılan
=134
hon
önü
▁Ot
▁ring
="152
▁1-1
▁düzenlenmesi
▁Etiyopya
▁Potter
▁reaksiyon
▁vücudun
▁rahip
="54
lıyordu
▁kayna
▁Akça
▁kesinlikle
▁seslendirdiği
▁hareketinin
=59
para
▁ardı
▁Mai
▁Tsu
▁Gazze
▁mantık
▁izleme
▁Özet
▁kaptan
▁olmuşlardır
▁iktidara
▁Tat
▁yapıların
rif
▁ihlal
▁gelişmesi
▁Guy
=116
SP
▁gizlice
▁başkanlığına
rey
▁döngüsü
▁yaşı
▁büyüktür
▁tura
▁92
lme
▁taşıyıcı
▁taraftarları
▁Justin
▁Por
▁kalkan
▁koruması
dr
ux
▁sur
Ger
▁bes
▁1909
ebilmektedir
▁yaralı
▁2009-10
▁yönü
▁tepkiler
▁sevgi
▁duygu
▁1905
▁çubuk
▁Tip
="48
▁kardeşleri
▁Hen
=64
▁Part
▁öneri
▁düş
▁zararlı
="52
▁hastalıklar
▁Yüzyıl
only
ture
▁tarihini
▁çekmek
▁duyma
▁dansçı
▁yönet
▁Doğru
▁komutasında
RA
▁koşul
▁Wolf
▁Basın
▁Eleme
د
=177
▁yarıştı
▁Tapınağı
;&
gia
▁edilmişti
▁1885
▁komut
▁TL
▁yürütülmektedir
▁Tuva
▁kurmuş
▁iade
shire
▁rastgele
▁olabilecek
▁şok
▁çözümü
▁ekmek
tit
lemek
sus
▁1899
▁serinin
▁çikolata
▁Dere
Ankara
▁Lawrence
▁perde
ets
pop
rol
▁istasyonları
▁toplar
Ab
▁Anlaşması
▁Ivan
▁kişilere
▁Yara
▁dönüm
▁eksik
▁seti
ife
▁1976'
▁Dön
▁Yahudileri
▁hiper
▁amaçlayan
▁Yurdu
stri
▁Emmy
hiro
▁dizisidir
▁faktörler
üne
tiv
▁Devrimci
ast
▁puanı
▁hazırlanmış
▁çocukluk
▁ayrılmaktadır
▁Bitlis
="153
▁röportaj
▁devletlerin
▁Bayram
▁Ly
▁inşaatı
▁Tut
▁Best
▁Maden
▁lehine
meleri
▁şeridi
▁yararlı
▁etrafındaki
▁duvarı
▁Cihaz
yacağını
▁ivme
sz
▁Prenses
▁yetkili
▁kanı
▁Prensi
▁gösteriyor
▁tarımsal
▁3000
▁almasına
▁kes
▁sözlü
▁Hanlığı
▁geçim
▁başlanan
▁çeşme
▁İrlandalı
▁gel
▁Lady
lanacak
▁zirve
="43
zam
▁mülk
▁yi
▁sunduğu
▁anlatım
▁komite
laşır
▁koleksiyonu
▁hü
ons
с
▁topluluklar
▁genişleme
▁katkısı
▁Bahçe
matik
ym
=48
▁Wall
▁ailesiyle
▁seç
▁futbola
▁üvey
▁yapıp
kça
nge
▁Yazılım
=280
▁Ef
▁Poe
▁Haz
▁sigara
▁cüce
▁engellemek
▁Haydar
Macaristan
ism
▁uygulanır
▁Öğrenci
▁patent
▁kromozom
▁Cena
▁şarkıdır
▁yayınlanmaya
▁Çukur
▁Qua
▁manzara
▁taklit
▁Doğum
▁benzerlik
▁başlatılan
▁ışın
▁problemleri
▁São
▁oynuyor
▁çevrili
Holstein
▁köpeği
▁hâlinde
çok
▁ülkesinin
▁Dönemin
▁söyle
▁seçilir
▁Yama
lé
▁ülkelere
▁savunması
▁kanalları
gus
▁kelimesinden
All
▁rastlanır
▁arı
▁belirlenmiş
1)
ime
▁gelişi
▁Adını
▁LGBT
▁rütbesi
▁oto
▁Tümen
▁tahsis
▁Amazon
▁kıyısı
▁metredir
rom
TS
▁silahı
▁ölümünün
▁Kardeşler
▁zihinsel
▁bulundukları
▁Mau
▁Giovanni
▁başlatıldı
ctor
▁Lang
▁tabanı
▁görüşler
Bas
▁Indiana
RI
▁davul
▁İktisat
▁Stockholm
▁fu
▁Türkistan
▁Rönesans
▁Wal
bach
▁sonuçlarına
▁Ky
▁element
▁dram
▁́
▁tenis
▁elemanları
▁bulduğu
ão
▁Özbek
ılabilir
▁Lefkoşa
hay
▁deyişle
ija
▁olgun
▁sürücü
Çin
▁bucaktır
▁sürmektedir
▁tartışmalı
▁elbise
▁İdman
▁Fire
▁uğraş
▁geliştirildi
yeni
▁yeme
ibi
▁intikam
=279
▁günün
▁akraba
wo
▁edindi
▁evre
▁infaz
▁Sofya
ort
▁yakaladı
▁üyeliğine
▁organları
▁rast
ique
▁toprağa
=77
=17
▁bağımsızlığı
▁işlemler
▁kiralandı
▁Geniş
▁havayolu
oş
▁Ts
▁albümünden
▁Babasının
eci
LA
▁Katedrali
▁düzgün
metre
▁seçilmesi
▁Qui
▁Ph
ess
▁fırsatı
dus
▁anime
▁yazılır
enler
▁kaynaklara
▁Beyliği
▁98
▁Nintendo
▁devletleri
▁denklemi
▁um
▁1907
▁gazı
ianus
▁uzakta
riz
▁etkilenen
▁kurumsal
▁Christopher
▁Hei
▁Bilecik
▁tercüme
▁bayram
▁hamile
▁İttifak
▁kültürünün
▁görüşmeler
▁Kimi
▁Dokuz
▁Nitekim
▁Siirt
▁Otomobil
▁fethi
▁sahiptirler
▁Çetin
▁hayali
▁Asıl
▁anket
▁çaldı
▁kapasiteli
▁patlayıcı
▁yapısını
▁bırak
▁kadını
nel
▁Marino
=135
▁Ulaşım
▁Cap
anne
▁evlenmiştir
▁düşmanı
▁üretilir
▁nefes
▁ateşkes
▁kullanılmak
▁sesli
Cl
▁belirleme
▁gecesi
▁Ayı
▁Ağaç
▁suretiyle
▁belirlendi
AD
▁yapıyor
▁Bran
▁Games
▁gör
▁adamın
▁Araplar
▁99
▁denklem
▁Menderes
–20
▁iddiaları
▁katılarak
▁desteklenen
▁Çal
▁hizmetler
▁bulunduğunu
▁tele
=27
▁ötesinde
▁arşiv
lemesi
▁verilme
▁bölünme
▁Beyoğlu
▁2"
▁durdu
▁rakam
▁düzenlemesi
▁oranla
▁Muharebe
▁Schleswig
▁Shu
▁kazanması
▁pirinç
▁Katar
▁Mol
▁faaliyetler
▁prens
▁Facebook
▁Anıtı
▁fan
▁birimler
▁Kaş
=105
▁rivayet
vol
▁Gösteri
▁elektromanyetik
▁Sancağı
▁edin
▁koleksiyon
▁Tarihsel
atı
="277
▁azaltmak
▁görüntüleri
Mac
▁dokun
▁maliyet
▁alırlar
Ver
▁Kürdistan
▁Kontrol
▁günden
▁ödüllendirildi
▁çıkarır
▁yaşıyordu
▁karakterdir
▁Tahran
▁maçlarda
▁deneyler
▁çiftler
▁göstererek
▁1946'
liğinden
▁100.000
▁kalarak
▁tarafta
▁memuru
▁verecek
kos
alis
▁Aş
cisi
▁Gürcüce
▁Binası
▁Sincan
▁Anıt
▁(7
▁finanse
gir
▁kâr
▁ulaş
eth
▁gençler
▁Böylelikle
▁Rob
▁Salon
▁tarihî
▁açılmış
▁End
▁köşesinde
=42
eğin
▁Nijerya
▁konularında
▁Üretim
▁ihracat
▁anlatılır
ABD
▁güne
▁maçlarında
▁keman
▁tanımlanmış
▁pilotu
▁tanınmaktadır
="2018
=172
▁kartı
▁kazanmak
▁André
tarak
med
tle
▁kurucularından
Ek
mond
▁Vincent
▁öde
▁Futbola
▁geminin
yüz
▁tıpkı
▁Dağlık
▁gelecekte
▁tünel
▁aktivist
▁*
hab
▁vur
ndi
▁basılan
▁otorite
▁yükü
▁kupayı
rıldı
▁İstihbarat
▁yerleşmiş
▁bölme
taşı
▁versiyonları
▁adresi
ado
▁1889
▁dünyayı
▁olun
▁Bölgede
▁hamam
dro
▁Çoban
▁%1
▁kardeşler
house
▁yemin
▁Ermenice
▁anlamlı
ár
▁Bulut
▁Moğollar
▁Heykel
▁imparatorluğun
▁derecesini
▁kalkınma
▁karşılaşmasında
time
▁paylaştı
▁çalışmalara
▁tapınak
▁Philadelphia
▁Ereğli
▁sanatsal
▁hastalıkları
▁adaları
▁herkesin
▁1895
▁Konak
lıktan
▁takımların
▁sayımlarına
▁pembe
▁sürgüne
▁bağlanır
zzo
▁Free
▁tekne
▁Abdül
▁geometri
▁700
▁Saka
▁zirveye
▁Saha
büyük
́
▁Ortak
▁Mevcut
▁söyleyen
▁pan
▁devrinde
=290
▁volkanik
▁belir
▁sağlıklı
▁Kök
ball
▁125
grad
▁Antarktika
▁dikdörtgen
=44
▁yarışmanın
▁duran
▁Afrikalı
fal
▁soyut
▁takvim
▁istihdam
▁sınav
pr
▁serileri
Ala
▁Sub
Kur
▁pasaportu
uba
▁tuş
_4
="154
▁Off
▁atar
▁Bit
▁kazandırdı
▁kil
▁(9
▁Arı
▁1898
▁Hugo
Paul
▁Yeniden
▁Büyükelçiliği
ß
▁öğretmenlik
▁tüketimi
▁Pay
▁Abdul
Ham
▁erkeklerin
yıp
▁sistemde
▁Demokrasi
▁Stan
okrat
yâ
▁Enver
▁Çakır
oth
▁yüzeyi
batı
▁bölgelere
▁Çarşamba
▁gömüldü
▁Vermont
▁İnce
▁Kö
▁maddeleri
▁başaran
▁mili
▁Emniyet
▁haklar
=145
▁bölgesini
▁hayvanları
▁müzikleri
▁yapılma
▁Popüler
▁tamamlayarak
▁doktorasını
▁Ayaklanması
▁ayağı
▁performansını
▁kayıtlarda
▁bekleme
vent
▁Home
▁seviyesinde
▁geçişi
▁mizah
▁Dir
▁Özgürlük
mmer
Fo
▁Tevfik
kut
▁Bala
▁sayısında
▁Vit
▁Light
▁Madde
▁sunan
BC
awa
▁kapağı
▁modelidir
ave
▁kuruluşları
▁ülkelerden
www
▁geçirilmesi
ebilmesi
▁zeka
▁Maz
tıcı
▁Camp
▁Rod
▁çekirdeği
▁Kırgızistan
▁olaydan
▁çıkmak
▁Rayonu
▁91
="50
▁propaganda
lular
▁etken
▁denetimi
nız
▁Sivil
▁karakteristik
toloji
▁Yayla
nek
laşması
▁gelişmiştir
lock
▁uy
▁imkân
▁batıya
▁kitabını
Ki
▁geçmeden
▁Fars
ago
▁tohum
▁bitirmiştir
▁uzaktan
ışma
kır
▁turnuvanın
▁fazladır
▁çıkaran
lerindendir
▁millet
rme
yazar
▁noktalar
SO
▁öngörü
▁familya
▁Çan
▁sektörü
yıldız
▁Ferdinand
▁Th
▁Şimdi
▁Sezonun
söz
▁yazmış
stone
068"
▁uyan
▁fazlası
▁sergiler
▁programını
▁şifreleme
=43
▁Augustus
▁tarafına
ates
▁Toronto
▁yöneldi
▁taht
▁adaylık
dım
="272
▁kullanılma
çam
▁sıralamasında
▁katılımı
▁170
İng
▁Fal
Gra
▁komedyen
▁şov
▁alındığında
▁Grek
ırlar
в
▁rap
ilmiştir
▁Stein
▁ormanları
▁Hacettepe
▁89
cul
▁By
▁gözlemci
▁1921'
sper
▁Uluslar
ilebilir
▁görüntüleme
▁Budapeşte
▁tersi
Sch
▁Yakup
▁Kırgız
▁Warner
lor
▁etiket
▁aradan
▁CEO
▁kentsel
▁savunur
▁koltuk
▁Ludwig
▁Lar
nica
▁edildiğini
▁etmedi
▁subayı
▁takdir
▁Genelde
▁öte
▁yürütülen
lag
▁yönetme
İki
▁gücünün
▁konumundadır
Miss
Qu
▁çoğal
▁Ticari
▁organizasyonu
▁liderlik
=118
▁1938'
shima
▁Manuel
▁noktasına
▁serisinde
▁Sınıf
▁1948'
lamaya
▁Are
▁bulunmayan
Çe
▁üretiminde
Fu
="72
Va
▁restore
▁gösterilebilir
735"
dre
▁atletizm
Tar
▁360
▁yayınları
▁kapatıldı
ough
▁hi
▁Liberal
▁Endülüs
▁görüntüler
▁Aba
▁Ödül
▁formayı
▁Rai
▁değiştirilmiş
▁üniversitede
AB
▁Havacılık
İs
▁hac
▁ala
▁Marx
▁düşünülür
▁uyarlanan
▁America
▁sahnede
▁Hard
▁derinliği
▁aralık
laştırılmış
▁azaltma
=51
bun
pal
▁Missouri
hei
▁ilkesi
▁buluş
ilerek
Aşağı
▁st
▁zevk
ET
▁ağzı
uka
▁Hac
▁araştırması
gat
ía
gli
▁1966'
▁yaban
▁sayısına
▁ailesinden
▁oynar
▁esin
▁aralığında
▁Lie
▁Nehir
▁deneyimi
="148
Kim
▁Bayan
▁ölmüş
▁giderken
alist
İl
▁plaj
▁3-2
▁Boris
▁geçirme
▁yoluna
▁karakterize
737"
▁seçimler
skaya
Ru
meden
727"
fik
▁dönmüş
Ara
▁alet
▁140
▁göstermiş
▁Od
372"
▁Wrestling
▁çene
883"
▁Çu
luğun
▁Jin
▁saati
able
▁ilaçlar
▁Nadir
▁eriş
▁kuzeyindeki
Kat
▁Sy
▁London
▁görevlileri
▁sağlayacak
▁Coğrafi
kuyu
▁birincisi
▁ayrılıp
▁ilki
▁oyu
▁demo
▁tat
“
ان
▁işlet
▁Ami
kawa
▁makam
▁Irmağı
▁adalar
lıca
▁peynir
▁yoksun
▁kendileri
Yeşil
▁ürünlerin
="116
▁Divan
▁sezonudur
▁Lor
îr
▁Pur
yerek
ebe
▁Bahar
borg
▁1958'
şma
▁marşı
▁hücresi
ulmuş
▁Ball
▁atmosfer
734"
▁Santos
▁koruyan
783"
bah
▁kaçır
▁Bat
▁boyları
▁çapraz
738"
▁karşılamak
971"
ildiği
▁Uzman
023"
▁Call
rul
▁tutma
leyip
▁bastır
▁taşıdı
bani
▁kullan
▁FM
▁Gustav
vy
▁atık
num
="144
▁kaybetme
▁Serdar
▁istatistik
▁servisi
▁astronomi
=54
▁ayrıldıktan
laştırılması
=89
794"
=94
▁sinemaya
▁imzalandı
=50
▁tamamını
rab
▁eklem
="53
▁Charlotte
▁ekleme
▁arzu
ıç
▁Singapur
▁milletvekilliği
▁Division
▁keşfetti
▁karma
Love
gah
hel
▁Resmî
080"
▁Başbakanlık
Par
ive
▁destekli
Dan
380"
▁kategori
illi
▁Göztepe
▁Dance
▁gerçekçi
▁koku
▁şarj
▁1957'
iro
▁Cemil
▁1933'
sever
bik
▁1962'
has
▁hastalığın
▁oyununda
▁sansür
▁katliam
▁don
▁günah
▁Neu
osu
▁malzemeleri
▁Köprü
709"
444"
▁eylemleri
▁Akhisar
▁News
▁boyunda
▁Dü
▁kemiği
▁Marshall
▁İznik
▁değişiklikleri
▁seferleri
588"
ışık
=110
192"
790"
▁dostu
rdi
812"
▁Sıra
▁Harris
▁adaylığı
=226
373"
▁Silva
▁vuruş
▁kuzeye
▁durma
559"
▁makineleri
tah
▁1947'
▁programının
▁giyme
▁ikon
312"
▁Bölgenin
▁gidil
▁Makedon
▁seramik
sindeki
pra
Deniz
▁Tag
alp
▁bilimler
pes
▁başlarına
▁arz
071"
MP
▁elli
▁Sea
EP
▁App
▁özdeş
rup
▁Höyük
▁özelliklere
eç
▁felaket
▁ga
Ed
▁Kürtçe
▁Moore
443"
511"
▁İvan
916"
523"
▁kurar
▁enzim
▁krallığı
▁karşılaşmada
▁Rol
▁yağı
▁yalan
▁Demirci
▁Tayyip
▁hükümetin
ois
▁fren
▁öğreti
▁simgesi
▁rütbe
▁görmesi
▁ahlak
▁Mira
▁çe
▁sür
ე
▁böcek
▁hocası
▁yasaları
▁geçirir
Alman
▁geliyordu
▁gözleri
▁Mani
ø
▁fırlatma
813"
▁Theo
920"
▁böbrek
▁yapabilir
adlandırılmıştır
=277
▁Mahalle
▁Robin
=65
305"
bü
izmi
kuş
▁fakültesi
879"
aq
▁Çoğunlukla
▁Erol
788"
090"
461"
▁kura
▁Mori
▁taktik
▁format
▁Jam
732"
▁yayılması
▁jet
▁yıllara
▁Ödüller
▁Howard
▁Gordon
▁Akademik
ée
zler
▁yayıldı
▁sadrazam
750"
▁çanak
▁emin
▁1961'
▁adaya
▁Def
▁Fon
▁yollarını
786"
▁Pınar
▁geçmek
▁çek
hak
Tur
=95
▁tanrıça
▁Tah
▁sorumludur
▁kurucuları
924"
Şa
▁Uzak
ries
▁1963'
226"
▁oksit
▁programına
▁ulaşıl
782"
▁yarışan
▁şartlar
▁Nev
▁bileşeni
▁ex
210"
077"
şır
▁Bruce
all
690"
="173
▁Miami
kop
711"
▁olamadı
725"
▁kaliteli
▁kaldılar
EM
▁çizgisi
▁soğutma
▁canlandırmıştır
lanıyor
▁ilişkilerini
▁bilgisayarlar
▁birleşerek
401"
▁Dans
▁gerektiren
▁sub
▁vakıf
272"
▁Bayrak
▁yaşandı
▁mitolojisi
▁üçü
▁seviyesinden
▁heykeltıraş
▁kaydedilen
▁unsurları
151"
496"
▁duyulan
▁Günümüz
▁tutarlı
▁Ani
▁kelimesinin
919"
=152
▁cihazları
▁Yüksekokulu
IC
▁getirilmiş
▁geliştir
hri
▁görmektedir
▁toplantısında
alım
=109
546"
▁Abdülhamid
▁yaşarlar
▁türbe
▁tanımlayan
▁giydiği
▁1959'
535"
▁ediliyor
▁fare
▁damar
▁birleşmesi
▁yayılmış
939"
▁Kate
▁Yargıtay
729"
467"
▁renkte
rell
216"
▁Ferrari
DS
▁izole
▁üretimine
411"
▁Mid
▁yükleme
=108
▁kaçak
390"
552"
▁nemli
▁beldeye
387"
diğinde
▁tamamlanması
787"
242"
▁lehçesi
447"
▁konusudur
▁kullanıcılar
▁geliş
war
▁Sadrazam
▁More
▁sen
▁simge
▁Margaret
▁Tang
liyor
▁inanma
196"
▁Tennessee
▁elverişli
γ
▁kaplıdır
739"
Tra
▁Road
▁Jordan
polis
çak
blo
▁Br
▁Abhazya
yip
▁Budist
997"
▁meta
▁Aviv
▁uyu
▁Zürih
945"
▁Melek
789"
▁inanılır
▁karakterin
müzik
oli
▁2014-15
▁köyünün
▁karşılaştığı
382"
▁kralın
▁Pedro
▁çoğunun
dığında
▁radar
▁gelişti
▁kurallar
▁turistik
742"
747"
▁duyarlı
zza
422"
259"
448"
▁bağları
▁Wei
202"
▁Tenis
055"
741"
417"
203"
174"
zor
327"
▁Karakter
333"
▁tümüyle
820"
▁Kennedy
▁Jandarma
▁tüp
▁boyutları
▁bireyin
119"
▁Aşağıda
▁katman
▁öldürme
▁yetenek
351"
▁yıldızın
Azerbaycan
▁Gran
ound
▁Yay
▁uçaklar
▁bilimci
412"
▁1964'
▁Takımlar
669"
▁çıkmasına
▁1877
881"
▁Phone
070"
200"
▁sözlerini
▁bağlamda
410"
▁Niğde
733"
585"
▁boşluk
281"
ovo
▁antlaşması
936"
815"
898"
051"
802"
826"
825"
857"
368"
▁Ras
abildi
▁yayılma
▁evin
Fer
801"
lıkla
▁verildiği
Cor
=52
deniz
ب
▁Öztürk
▁geçirmesi
583"
▁1922'
▁Viktor
451"
186"
▁1902
ülasyon
▁sakatlık
=90
867"
610"
▁Küresel
▁bilinç
▁nesneler
amamıştır
804"
929"
▁Dis
▁satır
▁çalışmasını
▁Kolordusu
▁koy
▁taşınmıştır
631"
▁katılımıyla
570"
▁Şehirde
▁İstasyon
▁duyan
Mustafa
▁köken
505"
▁emriyle
doğu
▁ayıran
▁protokol
504"
949"
▁Meta
261"
▁dilin
526"
▁kararıyla
740"
▁Kre
▁Russell
884"
çer
695"
173"
▁kullanımını
▁Filo
582"
git
▁şövalye
▁yaşamın
▁edilme
▁kapasite
▁yayımlanmış
▁Yi
▁altındadır
388"
441"
907"
▁sakat
▁(8
▁alev
445"
455"
▁asil
922"
▁diller
▁oynanmıştır
fur
968"
▁sınıflandırıl
▁İsrailli
▁rejimi
486"
▁ru
▁saz
▁Cy
▁vampir
213"
408"
404"
▁suları
▁Buradaki
▁kitabının
476"
▁Terakki
▁kabartma
▁Store
▁Burdur
▁Kırşehir
▁Kanalı
▁Dre
▁Arg
613"
▁yavru
="24
▁çevirdi
689"
791"
769"
807"
692"
="37
175"
▁görülme
▁Sultanı
▁Brüksel
="207
▁noktasında
▁Kapısı
▁Rou
sındaki
İlk
▁Sarah
159"
▁Zeynep
485"
384"
ē
▁dayanıklı
221"
407"
▁imzalamıştır
▁gecikme
▁seçilme
219"
500"
▁tar
329"
837"
061"
796"
TE
=13
=155
317"
489"
416"
ela
469"
340"
959"
302"
▁halı
428"
▁kadroya
▁satranç
386"
▁Kadı
▁göçebe
▁devletinin
917"
▁Kule
369"
▁Gla
994"
717"
▁artı
918"
833"
105"
841"
▁domuz
587"
sunun
▁koç
hit
763"
818"
şit
955"
▁Başkanlık
▁yetişen
▁Met
▁Nam
254"
▁suya
752"
▁yaprakları
▁gövdesi
Mon
iyat
▁kalanı
682"
▁bahçesi
694"
▁metni
▁Gan
205"
▁sürümleri
065"
▁sürme
▁Get
▁doktoru
▁incelenmesi
420"
ED
470"
="104
▁Şey
▁tazminat
Uluslararası
▁Solo
731"
▁sakinleri
770"
792"
▁güçler
619"
081"
▁üretti
568"
▁başlamadan
237"
▁Harbi
558"
003"
▁Senaryo
lığının
969"
▁üret
▁monte
703"
▁1965'
679"
649"
oro
761"
▁Somali
▁Eyaletin
645"
793"
▁nihai
178"
066"
▁durumları
▁atı
214"
▁Operasyonu
464"
▁Jason
483"
rid
▁Antalyaspor
ull
▁j
▁eşitliği
Bey
▁filmdir
▁giymiş
▁Burak
976"
▁1906
▁Fernando
▁girmek
▁bilet
664"
▁Tara
▁Ann
hra
abildiği
▁çevreleyen
▁CO
▁ten
▁merdiven
457"
479"
632"
581"
▁Sco
797"
553"
429"
▁gösterileri
▁Yasa
323"
630"
230"
▁güçlerini
784"
gö
547"
280"
▁alacağı
685"
093"
▁üyeler
▁İşbirliği
▁öldürülmüştür
▁Kitabın
▁etmez
▁bölgelerinden
▁PS
662"
▁Hur
vu
466"
602"
▁kurtar
tern
063"
253"
▁şarkılarını
270"
▁State
▁yatağı
138"
▁çağı
çık
359"
082"
926"
399"
767"
367"
▁Paulo
▁kaydedildi
▁kütüphanesi
▁Devri
▁"“
▁ülkesine
▁atanan
951"
▁Jeff
▁hasılat
923"
▁yıllardan
266"
468"
thy
İnsan
▁şeytan
▁ima
508"
▁kamyon
123"
▁tasarlandı
▁editör
▁standardı
116"
▁seviyeleri
▁Bayburt
▁entelektüel
▁Japonca
lic
▁sebze
477"
697"
hos
656"
413"
336"
ilk
▁çamur
157"
046"
928"
319"
211"
▁Kane
383"
Amerika
ht
846"
▁kavuştu
490"
lebilir
▁Kelly
712"
060"
993"
047"
Almanca
üç
▁ölçüm
795"
▁yazarıdır
074"
▁Kai
ales
▁otoyol
kum
848"
ush
499"
▁planda
▁Kolej
628"
▁çatısı
125"
465"
▁çıkıntı
▁Reich
112"
▁değerler
▁1894
607"
▁sisteme
▁gönderir
▁Rihanna
342"
▁faaliyete
560"
814"
433"
=37
011"
▁telefonu
678"
▁Sabah
Off
▁Diş
kra
ith
▁Limanı
236"
▁turist
045"
lemiş
▁skorla
TC
683"
5)
405"
963"
824"
▁Onlar
▁gelince
-25
030"
=113
067"
446"
▁manevi
513"
865"
887"
▁komün
475"
=129
617"
▁Körfez
374"
995"
780"
rac
▁âşık
385"
472"
114"
▁Katliamı
çuk
▁festivali
079"
181"
914"
▁detaylı
atik
941"
▁Fabrikası
020"
]]'
579"
▁%1,2
▁É
▁takımlarında
169"
▁aynıdır
ppe
423"
726"
294"
▁Muh
▁haberler
miyor
▁kanunu
▁taşıdığı
798"
232"
615"
957"
▁aşamada
284"
▁Dave
381"
▁havada
▁emretti
tav
Pan
728"
370"
Tanrı
326"
029"
▁şeklini
193"
▁gerekçe
487"
▁Geçici
749"
▁müzesi
▁180
▁pompa
528"
▁edilecek
▁Saf
layabilir
191"
775"
515"
ت
▁yapısına
▁dallarında
024"
817"
▁takvimi
▁takımla
942"
452"
▁paşa
mesiyle
▁kışın
▁Cruz
621"
▁akan
521"
я
882"
▁Medine
076"
kam
▁istenen
▁yıla
▁Müslümanların
758"
fel
194"
684"
▁1.0
666"
▁resimler
▁bileşenleri
575"
904"
101"
▁çam
894"
mıyor
102"
256"
▁kayma
604"
▁İktisadi
378"
246"
▁türlerinin
▁yapımlar
▁danışman
686"
▁Elektronik
718"
▁görmeye
776"
274"
886"
852"
713"
967"
049"
276"
032"
873"
▁Fuat
▁Mareşal
▁Auto
▁şerit
▁Kadir
▁geçirerek
109"
304"
498"
748"
▁vermeyi
▁nehrin
▁İpek
657"
ces
078"
▁buçuk
536"
▁bez
▁sanatçıların
707"
▁direnç
=154
▁Senfoni
▁oğlunun
▁Pul
=111
668"
gri
164"
522"
▁Kaz
540"
557"
231"
▁heyecan
iza
431"
π
567"
▁konumunda
530"
438"
▁sanatları
510"
311"
460"
▁yazarlığı
287"
▁ortamında
▁Test
▁verdiğini
▁Matthew
248"
449"
391"
="105
627"
▁kaldıktan
623"
843"
yim
▁savaştı
419"
▁bilimleri
110"
▁Dai
▁okun
US
escu
946"
▁Kırklareli
▁Ven
913"
004"
sızlık
▁faaliyetlerine
902"
980"
▁artırmak
142"
108"
463"
▁yolda
212"
▁kalem
▁iğne
361"
▁Batılı
554"
334"
▁Okyanus
▁görünümü
tura
▁hipo
392"
377"
414"
224"
551"
402"
▁belirleyen
168"
▁1956'
803"
179"
360"
710"
943"
300"
357"
▁başladığında
425"
350"
▁ilişkilidir
146"
tto
250"
409"
233"
992"
ος
▁Om
nez
▁ulaşımı
038"
fat
832"
▁Kür
375"
022"
243"
609"
118"
605"
808"
366"
▁karın
543"
▁indirme
▁gelecekteki
▁geçerlidir
835"
723"
▁mahallesinde
▁yıldızların
▁basketbolcu
241"
▁Cab
▁nüfuz
▁Kaba
514"
▁hikâyeleri
▁Law
288"
177"
154"
▁İsim
▁prensibi
765"
026"
474"
Ber
▁tehlikesi
▁Fotoğraf
▁Boeing
283"
859"
▁oraya
▁adasında
592"
İran
▁dağları
779"
512"
hai
492"
="76
▁hormon
▁1949'
▁cihazın
252"
▁çağır
122"
ndedir
507"
lamaz
829"
148"
014"
▁nedenlerle
745"
614"
850"
757"
541"
577"
▁İttihat
▁Sayı
426"
295"
▁kurulmasına
▁Belçikalı
415"
328"
527"
362"
932"
▁Sünni
940"
▁kalmaya
278"
565"
743"
▁anlaşmaya
453"
806"
teydi
▁zordur
480"
him
▁ermiştir
960"
▁Mesih
189"
▁Dergi
▁kurmaya
218"
418"
785"
▁katılması
▁parçacıklar
▁Erdem
339"
027"
▁Bilge
▁1936'
569"
▁%33,
223"
▁vezir
▁Ü
▁lüks
722"
104"
=93
878"
888"
365"
516"
eks
="75
208"
▁patlaması
ole
▁Gir
000"
uru
235"
691"
▁1893
▁Kıta
542"
291"
=36
dık
908"
201"
970"
525"
▁Steven
183"
348"
006"
Ağ
901"
="78
▁Bolşevik
▁tarihçisi
978"
822"
730"
ue
025"
▁Iğdır
▁Bürosu
471"
271"
548"
979"
459"
264"
hn
982"
293"
800"
755"
▁gösteriler
436"
257"
618"
▁Özellikler
035"
Ahmet
▁Wayne
▁gerçekleştirmiş
001"
CD
964"
892"
517"
▁memleketi
937"
▁Tepesi
562"
▁antrenör
989"
698"
107"
537"
427"
533"
862"
809"
836"
176"
180"
598"
332"
▁şef
379"
586"
494"
811"
▁sistemidir
671"
034"
▁Aleksios
▁amaçları
nch
909"
143"
608"
834"
667"
495"
▁tutulan
▁müdür
▁Platon
▁Lisa
▁çıkışını
Mak
▁içerdiği
198"
▁Yok
▁senaryosu
041"
310"
094"
▁Cass
▁sade
228"
534"
tekin
▁dönmesi
394"
972"
715"
481"
603"
▁istatistikleri
206"
153"
▁belirler
759"
347"
877"
▁FIBA
▁eylemi
▁imkânsız
▁teknolojik
Tri
bara
531"
sten
650"
▁düşün
kim
456"
868"
545"
965"
▁eleştirmen
268"
▁Şeker
▁Marksist
Cu
▁İncil
844"
uca
▁yenilgiy
430"
phe
363"
▁Lyon
640"
▁vazgeç
▁lazer
273"
▁biyoloji
961"
▁ilkel
▁Tiyatroları
μ
849"
▁1901
195"
▁Channel
255"
▁Aksaray
651"
▁zarfında
140"
▁eserini
875"
▁elçi
▁1914'
462"
▁hazine
434"
2000
092"
058"
vâ
▁sözler
ciliği
▁salgın
▁kazanılan
hard
▁arayüzü
İslam
810"
171"
lio
048"
▁yönetiminin
437"
400"
▁Houston
▁noktaya
805"
▁taraflı
984"
706"
616"
636"
▁güvence
158"
245"
529"
524"
tius
▁Fuji
751"
▁istilası
599"
595"
▁yenilerek
299"
rar
beş
017"
005"
▁Est
▁Esen
alt
389"
ûr
435"
▁şiirler
▁kabine
925"
397"
187"
▁ömür
331"
▁Kansas
099"
519"
956"
det
642"
▁Kenya
▁ilkeleri
▁bölünmesi
▁bakanlığı
▁Yön
899"
▁etkisiz
880"
▁dakikalık
Cha
561"
845"
634"
343"
677"
▁105
▁şüpheli
âl
="265
▁Baron
096"
573"
199"
163"
996"
675"
117"
778"
975"
364"
iko
▁kalenin
600"
maç
260"
▁Kav
▁kullanması
947"
▁Konsey
▁doğuya
062"
▁konumda
756"
054"
tsch
▁İleri
▁1882
934"
▁Wu
040"
938"
▁enfeksiyon
161"
977"
207"
039"
kil
580"
222"
249"
693"
▁olasılıkla
vas
▁Sav
344"
590"
838"
950"
adi
933"
073"
696"
858"
687"
893"
083"
564"
896"
641"
013"
klar
▁2008-09
316"
▁söyleme
701"
688"
▁dedesi
▁Gogh
▁Gü
▁baştan
▁yakalandı
354"
▁gram
170"
▁rehber
uğu
482"
çilik
352"
629"
539"
308"
▁yüksekliğinde
478"
▁1952'
="281
661"
009"
966"
084"
▁silindir
▁belediyenin
724"
yas
028"
376"
▁Copa
▁suda
▁avantaj
▁yükselmesi
091"
=148
571"
238"
277"
860"
816"
699"
059"
781"
▁kaybeder
▁cephesi
301"
440"
▁getir
330"
869"
905"
▁sorumluluk
▁%0,6'
wing
RT
▁hastaneye
493"
▁evliliği
660"
▁tüketici
625"
▁orduya
▁Fiziksel
985"
▁bakanlık
371"
stro
Ci
197"
204"
760"
532"
▁1.1
loji
611"
▁grubundan
991"
872"
289"
864"
▁İhsan
659"
296"
704"
075"
▁Dakota
▁pamuk
403"
▁Oliver
768"
538"
▁çiz
990"
▁haz
871"
948"
754"
=103
454"
▁sit
▁kullanımına
▁Hıristiyan
008"
oko
774"
952"
larken
215"
▁Morgan
450"
095"
▁Bayern
▁düştüğü
▁ormanlık
▁bakımı
160"
601"
987"
314"
▁Ligue
▁ilahi
▁1937'
473"
▁zorundadır
▁temelli
unt
652"
866"
▁geometrik
799"
▁Biyo
▁eğilim
▁etkileme
550"
424"
düzenlenmektedir
921"
831"
503"
▁karaciğer
106"
▁Yöre
644"
▁maske
▁eylemler
▁Take
▁arması
954"
▁meşe
269"
▁Hus
▁Altyapı
▁Derin
▁Intel
033"
▁renkler
053"
▁sahasında
217"
▁ofis
▁kadınlara
▁gitmiştir
▁oluş
442"
mî
▁beraberlik
▁%6
056"
▁Üzerine
167"
▁begin
▁kaybetmiş
906"
889"
626"
▁Şubesi
563"
şt
981"
▁Donanma
072"
262"
Kap
▁Mez
▁zeytin
861"
▁amaçlar
876"
▁1892
087"
reti
321"
700"
855"
▁yukarıda
▁British
137"
▁usulü
655"
▁anlattığı
▁Konser
458"
911"
777"
▁dağıtımı
115"
131"
▁Çınar
▁bakımdan
870"
612"
681"
▁yardımcılığı
120"
509"
▁yönetimini
012"
736"
658"
▁giril
708"
762"
ulu
064"
▁Flor
=24
746"
▁Ozan
983"
▁hacim
▁Kit
▁Beach
821"
335"
▁Kaza
▁teknolojileri
futbol
225"
596"
502"
laştı
bury
306"
315"
aux
639"
▁Makine
▁yanındaki
▁siyaseti
130"
▁savaşları
▁iTunes
263"
050"
▁papa
111"
676"
▁Hamdi
lenmeye
▁çalışmalarıyla
▁Oto
▁dairesel
▁pu
680"
282"
▁İlin
089"
251"
▁sistematik
897"
578"
▁kökleri
052"
▁metrelik
ğında
▁ilçeye
kendi
002"
620"
lendirilmiş
285"
974"
324"
▁eserlerin
265"
185"
▁Alay
▁çömlek
▁1953'
133"
716"
▁tecrübe
874"
▁büyümesi
▁Halkın
915"
121"
958"
▁gösterim
▁Alayı
396"
▁kullanılabil
267"
▁Aliyev
▁Tha
240"
yeceği
036"
721"
643"
ault
007"
tov
itt
▁toplulukları
▁1955'
lış
Gök
▁ordusunda
124"
188"
▁İlkokulu
nat
135"
113"
491"
439"
▁yarışmayı
566"
▁direnci
018"
488"
998"
▁konsol
▁Ankaragücü
AF
593"
518"
öv
584"
549"
▁Utah
=115
▁Stadı
▁şekillerde
▁Ner
637"
▁kapat
▁zi
nom
606"
▁Portakal
▁Geçidi
297"
842"
▁Sait
653"
398"
▁personeli
318"
234"
ücü
229"
▁hâkim
▁bize
▁papaz
▁canavar
▁nu
=21
▁oynan
903"
927"
▁Eşi
576"
▁Lind
bl
714"
▁%64,0
▁Donald
764"
▁Lou
▁Gay
▁bağlantıları
ırken
638"
▁anlar
▁bana
▁halefi
828"
406"
▁töreninde
▁beyan
Dar
346"
▁davranışı
127"
393"
Com
497"
▁tehdidi
sergilenmektedir
insan
▁cihazı
▁yerleşmiştir
019"
▁kalmak
421"
823"
244"
227"
591"
▁ideoloji
572"
239"
="166
▁modül
Fransızca
▁ft
▁gücüne
298"
▁söylenen
Öz
▁gerekiyordu
▁eyaletleri
▁gelmişti
▁tuğla
▁göstermesi
▁ilişkilendiril
çik
103"
209"
594"
▁Bros
metrik
162"
▁Yalçın
719"
▁Ün
▁Valley
▁kümesidir
PC
885"
098"
▁sendika
152"
▁Hemen
▁ruhu
▁Kütüphane
▁1835
ш
▁Oklahoma
▁1881
931"
▁görünme
uga
▁modu
▁babasını
Fransa
854"
▁gitmiş
▁tepkime
▁sayımında
057"
▁malzemesi
▁robot
292"
▁ibn
150"
136"
▁Mik
▁tedarik
999"
986"
▁olanağı
574"
▁kampı
cel
▁doldur
▁sembol
672"
144"
▁eşittir
▁sigorta
830"
▁planlı
624"
▁Petro
▁güneyindeki
▁Hamza
▁kararını
ings
▁Carol
▁ü
705"
▁Death
Rusya
vre
Hacı
589"
▁kullandıkları
▁müziğe
▁gişe
744"
085"
▁Sankt
dadır
670"
▁Konstantinos
▁Arts
▁akışkan
▁Lizbon
▁Pictures
▁taarruzu
▁düşündü
▁geçip
771"
gın
313"
307"
037"
819"
▁Vel
enburg
646"
▁mezhebi
▁eğilimi
▁foton
895"
▁Airlines
▁örümcek
149"
▁gösterge
▁türe
▁ilerledi
▁alfabe
-30
484"
▁karşıt
▁tükenmiş
▁yitirdi
258"
▁yakalama
▁1923'
▁His
827"
165"
▁Erivan
▁tekstil
▁Sidney
355"
▁dostluk
▁yaratma
▁etmeleri
diye
345"
190"
▁hükûmetinin
▁Mirza
▁Miguel
belirtilmektedir
▁Sis
665"
129"
▁tamamlanan
100"
mizi
Men
▁kullanıcının
847"
yel
ij
=272
▁Gelen
▁Ernst
▁Muhafız
▁eserlerinin
▁hipotez
▁Hasta
ağın
▁finans
▁kafatası
▁platin
▁problemler
▁Gui
▁Moon
597"
▁Karar
520"
▁bilmektedir
▁bölüme
cat
▁Kerim
▁Kavak
▁mekanizma
156"
▁port
▁hikâyesini
▁konulu
147"
▁aktarma
▁verirler
633"
303"
▁etap
▁Kuveyt
chan
▁tu
=265
▁Beh
▁Thi
▁batarya
dov
▁Başlıca
988"
umi
▁çalın
044"
▁Daire
=258
766"
▁havacılık
lacak
▁savaşlar
▁Hürriyet
043"
▁1891
▁sahneleri
▁plaka
▁ulaştığı
▁Gökhan
126"
="177
395"
▁çalışmalarda
338"
ère
▁türündeki
▁biber
220"
▁konumuna
zur
▁bileşen
184"
600
145"
▁köylüler
010"
▁Phil
▁Suç
▁yasağı
088"
086"
021"
555"
155"
674"
▁yürütmüştür
▁düzeltme
mé
309"
▁otonom
▁komisyon
=144
▁operasyonları
▁2,5
▁farkında
635"
▁çabası
ax
▁madeni
501"
ك
▁Avrasya
erkek
016"
▁taşları
128"
=173
▁mantar
286"
▁olgu
648"
▁Sözleşmesi
Ac
622"
▁Jüri
▁erişimi
772"
853"
▁döndüğünde
▁kaybederek
▁istisna
▁bıraktığı
▁Köse
uli
▁nem
▁öldürülen
973"
▁Üstün
753"
▁iplik
▁seçeneği
556"
▁yerleştirilmiş
182"
962"
▁mirası
kun
031"
▁kuşağı
▁eserlerinde
900"
647"
▁Maçı
720"
856"
▁açılır
=67
172"
▁fen
▁düşmüş
▁hiçbiri
▁kelimeler
▁Kül
069"
şer
ი
910"
▁güçlerinin
▁dokusu
▁takımıdır
▁Cher
▁Reform
pre
341"
▁düğüm
▁hadis
▁Atom
onik
Che
oluk
▁Amy
▁Seb
337"
▁edeceğini
▁Andrea
▁vakit
▁kentte
▁ağaçlar
▁hızlandır
▁94
▁oluştururlar
▁kısmına
166"
247"
▁şehit
▁muhafazakâr
▁İr
912"
lir
▁sezonuna
673"
uck
▁ilişkilerin
279"
356"
▁Mega
▁Manhattan
sif
▁dolgu
290"
944"
325"
rılması
▁ayırma
▁hektar
▁üretici
▁İb
▁umut
840"
▁Öğretim
=78
▁türlerin
953"
ан
▁fikirleri
▁yazın
▁mürettebat
851"
bili
▁yazmaktadır
▁hattının
▁İsviçreli
▁Cermen
▁örgütün
▁(20
▁yaşlarında
▁Simpson
▁izleri
863"
▁hareketini
Sin
134"
▁açılışı
▁Miz
▁Geliştirme
▁Özgün
▁albümden
654"
▁sporcular
▁Ramazan
▁odaklı
vey
▁fenomen
lî
nur
▁Iowa
="287
▁toplandı
▁çekişme
—
▁Bet
▁ömrü
▁başlama
▁yılını
▁yerinden
▁dansı
▁değiştirilmesi
▁Girls
▁Yap
▁Nükleer
lilik
grup
▁kapsamaktadır
▁düzenlemeler
▁oturan
▁yıkım
▁inceleyen
lop
▁yıkıldı
▁Gon
▁tezi
▁oturma
▁istiyordu
▁Studio
▁barındırır
▁mesajı
=259
▁Perry
▁karşılaşır
▁yönlendirme
▁yazıldığı
▁dilinin
▁Performansı
=53
773"
▁yapılanma
Tom
▁birbiriyle
▁Silver
stal
ust
890"
▁belirterek
▁Bonn
▁Akın
▁Giray
▁birtakım
▁tarzda
aria
▁çapı
▁Mos
▁2007-08
günümüz
▁halkları
▁kaplar
▁Gıda
353"
▁toplamak
▁Jen
▁kaplan
▁isabet
▁elemanı
rama
▁İlhan
▁çevrilidir
891"
suna
▁bölgelerine
cc
▁Tas
▁şehirlerde
amayacak
▁kendisiyle
cuk
097"
Nu
▁Komite
▁Bazıları
▁azdır
▁Albümü
▁İlçede
663"
▁yerlerinde
349"
▁Frederick
▁basamak
="155
▁Marvel
You
Sarı
▁efsanevi
▁Araştırmaları
culuk
▁Grande
▁sözleşmesini
Doctor
▁Kâ
▁kuram
▁Fel
▁Mercedes
Bra
▁Danimarkalı
▁sohbet
▁Wright
trik
▁alıntı
▁Rosa
=31
▁harfleri
▁esnada
▁edeceği
▁Ted
▁Shakespeare
▁haritası
▁dost
▁kaybettiği
Fenerbahçe
▁çoğunluk
▁geliştirdiği
.500
▁kuyruklu
▁gerçekte
roz
141"
930"
uc
park
139"
▁Josef
▁memeliler
eiro
acaktı
▁rakipleri
▁ayları
▁uğramış
▁С
▁kaptanı
▁adada
ark
▁Helsinki
▁04
▁dönük
emedi
▁Boks
▁trafiği
▁adlandırma
▁bağlanma
132"
▁Rusların
▁odun
▁sinagog
hm
oksi
▁Selçuklular
▁Ahit
▁128
▁Eren
DE
▁Chart
▁Amiral
▁Muha
ف
▁ayakları
▁koyar
042"
yy
▁düşünceleri
▁artırma
▁Wisconsin
Bil
▁Şe
▁depremi
hun
urs
▁kaçar
▁Let
▁Gru
▁inanış
▁Jung
▁motorlar
▁anında
▁Sasani
▁filmindeki
▁Elçi
=281
▁mezarlık
275"
▁muhabir
▁Peri
935"
▁gündüz
▁bizim
▁sayfası
koç
▁Pal
yuki
▁kısıt
▁Arkeoloji
▁köklü
▁Pr
▁ermesi
▁motorları
Angel
▁temelinde
▁Bayramı
▁toplumu
▁yetmezliği
▁Ümit
▁arda
▁İsti
▁Vergi
▁merkezî
ahmet
▁engeller
▁başbakanlık
320"
Cas
▁Serisi
Raw
▁Petersburg
▁girip
▁Gun
▁sürmüş
▁defter
▁girmeyi
015"
ern
liğinde
▁Dublin
▁kentinin
▁(26
İK
▁romanından
▁yanma
▁Kaplan
▁tarayıcı
▁Kızı
Is
▁kayalık
▁antrenman
="79
▁hareketler
▁#
▁kaçın
▁Posta
=66
▁Peygamber
$
iller
▁memeli
▁yapmakta
▁hayranları
▁Pla
▁Ukraynalı
sür
ğinde
▁davran
▁1954'
▁saatte
▁kullanırlar
▁türemiştir
▁filmlerin
.000.000
▁dillerinde
▁bisikletçi
▁etmesiyle
▁makaleler
▁Adil
▁anlatmaktadır
irken
▁Bartın
▁yürü
Almanya
SI
▁koca
▁mide
▁dağıldı
▁Vatan
▁eleştirel
▁değiştirerek
▁merak
▁kaydetmiştir
▁mesleği
lius
▁besleme
▁görüntüsü
="2016
▁Kültürel
formula
▁101
▁bağırsak
koz
leyebilir
▁atmış
▁IX
▁Meksikalı
▁Baz
onlar
▁Gör
▁öğretmenliği
506"
▁Gram
▁cismin
▁transferi
▁Tuğ
▁Queen
▁Julia
▁Şan
bes
Black
▁azalma
▁Jimmy
▁hikâyeler
▁lejyon
▁büyükelçi
322"
likte
ars
OR
vari
▁Kuzeybatı
▁İttifakı
▁topraklarda
▁alanıdır
▁asır
▁dinleme
▁anılmaktadır
▁başlarlar
▁Gücü
▁korun
▁Kart
▁tanıştığı
▁yenen
pos
▁dönüşümü
▁kayak
▁iPhone
ıklı
Kö
▁Mach
▁göstermeye
ofil
▁benzersiz
▁tütün
▁edilip
▁dramatik
Beyaz
azi
▁yöne
▁çalışıyor
▁Anlaşma
▁kalkış
▁zıt
▁1912'
▁küp
▁gösterisi
▁saatlik
="73
▁tankı
ч
ز
▁bağışıklık
▁Raymond
aire
▁çıkartma
▁Konfederasyon
▁karikatür
▁ilgilenen
▁önerisi
▁kulübüdür
gro
839"
▁yasalar
▁öneme
▁Hazine
▁Ir
zim
▁yükselir
▁%10
▁Abdülaziz
▁sanılmaktadır
▁Komşu
▁kendinden
▁aslan
naz
▁sokul
▁Junior
▁Yıllık
şü
güney
▁yaratmak
dirler
▁nota
▁kronik
Ça
▁ekstra
ech
▁Wo
▁Giro
▁Düş
▁yazıp
:1
▁editörü
▁düzenleyen
iel
▁balina
▁Tol
▁Len
▁Gr
▁Demirel
Far
şim
ð
▁unsurlar
may
▁Tedavi
▁German
▁ailesini
▁1884
544"
suzluk
over
▁sınırlarını
▁Bolşevikler
=35
▁Seattle
zaman
▁Liv
▁Family
yayla
432"
▁hayatında
▁sınırlama
▁Kopenhag
▁1867
▁onuncu
▁uyma
▁Gelişme
▁Barbara
ial
şak
▁maaş
▁Hills
=133
▁telif
▁çim
=72
▁lav
yaklaşık
▁kompozisyon
▁katkıları
▁Tr
Jean
▁keçi
▁mer
▁olmaksızın
▁doğrulama
▁Plak
▁oyların
▁kulübe
▁programda
▁Zamanla
▁Kura
rp
▁gömülü
▁Şevket
▁Atlanta
ugh
▁bulunmak
▁ocağı
▁nerede
▁kazandılar
▁kült
yası
▁işlerini
▁Herhangi
▁Fle
▁belirtmektedir
▁Kah
▁1848
▁Cook
=75
=166
▁Hükümet
▁Erik
▁evren
▁IŞİD
▁Colorado
▁Söyle
▁Jerry
▁UCI
▁ağaçları
▁tasarımcısı
▁unsur
=207
▁Mod
▁Franco
tizm
▁Carlo
lmesi
▁oyunculuğu
▁Budizm
▁onuruna
▁statüsüne
Hasan
▁ziyareti
702"
ecekti
▁Aşık
▁kıyafet
▁şehrindeki
▁1888
▁İlerleye
▁Abdurrahman
▁görece
▁burs
IM
▁açıktır
▁okullar
▁Şeytan
▁durdurma
Min
▁koymuştur
▁ağları
▁adli
▁kamusal
▁yönünden
=88
ema
▁Great
▁yaşamına
▁keşiş
▁sınırına
▁First
▁Arma
▁Fatma
▁ırkı
`
▁yıldönümü
▁tabloda
="258
ders
▁yolunun
▁dinler
▁yerlere
▁dinlenme
▁Kasaba
▁Engin
▁Stadyum
▁Sz
="108
▁nano
kış
▁bölünmüş
▁sever
▁görünmektedir
▁performansıyla
▁biliniyordu
Chi
▁Universal
▁kentine
▁Çavuş
▁Harbiye
cz
▁geleceği
▁Nat
="259
▁suçu
▁bırakılması
▁mülteci
SD
▁plazma
2010
▁1.2
▁kafes
▁tuzlu
Üç
▁derginin
▁Over
▁Dijital
▁kısaltması
▁Office
gaz
▁kızın
▁genişlemesi
▁adından
="276
358"
vri
David
▁dünyası
eto
▁koronavirüs
▁gereğince
▁bağlama
▁ayır
king
▁saygın
▁yapılarak
▁Molla
▁Kurul
▁bombası
ás
vik
▁pazarı
▁ortaklık
RS
▁özelliklerine
otik
grafi
plan
▁hel
ping
ord
▁Faruk
▁1887
▁Clark
▁okulunda
kus
▁ikisinin
▁sahneler
▁Kuruluşu
▁kabuğu
▁Osmaniye
▁Alabama
▁hidro
▁zira
▁bilgilerin
▁Boys
▁tanıtımı
æ
▁Kırıkkale
▁konumunu
▁ileride
kıs
▁topluluğun
▁mat
ON
▁karışım
▁Berg
▁IC
▁genişliğinde
pir
▁karşılaştırma
▁dernek
▁1903
CO
▁Şair
▁manevra
▁Sergi
▁sistemlerinin
▁devlete
▁anlamak
▁uğra
▁süreyle
▁şehrini
hum
sho
▁etkilerini
▁öğrenimi
▁McC
▁müdahalesi
▁askerlerinin
▁alındığı
▁Mem
▁olmamasına
▁telaffuz
▁atama
▁ulaşmış
Roma
▁Marco
▁niteliği
▁otur
▁mak
▁Single
▁bildirir
hanesi
▁Last
▁belirtmek
▁kabuk
Art
▁Kazu
yeri
▁bilişsel
▁kurumun
▁Başkent
▁Kıyı
▁hazırlama
▁yy
▁enstrüman
aud
stad
▁kulüpleri
▁çözül
▁1924'
▁katılacak
▁Levi
▁istemiştir
poli
▁Radyosu
inho
Pu
▁Tav
=100
▁Eleştiriler
▁tartışıl
▁zorluk
=107
▁kültüründe
▁1917'
▁Musevi
▁Özdemir
▁hakkına
▁edecektir
▁karşılandı
▁gezegenin
▁Hafta
▁isminde
▁Heyeti
_5
kıl
▁federasyon
ар
▁algılama
▁tarihlerde
leşmiştir
δ
▁geçtikten
▁Hayvan
▁Portekizli
▁üstünlük
▁beynin
▁çevrilmiştir
yacak
▁Mülkiye
▁İskandinav
non
▁muhtemel
▁prodüksiyon
▁yapacağı
▁Ligde
kışla
ovich
▁önemlisi
▁imtiyaz
▁çifti
ûl
▁atadı
ô
▁yorumu
▁%0,3
▁bale
▁uzlaşma
▁Nan
▁korkusu
▁yaşından
▁cinsinden
▁almaktaydı
▁dönmek
▁onlarla
ʿ
▁ünlüdür
▁bölü
▁vatan
omi
îyye
ndo
ılıp
▁Vis
lsa
▁yürüten
=76
Mes
és
▁hayır
▁görüşlerini
▁Bolivya
▁Eyüp
▁Levent
▁suçlar
▁uyarlanmıştır
▁Nah
ruz
▁%50
▁santral
▁koyduğu
▁eserlerinden
="5"
ûn
▁dahildir
▁gez
▁dök
▁Alevi
▁Hristiyanlar
cis
▁Canlı
▁mus
▁siteleri
▁Susan
IR
hov
▁emniyet
▁aileler
▁bırakıp
cen
▁Carter
=68
="223
▁Fred
▁Giriş
▁Çıkış
▁bilinci
kins
▁dünyasının
lev
▁This
▁Gana
eviç
▁katmanı
▁mesafede
▁dönüşmüştür
▁bağlıydı
ory
yoruz
▁toplanması
▁Tapınak
▁gerçekleştiren
▁piyanist
▁Leningrad
▁hukuki
▁Dava
pil
▁programın
▁Leyla
▁dahilinde
▁göçü
▁ABC
▁üreticileri
▁dolara
▁yaşamaktaydı
▁zehirli
▁bölümlerinde
▁Nikola
▁yaşıyor
▁Zara
▁değişti
▁eğitimci
▁Darwin
hall
▁tutulur
tul
mark
▁Yel
▁mit
▁Set
ო
▁Eskiden
=244
▁binaların
▁zorluklar
▁sapma
▁Zor
▁satarak
▁Asker
str
▁yönleri
▁yapılmasını
▁evleri
este
▁Şar
Ex
▁basıldı
▁mensupları
▁mas
▁Kentucky
▁Bükreş
▁müddet
▁dalgası
▁duygusu
▁inanan
▁onarım
▁bestesi
AA
▁dalda
▁tutulması
▁Galya
▁sodyum
▁esinlenerek
lüğün
▁kalıntılar
▁ustası
ance
▁isimlerle
▁üstünlüğü
▁çevirmen
▁Onu
▁hedefleri
▁×
▁tiyatrosu
▁Seyyid
▁sesleri
TÜ
▁Araba
▁Zeus
▁müziğin
▁dolaylı
-0
▁artmıştır
▁karasal
▁nedenleri
gâh
▁ziyaretçi
▁akrabaları
▁hukukçu
▁1934'
▁Fuarı
rasyon
▁göster
saray
Ag
▁atılmıştır
▁öldür
▁mektubu
▁sürpriz
▁tut
▁kalmayı
▁kuruluşundan
▁madalyası
▁görevlerde
▁çarptırıldı
uyla
▁Sap
DF
▁feminist
▁kısmi
▁teker
geç
▁au
emeyen
▁etkilenme
▁Kosta
▁argüman
▁Mississippi
▁Barselona
▁Endeksi
liz
▁muha
▁öncesine
▁yık
▁stres
cir
kt
="65
▁başlattığı
ozo
▁aşan
▁hastaların
▁Fakülte
▁jeolojik
won
▁Kant
▁götürür
▁değiştirmek
▁Kei
▁göründü
bad
▁çalışanı
▁Blu
▁kuşatması
▁tutuldu
jer
▁Book
▁çiftçi
▁alakalı
▁havuz
▁Hil
▁fiyatı
▁çalışarak
▁denizden
FA
▁Benim
ej
▁bulgu
lenip
▁aktivite
▁Bang
Şi
▁Morris
▁taze
ua
▁Şeref
="244
ь
▁addır
="176
▁koordinat
▁Manastır
ladıkları
▁eleştirdi
▁Federasyon
ebileceğini
▁Ry
-22
ides
âh
▁diren
▁ihmal
▁kolon
▁Sina
▁ipek
▁işini
▁Tes
▁pol
▁That
köprü
▁gazetesinin
usu
▁fotoğrafçı
usa
▁bay
osa
▁yerçekimi
▁dünyasına
▁konsept
▁şimdiye
ktif
vra
▁levha
▁hücrelerin
tım
▁şube
▁başlanmış
nam
▁nötron
Taş
▁Spa
▁toplantısı
eğe
▁şunlar
▁günlerinde
▁1863
▁Cooper
▁Cava
▁Hâ
▁Ofisi
kka
▁altyapısı
▁binaları
6)
▁Başta
▁1951'
Ol
▁takas
tab
▁Bag
Die
▁unu
▁çapta
▁Space
▁Cru
▁çoğunda
▁hâle
▁danışmanlık
▁aniden
▁SSC
▁kabilesi
▁1865
▁kadarki
▁Ulus
▁Jonathan
▁evlilikten
▁imam
▁yapıtı
▁Emek
ulus
▁Politika
▁teorileri
ME
▁Artistik
cast
▁tarihlenen
=287
hof
mize
▁kraliçe
onya
gis
="74
▁eyaletin
▁yansıt
▁Norveçli
▁sunmuştur
▁Ülkede
Dev
▁kına
▁Carr
▁tanınma
▁aydınlatma
▁Tebriz
▁1871
▁yapıtları
▁koru
▁parkı
yecek
▁kabiliyeti
▁molekül
▁çar
▁izle
▁sağlanan
One
▁nitelendiril
▁Wen
▁düşünen
wick
▁Sekiz
▁Naka
▁Kiril
▁kavramları
▁ölçüsü
SK
▁gözle
▁acımasız
bî
▁Çukurova
yacağı
▁dalları
quot
zak
▁Sedat
▁tamamlanmıştır
▁Kamp
▁eteklerinde
▁hap
▁süreliğine
י
▁davranışlar
ebi
▁gelirler
▁Esp
▁Sahil
▁Press
cco
▁sö
Kam
▁çözelti
▁daima
▁çocuklara
Var
▁İlyas
▁tabur
kurt
ress
tation
▁Net
=87
▁Aero
▁kanlı
▁Dinamo
▁Çankaya
▁şiddetle
▁Chu
▁çarpan
erson
Ken
▁Ural
▁lif
▁Jüpiter
▁güce
▁2.5
▁Oyunculuk
▁alanını
▁silin
▁Osmanlıların
▁Johnny
▁Union
▁Stu
nâme
cent
▁imalat
▁kostüm
▁Darbesi
▁135
▁Dean
kre
ânî
▁bırakan
icus
▁yıllarca
▁idaresinde
▁civarındadır
▁kaldırma
ien
▁dergilerde
▁ölünce
▁şahıs
▁istek
ander
▁içecek
▁birleşti
▁mağaza
▁başrollerinde
▁makalesi
▁türüne
▁spesifik
▁Sık
▁anahtarı
sah
melidir
▁kazasında
▁1834
-23
ovski
▁üniversitenin
Af
RC
▁kapan
▁eklenir
▁Fair
▁soğan
▁gra
▁deve
▁prefektörlüğün
▁(1)
▁vergisi
▁beni
thing
▁Asa
▁vokalist
ق
▁İnegöl
▁Nevşehir
imli
▁Beşinci
▁oluyor
▁epi
▁gelişmekte
▁toplayan
kem
ekli
▁gerçekleştiği
▁birbirini
▁Gizli
▁ocak
▁şi
▁bedeli
▁Kro
▁küçüktür
▁duvarlar
▁Vin
▁beta
ştırma
▁90'
▁silahları
günümüzde
OC
▁nedenlerden
▁değerini
▁azalması
▁mahkemesi
▁zorlu
▁cover
▁parçasıydı
▁parçacıkların
▁Math
▁barındır
▁Göktürk
▁Magic
▁havaya
zio
▁Lucas
▁Bridge
sberg
▁Ava
▁küçül
▁Tuz
ibe
▁Point
▁Golden
▁alüminyum
=106
="161
▁CIA
landırılmıştır
RE
▁kuvvetlerin
▁göçmenler
▁Nas
▁çalgı
▁prensi
sir
▁tavşan
▁sistemlerinde
▁olmadığından
▁toprağı
▁başarıya
▁inter
▁Abi
▁fotoğrafları
DR
▁akı
▁çalma
▁yen
Robert
▁Kha
cos
▁sosyalizm
▁matris
▁şarkıya
▁vo
gie
larındandır
▁İzzet
▁kul
▁Hisar
▁Now
sıra
▁albüme
▁ekseni
▁futbolculuk
kro
İsrail
▁Kontluğu
▁Hüsrev
▁evcil
▁muamele
▁harika
▁mahallede
▁Hawaii
▁20.000
▁Gene
▁branş
cor
▁nakliye
▁çoğunluğunu
▁dilini
▁bazlı
▁mülkiyet
▁muaf
▁AG
owski
▁fo
▁huzur
▁Hai
NA
adze
▁Joan
ase
▁uğradığı
kulu
HA
▁sinyali
▁Güncel
▁tarama
▁Schu
▁Mısırlı
▁yerleştirildi
▁Ortalama
DI
▁Köpek
▁futbolcusu
▁Wh
leştirmek
lemektedir
▁etmekteydi
▁Andre
▁yem
▁derhal
▁900
▁çekmektedir
landırılması
▁MB
▁işleyen
▁polimer
yaz
▁Grant
▁Mara
▁Eflak
rina
▁sor
Demir
▁Ian
▁ülkelerinin
▁değişmektedir
▁güncelleme
▁Lea
▁geçirilen
GA
isse
▁Line
▁dokuma
="111
▁bel
wald
▁onayı
▁mes
▁Ürün
▁defalarca
▁dönemdeki
▁bilgiye
▁Gerek
▁kabileleri
▁Santiago
Yer
▁faktörü
▁şarkısıdır
▁düşündüğü
▁yüzeyinde
▁Koru
▁yelken
cur
▁ayaklanması
▁Server
fiz
▁bırakmak
▁%8
▁Trump
▁Küme
="224
▁düşüktür
▁savaşan
ndadır
▁2019),
▁açıklamalar
▁ulaşması
▁çözmek
▁alım
▁Psikoloji
=223
▁bitkilerin
▁çağrısı
▁sıkıntı
▁nitelendirdi
eyn
öğretim
▁1935'
▁Austin
▁Sean
▁sporu
Amerikalı
▁Form
▁yıllığına
=139
yapı
aver
▁satışları
▁Varlık
▁Hey
▁aşiret
osaurus
▁dışarıdan
▁darbesi
riye
âb
▁sırası
▁aksi
Val
lur
▁yemekleri
Fran
▁Prensliği
phy
yım
▁sesini
Bağ
▁Pil
▁civarı
▁almasını
▁fiili
▁Bangladeş
▁düzenlenir
▁sürdürülebilir
▁Olayı
eum
▁Fikret
▁Master
▁yükselişi
▁Şer
kap
▁kilometrekare
etler
▁önlemler
▁Göre
▁çekil
▁alim
▁filmiyle
▁anten
▁gelmesiyle
▁ce
▁Site
▁Demirspor
▁Balık
▁kategoride
▁Hala
abat
▁emek
Yılın
▁Karabük
▁cemiyet
▁sanatçıları
▁Nizam
▁Summer
pati
▁Çubuk
cks
▁tarla
▁und
III
▁kararla
▁hattında
▁Mete
atlar
▁Fan
▁ilçede
ememiştir
▁350
▁boşanma
▁figürü
▁elindeki
▁etkiye
▁Fransızlar
="163
▁ahlaki
▁raporu
diğer
▁boks
▁Roy
▁taksi
▁metodu
▁proton
▁içerisine
▁Çocuklar
▁terimdir
ș
▁sürat
▁Key
▁Paraguay
▁soluk
▁Run
▁sabahı
▁yansıma
Super
▁edebiyatının
▁etik
▁Osetya
mol
dt
▁eşyaları
▁karaya
=96
▁hazırlanması
leşti
malar
800
LE
▁tanınması
▁Hum
▁olabilirler
▁kazandıkları
▁uzunlukta
▁kaleyi
▁Giorgi
kit
▁yatakları
mail
▁Amir
▁beklenmedik
▁Julius
..."
▁yazmak
CC
▁Yunanlar
▁yağlı
▁referandum
▁yaşlarda
▁EuroLeague
Yukarı
lıkta
▁askere
▁Kullanım
▁Gençliği
▁bölgedir
▁Cla
▁yerleşke
▁çeşitlilik
▁yarışmaları
▁çevrim
▁diyalog
▁Niko
▁sağlaması
▁sezonundan
▁Kürtler
▁şirketlerin
▁arter
iana
ovic
fak
▁şansını
▁ülkesini
▁seçilerek
▁içindedir
lanmaya
▁Dicle
▁Lip
▁Lil
▁çevrildi
odor
▁yenilgisi
="227
▁oyuncak
▁Edge
▁duman
lom
bla
▁Zel
▁Um
▁deplasmanda
lamıştı
▁Aristo
mayan
seri
▁İstatistik
▁ayda
hausen
got
η
▁tüyleri
▁akademi
▁Pap
▁şe
▁kızıdır
▁Başarıları
▁Batum
▁sosyoloji
▁Boyu
▁yolun
▁kalmıştı
eno
▁1883
▁US
▁Planı
▁1890
▁Gy
=119
▁Broadway
▁evler
3,
▁bölgesidir
▁Som
▁testleri
▁Kentin
ilme
râ
▁Sabri
▁yönlendiril
▁canlılar
list
▁İstiklal
▁seçimde
▁yapmıştı
▁husus
▁kırılma
▁Bergama
tino
▁elma
▁Şükrü
▁1878
iva
▁Türbesi
▁kalesini
▁saatlerinde
▁stadyumu
▁tap
▁taşınma
Hü
eder
▁isimlerinden
▁anlaşılması
▁Cephe
▁Sports
▁yenileme
oğlan
▁bulunarak
sul
▁bulguları
▁varisi
▁1925'
▁Dalı
▁Leh
▁delik
▁rahatsızlık
▁Apollo
▁simetri
▁Ran
▁Claude
▁Geçmiş
pho
▁nihayet
▁1897
▁Pic
▁tırman
▁estetik
▁destan
▁haç
▁£
▁Yakası
▁termal
▁bat
gger
▁Ova
на
▁sun
="94
▁Yüce
▁Bask
▁skor
▁2015-16
mizin
▁atanmış
▁Oregon
▁Melik
▁kazanç
▁Servisi
▁kolaylıkla
▁üzerindedir
▁bor
▁Yamaç
▁liderliği
▁bağlanan
▁Gala
tori
laştırdı
▁Tekin
▁Java
▁minimum
="103
▁kupası
▁şirketine
▁süreçleri
▁medeniyet
▁konsey
SF
▁Tanım
▁Deri
▁övgü
▁Ülkesi
▁yaratan
▁Bach
▁yükseklik
Michael
▁performansları
▁taraftarı
ery
uss
▁şah
▁Taraf
▁çizil
▁bileşik
idze
-2000
eu
▁ja
▁kanıtı
="18
▁esnek
stik
▁reaktör
=86
▁Vokal
ahi
▁egemenliğine
▁gr
="149
▁bulunmaz
▁yürüdü
▁boşandı
▁değişmez
▁bulunmadığı
▁gelişimini
▁Alaca
▁Spike
▁Mimari
▁Habsburg
▁Güçlü
▁Uçuş
▁listelenmiştir
▁kuvvetlerini
▁yorumcu
oslav
▁gal
▁veriyor
▁romanları
▁fantastik
▁Adrian
▁Kad
▁atası
ısı
▁Tez
uld
▁bilginin
abilirler
▁alanların
rez
▁etkilendi
▁isimlerin
▁Sefer
▁sarayı
▁akar
▁engelleme
▁Sport
liyordu
▁Harun
=245
▁Renault
▁tamamlanmış
▁kaçmak
▁kapatılması
▁Görüş
▁seçer
▁sim
▁Jefferson
▁seyre
▁Abu
▁ortaokul
▁kullanılacak
▁Arp
▁belgesi
▁hamur
▁aslen
▁gitmeye
▁seven
▁nü
▁kişileri
▁buluştu
▁Styles
=74
▁Yenice
▁gruplara
ike
▁Burg
▁gölün
▁tapınağı
formasyon
▁car
▁gönderilir
▁Kalp
▁Seul
▁gitaristi
Mel
▁restorasyon
▁oynamak
▁yönden
Tan
:00
▁Fat
▁hakaret
viz
▁bozulması
▁mezhep
▁sek
tag
▁kenarları
lap
elektrik
▁eleştirmeni
tun
▁Tv
▁çizim
▁onlardan
▁müdürlüğü
▁mühimmat
iga
▁müziğini
▁yapıda
▁reformu
=276
▁Baraj
▁lu
lendirir
="245
▁gücün
▁parçaların
toz
▁ekibin
mper
▁omuz
▁Ajax
▁sorular
▁uğrayan
▁Cou
▁araçların
▁BAL
▁teşhis
▁Eskişehirspor
▁Kayserispor
▁Yenişehir
▁kova
=83
▁azalır
▁Internet
▁çalışırlar
ст
▁okullarda
▁anlaşmazlık
▁System
▁buluşma
▁götürdü
=92
Sar
▁gerisinde
rmak
▁Emma
▁gösterildiği
▁asi
▁Süt
▁Kadro
▁edilmeye
▁başarır
▁Hafız
▁prova
▁yönetmenliğinde
▁familyası
▁Ortaçağ
▁Sergey
▁Naga
▁savcı
Peterburg
▁Kru
▁faaliyeti
▁bandı
▁aksa
▁oylaması
▁duruşma
▁taşımak
▁bakma
▁portre
▁mensubu
uto
▁Ressam
▁kimsenin
▁kek
▁teşkilat
="189
BS
çar
▁Bodrum
▁hükümetinin
=16
▁düşmanları
oon
▁sonbahar
▁kavramlar
▁Tıva
▁gerçekleşmesi
▁makineli
▁Göç
▁Yahudilik
-24
▁Qu
▁söylenmektedir
▁romanın
▁Pink
▁Willow
▁okulları
="70
▁ilin
bkz
▁kayıpları
▁gür
▁К
bs
uldu
="67
▁futbolcular
▁sahnesi
▁tüketim
▁geliştirmeye
▁hastalıkların
▁Yarışmada
▁Geçmişi
miyordu
▁oynayarak
▁çadır
▁harcama
genellikle
▁hatıra
▁gayri
▁seviyesine
▁Şube
lö
▁Konfederasyonu
▁yarışmasına
▁ölme
▁değirmen
‭
▁diskografisi
▁İshak
▁ilişkiye
▁Cent
▁derisi
▁Marcel
▁muhafız
▁yönündeki
▁Rak
▁çekimler
zir
▁depresyon
▁Beck
▁Mason
▁edilemez
▁yakınındaki
▁işlevsel
▁Telekom
▁Bilinen
▁cesaret
▁Kos
▁Kalan
yorlardı
▁oyna
▁yapısında
▁Kazım
yp
▁Brand
▁Brooklyn
▁komşudur
▁Kontu
▁Alberto
▁girmeye
▁onayladı
gerçek
▁değişmesi
▁üretilmektedir
Sam
▁komitesi
▁dişleri
▁caminin
▁getirilir
▁elçisi
▁Angola
UN
▁böylelikle
▁pisti
▁Esad
Top
▁kalk
=98
▁dönemden
zawa
▁rota
▁çekilmek
▁Vampire
▁tarafın
Cumhuriyet
RO
▁Sound
▁1875
▁rolleri
▁Ebû
▁Ladin
▁mahalleleri
▁motosiklet
8)
▁gizemli
spi
▁Cross
▁tanışır
▁uyguladığı
▁geçerken
▁partilerin
▁kralları
▁neo
▁ikilisi
▁maçtan
▁olduğunun
▁söylenebilir
▁Shield
gno
▁olabilmektedir
▁belirtildi
▁görüşünü
▁uzunluğundaki
▁anlatıyor
sc
MC
ST
Para
▁Luke
▁tribün
▁Museum
▁Ei
kova
▁Rodos
▁Finalde
▁tepesi
▁Üsküp
▁Sınıflandırma
▁öldürülür
=224
sley
▁formatında
Cola
▁çan
▁profil
CS
Kay
▁Öyle
▁Gelibolu
▁sürecini
▁Ocağı
▁açısal
▁dize
hua
▁Kasabanın
▁hanedir
▁heyet
▁odasında
="273
▁kayıplar
▁enflasyon
gör
▁SmackDown
▁Özer
▁Karanlık
▁kullanabilir
▁derinlik
▁kardeşinin
Halk
▁meşgul
nga
▁dalgaları
▁kullanılmakta
dé
▁olmamıştır
▁mevcuttu
▁denizci
▁aracılığı
▁Xi
▁Kötü
▁çağırdı
▁ebeveyn
▁paylaşım
▁konuma
lanmıştı
▁hav
▁Atlético
▁çabuk
▁körfez
▁başkanıdır
▁oluşması
▁ap
▁namlu
▁sınırlarına
vul
▁İlköğretim
▁See
▁ağrısı
▁doğruladı
▁beton
▁Açıklama
▁kullanıcıları
▁Danıştay
▁dinozor
NC
▁Mam
▁yapıyordu
Mag
▁yıkılması
yra
▁özelliğine
▁Kardeşi
▁senatör
▁türden
▁Salvador
gösterilmektedir
▁1929'
AZ
▁üretme
▁Şarkısı
▁beraberinde
▁tüket
▁alış
▁Catherine
▁kaynaklarında
▁ölümüyle
▁devreye
▁gelenekleri
▁devraldı
▁kopyası
▁bulunurlar
▁Nord
▁Marşı
▁Safevi
kür
▁çalışıyordu
▁Ale
▁Toyota
▁ılıman
▁Hücre
▁lira
kav
▁Taksim
▁dosyaları
▁fiilen
ά
▁korur
▁veritabanı
▁geldiler
▁165
▁Dallas
▁yürütmektedir
▁Kelime
900
lenecek
ardo
▁kararları
▁İşlem
Ulusal
▁merkeze
▁anlaşılır
▁ölçek
IT
▁Gary
▁Mağarası
▁çıkacak
▁değiştirir
hâ
futbolcu
iy
▁Nak
▁momentum
gle
▁Şişli
▁Yalnız
▁nöbet
▁Sigorta
▁Slayer
▁patates
▁nişancı
▁tabanca
▁açılma
▁oynaması
▁kayıtlar
▁Wimbledon
▁1830
arlar
ра
▁istemesi
▁desteklediği
ional
▁oyunlarında
▁durumdan
ID
▁kutusu
▁tanrılar
Zi
▁Gezi
▁Roberto
▁fiyatları
▁Beat
▁Janeiro
▁taşıt
▁türetilmiştir
ığı
▁oyuncularından
▁sars
▁bağlanması
▁verebilir
▁belgeleri
law
▁ruhsal
▁Aka
deyken
▁Mexico
▁Oktay
▁ısınma
▁Ortadoğu
▁değerinde
=227
borough
▁Ring
Rock
▁müslüman
▁almışlardır
▁sıfat
▁somut
lanıyordu
▁Dik
▁birbirlerini
▁sevilen
▁istekleri
laştırıldığında
▁dönemindeki
beli
▁kaldırmak
▁Rat
▁Phoenix
▁garip
▁Dra
▁2008-2009
▁tanımlanabilir
Gürcüce
▁çözme
▁grev
▁yerleşmesi
▁Madison
issa
▁Zira
▁Temp
▁Topçu
kri
="71
Cr
▁Bed
▁sembolik
KP
▁çal
▁marş
▁Tipik
▁oluyordu
Sh
▁yönetildi
=163
ido
pak
chel
=79
▁Ekrem
▁Ard
▁ir
▁birliklerini
▁açıklayan
▁Gray
▁1.3
▁kuvvetlerine
fizik
aya
▁milliyetçiliği
▁başlangıcında
▁bitmesi
▁taraftar
▁tuttuğu
▁kargo
▁yaralanma
▁boşluğu
▁kaldırılmıştır
▁Eleştirmenleri
cca
=159
atus
dum
▁Faik
▁Yağmur
veri
▁büyüklüğünde
Mus
▁verilerin
▁fiziği
▁şen
▁yargılama
▁Robinson
▁metrajlı
▁geliştirmiştir
tland
nit
▁Bana
′
▁2006-07
▁kitlesi
▁Yaka
▁Puan
▁Çeyrek
▁futbolcuları
▁kimliğini
GS
▁girişimci
▁projenin
▁kadınları
osaur
mina
▁kararlar
▁ihtiyaçları
mızda
▁1926'
▁Yaprak
som
▁Toplamda
=28
onu
=176
lyn
▁çalışmaların
▁Billy
▁Mill
▁KKTC
illo
▁yamaç
hop
▁tavır
▁GSYİH
▁korkunç
▁arkaya
▁gerilla
▁toplayarak
▁kategorisi
▁Şarkıcı
▁kanatlı
▁sefere
Gel
▁vaftiz
▁Sierra
▁Saksonya
uşağı
▁Rachel
▁vekil
ming
▁çayır
▁Maryland
▁hece
▁yayınlandığı
mediği
▁Sanatları
HC
▁popülasyon
▁Digital
▁tamamlamış
▁taşınan
▁Story
▁yarışmacı
ılacak
▁eleman
▁Nelson
▁vilayeti
▁kaçış
▁getirerek
▁Bunlara
▁Proto
▁Mit
▁tutul
▁örnektir
▁1880
▁zamanlarında
▁Yener
▁hâli
▁prodüktör
▁م
▁Tir
▁kaldırdı
▁durur
TR
▁bakıl
="100
▁ateşli
▁Marka
▁Yaygın
▁Dominik
▁Mağara
▁Taliban
ش
▁Kala
▁tablet
▁Chang
▁bucak
▁giderler
▁%7
▁yüzünde
ful
▁aleyhine
▁verimliliği
▁Central
▁Zap
▁açıklamak
▁büyüğü
char
▁ilerlemesi
▁Blood
▁anlatılmaktadır
▁saniyede
▁Filosu
▁2011-2012
▁sentezi
▁reddedildi
▁milyonlarca
ucci
▁bulması
▁psiko
dou
▁Dragon
▁ayrıldığı
▁Yugoslav
▁bakteriler
▁Thompson
▁müziğinin
▁Merc
▁SV
=161
▁Ave
aku
▁kuyruğu
▁Cihan
▁Fall
Luc
▁filtre
▁Beau
▁bulmaya
latma
▁CF
▁destekleme
▁komutanlığı
cum
▁cesedi
▁Yardım
▁özür
zhou
▁amino
lesi
▁belediyeleri
▁uğraşan
his
▁Nilüfer
stadt
▁faydalı
▁başkentidir
▁ayrılmak
▁tor
▁ilhak
▁80'
▁vurdu
pas
George
▁Kamil
▁formatı
▁Bert
▁teleskop
▁Oyunda
▁Coca
▁dizilerinde
▁Ontario
▁2020),
▁eserde
▁sözde
▁tayf
▁Keskin
▁sınırlarında
▁Sul
▁keşfedilen
ente
rel
▁normalde
▁Yuri
▁uçları
▁çeşitliliği
▁Sep
▁turnesi
▁dönemini
▁enerjinin
ışını
▁Cleveland
eve
▁Qa
▁meclise
▁İTÜ
▁Beyrut
▁Like
▁mezunu
▁toplanır
Peter
▁Bulgarlar
Il
▁ilişkisini
▁Tanı
▁modelinin
▁çiftin
▁şapka
part
▁Hukuku
▁А
şam
▁sorumluluğu
▁kıyısındaki
ağ
▁mon
▁tutulma
▁175
▁kel
▁Aga
▁Bahçesi
▁1927'
▁Yaylası
▁Georg
▁etkiledi
="268
zyon
▁Medi
▁baharat
▁lezzet
▁lisansı
▁kuyu
▁Musul
▁ödüle
▁ömürlü
lendirilmesi
▁rekorları
abilme
="93
▁kulübüne
▁1873
pik
▁Luka
IA
uh
▁Alternatif
▁Juventus
▁kabaca
▁115
▁frekansı
Van
▁açlık
▁dairesi
Tor
▁bulutsu
izasyonu
▁Lamb
▁gerçekleştirmek
▁Stanley
▁Engel
▁mayını
▁gösterilme
gna
jar
▁görülmesi
▁toplumda
hol
▁Zar
▁Etki
▁eri
▁bölümüdür
şek
▁Brad
▁yasaklandı
▁arayüz
▁kurbağa
▁tüfeği
usta
▁farklılıkları
omo
▁gördükleri
▁ücreti
▁Caz
▁Andy
orum
▁işçiler
▁Moh
▁dönemleri
sche
▁Sebastian
▁Çeçen
tine
▁Çö
▁şiddeti
▁tekil
▁11'
▁sergisi
▁enstitü
=73
▁Detroit
▁UK
skop
▁yatan
▁1932'
▁Araştırmalar
gui
▁birliklerin
▁harekâtı
▁Bulvarı
sunda
▁1879
=70
▁kavramını
▁anlattı
ox
▁söylemek
▁çekin
▁topladığı
▁Institute
▁Stuttgart
▁WrestleMania
ila
▁ortaklığı
▁Kh
▁hoca
▁eğitime
luca
▁Dimitri
mızı
▁zamandır
▁Yak
▁Kod
UR
2008
▁yazarların
▁açıklığı
▁Was
=38
▁soykırım
mizde
▁Endüstri
▁kadroda
▁Seçmeleri
West
şk
▁yaratılan
▁elle
▁Tech
▁sabiti
▁erkeklerde
zâde
▁üniversiteler
▁müttefikleri
▁köşk
▁taşınır
ulması
▁bitişik
▁Ton
▁evlidir
▁odaları
▁savaşmak
ving
keş
▁temelleri
▁bulunduran
▁alımı
▁1.6
▁dizayn
▁koyma
▁elektriksel
▁nahiyesine
▁gemilerin
masının
▁Gua
masından
▁fikirler
▁ülkelerine
▁Jose
▁ber
▁yakındır
tian
▁Leipzig
▁ODTÜ
▁akustik
▁çoban
▁ofisi
▁yapımcıları
tho
▁Aç
▁Kuman
rist
▁iddiası
AV
▁tutumu
▁katedral
▁ablası
▁1868
▁idrar
▁sürecek
▁edebiyatında
▁milis
▁Şeh
▁yarımadası
▁ilişkiyi
rop
▁melez
▁Nice
fort
▁torpido
▁müziklerini
▁Bella
▁Graham
▁parazit
▁camii
▁Philippe
▁üretiminin
▁(25
▁Ober
elim
▁Cast
lav
▁ortada
▁yaşan
▁Ölümünden
lasyon
▁Slo
dük
är
▁Orton
▁reddedil
Yahudi
="31
▁Yazarlar
▁etkilenmiştir
tüm
▁kadardır
▁elemelerinde
▁karşılaşması
▁filmlerinin
▁panel
="133
▁tramvay
▁kökenleri
▁kıdemli
▁basılmıştır
şin
▁vilayet
▁çıkarken
▁tanıyan
wen
▁Carey
▁Padişah
▁arkadaşlarının
▁Mektup
▁apartman
▁Dubai
▁Sürgün
tive
Genç
▁Albümdeki
▁Filip
▁öncüsü
▁Milo
▁hâl
gam
dön
jet
▁Meşrutiyet
▁çalışmada
▁sağlandı
▁söylüyor
sser
▁sürecinin
▁balıkçılık
▁Papalık
▁Emekli
▁gitmesi
▁tutku
dikten
▁öteki
▁Görüntü
▁Ltd
mara
▁İskenderun
▁%9
▁ardında
rır
▁bozkır
▁balıkçı
▁formları
▁incelemek
▁Sadık
▁bilinme
▁anlatılan
etme
▁azı
▁aşireti
▁Kıpçak
▁Nasır
▁Yücel
▁gerçeklik
=268
gay
▁tanımlandı
▁seferler
beg
▁tamam
▁sendrom
▁Baha
▁Güler
▁çıktığında
▁kalacak
▁Kimyasal
▁gerçekleşme
▁Yat
▁Hızlı
▁Hermann
▁dişli
▁us
="107
▁SE
▁tropikal
▁1840
dale
▁cennet
▁vermişti
Sultan
racak
▁kaybetmesi
GP
▁Comics
▁medyada
▁Nik
▁İsmi
▁İnci
▁Kang
side
▁imzalama
isto
▁şehirden
▁Ço
çan
▁İşler
▁turuncu
rm
klerinde
▁teklifini
▁Kedi
▁kısıtlı
▁kararname
▁hemşire
▁Bandırma
▁voltaj
▁belirtilir
▁Pot
▁yunus
▁Im
▁kemikleri
▁Çıkar
ер
▁yarışları
lman
▁nar
OL
Gen
▁varan
▁kardeşidir
▁sürdürdüğü
▁poz
▁lakabı
▁Havzası
por
▁Harekât
▁Earth
=120
▁yönetmenlik
▁Laboratuvarı
▁damla
▁Magazine
Ur
▁diyabet
tili
▁Pie
▁özen
▁köyüne
▁kanama
lou
▁Prince
▁Sokağı
=85
▁öldüğünü
▁5000
▁Comp
▁Cole
▁Ez
▁Denizlispor
rag
▁unvanına
▁açıklık
▁Bora
▁ithal
▁yöresi
gma
iyer
▁valiliği
▁Abraham
▁tasfiye
▁Senegal
▁ihale
▁adanmış
şid
▁Vil
▁Parker
▁iskelet
▁Buradan
=69
▁Kle
▁komünler
▁göndererek
▁yet
▁Kredi
lmaz
▁oyla
▁dosyası
▁operasyonlar
▁Khan
▁Jet
▁okuluna
▁Koro
300
▁reddeder
▁Ny
▁Lü
▁vadisi
▁telgraf
iyen
▁vücudu
▁Basra
▁halkına
▁Andreas
▁Destek
▁sağlayarak
▁Umut
▁edildiğinde
▁Ari
she
▁edilmesiyle
▁Üssü
try
▁Fame
▁Naziler
▁genom
▁Sum
▁aşkı
▁Gümrük
▁Kanat
▁çalan
▁Türkü
kine
▁ekipman
ığın
yaka
▁okuyan
▁eyaletindeki
▁kraliçesi
▁altından
▁mürettebatı
▁Iron
▁iyileştirme
▁köprüsü
▁1874
▁Tahir
▁parçasını
▁Sit
▁yönelt
▁yargıç
iyon
▁Vegas
madı
lanmasını
▁Sei
▁Vize
stat
▁görülmeye
▁tahtına
▁za
▁girişimler
▁müs
▁Hindu
▁albümdeki
▁kuşattı
▁örgütlenme
use
▁uğrat
▁Tören
glia
▁Pist
▁dul
▁daimi
sas
▁Back
▁Mühendis
▁yapısının
▁tesisler
etto
▁Whit
▁dillerde
▁yazardır
▁1.000
▁İyon
col
▁kont
▁yayımlanması
küler
▁sorar
▁yayınlanma
▁Laura
▁yayılmıştır
▁Görevleri
▁Series
yang
▁avlu
▁yaklaşan
▁Cenazesi
▁hareketle
metri
▁sistemlerin
▁adlandır
▁Amaç
▁merkezinden
▁ürünün
fiye
▁aziz
▁komutası
=18
▁Netflix
▁masaüstü
▁Mé
▁kökü
▁bitiş
▁Yalnızca
abilmiştir
▁Önceleri
▁dahili
="106
▁bilgilere
▁Clo
▁makamı
▁Vefa
▁Birmingham
▁seçimlere
▁Cape
▁Lozan
bül
▁sayıdaki
oyuncu
ān
▁ze
="2010
▁kıtasında
▁mecbur
▁Değirmen
▁1872
▁Afyon
▁Volkan
▁Ayrı
▁kurulmasını
▁planlar
▁Osaka
örn
▁Audi
▁Mine
▁efekt
▁Georges
▁1915'
▁edince
▁Fevzi
▁olamaz
▁kartal
▁evlat
▁havzası
ved
▁kafe
▁Pamuk
gücü
▁genişletme
▁ihtiyacını
▁Petr
put
▁saldırısına
▁Lav
drom
▁inan
▁karakteriyle
▁bulamadı
▁puanlar
▁Tao
▁spin
▁istenilen
▁Operasyon
▁kopar
▁Akka
▁2010-2011
▁uydusu
CP
▁yatır
▁kaynakların
▁Cafer
▁birleştiği
▁bilgiyi
▁Ple
▁enfekte
▁Pavlus
cke
▁Kaymakam
▁kumanda
=1280
▁belirleyici
▁oluşmaktaydı
▁kürk
="1280
ج
▁yönetil
▁Que
tâ
NS
▁ödüllü
▁Gam
ж
▁birimidir
thi
▁Sonic
isti
uklu
▁Sonradan
▁öldürüldüğü
▁Saba
▁yasadışı
▁pasif
▁oluşturulur
▁bü
▁tüy
buk
▁hazırlandı
▁vakti
▁Bruno
▁belirtilme
▁Baker
▁Konferans
▁gruplarının
▁kaydedilmiş
▁oranına
▁bakar
▁ATP
▁norm
▁tutsak
▁numarada
▁tasarımları
▁Gelecek
▁yemekler
▁4-1
▁Sri
▁Alfa
stant
▁Ejderha
Vo
▁Efsane
▁görü
▁HP
▁sayıların
▁Beth
▁kıyıları
▁tanır
▁türde
▁sis
▁Kalkan
▁önerilen
▁ortalarına
▁görünce
▁eyaletler
leştirir
▁Rom
▁Enstitü
▁sonuçlarını
▁sempati
▁kurması
anlı
▁Emirlikleri
▁geçirdiler
lığından
▁girişiminde
=102
▁filmdeki
▁albümler
▁salın
▁mahkum
▁yanlışlıkla
▁Bakan
▁Alanya
▁evliliğinden
▁getiril
▁zeki
▁melodi
▁düzenlemeleri
rıcı
▁onaylandı
elo
▁Wan
▁Gang
▁Academy
▁segment
Mad
▁benzerlikler
▁Edi
▁Rekorlar
▁yarıda
▁türevi
▁Dick
oga
▁Sert
ffer
▁alandaki
▁görüşe
▁1200
▁ju
▁yeteneğini
▁Yalova
CA
▁duyur
▁enlem
▁bağlanmış
▁Madalya
James
▁Abd
skiy
▁ekolojik
▁önderliğindeki
omb
▁lisesi
▁Stewart
▁yoldan
▁demek
CI
▁Sp
▁fotoğraflar
▁yu
▁belirledi
▁kaset
▁işlevleri
Dağ
▁hizmetine
▁çocukluğu
▁eklenen
="68
▁yapımına
▁travma
rent
▁1861
▁Dük
▁Denis
veli
▁görelilik
▁metropol
▁sark
ische
▁kitabe
▁şöhret
Arap
▁yansıtan
▁sanatının
▁(22
▁taciz
▁vadeli
tıp
bed
▁tarzını
▁Gav
▁refah
▁özelliklerinden
▁Fur
▁10'
”"
▁Kraliçesi
▁kireç
▁koridor
▁kaydettiği
▁Hotel
▁törenleri
evî
=84
▁Duvar
▁böcekler
spa
▁Jovi
▁zorladı
▁kullanıyor
▁katılımını
▁virüsü
air
▁sorgulama
=189
▁delil
▁Organizasyon
born
▁Mono
▁hipotezi
Tak
▁akımının
EV
▁katliamı
=149
▁Awards
▁lisansını
▁Jennifer
▁talimat
▁kırık
▁uzaklık
▁Lim
▁Emil
organ
▁Bayrağı
▁ikmal
▁Sahili
▁Seyhan
▁takımından
▁Belge
▁araştırmaya
▁terminal
▁alanlarının
▁Wild
▁işlediği
▁çizer
ès
▁bonservis
▁Hizmetleri
▁izlenen
▁MHP
▁tanımlamıştır
▁dinleyici
▁Halit
▁stratejisi
▁taşımacılığı
▁etse
▁arpa
▁sıkıntılar
uyor
=1281
Baba
▁eleştirisi
▁Aristoteles
="1281
▁kâ
▁arkasından
▁birleştiren
▁kulüpler
▁takımlarının
▁çekmeye
▁kademeli
▁sınırlar
Güneş
▁uğrar
▁kayaçlar
▁şeref
▁yaptırılmıştır
▁Bebek
oi
▁gözlemler
▁Yüzbaşı
▁kapasitesine
▁etkileyici
▁Clara
▁Bakır
▁Kuz
▁birincilik
▁hamle
▁Jamaika
▁Knight
▁bildirim
▁Uç
şik
▁155
▁cephesinde
▁çekerek
▁ihtiyaçlarını
▁1.4
gene
▁kurtuldu
aynı
▁içeriyor
▁Ayhan
▁Lloyd
▁TCDD
▁operası
▁başrollerini
▁Standard
TM
▁divan
▁üretimini
▁dediği
▁öğeleri
▁İk
▁örneklerinden
▁seçtiği
▁Kamerun
Big
▁SM
MI
▁tavuk
▁Telefon
▁iflas
▁Fethi
▁etabı
▁Galerisi
▁yüzüne
▁bahsedilen
şık
inski
▁hissi
▁arma
▁%20
isa
osman
▁ilkbahar
agon
▁Touch
▁Lei
▁sakatlığı
▁ac
dun
▁süsleme
▁Krist
▁törenle
▁iletim
▁Zan
▁Müttefikler
▁1931'
▁Afgan
dit
▁kaygı
▁Panama
▁araziler
laştığı
▁Matsu
▁Urfa
ics
▁protokolü
▁kolonisi
▁başını
="159
dedir
▁yakasında
2009
▁Şırnak
▁tr
▁verirken
evo
Bor
▁çalmaya
▁balon
▁RAM
▁unsuru
▁reaksiyonu
ometre
▁etmekle
▁Pon
▁Pokémon
▁raf
▁oğlunu
▁dolaş
▁farkına
▁Çağatay
▁metreye
▁yıldızları
▁kurtarıl
▁belirtileri
▁Teorisi
▁ailelerin
▁komünizm
landığını
=121
▁Tatlı
▁Sloven
▁tahsil
▁açmak
▁Fethiye
press
▁Fun
▁Torino
▁Mesut
▁Çölü
▁Warren
▁gayret
▁yaşandığı
▁Texas
▁Wel
WA
▁Ekip
▁kazılar
▁militan
▁gerçekleştirme
=1370
="1370
▁Derviş
rea
▁Fazıl
▁Yaşlı
tuk
iha
▁mutfağında
▁olaylara
mamış
ė
cağı
▁sınıfının
▁kukla
▁Lumia
▁Ast
▁öncelikli
▁biliniyor
▁Garden
▁paralı
▁Tap
▁devrimi
▁teşhisi
▁işçilerin
▁yönetmiştir
2004
rios
ebilme
▁Elâzığ
▁Dini
-2010
▁Bull
▁öğrenen
tap
▁piskopos
▁Sekreter
▁yürüttüğü
mızın
▁karakol
▁standartları
▁konuyu
▁evinin
▁kanallar
▁Triple
▁itici
▁uzunluk
▁kanatları
SM
_6
▁Eve
▁SB
▁Gündüz
Yan
balığı
▁çıkarlar
▁Renk
▁Bes
▁şeye
▁Battle
▁Çizgi
▁Vic
▁Yolları
=1282
uydu
▁kapattı
▁sürtünme
▁seçmek
▁cenazesi
▁antrenörü
▁incelemeler
▁ıs
="1282
evler
seki
mani
▁Meyve
▁getirmesi
▁Mehdi
ен
bahçe
▁sp
▁dondurma
▁yüzeye
▁Titan
}
▁toplantılar
▁dönüştürüldü
ograf
▁müzakere
merkez
Gar
▁değişimler
▁tedavisinde
▁Duru
▁Galata
▁kullanıl
▁Forest
▁Hakkâri
▁Kıbrıslı
▁Tac
Gre
MO
Louis
▁kendiliğinden
▁tarafındaki
▁imal
▁vurma
▁rövanş
makla
LS
▁basılı
gate
▁Ame
▁blog
▁polisi
rım
▁büyükelçisi
Aziz
▁gerektir
▁haberleri
▁hızını
▁bilin
▁seçenekleri
▁komutanları
tok
▁Nero
▁gazetenin
▁cinayeti
run
▁saldırır
▁Belde
▁yaşamının
iyi
▁Tablo
▁düzenlemek
▁Tommy
▁klor
▁uygulandığı
▁Gence
ology
▁sensör
▁Sevilla
▁kra
=1237
▁Kurmay
▁Oslo
▁sonbaharında
▁düzenler
▁bölgelerin
pis
▁öğüt
uth
▁rakamları
wei
FK
ıyorlardı
▁Koyu
▁1:
ladığını
="1237
ković
▁temalı
▁hareketine
▁Hastalık
vez
="1283
▁Barry
▁avantajı
bora
▁2009-2010
=1283
iformes
▁Devam
▁Type
▁Oh
Roman
DK
▁yönetmek
▁Vatikan
▁korunma
="66
▁otu
▁örgütleri
lilerin
▁kalmaktadır
▁evrimsel
▁parçanın
▁yetiştirme
▁haliyle
▁isti
▁mahalleden
▁Ing
▁izlediği
▁NXT
▁dünyaca
▁Höyüğü
▁olmalarına
▁bağır
="88
chu
▁çalışanları
▁metinler
rock
▁Kör
vid
▁denemesi
▁çarpma
Az
▁günler
▁pla
manın
▁ilköğretim
▁Journal
▁Hanedanlığı
ego
▁kalsiyum
▁aralarındaki
▁Water
▁2007-2008
▁Bakırköy
▁yazıt
▁kadı
▁çekmiş
=1369
▁kısıtlama
▁Ark
▁sorumlusu
="139
▁arkasındaki
▁Sahra
="1369
▁Akşam
▁sözlük
="2822
▁Hentbol
▁hentbol
▁ejderha
▁uzmanları
▁köyler
tier
Kıbrıs
▁Herbert
▁eserinin
▁Julian
graf
▁galibiyeti
hre
▁ISO
▁kaçmaya
▁barajı
▁Gab
▁gazetecilik
rıl
▁televizyonda
▁Mansur
▁kastedilmiş
▁Fiat
=2822
▁Pınarbaşı
▁Head
▁limit
▁lastik
▁Kelt
▁saltanatı
▁ajan
▁Nürnberg
▁çürü
▁yarısını
gul
diğinden
yō
▁liderliğinde
▁sera
▁Tarık
▁Walt
üst
ayrıca
amo
▁Örgüt
▁elmas
▁Pes
▁aletleri
▁1866
▁Ortaköy
▁ortamlarda
▁merkezlerinden
▁tipleri
küre
▁Kanuni
▁abisi
▁Gaziantepspor
Vol
▁direnişi
ML
ingen
etli
▁Çak
▁yerlerinden
▁Tır
▁kuruluşunun
▁ajansı
▁Neden
▁götürüldü
▁Roll
play
▁İşte
▁GT
▁gönderilmesi
▁başlarda
▁egemenlik
▁Mert
Birleşik
▁gruplardan
ane
▁Demet
▁geçmeye
▁girişti
▁değerlendir
▁Nevada
Kom
▁Partinin
▁Danny
▁boyutta
▁Kurtlar
▁Banka
mesinin
îler
▁komik
▁balıklar
▁hatalı
EK
▁mesafesi
▁Bog
▁Soul
▁ihtiva
▁Aston
▁kullanımının
▁lik
▁kalbi
▁büyüklükte
▁etkinliğinde
▁emil
▁pal
▁süreçler
▁öğrencilere
▁ilim
slav
rib
▁kurallarına
düz
sville
Just
Tal
▁okumak
▁Antlaşma
=1247
kaç
▁ormanlar
▁Lit
▁yayılım
▁bedeni
="262
▁deneyi
▁Zagreb
▁Galiçya
▁alamadı
mera
="1247
▁ebeveynleri
▁gam
zem
▁Serinin
▁yankı
▁solist
ğan
=1285
▁satıcı
▁kesit
Dîn
cl
▁torunları
▁listeye
▁oyunlarda
ffe
▁laik
▁malzemelerin
▁eğit
▁SP
▁Suresi
iğin
="1285
Shi
▁Halid
▁Savcı
=2827
="2020
Yak
▁çalışmasında
▁deposu
="2827
▁Başarılı
▁Dortmund
=175
▁oku
▁dersi
And
▁türünden
▁Slam
-2007
▁doğar
kari
▁oyları
▁montaj
▁çağın
▁geliri
▁göreceli
▁Castro
Muhammed
its
▁çiğ
American
▁Slovak
yiz
dat
▁Filistinli
▁seride
=1253
▁Mich
▁Punk
▁nihayetinde
▁109
▁ekibinin
eller
▁sürecine
▁ataları
="1253
▁kaçırma
▁atlı
▁konuldu
▁Adriyatik
▁Ecevit
▁çalışmalarından
=1267
▁Basil
▁sırayla
="1267
▁beslenir
▁tescil
▁Rain
▁modelleme
▁şehirdeki
="1372
arlı
=1232
▁Beylerbeyi
▁çöp
▁dağların
▁Lynch
▁lob
=1372
▁kökenlidir
="1232
▁oturdu
▁gelişir
▁Başarı
▁hayalet
▁Kaç
▁ölüme
▁kaynaklardan
illon
▁favori
▁uygundur
box
▁denklemleri
=1245
agi
leniyor
▁Duman
▁bahar
▁Yılı
▁Brothers
mıyordu
▁Cri
▁Nicolas
sum
▁Haç
=1254
▁terimleri
="1245
▁ettirme
▁gösterebilir
▁başlamasıyla
▁mağazası
▁Global
▁makaleleri
▁stüdyosu
link
▁aleti
▁makamında
▁Rossi
="1254
▁Grönland
▁makina
▁yönetmenliği
▁Komedi
▁tanrıçası
▁euro
▁peş
▁Albümden
▁yarıçapı
▁ilâ
▁kayıtlara
leyecek
▁uzaya
=1284
θ
▁yaratıcısı
İngiliz
=81
▁İşgal
▁İçinde
▁lanet
ulan
▁karşılama
▁30.000
mam
="1284
▁filmini
iba
▁evlenmiş
▁nahiye
▁adlandırılmakta
▁Women
▁fonksiyonları
▁4-2
enti
="2820
▁siyasete
▁punk
=1368
▁1.8
▁üçüncüsü
core
▁ender
▁Kozan
="83
▁Hiro
▁tilki
▁uzanmaktadır
▁paylaşıl
▁piksel
▁değiştirmiştir
▁avlanma
▁uzunluğundadır
▁açıklanan
=1266
▁Burhan
▁XI
▁maymun
▁pişiril
="1266
▁yaratır
▁ayına
rık
ს
Beş
▁Acı
▁seçenek
▁gar
▁Komutan
▁hektarlık
▁tartışmalara
▁edildikten
=1273
▁Beden
▁Toprakları
▁okuduğu
▁döviz
▁Konyaspor
▁Sivasspor
▁kılıcı
▁Neolitik
="1368
="1273
▁nazaran
km
▁reformlar
▁Kırk
=1239
▁gey
▁yakınlığı
=2820
▁gözlerini
▁sahnesinde
▁Vezir
▁durduruldu
▁düzlem
▁Kid
▁Durum
▁Çocukları
▁korumaya
=2828
▁Karma
▁Gau
▁Von
▁1784
ımlı
="2828
="1239
▁Hara
▁deneyleri
▁hokeyi
▁tasavvuf
▁okuldan
▁kentindeki
▁lenf
▁Muhtar
▁Holmes
=1257
▁istatistiksel
▁aramaya
▁Hilmi
=99
="113
İkinci
__
▁ligden
erken
▁yapraklı
▁tahrir
ί
▁Adapazarı
Cam
▁Pilot
▁katılımcılar
▁Kana
▁kutlama
▁nesnelerin
=1268
▁aletler
="1268
▁Pass
="1257
="1371
▁Mou
Buffy
Ph
▁Sürekli
=1371
▁Turner
▁şampiyonluğa
ulma
▁masal
=1256
▁değiştiren
tv
▁sloganı
="1256
▁ışınları
=1365
▁sebepten
▁Muzaffer
="1365
aris
▁Uni
▁sağlamaya
▁yapraklar
▁banliyö
▁Mutlu
▁dördü
="140
=158
▁üstlenen
▁Shane
▁bağımlılığı
▁market
▁Esas
▁Springs
▁Bafra
osfer
▁görün
pid
▁sezonlarında
▁(30
IV
▁çocuklarının
▁Hand
▁sınavı
▁aşağıya
="1367
▁belirti
Ayrıca
▁pozisyonu
▁Cry
▁1916'
=1367
int
▁indiril
▁çakıl
oksit
▁eren
NO
=1233
=1250
="1380
▁Takımın
=1275
▁geyik
dev
▁Kurban
▁çevirme
="1375
=1375
=1380
▁Kalem
▁2018),
▁Patinaj
▁Schi
▁Masters
=1264
LC
▁Kop
▁yap
▁sahaya
="1275
nius
▁Eva
="1250
▁Ib
▁mesleki
hari
ope
="1265
="1233
▁bitirerek
ender
="1264
▁Cezaevi
▁BMW
▁Scho
▁tarafa
▁ilgilendi
=1265
▁yeridir
▁Otel
▁Sorumlu
▁yapılmasına
▁yayımlama
▁Beykoz
="1363
▁bütçesi
▁Yuva
=1363
▁Alma
kha
▁Gali
▁alabilir
=1230
▁Dawn
cıların
▁ekosistem
▁kavramının
▁With
▁tan
▁izi
▁Casa
▁Four
▁incelemesi
="1230
▁2016-17
▁Boşnak
▁organizasyonun
ondo
▁Aslı
yük
="1246
▁Milas
PR
▁araştırıl
▁Marksizm
=1246
▁yarımada
▁ibaret
▁sarf
▁kullanmayı
▁ettiğinde
▁soygun
▁prömiyeri
dot
▁etkisinin
▁kılın
noz
ister
▁sponsor
▁başarıyı
▁konseri
▁anayasal
=1366
▁isimle
▁psikolog
stre
▁Aralarında
▁teorisinin
▁yat
rand
▁yolsuzluk
▁sınırlıdır
▁sav
▁destekçileri
▁AFC
▁Kasımpaşa
▁uzantısı
▁3.5
=1377
▁tarafların
ъ
mesinden
▁kuşları
=1238
Not
="1377
="1366
=1236
▁Geliş
quin
^
▁cesur
▁Harold
▁seslendirmiştir
▁torba
▁köylerinden
lanmasına
▁sergileme
▁işgaline
▁harman
▁varlığına
="1238
ison
Time
▁3,5
▁Dale
▁versiyonunu
▁yıldızdır
▁sh
tage
▁asfalt
="1236
▁kurtarır
▁1870
▁kaymakam
▁kirliliği
▁savunmak
ökü
▁sesler
▁Yoğun
▁1900'
▁sanatlar
▁çevrilmiş
▁açabilir
▁tavan
▁niteliğinde
sos
▁üyelik
▁statüsünde
▁Dalga
▁turbo
▁gözler
▁Just
vah
▁safra
GM
▁Yapısı
▁aristokrat
▁İtilaf
▁Mans
▁versiyonunda
▁mutlaka
▁kısımlarında
▁Galli
▁mol
▁uygulanabilir
▁gönderilmiştir
=1249
▁fiil
rici
▁edinme
▁belirtiler
▁teşebbüs
▁eğ
halk
▁kaldıkları
lendirdi
▁(23
="1249
▁geçirmeye
=1379
▁aileleri
▁kasa
lif
▁Kafa
="1379
▁istemiş
▁dönüp
müz
wall
Boz
▁katında
vier
▁Müzikal
uv
▁tutuklama
▁Doctor
Yıldız
▁söylemektedir
band
▁Fran
▁karakterinin
ovi
▁diyet
ğunu
▁yaşamak
tero
▁Valeri
▁sınırını
▁Scar
="1374
▁haklı
=1374
▁Sokak
▁tesir
Latince
▁yapıdır
▁103
ě
▁2005-06
▁fabrikaları
▁teoriler
▁NBC
▁çalıştığını
▁önleme
TO
abe
aktif
▁mevsimi
▁nereden
▁4-0
▁onlarca
▁Aki
nard
0)
َ
▁öyküsünü
▁alanlara
=1231
▁Kava
▁cin
▁bozuklukları
▁kürek
="1261
▁duyguları
▁Kiss
▁Şövalye
beck
desteklemektedir
▁kurtulan
▁Yahudilere
▁eşsiz
▁dikkatli
=1258
=1259
▁inceler
="1258
▁kolordu
▁sevgili
▁kışla
=1261
▁Vakıf
▁prensip
="1259
▁şebekesi
▁yendikleri
▁‬
▁anılmaya
▁dükkân
-40
▁haberdar
="1262
▁Bilimi
iktir
="1231
modern
=240
Aydın
▁çubuğu
CN
▁işine
▁başlayınca
▁Kural
=1262
=1234
▁CONCACAF
▁Č
▁vatandaşlığı
zm
▁ailede
=273
Fransız
▁Şo
=1376
idler
Gal
▁çıkabilir
▁Yağ
="1376
▁Ever
▁manda
="240
▁Biga
▁Oyunu
▁Vu
▁kast
="1274
▁çatışmaları
▁bölgelerini
bbe
▁kasabanın
=1274
▁Tru
▁grupla
kot
lattı
Hayat
="1234
▁koymak
▁USB
▁Kuvvet
▁namazı
▁Songs
▁orantılı
▁arıza
▁bataklık
▁taşlar
▁tortu
▁teorisini
kız
▁şovunda
▁bankası
▁benzeme
sdorf
laştırılmıştır
▁adamlarının
▁1869
▁İp
▁harici
▁içlerinde
▁boşa
▁Düşük
▁Mala
kıran
▁Kayı
▁Sarıyer
▁Yelken
Bad
▁suçlandı
▁hayatın
▁sürülmesi
İzmir
▁Klip
▁Havza
▁geceleri
▁kısımda
▁kaynaklarının
▁imzalayarak
▁olurdu
▁yapmasını
▁takson
▁Service
▁Medresesi
▁ovası
▁konseyi
▁gezegenler
="2830
▁nezdinde
▁Euroleague
Chris
▁serisidir
▁tatmin
▁ayırmak
cri
litz
=101
=1269
▁hakimiyet
tuğ
Daha
▁http
▁MI
basketbol
ctive
▁azaldı
▁batısındaki
="1269
▁Ceyhan
▁Galipleri
▁Stark
▁sağlanmaktadır
=2830
▁gösterirler
▁kazananı
▁getirmiş
▁Nihat
▁dereceye
▁senato
dırlar
▁çöküşü
Lost
▁konsepti
▁evliliğini
▁Eylem
▁şaka
în
▁Gözlemevi
▁yıllardır
▁yetkileri
▁Birim
▁Çekimler
▁Hersek
-2009
▁Hidro
Les
▁istasyonudur
▁odaklanma
▁Mezun
Göl
▁uygulanma
▁yaşanmıştır
▁miting
izo
▁Novo
▁imparatorluğu
Galatasaray
▁adeta
▁Gölge
▁yanından
▁istismar
▁Kullanıcılar
▁Yakut
▁arayan
▁birbirlerinden
▁(24
▁arazileri
=82
▁uzayda
й
-2008
▁temizlik
▁Bez
▁korunmuş
▁Dağıstan
PD
aca
dibi
▁ediliyordu
▁Medici
▁olağan
მ
▁Memlûk
FF
otu
üddin
ienne
▁1989),
▁5.000
▁Dünyası
▁kurulma
▁AT
▁atölye
▁maya
▁Şirin
▁tüketil
Ama
▁Saraybosna
▁Hüsnü
▁tuhaf
▁dedektif
▁Johannes
▁Louisiana
▁devasa
Pop
▁sekreter
▁harap
▁dövme
▁peşinde
bilimci
▁ısıtma
▁tarihin
▁Jorge
▁kampüsü
dorf
▁far
▁sınıflandırılır
▁Mezarı
▁Dişi
▁dağınık
Et
▁gibiydi
▁Sezen
Sol
▁Erk
▁kuruluşların
▁erkeğin
▁kurumların
ор
▁Astronomi
▁kruvazör
çeşme
She
▁fra
aklar
="1263
▁metnin
▁herkese
=1263
ов
ń
▁iblis
▁Sau
▁mahkemeleri
kçı
▁ellerinde
Kaz
▁Mobil
="296
▁cemaati
▁kültürünü
▁Terör
Pierre
▁yürüme
rium
▁Malazgirt
▁dışişleri
▁oluşturacak
▁Oysa
▁Yeşilyurt
▁Kariyerine
▁kombinasyonu
▁renklidir
▁Ordular
▁Venüs
▁kültürüne
▁Lanka
▁106
▁kaynaklanır
▁(21
▁kenarı
ա
▁kargaşa
▁adlarıyla
▁çalar
▁harcan
Wi
-29
▁sığın
▁fazlasını
▁etkilemiştir
▁Hardy
▁Avi
▁çağda
▁geçersiz
sayı
▁ürünlerinin
▁boynuz
▁büyükelçiliği
▁düğme
▁krater
▁moleküller
▁3.0
▁kılavuz
dow
▁Çocukluğu
▁savaşında
▁Break
▁üretime
▁Milliye
=262
▁kuşların
▁operasyonu
▁roller
▁yor
▁eşyalar
-2002
▁Sanatçısı
▁Elektro
▁Sekreterliği
▁kaynağıdır
▁bahş
dayken
cro
urus
▁gümrük
▁benzemektedir
▁Islander
▁Maxwell
▁Evrim
▁galeri
▁Beyin
mid
rılmış
taka
▁faiz
▁sözleriyle
▁düşünüyordu
▁Kata
▁toprakların
▁Cevdet
▁irtifa
▁iştirak
▁inanılan
▁boğa
▁Şehre
▁108
▁gelişmesine
▁imge
="1240
aff
▁düşüşü
=1240
lier
RNA
=2826
▁siyahi
▁mevzi
▁Gall
ssen
▁Ble
▁prosedür
▁kadınlarda
="2826
vak
▁öldüğünde
▁tarikat
Mart
▁asistanı
▁Evrensel
dong
▁gezisi
▁kaldır
▁tasarladı
▁bitir
arch
▁Cris
▁köyünden
▁Borussia
rot
▁iPad
▁eşinin
worth
▁silahların
▁elini
roy
karyot
▁Challenge
Pen
▁öğrenmek
▁görüşmeleri
▁büyücü
▁Sardinya
▁med
▁Rocky
▁ateşe
▁ölümsüz
▁taşınabilir
▁70'
▁basketbolcudur
▁olaya
▁oyunculuğa
ops
▁Geçmişte
yince
amayacağı
▁listelerde
▁Rec
▁Suriyeli
▁tespiti
▁Pav
▁yürütül
▁fasulye
▁hükmü
▁konuyla
▁gurur
▁Henüz
2002
▁Mei
ayet
üre
▁kaplayan
▁romancı
▁sonuçta
▁Rafael
▁ark
hava
▁dakikasında
="1378
▁şaman
▁Julie
Sovyet
▁eğitmen
=1378
lisi
▁leke
▁kullanımda
rılma
▁eklenmesi
▁Place
▁Front
▁Tartışma
▁Tacikistan
▁boşaltıl
▁Solomon
▁Mahallede
▁oluşumunu
▁Kuzeydoğu
▁Yüzey
▁Direktör
="156
▁Poly
giz
Ap
▁azaltıl
▁mez
RP
▁Mö
▁kazanırken
▁yaklaş
aldo
▁Montgomery
▁yabani
bâ
▁Derya
▁evrimi
▁yıllarını
Red
▁maçının
▁cinsidir
▁okunur
▁mutasyon
rev
▁cadı
▁dergide
lice
▁Maxim
▁yükselmiş
▁korunan
▁Foto
▁İkiz
▁yağışlı
▁rakibini
▁direktörlüğünü
▁imar
▁bileşimi
Yunan
▁müsabaka
▁belirttiği
▁konulara
▁yaratık
Bro
▁dağın
▁Montreal
▁Evliya
▁Olaylar
▁ekrana
▁Cennet
▁gelmesini
▁104
▁Günlük
▁efsanesi
▁etmektedirler
▁üretil
▁ısıtıl
▁iddialar
▁iskan
▁çıkarmaya
Din
▁Nüfusun
▁kesimlerinde
="2821
É
▁İst
▁dörtlü
▁çizme
py
▁istemektedir
▁oluşturması
▁uygulan
▁Maurice
inae
▁hile
ök
FI
dok
▁Şampiyonasında
▁Mür
▁Scha
▁yerleşimin
700
=2821
Bak
▁otomotiv
▁Sabancı
▁Cinayet
▁Ülkü
▁tahrik
ürü
▁ihracatı
▁atak
anus
▁çalışmayı
kala
▁atıf
▁Stephan
▁şahit
▁sınıfta
▁isyancı
▁Mann
ğine
▁kulüpte
▁kentler
War
▁Theatre
▁gezgin
▁ilçesidir
itch
=1248
▁Rah
▁fırlat
té
ule
▁haksız
▁Bot
▁Patrik
Mark
="1248
▁canlandırma
▁lamba
▁uyarlama
▁Leopold
▁uyaran
çev
▁Zengin
▁Bis
▁Science
▁Baby
iff
▁Performans
▁Persler
aks
▁oynanır
Kir
▁Oyuncusu
rica
▁karşılaşmaları
▁çifte
▁Darbe
▁baskılar
▁diferansiyel
▁lezbiyen
▁Berkeley
▁Yeniçeri
▁titreşim
▁Murphy
▁kilogram
▁vazgeçme
▁Lap
▁Montana
gara
=91
▁kapsamı
2020
▁yar
=1279
▁fay
▁Yuki
▁Winter
▁Haliç
▁tuzak
▁arkeoloji
▁birleşimi
="1279
cell
▁Kapalı
▁Dog
▁çıktığını
▁Özkan
▁bozukluk
▁Gökada
▁jo
amayacağını
▁mimarı
▁Bucak
▁Wy
▁hatası
▁yerdir
▁evvel
▁Cons
▁Sai
▁bitkisi
▁(1.
=1364
="1364
▁Erkan
▁muharebesi
reg
▁Dav
Ğ
▁bot
uta
▁toplantıda
▁olmanın
▁ajanı
▁Flo
VA
▁Oz
▁Glenn
▁temsili
▁Hon
▁Suzuki
▁yarısından
▁ünsüz
▁Kill
▁Bö
▁hastalarda
opa
▁Mul
lash
▁isteğiyle
▁sanık
▁ağırlığında
▁Durumu
▁Sche
▁kırıl
çil
▁türkü
ו
▁öncülüğünde
CH
▁işlenen
▁Ders
lerdendir
▁uçan
NE
▁1986),
minal
▁seyrek
▁karşısındaki
SV
çağ
▁yapılmaya
Ey
▁teknikler
Ok
çek
▁dizisindeki
lamasına
▁düşünmektedir
▁menajer
▁Taşkent
▁Madagaskar
▁işin
▁özeti
▁önündeki
Germain
▁yetersizliği
▁imparatorun
▁kayıtlarına
▁kullanılmasına
▁kullanmış
▁kurulmasıyla
▁İsyan
▁kabileler
▁havza
shu
▁dergilerinde
▁yazarak
="269
burn
cius
▁noktadan
▁Doktora
seksüel
▁Mozart
▁Çayır
=80
▁Planlama
▁tümen
Nur
▁Baden
▁varsayılan
▁edilirken
▁beceri
fl
mâ
▁öğeler
amin
▁sığınma
▁Tarihçi
EA
▁tahtı
bucak
▁1862
▁ismin
▁bulunurken
2011
▁sağlanmıştır
▁Kendisine
=1270
="1270
▁Yargı
▁Yumurta
▁Rudolf
▁suçladı
▁Ödülünü
▁Hakim
▁promosyon
▁{
tini
▁cihazların
▁1990),
▁litre
gent
▁Borsası
bük
▁insani
▁arkasına
▁Mao
▁kalmasına
▁moral
▁450
▁minare
▁hastanın
dıktan
▁bitkileri
▁hastalar
▁Pl
▁Departamento
▁konuşması
▁ortaklaşa
▁surları
▁sözcüğünden
fr
▁Ağı
▁2019-20
▁Düzen
▁Almanların
▁1800
▁İdil
▁iletişimi
▁çözücü
▁Melbourne
▁Süvari
▁Cadı
▁meyveler
▁dudak
▁arttığı
▁algoritma
▁çıktılar
▁halindeki
▁birbiri
▁Osmanlıca
▁AP
▁Arnold
▁Lehistan
▁Davud
▁literatür
▁dağıtıldı
▁seyir
▁Sporları
dergi
▁kuşku
ة
▁Lab
▁anlaşıl
▁Walker
▁Mate
▁112
ralı
▁yiyecekler
Kor
▁Abbasi
▁XX
▁SD
▁binasının
▁Nancy
▁Gilbert
▁Topkapı
mekle
▁Kuran
▁Liman
▁uğrattı
▁Asi
▁hastalığa
lendirici
▁göstergesi
▁ilgilenme
▁(28
▁stok
▁dizel
▁Edgar
▁oluşma
▁Avni
▁uzmanlık
▁ayırır
▁sayının
▁şirketini
▁yararlanarak
▁Kulübün
uchi
="143
▁Sene
▁1860
cılığın
▁IBM
▁Evans
gren
▁Rev
▁Hama
▁akrabası
▁Ulaştırma
Au
▁terimler
media
lib
▁Değerlendirme
▁bağlılık
=2829
▁Hale
▁kamuoyu
="2829
▁damga
Ker
▁istedikleri
▁kısımlar
▁organizasyonlar
▁parayı
leti
▁Karayipler
HF
▁fikirlerini
opolis
▁liginde
▁Collins
SH
İspanyolca
▁vagon
▁Nepal
="1278
▁aralıklarla
=1278
rest
▁Pad
▁Rizespor
▁aklın
▁Kızıltepe
▁üretmeye
glo
ümü
▁maz
▁üstlenmiş
▁1988),
▁Á
▁Taner
▁lehçe
William
▁yerleşimciler
itis
Tam
hot
▁planlanmaktadır
▁Flash
▁bağlantılıdır
▁görüştü
▁bağlamında
▁Maçın
▁kötüye
FT
▁şarkıda
cap
▁oluşturul
DO
▁galibi
▁dillerinin
Sü
▁ifadeler
▁yapılı
=178
▁bitiril
▁Tahta
▁arttırma
▁th
▁1785
▁terörist
▁kızlar
▁başlatma
▁durdurmak
▁turnuvayı
▁markasıdır
=114
▁anlatımı
Köy
Güzel
▁değerlendirilme
▁Arkansas
edo
▁ittifakı
lararası
▁içerebilir
=1271
▁Raj
▁gördüğünü
▁sonuncu
▁bölümlerde
="1271
▁slogan
rılır
▁miktarlarda
▁Belirli
▁geliştiren
▁Helenistik
▁There
kaş
lağı
mektedirler
dığından
▁kuvvetin
sai
▁Eleştirmenler
▁Milliyet
zat
▁başlamışlardır
▁fırlatıl
leştir
▁Kabil
▁kurtuluş
▁zamanının
▁Dem
▁parçaya
▁içerikli
▁başladığını
▁çatışmaya
Ban
▁bırakması
▁you
▁mineraller
▁yükümlü
sayım
ldukça
▁Express
▁Valencia
ûs
▁Isaac
▁geçirip
▁çapındaki
▁vermedi
other
yos
▁Orange
kö
aran
▁kentleri
-27
▁endemik
▁kontrolünde
▁tankları
▁kayalar
▁koşullarda
="231
cıları
▁mülkiyeti
▁Bahreyn
▁azaltır
▁Page
▁uyandır
▁Yor
▁Sonuçta
▁Düşünce
adam
▁yeteneğine
▁Hız
▁ME
▁Tem
▁bacakları
ülmüş
▁Toplumsal
zet
▁tanksavar
▁evresi
zik
▁sular
dünya
landırılmış
nikov
Osman
jik
▁geldikleri
▁karara
▁etmenin
▁2.000
Anti
▁Divi
▁Lah
SB
cop
▁Miya
▁RS
▁motorun
Fre
▁boynu
rod
▁reyting
▁üniforma
▁Eddie
ál
▁Ska
Por
▁yetişkinler
▁irade
▁izlemek
▁şartı
eon
▁algoritması
▁atılmış
▁zihin
▁Box
▁2018-19
▁Kullanıcı
DC
▁Edinburgh
▁Satranç
▁gübre
▁Morfoloji
Kurt
▁tadı
hut
luğuna
▁Child
▁sonuca
ttiği
▁saldırıda
2006
-2011
▁emrini
▁tasarımcı
▁Rumlar
▁dağılmış
▁Yas
▁yenilikçi
▁kodları
▁Kuvvetler
keli
sep
▁çizgileri
▁yerlileri
▁Fonu
andra
▁gelmeye
▁verip
▁Gill
▁tedbirler
▁Daimi
▁Major
▁Bale
▁tamamlama
▁direktördür
▁kağıt
▁çatışması
▁ikisini
▁tanrıların
▁yöresinde
▁proteinler
▁şarkılarının
▁kitabıdır
▁yazım
▁ayırdı
Devlet
fit
▁Fahri
▁rejimin
▁arttırmak
▁Tugay
▁yollarla
▁röportajında
▁müzisyenler
▁uzmanlar
▁Filmi
▁ilanı
▁maliyetleri
▁Türkmenleri
ruh
▁doğusundaki
▁tanımlanması
▁varlıklar
▁atılır
▁beraat
▁Carolina
▁sıkıştırma
▁çekilmeye
▁Perde
lanınca
▁1987),
▁ideolojik
▁Kawa
▁dolaşım
▁taştan
▁Rib
▁basımı
▁Jericho
bula
cıoğlu
▁gerekirse
▁kablosuz
▁1992),
=194
▁öğretil
▁paylaş
▁Burun
▁Hunter
▁6360
▁paketleri
▁başlat
▁Alper
▁Kak
▁Sancak
υ
▁Nicholas
kırmızı
▁Clinton
ebildiği
▁birleştirme
▁anlamını
▁Pontus
▁ayrıntıları
▁familyasına
ancak
book
▁gene
▁Efe
▁olanı
▁olmamakla
kî
▁bestecisi
▁protestolar
▁Dmitri
ار
▁parlaklığı
="69
fî
▁Yıldızı
ksızın
▁Newcastle
Nec
▁Ortaokulu
▁disiplini
▁tersane
▁Klein
▁Planck
ches
▁145
▁örgü
GB
-60
▁olsalar
İngiltere
▁sarhoş
▁işletilen
▁öldüren
şimdi
-35
▁düşünerek
▁Hedef
▁iddiasıyla
▁Kirk
hana
▁uğramıştır
tika
right
▁havadan
▁birikimi
▁Gregory
▁çıkmıştı
rgan
Hüseyin
▁Yiğit
▁McG
▁Mesela
▁finalleri
▁gönderil
Benz
syonu
▁edebilmek
▁zam
▁kaş
▁şampiyonası
▁kıyafetleri
▁abone
ents
sama
▁casus
biliriz
▁numune
ì
▁Ernest
▁2-2
▁girişinde
Rum
▁güvenliğini
▁gelmekte
▁albümlerini
Nor
▁aitti
▁Riko
macı
▁107
▁kelimenin
▁Şanghay
▁Herodot
▁meme
▁bölünmüştür
▁getirmektedir
▁seferinde
▁insana
itesi
▁Hit
▁tutuk
▁off
▁Okan
▁özne
▁olaylardan
▁Gönen
▁gruplardandır
=269
▁geçirdikten
▁gerektiğine
▁endüstrisinde
▁Anders
▁özelliklerinin
▁seçiminde
zil
▁döndürü
▁Tugayı
▁türbesi
▁değişikliğe
▁hazırlanmıştır
▁dikkati
▁Orlando
="1381
▁Nazım
▁Sıcak
▁2012-2013
mad
▁1993)
▁Zaten
▁çağrılan
▁seçime
▁Şampiyonluk
▁remiks
▁ekim
▁Rüzgâr
▁birliklerine
▁fiber
▁Hazır
Has
▁uzmanlaşmış
▁açıklamaları
▁dindar
▁kente
▁itaat
Avusturya
="208
▁koni
▁Seçimi
=1381
▁Bib
▁tümör
▁Çarlık
Sto
▁Çatal
▁mitoloji
▁dönmeye
hasan
İç
▁çalışmasına
_7
tory
iyot
▁deneyimini
▁açmış
▁çayı
▁1910'
yoloji
uza
▁tekerlekli
▁Bea
▁kızılötesi
rou
▁geçidi
▁alınıp
▁yansıtma
color
Mur
▁havuzu
▁Bos
▁olmayıp
▁ifadeleri
Hip
▁niyeti
2012
▁Fırtına
▁Hiçbir
▁Sabit
chus
▁şehirlerinde
▁yarayan
▁anlamları
▁Sözleşme
▁mühür
▁Miras
▁Falcon
=71
▁sarayın
▁CBS
▁toplulukların
▁ilke
▁Kuantum
Tüm
▁porno
ımsı
▁mobilya
▁Caminin
▁Italia
▁genişletilmiş
▁1890'
Kır
▁haklarının
▁Claudius
▁formunda
▁liderler
scher
▁Belli
▁albümle
▁Maj
▁görmez
▁Dönüş
ılmaktadır
▁Yüzme
▁Eserin
▁prototip
▁binada
-2001
▁som
▁sağlamış
▁akla
▁Justinianus
▁Özal
▁seçici
▁buluntular
=1272
Biz
▁valilik
▁mektupta
▁karış
▁tanıdığı
siydi
▁güçlerin
▁seferde
▁doğada
▁Sanatı
▁prestijli
▁Bomba
▁istemci
▁50.000
duk
biyoloji
kai
="1272
▁Sant
▁Arazi
▁çiçekler
▁kuruludur
▁Garı
▁Bobby
dip
▁çökel
▁gö
▁dışından
▁Çeşme
mag
▁zirvesi
▁integral
rika
▁toprağın
DD
▁Semi
▁uyguladı
virüs
▁başlamak
▁sözcükler
▁yazısında
▁merkezde
▁erer
▁Zam
7)
▁Yangın
▁tab
▁biyografi
▁Eg
▁savunul
▁çoğul
▁Fener
Sel
▁Churchill
▁yığın
▁çiftliği
▁yönünü
▁Kızılderilileri
Göz
▁Christ
ridge
▁Tehlike
▁Ergin
▁Okulun
imiz
▁https
="1373
▁Kıl
tol
▁yıkılmış
▁Yang
▁Ekvador
▁katalog
=1373
ktik
▁enlemi
▁Б
▁yaptırılan
▁Baykal
=231
▁adımlar
▁Brook
▁Güneybatı
▁dönüşen
▁200'
▁mektuplar
▁Kutlu
▁boksör
▁kartları
sio
▁asma
▁süreçlerin
▁perspektif
▁selam
chy
▁Bagrat
▁Oran
Saint
▁‘’
▁Yemek
▁etkenler
▁durdurul
▁bulunul
hic
▁Fay
üf
▁diğerine
▁kazasına
▁perakende
▁topar
▁Sonrası
▁Ep
▁periyodik
Japon
▁hatırlama
▁komünü
aco
▁Sali
▁1913'
esh
Pas
▁bro
▁testler
▁hükümdarları
▁çevresine
▁almadı
▁durak
▁Reigns
▁Guatemala
▁Maarif
▁Business
▁Dong
▁Spears
▁uzayı
Hy
▁Konuşma
▁uçuşlar
▁anlaşmazlıklar
▁Elif
▁uygu
▁Tomo
▁yuvar
▁tara
▁yöntemiyle
▁hataları
=1260
▁fotoğrafı
▁müzakereler
▁Athletic
▁kesintisiz
▁müfettiş
Kaya
▁Cle
▁GNU
▁etkilenmiş
Tarih
▁yapmışlardır
▁PTT
▁simgeler
▁ikişer
▁kullanışlı
▁kullanılmasını
▁düşüncelerini
="1260
lâh
▁Mev
▁önlem
▁Act
▁iyileşme
bos
▁yorumlama
▁gereksinim
▁Seyahat
▁etrafı
▁tamamıyla
▁çekirdeğin
▁oyununun
amadığı
▁gelenler
▁Fet
▁niyet
▁Snow
▁soundtrack
▁esasen
▁verilecek
▁118
▁had
▁dalıdır
efendi
▁araştırmalarda
2.000
▁mozaik
▁papağan
="119
▁katledil
▁Georgi
▁verilerek
▁Bond
▁uygulamak
▁çıkıl
▁beldesi
trick
▁alayı
▁verilmeye
▁azot
▁Acil
▁kaydetme
▁mayo
▁asal
▁belediyeler
▁Nacional
▁ziyarete
▁yakalanan
▁ritim
▁kadına
▁Rich
▁isimlerini
▁ordusuyla
▁kaçmayı
▁öyküleri
▁sınıfına
▁anarşist
▁anma
▁iskele
liydi
▁Kla
▁düşünül
▁sınıflar
Let
tomi
▁Eskimo
▁yün
▁Under
▁çalışmanın
▁Koalisyon
▁anonim
▁kullanılıyordu
▁1981)
hart
▁evlerin
▁çiçeği
▁dilbilim
gard
Film
▁Haiti
fes
▁emirleri
▁Boş
▁gürültü
▁q
6.000
▁Belgesel
▁sürdürül
▁statüsünü
▁edilmedi
▁finalin
▁Neil
▁hissetme
▁Süryani
yayınlanmaktadır
▁kazasının
▁konuştu
▁çekiş
−
▁atılması
▁muazzam
▁santimetre
▁Sür
▁kesilmiş
▁bilge
▁Dernek
▁forum
▁insanlık
▁Volkswagen
▁Kerem
▁haberini
="98
▁akımın
▁oynarken
▁Sırplar
▁kontrolüne
▁açıklamaya
-1991
▁kapitalizm
▁sünnet
▁yıkıcı
▁Aktif
▁fethedil
▁Evlilik
▁Sağlığı
1983
▁yöneticiler
▁üretilmesi
▁mecliste
▁Burnu
shin
▁MKE
▁indirildi
▁adil
shan
▁Kali
▁Sher
▁limon
▁istikrarlı
▁patronu
Frank
Kral
▁çıkmasını
▁nesnenin
="1383
+1
▁seçimlerine
▁obje
än
▁bahçeleri
saki
▁tabir
▁Erdal
▁üyelerine
▁gidiş
▁Enternasyonal
▁Rotterdam
▁Fildişi
▁imzalı
▁yerleştirilen
▁Alemdar
▁Watson
=1383
▁Örnekler
▁göndermek
▁tanıtılan
SL
▁Hanı
▁çeşididir
▁oranını
▁adla
▁yaşamakta
file
rec
▁Roberts
▁bilimin
▁sürecin
▁Özcan
▁Danışma
▁parçacığın
lamışlardır
▁Orleans
▁şeyden
▁Volga
labilir
larsa
eba
▁vermez
▁ayrılırlar
rut
▁kası
▁işletmeler
▁Arch
▁değ
▁ilgilenmeye
▁familyasının
▁bileşikler
▁Eminem
▁bilinçli
▁yayınevi
▁Mec
ï
▁bitkisel
▁toplanma
▁Messi
▁benzin
▁bitme
haus
▁evlenen
▁Milyon
▁Tyler
▁Belediyenin
▁yayımlanma
raç
▁Divanı
ınız
▁saatler
▁Yen
▁Bugüne
▁μ
▁ağlar
▁Pia
▁simetrik
▁katılımcıların
▁fonksiyonlar
▁şekline
▁birleşmesiyle
▁biter
▁Yalı
▁havası
▁Blo
Vestfalya
▁Hudson
▁sözcüsü
▁María
▁sınıfında
▁kom
▁hırsız
ıh
▁Aya
▁Brit
▁Pak
▁imzası
▁bölgelerden
▁Sex
▁Buhara
▁malzemenin
▁prote
▁kıyılarına
▁Rika
▁habitat
▁yöntemlerle
▁gütmeyen
▁Elena
▁1908'
ع
8.000
▁analitik
▁duvarın
▁omurga
▁öldürmeye
▁yazımı
▁katsayısı
▁etkileşimi
▁Want
▁dilim
2003
-1990
▁yarık
het
▁maçlarına
▁doküman
▁kehanet
▁patenci
▁Samanyolu
▁Üye
tima
▁Ülker
trans
▁genişletti
Eu
▁adlarını
▁102
▁kaldığını
▁fetih
▁nehrinin
▁uygarlık
▁People
▁bahsedilir
▁Apa
▁Lam
▁Gazeteciler
▁Dür
NG
▁hakimiyetine
▁makyaj
▁bisikleti
▁şehirlerin
▁ürünlerini
▁Wehrmacht
▁usul
▁olmadığına
▁BK
▁hücrelerinin
pul
▁Sır
▁ağaçların
cilerin
▁kaçınılmaz
çalı
Kutsal
▁namaz
▁yurdu
▁Vasil
▁tenisçi
▁kitlesel
Çok
▁Seven
▁merkezindeki
="1382
Şah
="303
▁sanki
▁Monroe
▁Mountain
▁nötr
vision
▁golcü
▁mağdur
▁Leonardo
▁Kültürü
çısı
iğe
▁kata
=1382
▁yerleştirme
▁zarı
▁Peugeot
▁generali
▁2017-18
▁Holland
ción
▁odağı
▁2004-05
▁Rangers
▁mafya
▁canlandıran
Kel
▁kuark
▁makineler
▁Reşit
▁Tin
▁Ersoy
▁Banks
-2012
▁partisinin
▁Jac
▁başrolü
▁flor
▁üniversitelerin
Port
▁Nokta
▁Eşref
▁biçimini
▁volkan
ista
Mas
▁serin
▁heavy
φ
="102
▁finalist
▁Him
▁Karbon
▁yetiştiriciliği
="266
▁Paleo
▁Glen
real
▁Mind
▁Çat
▁Galip
▁Wallace
▁Minsk
▁parlamentosu
lica
▁seçimlerin
açık
▁itme
▁Costa
▁ihti
KA
▁Secret
▁kaleye
▁Apollon
▁kızar
lendiren
▁tuvalet
▁gökyüzü
▁vokalleri
els
▁hukukun
ό
▁fındık
▁öğle
▁beslen
▁evlendiği
▁altyapısına
▁bankacılık
Hak
▁Graf
▁Nef
rion
web
Mah
▁Ful
horn
▁Gul
▁kediler
▁bazılarının
▁yıkan
▁virüsler
▁kimin
▁evlenir
▁veliaht
▁eğilimindedir
▁(2011)
▁temsilen
ح
sosyal
▁adaylar
▁portresi
▁Yılan
▁huzurun
Marie
spir
▁are
▁moment
▁başvur
▁gelişmeye
wang
▁Honda
="174
▁İngilizlerin
hey
▁kurdukları
▁Selahaddin
-2014
tio
▁atışı
aster
▁Ronald
▁Vilayet
▁Johan
cası
▁kop
▁Belir
-2005
▁lens
▁Ünal
▁planlarını
▁Dy
▁Basileios
ania
▁kızını
4.000
HK
▁türk
▁Mass
▁tezini
▁metinlerin
▁Ut
fâ
▁sunum
▁Hannover
▁Marsilya
▁mücadeleye
▁ekonomist
üncü
▁bekleyen
▁sunmak
▁haberleşme
▁benimsen
3.000
▁kanunla
tari
▁min
▁Onların
▁harfler
▁Sof
▁bağlam
▁şan
▁Zer
▁öbür
▁nitelik
▁1826
▁Bé
▁SG
▁hor
AŞ
kası
▁Git
▁Refik
▁kişilerden
▁Pana
ω
ors
▁Şampiyona
▁Undertaker
▁Vezirköprü
▁Şirvan
▁uğraştı
▁1911'
▁Gelin
Hil
▁GP
▁akşamı
▁akademisyenler
▁eğil
▁isimlerden
▁koyan
▁Dj
lacağı
▁cephede
anga
Euro
▁Karasu
="162
▁Muhafazakâr
▁koordine
▁seviyesinin
▁İslamiyet
▁Tekrar
▁Cahit
▁şairi
▁yeteneklerini
-26
PM
kuşu
▁borsa
▁saldır
▁Lem
▁Gönül
▁yerlerine
▁Theodor
▁Gölcük
▁Diamond
face
▁Side
▁dip
▁şaşır
▁uğrama
▁hissedil
▁Basit
Sah
Wo
▁başrolde
="84
▁kesilmesi
▁salonunda
▁Yirmi
▁kızkardeşi
hü
abiliyor
▁destekçisi
veren
▁kaynaklanmakta
▁görünüşü
▁katkılar
▁dışa
▁Nahçıvan
▁%30
▁bulundurma
▁açarak
nier
▁Money
▁Wol
arca
▁122
▁isyancılar
▁donatılmış
▁pusu
TT
▁iktisadi
▁zulüm
▁civar
▁Kilikya
▁örneğidir
What
▁katına
▁çalgılar
Muh
stic
▁arkadaşlarıyla
▁yaşaması
▁istendi
▁Avrupalılar
▁yargılandı
▁oturur
▁paylaşma
▁Yapımcı
sağ
Jack
=156
="121
mble
▁vurularak
▁kültürün
-2006
▁oluşmasına
küçük
▁bestelediği
▁metinleri
▁sırasındaki
▁melek
▁adlandırdı
zum
▁Radikal
▁Mae
yız
▁popülaritesi
cky
Life
2013
▁parmağı
▁Pablo
▁sırtı
▁Ilıca
▁alaşım
▁soyadını
zia
▁Cüce
▁projesinin
▁taraflar
▁cerrah
▁öğrendiği
▁kapılı
▁soğu
▁Koza
▁nitelen
SU
▁uzaklaştı
▁saldırıyı
▁üslup
▁görünüş
▁tah
▁Lakers
yabilir
▁dekor
ór
▁Altınordu
▁mızrak
▁Direniş
▁Namık
45'
▁Sahip
▁sorunların
▁termo
▁başlamasından
▁taşıyordu
tani
▁derecesiyle
▁pornografik
▁Trablus
▁Tanzanya
▁onaylama
▁Necati
▁Davut
▁kripto
▁araştırmaların
▁amiral
▁almadan
▁Binbaşı
Kaide
quet
Tro
▁alanlarına
▁Sporcu
▁Venedikliler
thor
▁ölçmek
▁dayanma
▁salonları
▁benimsedi
▁sıkıntısı
▁komşuları
▁Kiraz
leb
▁dışarıda
▁(2)
▁insanlarda
ash
rog
▁ırkçı
leştiği
▁Yük
▁Stre
▁tarzları
▁yayınlayan
▁mücadelesinde
▁ulaşama
▁felç
değer
▁Süre
▁oluşturarak
▁radyoaktif
▁Tun
▁0-0
▁Dennis
▁Üreme
▁Dünyada
Sil
▁Force
▁emisyon
▁%40
mür
▁konsantrasyon
nell
▁Gamb
rani
▁Kus
OH
rr
yoshi
▁kozmik
ла
▁İlaç
▁kondu
▁uzat
▁Wind
="2014
renk
vert
▁Vista
▁Mezar
▁sözünü
Cer
leşip
▁1.7
▁parası
▁Ice
▁üniversiteye
▁Kova
▁dilimi
▁uygulamaların
▁erdem
▁Bugünkü
▁geçmişe
▁anılmıştır
lemez
ør
▁Değer
▁balta
▁inme
▁krallığın
PL
emon
▁AM
▁kullanıldığında
▁yazdıkları
▁ışını
▁turuna
▁Mika
laştırır
▁Wagner
▁dezavantaj
▁sindirim
▁savunmuştur
▁odaklanan
▁(27
▁Dağlar
ль
▁kariyerindeki
▁öncelik
▁Rama
▁Şaban
rico
▁idareci
▁1984),
▁parçalarını
▁basım
▁Lider
▁ST
▁değiştiği
stin
Н
▁Rollins
▁fahri
▁Tevrat
▁Keşif
▁1985),
▁orduyu
▁hayranı
▁Online
▁ırmak
▁147
▁kapıları
▁inceledi
▁Bod
=140
▁tv
▁Düşman
▁kuruluşunda
▁ülkelerdeki
▁organizma
▁verilmesini
card
▁fantezi
უ
▁ragbi
ingham
▁Mesleki
▁Francesco
▁Racing
ý
▁çerçevesi
▁konulan
▁eşleşme
dâ
▁izlenme
▁dağılma
▁inanıyor
▁3.000
▁Classic
▁çip
▁bombalama
▁santrali
▁Siverek
▁anlatıldığı
tics
etz
▁kalıntısı
▁hayatlarını
=195
▁Freud
▁fesh
omer
▁René
▁şebeke
▁nm
▁vermeden
▁Jer
terek
nükle
▁Shar
▁İdris
▁banyo
▁Hab
▁Patlama
▁düzenleyici
▁şekilli
▁Homer
muk
amma
▁up
▁İlham
▁dergileri
▁başvurusu
▁annesini
▁Lombard
▁sunu
▁Heat
Gör
▁rakım
▁Terry
▁nesneleri
▁kodlama
▁sonucudur
▁çak
▁temelde
▁yaptırdığı
görü
Hor
cusu
▁duyuru
▁fit
▁my
dıklarını
▁Vancouver
▁Bologna
▁Yatırım
▁yırtıcı
▁parçayı
▁sembolize
şad
▁Bakanlık
sap
▁bırakılır
-50
▁SO
▁işlenmiş
▁Beyazıt
▁Basel
▁geçtikçe
▁sorunun
▁planını
▁1991),
▁hakimdir
ceği
▁sos
▁arayışı
▁şarkılardan
#
NT
şehr
▁Zerdüşt
▁makro
IL
Anadolu
▁rastlanma
▁Rud
▁işaretleri
▁fas
▁meselesi
=266
▁sistemlerde
▁öldürmesi
▁düşünceler
▁Bow
▁Valentin
▁etek
▁egzersiz
▁rüşvet
▁karşılaşan
▁Kökeni
▁cha
engi
▁yalın
▁etmeden
Çi
▁arasındaydı
▁edilmek
▁gerektiğinde
oidea
▁edemedi
▁Seni
üğü
▁sinyalleri
yah
▁Başkenti
▁değerlendirilir
▁çiftinin
▁kazılarda
▁sınıflandırması
vus
▁Wars
▁türdür
▁başındaki
▁yaratılış
lion
leştirdiği
▁etkisinde
▁madalyanın
▁kalbin
▁ob
barındırmaktadır
▁Oka
▁belediyesinde
▁farkla
▁bozguna
▁Yetki
ame
court
▁Sed
▁Owens
▁Macera
▁bölündü
▁Maçlar
▁ilçeler
▁yetiştirilen
▁kurtulma
▁değişmiştir
▁hepsini
▁Buzul
▁ulusun
▁İkisi
▁edilmez
▁eseridir
▁Üçlü
▁oranının
▁tanıdı
▁Temsilcisi
▁Nexus
▁çinko
▁Ferit
▁Haldun
▁sulu
▁aşamalı
▁DS
▁edilmesinden
▁yapıldığını
Kasım
▁Grey
▁muhabiri
▁direk
sâ
▁Halter
▁türünü
▁127
▁doğusu
▁göründüğü
ekler
▁Roosevelt
▁muhteşem
▁Mitchell
▁1856
Kol
▁satılmaktadır
▁mitolojik
▁yazarlarından
▁tabiat
▁Sesi
▁Ayna
▁artmış
▁Jeo
▁cumhuriyeti
▁hayati
▁Harita
▁fal
▁Hastane
▁Santrali
▁içerisindedir
▁Astro
▁yenilen
▁ülkelerinden
AG
▁Nike
▁bilir
▁sebeplerden
▁1,2
▁vade
▁partiden
▁duydu
▁Kings
▁viral
▁gözet
▁saltanat
▁Project
▁biçimli
▁dinin
▁kurulur
Hay
▁Never
▁galaksiler
▁Kaynaklar
▁zorlandı
▁Greg
▁inanıyordu
▁Ölü
▁illeri
▁Core
▁hayli
▁Tea
▁Og
▁çekilir
ota
▁hastalığına
▁Rumble
▁%80
▁durdurdu
diş
▁rahatsızlığı
▁feda
▁kaynaklarına
▁Ryo
▁dalgalar
pter
▁tabii
▁topluma
▁getirildiği
▁mantığı
It
▁yaşındaydı
▁nak
ière
▁transkripsiyon
▁Cameron
▁türlerinden
▁Çakmak
▁eğitil
▁Dec
France
▁Hatip
▁tutmaya
▁hanede
▁Naci
▁Zeytin
sarı
▁yenilikler
▁çamaşır
▁Western
▁Safa
▁domates
▁Üzerinde
İz
▁Bai
▁merkezini
rıp
▁Truva
▁tüylü
▁HIV
▁cephane
leştirici
▁savunucusu
şarkıcı
▁Sınıfı
▁firmasının
▁mg
▁bildiği
çayır
1941
▁GPS
▁hassasiyet
▁başvurdu
▁â
▁Yorum
▁olanları
▁Başkurt
▁kurs
▁ortaçağ
▁Kömür
▁Koyun
▁Stru
▁çıkartıl
rmal
dönüştürülmüştür
▁avı
Mısır
but
▁dişiler
▁tutuklanması
▁çıkmayı
▁Nöro
="267
▁Boo
▁2:
ová
▁boylu
roma
▁Kama
▁Andronikos
▁remix
ped
▁ölçekte
▁Baas
zek
odont
▁1859
▁odasına
▁Diğerleri
▁devrin
BM
OP
fol
kovski
▁Irmak
▁2.4
▁Diana
▁bilgilerini
▁platformları
liğiyle
▁Taşı
▁Mussolini
▁tarıma
▁çevrilen
▁Television
▁Tiran
üb
▁önder
▁tepesinde
▁sultanı
▁1600
▁sporları
▁Vur
sıl
▁pagan
Yunanistan
▁kort
▁Bremen
▁kalmasını
▁oluşturmaya
▁üretken
▁programlarında
▁şeyleri
▁Arda
▁Yöntem
▁kesici
lıoğlu
▁değişime
▁Larry
▁yatılı
▁Card
ctus
▁1909'
bolu
▁Lane
▁Here
Dam
▁online
="283
▁Büyü
▁etmesinden
▁Muhsin
▁vereme
▁oyma
semi
▁matbaa
▁Caesar
▁Uganda
▁Partizan
▁Saz
▁Adem
▁Kitab
▁Eğ
▁Foster
="2008
▁sürerek
▁Deprem
▁tekke
▁Glo
▁Rapor
▁bozma
Mat
▁cisimler
▁bilinmiyor
▁hizmetçi
▁Hunt
now
▁potasyum
▁Vücut
▁logo
▁kurtul
rg
▁Vila
1.000
▁kapatılmıştır
▁Dub
▁kesimleri
▁köpekler
▁protestoları
▁bölgelerinin
▁mekanizmaları
▁kocasının
▁Kullanımı
▁Toros
▁Sko
▁politikalar
eria
▁Holokost
▁Bozkurt
arra
▁Cumhuriyetin
▁önerme
▁(2008)
▁yüksekliğe
▁Obama
▁Cara
TI
▁Monako
▁master
Anne
▁Woman
▁büyür
▁dos
▁Elmalı
▁kampüs
Dis
▁Spo
▁organizmalar
▁bitirmiş
konak
▁pulları
▁Cumartesi
▁Mazda
▁Taşköprü
▁hard
▁vakum
ogo
ikos
▁dönüşmesi
▁Anabilim
▁almaları
▁çalıştılar
▁Abe
▁hayvanın
ques
▁verilmişti
▁çağrısında
▁Luci
▁Rö
amaması
▁kuzeyden
lansa
Bre
▁Hora
▁Mek
▁Kuşatma
GE
adet
і
=122
▁Thunder
memesi
▁revizyon
Ermeni
▁Semih
▁varsayım
▁Syn
▁şampiyonluğuna
▁reseptör
▁vazgeçti
▁girdiler
▁gösterilmesi
▁Lac
▁Ajan
uel
ettiği
▁şarkısında
ılınca
▁cor
▁Olimpik
▁cehennem
▁Emirliği
rav
▁В
▁geçmesine
▁Ass
2001
▁nef
▁kapandı
▁devreli
▁kW
▁ordularının
▁kampına
▁Duygu
leşmeye
▁moleküllerin
▁akvaryum
▁Şehristanı
Irak
▁Boru
▁ardılı
büs
▁reddetme
▁yükseliş
▁artmaktadır
▁(2005)
▁ithaf
ebildi
osis
▁sektörüne
▁eli
▁oyunların
▁Fırkası
▁gizlen
▁cebir
▁içten
▁Field
▁Petrus
▁parçacıkları
▁2.2
▁kızgın
▁Adanın
lıydı
Charles
▁Viking
▁spektrum
▁büyükbabası
▁gerileme
eğen
▁enfeksiyonu
▁oynadıkları
▁Koh
▁İh
▁Yörük
▁Mode
▁misyonu
gni
▁çizgiler
▁138
▁(2012)
▁duyurmuştur
▁Beatles
▁konuşmacı
leştirmiştir
▁turizmi
lok
ıb
bridge
▁vermişlerdir
▁Jong
ág
▁Gas
▁What
▁aracının
water
muyor
▁Maraş
=162
▁iPod
▁sağa
mul
რ
▁serveti
▁Aragon
▁şarkısına
▁yorumladı
▁düşerek
▁Etkinlik
▁harabe
▁Herkes
▁sayfasında
▁111
ğünü
▁bulmuş
▁dillerini
▁Yapımı
▁konfederasyon
▁İçerik
▁üstündeki
spe
sher
▁elektrot
▁canlıların
▁Andorra
▁Deney
Eş
▁Ormanı
▁Two
▁(29
▁Altun
▁kedisi
▁terimini
▁Isı
ografik
▁dürüst
▁bünyesine
▁yüzeyine
▁Yayılımı
▁benzet
▁HTC
▁Creek
hoe
▁Aleksey
▁ah
▁dayanışma
▁Whitney
▁Halka
▁Deutsche
▁Hav
▁Rhode
▁kiraz
▁Monica
С
▁oyunculu
ega
▁anıldı
▁Giuseppe
▁mevsiminde
Say
▁eleştirildi
▁Öğretmenliği
▁öğretileri
lenmemiş
▁Hammer
▁Dayanışma
▁aleyhinde
▁betimlen
▁modelini
leştirilen
lendirmek
▁hum
ımın
▁elenmiştir
Hol
âd
ester
▁yurttaş
▁Sema
▁Vadi
▁servet
▁sinek
tül
latıcı
▁misyoner
▁muayene
▁Dükalığı
▁Moda
▁Leonard
▁Roland
▁sökül
▁odaklandı
▁yapmasına
Toplam
▁Kaf
▁yoksulluk
telli
▁olsaydı
="263
▁Nicola
▁Rub
jon
toria
▁Tiger
▁Ayak
ğından
lenmesine
▁çözünürlük
▁sirk
▁Gelişim
lanmakta
▁pişirme
▁yorumunu
▁Raz
▁Beta
▁gereksinimleri
▁(2.
▁üne
▁suçları
▁konferanslar
▁prodüksiyonu
="81
Yar
▁bırakılan
▁şelale
tanımlanmaktadır
▁babasına
▁Hanedan
▁ayından
▁kökünden
▁Mayer
▁Sever
▁Lille
▁ilde
▁kazanmaya
▁Düğün
▁Gezegen
▁heykeller
-2004
gesi
▁müsabakası
▁işçileri
▁diline
ango
▁Meg
▁milliyetçilik
▁kullandılar
▁erozyon
▁edilirler
▁beslenen
▁İnsanların
mıza
ırıl
rud
▁tanıtmak
AY
▁analog
▁Felipe
▁Amerikalılar
range
▁bahane
▁rezerv
▁Dae
▁ortalamaları
▁barışçıl
▁konaklama
▁Soma
▁sürerken
▁rekabeti
▁tecrübesi
▁İlgili
▁tepkisi
▁departmanı
▁beylik
▁tavsiyesi
▁astronomik
▁hikaye
▁yönüne
▁kanalın
gır
▁kafası
▁ışınım
▁Hari
▁tetra
▁Köprülü
▁cezalandırıl
▁atfedil
▁izotop
▁Sayısı
▁Şek
▁görünüyor
normal
cs
▁köyden
yüzü
▁insülin
▁solucan
▁girmesiyle
▁ch
▁değişimleri
aşvili
Dere
▁2006-2007
▁diziler
▁kitaplarında
▁Japan
GC
Uzun
▁Doğuş
▁Franc
▁videoları
="92
▁kendilerinin
▁Savaşında
▁teşekkür
▁ılımlı
▁Myanmar
▁Yürütme
tig
▁Oak
▁Vasili
▁Yayınevi
▁TFF
ations
Hel
▁How
MD
▁aklı
▁arazide
▁hasarı
▁eğim
Ulu
karbon
▁iktisat
▁Maha
▁Ferdi
ımız
▁Hamit
▁117
▁codice
▁Lopez
▁kinetik
hill
▁Bau
▁Jazz
▁taşkın
▁fabrikasında
▁tabloları
Paris
▁Gid
▁azalan
tası
▁Fro
tl
▁gazetede
▁barışı
▁kurucusudur
ów
▁albümlerinde
▁Mahalli
▁oyununu
▁mıknatıs
▁adaların
▁Lyn
▁Bektaş
▁Tottenham
▁yurtdışında
▁Ergen
▁Hop
▁etmeyen
▁Kahramanı
▁giymeye
▁Stoke
▁bilişim
▁Too
▁nakledil
▁seçmiştir
▁tempo
▁değiştiril
▁yazarlık
DNA
▁Know
ship
▁(2007)
▁romanlar
▁Kamboçya
▁halklar
▁vatandaşlar
▁Gözlem
▁eksi
▁hazırlamak
bell
▁Lütfi
▁Çağlar
▁alanlarını
▁üretmektedir
▁yapama
▁1831
engel
▁uygulamalı
▁Selam
▁miktarını
Br
▁belirtildiği
iao
▁Bass
anza
▁konusunu
▁Hugh
▁ker
▁temellerini
▁inançları
AH
▁Oteli
diklerini
▁nitelikleri
▁Meksiko
="292
▁Campbell
▁kötülük
cesi
▁takı
▁Princeton
boğa
▁Portekizce
▁Maltepe
dül
▁koymuş
▁240
▁1857
iyesi
▁Swa
▁saldırma
="82
▁tahkimat
▁sam
lacağını
▁kültürde
▁Delta
▁hol
=267
▁bezi
▁Pier
▁Görü
yeşil
▁Sid
▁Yeniköy
Sür
abiliyordu
▁geçecek
▁konuşur
▁hıza
ebilirler
▁Age
▁listeleri
▁arttıkça
▁sayılmaktadır
verdi
▁Days
Ölüm
▁yayımlamıştır
▁DE
▁Katalan
mân
isyon
▁gelmek
▁yapılırken
=1229
▁değerinin
▁göller
="1229
pazarı
▁ortasına
ttle
▁çap
▁Atilla
▁Sca
▁ceviz
▁sezona
▁türev
▁Faust
▁bildirilmiştir
▁gruplarından
▁ışığında
▁Ören
▁tasar
jor
="220
▁Machine
▁Gent
Kİ
▁Word
▁gösterilmiş
▁vatandaş
▁vektörü
▁arar
▁?
▁toplantıları
▁evlenmesi
▁Merzifon
▁ganimet
▁minyatür
▁Party
▁(2004)
▁çıkarılmış
boz
▁atlar
▁şarkıdan
▁Brun
▁itibari
▁zorlama
▁1854
iani
▁Baskı
▁dışarıya
▁çocuklarını
▁madencilik
▁solisti
▁dişler
▁Quint
down
▁binyıl
▁Varto
▁çatışmada
▁Tanzimat
▁mücevher
=296
▁höyük
▁Ovacık
▁Avşar
▁ertelendi
▁Hâlen
ttığı
▁tüccarlar
▁Blanc
▁denmektedir
▁şarkılarından
▁yayınlama
ones
▁ekler
▁parçalarının
▁aktarımı
▁yaratıklar
▁beklediği
▁Aslen
yarı
▁pes
▁aksesuar
▁büyükşehir
▁homojen
▁kontrat
▁birleştirilmesi
▁Malik
▁sarayında
▁Korkut
▁üyelerini
▁membran
İP
▁güzelliği
▁gerginlik
▁Flam
ots
▁adamıdır
lls
▁yükselmek
▁yapılandırma
div
▁Finans
▁Dö
mum
▁şeffaf
▁dökülür
▁Destanı
▁rastlanan
▁basını
▁peşine
▁was
▁Ermenilerin
▁gruplarında
▁konuştuğu
▁gelmeden
▁sevme
stel
▁Award
▁mega
duc
▁memurları
▁değiştirmesi
sınız
▁Demiryolları
▁yanardağ
▁kaynaklarını
▁annenin
lá
▁Teğmen
–2
▁bürosu
▁mantıksal
▁devriye
▁özü
▁Electric
▁Jül
İsveç
▁indirgen
gov
▁Kuyu
▁öldürdüğü
▁çökmesi
▁ruhunu
▁himayesi
▁Galeri
▁markaları
▁sosyo
▁Çaykur
▁Stanford
▁Bayer
▁konserleri
▁Dostluk
Sc
viye
=283
Merkez
▁coğrafyası
▁Ece
▁festivaller
▁Alba
▁tanıklık
▁başlıkları
▁Saddam
▁(2006)
▁red
▁Numara
Stra
▁Mina
▁Helena
▁ilindeki
▁belediyesinin
▁Jessica
▁anayasası
hom
▁kamuoyuna
▁birliğini
TF
hali
bilirsiniz
▁düşürüldü
▁Gli
▁yayıncısı
▁mevkii
▁Gibi
▁tarımı
▁Aksoy
▁makalesinde
▁dia
▁ifadesini
▁sözcüğünün
xa
▁Ünye
▁Başlangıç
▁açığı
▁binasında
ege
▁Gazetecilik
▁İnceleme
▁malları
▁şanzıman
▁Satürn
▁teras
▁Tiberius
▁piyasası
▁2013-2014
▁döndüğü
HD
▁hücreli
▁Delhi
▁Aras
Ant
Afrika
▁getirmeye
▁Kuba
▁sonuncusu
▁Josh
▁edilmekte
▁Dahası
▁Kilis
▁terapi
▁dönüştürme
▁Nav
=1255
▁etkileşime
▁yenilik
▁Yarışı
▁içeride
▁organlar
=251
▁Kilisenin
▁gençlerin
▁Hicaz
ghi
▁İbrani
▁Sah
▁Abdi
▁Harrison
▁Umman
▁aramak
▁Köşkü
BP
▁delta
▁övdü
esse
▁sahibinin
Cy
▁Meş
▁Türkmenler
▁kızının
▁Hoş
▁parlamenter
▁halkların
▁Kızılırmak
▁Locke
▁yayılır
▁gözlemleri
▁sistemiyle
▁yaratmıştır
▁Eğri
▁elden
amamış
▁kararsız
▁yıkılmıştır
▁Bee
▁uçur
MR
▁Kocaelispor
▁Karayolu
Italia
="1255
▁kararlaştırıldı
▁Politik
▁yayımlanmaya
▁anlatıcı
▁Servet
▁dolaylarında
▁Deep
▁adlandırıl
Çay
▁Sek
▁Orda
▁Coşkun
▁Leicester
▁jimnastik
▁görkemli
▁anlaşmaları
▁pornografi
▁pateni
▁setlerle
▁işlerine
▁126
şev
qi
▁kimyager
▁Kristal
▁yapmadan
▁Salt
▁aygıt
▁çıkararak
board
▁yorumları
lması
▁kurtardı
="85
▁arkadaşlık
="151
rıldığı
gari
Nar
▁çalıştıktan
▁resme
▁Singles
inen
yg
▁çare
-1989
▁Hayri
▁hareketlerini
▁BAFTA
▁yukarıdaki
▁Bölgedeki
▁Eugen
▁yönetime
▁Görsel
Sey
▁bahçesinde
opi
▁gereksiz
Los
▁Başkanlığına
▁mesafededir
▁besteleri
Andre
▁söylendi
▁söylemesi
▁özelliklerin
▁Hide
osit
▁feodal
▁(2010)
▁arzusu
▁Camisi
▁düzenlemiştir
▁çıkarılır
▁yansıması
▁kategoriler
ares
▁mahkemeye
▁reisi
▁alınabilir
Play
▁liderliğini
▁suçundan
▁Micro
▁Meri
▁basılmış
▁yerleştirilir
▁Nebraska
▁Pennsylvania
sby
▁uçurum
▁1849
▁Beyoncé
suyu
plazm
▁peyniri
▁Rep
▁Saç
▁vitamini
▁kuzeydeki
▁gizem
▁Taban
-1999
▁avukatlık
▁Kamera
▁Steel
▁yerlerden
▁çıkınca
▁ıslah
▁1858
▁liseyi
ement
▁Kavram
▁kullanıcılara
▁Sr
▁efendi
▁ilçesinden
▁görürler
▁akışını
rilmiş
▁vokalisti
▁yöresel
▁komşusu
▁yumuşa
agh
▁ihtimalle
▁П
▁hiza
▁Akkoyunlu
▁kalibre
▁saptanır
▁üzüntü
▁kaydoldu
▁denedi
Wh
▁denilir
▁sürümünde
▁denizde
▁uzaylı
▁Edition
▁yenik
▁Nem
▁1828
ddle
ktadırlar
▁eğitimli
▁patojen
▁Claire
▁baterist
Dur
▁Hayal
▁Seçme
▁Wyatt
▁Porsche
▁Country
▁başlayacak
▁Leeds
▁cıva
▁koz
▁sunuculuğunu
Cal
▁Korku
peri
▁sürüklen
▁Iz
▁cisimlerin
▁turları
он
▁uçuşları
▁1870'
▁Lion
▁Zak
zol
▁ilkeler
▁yaptırdı
▁Deb
▁Grace
statik
▁Arama
▁Korint
ˈ
▁İsfahan
▁gidecek
▁Semt
▁edebilecek
▁yarışta
▁kaide
▁bildirmiştir
▁durumunun
▁değerlendirmesi
▁Yerine
▁kuramsal
▁İlişki
▁saldırılarına
▁„
▁reddeden
bugünkü
▁Opel
▁Kitapta
▁dayandığı
leniyordu
▁Pepsi
▁Ayasofya
▁Stuart
▁nötrino
▁bürün
▁Alevî
▁tümeni
▁sonuçlanmıştır
erik
▁146
▁kadroları
▁önemsiz
▁siper
▁Duma
▁Kr
▁Dost
▁koşullarında
▁sonuçlanır
▁buyruk
fus
▁Naz
▁Nicole
▁karşılaşmalar
▁dallar
Dal
▁gerçekleştirir
▁vekili
▁Ekran
▁1979)
▁Sendikası
ştırıcı
Yol
▁konuşmalar
▁750
=174
▁yörede
▁döküm
▁Damat
▁FBI
▁Come
▁Gerede
▁Pascal
▁kene
▁klasman
▁hepsinin
▁Azerbaycanlı
▁menzil
▁Uz
▁sola
▁Olga
▁evlerinde
▁elit
▁hoşlanma
aslan
▁dük
▁uygulandı
▁vatandaşlık
=263
▁şehirlerinden
▁folklor
▁boykot
▁karısının
▁atanması
▁%5,2
="2011
▁rayonu
▁Nathan
▁bulundurul
▁Vak
▁Beste
▁Disk
▁kanallarında
=1242
▁Kulak
tions
▁Bölümler
▁hedefler
="1242
▁vir
▁anlaşıldı
▁Biri
▁Pete
▁kurtulmak
lig
▁yerin
▁egemenliğini
Mavi
TL
▁Kategori
▁Çıldır
▁gelgit
▁aileye
▁England
vî
nori
ghe
▁haş
▁istiyor
1944
▁kapatma
▁topları
Joseph
resmî
▁insanlığın
fobi
▁ilerler
▁işten
▁2022
▁Hadi
▁kalıtsal
▁taslağı
craft
▁borçlu
odon
▁yansıtır
▁Teori
▁Devre
▁geçirilmiş
▁Çı
Sosyal
▁tampon
▁okumaya
▁BB
▁yaşadığını
_8
▁USA
▁çeyreğinde
lendirmiştir
▁anlatmak
thal
▁sığındı
▁Yal
▁Kok
▁kasıtlı
▁Goethe
▁Yönetmenliğini
yeon
▁gazetelerde
▁Akıncı
sius
▁civarındaki
▁bırakılmıştır
▁sömürgeci
tıkları
▁takipçileri
▁Morrison
▁dalgaların
▁Çalış
▁Oyunlar
King
Str
▁giysi
▁riskini
▁166
▁Sulu
▁ortamın
▁Agu
zal
=200
ου
▁Honor
▁sistemlerini
Geç
▁Peş
▁kadınla
▁ayaklı
▁ih
▁imajı
dell
▁ür
▁Kutup
▁API
▁Tev
▁tedbir
▁besteledi
▁öldürülmüş
▁halkını
▁Mey
▁karışma
lenmesini
TK
eff
roid
▁Raporu
▁Silifke
▁Kıtalararası
▁hoşgörü
▁hasat
▁telefonlar
▁Şakir
▁albümündeki
▁insanlardan
▁Michelle
▁kalitesini
▁Bü
▁toplanmış
▁Aşırı
▁Kızlar
▁Yaman
Birinci
toksin
▁Stil
▁1836
▁şekliyle
ò
▁rezonans
▁İcra
▁meslektaşları
▁Barrett
▁Çer
qa
▁Kağanlığı
▁met
▁İmparatorluğun
küs
▁ortalarından
Simpsonlar
▁kö
▁ödüllerini
▁geliştirmiş
ц
▁filmden
▁değişikliklere
▁molekülleri
▁Suikast
▁ansiklopedi
▁çılgın
▁kontrollü
▁4000
▁Mithat
▁hazırlanır
▁seçmen
▁karbonat
▁biliyor
max
▁bacağı
▁Topal
▁Earl
▁parçalanması
="251
▁Hamid
▁Note
▁sperm
▁gözlü
▁gündem
-2003
▁Şövalyeleri
▁izci
▁kolaylaştırmak
hib
▁Lud
▁Köle
mour
▁116
▁Muhtemelen
▁yapıyı
▁Isla
▁Murray
▁raporları
▁çivi
▁getirilerek
▁satılmıştır
▁sokma
▁aktivitesi
▁yaşantısı
▁izleyiciler
World
▁uğraması
▁kri
▁girmesini
▁İnter
▁tepeler
▁Rab
▁askerin
▁Yehuda
▁şaşırtıcı
▁süpernova
Yedi
▁dayanıyordu
bilgi
▁varsayımı
burun
tung
▁Ayaklanma
▁kardeşlerin
endorf
▁eklenerek
ppi
▁edebilirler
▁rica
tipi
Yüz
phone
▁tutuş
▁kanunları
▁40.000
▁teçhizat
▁Personel
▁rastlanmaktadır
▁doğaüstü
OK
▁yaşamında
ка
▁padişahın
▁sıva
▁Polo
▁Akad
▁oluşabilir
yok
cchi
▁gökadalar
▁güçlerine
▁sonucunu
madığı
▁çıkarım
Suriye
▁eğimli
BB
="165
evski
devlet
▁çelişki
▁yerlerini
▁itibar
▁Bohemya
CE
▁tüyler
Res
▁zapt
Mont
▁altmış
▁gelişimine
▁çekildiği
▁materyaller
▁Zirvesi
▁çarpımı
west
▁insanlarla
▁bahsetti
▁1855
▁sentetik
video
▁inandığı
▁görüyor
▁semti
leştirdi
▁Whedon
▁figürleri
▁Reed
▁Yetişkin
▁düşünülebilir
▁Nadi
▁diken
▁halktan
efe
▁oradaki
▁cevabı
=220
▁talepleri
▁parçasının
▁je
▁hızının
▁Mı
▁Bizim
▁enzimler
▁dükkan
▁lojistik
▁%1,1'
▁yönetilmektedir
▁ekranın
▁yaygınlaşması
▁α
amba
Hop
▁teoloji
▁görerek
]],
▁SN
aydın
▁Fab
ske
▁Antrenör
▁şato
▁ötesi
▁seriyi
ин
Mustafakemalpaşa
▁Nikiforos
▁Research
▁sabun
▁dağıtılan
▁mikroskop
▁ekipleri
▁Gönüllü
▁ölçeği
▁MVP
▁profili
ozom
▁topun
Arab
▁Lori
Kemal
▁Hür
▁söylemeye
▁elementler
▁demokrat
▁ilmi
▁paylaşımı
oper
▁Cihazın
▁yerleştirdi
▁Perşembe
▁Sayılı
▁Felix
▁kabulü
zî
▁Bloom
▁satmıştır
Deli
▁dü
▁güçlendirmek
▁Fly
emediği
▁Petrov
▁Link
▁ekranı
▁Putin
raw
▁gündelik
▁firmalar
▁beğen
▁adayları
▁arkadaşının
▁tamamında
▁yazılması
▁kok
▁Departmanı
▁Bristol
▁defnedilmiştir
▁taslak
▁Hafif
▁Alpha
▁artırdı
▁pri
▁Arist
▁Genetik
▁tanıtılmıştır
▁sınıfa
▁tanınmaya
Pri
▁geçmesini
▁kaçarak
▁dilidir
▁kulübünün
="293
laşmaya
▁geçtiler
▁pH
▁şirketlerinin
▁pazarında
yuk
▁liglerde
▁bedenin
▁ast
▁sınıfın
▁Necdet
▁Zimbabve
▁Vatandaş
▁raporlar
lenmişti
▁girmeden
Allah
▁Sato
▁birbirleri
▁Ülkeler
▁çizdi
şey
▁yakında
▁yıllarına
▁değerine
▁işlenmesi
▁yüze
thus
▁değişkenler
Sabah
masa
▁1789
▁anıtı
▁Samtshe
▁seçilim
▁%11,3
▁yetiştirilir
▁Yezid
▁inanılmaktadır
▁bozulmuş
=143
▁Tufan
▁dikkatleri
▁verilere
▁Konum
▁Lis
▁elektronlar
▁padişahı
▁kumar
▁Ley
plat
▁Kot
▁müzisyeni
▁sürdürmüş
▁inanır
▁Bordeaux
▁irtibat
▁Metropolitan
-1988
▁Terminal
▁helyum
▁kitapların
vatnet
="2019
▁talimatı
▁oluşturabilir
120
muştu
opol
▁ilgilenir
long
▁Pit
▁tutarak
▁Üzüm
▁sunma
ario
▁belgelerin
▁Main
▁arkadan
▁Ultra
▁Gross
▁çalıştırma
▁Rot
▁mucize
▁Square
▁Floyd
▁Şafak
▁Nishi
▁oluşturuyordu
▁tık
▁Magnus
▁birliğin
Jan
▁Hepsi
▁Vah
▁Mama
FL
▁denemeleri
▁45'
▁kökten
▁karşımıza
▁güneydeki
▁Hap
▁köprünün
▁→
▁nitelikte
▁büyüklük
2015
lanışı
▁iner
▁azaltılması
▁Bam
▁başarısızlıkla
▁Kayıp
▁akın
▁deplasman
▁Wii
lanmamış
▁Brooks
▁kuruluşudur
▁uygulanmaktadır
▁savunucuları
▁sponsorluk
▁yaklaşımlar
▁antropoloji
▁kurmayı
▁varlığının
▁Randy
▁Alain
▁vermekte
▁kamuya
bölge
А
▁Toshi
▁Katı
▁bozuk
arslan
▁partili
▁çarptırıl
0-
▁Shan
▁Frei
▁kapağında
▁Bağlantı
▁vazgeçilmez
▁(2014)
▁Nissan
▁işte
▁kaynaklarından
▁kağan
▁veba
▁1847
▁Survivor
çal
▁tanrıları
▁Direktörü
▁dengesi
▁kaybına
▁uzunluğa
▁kalanlar
▁Haluk
▁6-4
▁kovu
▁partiye
▁varoluş
▁kılan
▁Divriği
▁rassal
▁Olağanüstü
▁havanın
▁işsizlik
▁Günümüze
▁fonksiyonel
▁Akarsu
Cin
▁araştırmak
▁çat
▁yel
▁Çöl
▁Eczacıbaşı
▁Turk
cce
▁Tolga
▁Mix
▁Sezer
▁fonksiyonun
SR
▁federasyonu
benz
▁araçlarının
OD
▁varlıklı
tara
▁Ach
▁babasından
namesi
▁Harran
▁%79,0
▁Donanım
▁sürülmektedir
tore
▁belirtme
▁masum
▁klorür
▁Başak
▁düşünürler
▁çatal
lardandır
▁Cinsel
▁basitçe
▁seviyeye
▁denklemler
lantı
uzun
▁Tesis
▁DP
dian
▁operatörü
ayev
▁ligdeki
bio
▁yazmaları
7.000
andro
▁etiketi
▁kaçınma
▁Liber
▁149
▁2020-21
▁Louise
▁Stro
▁zenginlik
▁Hira
▁Barok
▁maliye
Grup
▁Hep
▁kurmay
▁Hendek
▁unutma
bağı
▁Bölümünde
▁Xander
▁Gülen
▁Portland
▁Hut
yürek
sign
▁şirkete
▁ayın
kowski
▁Profesörü
▁basma
▁Productions
leşim
▁kam
aktör
▁Ağız
▁egemenliğinde
▁çıkarttı
lendirildi
break
▁rakamlar
▁rahibe
▁katıldılar
▁halter
▁Talat
uva
evich
Tay
▁tarihçileri
▁Luther
▁Sultanlığı
▁yapmaktaydı
▁Ricardo
▁3:
▁Leone
▁yüce
▁finalden
▁işgalinden
▁yarışında
reis
May
▁teyit
ıştırılmamalıdır
▁zekâ
▁tarihçesi
sev
▁Topluluk
▁Bölgesinde
PO
▁1982),
lacaktır
▁ayarlama
Gö
▁Hükümdar
rahim
boğaz
▁kiliseler
▁1880'
▁arazilerin
▁Lale
▁tartış
▁Diz
glio
▁Nasr
▁peyzaj
▁Piyasa
esti
▁denilmektedir
▁(2016)
▁1999-2000
▁vaaz
▁klipte
▁Lorenzo
▁Alem
Bul
▁Lucius
▁Altan
▁koloniler
▁saldıran
▁AIDS
▁band
Bursa
▁Woods
▁kaynağını
▁harp
KO
▁Cour
▁Ters
▁şovu
έ
▁lokanta
▁Açılış
▁diyor
▁antrenörlük
▁Belle
▁azınlıklar
▁sonsuza
▁diğerlerinin
-2013
▁Birlikte
▁simülasyon
=1235
▁kaçma
ığ
▁Bronz
Kum
▁devredil
="80
▁Sadi
▁varır
▁galibiyetle
="1235
▁yahut
▁plato
▁bastırmak
▁Abdal
zaki
▁Borg
▁geçimini
ifi
hiz
Benim
="1384
▁1851
▁Elbistan
▁averaj
▁Takvim
nick
▁Ou
▁(2002)
Sho
▁Samoa
▁kazandırmıştır
▁göndermiştir
▁Sang
▁gazetelerinde
▁yetiştiril
=1384
▁görevlendirilen
▁Ptolemy
▁atıp
▁148
▁geçin
▁başlatan
▁vergiler
▁Tire
Grand
Alan
▁çarpıcı
DB
zit
▁çıkmasıyla
▁Manga
▁Virgin
▁arkeolog
▁menajeri
▁hanım
▁kelebek
▁İmparatoriçe
▁astronot
▁hareketsiz
▁Chamber
▁Çinliler
▁kaçması
Çince
ador
▁romanında
▁Adalar
▁yuvası
▁İlkokul
▁1820
▁Afro
-1995
▁çarpışmalar
▁Rem
▁çıkarmış
▁tozu
▁Yazarın
▁Doğulu
▁García
▁2003-04
▁Normandiya
▁artırır
▁şahsiyet
LI
▁logosu
=208
▁sadakat
▁Forumu
▁yaya
▁Motors
düzü
Kas
▁hazırlayan
▁açıları
laus
Yıl
bür
▁hain
▁penis
▁politikasını
NET
Daniel
▁başarısızlık
▁yetişir
MB
▁Nava
▁Oku
hwa
▁ünite
▁Yale
▁uranyum
▁sterlin
▁kusur
ër
▁all
▁cinsinin
▁oyunlarının
▁Spi
▁Monster
▁içerme
▁yelpaze
▁Vekilliği
▁edileme
▁yetiştir
–18
nâ
▁Colin
▁1973)
▁Sanatçının
▁Abdülhamit
▁Sokrates
▁kaplumbağa
▁fırça
▁hammadde
▁eğlenceli
▁Foundation
▁takdim
▁halklarının
▁enkaz
culus
▁aktiviteleri
▁Laurent
▁zarf
▁tutmaktadır
trof
▁cumhuriyetin
▁1839
Hat
▁edilmesinin
tarih
▁veriyordu
▁kapitalist
▁Ago
ни
▁kelimeleri
▁inci
▁Lars
▁Ekvator
ume
▁Ned
▁anlık
asker
▁Karataş
▁halidir
▁İslamcı
▁kalınlığı
▁Keith
▁Şiirleri
▁124
▁sığınak
▁Iwa
▁Abhaz
▁Andrey
▁yazılımlar
pınarı
▁Sâ
▁hayvanı
▁gevşek
▁biçimidir
ط
▁Anavatan
Şu
▁style
▁gözde
▁herkesi
▁erişilebilir
▁Bour
▁Bahadır
▁ste
▁programların
▁davranma
▁bünyesindeki
▁halindedir
beyi
▁sorunlara
▁yürütmek
▁ellerine
balık
▁yarışın
woo
▁tartışmaya
ć
Murat
▁erişil
▁kalmadı
▁giyin
▁çevreye
tech
▁Galileo
▁Craig
ène
▁ılık
▁Akif
▁Til
▁Tahsin
▁kavramsal
▁Koch
▁topla
▁düzenlen
▁katta
cut
▁2017)
▁dereceden
▁sorunlarını
▁123
▁Duran
▁uçakların
▁2.1
▁sergilendi
leştirildi
▁yaratılmış
▁mana
▁kümeleri
▁114
▁Armstrong
▁Sosyoloji
▁Rosen
▁mücadeleleri
▁60'
▁Yaban
▁CM
▁Selahattin
▁Bulls
▁akımları
▁Tesisleri
Çocuk
▁Tatarları
▁Bayar
▁Buck
▁hastanesi
▁Hero
▁Py
▁tanımladığı
▁Bry
yecektir
▁seçildiği
▁1994),
▁Ceylan
▁fıkra
▁ag
▁mezarlar
itsa
▁kampında
▁uygulanmıştır
▁bunalım
▁show
▁vites
▁Balesi
oit
▁Ž
rok
http
▁gelenekler
▁Hip
Doğan
anj
alite
▁intikamını
bou
▁yetişti
▁benimseme
▁oğluydu
ats
▁elementlerin
▁topraklara
thon
▁bitirme
▁Ralph
▁abluka
▁Tuzla
▁rütbeli
▁çevredeki
leştirilir
▁adapte
▁Format
▁Manuil
▁azalmıştır
▁bırakmış
▁Sinagogu
▁hedefleyen
▁duru
-28
▁Kendini
▁Euler
lup
ovna
▁danışmanlığı
▁Temiz
▁Tae
Süper
▁dereceli
ıldığında
▁adasının
isco
▁Village
▁hükme
▁hizmetinde
▁Nietzsche
▁Sheffield
▁tavrı
▁üslubu
▁tüzel
▁Tepkiler
lığında
▁mücadelesini
sanat
="122
Boy
▁Ski
▁Rein
▁niteliğindedir
▁zorunluluğu
▁bahsetme
▁Mesud
▁ibarettir
▁daveti
▁teorisine
ев
▁Elf
sün
▁Lag
▁Ceneviz
▁ortama
▁Eti
▁girmesine
▁idaresine
▁akut
▁halkası
▁Müfettiş
▁açıklarında
İT
▁doğruluğu
▁referandumu
biyo
=1241
▁muharebede
▁Homo
▁engelledi
▁modelin
PP
ggy
▁MC
morf
▁Barbaros
berger
▁bebeği
sworth
▁ilerlet
kısaca
▁çiftçiler
scope
▁Tıbbi
bedi
▁Cadde
▁görülmüş
▁köylerde
▁tertip
▁çalışmalarla
▁düşünüyor
▁bulup
▁Keş
arius
▁Kurum
▁işleyişi
llah
▁güçsüz
▁ötesine
▁ekonomisinin
▁ölç
▁Tell
▁olmalı
▁figürler
▁Nano
laşarak
▁tev
ilince
▁Roo
Music
="1241
ś
▁Kızılcahamam
▁Veteriner
▁Ambrose
▁Havayolları
▁annesidir
▁mezarlığı
▁Adanaspor
▁kabin
▁üreticisidir
▁gezegenlerin
▁içecekler
▁Dru
▁Sweet
▁Dul
▁açması
▁şeyh
▁alfa
▁Pik
▁gerçekleşmiş
▁50'
▁1853
▁Kampüsü
▁ray
▁eyaletlerinde
▁NA
▁mahkemeler
Del
▁1815
▁yazılımları
▁uygulayan
▁Şarap
▁Yaptığı
▁faktörleri
▁Elma
▁bursu
Oyun
▁Altıncı
▁Mitoloji
▁Sporting
▁alandır
▁Balina
Maria
▁çaldığı
▁kullanılıyor
▁işlerinde
hî
▁beslenirler
▁Anlam
▁diktatör
▁defne
▁etkinlikte
▁dökme
▁01
▁Hristiyanlığın
▁mum
North
ک
▁şehzade
▁Menemen
▁polinom
▁geçeme
Genel
▁semtin
▁(2009)
▁Drake
▁yas
▁Hopa
▁saldırının
▁yakma
▁örgütler
zey
▁kırma
▁Babür
▁hazırlıkları
▁Jules
cere
▁05
▁soruşturması
▁kölelik
▁HMS
▁Komisyon
▁gemilerinin
lecek
▁Eugene
▁kentidir
metal
▁gönderi
▁aşma
▁tamamının
▁rütbesiyle
▁antijen
▁gemiye
ה
▁eşzamanlı
▁süspansiyon
▁yaşarken
▁fosfor
▁Ruanda
Sun
▁Niksar
▁erime
▁Voice
▁faşist
▁heykelleri
▁Robot
▁Hob
pé
▁yükseltme
▁inancına
▁Gecesi
▁Fabrika
▁iman
▁talan
Hava
▁European
▁mekanı
▁sıralı
▁Terme
▁Chuck
▁Yasu
▁uyarlanmış
("
▁Dizide
▁kombine
▁Malzeme
▁bilinmemekle
▁Sana
▁duygular
▁Tanrısı
▁Monaco
leştirilebilir
▁Osmangazi
▁cinsine
▁İspir
▁babanın
Ata
rig
yurdu
▁zırhı
▁diziye
▁ilerlemeye
▁Fatsa
Ef
bazı
▁Hom
▁saatleri
▁Ward
▁anıları
▁taret
▁yarışmıştır
▁Bac
▁kesik
▁Lima
▁Başı
▁ekvator
diz
şimdiki
▁Harvey
▁Río
▁Hızır
▁botanik
▁karşılaşmasına
▁Paktı
▁doğudan
▁Allan
▁yürüyüşü
▁boyutlarda
ration
▁Saman
▁düşmektedir
Ren
Bit
lang
Harry
▁Ptolemaios
▁hesaba
▁emanet
OM
▁(2013)
▁operatör
DH
under
▁doğruluk
▁Blake
▁dille
▁otomobiller
▁rollerde
kavak
ludur
▁kasabada
▁LP
▁1700
İbrahim
▁Drive
▁yaşa
▁lehçeleri
▁Kub
1943
▁ilerlemiş
ר
▁Trablusgarp
▁karbondioksit
▁burayı
▁Kee
▁adaylığını
▁Mihr
▁kurmuşlardır
▁çabalar
▁Cohen
▁savaşlarda
▁ulaşarak
▁Caroline
▁imzaladığı
▁olanların
▁görüp
oji
▁1845
▁132
▁Fermi
▁öldürül
▁Salihli
▁Sci
▁2.3
IF
▁ciltlik
▁Beg
yū
tilla
▁hatlar
▁listesini
▁müttefiki
▁bulunmasına
▁Bluetooth
▁Humboldt
▁Mikhail
▁Adaylar
▁yapmaları
▁Guar
▁konsül
tığını
▁Pitt
▁mezarları
Kul
▁gerektirme
▁yaylı
▁(31
▁Ec
▁ağacın
▁LG
▁Burton
yağ
▁Ester
National
▁Pos
▁Süleymaniye
▁keşfedil
▁çeliş
cott
▁Tora
▁س
▁Bonapart
▁Öklid
▁sahnelendi
▁envanter
▁Lidya
▁şeylerin
▁Stars
Ele
▁kaybolur
▁Gut
▁15.000
olitik
▁yerleşmişlerdir
HP
kırı
yebilir
▁ruhun
▁katmanları
▁doğrultuda
▁edinen
▁Aracın
ometri
▁TS
▁ziyaretçiler
▁adlarında
▁Arc
▁çit
ال
▁nakli
▁gazi
▁Antonius
▁belirlemiştir
▁Lost
leneceği
▁Pis
▁bulunup
▁sergilenen
ilecek
▁rö
▁Mayın
▁Kip
▁toplumunun
▁çözülmesi
▁Silvan
▁Sava
▁kazanmıştı
▁modelinde
▁dereceleri
▁163
FS
▁Duke
Atatürk
▁Operası
▁Müsteşar
="179
▁McMahon
▁yatkın
▁doğrulandı
▁Aaron
▁topraklarından
▁döşeme
▁kattı
▁inen
▁Queens
▁tutulduğu
▁Koloni
Windows
▁Kompleksi
▁Sül
▁bedel
▁550
▁pusula
▁Mail
▁okullarında
▁Satış
▁Necip
▁hücrenin
▁Ilgaz
▁ithalat
▁Berberi
calı
▁Lazar
▁Spring
eux
▁belirsizdir
▁edenler
Ten
yeva
▁toplanmıştır
▁habersiz
NK
▁Este
Poli
▁Kangal
▁yapıt
▁Fos
▁gidebil
▁156
:00'
▁kazanamadı
▁Chen
▁oyuncuya
▁verimi
▁hedefe
▁oval
▁Kamarası
▁kavuşmuştur
▁Wis
▁Muk
▁menzilli
chin
▁uzaklıktaki
▁saçları
▁turneye
smith
▁Fü
▁ettiklerini
▁kaderi
▁stat
iform
▁paralar
▁aranan
▁meridyeni
▁barındırma
kaz
▁113
▁hatalar
▁mahalli
▁Beslenme
▁fethetti
▁Birimi
▁çalışacak
▁İnsani
▁Tower
▁Wang
▁sözcükleri
hang
▁Amacı
▁paranın
▁Nazilerin
Kırmızı
▁4.0
▁sayma
▁odada
izme
▁detayları
▁Kampı
▁sesle
▁koşma
▁diplomasi
▁Stalingrad
▁1983),
isch
▁facto
blin
▁kızdır
▁temaları
▁klibinde
▁hesaplanır
▁Karısı
▁sahilinde
▁kese
▁Koşu
▁Yarım
▁böl
▁Söğüt
▁pano
=1228
▁Yönetmeni
▁yaşanmış
rılan
▁meydanı
▁Sydney
▁mikroorganizma
▁senkronize
▁düello
▁Pod
yoz
İtalya
="1228
▁inek
▁duyulma
▁that
▁tanımlamaktadır
nir
▁örtülü
▁alp
▁\
▁şarabı
mie
▁Did
leştirerek
boro
▁Avar
▁sıcaklıkta
▁karşılaştırıl
▁metaller
▁sürgünde
▁Map
▁geleceğin
▁Ryu
▁Yuhanna
▁gökdelen
▁Gregor
▁haraç
Fri
▁şifa
▁karşıtlığı
▁yerleştiği
▁Öncesi
ς
▁Hamam
▁sonlu
▁sıfatıyla
yacaktır
▁1846
▁uzaklaşma
▁Amor
▁ertelen
▁etkilidir
Saf
▁kadir
▁oturduğu
▁söylem
▁Kapadokya
▁Manavgat
▁konservatuvar
▁epey
ware
▁anatomi
▁1837
irdi
▁%70
▁ey
▁Ender
▁Haşim
▁kamerası
▁Zırhlı
▁Manson
▁polisiye
1935
▁diploma
▁yıldırım
▁Wie
gami
wal
▁çıkacağı
▁hâkimiyeti
▁istediler
▁tarihteki
▁oluşturmuş
▁albümdür
phor
▁ideolojisi
▁tasarruf
▁Ref
▁atışları
▁%60
▁yut
▁Turhan
▁Muhafızları
Württemberg
▁ırmağı
▁Şarkışla
▁edilmelidir
▁vadede
▁devrimin
▁kanıtladı
▁gole
asso
▁senaristliğini
=191
İN
▁sıfatı
▁tork
iyorlardı
▁boyuna
▁Sik
▁yerinin
=243
▁Ellis
▁kriterleri
leştirilmesiyle
▁klasmanı
▁sembolleri
▁İkincisi
▁Esperanto
▁kotunda
▁Yukarıda
▁Buhar
▁Şehit
2016
▁CA
Adam
vali
▁121
▁orkestrası
ikinci
▁129
Sor
▁Tasarımı
oblast
▁ekipmanları
▁şartıyla
▁temizleme
▁Psiko
▁kazandıran
▁İzci
▁malların
hee
▁durumdur
▁özgürlüğünü
▁yakalandığı
▁Instagram
▁119
▁birliğine
▁Bari
▁Biyoloji
▁lokal
▁etmesinin
▁doğuşu
▁Sineması
DL
pub
▁geçiril
▁koşulu
▁süresinin
▁Isa
lanacağı
▁yakınlık
▁istem
▁yenilme
▁Esra
▁sancağı
▁başardılar
▁albümüyle
▁etkileşimleri
▁Sarıkamış
▁sayılabilecek
▁Gövde
▁MHz
▁arındır
muh
▁Case
▁ulaşılabilir
▁yükselmeyi
▁devretti
▁değişebilir
▁seferine
▁milyonu
Kale
▁Tul
▁damadı
▁Å
Hem
▁adlar
▁kullanıcıya
▁olasılığını
▁Emmanuel
▁hızda
▁üre
▁Riley
▁Diya
▁duruşu
jou
▁kapanış
▁çekmesi
▁Dino
▁kaleleri
Aspergillus
▁Davranış
▁bölünür
▁Saruhan
▁Hannibal
▁çöktü
▁kapsamda
▁periyot
▁yapılacağı
▁istenmeyen
▁Gazeteci
▁Jamie
▁Yukarıdaki
ubi
▁Nin
laşıp
▁kararnamesi
▁yörüngesi
akis
Mari
▁katılanlar
▁halifesi
▁Fisher
="2825
▁benzerliği
▁sınırsız
Litvanya
▁asılı
▁Filipin
▁reformları
otto
Bon
▁alınmasını
▁Çiftlik
anth
▁makamları
▁ateşleme
▁lokomotif
▁muhtar
▁yarasa
▁malikane
▁Pearl
▁atmak
▁deneyimleri
▁Daily
şet
▁200.000
pek
▁kiriş
dini
▁33.
▁toplamıştır
▁işlevini
▁Mekteb
▁tıka
▁mistik
vic
▁Kalite
="243
▁Amp
▁Roth
▁kumandan
▁Salzburg
▁düzene
▁koştu
altın
▁birleşir
▁Göçmen
▁verim
▁1844
▁hazırlamıştır
▁Riga
▁tırmanış
Max
▁CE
▁Çeşmesi
▁doğma
dzi
▁mayıs
▁Manisaspor
▁Reichs
ayak
▁toksik
ém
Kanada
▁Sevgili
▁Leonid
ː
▁piramit
▁vatandaşlarının
▁Akçaabat
▁Lombardiya
▁eleştiren
▁izo
▁büyümüştür
=165
▁eğilimli
▁Nielsen
laştırıldı
larımız
▁eklenti
▁Celil
▁cu
▁çalıştıran
▁Açı
▁Zile
hed
▁nitelikli
▁Tarkan
▁burası
350
▁grubuyla
▁delikler
▁parçalara
lmiştir
5,000
▁Ferguson
▁pigment
▁Dilek
▁İlahiyat
▁1907'
▁bileşenler
▁nehirleri
_9
▁Bornova
Dia
-1998
▁Kullanılan
kura
▁geldikten
▁tamamladığı
▁Shaw
▁kullanıcısı
▁sakal
Savaş
▁giyer
Sur
=2825
▁rakamı
▁Şeria
ř
▁Taburu
▁opsiyon
▁Tolkien
▁yayımcı
▁hikâyenin
▁Limited
▁doğalgaz
▁Bireysel
bie
▁Oltu
▁benzerdir
▁Faz
▁Suat
▁Hiper
gl
bius
▁gelmez
Bek
▁çalışanların
▁Tanrıça
Med
▁EA
▁Organ
▁Airways
▁firavun
▁Müfettişliği
▁mart
▁indeks
▁çekilerek
geri
oğu
▁hızında
▁prodüktörlüğünü
▁Analiz
▁Dou
▁yakalar
▁gelmesine
▁kişiyle
▁144
▁kısaltma
▁ekranlara
Trans
▁muhtemeldir
urlar
▁Rin
▁oğul
▁Televizyonu
▁telefonları
▁semptomlar
▁Europe
stedt
▁surlar
▁parçalı
▁Refah
▁Nasreddin
▁inanılmaz
▁direnme
▁izlenim
▁çevresini
▁col
▁süslü
▁kahramanları
▁çağında
mpo
▁Moğolca
▁sineması
▁hakimiyetini
▁içsel
miye
▁Forum
▁Lok
▁engebeli
▁Palermo
▁genişletildi
▁eğitiminin
▁Paolo
ated
▁eğitimin
▁name
▁Sakız
▁aşınma
▁yerleşkesi
▁Kızılay
Bru
▁görünmez
▁suyunun
haf
▁tro
▁başrolünü
▁çözümler
▁Meyer
▁bitkinin
▁gergin
▁hızlıca
▁emre
▁söylemiş
▁Sullivan
▁Nuh
▁1980),
▁BC
▁Hamas
▁sıcaklığın
▁benzetil
kimya
idis
▁Moss
▁Pietro
gawa
▁Karabükspor
DM
▁ayrılığı
▁kılar
sizliği
▁Seks
▁yapılanması
▁İlde
▁sertifikası
▁değerlendirdi
terapi
eke
▁geleceğini
▁çiçekleri
▁Harper
▁hayatları
lug
NI
mışlardı
▁qua
▁kolektif
▁Honduras
▁boyama
▁Schwe
▁Movie
▁Fritz
▁Yenimahalle
▁%25
▁Aykut
▁canlandırılan
▁kalesine
▁Lazio
ppel
▁kapsama
▁Kl
VI
▁TO
▁vereceği
▁Krizi
Kuş
▁altını
▁iradesi
çen
isha
▁sağlamaktır
▁220
▁Yokohama
▁Ufuk
▁Wer
▁çarpı
text
▁hayırsever
▁florası
mamıştır
▁Hatice
▁Etnik
▁yükselerek
▁değiştirmiş
▁başarısızlığı
▁Patri
saniye
▁davalar
▁ölümünü
▁önlemleri
▁kanunun
▁yerleştir
▁Haf
Gümüş
▁tasarlama
▁Ziyaret
▁40'
▁uygulamada
▁167
▁partidir
▁İktidar
▁Bennett
ər
▁kereste
onomi
▁dizilerde
obo
▁Dana
▁GSM
▁doktorlar
▁başlatmıştır
ulf
▁1905'
▁dönüştürülmesi
▁belirsizlik
▁Selen
mund
▁metrekare
▁savunmaktadır
▁kullanılırlar
▁Orkestra
▁klibin
chem
▁girdiğinde
ή
▁Mukaddes
▁terminoloji
▁Emilia
▁bariyer
▁Yah
▁olabilmek
▁sta
▁rollerinde
▁Gürcüler
nice
▁birinciliği
▁Parma
▁kokusu
sili
▁onursal
▁filmlerinden
▁popülerlik
▁yakındaki
▁oyundan
▁Celâl
▁bittiği
tsi
▁Torres
▁yayınladılar
▁dokular
▁Doları
▁temalar
ûd
gili
="182
zsa
▁villa
▁başarmış
▁Kadri
▁Benfica
▁agresif
▁vicdan
lerimiz
▁İşaret
▁gruptur
▁araştırılması
Ahmed
▁gazeteler
▁etkisine
▁Günümüzdeki
▁Hoo
▁Ferhat
▁tropik
▁hükümdarlık
▁yükseltildi
▁göçmenlerin
▁kaybedil
▁sürdürmek
Dav
aziz
▁sızdır
Düş
▁mimarisinin
▁IF
▁yatırımcı
▁ayrışma
-1997
▁sonunu
2014
▁ihlali
▁kütleleri
-100
▁enerjiyi
▁dildir
▁demiryolları
▁Low
▁Granada
üsü
▁Melih
▁oluştuğunu
▁yolladı
▁Well
▁ferman
▁anlaşılma
sî
▁gönderilmiş
▁yayma
▁1,3
▁Melo
▁eliyle
▁turnuvasında
▁wa
▁bulundular
Michel
▁ب
▁Luna
ölüm
▁yaşamlarını
▁sıradaki
▁Moro
▁Via
▁1850
▁Neptün
▁işaretler
▁Idaho
▁Nakamura
▁barın
▁varlıkları
▁soktu
▁Futbolcusu
▁Our
▁danışma
▁İdareler
TH
▁mühendisleri
▁Milet
▁Çocukluk
▁tim
YP
▁2021)
▁Thu
High
▁şunu
▁repertuvar
▁Ergenekon
▁López
▁Rüstem
▁mani
▁aktarılan
▁RT
▁Bilkent
▁Sou
omon
▁sapı
▁polisler
Pol
▁Chester
▁1,8
▁finaller
▁bilmek
▁eleştirmenleri
▁Sahnesi
▁Human
leyeceği
▁Cop
vani
▁Polatlı
▁istifası
oke
▁tamamlayıcı
▁kültürlerin
▁yazılıp
▁pound
▁faaliyetlerinin
▁etmektir
▁ilişkilerinin
▁belirtmiş
▁Baltimore
▁Glasgow
▁González
NBA
▁hendek
▁Petra
▁Nâzım
▁âlim
▁korumuştur
▁gençliği
▁sergileyen
▁Transfer
▁enstitüsü
▁oluşuyor
▁yöntemidir
▁Frances
▁polisin
▁__
▁yenilmesi
▁kurallarını
laştırmak
▁romanıdır
▁diya
uştur
▁şekiller
düş
▁Kazılar
▁1.9
▁vadisinde
▁inşasına
▁suçlamaları
▁Kupaları
▁Reklam
▁Township
▁Karahanlı
▁Theodore
▁Gauss
=160
▁Everton
▁imzalanması
▁duruş
▁size
▁yazılabilir
▁Arapların
▁etkilenir
▁Tavşanlı
▁sarayda
▁anılarını
▁Şems
▁baharında
▁girecek
▁Germen
▁kirli
▁yaşları
▁kayboldu
▁değiştir
▁etkinliğini
landığında
▁doğup
▁Karesi
▁pençe
▁Bucaspor
▁Edmund
▁Mihver
▁entropi
see
▁kuzeyi
▁dönerken
lanacaktır
▁Düzenleme
▁Alexandr
İS
▁tarayıcısı
▁gidiyor
▁baskıları
▁139
cycl
▁Firma
▁Umum
▁söyleşi
Bill
▁yansıtıl
▁Das
▁vermesini
ando
▁hizmetini
Hollanda
▁Athena
▁yönüyle
▁planladı
▁Golf
▁geçildi
▁öğrencilerinin
lendiğini
▁Christmas
▁Öğrenciler
▁seçimlerinden
▁Karakterler
-80
▁değilse
▁Marin
▁Çık
gues
▁törenler
▁geçirilmiştir
ızı
AI
▁kesesi
▁fili
▁saldırması
▁Stüdyoları
▁ayrılıkçı
▁yaşını
▁şiirlerini
▁Tau
▁dağıtma
▁geni
▁saklama
▁Lehçe
▁Kıy
▁kurbanı
ject
▁Lynn
▁ekmeği
▁Kyoto
▁(2015)
bö
▁İnka
▁kazanmayı
Çek
▁Karen
▁Todd
▁kurallara
▁Bengal
▁taburu
-2015
▁Şef
▁yakalamak
▁Kuvvetlerinin
▁füzyon
▁hızları
▁metot
▁Watt
▁Joel
▁fazlasıyla
▁cildi
visi
▁kalça
▁aşamasına
▁diploması
▁AL
mece
▁mevzuat
cam
▁çatlak
▁çözümleme
RF
▁değişikliklerin
prop
▁Nasıl
▁Stern
▁kitabından
▁ölçümleri
ilmektedir
▁spe
▁nükleo
▁dilbilimci
lacivertli
pazar
cula
▁kayıtlarını
▁Kıs
▁kanunlar
▁babaları
▁tartışmalıdır
▁otomobili
Richard
▁bahsedil
▁vurur
▁Crow
▁sikke
▁edildiler
▁harcamaları
▁Animasyon
▁çizimleri
▁notları
vekil
▁Hiç
▁numaraları
▁ulaşabilir
▁Pac
▁mülteciler
hacı
▁Kepler
landırdı
▁başrolünde
beği
mem
▁borcu
esta
▁kiliseye
▁Kurgu
▁malı
▁parçadan
▁birbirlerinin
world
▁Emevî
▁kapanması
▁Maggie
▁yıkama
▁kıtası
▁Bür
▁Soyuz
▁sitesinden
presyon
▁Takip
▁bilgisayarı
▁sc
▁konferansı
ogram
onun
üldü
▁faal
▁Türleri
▁mezhepler
▁çalıştırdı
▁Çiftin
="142
▁Meh
dinamik
Santa
brook
▁Tutuk
▁çizdiği
▁şema
▁bilgisini
▁embriyo
▁Wolfgang
▁Levant
▁ödünç
▁sunucuları
▁Elde
▁bölümlük
1000
▁Cort
lendirilir
▁Kula
rano
▁1961)
▁çatışmaların
▁Tamam
mesidir
▁kasabasına
South
▁birliğinin
▁kimseler
▁Herakleios
▁akabinde
▁zanaat
▁HBO
▁betimleme
▁Braun
▁güve
▁vakası
▁tamamlamak
▁haham
▁koruyucusu
▁vilayetinin
ital
ağan
▁Çatalca
▁Urban
▁Schw
▁Kuzu
▁sahnelenen
▁Again
▁tarzına
▁Ellen
rılarak
▁turistler
▁nehirler
▁tanklar
▁çalınan
▁kalırlar
▁rehin
Alt
▁aroma
▁çırak
▁etapta
▁Pusu
▁Kelkit
▁Dursun
Anna
tanrı
▁Kaşgar
▁tanışma
▁finaline
Os
▁çatışmalarda
▁Yılında
▁alacağını
Kadın
=182
▁tonu
▁katkılarda
▁Yönetici
▁yöntemdir
▁Menteşe
▁erdiği
LO
▁ritüel
▁anormal
guchi
▁6-3
▁Gebze
▁Çerkez
▁Edremit
▁Frig
▁Second
▁atıl
▁Refahiye
yin
▁Bölümün
▁ettirmiştir
▁1812
olin
▁arena
▁kelimelerin
tiğin
130
▁Yavru
▁hızına
Tah
▁kesildi
▁yöneticilik
▁çevir
▁tartışması
NF
▁topluluğunun
▁Row
NP
▁kapatıl
Every
politik
▁Malay
▁Voldemort
▁kıskan
▁yoğunlaştı
▁beklenmektedir
▁öğrenince
zır
Arm
Martin
▁2014-2015
▁İncili
▁deyim
▁kaplıca
▁Benz
▁Şahinbey
▁Subay
Bin
▁yapacağını
▁sıralar
▁Bron
▁Saadet
▁Humus
▁SR
▁kutlamaları
▁Anlat
▁Turne
▁vatandaşların
▁doğumu
Bizans
▁organların
▁harflerin
▁Klinik
▁olanakları
▁Görevi
▁Köylü
▁sürücüsü
▁(2003)
sian
kup
▁katılabil
▁bayan
uria
Yaz
▁mev
▁ilanından
▁yaratılması
▁eşleşti
▁Dizisi
haz
▁partizan
ardı
▁yazılımın
▁tahminler
▁Stratejik
▁Zin
tici
▁belirt
β
▁Aram
▁kullanılmaz
▁Ming
▁Philipp
▁çel
▁bacak
▁Korkmaz
▁İskilip
▁2002-03
▁haftanın
▁ümit
▁Sla
▁çağlarda
▁Binanın
mouth
▁Sarıkaya
cept
▁yapabilme
▁Kablo
▁rutin
▁işlemlerin
▁varış
▁yayı
▁Senatör
Dom
▁köylülerin
▁Canik
▁dengesiz
▁vesile
=2404
▁4,5
▁tankın
="2404
▁Tit
▁1975)
▁Dresden
YD
▁tepenin
▁çekiç
▁şahsi
▁enerjili
▁kağıdı
▁sonlarından
▁rahipler
Gro
▁dilekçe
▁Gölbaşı
▁kıtasının
▁beyi
Ros
▁telsiz
▁sportif
space
▁Emily
▁vatandaşlarına
▁Akar
▁MW
▁arazinin
▁birinden
▁maddede
▁bölük
▁Empire
etilen
1990
▁çıkmadan
▁ücretli
▁üçgenin
▁Hakem
▁Yolcu
▁yetiştirmek
▁Deportivo
Ray
▁ipuçları
▁teğmen
▁suçlama
▁sahili
▁Yedinci
▁batılı
▁Pera
▁çıkıyor
▁Yalan
▁komp
▁türlerinde
olit
▁ayrılabilir
▁Yıldızeli
▁laboratuvarı
250
▁türlerini
▁hissetti
RK
▁Ō
oğraf
▁Ax
▁Wonder
▁düşkün
▁yönetmenleri
ssos
▁metil
HT
▁isteğini
▁Cüneyt
▁Toulouse
▁2-3
▁158
▁Solanum
▁otoritesi
▁Rut
İH
igan
▁yasakladı
▁tekerlek
▁girerler
▁1832
sn
▁istikrar
maca
şâ
▁atomik
▁hattını
▁hattın
telekomünikasyon
▁hoparlör
▁gruplarda
▁Pho
eğmen
ârî
▁Ralli
▁1860'
▁Blues
▁pencereler
▁atmosferin
MT
▁baca
▁Köşk
▁bağlayıcı
▁Falls
▁belirlediği
▁kütleli
▁Sharp
▁Vor
▁atomun
bayır
▁Champions
▁Mozambik
▁Saturn
▁ayrık
▁dönümü
▁ünü
▁Köken
▁aralıksız
▁anlaşılmıştır
▁akıcı
▁Yayıncılık
▁Ercan
▁Duvarı
▁mesele
îlik
▁bağımlılık
▁geçtiğini
▁şekeri
▁Karayip
▁atanır
▁teknolojiler
▁bilgisayarın
▁işgalci
▁Rolling
1972
▁noktasıdır
▁Mitsu
▁Kulu
▁krem
▁çanta
▁konuşmasında
▁Diploma
▁Öcalan
ę
▁Córdoba
▁Şiddet
▁Irk
▁cezaevinde
▁Janet
▁okumuştur
▁AR
▁zirvesinde
▁Sunucu
▁sound
▁Lucia
▁Alg
Papa
roll
▁Denizcilik
▁Başrol
▁mür
▁sürüş
▁yardıma
bov
▁tasarımını
▁Joy
▁Geçiş
▁etmekten
Beşiktaş
oso
▁ekonomisine
leştirmeye
א
▁Guardian
▁Bing
▁yöntemini
▁ozan
▁gördükten
▁reklamı
▁etkilenerek
▁gösteriyordu
MG
saat
Dil
▁Marion
laşım
▁uzayın
▁temsilcisini
▁zenginliği
▁toplumların
▁içlerine
▁Horn
▁Kron
▁çoktan
▁patoloji
▁Ronaldo
="3015
▁dolaşan
▁performansla
▁manto
▁Fuku
="3018
▁yönelme
▁anlatma
▁Legend
▁Başkurdistan
▁Cartoon
▁bildiren
▁icadı
▁Tuğrul
▁granit
▁Şura
▁cismi
▁Christina
▁arabaları
▁bileşenlerin
▁kazanmasına
▁Merv
▁geçmekte
▁tre
▁Miş
▁konuya
▁birleştirdi
▁yapılmıştı
▁École
▁maliyetli
▁sözcüklerin
▁Plus
▁Romeo
▁gelişiminde
ticus
▁misyon
▁Taç
▁tutun
Korece
▁isteğe
▁zayiat
▁Alaşehir
▁Octavia
▁renktedir
▁alacaktır
▁salata
liklerini
▁ressamı
▁evlenmek
▁enerjiye
Bla
▁düzenlemeye
▁ifadelerini
1998
▁ölçme
bé
▁Kabar
▁Hou
abilmiş
rmış
▁sistemdir
▁Filarmoni
▁alışılmadık
▁dökülen
▁Kenneth
▁Ishi
▁gözlemlenmiştir
▁uçar
masıdır
gut
▁(48
▁Canada
rí
lâk
mental
▁ulu
▁sopa
ilmeye
▁1800'
▁Batt
▁Put
▁sonlandırdı
▁kavra
assi
▁yatar
▁Önder
▁1821
=3015
Koca
▁alışverişi
▁Çav
▁bilindiği
▁Aksi
▁Lala
▁Essen
▁sürümünü
yeviç
▁macerası
▁ilerledikçe
▁Toroslar
ndri
▁flaş
▁Guer
▁kurup
▁yiyen
▁buralarda
▁köleler
▁evreni
▁yükseltilmiş
▁Jedi
▁Nedim
▁1814
▁Konağı
▁dönebil
▁Kubbe
▁ekol
omik
▁Yanı
▁edil
▁gazın
▁mücadelede
▁kazananlar
▁tabakaları
▁DH
▁varis
▁Chaplin
▁trajedi
▁eyâlet
kimyasal
▁Protokolü
▁krom
▁donanmasının
▁köylerin
Day
▁taşınmış
▁TED
▁gerilimi
▁kaldırılmış
▁yaklaşma
▁Ace
Bri
▁bağladı
=1244
▁Vaka
laştırıcı
▁pres
▁Hititler
aşağı
▁sanı
▁öğe
▁birleştirerek
▁Rodríguez
▁Schumacher
▁Spencer
▁tahribat
▁Manyetik
▁ihtilaf
▁grafiği
▁ortasından
▁Yasama
▁şarkıcının
▁karşılaştılar
▁geliştiği
▁jeoloji
▁güneyden
▁1906'
▁Hazırlık
▁ezgi
çisi
tonik
▁09
CM
▁Mekan
▁Feder
="1244
▁Hadis
▁İber
▁ekonominin
▁başlamasına
▁başkanlığındaki
▁Lep
▁endüstrisinin
="2009
Rolling
▁Kanser
Mir
▁köşeli
▁olgular
▁Koji
="164
▁korumaktadır
▁tefsir
▁holding
▁NT
▁tanımlaması
▁hastası
▁Wesley
▁Palace
▁sürmesi
Sim
▁Medrese
▁Talk
▁belgeseli
▁fauna
▁kurultay
▁müte
▁Grove
▁Liu
▁Vlad
▁Togo
▁beklentileri
▁okurken
▁Kitapları
▁programa
Marc
▁Dinar
▁bra
▁if
Â
▁ölçülen
hiko
lû
▁saptanmıştır
▁önlenmesi
Ul
▁dokunma
=3018
▁Öldür
▁2017),
▁akıntı
▁ayrıntı
▁Nail
▁davulcu
▁Gitar
▁bulunmaması
▁derinden
SmackDown
▁saraya
▁edinir
askıya
▁ES
▁teriminin
▁topa
▁konumları
▁Liz
▁Kağıt
▁Üniversitenin
▁Elektron
▁görülebilmekte
▁Marina
▁devresi
▁oluşumunda
▁antikor
▁sıklığı
▁Have
▁hâlde
▁Elmas
▁Т
▁Kras
▁yaklaştı
genel
▁Büyükelçi
▁zirvede
_10
▁Right
▁Eko
▁Cehennem
▁kesimde
▁Bela
▁şiş
kök
خ
▁Notlar
▁Devletin
▁131
▁rakımı
▁formüle
EF
▁Türklerinin
▁Kısaca
▁kalanında
▁Theodosius
▁Wanderers
▁Rıfat
▁Ödemiş
▁Abbâsî
▁arttırır
▁Lahey
▁Yeraltı
▁akarsular
▁istikrarsız
▁evini
▁ağzında
||3
▁subaylar
▁şarkıcıdır
▁dergiler
leştirilme
ал
eceğine
▁görülmemiş
▁artmasına
emeyeceği
Özel
▁sahiplerinin
▁Anglo
siyah
▁diskalifiye
▁Basketball
▁China
▁Erbaa
▁Çoruh
▁tamamına
▁bastırılması
Alex
▁yönetimin
▁bombalı
▁kupanın
="2278
▁serisini
Japonca
▁çorba
▁yayılmasını
▁yüksekokul
▁geliştirir
▁Arca
▁yarıçap
final
▁Güner
▁kayması
▁Ehl
▁durması
▁yerleşir
▁menzili
-1993
▁Arab
▁Mün
▁Erich
▁Planet
▁pasta
▁Sevda
▁kupada
▁söylentiler
▁isteksiz
▁fiziğin
▁bankalar
▁Glass
▁nikâh
▁parkın
▁hidroelektrik
▁özerklik
act
▁medyası
▁piyasada
duğunu
▁bahsedilmiştir
▁toplandığı
saf
▁Bear
▁Nazilli
▁donatıl
▁ayrımcılık
▁Mills
▁düzlük
▁pekiştir
▁Tesla
lendirdiği
▁almasıyla
▁projeye
▁yelpazesi
▁uyduları
=97
▁yazılma
▁eleştirilere
▁dalış
pür
▁Üniversiteler
▁kola
▁kesti
▁yöntemle
▁komiser
=2278
▁tanıt
▁Çağrı
▁fonksiyonların
▁Grim
▁uygulamanın
▁keşfeder
ša
▁Platosu
ative
▁Kartli
Cem
▁zirvesine
▁İnşa
▁Forbes
omy
▁bölgelerdeki
▁hizmetlerini
▁Raf
▁Gama
▁Harezm
ص
▁Muharrem
▁ızgara
▁Nazırı
▁Olivier
110
lson
▁şapel
Albüm
▁Mount
ağıl
▁Çamlı
▁Р
loğu
▁Sevgi
▁işlemcisi
Live
▁geliştiricisi
▁kaybettiler
▁varlıkların
Gür
▁Wells
▁Çerkesler
▁aslı
▁Sala
▁şeklidir
▁Waters
▁yüzölçüme
▁filmle
pert
▁Taarruzu
Blue
▁Doçent
▁edilmemiş
▁öğretmenler
bugün
▁Kemalpaşa
▁uyarlandı
▁Kahve
▁Çağlayan
▁Klo
landırıcı
▁Şem
▁hazinesi
▁toplayıcı
▁prim
kou
gum
1960
▁çıkardılar
▁kükürt
▁çocuğa
▁Constantin
▁Troçki
▁andıran
jk
▁Vedat
enta
▁atmosferi
▁Meli
▁Ağacı
▁gazeteciler
birlik
▁üstesinde
▁Kari
▁şampiyonasında
laşmıştır
▁mezarın
Zaman
▁beyliği
▁semboller
▁Wien
▁Abel
▁ünitesi
▁yüzlü
▁Cizre
▁Hınıs
▁Behzat
▁vapur
▁Dikkat
▁Tohum
▁2005-2006
spect
▁Cep
lanmak
pia
▁köylerinde
▁amacını
▁Massa
▁Boluspor
▁binasına
▁anıtsal
▁bakıma
▁kapılar
▁versiyonudur
▁Marth
▁çiçekli
lanabilen
▁bela
▁çarpış
▁mesafeli
▁sağlayabilir
▁enerjisini
höyük
▁Lub
parmak
Net
▁Dumlupınar
▁Nusaybin
▁Mercury
bec
▁heves
▁Cerrahi
▁β
▁aygıtı
▁Işın
▁kemerleri
riş
▁binaya
▁birebir
▁dillerinden
hui
▁Stevens
▁yüzyıldaki
Cho
holm
▁askerlerini
▁modeline
pala
▁olduklarından
UEFA
mari
▁XP
▁araştırmalara
▁Abdülmecid
▁McLaren
watt
▁sunulmaktadır
▁Rostov
▁Kō
cük
▁modülü
▁sordu
▁ciddiye
chet
▁hesapları
▁From
▁amaçlarla
Gil
▁diğerlerinden
▁Santo
▁yetkililerin
Polonya
Çar
▁1787
▁şehirlere
▁Kato
▁América
▁beyzbol
▁halihazırda
▁Otobüs
▁sergilediği
Neill
▁düşüncesini
=190
yüzyıl
▁samimi
=151
▁karışıklık
▁tasarısı
▁masraf
▁kutlamak
▁yaşat
▁Corn
▁mevkisinde
▁Osmanlılara
▁görüşüne
▁umutsuz
▁yapımcılığı
▁Tera
▁Kare
=205
▁Crown
▁partikül
Gerçek
tılmış
▁sanayisi
▁134
rado
▁hidrolik
▁Düsseldorf
▁Technology
▁Sophie
▁Galaksi
▁gelebilecek
▁İlimler
ри
▁olgusu
▁işitme
▁yitirmiştir
▁Sinir
lanırken
mori
▁oylamada
▁Vega
▁kaynağının
Abd
▁makalede
▁Garip
TU
▁ayrıldığını
▁Valide
▁izlerini
▁Sign
▁USS
▁çalıştıkları
▁Platformu
▁Made
▁tasarı
▁English
▁Hospital
▁Artemis
▁Boyut
Book
▁sonuçla
▁yürüyen
▁Lat
▁Kho
▁Hali
▁kurulmasından
▁şehrinden
▁bütünüyle
▁anlaşmayı
▁Six
▁çökme
▁Belen
▁askı
▁sayfalık
▁Gotik
Kah
▁taşımıştır
▁Chrys
▁gay
▁balıkları
▁Drag
▁Adliye
▁şirketinde
âyet
▁güncellemesi
▁turnuvasıdır
▁paylaşır
▁bayıl
▁Bieber
▁açıklamasında
▁Biçim
▁Develi
▁tabanında
▁sevgisi
▁çark
sport
▁serp
▁ekibinde
▁kaçırdı
▁boylam
érie
▁kıyafetler
Gazi
▁sulak
novo
doğru
▁tapınağın
▁büro
▁Reşadiye
▁pantolon
fly
▁Bayat
▁136
▁üniversitelerde
▁Kira
▁soruları
▁Guyana
▁Avukatlık
sav
▁bebeğin
▁partileri
▁Kanlı
▁eklenmiş
▁gönderildiği
▁hapishanede
tüğü
▁Sting
ott
▁kısıtlamalar
▁Explorer
▁Bismarck
▁nişanı
▁Zamanın
Cap
▁Hiung
▁yükseldiği
▁doğrultu
▁palet
verse
▁Nesne
▁naip
▁Pavel
▁Temsilciliği
▁hesaplanması
▁Arkeolojik
▁peşinden
▁Pha
▁Edip
▁Göle
▁Ansiklopedisi
▁Rag
▁Lisansı
▁işlerde
Eğer
▁emirler
ù
▁Şavşat
▁Müller
▁edemez
▁Gibson
▁Fikir
▁olmadıkları
▁tablolar
▁arkası
▁almaz
leştiren
▁Swe
▁Erhan
▁Manço
▁Dro
Beni
▁Rovers
▁sütü
▁önderlik
▁Uydu
▁çalışmakta
▁yüzeyinin
▁kiralama
table
▁performanslar
▁Rogers
▁History
▁Stadium
▁(2017)
▁Müftü
amiral
▁Pendik
Kuru
▁Akşehir
vist
▁Meriç
▁silindirli
VE
-1992
▁Neville
▁şasi
▁değişkenlik
▁gelirken
YK
▁türlerine
▁odaya
▁mercan
İtalyanca
▁Make
▁yayınlanır
▁DNS
▁giyil
▁sektörler
="3013
âtı
ет
▁Arpa
▁Romalıların
▁Gio
▁ilçesindeki
▁Phillips
stos
▁şampiyonları
▁ruhani
Lig
▁koşullarına
Lee
International
▁avukatı
▁Taarruz
▁kırıklığı
Den
▁Fizyoloji
▁benimseyen
▁Malmö
▁Toskana
▁Yüreğir
▁yonga
▁kısalt
▁Kütle
otti
▁cap
▁gönderen
▁lisanslı
▁çocuklarına
▁Tali
▁sunuyor
Gri
▁Gunn
▁mensuptur
▁Gian
▁oksi
▁düzenlenecek
▁Matematiksel
▁Uyar
▁türevleri
▁hattına
▁güneyi
lington
▁Aman
++
▁patlat
hae
evrim
▁Katılımcılar
▁sistemli
▁kaldırıldığı
tner
▁statik
▁Ayvacık
▁Kardinal
▁folk
▁enjeksiyon
▁resmedil
▁prensipleri
Kendi
▁doldurma
▁dörtgen
▁tanısı
▁vurarak
▁Storm
▁çokça
ecekleri
=3013
oidler
▁Rauf
▁saklanır
▁ağzından
▁Okyanusya
▁Than
▁bebekler
▁Clarke
▁kullanırken
▁sporcusu
▁kaos
▁tasarladığı
▁mercek
▁emeği
mavi
Solanum
▁Fir
Ang
Π
▁motivasyon
▁Software
▁tırnak
▁çarşı
▁Sırrı
▁Born
Türkmen
▁Bene
▁edilebil
▁çini
▁çocuklarda
▁sekreterliği
hoff
▁ameliyatı
▁voleybolcu
lenmekte
▁Antoine
▁basında
▁Meng
Pho
August
Eylül
▁kısaltılmış
imov
▁kontenjan
▁CNN
▁3.2
▁Bismil
▁Balta
▁4.000
▁Reşat
▁sebebiyet
▁yüzdesi
▁About
▁Coupe
▁denizin
▁görevlendirdi
▁geliştirici
▁başlıyor
▁becerileri
▁otobiyografi
nning
▁fuar
"("
▁Gedik
▁basınçlı
madığını
▁133
▁Market
▁Leg
Kut
▁kama
CR
iyorsa
cioğlu
▁Soruşturma
▁TARDIS
▁fahişe
▁İnebolu
▁Muammer
▁Kov
▁korteks
▁yayınlamaya
▁Werner
▁değiştirilerek
İtalyan
▁yaşın
Bat
▁Rush
racağı
▁ödüllendiril
▁finansman
▁Chat
▁içeriğini
▁2500
▁yakıldı
▁katılmayı
tō
▁Lily
▁akarsuyu
▁Milton
▁yüzünü
▁garnizon
▁üyelerin
▁eleştirileri
▁inanmaktadır
any
▁Dörtlü
▁pel
▁gemiyi
▁kontr
mobil
▁göndermiş
▁dönül
▁pozisyonda
küme
▁ormanı
Koz
▁Jeremy
▁bodrum
Oh
▁Restorasyon
▁revize
▁Mevsim
▁Faith
▁yüzgeç
yom
▁Pazarcık
▁rehine
▁programlarına
▁ölçümler
ature
▁koyarak
▁sayfaları
▁Çiçekler
▁saldırılara
▁Çiğ
YA
▁KO
rill
anka
▁kırıldı
▁çizelgesi
▁ribaunt
▁feminizm
▁Hâkim
▁Review
▁erzak
▁Emine
▁Raven
▁düzenlemektedir
▁Reşid
rug
▁seçimlerini
▁Stüdyo
▁edilmemiştir
▁ekleyerek
▁Gerçekten
▁borusu
▁verimlilik
▁Malatyaspor
▁hâ
▁Sakaryaspor
▁hayvanlarda
rá
diğine
▁yazıcı
▁çalışmasının
▁cinsellik
▁yanlarında
▁öyküler
▁Juliet
üd
▁üretildiği
▁fok
?)
▁kabuklu
▁1-2
▁"...
▁Nezareti
▁Anahtar
▁Himmler
▁Zhu
▁yetkin
Mecidiye
lord
▁Jake
▁sınırlarının
▁bırakılmış
▁Kingston
manyetik
▁bağlanarak
▁Kandıra
▁ögeleri
▁yapmakla
Antik
▁yitirme
▁Futbolu
▁Bath
hud
▁Andro
▁Asım
▁konsolu
▁listelerine
▁alınca
▁Urartu
▁haziran
▁aks
▁Chains
▁Erciyesspor
▁YSK
▁ezeli
▁Ayaz
▁konuların
▁karadan
▁belirtiyor
▁Elazığspor
▁ihtimal
▁Bozkır
▁bozukluklar
▁düşmesine
▁Emiri
▁düzel
cto
▁projesini
▁kana
▁Politikası
▁yavaşlat
▁filminden
▁Sıralama
▁sunumu
Fatih
▁sonuçlara
raj
▁Toplantı
▁Liège
▁Nikaragua
▁ICAO
▁yaprağı
▁Pisa
▁devletlerinin
▁kervan
LU
▁Cinsiyet
yazma
ís
▁işçiliği
kardeş
▁Deve
▁tektonik
▁Campo
▁formlar
hâne
▁çıkarları
▁Cins
idin
sbury
="3"
▁Kids
ró
▁uyarıcı
lenmek
▁azaldığı
▁biliyordu
▁Soykırımı
Tab
=292
▁Kazı
Kız
▁manastırı
▁temmuz
▁harekat
▁brand
▁bıraktığını
▁dokunmatik
ström
▁Dilde
▁çetesi
Mem
▁Hassa
▁Haftası
▁heykelin
▁haklarına
orman
▁Örümcek
▁kullanıldığını
▁Palmiye
sted
▁paylaşan
▁Çanak
▁davranışlarını
▁Âli
GO
▁Rav
öğrenim
▁madalyayı
Öl
▁Ruth
▁dostları
Düz
▁eleştirmenlerin
▁anlaşıldığı
▁Namibya
▁Sabahattin
▁konçerto
▁Ölçü
▁Ardanuç
▁draft
▁Celtics
▁oluşturabil
▁mac
▁konsantrasyonu
▁Yapay
▁muhasebe
lino
Alp
▁kemerli
▁gerektirdiği
▁buranın
▁Rü
▁terminali
▁konuşmada
lanmadı
▁Aşkın
kinden
▁masası
▁korkma
▁Hastalıkları
Aralık
▁kamuoyunda
▁Beren
▁Kazananlar
▁kapsül
Pat
letti
▁akınları
chia
▁Ethem
▁kişiydi
Fel
▁odalar
▁İspanyollar
▁sinemasının
▁Hof
▁Füze
▁tümünü
▁Alam
=1362
▁görünmesi
=241
▁Yağlı
▁varyasyon
▁staj
▁asitler
▁tacı
="1362
▁politikalarını
▁Duff
▁Birincisi
▁katılacağı
=142
▁psikiyatri
dıkça
▁kırılması
▁Jura
▁okulunun
▁Africa
▁sonları
Yas
150
▁Tabii
▁suçlamalar
▁Heli
▁kompakt
▁650
▁ulaştırma
▁konumlanmıştır
▁Prensesi
▁yetmiş
ли
▁Smart
▁kenarlarında
="3016
▁Kesin
▁sağlayama
▁övü
▁Macarlar
▁Derginin
▁Serkan
▁Maçka
icum
BR
▁İskele
▁Court
▁Valle
▁sebepleri
▁reg
Hey
▁Aksa
▁peygamberi
▁çekirdekli
▁Watch
▁teknolojinin
▁dergisine
bakan
pres
▁yıkma
▁nitrat
▁Alparslan
ño
sung
reş
▁konulmuştur
▁Robbie
▁inancını
▁bitiminde
stream
▁Kendisini
ол
▁noktasını
▁190
▁yargılanma
▁Pekkan
▁varlıklarını
▁prenses
tico
▁etrafına
▁liglerinde
▁gerekliliği
▁çocukken
raş
▁Avukat
=3016
▁sıkıştırıl
▁Biyolojik
–3
▁1980’
▁meraklı
-2016
leştirmiş
▁muzdarip
▁Yeryüzü
▁Hag
▁güçlendirme
▁artistik
▁Flaman
üklü
▁tartışmaları
▁Abram
▁Mısırlılar
▁4-3
rep
▁Çorlu
▁yarışmadan
▁mektupları
▁bakarak
▁ji
▁Fetih
RAM
="3019
▁şartlarda
wiki
▁Gölün
Col
▁karıştırma
▁sınıflandırılma
▁Zeno
hou
▁Orduspor
="241
▁vücutta
Yüksek
▁doğaçlama
▁asansör
▁gazlar
▁nişanlısı
▁Platform
▁Joss
▁MSN
▁mektubun
▁Yakub
▁sıcaklıklarda
▁bahsi
▁bölümlerini
▁soya
▁proses
▁gerekçesi
▁görevlerinden
▁Manet
▁zengindir
▁aldat
▁değerlerini
hold
▁Edwards
Japonya
▁barut
▁lakaplı
▁Butler
bulak
▁Vekili
-1985
-1996
▁Hayalet
▁doğanın
gazete
▁Heights
▁Tümgeneral
▁Gott
▁anlayışını
▁Servis
edilen
▁becerisi
Good
▁yakalayan
▁Memlük
▁bulanık
▁Birey
▁çağırır
▁Sibel
▁Şiî
▁biti
▁harekâtın
▁süresini
▁Vul
▁Hood
▁atıcı
amid
▁durduğu
▁Serge
▁renklerin
▁Pres
▁sıçra
▁1902'
landırıldı
▁müfreze
▁Atlantic
▁Fernández
▁Kuyruk
▁Québec
▁kertenkele
▁doğuştan
▁çöker
▁kader
▁yalvar
▁rasyonel
▁anlamındaki
▁anlaşarak
oks
▁4.5
ló
▁anlaşmalar
▁wi
▁işgücü
▁Müsteşarlığı
▁Çiz
▁Augusta
bble
▁katliamlar
=22
ksizin
▁denemeler
▁sırasına
▁süreleri
▁Acar
=164
▁ISBN
▁Egemen
▁Horse
▁1790
▁parametre
="212
▁okulların
▁deneyimli
▁AD
▁Tere
▁olacağına
▁Tomas
▁yayıldığı
▁planlaması
▁Chase
▁Bilgin
beth
▁Strasbourg
▁César
▁milimetre
▁tüpü
▁Middle
=3019
kab
▁Protein
▁Hughes
▁doruk
▁sorumluydu
▁yönetilmiştir
▁Sergio
▁Konuk
▁mahkemede
▁Kobe
▁buldular
▁yaralar
▁hastaları
▁imzalayan
▁romanda
▁kaldırıl
▁WWF
▁non
▁uygulamalarını
zâ
▁yüzücü
▁Bayındır
ümlü
▁kullanılırdı
▁Zah
EB
▁ört
▁Savaşçı
▁Şansölye
▁Süreyya
▁Ergani
▁Acara
▁bizi
▁istemeyen
▁dillerin
▁Filiz
ლი
road
▁durumundadır
▁Zag
Tim
▁komisyonu
▁sürüyor
▁bozunma
=179
▁Yılları
▁sorumluluğunu
▁vurguladı
▁sularda
▁planlandı
▁Direct
şat
▁Arşivi
İspanya
▁Rhodes
toplam
▁jeneratör
▁adaptasyon
▁kulüplerinden
▁veteriner
▁karargahı
dition
▁Capital
▁bölümlerinin
▁düzenleyerek
▁Curtis
▁kalınlığında
▁iletimi
▁Beypazarı
▁ceset
▁komşusudur
▁işçisi
▁Đ
▁kaptır
=138
▁adımı
▁gerekiyor
ozis
▁1841
▁kaldırarak
▁sözlerle
▁yendiği
Flor
▁beyleri
▁Ney
▁dışkı
▁Hz
lands
▁Imp
▁jeo
▁milyona
▁değerlendirmek
▁Erbil
Sir
▁Hir
▁kelimelerinin
kapa
▁Kretase
▁fıkıh
▁Parlamenter
poz
▁Başakşehir
▁röportajlar
▁por
▁ihtiyat
▁denizaşırı
="2017
▁Gürpınar
▁Depo
▁Castel
anta
▁Marko
▁Luftwaffe
▁uygulamalarda
▁bilmediği
▁propagandası
▁erkeklere
▁üreticiler
view
▁sıradadır
▁anlayan
Bob
▁yararlanma
Gü
▁devamında
▁Boyabat
vay
▁1852
▁tasarımında
▁başlatılmıştır
▁psikolojisi
cess
▁ülkedir
▁Jump
▁kullandığını
arktik
▁RC
bid
▁Apo
=293
▁Simavi
Söz
▁Evan
▁trajik
tikleri
▁düşürdü
▁olanıdır
▁camiler
▁sistemlerine
▁komplikasyonlar
▁country
▁Buckinghamshire
▁Zambiya
▁Keçiören
▁Hubble
▁aktiviteler
▁paneli
▁olabilmesi
enstein
▁yazılarında
augh
omp
▁öğretisi
▁yasaklanmıştır
▁Obi
▁Sirius
▁Aria
▁dönüşünde
▁Yık
▁karnı
▁Papirüs
▁günlüğü
▁yakası
▁ressamlar
▁Mang
▁Darius
▁fizyolojik
▁Ori
▁tanrının
▁adadır
▁kron
▁1400
ča
▁Sus
▁kursu
▁com
▁davada
Hürriyet
İrlanda
▁Public
▁Kelebek
▁feragat
▁heteroseksüel
▁black
▁üstlenir
▁amacına
▁Korgeneral
▁Prodüksiyon
İbranice
▁editörlüğünü
▁sırrı
▁altta
▁edilse
▁koymaktadır
▁donanımı
▁buluntuları
▁firmanın
Team
▁500.000
▁bulurlar
▁mag
▁önleyici
▁anlaşılan
Şarkı
▁partneri
▁klon
▁Baran
▁atölyesi
▁rejiminin
▁tahminleri
▁Dante
▁Vandal
wy
▁inançlar
▁gücüyle
▁düşürme
▁dükü
▁gelişmesini
▁kaynaklandığı
▁Arhavi
▁Semerkant
▁yığıl
▁Edwin
▁Uludağ
▁Moleküler
▁davranır
Oto
▁müzeler
▁dörtte
▁Jesse
▁yavruları
▁Rahmi
▁iyonları
vé
▁dayalıdır
▁Hayır
▁kopma
read
Gor
▁gruplarını
▁rahatlıkla
▁Strange
▁mesajlar
▁getirilme
▁albümlerinden
▁Dersim
▁otoriter
îm
▁Barb
▁gönül
▁altındaydı
▁yapabileceği
▁binden
▁Hizmeti
▁firmaları
▁Westminster
▁müfredat
▁Heavy
▁Andromeda
▁cazibe
lığıyla
▁sep
Fil
▁çözünürlüklü
▁Sungurlu
00)
▁kategorilerinde
▁Oluş
▁unvanıyla
▁vitamin
▁Seth
▁odaklanır
▁Depremi
▁−
▁öğrencinin
▁Cesare
▁kalıntı
emeyeceğini
0°
▁Doku
▁etmediği
▁Zh
OT
▁Pembe
ych
âî
▁Donetsk
▁portakal
▁Jeffrey
▁gökbilimci
▁tutucu
▁reaktif
▁öngören
IATA
▁orduda
▁Champ
mento
▁kıtlık
▁üretmiştir
▁eserinden
kuzey
▁Şenol
▁Rif
kho
▁düzelt
Vila
▁oyunculardan
▁kilometrelik
▁Zamanı
▁Lut
▁uygular
▁evlerde
yınca
▁oğluna
rier
▁prensesi
▁şer
▁yapımda
▁Azerice
▁alanlarından
9.000
▁konan
Ömer
▁derneğin
▁drenaj
ülatör
▁Metallica
▁ilân
▁düşmanın
▁Lay
ishi
▁kaynaktan
▁sondaj
▁yosun
▁başaramadı
▁kaplamaktadır
▁cümlesi
▁çarptı
dog
▁rotası
▁1843
▁bekçi
▁konuşmaları
▁Nina
▁kanaat
▁ilaçların
▁biyografisi
Pre
asıl
▁ulaştığında
▁İğ
▁başlarından
▁anladı
▁Bakanlığına
▁Sendika
▁Tale
▁Piyemonte
▁tercüman
MK
▁Hayvanlar
▁kalecisi
▁elektronların
▁polimeraz
▁sularında
▁çizgili
▁WTA
▁Sembol
▁Eduard
▁yassı
▁yetme
▁idaresinin
▁notlar
▁metan
▁oluşumuna
▁katma
▁dayısı
▁Karagöz
▁halterci
▁savunmasız
▁Sanal
▁Alexandre
▁yararlanıl
▁konunun
▁Memur
▁Şener
▁Sistemleri
ő
▁ördek
▁Çaldıran
▁gününü
▁Lesnar
▁mahrum
▁anlatmıştır
▁açılı
▁hatlarını
▁Design
▁Askerlik
▁politikasının
▁Bizanslı
▁üyeden
▁Çim
▁Güçleri
▁BT
▁eşey
▁fail
▁ölmeden
▁ISU
▁Kalecik
▁%15
▁Pauli
▁ödemek
▁Eşme
▁Çalı
Bab
▁Cen
NH
▁Yuan
▁paraşüt
▁Hotspur
Şeyh
▁Hamm
▁kanatlar
▁Kek
▁Hind
▁Kutu
▁lisansüstü
▁şahsen
▁Garcia
▁Nis
▁yaratıl
jit
▁sandık
nett
▁Olayları
luğunun
▁Oyu
▁bahsettiği
▁kararına
hyun
lmiş
▁sınırının
rucu
ologlar
▁boyutunda
▁adlandırılmış
▁programlarının
▁metrik
▁Öncelikle
jel
▁Çiftler
▁Oral
="3021
▁kabuğun
▁türetilmiş
▁Bilal
▁kütlesinin
▁Demo
▁kubbeli
▁boğu
▁Century
▁Edouard
▁tekabül
▁kozmetik
▁benzediği
▁teorisyen
▁sunulur
▁Orgeneral
▁babasıyla
▁beklenir
▁Geo
shaw
▁istemez
▁kontrolündeki
▁Balıkçı
toryum
▁Code
▁boyutlarında
▁akademisi
▁Lejyon
▁Rezerv
▁Dosya
▁ekibine
hō
▁ödülün
▁anlamlar
▁iktidarda
▁yaşanma
▁çıkartılan
▁ayet
▁adlandırdığı
▁başvurma
▁proto
▁Lö
▁Harbor
▁katılmasıyla
▁Seba
▁durgun
▁Baudouin
▁mürekkep
▁İddia
▁köpük
▁savaşmaya
▁aktarılması
▁erişkin
▁afiş
▁alkali
▁sırtında
▁Ost
▁Mia
▁Batu
▁ofisleri
▁gelenleri
="2104
Inter
▁golf
▁keşfedilmiş
▁durumdaki
▁şiirlerinde
▁hafifçe
Laz
▁etmelerini
-34
yağı
▁yokluğu
▁hissettiği
▁müzikle
▁denizcilik
führer
▁Habitat
▁spiker
▁üzül
▁internette
Avustralya
▁anlamsız
▁fişek
ydiler
▁sağlıyor
▁Karacabey
Asya
▁geçmesiyle
▁örneklem
▁rektörü
▁DSİ
▁Ahi
▁öncül
▁М
▁Hoy
▁kısadır
▁bastırıldı
▁olmama
=257
thos
▁Koray
▁sorununu
▁Universit
▁rakımlı
▁duymaya
▁Kolomb
▁Ghost
sty
Tre
▁üstünlüğünü
▁ileriye
=192
▁Seo
▁Social
▁derneği
Hint
=3021
▁Şark
▁ekipmanı
▁işveren
▁Fakültesinde
▁doğurdu
▁esirleri
▁İrini
▁koyuldu
▁Güvenliği
▁Multi
▁Korsan
▁türbin
▁Altındağ
▁albay
▁yener
▁States
▁fethed
▁korumayı
▁Sonu
▁şubat
=2104
pod
▁ilişkinin
▁cemaatin
▁Heinz
2021
▁kalanını
▁yollarının
▁Türbe
▁kompozit
▁kondansatör
▁kooperatif
▁geçmişti
general
İsmail
plex
▁Tataristan
▁gözlük
▁Wing
▁değiştirmeye
▁kullanmışlardır
▁yakalanmış
▁Lazca
▁1978),
▁ederse
ento
▁muhalefeti
▁açıklanması
litik
▁büyüdüğü
▁romanının
▁Brock
fek
birim
▁dağıttı
▁gelişmeleri
▁müşterilerin
▁rayonunun
sefali
▁Akıllı
▁çorbası
▁tahtın
▁birikim
▁ayrılık
▁Kemp
▁okunan
▁saçma
pad
▁Sıvı
▁konfigürasyon
▁Vilnius
▁comp
▁hükûmetine
Gaz
▁çemberin
▁geciktir
▁Halkların
▁bağlandığı
▁birleştirildi
▁kavrama
▁gözlemlenen
▁epik
▁konuşmaya
▁Programın
▁düşünülme
▁isimlendiril
eren
▁sağlarlar
▁Kau
▁düzeltil
▁etkilendiği
▁devredildi
▁kolonileri
▁Tamer
▁gökadadır
arşi
▁Risk
▁görüşmelerin
či
▁fabrikalar
="114
gau
Alpes
▁Kef
▁Coast
▁Shir
▁Tig
360
!!
12)
▁görünümünde
▁kütleçekim
▁hükümleri
▁kanalizasyon
▁Bilişim
▁Cromwell
▁2000-01
▁Д
▁dekoratif
▁Arık
▁Face
▁olmayabilir
▁Defteri
320
▁eklemek
▁engelleyen
▁Esat
▁araştırmada
▁tabiri
Abdül
vice
▁konur
▁Bolton
▁emrinde
▁durumdaydı
ekonomik
Sem
▁Kargı
▁Tarihte
▁yakalanır
▁edilirse
rir
▁içerecek
▁6-2
▁Hilal
ligi
▁sıralanmıştır
▁CSKA
▁Ayvalık
▁Erciş
▁Yasemin
▁Luigi
▁Spurs
▁feshedildi
▁kitleler
▁etkilediği
self
▁sevinci
▁yarışmasının
▁Unut
▁ölçüleri
▁Brod
▁sınırındaki
Green
▁destekle
▁Gev
▁salınım
▁Çiftçi
ömür
veti
▁Güngör
▁kesilir
▁Shō
▁Kader
▁1977),
▁burjuva
▁Penn
▁bürokrasi
▁Neredeyse
▁Beckett
gören
Bahçe
▁razı
Haziran
klasik
▁çevrede
▁Cali
ild
▁nam
▁galası
▁rezervleri
-1986
Total
▁ürünüdür
▁kaybedilen
▁süzül
▁bezleri
▁kesimler
▁magma
▁1850'
▁sponsoru
▁hakemi
▁12.000
leks
▁Colo
▁vatandaşlığına
▁Devil
▁uyumu
▁Bio
▁yerleştirilmesi
▁eğilimleri
XVI
Rhône
▁Borçka
▁Rüştü
▁2001-02
▁Sürmene
bıyık
▁yarısına
▁Nurettin
▁kavimler
▁Wald
UM
Cev
celli
▁kazanıp
EG
âz
▁Spartak
▁güneşin
▁yemini
▁satma
▁anlamındadır
▁Hod
▁katili
stru
▁portal
▁kısmından
▁sana
▁Akım
▁gemilerine
▁yaptıklarını
ай
▁sürülmüş
▁Jakob
▁olunan
▁şiddetin
▁Çatışma
▁mahsul
▁Systems
▁İlçeler
▁Hata
astro
▁eyaletinden
▁alınacak
▁yüksekliğindeki
▁Tüneli
▁ettiren
▁Gaius
▁Hristiyanlığı
▁genişledi
×
▁yaktı
▁atomu
▁Ré
▁Stop
▁sadrazamlık
four
▁oluşturdular
itlerin
▁Abbasiler
▁yakınlaşma
▁Sorgun
▁git
▁Giles
▁değere
▁kasım
▁Timberlake
▁jandarma
▁Çeviri
▁Shadow
▁Kaan
fili
▁çıkarılma
▁Kirman
▁bastı
▁direktörlüğü
▁saçlı
okul
▁radyosu
▁Weber
▁yaratmış
▁görülüyordu
▁Şelalesi
▁neler
lova
▁Nation
▁Çalışmalar
▁Bostancı
▁Aktör
▁kaçınmak
▁bütünlüğü
▁gölet
tham
▁cesetleri
ulur
▁1786
▁Acem
101
ى
▁Nickelodeon
▁esnaf
▁ölçülür
▁Quebec
▁dövü
siyasetçi
▁1990’
▁epitel
▁Arşiv
▁Eyyubiler
kültürel
▁hanedanlığı
▁Ortaya
▁Câ
dium
▁tortul
▁keser
▁Asp
▁Uy
▁Bergen
ewski
▁SMS
▁hareketlerinin
▁kalmışlardır
▁gezegeni
▁Suyu
mac
▁kuruluştur
▁Davit
ging
▁1969)
▁Uygulamalar
▁sürümüdür
wel
▁tartıştı
▁Dim
▁arayış
▁Breton
berry
▁ettirmek
Nico
▁"1
▁Mk
▁hastalıktan
▁projede
ulduğu
▁Lois
lmakta
▁feshedil
▁organizatör
▁taahhüt
▁Piyano
▁edilmeden
▁gruplarına
▁eylemlerin
▁Pilsen
▁Giorgio
▁damarları
▁Katılan
▁EFL
▁dır
▁Rotten
▁Herkül
▁öncülerinden
▁kaybolan
▁yıllardaki
▁doktrin
pie
Sab
▁ret
-1987
▁dondur
▁arkadaşlarına
▁kültüre
▁kapsamına
▁çıkardıkları
▁Seyit
▁milyonun
▁çiftleşme
▁reaksiyonlar
mic
▁çevresinin
ל
▁Saltanatı
▁takımlara
▁Hopkins
▁Crystal
▁seçmenler
К
Azerice
▁1.500
▁2015-2016
▁kırıklığına
▁sömürü
▁Cecil
▁Torre
▁kıvrım
▁yaklaştığı
▁felsefesinin
▁kusursuz
▁Kolhis
▁açıkladığı
▁Dion
▁Emel
▁Children
▁yokluğunda
ofça
▁Year
▁bacaklı
EX
[...]
