#version: 0.2 - Trained by `huggingface/tokenizers`
a n</w>
a n
e r
e n
a r
l a
i n
an g</w>
s e
a d
t a
d i
k an</w>
u r
e m
u n
t i
a s
b a
d o
m en
d an</w>
y ang</w>
d a
i d</w>
y a</w>
s i
a m
do c</w>
= "</w>
l i
b er
t er
a t
a t</w>
d i</w>
t u
la h</w>
an g
b u
g a
o n
p er
k e
o r
ad a</w>
l e
ar i</w>
en g
t e
a k
a h</w>
l e</w>
d ari</w>
a l</w>
a l
n ya</w>
u n</w>
ar a</w>
c ur
b e
in i</w>
a lah</w>
= "
t le</w>
ti tle</w>
ur l</w>
=" ?</w>
< /</w>
cur id</w>
" ></w>
p ada</w>
i s
m em
a kan</w>
g a</w>
i l
t a</w>
d u
r i
in g
eng an</w>
j u
r o
m er
ad alah</w>
k u
la m</w>
s i</w>
d engan</w>
tu k</w>
2 0
s a
p e
l u
ta h
b i
m u
k a
m e
p en
s u
k o
k a</w>
i a</w>
un tuk</w>
men g
d e
da lam</w>
a k</w>
p u
h i
1 9
i n</w>
r e
S e
se bu
o le
m a</w>
i t
ga i</w>
m a
a ta
tah un</w>
I n
i an</w>
u p
a p
n e
t r
ba gai</w>
ole h</w>
t o
u s</w>
un g</w>
p at</w>
o l
in g</w>
as i</w>
a h
i li
am a</w>
K e
w a</w>
k e</w>
se bagai</w>
an ya</w>
t i</w>
o n</w>
i s</w>
j ad
p em
r a
d a</w>
p o
m as
ba h
e s</w>
un g
si a</w>
k ar
ba g
t an</w>
ju ga</w>
o m
a r</w>
at an</w>
jad i</w>
u s
up akan</w>
a i</w>
mer upakan</w>
or ang</w>
k em
a an</w>
te lah</w>
k i</w>
e n</w>
k i
it u</w>
20 1
t an
ang an</w>
t em
sebu t</w>
as i
s a</w>
at u</w>
i k
P er
da k</w>
men jadi</w>
s er
t ara</w>
h an</w>
e l
da pat</w>
bag ian</w>
u m
b an
r i</w>
ata u</w>
pe si
p eng
men y
20 0
p ro
am p
n i
c h
ti dak</w>
g i</w>
u l
as a</w>
m p
pesi es</w>
k er
2 2
ta ma</w>
m an
j a</w>
a w
a s</w>
ter sebut</w>
a g
t h
t en
ta s</w>
P ada</w>
sebu ah</w>
a li
s en
c ara</w>
an nya</w>
g un
b en
u m</w>
e s
e r</w>
b ang</w>
e ka</w>
l o
i r
b ar
sa r</w>
on g</w>
do ne
f il
done sia</w>
T i
c i
di a</w>
a la
a m</w>
l an
p at
te r</w>
k on
In donesia</w>
1 8
D e
mem ili
ta r</w>
e g
ga l</w>
s atu</w>
h ar
di ri</w>
o r</w>
ur u
p an
h u
i k</w>
" .</w>
at a</w>
a y
memili ki</w>
a j
be sar</w>
a ti
la y
en a</w>
l a</w>
A n
mer eka</w>
1 5
b ang
t ang
t u</w>
D a
1 2
la in</w>
1 0
a p</w>
in ya</w>
) ,</w>
be r</w>
du a</w>
c e
r an
l i</w>
t ang</w>
d e</w>
i kan</w>
k al
an a</w>
ap a</w>
on al</w>
) .</w>
a ba
k at</w>
le bi
k en
per ti</w>
bah wa</w>
me la
on g
o p
d o</w>
m an</w>
1 3
g en
se orang</w>
s pesies</w>
r u
t ing
lebi h</w>
m o
per tama</w>
M e
u di
A r
ing ga</w>
i c
i ka</w>
j ar
an an</w>
u r</w>
t ri
gun akan</w>
y ak</w>
3 0
a i
li s</w>
M ar
ta k</w>
la i</w>
p i</w>
o s
ti k</w>
e k
u k
h ingga</w>
2 8
ber apa</w>
s ama</w>
o ta</w>
d er
ang g
kar ena</w>
la s</w>
d ang</w>
ung an</w>
2 5
a b
n ama</w>
e p
ne g
g an
se perti</w>
e t</w>
udi an</w>
2 4
T h
hi r</w>
K a
se la
1 4
is i</w>
ko ta</w>
i t</w>
I a</w>
w an</w>
o v
t ar
w ar
o g
fil m</w>
te ta
" ,</w>
se cara</w>
P en
w i
men ga
a ya</w>
p an</w>
a u
1 7
m i
ban yak</w>
s an</w>
C h
19 9
m ak
e l</w>
v er
P em
l an</w>
B ar
2 3
1 6
2 6
S u
da h</w>
P ro
du k</w>
S er
p i
mu r</w>
D i
t o</w>
p ar
c u
b o
y u</w>
B an
kem udian</w>
c am
sa at</w>
m i</w>
li a</w>
R e
du k
2 7
kal i</w>
u k</w>
t kan</w>
meny e
k u</w>
be lu
m in
be berapa</w>
sa h
s alah</w>
to r</w>
B e
ur an</w>
as al</w>
u kan</w>
il i</w>
j al
hi du
a c
an tara</w>
K ar
b a</w>
0 0</w>
er in
A mer
A l
tu s</w>
lay ah</w>
i ku
u an</w>
y a
p as
g e
R o
p a</w>
asi onal</w>
bah asa</w>
s tr
neg ara</w>
ka yu</w>
un an</w>
h ad
2 9
u mu
mu si
i l</w>
cam atan</w>
ben tuk</w>
o k
bu pat
w ak
S i
f am
f or
j ang</w>
M u
g u</w>
p al
un ia</w>
ga h</w>
at i</w>
r a</w>
Amer ika</w>
ar an</w>
ken al</w>
bu at</w>
se telah</w>
pen y
B er
P e
v i
am an</w>
ata s</w>
P ar
bupat en</w>
er i</w>
li k</w>
ar kan</w>
I s
or do</w>
tang gal</w>
ku kan</w>
in a</w>
S pesies</w>
wi layah</w>
as anya</w>
s o
er ah</w>
u d
g ol
ta i</w>
A g
u sia</w>
m nya</w>
gen us</w>
l u</w>
ser ta</w>
p ri
mas uk</w>
ko m
M en
g i
ke las</w>
ke ti
g er
men c
se m
fam ili</w>
di di
ter o
Se la
teta pi</w>
as an</w>
h o
u sah
de sa</w>
j ak</w>
se l
bi asanya</w>
ah an</w>
L i
s amp
p ara</w>
3 3
2 0</w>
m e</w>
hi r
ba h</w>
tem pat</w>
an i</w>
d ar
da e</w>
ku m
mu lai</w>
i ta</w>
asi l</w>
bar u</w>
v in
ti f</w>
T e
ad i
u h</w>
ya itu</w>
gol ong</w>
ter golong</w>
ter n
tero id</w>
19 8
an ak</w>
man a</w>
Ka bupaten</w>
ta m
ang kan</w>
ke pada</w>
re s
p un</w>
am un</w>
ak hir</w>
T er
D i</w>
b u</w>
ol o
si s
N eg
ik at</w>
u tama</w>
le tak</w>
y ar
pan jang</w>
ing an</w>
d as
ju m
o f</w>
ta si</w>
vin si</w>
b is
t ur
n a</w>
P u
in an</w>
ter a</w>
Th e</w>
1 0</w>
di gunakan</w>
L e
sen diri</w>
di s
l in
u t</w>
in nya</w>
a wa</w>
h i</w>
ang at</w>
si s</w>
ba ik</w>
t e</w>
S a
bag i</w>
d in
ter letak</w>
se belu
jum lah</w>
ol a</w>
g g
h anya</w>
ba w
a ga
l em
I I</w>
ri s</w>
J ep
h ari</w>
g u
e b
kem ba
mem per
p or
b un
c o
k an
s ta
ki tar</w>
la innya</w>
t ro
di per
samp ai</w>
P eng
tu r</w>
mas a</w>
Da lam</w>
te k
l ang
ta h</w>
di ter
e k</w>
ta kan</w>
kum bang</w>
il an</w>
la k
Jep ang</w>
U ni
S o
di kenal</w>
U n
de n</w>
hidu p</w>
A ni
m ili
sela ma</w>
o l</w>
as teroid</w>
su atu</w>
19 7
pu la
s angat</w>
r is
se kitar</w>
f i
an j
pem erin
i h</w>
h asil</w>
A s
( )</w>
to n</w>
se c
meng gunakan</w>
kemba li</w>
N e
ber ada</w>
ting gi</w>
ba b
men j
m bu
do m</w>
ran c
am b
f tar</w>
F il
r um
Ser ikat</w>
Sela tan</w>
4 8
i r</w>
si tas</w>
men ing
la gu</w>
d unia</w>
ai r</w>
Ti mur</w>
angg ota</w>
B o
po li
4 9
ma lia</w>
Ar th
bah an</w>
a u</w>
ke lu
g ra
ka p
19 6
lu i</w>
Bar at</w>
5 6
jar ah</w>
M o
bu lan</w>
di sebut</w>
M an
ke l
b in
k ing
h e
fil um</w>
ala t</w>
Ani malia</w>
di ri
bi l</w>
king dom</w>
t or
h an
h kan</w>
per n
ko lah</w>
bu m</w>
di tem
ak ar
la t</w>
1 2</w>
5 7
g ar
po da</w>
5 0
J awa</w>
re si
T en
ke dua</w>
uru t</w>
d en
se s</w>
B el
le s</w>
an da</w>
K ota</w>
te m</w>
R a
ti ga</w>
sel uru
t nya</w>
t ing</w>
5 8
du duk</w>
si si</w>
da erah</w>
ro poda</w>
In sec
Arth ropoda</w>
ber asal</w>
Insec ta</w>
se p
J o
ber sama</w>
an d
mem ber
ak at</w>
ba t</w>
di la
4 7
v a</w>
ter masuk</w>
De sa</w>
su s</w>
bab kan</w>
1 5</w>
P o
k ur
b angan</w>
i mp
te n</w>
1 9</w>
j en
S em
K on
ke camatan</w>
Se telah</w>
la r</w>
u i</w>
had ap</w>
si un</w>
mela lui</w>
di p
baw ah</w>
mas ih</w>
Fil m</w>
T o
ba r</w>
M a
tr a</w>
wak tu</w>
M er
1 1</w>
K u
In gg
le k
U tara</w>
le r</w>
4 0
tah an</w>
olo gi</w>
keti ka</w>
Ingg ris</w>
a e</w>
ker ja</w>
h at</w>
akar ta</w>
usah aan</w>
mem buat</w>
r en
Neg eri</w>
yar akat</w>
k atan</w>
D ia</w>
e a</w>
se hingga</w>
ter i</w>
se jak</w>
5 9
19 4
bi tkan</w>
al nya</w>
( "</w>
ter hadap</w>
aw al</w>
e li
th e</w>
meng h
K er
N ama</w>
ta l</w>
2 1</w>
1 4</w>
K om
ci l</w>
ung k
ti s</w>
1 6</w>
1 3</w>
p un
S ta
4 6
u j
me n</w>
K em
al a</w>
duk si</w>
pu b
m un
ten tang</w>
3 9
an d</w>
pern ah</w>
1 8</w>
al i</w>
bis a</w>
m ar
3 7
3 8
3 6
up un</w>
un ju
R i
se mu
J er
1 7</w>
c e</w>
su dah</w>
B i
o de</w>
3 0</w>
l ar
P i
c er
t in
an y
) "></w>
c a</w>
B u
Uni ver
or i
didi kan</w>
iku t</w>
ber bagai</w>
tu mbu
menye babkan</w>
h a
ku p</w>
ka an</w>
P a
w e
i m</w>
O r
un gai</w>
ti ap</w>
ap i</w>
G e
s at
il kan</w>
tu ju
P an
mem u
em pat</w>
d ung</w>
d r
l kan</w>
lan ju
da r</w>
rum ah</w>
h nya</w>
i m
hu b
B ang
mas yarakat</w>
19 5
diter bitkan</w>
K o
al bum</w>
j i
a in</w>
h al</w>
tr i</w>
lu s</w>
pen duduk</w>
ap an</w>
aba t</w>
s p
k ad
ang ga
h ak</w>
or i</w>
d em
N amun</w>
ter diri</w>
u bah</w>
aba d</w>
hir nya</w>
ter dapat</w>
se men
ter jadi</w>
po k</w>
du l</w>
ke cil</w>
ik asi</w>
aj aan</w>
an u
pal ing</w>
tu a</w>
0 00</w>
da ya</w>
me li
das arkan</w>
M as
musi m</w>
lang s
S ur
men em
y ak
w at</w>
ti kan</w>
L u
at kan</w>
er i
r an</w>
K or
bu t</w>
C o
in kan</w>
L alat</w>
lu as</w>
tri k</w>
pro duksi</w>
li s
sis tem</w>
S M
Ti ong
mela kukan</w>
T u
s an
2 5</w>
o s</w>
G er
mi ah</w>
G u
per usahaan</w>
g am
si al</w>
b ad
" )</w>
ko k</w>
q u
C i
8 0
r ak
un ya</w>
b ur
un i
p in
kar ang</w>
ga s</w>
S h
Jer man</w>
v isi</w>
e ja</w>
de r</w>
j ar</w>
ranc is</w>
un i</w>
pe la
o per
pub lik</w>
ud ara</w>
Se lain</w>
k kan</w>
M i
Ke camatan</w>
Pro vinsi</w>
Da ftar</w>
ar ga</w>
h a</w>
ang kat</w>
il miah</w>
S um
ga an</w>
S en
semu a</w>
a cara</w>
6 0
musi k</w>
2 4</w>
c h</w>
6 7
f i</w>
u lis</w>
is ti
per i
umu m</w>
pu an</w>
C er
ur a</w>
langs ung</w>
ga b
semen tara</w>
for m
P rancis</w>
L ar
tr ad
k ri
pat kan</w>
kar ya</w>
Bel anda</w>
meng en
dila kukan</w>
ti m</w>
t h</w>
b ola</w>
k ata</w>
men da
H ar
C ar
pal a</w>
om pok</w>
H u
lu ar</w>
bang unan</w>
c k</w>
j e
ma in</w>
s am
201 0</w>
o la
201 1</w>
E ro
2 2</w>
di ber
k annya</w>
ber nama</w>
t y</w>
har us</w>
6 9
B ah
ak hirnya</w>
seluru h</w>
k un
Ero pa</w>
n i</w>
op tera</w>
Ten gah</w>
is asi</w>
la lu</w>
s in
ser ing</w>
5 0</w>
di tu
pu la</w>
h am
2 3</w>
su m
tern asional</w>
s ti
K at
Se p
S in
jal an</w>
p lan
la hir</w>
H i
C ole
An g
gra m</w>
e ta</w>
sebelu m</w>
5 4
se besar</w>
se kolah</w>
er an</w>
ku m</w>
j o</w>
6 8
w i</w>
ar i
k h
om i</w>
jen is</w>
Cole optera</w>
tu kan</w>
s kan</w>
pem ain</w>
s at</w>
k nya</w>
E n
a z
resi den</w>
mas ing</w>
ul i</w>
bang un</w>
3 4
la gi</w>
tah ari</w>
tumbu han</w>
B ri
bi t</w>
7 9
mem ba
B en
i er</w>
asi kan</w>
f o
k asi</w>
har gaan</w>
la u</w>
ka r</w>
n e</w>
s ur
ber hasil</w>
Univer sitas</w>
2 6</w>
bar at</w>
on s</w>
o u
ki pun</w>
am p</w>
v o
se tiap</w>
f at</w>
l ing
201 2</w>
s on</w>
y at</w>
n is</w>
2 7</w>
2 8</w>
se karang</w>
b as
a ga</w>
cu kup</w>
la m
f in
ti on</w>
per tan
O k
g e</w>
ba tang</w>
d ara</w>
p ad
pe r</w>
te le
al an</w>
k o</w>
c ata
ta mp
an kan</w>
la ut</w>
us akan</w>
kel ompok</w>
il a</w>
tr an
menga la
u tara</w>
N i
de kat</w>
i al</w>
K an
N ov
P as
li ma</w>
si r</w>
sebelu mnya</w>
7 0
ber main</w>
W i
l y
bu ka</w>
be da</w>
di te
ke ku
si kan</w>
Per ang</w>
angga p</w>
J akarta</w>
ru p</w>
ki t</w>
ker usakan</w>
me s
ata kan</w>
ah kan</w>
og ra
2 9</w>
te s</w>
am bil</w>
ah nya</w>
y ai</w>
y ah</w>
t on
se bagian</w>
a v
200 9</w>
D u
A b
Lar va</w>
pro vinsi</w>
201 3</w>
ti an</w>
kap al</w>
c an
ce h</w>
D em
po sisi</w>
si n</w>
Tiong kok</w>
man usia</w>
lu b</w>
da g
200 8</w>
ci dae</w>
d s</w>
ten gah</w>
f er
se k
diri lis</w>
c i</w>
si onal</w>
member ikan</w>
tan ah</w>
H o
or gan
umu mnya</w>
la ki</w>
5 5
sela tan</w>
sa wat</w>
Ra ja</w>
ji wa</w>
b an</w>
m on
e t
bang kan</w>
k hu
ma tahari</w>
D unia</w>
A us
ku s</w>
kelu arga</w>
ti ka</w>
mu da</w>
ge lar</w>
mem en
s ing
n amun</w>
sep ak</w>
u p</w>
8 9
ra ja</w>
In dia</w>
la ma</w>
k am
p r
T ah
Is lam</w>
ap ai</w>
ak si</w>
pu sat</w>
ing in</w>
t ung</w>
se jarah</w>
di r
K ris
la ba</w>
is me</w>
pen didikan</w>
V i
p h
Ag us
ti mur</w>
pemerin tah</w>
bi dang</w>
S y
to ber</w>
op h
ka w
se n</w>
s e</w>
ka p</w>
em ber</w>
ag ama</w>
per ang</w>
t s</w>
f e
w an
k m</w>
pro ses</w>
man tan</w>
di si</w>
si m
en g</w>
ti h</w>
ditem ukan</w>
ul u</w>
meny er
g h
201 4</w>
. "</w>
sem ber</w>
A m
S an
3 1</w>
hidu pan</w>
f ikasi</w>
A k
ter p
Ok tober</w>
k al</w>
t re
tan duk</w>
d angkan</w>
m u</w>
G o
c on
aga r</w>
tem ber</w>
hub ungan</w>
ak it</w>
De sember</w>
ili han</w>
Mar et</w>
pemerin tahan</w>
v e</w>
Me i</w>
k or
4 4
A pri
6 6
belu m</w>
3 5
M on
200 7</w>
K i
Sep tember</w>
S am
tam anya</w>
ke se
a d</w>
M es
amb y
Kor ea</w>
J anu
c a
Agus tus</w>
Sta siun</w>
ta b</w>
v en
Apri l</w>
pun yai</w>
teta p</w>
dite bang</w>
ar nya</w>
Di p
ang i</w>
su ku</w>
Cer amby
a y</w>
an tar
eb or</w>
Ceramby cidae</w>
meng ebor</w>
bah kan</w>
be kerja</w>
8 7
pas ukan</w>
Janu ari</w>
mem punyai</w>
Se jarah</w>
Pu lau</w>
up a</w>
Re publik</w>
200 6</w>
bu ah</w>
201 6</w>
Y o
se r</w>
lu si</w>
A f
D is
h as
k at
d ana</w>
imp in</w>
in ta</w>
tu an</w>
res mi</w>
mak a</w>
J uli</w>
ber dasarkan</w>
N asional</w>
C on
l o</w>
be l</w>
ju dul</w>
bu mi</w>
l ang</w>
duk ung</w>
M ak
ber beda</w>
P r
k ah</w>
H e
ba k</w>
J uni</w>
per an</w>
i bu</w>
poli tik</w>
j i</w>
n asional</w>
201 5</w>
peng ar
ur u</w>
Mer eka</w>
o k</w>
menda patkan</w>
9 9
d ro
pe sawat</w>
form asi</w>
Be berapa</w>
kon omi</w>
S D</w>
l un
ma upun</w>
ting gal</w>
be lah</w>
menc apai</w>
me ter</w>
j u</w>
P ang
G un
t angan</w>
ar d</w>
usah a</w>
d ingan</w>
war na</w>
r y</w>
ma g
S ungai</w>
bu la</w>
la lat</w>
o b
W il
ber ubah</w>
s y
pen er
tem p
l t</w>
eng g
meng e
men unju
ker eta</w>
m or
Se perti</w>
uk u</w>
ar ti</w>
g r
ter akhir</w>
hu kum</w>
si k</w>
pen ga
Nov ember</w>
ba ta
d u</w>
M ah
8 8
J en
ma d</w>
iku ti</w>
amp ung</w>
meny atakan</w>
su s
ter kenal</w>
D engan</w>
is tr
bu ku</w>
ong an</w>
B r
3 5</w>
ang ka</w>
de l</w>
la han</w>
k la
I ta
k as
di se
4 0</w>
aw an</w>
g t</w>
pen ting</w>
gab ung</w>
ci p
7 7
A ra
M in
ne bula</w>
bu h</w>
di anggap</w>
A ceh</w>
Bang sa</w>
tan pa</w>
is an</w>
T an
eri ma</w>
menj abat</w>
ak i</w>
m kan</w>
w is
re k
L a
De wan</w>
M ala
n o
3 2</w>
mening gal</w>
pe c
j au
K ali
in e</w>
su ara</w>
ti v
9 0
A l</w>
ju ta</w>
ri kan</w>
ch o
ko h</w>
Tah un</w>
per mu
p a
ili h</w>
ting kat</w>
C om
ing kat</w>
ung si</w>
F eb
M al
n am
ov i
em puan</w>
di buat</w>
sti tu
200 5</w>
ar ah</w>
cu l</w>
peng gun
m is
201 9</w>
Bah asa</w>
B a
Ger eja</w>
ver si</w>
z a</w>
201 7</w>
c ar
pula u</w>
us an</w>
n om
pu tra</w>
neg eri</w>
s al
k lub</w>
J u
h en
ko mp
ungk in</w>
g en</w>
ru ari</w>
Dip tera</w>
Men urut</w>
li n</w>
g rup</w>
se l</w>
Men teri</w>
mun cul</w>
Jo h
200 4</w>
j anj
mengen ai</w>
ka li
ta an</w>
P residen</w>
ba tu</w>
le sa
ke la
tah ui</w>
ban tu</w>
Feb ruari</w>
cata t</w>
4 8</w>
3 3</w>
p re
pu r</w>
3 7</w>
am i</w>
r e</w>
Ita lia</w>
bi n</w>
pat i</w>
G en
se dang</w>
der al</w>
n o</w>
ter li
201 8</w>
wan ita</w>
kur ang</w>
ati an</w>
kom un
3 6</w>
L o
A sia</w>
E k
ali s</w>
temp uran</w>
on do
lu k</w>
er a</w>
ak ai</w>
T V</w>
ati f</w>
f a
an c
l eng
didi rikan</w>
m ungkin</w>
str uk
tele visi</w>
Sa at</w>
bar kan</w>
3 9</w>
3 4</w>
em ba
s ar
pro gram</w>
or m
Ker ajaan</w>
3 8</w>
bu k
l y</w>
ka s</w>
is ar</w>
or bit</w>
u su
mili ter</w>
ker j
di ke
ak i
d ing</w>
sum ber</w>
r ata</w>
Un tuk</w>
mela wan</w>
as aan</w>
ali a</w>
f f
ek s
ad e</w>
ad akan</w>
R usia</w>
su trad
su b
Par tai</w>
da kan</w>
tran s
me le
pen de
tuju an</w>
is ah</w>
mengala mi</w>
ogra fi</w>
s tan
li t</w>
ur ahan</w>
ak tor</w>
4 5
jal ur</w>
as ti</w>
str i</w>
A war
H al</w>
en si</w>
j ur
la s
j ika</w>
dir inya</w>
R aya</w>
n a
ti n</w>
Ne w</w>
jau h</w>
r am
per empuan</w>
ku at</w>
s tu
t s
ter utama</w>
plan et</w>
M is
be lak
u hi</w>
d an
D ar
men erima</w>
au t</w>
ati on</w>
se di
menunju kkan</w>
Pem erin
pi mp
ap kan</w>
y o</w>
ke pala</w>
ak nya</w>
ku pan</w>
at nya</w>
keti ga</w>
i dae</w>
P ad
lan dia</w>
ben tukan</w>
Y e
si p
D o
ter besar</w>
se jumlah</w>
peri ode</w>
de s</w>
R u
ali s
lu h</w>
m ata</w>
ber gabung</w>
any i</w>
at ra</w>
us kupan</w>
Y un
sa ja</w>
ber ke
de o</w>
c ana</w>
pula uan</w>
Se kolah</w>
0 0
ang ka
d y</w>
tu gas</w>
ad aan</w>
sta siun</w>
ditu lis</w>
l or
e d</w>
h il
on a</w>
S M</w>
6 0</w>
200 0</w>
B ul
oper asi</w>
c en
P ol
20 20</w>
lem ba
men en
c or
M y
su r</w>
M us
Pi ala</w>
t un
bata san</w>
se ku
ber n
ber arti</w>
ma s</w>
ke r</w>
7 8
D en
be la
an i
p atan</w>
o m</w>
in du
g o</w>
in ternasional</w>
G i
gi atan</w>
su l
r on
K am
o lik</w>
F or
T a
ko r</w>
A c
bi asa</w>
S ar
to koh</w>
Neg ara</w>
K en
per u
at ur</w>
ali tas</w>
das ar</w>
ce ae</w>
bu kan</w>
19 0
Ang katan</w>
u g
li m</w>
Kris ten</w>
s ungai</w>
se belah</w>
a b</w>
do n
di mulai</w>
I II</w>
H er
b on</w>
ter catat</w>
ir an</w>
Ag ung</w>
M at
j am</w>
Mu si
ar ai</w>
6 5
ti m
f ek
as u
mem bentuk</w>
meng ambil</w>
P ri
1 22
yak ni</w>
do k
it an</w>
ti si</w>
18 9
T ur
organ isasi</w>
p e</w>
Bar u</w>
ber ikut</w>
Aus tr
ker ajaan</w>
6 4
sen j
se ba
Sem en
tan ia</w>
mak anan</w>
M ad
2 30
P ur
mu la
Kat olik</w>
engg ara</w>
In i</w>
e konomi</w>
l en
ki tab</w>
S al
janj ian</w>
y u
L ag
tu buh</w>
H in
Sum atra</w>
y akan</w>
pi hak</w>
N o
bun uh</w>
memen angkan</w>
ma inan</w>
khu sus</w>
ter us</w>
men e
ga r</w>
10 0</w>
ar aan</w>
di bangun</w>
meng u
A p
ter bentuk</w>
la p
bu daya</w>
Ke tika</w>
memu lai</w>
men dapat</w>
j id</w>
ni k</w>
ung kan</w>
so sial</w>
ke t</w>
kad ang</w>
bin tang</w>
k ungan</w>
bu tu
L aut</w>
t unju
da ftar</w>
ten tu</w>
pu s</w>
ba tas</w>
1 20
mengh as
al kan</w>
sa an</w>
C or
kaw asan</w>
P us
ti s
n ologi</w>
Yun ani</w>
men ulis</w>
m at
se suatu</w>
tu san</w>
200 3</w>
amp ir</w>
Ara b</w>
l l</w>
Kar ena</w>
Ban dar</w>
menem ukan</w>
y aan</w>
Se bagai</w>
men er
le s
gan tikan</w>
permu kaan</w>
cur kan</w>
ul ang</w>
si fat</w>
ad i</w>
f ungsi</w>
Bri tania</w>
pu ti</w>
[ [</w>
200 2</w>
antar anya</w>
ati onal</w>
m at</w>
f as
menghas ilkan</w>
ang nya</w>
se banyak</w>
U dara</w>
c hi
se dangkan</w>
9 8
per c
cer ita</w>
t ina</w>
s ana</w>
ser i</w>
9 7
ai h</w>
ni lai</w>
200 1</w>
bang sa</w>
pertan dingan</w>
it y</w>
lan d</w>
um i</w>
do r
in c
pem ba
ber judul</w>
G ar
W ar
belak ang</w>
uj u</w>
m ur
su ai</w>
lay anan</w>
u a</w>
da tang</w>
tan a</w>
ik ian</w>
ir a</w>
Af ri
i ri
en am</w>
tri a</w>
ung i</w>
am anan</w>
4 5</w>
s h
aba tan</w>
D ari</w>
h ra
le y</w>
diber ikan</w>
Da erah</w>
N or
b or
li r</w>
amp u</w>
gan ti</w>
ba tkan</w>
D in
pen ulis</w>
J e
ku l</w>
Mu ham
g o
peng hargaan</w>
S ul
A d
me sin</w>
P or
war ga</w>
z aman</w>
mas alah</w>
y ol</w>
C har
der a</w>
lo kasi</w>
v ia</w>
ba l</w>
c o</w>
t inya</w>
y e
an da
in i
eng gar
de pan</w>
di n</w>
h atan</w>
ri a</w>
18 8
lu m</w>
min istr
R I</w>
diri kan</w>
jad ikan</w>
in t</w>
A S</w>
kar ak
B at
Gun ung</w>
mem be
is aran</w>
jar ingan</w>
mak in</w>
men urut</w>
jar ak</w>
I r
ba s</w>
ke hidupan</w>
J am
aw alnya</w>
a f
jal anan</w>
g em
lu kan</w>
in ter
mo der
du du
la pan</w>
pan yol</w>
or k</w>
ma c
mes kipun</w>
umu mkan</w>
at or</w>
y i</w>
pem ber
Austr alia</w>
ser ial</w>
Pen didikan</w>
h on</w>
g an</w>
bu atan</w>
ga lkan</w>
ke giatan</w>
Li ga</w>
a lam</w>
al ur</w>
R um
B ur
en sis</w>
tur unan</w>
B ad
men ik
Mes kipun</w>
ing kan</w>
se panjang</w>
la si</w>
menga takan</w>
u di</w>
il o
g el
men uju</w>
da ta</w>
ki r
ber t</w>
ri k</w>
dar i
k re
pin dah</w>
ad anya</w>
Peng hargaan</w>
m ampu</w>
y o
m it
j aw
on e</w>
on ia</w>
S te
j at
se um</w>
u ju
W e
Joh n</w>
SM A</w>
Ke l
di ba
me dia</w>
di mana</w>
ju al</w>
ing gu</w>
seluru han</w>
mem bantu</w>
bi a</w>
at uran</w>
S panyol</w>
meng ikuti</w>
K ap
c k
Lag u</w>
F i
j ah
V er
te l</w>
Ter baik</w>
po pu
ce pat</w>
ta m</w>
Kem udian</w>
kom pe
ter tentu</w>
s t</w>
la p</w>
mer aih</w>
dem ikian</w>
ok si
pu luh</w>
uk uran</w>
aki bat</w>
ber kem
ak a</w>
M aj
l ing</w>
ber tem
peny e
se suai</w>
ke seluruhan</w>
. .</w>
ber upa</w>
ru ang</w>
k ini</w>
di ta
indu stri</w>
W ak
tar an</w>
hra ga</w>
ik atan</w>
ga i
In ternasional</w>
7 6
de s
meli puti</w>
is ode</w>
ka isaran</w>
senj ata</w>
memba wa</w>
pri bad
pu tri</w>
da l</w>
il mu</w>
bu s</w>
bi j
Afri ka</w>
F o
i ah</w>
2 20
Su la
Ke uskupan</w>
g us</w>
Ke pala</w>
peny anyi</w>
hu tan</w>
g ung</w>
5 5</w>
ak tif</w>
w o
h ampir</w>
tang i</w>
en ang</w>
Ke pulauan</w>
ter se
Se jak</w>
t adi
7 0</w>
u l</w>
ker as</w>
kar an</w>
iku tnya</w>
e ti
da h
vi deo</w>
pen u
meli hat</w>
dr ama</w>
j em
199 9</w>
ger akan</w>
j o
Y ah
pem impin</w>
per tamanya</w>
men t</w>
Kar ier</w>
tu skan</w>
e lek
y ek</w>
D P
Mala y
4 7</w>
Un i</w>
anj ung</w>
h u</w>
i z
men amp
4 2</w>
P ara</w>
H en
sur at</w>
sat unya</w>
ser angan</w>
men i
ke l</w>
4 1</w>
4 4</w>
ra el</w>
S is
l on
T ek
di ka
n y
lanju tnya</w>
p ura</w>
p kan</w>
ga han</w>
B ag
es t</w>
sen i</w>
v er</w>
a ian</w>
ovi et</w>
r em
isti lah</w>
peru bahan</w>
da m</w>
4 6</w>
ga ya</w>
for mula
ay aan</w>
M or
Malay sia</w>
to h</w>
8 6
W or
ad em
P al
4 3</w>
pula si</w>
pen eli
L in
s on
m ati</w>
er s</w>
C an
Q u
tamp il</w>
sim al</w>
ch i</w>
F A</w>
me r</w>
sedi kit</w>
r adi
O n
un d
ren dah</w>
un dang</w>
tang ga</w>
R ak
5 1</w>
Kali mantan</w>
pen j
r ah
sa udara</w>
moder n</w>
o d</w>
per mainan</w>
meng em
H a
or a</w>
ke ber
tri s</w>
ban yakan</w>
dike tahui</w>
su k
men dirikan</w>
Semen tara</w>
p ak
J alur</w>
9 6
B up
ki ta</w>
mu t
5 2</w>
dari pada</w>
as li</w>
tem en</w>
S oviet</w>
si on</w>
5 3</w>
Al lah</w>
pec ahan</w>
j ek</w>
mag ni
tri bu
peng em
S ch
a ja</w>
pro duk</w>
tu do</w>
formula _
D an
t ung
A ir</w>
u ang</w>
se makin</w>
Is rael</w>
keku atan</w>
ma wi</w>
4 9</w>
isti wa</w>
sela lu</w>
par tai</w>
si an</w>
we si</w>
j am
l om
I b
r il
ditem ui</w>
ang ku
peng u
li san</w>
ben ar</w>
5 6</w>
es tiv
Be sar</w>
J alan</w>
r as
s ang</w>
2 18
c ak</w>
M ic
lin d
Ban dung</w>
Sela ma</w>
5 9</w>
kar ier</w>
menamp ilkan</w>
5 4</w>
r y
m ia</w>
re s</w>
bern ur</w>
berkem bang</w>
O li
ke ce
mo bil</w>
5 7</w>
diber i</w>
S un
pengar uh</w>
F ran
5 8</w>
mili k</w>
R es
p ang</w>
se t</w>
ling kungan</w>
8 0</w>
c al
magni tudo</w>
G re
uru an</w>
G ran
Sul tan</w>
n ov
ang ga</w>
estiv al</w>
P at
pas ar</w>
te d</w>
h y
pem u
gh t</w>
ger eja</w>
l d</w>
Pem bentukan</w>
ur i</w>
mer e
ten g</w>
" ).</w>
pu tih</w>
E x
s ari</w>
v e
mu m</w>
Ro mawi</w>
B in
g ul
ol og
Ro ma</w>
Ge or
B ro
bin tangi</w>
A da</w>
k atkan</w>
lak nya</w>
em en</w>
di k
ten tara</w>
cip takan</w>
sat uan</w>
in s
" ),</w>
p as</w>
nom or</w>
H an
vi tas</w>
ber langsung</w>
tan i</w>
an ti</w>
lu k
S hi
Sula wesi</w>
peng e
C hi
P T</w>
ban d</w>
pende k</w>
mp i
pe l
M ag
menik ah</w>
ka bupaten</w>
ber ikutnya</w>
tr adi
c ah
kel urahan</w>
keku asaan</w>
Muham mad</w>
b e</w>
ber la
j an</w>
F e
y an</w>
bela jar</w>
an ti
tah anan</w>
sen tri
0 9
ala upun</w>
S ing
L ab
an ia</w>
C en
ne r</w>
li an</w>
dis trik</w>
da k
A ran
wis ata</w>
bar an</w>
ti kus</w>
kas us</w>
tu p</w>
di sutrad
men ce
T ran
lanju tkan</w>
di adakan</w>
kompe tisi</w>
ke turunan</w>
se p</w>
din am
Pang eran</w>
f er</w>
du anya</w>
pimp in</w>
du r</w>
tadi on</w>
T am
gai mana</w>
pu tusan</w>
pem bangunan</w>
sentri sitas</w>
mening galkan</w>
w as
gam barkan</w>
ba tan</w>
bas is</w>
li kasi</w>
K un
disutrad arai</w>
eg ori</w>
mo del</w>
to de</w>
ili s</w>
T ri
Ke tua</w>
li dae</w>
an o</w>
n y</w>
mut laknya</w>
Ek sentrisitas</w>
men dukung</w>
per jalanan</w>
N o</w>
tradi sional</w>
karak ter</w>
B ata
p ang
h al
uru h</w>
i den
sa y
in formasi</w>
memu tuskan</w>
w aj
kem atian</w>
di produksi</w>
ad ministr
ger ak</w>
I l
ma r</w>
n on</w>
li kan</w>
z i
Pemerin tah</w>
B ud
memili h</w>
gar is</w>
k aki</w>
lo kal</w>
ic e</w>
Aran e
j ung</w>
T ing
S at
s u</w>
ma lam</w>
Ka isar</w>
T ar
w as</w>
a ikan</w>
par temen</w>
mac am</w>
kem bangan</w>
w a
v an</w>
la man</w>
tek nologi</w>
f t</w>
0 8
y l
ter ka
bu r</w>
Yah udi</w>
san akan</w>
pan tai</w>
D an</w>
W al
Y ang</w>
Se cara</w>
de sa
di si
tuju h</w>
A N</w>
G ro
Ti m</w>
men ar
t y
Y ork</w>
T enggara</w>
sam aan</w>
199 8</w>
j aya</w>
a annya</w>
7 5</w>
jar an</w>
b i</w>
mu la</w>
Rak yat</w>
ar ia</w>
se kali</w>
Pus at</w>
R en
ka i</w>
pribad i</w>
bu han</w>
di al</w>
Me sir</w>
on i
di pimpin</w>
ne t</w>
A h
0 1</w>
e la
ti vitas</w>
se kali
po pulasi</w>
mu s</w>
be g
terp ilih</w>
er gi</w>
B al
sen i
s as
u tamanya</w>
d angan</w>
popu ler</w>
penggun aan</w>
g as
pem ilihan</w>
A le
t anya</w>
per gi</w>
P ak
ah li</w>
pener bangan</w>
bar ang</w>
C ol
As teroid</w>
A t
at e</w>
ban d
Wil li
mem bangun</w>
Ber ikut</w>
Se buah</w>
pri mor
ti ba</w>
9 0</w>
ber akhir</w>
T em
ad ilan</w>
ti tik</w>
da li</w>
A str
N I</w>
be las</w>
primor dial</w>
ga m</w>
pe kerj
Wi layah</w>
k s</w>
dag angan</w>
tro n</w>
S tu
sem pat</w>
S tr
du s</w>
n as
J um
E m
ili tas</w>
kal a</w>
ep isode</w>
gam bar</w>
s nya</w>
L am
Sa int</w>
in di
a le
eti simal</w>
plan etisimal</w>
t urut</w>
3 29
Jen deral</w>
A di
mem bu
Per tempuran</w>
ten gahan</w>
i e</w>
6 4</w>
p on
enggar akan</w>
n ia</w>
K as
pro du
ur us</w>
he wan</w>
si tus</w>
member i</w>
i ma</w>
ta pi</w>
Al bum</w>
peny akit</w>
ter baik</w>
rak yat</w>
s akit</w>
F in
un tu
P re
22 8
C y
ar ang</w>
ne y</w>
f or</w>
ak ul
f f</w>
kelu ar</w>
lu r</w>
par ti
pan as</w>
Or ang</w>
fi si
ori tas</w>
am puan</w>
K ur
bij akan</w>
memper oleh</w>
A S
is wa</w>
E ur
bur g</w>
j ari</w>
ju araan</w>
F re
p la
r at</w>
Awar ds</w>
kon disi</w>
pro fe
22 9
ter tinggi</w>
pu ter</w>
fer ensi</w>
r o</w>
g anya</w>
b y</w>
6 5</w>
ak up</w>
ic a</w>
ber at</w>
ki r</w>
in da
en angan</w>
M em
E ri
Ke kaisaran</w>
dip akai</w>
f u
i alah</w>
A w
bun ga</w>
18 7
mer ah</w>
G am
r asa</w>
le t</w>
c om
fin al</w>
ga la</w>
ti a</w>
tan an</w>
199 0</w>
22 7
Po li
F C</w>
ri p</w>
ber diri</w>
mpi ade</w>
s hi
menc ari</w>
da an</w>
i ter</w>
ber warna</w>
j abatan</w>
sp ons</w>
dar ah</w>
v ari
mis alnya</w>
di kem
b il
s pe
6 2</w>
mem as
ol o</w>
mu dah</w>
] ]</w>
ay ahnya</w>
W in
r u</w>
meng had
men u
bis nis</w>
wak ilan</w>
F er
o to
la wan</w>
in v
ak sa</w>
ch a
Ti dak</w>
it e</w>
Ke hidupan</w>
menc akup</w>
bertem u</w>
be s
at er</w>
amp ilan</w>
ger a</w>
h er
vo lusi</w>
ber isi</w>
In tern
F ili
ti c
up aya</w>
un a</w>
E d
tr on
lis trik</w>
lesa ikan</w>
di ser
kum pu
li hat</w>
og y
ten si</w>
un it</w>
Pad ang</w>
p residen</w>
tu al</w>
di da
P au
per se
ma j
u mur</w>
w s</w>
de w
Per ser
komun ikasi</w>
ben arnya</w>
pen uh</w>
Y u
pas angan</w>
ting g
um bang</w>
s inya</w>
sekali gus</w>
Ting gi</w>
struk tur</w>
a o</w>
in o</w>
akul tas</w>
6 1</w>
Dis trik</w>
ungk inan</w>
in te
to tal</w>
band ingkan</w>
w ati</w>
mu l
per istiwa</w>
g uru</w>
B umi</w>
6 8</w>
mening katkan</w>
i ri</w>
ogy akarta</w>
po si
t ungan</w>
6 6</w>
da yaan</w>
u sa
men jal
te ori</w>
ril us</w>
a les</w>
Ag rilus</w>
S alah</w>
wak ili</w>
to p
j an
lemba ga</w>
h orm
di bentuk</w>
t ong</w>
uni tas</w>
B as
buk ti</w>
s o</w>
mem inta</w>
ni ka
kun o</w>
E s
tek s</w>
ki mia</w>
k y</w>
Per janjian</w>
le h</w>
tan aman</w>
up iter</w>
H ol
ondo n</w>
Bud d
un sur</w>
hi tam</w>
ili a</w>
le m</w>
I V</w>
kan tor</w>
Sin ga
i us</w>
us un</w>
Musi m</w>
aba ya</w>
6 3</w>
ben da</w>
er de
terka it</w>
r at
la k</w>
c u</w>
pertan ian</w>
per ingkat</w>
w n</w>
199 7</w>
h ati</w>
pe l</w>
gun ung</w>
H y
J ac
Ke dua</w>
ola k</w>
H al
6 7</w>
jat uh</w>
iden ti
E l
p ur
en t</w>
ka um</w>
ke duanya</w>
ad at</w>
o t</w>
ata an</w>
0 2</w>
di akan</w>
SM P</w>
pri a</w>
p s</w>
is tan</w>
lun curkan</w>
Da v
Ch ris
l er
T r
di angkat</w>
menar ik</w>
T ro
A da
L ondon</w>
peneli tian</w>
tr o</w>
R am
ali h</w>
ungk inkan</w>
je la
g ia</w>
men am
h ana</w>
b o</w>
as ia</w>
gen er
Al kitab</w>
H am
pro yek</w>
L ati
e v
T aman</w>
6 9</w>
f ik</w>
Y ogyakarta</w>
ab i</w>
kon tr
p angg
Un dang</w>
lem en</w>
Wor ld</w>
F estival</w>
an dia</w>
ba bak</w>
g on</w>
me tode</w>
k ak
ke adaan</w>
mem a
nov el</w>
ke bu
B il
meng umumkan</w>
So e
te in</w>
per angkat</w>
ban tuan</w>
K h
meng gantikan</w>
uru f</w>
ay at</w>
f ik
g or
bad an</w>
e c
C ity</w>
tung gal</w>
p ong
il le</w>
f ek</w>
E u
pengem bangan</w>
s tan</w>
pu h</w>
Oli mpiade</w>
Mu seum</w>
tem an</w>
T or
mem an
5 00</w>
A ir
Du a</w>
en ter
di o</w>
po hon</w>
S uku</w>
0 7
mem erin
ma y
stitu si</w>
Pa us</w>
terli hat</w>
B on
g ad
per tempuran</w>
per kembangan</w>
Wak il</w>
B ali</w>
G ol
C al
T anjung</w>
N om
o ba</w>
y angkan</w>
kem ampuan</w>
j abat</w>
si on
Bup ati</w>
tah uan</w>
u han</w>
gan tung</w>
tek nik</w>
si ko</w>
si sa</w>
T ang
ku lit</w>
Rum ah</w>
M c
beg itu</w>
g ol</w>
di ak
pi l</w>
c ul
N us
mengem bangkan</w>
g is</w>
Din asti</w>
mem er
t t</w>
mer ilis</w>
aga m</w>
20 0</w>
b ri
T NI</w>
g n
ata r</w>
el l</w>
An gg
lay ani</w>
en s</w>
Pol andia</w>
la tif</w>
198 0</w>
g er</w>
T ak
199 6</w>
be bas</w>
ba k
Perser ikatan</w>
p on</w>
ch e</w>
m al
in si
erde kaan</w>
R ad
ir us</w>
pen ing
kem ungkinan</w>
mengala hkan</w>
da i</w>
e d
ob jek</w>
di ambil</w>
dew asa</w>
se benarnya</w>
hir an</w>
p ina</w>
on o</w>
20 21</w>
P ra
o si
eg ang</w>
bo l</w>
men olak</w>
s al</w>
ken alkan</w>
uni ver
har ga</w>
kir akan</w>
ho a</w>
as t</w>
J ika</w>
p rak
di an</w>
ju ara</w>
M ay
T ai
j au</w>
terli bat</w>
S an</w>
ko lo
kon f
p ra
is tri</w>
me lanjutkan</w>
kh as</w>
ma h
K al
di bintangi</w>
di c
lay u</w>
om bang</w>
m akan</w>
3 1
Intern ational</w>
O s
b r
lo k</w>
Pro gram</w>
ta t</w>
lanju t</w>
Ke amanan</w>
mili ki</w>
f an
kese hatan</w>
mem ungkinkan</w>
se seorang</w>
sta tus</w>
Gran d</w>
ber bentuk</w>
trad isi</w>
en ergi</w>
bu k</w>
sus nya</w>
m y
Awar d</w>
kri p
em i</w>
am bi
se lanjutnya</w>
b on
dah ulu</w>
28 7
Sur abaya</w>
K aw
2 17
dar aan</w>
asi h</w>
dag ang</w>
a ceae</w>
sing el</w>
Pem ilihan</w>
Kan ada</w>
tumbu h</w>
w or
Tan ah</w>
meng iri
L an
se gera</w>
ir ing</w>
gun ungan</w>
dudu kan</w>
and ung</w>
u tan</w>
tah u</w>
ap un</w>
U mum</w>
nam anya</w>
A z
ko s
B or
pu t</w>
ang k
m o</w>
p is</w>
u angan</w>
um pang</w>
mem impin</w>
w it
l s</w>
ke bijakan</w>
ang a</w>
ser v
ga w
Ye sus</w>
be daan</w>
po r</w>
tem uan</w>
kar y
Tiong hoa</w>
0 3</w>
B un
H ari</w>
e x</w>
mi rip</w>
pro mo
ke ter
8 5</w>
de but</w>
199 5</w>
g h</w>
tu m</w>
pem ili
dikem bangkan</w>
p asi
Ban k</w>
nam en</w>
in asi</w>
Se belum</w>
Gu bernur</w>
con toh</w>
ber usaha</w>
an tar</w>
pem eran</w>
de lapan</w>
per dagangan</w>
tam bahan</w>
L a</w>
Per usahaan</w>
so si
ola hraga</w>
M ur
ki ran</w>
Sis tem</w>
Se dangkan</w>
tan da</w>
ca bang</w>
butu hkan</w>
ber usia</w>
Ti pula</w>
menyer ang</w>
F I
bang saan</w>
enter ian</w>
meng ubah</w>
h uruf</w>
khu susnya</w>
aga lus</w>
bun ya</w>
cah aya</w>
Astr agalus</w>
Jam es</w>
pen dapat</w>
L ov
da ma
per tengahan</w>
mem akan</w>
Mas jid</w>
. ,</w>
Bad an</w>
bur ung</w>
je las</w>
nas kah</w>
9 5</w>
Se bagian</w>
ber g</w>
in e
ge dung</w>
kom puter</w>
w ay</w>
ber basis</w>
ang katan</w>
duk nya</w>
ic h</w>
Pen y
an annya</w>
S au
Singa pura</w>
ga l
lek s</w>
A li
lu m
( ;</w>
f re
di jadikan</w>
do n</w>
me wakili</w>
g asi</w>
da un</w>
L em
mer asa</w>
tah ankan</w>
i j
jaw ab</w>
=" (</w>
menc oba</w>
as ai</w>
199 4</w>
nika han</w>
D r</w>
S tadion</w>
P la
ter buka</w>
se lain</w>
m isi</w>
B la
fam ilia</w>
di re
ba kar</w>
9 9</w>
Lab a</w>
dita yangkan</w>
as am</w>
penggun a</w>
V en
C as
min al</w>
em as</w>
Par is</w>
du l
asu ki</w>
min asi</w>
J i
199 2</w>
B ra
Mar ia</w>
ga gal</w>
3 25
Y upiter</w>
per dana</w>
H as
ten aga</w>
hir kan</w>
leng ka
A y
tingg ian</w>
u e</w>
desa in</w>
8 8</w>
M ac
pu a</w>
A ri
pat nya</w>
b ilan</w>
mene ta
di bandingkan</w>
ju kan</w>
pu kul</w>
ma m</w>
k isah</w>
ber tahan</w>
w ah</w>
di tan
Th e
M el
ber peran</w>
se lesa
Ber dasarkan</w>
lay ar</w>
aj aran</w>
Per tama</w>
0 5</w>
3 28
Tur ki</w>
do ku
in s</w>
ali ran</w>
ti han</w>
R eg
men ciptakan</w>
N a
F akultas</w>
ir e</w>
om b
In stitu
Me layu</w>
G or
men ang
uj i</w>
1 1
Arane ae</w>
Fili pina</w>
R atu</w>
ar is</w>
r asi</w>
meng andung</w>
Lati n</w>
pe n</w>
di sel
Por tu
K ong
S T
maj alah</w>
kem enangan</w>
ber sifat</w>
men de
g uruan</w>
A u
Res o
Willi am</w>
cata tan</w>
ya wa</w>
Tran s
kon sep</w>
O per
at us</w>
angka ian</w>
da mp
di miliki</w>
ay ah</w>
Is ti
0 4</w>
pengu asa</w>
Or gan
ab rik</w>
ber jalan</w>
di mak
199 3</w>
3 13
g lo
3 30
V al
c ing</w>
tin dakan</w>
ta ta</w>
oph yl
J aya</w>
Univer si
B eg
8 1</w>
P on
7 2</w>
tah ap</w>
min yak</w>
alis me</w>
la w
8 6</w>
m b
de wa</w>
ko lon
oper asikan</w>
j ana</w>
ci o</w>
Mus lim</w>
bo k</w>
S we
stu di</w>
pekerj aan</w>
u c
us e</w>
7 1</w>
Ke bu
le pas</w>
9 2</w>
is tik</w>
ber gerak</w>
oksi gen</w>
du t</w>
il la</w>
gr asi</w>
Pe la
kat egori</w>
T om
i tas</w>
m y</w>
ang sa</w>
din y
8 9</w>
p u</w>
um an</w>
a il
7 9</w>
is ahkan</w>
ko me
s or</w>
kom unitas</w>
s yar
n am</w>
Aus tria</w>
U s
ke empat</w>
k amp
selesa i</w>
p ac
el ang</w>
menj ela
z u
por kan</w>
dip ilih</w>
gi tal</w>
pember on
um at</w>
ag ung</w>
9 8</w>
ken daraan</w>
tang ani</w>
7 6</w>
8 2</w>
ke ka
Nom or</w>
pem bu
ar si
tribu si</w>
Ban yak</w>
7 7</w>
ta k
ala san</w>
ber ku
i o</w>
199 1</w>
0 6</w>
was ta</w>
y al</w>
stan dar</w>
M eng
ok o</w>
imp inan</w>
or o</w>
B ay
b uran</w>
k ampung</w>
12 6
F ranc
C a
an ta
ba u</w>
uj ung</w>
A N
P es
menye lesaikan</w>
h ak
P asi
mem buka</w>
vo lu
F a
or e</w>
el la</w>
as ing</w>
E r
me lar
ro n</w>
p nya</w>
ak tris</w>
197 0</w>
7 8</w>
ke tinggian</w>
8 7</w>
f es
uk kan</w>
N ag
9 6</w>
3 10
dar at</w>
I bu</w>
h o</w>
S atu</w>
ti pe</w>
menye but</w>
hu jan</w>
te lur</w>
Hin dia</w>
meng un
K ol
P in
s pesi
eli t</w>
Pa pua</w>
ta in
bi cara</w>
any e</w>
B ak
ro s
suk ses</w>
8 4</w>
menye bu
8 3</w>
194 5</w>
L ou
an si</w>
ga lan</w>
An d
di buka</w>
ma has
Reso lusi</w>
bi li
p res
kar i
ar anya</w>
7 4</w>
H ong
di s</w>
kal angan</w>
Ter dapat</w>
terse dia</w>
mema inkan</w>
7 3</w>
0 7</w>
s ch
9 3</w>
di bagi</w>
3 14
fas ilitas</w>
lek si</w>
man aj
por tasi</w>
ar e</w>
g angg
pe serta</w>
f a</w>
ka m</w>
Te luk</w>
P B
S ho
9 7</w>
ar ian</w>
g ur
amp i
Bag ian</w>
2 19
e disi</w>
menye diakan</w>
sul tanan</w>
sa ya</w>
9 1</w>
kor ban</w>
j ah</w>
pen umpang</w>
A si
Co un
po s</w>
du s
dor ong</w>
1 15
di be
Hu kum</w>
T ra
u la
1 17
p am
R D</w>
Dav id</w>
ter lalu</w>
o c
w ali</w>
up acara</w>
0 9</w>
In ter
m on</w>
l on</w>
disel enggarakan</w>
ul a</w>
bi aya</w>
22 6
D el
gan da</w>
Budd ha</w>
y ar</w>
0 8</w>
Kar ang
A T
Ke lu
c inta</w>
e jo</w>
per janjian</w>
emba tan</w>
Ro bert</w>
m ada</w>
m m</w>
M il
, "</w>
ophyl lum</w>
aj ang</w>
ar ti
b uru
sutrad ara</w>
tang gung</w>
1 16
ke da
butu han</w>
ko de</w>
o bat</w>
Kom un
ter bang</w>
Kem enterian</w>
uju k</w>
kon tro
u d</w>
men it</w>
ur kan</w>
resi f</w>
ber jumlah</w>
D on
se der
Per dana</w>
diter ima</w>
ke pad
radi o</w>
F u
kla im</w>
l la</w>
3 27
it o</w>
Sem arang</w>
ak tivitas</w>
S as
rek tur</w>
ag us</w>
9 4</w>
indi vi
Ti m
ek sp
meng ur
duk ungan</w>
ju k</w>
mas jid</w>
P sy
Char les</w>
Ki tab</w>
ser angga</w>
kela hiran</w>
h ala
mer ujuk</w>
e kor</w>
ba b</w>
K umbang</w>
ab ila</w>
f en
re bon</w>
sal uran</w>
men anda
ke banyakan</w>
3 15
meng gambarkan</w>
ti dae</w>
cal on</w>
196 0</w>
Pu tri</w>
b ung</w>
ing g
Ale x
R os
lu lus</w>
W an
ne s</w>
z i</w>
gun a</w>
Ke juaraan</w>
gener asi</w>
m inggu</w>
B atu</w>
S ri</w>
ba gaimana</w>
pe tani</w>
D r
si g
i yah</w>
ber ita</w>
kal inya</w>
Tu han</w>
mas sa</w>
s ter</w>
Bul b
el d</w>
pas ang</w>
di ikuti</w>
Bulb ophyllum</w>
W o
i um</w>
F ri
3 26
w o</w>
Car ex</w>
ber operasi</w>
is kan</w>
c as
si k
sip asi</w>
er ang</w>
on o
c el
Geor ge</w>
mahas iswa</w>
t hi
ke cu
d ur
per lu</w>
Pemerin tahan</w>
kece patan</w>
3 16
te pat</w>
um pu
C e
Te le
Le e</w>
tu lisan</w>
( ,</w>
Per tan
on y</w>
kal an</w>
profe sional</w>
b r</w>
os pong
Kel urahan</w>
ren cana</w>
f is</w>
² .</w>
uru tan</w>
na ik</w>
Jum lah</w>
r ap
ke s
tunju k</w>
j en</w>
Uni ted</w>
p o</w>
G ra
em a</w>
em ati
as h
sis wa</w>
str at
dem i</w>
ju an</w>
L ap
A li</w>
du duknya</w>
hil angan</w>
T ok
ki ra</w>
pengar uhi</w>
B re
ol i</w>
in tah</w>
12 5
w uju
ber batasan</w>
di tam
pen da
is tana</w>
tar is</w>
Br asil</w>
sek su
fek tur</w>
Kar ya</w>
ir o</w>
B os
1 10
Ab dul</w>
ter tu
menjela skan</w>
i ae</w>
U N
lak sanakan</w>
ak u
gra fi</w>
A kad
Ag ama</w>
d ra</w>
ber si
p ah
le n</w>
perc aya</w>
d ingin</w>
198 9</w>
k ilo
r ad
Mis s</w>
mem bunuh</w>
Ri ch
G al
ke butuhan</w>
n an
1 18
memper tahankan</w>
penge tahuan</w>
ter bagi</w>
f e</w>
3 17
P hi
Dem ok
e m</w>
rek aman</w>
e i</w>
c us</w>
meng adakan</w>
univer sitas</w>
ti f
ku an</w>
Universi ty</w>
i bunya</w>
S uk
j asa</w>
i on</w>
men jadikan</w>
ke tua</w>
R T</w>
wak il</w>
d asi</w>
Ke se
da s</w>
ju alan</w>
menge lu
la bor
mo tif</w>
tunju kan</w>
Th o
struk si</w>
D as
ur n
kem erdekaan</w>
meny u
kecu ali</w>
et nam</w>
mem akai</w>
Ac adem
jad ian</w>
ko man
Bin tang</w>
ad ap
Il mu</w>
De partemen</w>
2 13
195 0</w>
cho ol</w>
L ampung</w>
hen ti</w>
waj i
12 4
a iran</w>
ur usan</w>
sal ing</w>
h is
mem asuki</w>
sip alitas</w>
tur un</w>
v al
M asa</w>
Me k
di gantikan</w>
Mi cha
G rup</w>
ma u</w>
ku r</w>
B ala
U tama</w>
22 5
d ra
ke putusan</w>
H el
z im</w>
Ke p
h ara</w>
O leh</w>
p is
ki ri
per bedaan</w>
ambi gu
tr al</w>
tre n</w>
di laksanakan</w>
s to
2 15
b asan</w>
198 8</w>
den gar</w>
G a
9 4
se tempat</w>
lengka pi</w>
a f</w>
on ton</w>
ok al</w>
tar ik</w>
S tan
V ic
menga ku
3 24
ak ah</w>
war d</w>
aj ak</w>
30 0</w>
kilo meter</w>
am at</w>
t ari</w>
ter batas</w>
S ak
un d</w>
di ku
kap ai</w>
tah kan</w>
pem buatan</w>
menge tahui</w>
H ong</w>
ic k</w>
dise babkan</w>
D usun</w>
DP RD</w>
op sis</w>
ke hilangan</w>
2 10
ay u</w>
th oph
pela jari</w>
in de
er nya</w>
u ka</w>
ka bar</w>
O la
hub ungkan</w>
B C</w>
am aan</w>
Vi etnam</w>
3 20
lind ungi</w>
ar ea</w>
sp ir
dudu ki</w>
C ina</w>
22 4
ala mi</w>
Psy cho
di teta
at h
K ri
kelu ar
pimp inan</w>
be basan</w>
pen ting
kontr ak</w>
mem produksi</w>
w ira</w>
13 4
pe jabat</w>
kese mp
ra ya</w>
tain ment</w>
hi dro
si f</w>
ba lik</w>
2 16
ah i</w>
per batasan</w>
fo kus</w>
g in
C la
U r
pu tr
An ak</w>
mengelu arkan</w>
menen tukan</w>
buru k</w>
p abrik</w>
Psycho tria</w>
ail and</w>
han curkan</w>
mur id</w>
ap likasi</w>
ba i
op si</w>
dis ingkat</w>
R ah
komp leks</w>
ambigu asi</w>
inda hkan</w>
B og
d eng
ke b
pen ampilan</w>
Kom an
So u
mence tak</w>
an s</w>
per temuan</w>
thoph agus</w>
pen diri</w>
ali sis</w>
Swe dia</w>
ata upun</w>
ali for
dis ambiguasi</w>
E li
3 12
j ian</w>
per nikahan</w>
in f
z o
stu dio</w>
s ara</w>
S t</w>
ay asan</w>
Di visi</w>
Sur at</w>
se gala</w>
an us</w>
per h
Academ y</w>
fi sik</w>
su hu</w>
ma la
Tok yo</w>
de fin
Dar at</w>
be kas</w>
inc lu
por i</w>
mu su
j ungi</w>
Ti ga</w>
Par k</w>
lin e</w>
tr asi</w>
w er</w>
Dem ospong
Demospong iae</w>
K im</w>
memen uhi</w>
On thophagus</w>
z e</w>
k hi
E konomi</w>
En ter
la ku</w>
ab u</w>
kome di</w>
ali fikasi</w>
I S
ran i</w>
h am</w>
n an</w>
fu si</w>
c amp
c m</w>
28 6
diper kirakan</w>
c ol
e lis</w>
diteta pkan</w>
menyer ap</w>
ki ri</w>
me layani</w>
qu e</w>
e fek</w>
i des</w>
ka ya</w>
l inya</w>
Th ailand</w>
Sen e
Organ isasi</w>
C O
M ili
samp ing</w>
me s</w>
il u</w>
M it
pu sta
menen gah</w>
ung nya</w>
P S
F ar
b ungan</w>
D am
Micha el</w>
e u
or din
pun cak</w>
ik annya</w>
el a</w>
y p
men teri</w>
ber bahasa</w>
is a</w>
k in</w>
k anan</w>
j il</w>
N am
ko mer
lo gam</w>
h at
ak u</w>
seder hana</w>
3 23
pen em
Hong aria</w>
Lov e</w>
aw ang</w>
alifor nia</w>
il nya</w>
H il
N ep
ter an</w>
insi p</w>
te was</w>
fa atkan</w>
angg o
tek anan</w>
K ong</w>
for d</w>
g ur</w>
i i</w>
su lit</w>
kar en
kur si</w>
sem bilan</w>
tur namen</w>
A R
aj i</w>
tan nya</w>
mening kat</w>
hi t</w>
berke bangsaan</w>
as kan</w>
Ch ina</w>
ta man</w>
Ci rebon</w>
F as
W alaupun</w>
ur at</w>
] ]
S il
di has
per airan</w>
ak adem
administr atif</w>
w alaupun</w>
pe k</w>
poli tikus</w>
da tor</w>
ber ka
es ter</w>
un kan</w>
bi um</w>
meng ing
wo od</w>
ter j
mem egang</w>
Akad emi</w>
le bar</w>
m in</w>
R om
n u
th e
ki man</w>
say ap</w>
la mp
di gital</w>
W a
menghad api</w>
posi tif</w>
Se tiap</w>
lu ka</w>
mar k</w>
D es
al d</w>
ho u</w>
n uk
inclu de</w>
ha bi
kesemp atan</w>
An th
3 18
si t</w>
don g</w>
du ga</w>
Ir landia</w>
f aktor</w>
Adi pati</w>
Angg ota</w>
komp on
P h
di antaranya</w>
di ken
re aksi</w>
sebu tkan</w>
ju r</w>
as asti</w>
M ul
di um</w>
sas tra</w>
M un
2 14
ber tugas</w>
komun e</w>
i de
Ten tara</w>
D ay
C alifornia</w>
Musi c</w>
men an
ch e
Ke banyakan</w>
at ang</w>
ber fungsi</w>
y ataan</w>
Gro up</w>
is e</w>
der asi</w>
si pil</w>
198 4</w>
n u</w>
Enter tainment</w>
d ri
Gen er
P el
ranc ang</w>
mengur angi</w>
ang in</w>
fo to</w>
perc ayaan</w>
n asi
di k</w>
th a</w>
I S</w>
pin tu</w>
S amp
on ly
only include</w>
c ur</w>
K la
u men</w>
g ro
w al</w>
Pas ukan</w>
di mas
Su ci</w>
N ar
Pan tai</w>
c ar</w>
indivi du</w>
lap angan</w>
B eng
198 6</w>
tem a</w>
tang kap</w>
poli si</w>
der ita</w>
Mal uku</w>
H ulu</w>
ber umur</w>
le c
sa k</w>
I ran</w>
Ola hraga</w>
en ce</w>
N as
se si</w>
le wat</w>
pem bentukan</w>
di kiri
o t
dihas ilkan</w>
us nya</w>
N ational</w>
Ch ampi
inv es
por an</w>
penga laman</w>
p si
s wasta</w>
te l
pe s</w>
ti l</w>
Pau l</w>
mili ar</w>
pak aian</w>
y ata</w>
bang k
b ro
v el
198 5</w>
v ille</w>
ik nya</w>
Sem ua</w>
Kap al</w>
te stan</w>
terp isah</w>
Z h
i de</w>
re gi
198 7</w>
ek seku
alis asi</w>
L emba
ag resif</w>
si mp
ti r</w>
dar atan</w>
adap tasi</w>
( ),</w>
pen duduknya</w>
parti sipasi</w>
1 13
a ceh</w>
hu r</w>
y s
se mp
seksu al</w>
Per sia</w>
ad o</w>
membu atnya</w>
s or
w angi</w>
Pen duduk</w>
meli batkan</w>
usu l</w>
gun aan</w>
G ir
C u
pen jualan</w>
Y am
vari asi</w>
ing i</w>
meng er
k ra
1 14
W on
c ang</w>
pem enang</w>
sing le</w>
di rancang</w>
Pem bangunan</w>
leng kap</w>
15 4
men ur
Tho mas</w>
mem b
K I</w>
c t</w>
an e
al o
fi tur</w>
Ban jar</w>
di luncurkan</w>
S chool</w>
mem ang</w>
sah am</w>
ke uangan</w>
Mas yarakat</w>
te k</w>
M os
se u
perh atian</w>
diri an</w>
Me dan</w>
ati kan</w>
k in
an to</w>
ber hubungan</w>
b le</w>
sep ak
olog is</w>
ke amanan</w>
pening katan</w>
pan y</w>
o batan</w>
Yo u</w>
B ol
P am
di bu
pe s
Ban yu
g ang</w>
G lo
Den dro
et nis</w>
K ampung</w>
ar tinya</w>
we b</w>
13 0
sebu tan</w>
ad u</w>
Ke sultanan</w>
jur n
M ang
A la
Su per</w>
Dan au</w>
pre dator</w>
di men
Pen er
r ingan</w>
ko p</w>
kary anya</w>
cur an</w>
d ge</w>
k ris
ko n</w>
it i</w>
Isti lah</w>
c re
D or
tek tur</w>
S ang</w>
pen dukung</w>
ko pi</w>
H asil</w>
ke ba
hi jau</w>
ber kata</w>
per tunjukan</w>
ung gu</w>
i da</w>
horm atan</w>
di sebutkan</w>
be s</w>
dus un</w>
ci ri</w>
" "</w>
b ila</w>
n ar
ad opsi</w>
Kelu arga</w>
Y er
to l</w>
uk tur</w>
di lihat</w>
jur it</w>
per wakilan</w>
meng anggap</w>
sen sus</w>
T al
ju ang</w>
U E
am kan</w>
cen der
Hu bungan</w>
di ubah</w>
di e</w>
Hin du</w>
hu ku
bu tan</w>
konf lik</w>
a se
si r
istr inya</w>
m ik
R us
e ter</w>
Ker eta</w>
bu an</w>
W is
di umumkan</w>
pe kerja</w>
A M
ba l
menc ata
c y</w>
pan dang</w>
mele wati</w>
produ ser</w>
mbu lkan</w>
Sene cio</w>
mo tor</w>
San to</w>
nom inasi</w>
M ong
198 2</w>
Oper asi</w>
P os
kat nya</w>
hi mp
Sum ber</w>
L ak
gel ombang</w>
bil angan</w>
may oritas</w>
meng ung
di fusi</w>
J ar
V I</w>
em bang</w>
kri tik</w>
su p
Dendro bium</w>
P ic
di ra
bun yi</w>
se jar
ic an</w>
menem pati</w>
Ah mad</w>
Me dia</w>
pe san</w>
ter buat</w>
kari ernya</w>
Ban jar
la kukan</w>
Hen ry</w>
ing ton</w>
at ur
ak annya</w>
c ap
L eg
kumpu lan</w>
Se kre
b ol
L ang
I m
s ter
be k</w>
ac k</w>
U S
m ole
wis s</w>
k alah</w>
on i</w>
lin tas</w>
un tungan</w>
ar tis</w>
ing atan</w>
ag o</w>
diba wa</w>
keluar ganya</w>
kam ah</w>
sa wan</w>
I P
th er</w>
komer sial</w>
at om</w>
men aw
ke li
O ri
lan tik</w>
om in
gab ungan</w>
Mal ang</w>
pangg ung</w>
L or
tor an</w>
ko men
at ori
la mnya</w>
li ga</w>
sat elit</w>
ber henti</w>
T ap
Par i
un nya</w>
ke pem
por t</w>
hala man</w>
v okal</w>
er o
w u</w>
s ho
v i</w>
b ara</w>
h annya</w>
dag ing</w>
ka isar</w>
B uku</w>
spir asi</w>
per wira</w>
si tu
A ki
at o</w>
ce tak</w>
damp ak</w>
per tahanan</w>
ag e</w>
ar us</w>
c y
mak anannya</w>
di pu
keb unan</w>
sen yawa</w>
P un
pan dangan</w>
ku li
Us kup</w>
re jo</w>
25 0
G ad
y li
so ci
men ang</w>
gad is</w>
1 12
us kan</w>
N az
26 0
K os
Is tana</w>
ju angan</w>
lun ak</w>
j aba
ag en</w>
L aw
membe li</w>
E p
ti da
a be
ter tua</w>
P res
S wiss</w>
sek it
Se l
sek tor</w>
diper lukan</w>
pub li
menj aga</w>
berla ku</w>
menyebu tkan</w>
lo r</w>
la poran</w>
ne s
198 3</w>
me kan
Pem bagian</w>
angg il</w>
asi tas</w>
menga ki
Lemba ga</w>
ke n</w>
Ap ol
ser upa</w>
4 00</w>
K P
be li
ri ch</w>
kad e</w>
. ..</w>
pu lang</w>
lind ungan</w>
tern yata</w>
H on
N A</w>
re latif</w>
W at
L atar</w>
musu h</w>
Mic ro
ber pori</w>
mengu asai</w>
dok ter</w>
FI FA</w>
mu seum</w>
Kom isi</w>
lom ba</w>
L ing
mengaki batkan</w>
S D
d ang
Com pany</w>
camp uran</w>
197 9</w>
R an
mun i
pemberon takan</w>
B is
L y
an aknya</w>
K B
hil ang</w>
A bu</w>
e fek
se hari</w>
kamp anye</w>
Tek nik</w>
x i
any ikan</w>
ber samaan</w>
eg ara</w>
V e
a ch
berka itan</w>
es s</w>
al u</w>
co m</w>
7 5
Tai wan</w>
i sikan</w>
y e</w>
meng in
t eng
li um</w>
ke percayaan</w>
di lengkapi</w>
amb i</w>
e tron</w>
pe lak
bu lu</w>
pesi sir</w>
mer i
han es</w>
f ak
mat emati
G em
L ama</w>
pela buhan</w>
ud din</w>
198 1</w>
S ab
mener bitkan</w>
se tengah</w>
di operasikan</w>
dr al</w>
per tumbuhan</w>
I mp
Ib rani</w>
C ap
Ke las</w>
la hnya</w>
kon ser</w>
ins ting</w>
Amer ican</w>
to ko</w>
op a</w>
t t
amp ong</w>
an im
W ali</w>
se puluh</w>
sa ud
d kan</w>
bun uhan</w>
y s</w>
dika takan</w>
di jual</w>
W es
m asi</w>
ber agam</w>
menjal ankan</w>
mem butuhkan</w>
Bog or</w>
Sun da</w>
terse bar</w>
PB B</w>
197 8</w>
z at</w>
ber jarak</w>
su dut</w>
la kaan</w>
pusta kaan</w>
at annya</w>
memerin tah</w>
p ol
as e</w>
men duduki</w>
ar t</w>
bi ru</w>
ber e
an dang</w>
di sa
3 22
hak im</w>
dama ian</w>
v is
N ic
And re
aw ar
kebu dayaan</w>
Pre fektur</w>
sela m
Asi lidae</w>
s kor</w>
v an
ar y</w>
ra s</w>
I N
angg aran</w>
peny el
j ati</w>
Das ar</w>
ata l</w>
C ata
e y</w>
Y ayasan</w>
si us</w>
ra m</w>
My ce
b re
li p
ab iskan</w>
s ini</w>
hi tung</w>
angku tan</w>
w ar</w>
ri tual</w>
tin dak</w>
do l
Maj elis</w>
K ata</w>
hi m</w>
men dorong</w>
an alisis</w>
mem pelajari</w>
ben tu
ma ju</w>
ber ukuran</w>
UE FA</w>
A tas</w>
ku da</w>
L i</w>
Mek siko</w>
J on
B us
S ay
per e
at ri
per guruan</w>
seba gaimana</w>
ur t</w>
mem o
ala tan</w>
Kep ler</w>
menaw arkan</w>
it kan</w>
t unya</w>
di tunjuk</w>
meng atur</w>
L en
Pas ar</w>
m s</w>
v in</w>
yak ini</w>
ban k</w>
ten a</w>
di har
at o
28 0
ap akah</w>
C am
Ri au</w>
di ma
pe gunungan</w>
2 12
V o
diny atakan</w>
ap abila</w>
per intah</w>
Eu gen
luk is</w>
be si</w>
ad ari</w>
kompon en</w>
ke ker
Rad en</w>
C A
mengiri m</w>
Pe ter</w>
tamp ak</w>
ba i</w>
la hkan</w>
ta kh
ter jad
p ag
mela k
kun ing</w>
i man</w>
" ;</w>
g et</w>
pen onton</w>
; /</w>
ondo k</w>
bo m</w>
X i
L es
Ge dung</w>
Rich ard</w>
a udi
elek tron
sim bol</w>
lan d
hidu pnya</w>
peny i
R adi
Ch o
me dali</w>
mas kapai</w>
j er
pra jurit</w>
so lusi</w>
J an
jen deral</w>
c ia</w>
ak ar</w>
pr insip</w>
melar ikan</w>
Bu kit</w>
mi l</w>
fek si</w>
15 0
M y</w>
e f</w>
mere but</w>
de partemen</w>
7 4
I X</w>
la me
pen g</w>
ab an</w>
197 5</w>
Ban ten</w>
B ap
C inta</w>
) ;</w>
ba an</w>
Pri x</w>
di le
ba y
L om
Ban dara</w>
bu l</w>
as sar</w>
ur i
P and
penj ara</w>
se luas</w>
per sen</w>
Ser i</w>
Kan tor</w>
ati annya</w>
le g
Pu tra</w>
ke jadian</w>
tar ian</w>
S ko
mak na</w>
B omb
keber adaan</w>
Per si
u al</w>
kap asitas</w>
e us</w>
ber bicara</w>
an ut</w>
Den mark</w>
Tim or</w>
ti c</w>
s un
Mu sik</w>
K i</w>
li e</w>
25 9
di am
p ilihan</w>
luk isan</w>
administr asi</w>
S ah
di ten
men tal</w>
huku man</w>
Tek nologi</w>
meni ka
ad ik</w>
h in
sus un</w>
Te tapi</w>
w ad
ra an</w>
krip si</w>
K ad
196 5</w>
A P
di dasarkan</w>
h ulu</w>
di visi</w>
pemili k</w>
di dukung</w>
Kong res</w>
ben teng</w>
su d</w>
lu san</w>
v el</w>
men jual</w>
P lan
menjal ani</w>
ber partisipasi</w>
U p
ni f
atori um</w>
Per i
meny el
a le</w>
al l</w>
kla sik</w>
meni mbulkan</w>
Institu t</w>
k si</w>
be t</w>
muni sipalitas</w>
po tensi</w>
lan tai</w>
sekit arnya</w>
197 6</w>
melak sanakan</w>
B atas</w>
w eg
su ka</w>
angku t</w>
A lek
ke lima</w>
i g
mencata t</w>
sa i</w>
pen den</w>
lang kah</w>
i c</w>
bili tas</w>
il mu
anj ing</w>
kap kan</w>
Nus a</w>
H or
te patnya</w>
er n</w>
hi s</w>
J a
h em
do minasi</w>
kam i</w>
Jo sep
A M</w>
pe layanan</w>
p apan</w>
Win do
ik lim</w>
ka u</w>
dikiri m</w>
anu ger
o a</w>
tem ba
So ci
per aw
meng hubungkan</w>
can akan</w>
B ir
pun ya</w>
jar ang</w>
j a
menga jar</w>
sar ana</w>
e x
m ini</w>
semu anya</w>
pu taran</w>
disi arkan</w>
M erah</w>
mi r</w>
Bomb yli
di ju
mu s
R aj
ti pula</w>
ba lapan</w>
ber tanggung</w>
u da</w>
pem ak
san aan</w>
p ola</w>
tu lang</w>
Per wakilan</w>
per min
S pe
ny ata</w>
t z</w>
la tar</w>
L ep
T ak</w>
J os
H an</w>
u el</w>
pen jela
ale k</w>
Kese hatan</w>
eg araan</w>
me lindungi</w>
de wan</w>
Se lanjutnya</w>
% .</w>
o me
lu t</w>
trans portasi</w>
diper kenalkan</w>
8 4
di gambarkan</w>
Ger akan</w>
og o</w>
tuju i</w>
n g</w>
di tangkap</w>
ok asi</w>
mengaku i</w>
s ak
tem pur</w>
ik h</w>
promo sikan</w>
Lou is</w>
du lu</w>
mence gah</w>
tu anya</w>
re si</w>
lang it</w>
A th
sa fat</w>
penting an</w>
da taran</w>
di am</w>
mem baw
mer ek</w>
tida knya</w>
tern al</w>
fik si</w>
P ag
lap isan</w>
ro ck</w>
de l
me dan</w>
Bel gia</w>
Ke putusan</w>
p ak</w>
arti kel</w>
un jung</w>
196 8</w>
penu hnya</w>
E S
A lam</w>
w in</w>
T in
ke pulauan</w>
li knya</w>
n ing</w>
po p</w>
197 4</w>
el emen</w>
ke c
ik al</w>
In jil</w>
Bul an</w>
197 3</w>
Kel ompok</w>
identi fikasi</w>
pu isi</w>
g on
as ama</w>
Sen i</w>
ba d</w>
v irus</w>
en gah</w>
S ala
ven si</w>
U S</w>
197 7</w>
ko l</w>
bu kit</w>
15 0</w>
J ay
olo s</w>
D ani
ke uskupan</w>
d ungan</w>
I P</w>
197 2</w>
aw ak</w>
bang sawan</w>
kla si
ru te</w>
kan lah</w>
Pat ri
prak tik</w>
bo ard</w>
wa fat</w>
pe dagang</w>
Mar tin</w>
su ci</w>
L is
ri lis</w>
Windo ws</w>
An ti
ili r</w>
S car
r angka</w>
w e</w>
P ala
kepem impinan</w>
eg oro</w>
s kala</w>
Tro ya</w>
h or
ak ses</w>
aw i</w>
Me la
Kom ite</w>
lu e</w>
Apol lo</w>
h ri
tor y</w>
om an</w>
196 7</w>
bur u</w>
peny er
i d
ku il</w>
Si mp
in donesia</w>
pro tein</w>
jah atan</w>
karen akan</w>
ke su
C ri
tu l</w>
Le t
sem inggu</w>
mengun jungi</w>
takh ta</w>
pem i
di t</w>
pe da</w>
tam u</w>
manaj emen</w>
i la
sig nif
K ro
ber se
lanju tan</w>
se penuhnya</w>
Con toh</w>
s and
Pa les
mo di
jem ahan</w>
al ang</w>
glo bal</w>
ber pendapat</w>
ini lah</w>
ang annya</w>
mengh abiskan</w>
h luk</w>
kon struksi</w>
ditem patkan</w>
ter i
f on
t landia</w>
Ser bia</w>
Ber sama</w>
Mak a</w>
S ha
Mili ter</w>
dinam akan</w>
ku alitas</w>
24 9
A cara</w>
ban ding</w>
signif ikan</w>
in ti</w>
co k</w>
sen ian</w>
U ts
Yo hanes</w>
per alatan</w>
am o
N ap
An ge
is nya</w>
menga cu</w>
Se belu
Je an</w>
pem bunuhan</w>
Bu daya</w>
I T
L os</w>
196 9</w>
mak am</w>
ga g
se men</w>
F ir
ter s</w>
Pem ber
gaw ai</w>
l ori
li p</w>
Sebelu mnya</w>
on an</w>
diper c
S i</w>
W ah
Re cor
w aw
re kan</w>
W hi
T empat</w>
peri laku</w>
rem aja</w>
V ol
di su
din ding</w>
194 8</w>
Ak hirnya</w>
Cy per
194 2</w>
S tar
ung gu
meng umpu
t to</w>
doku men</w>
da lamnya</w>
ta l
n en
Mak assar</w>
b ung
tur e</w>
L it
O b
peng en
ta ku
z ona</w>
diak ui</w>
te pi</w>
dima inkan</w>
po in</w>
res m
197 1</w>
pat ung</w>
mun dur</w>
o lah</w>
meng hancurkan</w>
se mi
usa lem</w>
su l</w>
Kris tus</w>
in dah</w>
o do
o ki</w>
U kra
bah aya</w>
putr anya</w>
as inya</w>
En g
mengh in
M am
s ki</w>
pemba lap</w>
. )</w>
Pales tina</w>
196 3</w>
i es</w>
mi grasi</w>
mar kas</w>
situ asi</w>
dan au</w>
ap apun</w>
ik sa</w>
kar bon</w>
du h</w>
i tu
or an</w>
ne l</w>
B aba
kon tes</w>
dok s</w>
L um
ke pentingan</w>
Mo ham
Be li
had ir</w>
o li
D ra
t ad
olo k</w>
ah u</w>
anim asi</w>
f an</w>
ogra fis</w>
gu bernur</w>
di kel
O ne</w>
P E
Fin al</w>
mengumpu lkan</w>
H ingga</w>
am inya</w>
196 6</w>
meneta pkan</w>
pem e
for m</w>
nuk lir</w>
per son
il l</w>
v en</w>
r in
dimas ukkan</w>
ke ag
menanda tangani</w>
Kun o</w>
kon sen
m ad
di pe
sing kat</w>
Josep h</w>
lo g
efek tif</w>
T ep
ari o</w>
eri takan</w>
pem be
as pek</w>
In du
D er
cer a</w>
il y</w>
om e</w>
le k</w>
kelu arkan</w>
ne k
S to
Jen is</w>
diten tukan</w>
se pu
un ik</w>
par lemen</w>
to ph
spe k
An ton
permin taan</w>
S tre
bu tnya</w>
S or
be serta</w>
bi o
pem er
kece lakaan</w>
V ir
Vi deo</w>
F lor
I D</w>
P P
K in
i f</w>
t enggara</w>
Bah kan</w>
te ater</w>
o v</w>
gen e
sa w
hub ung</w>
tah unan</w>
Dem ografi</w>
Sko tlandia</w>
ma tik</w>
Ar gen
as hi</w>
di tamp
ke sa
S tar</w>
ben dera</w>
de kade</w>
25 8
S up
196 2</w>
lay an</w>
seba b</w>
pern yataan</w>
lis asi</w>
Kon stan
pela jaran</w>
S ang
ol d</w>
194 9</w>
ac a</w>
mole kul</w>
Lu ar</w>
meng klaim</w>
o kan</w>
meng angkat</w>
dem ok
uj ian</w>
an tena</w>
196 4</w>
w ay
c ti
me lan
Mah kamah</w>
war gan
Sekre taris</w>
B ab
la ta</w>
uk annya</w>
23 7
it ra</w>
ta yang</w>
mem ben
Se orang</w>
Ab dul
l ong
ku l
berku asa</w>
orm al</w>
di keluarkan</w>
ah asa</w>
cender ung</w>
Pak istan</w>
j angka</w>
per aturan</w>
pas ti</w>
Qu e
kem atiannya</w>
ing inan</w>
lo t</w>
Ukra ina</w>
ku cing</w>
Pan as</w>
men a</w>
or nya</w>
ah ami</w>
h uni</w>
da likan</w>
to hnya</w>
Beg onia</w>
19 30</w>
pemu da</w>
H aw
S ali
le gen
Si do
bo t</w>
D e</w>
C ur
Kat egori</w>
194 0</w>
ek tor</w>
te sis</w>
terjad inya</w>
v on</w>
menika hi</w>
aj ar</w>
Mic onia</w>
K han</w>
aj ah</w>
elektron ik</w>
ban dar</w>
te g
B est</w>
lemba p</w>
h e</w>
Joh n
dinam ai</w>
la bel</w>
U l
ken dali</w>
kolo gi</w>
N u
n it
Man ch
gab ungkan</w>
DP R</w>
d t</w>
ko p
Pro ses</w>
memerin tahkan</w>
S us
K T
Re volusi</w>
h ai</w>
T re
z o</w>
an der</w>
ke jahatan</w>
os hi
mem bi
D ur
H is
V il
seni man</w>
ling i</w>
ing s</w>
L e</w>
f la
ci ta</w>
an t</w>
to doks</w>
penda patan</w>
as linya</w>
p ole
has ilan</w>
ber kompetisi</w>
per kebunan</w>
Pasi fik</w>
L alu</w>
ko leksi</w>
Mu ara</w>
fer a</w>
N g
peng adilan</w>
din asti</w>
di ciptakan</w>
on egoro</w>
Aw al</w>
s ad
Coun ty</w>
j angan</w>
30 0
B ola</w>
A kan</w>
perse gi</w>
keti dak
al tern
har jo</w>
tro pis</w>
As soci
di ren
ac h</w>
jal a</w>
M an</w>
Pro testan</w>
h el
M ik
P D
ter banyak</w>
ku alifikasi</w>
anc am</w>
r us
m bu</w>
per si
24 8
ber pengaruh</w>
ka wan</w>
pela tihan</w>
ay am</w>
mela inkan</w>
menc eritakan</w>
m adi
i bad
du m</w>
ba wa</w>
ar mada</w>
jan tung</w>
in feksi</w>
Mes ki</w>
ber tujuan</w>
es e</w>
ay akan</w>
Sh in
ali n</w>
sum si</w>
Par lemen</w>
b oleh</w>
jem ahkan</w>
N y
himp unan</w>
196 1</w>
si l</w>
ap ar
S lo
di had
tis tik</w>
ka lau</w>
f ah</w>
gag asan</w>
inde penden</w>
iz inkan</w>
Y ou
mak hluk</w>
Ku dus</w>
weg ia</w>
peng er
ke untungan</w>
ung gul
ker tas</w>
am er
A I
me lin
Yer usalem</w>
tu n</w>
ak sara</w>
k asih</w>
diper oleh</w>
arsi tektur</w>
Portu gis</w>
sin etron</w>
H ad
ku lu</w>
Di rektur</w>
se macam</w>
per lindungan</w>
Mar i
H ak</w>
S ci
se san</w>
fes or</w>
ter gantung</w>
ku h</w>
volu me</w>
mela hirkan</w>
per lu
C in
Men engah</w>
Eugen ia</w>
P S</w>
Ir ak</w>
at u
pe le
ch us</w>
sen ga
an ce</w>
ber lokasi</w>
dip indahkan</w>
menye lam
tur es</w>
N abi</w>
j embatan</w>
Per u
ly wood</w>
cip ta</w>
k ang</w>
me luncurkan</w>
usu lkan</w>
lin es</w>
Har ry</w>
Kebu dayaan</w>
di karenakan</w>
os o
194 6</w>
De wa</w>
rum put</w>
h er</w>
meny em
K ir
ga tif</w>
ma an</w>
di ting
ke p
memper kenalkan</w>
osi asi</w>
e gi</w>
us kup</w>
da y</w>
i mam</w>
Per se
ac e</w>
per ingatan</w>
sam bil</w>
di u
Kon tes</w>
ar am</w>
eg an</w>
gem ar</w>
keag amaan</w>
su aminya</w>
ditamp ilkan</w>
el ola</w>
N ur
25 7
Cor por
mengh il
gol ongan</w>
x ia</w>
D ou
ta war
ker ing</w>
Ku ala</w>
ek str
at h</w>
Ber lin</w>
K ab
shi p</w>
re n</w>
mem bah
N an
H ali
menen tang</w>
Argen tina</w>
angk asa</w>
ba tnya</w>
9 5
195 9</w>
g men</w>
Se ku
om o
L ay
S aw
B am
W ash
M P
ba ikan</w>
ker to</w>
in duk</w>
K hu
w ell</w>
sar jana</w>
s tri
pre sen
pas kan</w>
De wi</w>
ij ing</w>
t z
kon om
dila hirkan</w>
Col le
San ta</w>
A i
e z</w>
se mi</w>
Sin opsis</w>
pu k</w>
angg ung</w>
Bup res
ar ki</w>
D re
k is</w>
form al</w>
bi r</w>
g ampong</w>
So sial</w>
Portu gal</w>
en der</w>
s te
ban dara</w>
bas kan</w>
Ed ward</w>
ba yi</w>
Peng gunaan</w>
R em
ag ue</w>
Sep ak</w>
T y
ilmu wan</w>
wargan egaraan</w>
Ange les</w>
195 8</w>
25 5
konsen trasi</w>
s y</w>
Nor wegia</w>
s asa</w>
ta sikan</w>
b ing</w>
v es
pad ang</w>
R ho
se hi</w>
di bawah</w>
pad at</w>
Uts man
o po
M e</w>
e ty</w>
w ayat</w>
ma tis</w>
on ta
Pe sawat</w>
K amp
N ya</w>
Nus antara</w>
Scar aba
di bunuh</w>
Ven e
musi si</w>
Sur iah</w>
S co
lu bang</w>
tele pon</w>
Cen ter</w>
n as</w>
nek tar</w>
wit h</w>
A po
Kaw asan</w>
O S</w>
B A</w>
c on</w>
I mam</w>
j aan</w>
aba h</w>
se s
Man usia</w>
mengung kapkan</w>
P ah
da han</w>
Ver si</w>
Man da
menghin dari</w>
25 6
buk tikan</w>
p le</w>
me wa</w>
peng usaha</w>
syar at</w>
di ganti</w>
mela porkan</w>
khi ri</w>
H it
p lat</w>
aga k</w>
sejar awan</w>
meng und
3 19
ch er</w>
G on
kerj asama</w>
V II</w>
Bi ografi</w>
30 7
tamp aknya</w>
le lu
s tadion</w>
1 19
Mu da</w>
ud ra</w>
memu at</w>
e o
k ena</w>
lar va</w>
) "</w>
en d</w>
Me tro</w>
se tidaknya</w>
24 4
form at</w>
c in
A ku</w>
gangg uan</w>
dok teran</w>
cam an</w>
ik lan</w>
30 8
kuli ah</w>
senga ja</w>
ru angan</w>
b li
su m</w>
memba ca</w>
ber tindak</w>
menga khiri</w>
B ac
mengh en
m 2</w>
Gen us</w>
ka pan</w>
O x
S he
194 7</w>
t w
ko ordin
de ka</w>
ek si</w>
meng am
o is</w>
tu h</w>
Jo han
dila porkan</w>
P ran
T ingkat</w>
li m
par i
Aw alnya</w>
meneta p</w>
le t
Be ijing</w>
tor itas</w>
ke ten
eg is</w>
meng har
bak teri</w>
identi tas</w>
ko labor
aj at</w>
matemati ka</w>
os ari</w>
tor ia</w>
mar ga</w>
k s
co un
B S</w>
to s</w>
Wash ington</w>
p ir
u lar</w>
Ma tahari</w>
r angkaian</w>
c ri
la ga</w>
6 00</w>
at on</w>
tan k</w>
man n</w>
be lan
ke kaisaran</w>
Stu di</w>
ho tel</w>
pa gi</w>
Indu stri</w>
ó n</w>
n or
di alek</w>
ge lap</w>
Dani el</w>
27 9
re li
kun ci</w>
15 5
olo g</w>
re g
lis me</w>
Sou th</w>
ber ganti</w>
ovi sion</w>
fa at</w>
do r</w>
K ing</w>
o d
lar ang</w>
si han</w>
E ast</w>
T el
pen c
menam bahkan</w>
b lo
pem as
pole n</w>
p ajak</w>
se jenis</w>
si apa</w>
ber telur</w>
bi tan</w>
ta san</w>
poli sian</w>
Or todoks</w>
pe dia</w>
Si tus</w>
di duga</w>
fisi ka</w>
kontro l</w>
om y
Tep hri
j ir</w>
sosi asi</w>
Radi o</w>
c al</w>
in ten
per annya</w>
pad i</w>
Ho tel</w>
meny imp
menem patkan</w>
altern atif</w>
Ch e
Pe gunungan</w>
keker asan</w>
" (</w>
doku men
Pu tih</w>
lam bang</w>
l olos</w>
Bombyli idae</w>
hi buran</w>
pasi r</w>
k ati</w>
k lar
SM K</w>
se y</w>
anc ang</w>
di pengaruhi</w>
don ia</w>
as tron
enggar aan</w>
di anuger
ung annya</w>
ben ua</w>
Bat ang</w>
dr am
Pau lus</w>
Ne w
er o</w>
as iswa</w>
lu lusan</w>
S A
u lama</w>
S yar
fi eld</w>
Ge ografi</w>
R as
e dral</w>
12 0</w>
gen re</w>
d ney</w>
ne gatif</w>
din al</w>
do a</w>
G il
w ah
inter net</w>
se tahun</w>
bu n</w>
c ad
bang kit</w>
K A</w>
peng ganti</w>
Su b
my za</w>
25 0</w>
cam pur</w>
par uh</w>
n ah</w>
pem an
C D</w>
Cata tan</w>
ma is
and ra</w>
mengund urkan</w>
gu a</w>
Bang unan</w>
saud aranya</w>
e fisi
law anan</w>
Pro du
ma teri</w>
lem en
Pen eli
menyelam atkan</w>
Peng adilan</w>
ton e</w>
kri tikus</w>
ak tiv
pen e
p le
D at
co cok</w>
ke juaraan</w>
ov asi</w>
elek tron</w>
A ug
y ur</w>
ati ens</w>
Ad ministr
C E
per juangan</w>
ov er
is h</w>
3 56
kon tribusi</w>
c ak
Corpor ation</w>
gu gur</w>
u hnya</w>
G uru</w>
i sisi</w>
tu m
og le</w>
F 1</w>
d ll</w>
J ati
Imp atiens</w>
sa ing</w>
re gu
men ara</w>
am s</w>
gul a</w>
w ara</w>
ter istik</w>
j az
beli au</w>
li tan</w>
sepak atan</w>
Komun is</w>
m bangkan</w>
Pen ga
gar apan</w>
19 20</w>
untu t</w>
s eng
il d</w>
p ah</w>
meny adari</w>
oksi da</w>
In do
di kan</w>
ser angkaian</w>
os ok</w>
sela mat</w>
in da</w>
V an</w>
Si m
sa pi</w>
Naz i</w>
% ,</w>
men derita</w>
p angkat</w>
Pro duksi</w>
organ ik</w>
bentu knya</w>
seu do
E ar
k asikan</w>
Dr s</w>
ch a</w>
S E
tr us</w>
T A</w>
bupat i</w>
Br un
Colle ge</w>
195 7</w>
F al
op e</w>
G us
S ir
in spirasi</w>
G ab
pat en</w>
o sa</w>
gi gi</w>
Abdul lah</w>
Fas ilitas</w>
Z a
Peng em
any ar</w>
h ar</w>
per ayaan</w>
H anya</w>
ter kadang</w>
S I</w>
n ormal</w>
ba ll</w>
kar no</w>
H ilir</w>
ma z
ani me</w>
s k
Su ka
tic s</w>
di min
ang e</w>
lori da</w>
ber lanjut</w>
pu l
F aba
M A</w>
si um</w>
H ak
195 6</w>
diperc aya</w>
is latif</w>
uni or</w>
re l</w>
menye bar</w>
gam e</w>
ro m</w>
Bupres tidae</w>
unggul an</w>
ly on</w>
Z e
ay an</w>
C re
be l
kad ar</w>
á n</w>
ta snya</w>
wi jaya</w>
Em pat</w>
M a</w>
24 7
ti dur</w>
har ian</w>
8 5
ro da</w>
pe kan</w>
Ch an
ff ice</w>
menga jukan</w>
tam bah</w>
menyer ahkan</w>
ai l</w>
Tang erang</w>
terj un</w>
fil safat</w>
194 4</w>
sur ya</w>
C C
gas kan</w>
Alex ander</w>
la c
E l</w>
Li ma</w>
Le ague</w>
S har
mul ti
pen dudukan</w>
gangg u</w>
Mat aram</w>
Z aman</w>
e di
meri am</w>
V in
pem buat</w>
K ul
S ong</w>
hen dak</w>
ic u</w>
ak kan</w>
lay ahnya</w>
men ia</w>
sem angat</w>
e idae</w>
Tu juan</w>
g ri
meman faatkan</w>
tor at</w>
ta w
B uk
j ong</w>
A sa
Per tahanan</w>
Ser ial</w>
kom bin
p asal</w>
kem uka</w>
em o
re kor</w>
se mes
pu as</w>
kam ar</w>
j in</w>
lame la</w>
P ondok</w>
Wan ita</w>
A L</w>
A sosiasi</w>
K y
d din</w>
se tu
il annya</w>
Pal embang</w>
kam pus</w>
bi h</w>
Se landia</w>
ibad ah</w>
I n</w>
pi kir</w>
S ol
ki m</w>
S ri
lem ah</w>
G el
K re
Scaraba eidae</w>
Mis alnya</w>
i lah</w>
M as</w>
bu kanlah</w>
ilo t</w>
me dis</w>
iz in</w>
S akit</w>
rah asia</w>
M ali
kar tu</w>
Pro f</w>
Kon stitusi</w>
pem ilu</w>
Ch ry
L ad
A D
ga k</w>
fan teri</w>
mp an</w>
Sur akarta</w>
dika lahkan</w>
ci al</w>
as on</w>
sin ar</w>
lo s</w>
k lu
Demok rat</w>
I B</w>
T api</w>
ber gantung</w>
lin dung</w>
pela jar</w>
lam bat</w>
27 0
itu lah</w>
menang kap</w>
rak sasa</w>
ka bel</w>
29 9
m anga</w>
S mit
pemba wa</w>
o ff</w>
pe gawai</w>
jah at</w>
har apan</w>
menga lir</w>
k ing</w>
ter kemuka</w>
pro se
er e</w>
kom posisi</w>
J embatan</w>
W ol
kepad atan</w>
wuju d</w>
S un</w>
pe lun
min uman</w>
Eur ovision</w>
bes aran</w>
li us</w>
peraw atan</w>
d ung
tu lis</w>
us t</w>
a at</w>
seni or</w>
jur usan</w>
J adi</w>
menyel enggarakan</w>
had iah</w>
B ai
b uruh</w>
ka lis</w>
sion er</w>
al um
ra him</w>
pela tih</w>
Day ak</w>
man apun</w>
ditu tup</w>
C amp
inter aksi</w>
Pen ye
e w</w>
ov er</w>
vi sion</w>
onta lo</w>
ah a</w>
ter s
koman dan</w>
sec tion</w>
ko motif</w>
195 5</w>
is u</w>
30 9
ditam bah</w>
kolon ial</w>
ba ja</w>
Ro yal</w>
ra c
ti p</w>
gen g</w>
pen siun</w>
mala ya</w>
em ent</w>
Go ogle</w>
18 0
Ben tuk</w>
Sy s
An da</w>
Ada pun</w>
si aran</w>
seku tu</w>
o h</w>
n g
Da ya</w>
so ft</w>
ala u</w>
Inter net</w>
setu ju</w>
organ isme</w>
meny am
194 1</w>
ter ial</w>
ar ke
mais uri</w>
ti us</w>
tah ta</w>
Ma sehi</w>
B lo
ga inya</w>
meny i
men un
tem annya</w>
Mo del</w>
dihar apkan</w>
3 40
gem pa</w>
s ky</w>
fer en
/ &</w>
s pi
ba lap</w>
promo si</w>
b ra</w>
di atur</w>
Pan jang</w>
ber pindah</w>
ku it</w>
Samp ai</w>
ba kat</w>
j ikan</w>
Te x
g es</w>
mem bintangi</w>
Sal via</w>
disi mpan</w>
pres tasi</w>
se peda</w>
Koman do</w>
la via</w>
had apan</w>
pec ah</w>
kela pa</w>
Ke la
16 0
tr e</w>
ata p</w>
di ar
ke ben
y ama</w>
8 00</w>
r asi
Dis ney</w>
a ir
ter sisa</w>
me d</w>
da ceae</w>
mp ah</w>
Ar menia</w>
ma han</w>
Bo e
Tang gal</w>
A bad</w>
r un
g ran
N AS
Beng kulu</w>
For mula</w>
mes ki</w>
C lub</w>
to m
B ek
Bala i</w>
ber agama</w>
P y
ber ta
tis h</w>
pemi kiran</w>
madi yah</w>
Tephri tidae</w>
T ata</w>
C ro
pr asasti</w>
26 6
tin us</w>
sa lam</w>
Sau di</w>
Pertan dingan</w>
a c</w>
to lak</w>
mengiri mkan</w>
bo ur
dama i</w>
ka ca</w>
men jad
i p
waw an
P il
bi s</w>
Seku tu</w>
Ep isode</w>
lebi han</w>
” .</w>
ta kkan</w>
o ton
ro man
My r
resm ikan</w>
gan tian</w>
ditan dai</w>
se tara</w>
Utsman iyah</w>
pen amp
Recor ds</w>
Su per
M I</w>
i o
per ak</w>
Se kitar</w>
ru sak</w>
mo s
di rektur</w>
men ak
bai ki</w>
t form</w>
24 0
A D</w>
As par
m am
K isah</w>
N at
ber mu
3 48
C os
H at
men dengar</w>
Associ ation</w>
ke bebasan</w>
in str
Per aturan</w>
o f
195 2</w>
fo to
N atal</w>
U U</w>
f estival</w>
sen si</w>
mun cul
lo gi</w>
inv asi</w>
Ter minal</w>
angka bau</w>
i do
Nep tun
T on
b lok</w>
dikel ola</w>
pasi en</w>
D om
per s</w>
tuju kan</w>
W est</w>
R p</w>
Pengem bangan</w>
R ol
S K</w>
H a</w>
ad egan</w>
hi tungan</w>
kepad anya</w>
194 3</w>
Al lium</w>
c an</w>
bin atang</w>
W ales</w>
se a</w>
3 57
m il
w ana</w>
ol oph
Al l</w>
di pen
T un
ke s</w>
tah annya</w>
Ke tiga</w>
p las
f ung
h ek
ri bu</w>
en cana</w>
asi t</w>
og an</w>
Bap ak</w>
ku kannya</w>
de katan</w>
v ak
Fe derasi</w>
Per satuan</w>
pang eran</w>
J ambi</w>
me ta
Ti pu
Gol den</w>
t te</w>
an caman</w>
car ian</w>
lor a</w>
Pertan ian</w>
Ay ahnya</w>
Ma z
j ungan</w>
z h
se lu
meng isi</w>
penyel enggaraan</w>
o ch
ali an</w>
G an
di pas
as nya</w>
or o
or t</w>
c tion</w>
j aman</w>
peng gemar</w>
de tik</w>
R at
memer lukan</w>
di butuhkan</w>
f ra
per angan</w>
) :</w>
ba ma</w>
ter baru</w>
R S
as akan</w>
keka lahan</w>
c la
In de
dimak amkan</w>
Air lines</w>
ur unan</w>
pen cah
v ir
du han</w>
bu lat</w>
Te ori</w>
L uk
Kar ak
da y
tek si</w>
su per
memba yar</w>
j e</w>
aga les</w>
mu ka</w>
Min ahasa</w>
E v
w aan</w>
oto matis</w>
penem uan</w>
Bla ck</w>
mem pengaruhi</w>
ov a</w>
pen dirian</w>
T um
ben cana</w>
de butnya</w>
ekseku tif</w>
ic o</w>
s ah</w>
Peneli tian</w>
S ai
Aspar agales</w>
c ac
di lanjutkan</w>
di as
r ah</w>
27 7
kak ak</w>
T ung
sah abat</w>
pelak sanaan</w>
Poli tik</w>
S qu
di tujukan</w>
bar is</w>
O C</w>
P K
si kap</w>
S olo</w>
kon sumsi</w>
V is
sin yal</w>
member i
s k</w>
V D</w>
memper kuat</w>
1 10</w>
j akan</w>
Min angkabau</w>
' ,</w>
w in
N ak
ber variasi</w>
ditam bahkan</w>
G ri
19 39</w>
195 4</w>
P hy
t ungkan</w>
M r</w>
kan ker</w>
z hou</w>
par u</w>
di de
par ah</w>
ri siko</w>
A dam</w>
tro poli
yak nya</w>
D har
wi layahnya</w>
h alnya</w>
u x</w>
el ola
Soci ety</w>
as is
terp aksa</w>
D ir
di yakini</w>
ber turut</w>
ul t</w>
kolabor asi</w>
angg an</w>
mem e
29 8
Neptun us</w>
di resmikan</w>
sul tan</w>
T anj
si ap</w>
dianuger ahi</w>
P asal</w>
k ara</w>
y n
pem bagian</w>
lis kan</w>
ter minal</w>
bo x</w>
c es</w>
menam bah</w>
si h</w>
Le bih</w>
Eri ca</w>
A L
P L
Re d</w>
Man aj
Chi c
ten is</w>
Am or</w>
b ong</w>
ung g
menghen tikan</w>
sa in</w>
10 9
strat egis</w>
melin tasi</w>
Li fe</w>
th er
pes ta</w>
Y or
fas e</w>
per samaan</w>
x i</w>
meny amp
p ingg
ke sepakatan</w>
hi n</w>
aw ati
ken ario</w>
kumpu l</w>
R on
Bata k</w>
Tipu lidae</w>
peneli ti</w>
pu l</w>
C at
alo g</w>
K op
sus u</w>
z abe
er al</w>
menjad ikannya</w>
ti l
ter bukti</w>
it h</w>
diter apkan</w>
Pi er
]] ,</w>
N ga
ta wan</w>
di lantik</w>
gar am</w>
waj ah</w>
ã o</w>
di susun</w>
K ra
dip anggil</w>
. .
ke enam</w>
kesu litan</w>
men eg
3 47
S ik
mas ala
parti kel</w>
Bi z
ter kena</w>
ni e</w>
P ul
ap a
ori en
menang ani</w>
men untut</w>
su ami</w>
seba gainya</w>
195 3</w>
Bil l
c arkan</w>
Bri tish</w>
Pro yek</w>
X X
Y usu
ber saudara</w>
up si</w>
yp hi
inves tasi</w>
i b
kaw inan</w>
M inggu</w>
Ber bagai</w>
Cer ita</w>
Champi ons</w>
ber te
B ran
fen o
produ sen</w>
li h</w>
lo w</w>
am e</w>
ka in</w>
3 59
kesa lahan</w>
K lub</w>
U M
d y
menyimp an</w>
su f</w>
os t</w>
ber k
ter tarik</w>
w enang</w>
J l</w>
li ar</w>
se ekor</w>
Mar y</w>
ta knya</w>
Str uktur</w>
mar ah</w>
s olo</w>
Se hingga</w>
Micro soft</w>
selam atan</w>
Per istiwa</w>
asu l</w>
n on
ti mbu
men ek
c inc
memer ankan</w>
ati k</w>
B ali
To ur</w>
lap is</w>
B ru
tar get</w>
suk sesan</w>
Pran ala</w>
3 49
li h
s tein</w>
li rik</w>
top hi
p ay
il ing</w>
ar jo</w>
in et</w>
ter atur</w>
gi tar</w>
yphi idae</w>
k y
peng unjung</w>
CO V
J or
f ri
ku ensi</w>
Ni as</w>
pende katan</w>
Lin yphiidae</w>
mem promosikan</w>
dis tribusi</w>
Koman dan</w>
D j
Pe kan</w>
mag ne
ga li</w>
kem a
tophi lidae</w>
Re ferensi</w>
os o</w>
Myce tophilidae</w>
elek tro
Can di</w>
ber dirinya</w>
do sa</w>
se t
se kelompok</w>
ch ar
Kol on
mengen akan</w>
L ong</w>
z e
di man
pen nis</w>
In di
memas ukkan</w>
mik ro
Tap an
ba tuan</w>
Ban d</w>
Bi dang</w>
Baba k</w>
diren canakan</w>
COV ID</w>
co baan</w>
re u
r up
tar ikan</w>
3 46
pro to
dimen si</w>
pro duk
A C</w>
strat egi</w>
di adopsi</w>
' .</w>
om o</w>
Wak tu</w>
As al</w>
195 1</w>
Peri ode</w>
ch t</w>
sis ten</w>
S on
Ku tai</w>
serv asi</w>
tem por
it s</w>
Per mainan</w>
bi ji</w>
I tu</w>
Ju ga</w>
resi den
Ke giatan</w>
r id</w>
menyamp aikan</w>
Bill board</w>
M S</w>
s asi</w>
v ic
Eli zabe
Tapan uli</w>
r upa</w>
G ram
K ak
hen tikan</w>
te or
Ti me</w>
k g</w>
3 58
ati ons</w>
P ter
ter bit</w>
Lu as</w>
/ /</w>
ch el
str u</w>
Geor gia</w>
ts u</w>
ditu gaskan</w>
Sho w</w>
mem in
26 9
lar is</w>
J apan</w>
tern ak</w>
wor ejo</w>
Peru bahan</w>
ke inginan</w>
kh awati
ap ura</w>
ke hormatan</w>
lar ut</w>
ma il</w>
ju stru</w>
ag u
un da
Pic tures</w>
O p
mes tik</w>
tertu lis</w>
l ari</w>
pas ca</w>
diter jemahkan</w>
ga wa</w>
i ta
ter lebih</w>
I A</w>
po t
penga kuan</w>
ber ang</w>
14 0
o tak</w>
ta les</w>
mi g
I t</w>
Boe ing</w>
bu dak</w>
re solusi</w>
dik si</w>
D NA</w>
Si mon</w>
s h</w>
Ib nu</w>
R W</w>
mem aksa</w>
u t
ber senjata</w>
ge ografis</w>
ro ti</w>
Pela buhan</w>
zu ki</w>
penu lisan</w>
an tren</w>
per gerakan</w>
v al</w>
ke senian</w>
Fran k</w>
defin isi</w>
w ang</w>
L okasi</w>
si l
du p</w>
kam era</w>
ata h</w>
dip lo
27 8
Du ta</w>
penye bab</w>
in ternal</w>
C lar
me ja</w>
j ol</w>
bo th
bag us</w>
Gor ontalo</w>
di gelar</w>
su b</w>
D ah
ir masi</w>
ur na</w>
mela mbangkan</w>
menga ku</w>
Stre et</w>
an e</w>
ak h
Smit h</w>
N un
Su atu</w>
k li
peny imp
As ter
Ar mada</w>
hal us</w>
Bay ern</w>
Z i
Ha bi
S ama</w>
in annya</w>
omin asikan</w>
pemerin tahannya</w>
ram but</w>
Li u</w>
r atu</w>
un annya</w>
war is</w>
and angan</w>
S han
ik saan</w>
J un
kur angnya</w>
Bata lyon</w>
T ay
10 1</w>
B P
Ke uangan</w>
th o
pembu kaan</w>
13 0</w>
yak inan</w>
se iring</w>
ge jala</w>
Jac k</w>
D on</w>
is co</w>
S ad
si li</w>
le laki</w>
i x</w>
n ada</w>
o ka</w>
ti me</w>
men on
H ay
is h
tr ack</w>
gam baran</w>
C lo
tr y</w>
b eng
regi onal</w>
A pi</w>
23 9
Li ber
Q ur</w>
ma tera</w>
ca iran</w>
M ata</w>
p ra</w>
Soe karno</w>
z er</w>
ke bi
dro n</w>
D al
en can
di pandang</w>
si da</w>
Sy dney</w>
G len
Eri ca
pe ta</w>
e h</w>
T I</w>
it nya</w>
I sa
sa wah</w>
10 0
s ang
To koh</w>
Mar k</w>
war isan</w>
w on</w>
din o
Kon ferensi</w>
f ar
di bantu</w>
ti cidae</w>
sp on
T V
mener apkan</w>
Bek asi</w>
So si
ber angkat</w>
Khu sus</w>
Elizabe th</w>
di pasang</w>
hir e</w>
Sal ticidae</w>
ter daftar</w>
Bo b</w>
elola an</w>
Muham madiyah</w>
ole hkan</w>
and u</w>
G ala
p ar</w>
pen carian</w>
u li
P lay
ak ur
Pang lima</w>
menyu kai</w>
Arth ur</w>
T ang</w>
Bur ung</w>
K adi
ter jual</w>
G o</w>
mak sud</w>
Semen anjung</w>
B ung
An tar
Sela t</w>
M ir
waji b</w>
7 00</w>
pemili kan</w>
do min
men ju
ma terial</w>
An dr
us a</w>
tek nis</w>
mah kota</w>
membah as</w>
mem ec
janj i</w>
ga lak
der s</w>
I C
s osok</w>
har usnya</w>
sta bil</w>
p angan</w>
penj aga</w>
h ay
pen urunan</w>
Fin landia</w>
me lu
de ta</w>
re gn
man faat</w>
kom ik</w>
ka pi
Te gal</w>
teg angan</w>
tunju kkan</w>
encan aan</w>
W angsa</w>
per damaian</w>
to p</w>
j akarta</w>
W el
pu annya</w>
Se jumlah</w>
T ari</w>
V III</w>
o i</w>
ak sikan</w>
S ya
or y</w>
komun is</w>
pla tform</w>
Sam udra</w>
t ter</w>
da d</w>
ke k</w>
S ap
lemba b</w>
pemu kiman</w>
legen da</w>
Yo ung</w>
P N</w>
cip taan</w>
ü r
pem bela
e p</w>
tr a
had iran</w>
B li
3 50
profe si</w>
h atikan</w>
per ahu</w>
Ho use</w>
ak e</w>
Ben teng</w>
Gam es</w>
k ron
Y a
Rum ania</w>
ul an</w>
din ominasikan</w>
S aya</w>
per lawanan</w>
R y
c at</w>
m alah</w>
bu l
tro l</w>
Se karang</w>
S p
la tihan</w>
tropoli tan</w>
R ay
per g
Jep ara</w>
Institu te</w>
on is</w>
su dkan</w>
k amp</w>
d d
per ban
0 an</w>
18 0</w>
re formasi</w>
ch en</w>
Pes antren</w>
Kab inet</w>
Sh ang
dida t</w>
mengh orm
sup aya</w>
ter jemahan</w>
ti ang</w>
ti ve</w>
Kar ang</w>
A B
mer en
ku ad
W ang</w>
di a
lu ki</w>
kal ongan</w>
ek h</w>
p ung</w>
sen apan</w>
Kro asia</w>
m ah</w>
meng elola</w>
g in</w>
ho l</w>
din i
Bo j
fik asikan</w>
ang kap</w>
peng obatan</w>
Ber n
meng gabungkan</w>
ik o</w>
Pr asasti</w>
D ok
Ser angan</w>
; &</w>
trans fer</w>
R ap
20 8
o toritas</w>
er at</w>
Bi asanya</w>
kebu n</w>
ta ian</w>
sen ang</w>
can di</w>
regn um</w>
29 7
rak si</w>
w al
ad aban</w>
Fri ed
S pi
ber bagi</w>
os kop</w>
di layani</w>
sis inya</w>
mis kin</w>
t ong
15 6
Ker ja</w>
fe derasi</w>
pening galan</w>
tro p
To m</w>
s tre
N av
ad il</w>
Yusu f</w>
m al</w>
ti fikasi</w>
menanda i</w>
H aji</w>
23 8
kri sis</w>
des krip
mem un
ser ius</w>
Sel uruh</w>
kary awan</w>
S C
Bata via</w>
A v
w er
Ke cil</w>
bes arkan</w>
kolon i</w>
do mestik</w>
14 5
Kap ten</w>
Hal l</w>
fre kuensi</w>
tur kan</w>
ras ah</w>
dik asikan</w>
D VD</w>
N E
k lan</w>
p ilot</w>
29 6
pah lawan</w>
diku asai</w>
ta u</w>
ru ma
angg ang</w>
E fek</w>
d anya</w>
on e
meng operasikan</w>
l ong</w>
m ang
baw ang</w>
Bri g
Fo x</w>
pen ari</w>
Ne ws</w>
pen am
Kar l</w>
tu bu
aw ab</w>
G P</w>
an jur</w>
bah ag
sta f</w>
tun tu
v ora</w>
em an</w>
P ay
ba c
menging at</w>
berk isar</w>
ا ل
Uni t</w>
mur ni</w>
Tex as</w>
24 6
ban yaknya</w>
es h</w>
ula san</w>
In formasi</w>
An tara</w>
ar ankan</w>
didi k</w>
R og
aj ahan</w>
jaba tannya</w>
C ek
Ak hir</w>
Manch ester</w>
f lu
g li
his tor
h tt
ditem puh</w>
Ma ke
10 6
N is
Me sin</w>
Al bert</w>
ko tak</w>
S S</w>
mele paskan</w>
Di rek
p ing
Sta f</w>
se tia</w>
d s
meny erah</w>
mende kati</w>
P impinan</w>
di aw
di jal
as aannya</w>
ber tar
O l
pe lukis</w>
dimak sudkan</w>
li hkan</w>
ru t</w>
memas tikan</w>
Lom bok</w>
di larang</w>
pencah arian</w>
Pem ain</w>
gi ri</w>
jan tan</w>
: //</w>
han cur</w>
mon d</w>
anta u</w>
C ir
y n</w>
oper ator</w>
Vic toria</w>
ad ya</w>
kon su
( ).</w>
j aga</w>
de saan</w>
ber tambah</w>
To ba</w>
ori al</w>
M I
to k
kan dung</w>
ing at</w>
fak ta</w>
der ajat</w>
v arian</w>
a x</w>
as in</w>
D y
am an
he li
ras tr
konom ian</w>
29 0
R S</w>
bi ara</w>
mit ologi</w>
disa jikan</w>
de la</w>
se jauh</w>
ali si</w>
la an</w>
bersi h</w>
man u
bo ja</w>
Te ch
h ol
ka ta
keka yaan</w>
manaj er</w>
C ra
ten tangan</w>
eri maan</w>
l urus</w>
M ol
O m
meny en
tin e</w>
menunju k</w>
He in
19 18</w>
Wi ki
L at
Ti mes</w>
res toran</w>
ly o</w>
aktiv is</w>
on line</w>
ou l</w>
ar e
ro ket</w>
das arnya</w>
Pener bangan</w>
wawan cara</w>
v es</w>
meng ganti</w>
Ch a
tertu tup</w>
nen ek</w>
di ti
ka jian</w>
keda tangan</w>
koman do</w>
jela skan</w>
P ac
Ke diri</w>
min i
semp urna</w>
p ing</w>
ke ga
Per guruan</w>
V an
mem ahami</w>
p annya</w>
in er</w>
tin o
K ode</w>
ar o</w>
kur angan</w>
meny anyikan</w>
sa ingan</w>
su aikan</w>
Ra il
pam eran</w>
mem ad
mo dal</w>
33 4
ter hubung</w>
ger bang</w>
at let</w>
pel uru</w>
menur un</w>
h ani</w>
D ata</w>
si ang</w>
meng on
amb ilan</w>
U p</w>
Chry so
resi k</w>
c au
bo ok</w>
J us
cu cu</w>
lem bah</w>
An na</w>
Si r</w>
W IB</w>
se per
mp ai</w>
R ic
Ke dung
eks por</w>
v o</w>
Ib rahim</w>
ar ch</w>
Lep to
tur al</w>
ter ia</w>
perse tujuan</w>
t ta</w>
ber juang</w>
pertan yaan</w>
pas ukannya</w>
Men ara</w>
Pember on
Chic ago</w>
L un
di tasi</w>
berke warganegaraan</w>
S unan</w>
j awa</w>
ati s</w>
menghad iri</w>
20 7
tim bangkan</w>
bi le</w>
19 38</w>
olog y</w>
ke lat</w>
A F
gu g
nasi on
hi po
Bo y
J in</w>
ri an</w>
Ch al
pi kiran</w>
leg islatif</w>
lih atkan</w>
ak ting</w>
pel anggan</w>
ber fokus</w>
19 33</w>
s ing</w>
in tis</w>
os hi</w>
pember ian</w>
bi ologi</w>
ko tanya</w>
menur unkan</w>
up ai</w>
bab i</w>
A yat</w>
R L</w>
n is
anti um</w>
po l</w>
Bi g</w>
Ka z
ha b</w>
membe la</w>
Or chi
K le
gar ia</w>
lamp u</w>
mas akan</w>
U sah
ling karan</w>
ron t</w>
deng annya</w>
m ba</w>
pro fesor</w>
Pem ilu</w>
mengen al</w>
bangk itan</w>
eks pe
Lay anan</w>
tah unnya</w>
ruma hnya</w>
kan dang</w>
se sama</w>
P ek
ka wa</w>
ru sia</w>
an th
se i</w>
har to</w>
ku si</w>
ili k</w>
har ta</w>
P ap
asi on
Willi ams</w>
Ter buka</w>
am is</w>
ro h</w>
ic al</w>
si apkan</w>
Poli si</w>
rat usan</w>
D C</w>
K im
De pok</w>
masala han</w>
in o
Mu lai</w>
ter aan</w>
per man
Orchi daceae</w>
la di
v it
3 2
res s</w>
ker ap</w>
15 9
i le
Re si
ola han</w>
se gi</w>
ke ju</w>
Sas tra</w>
Ro ck</w>
S ari</w>
pro tes</w>
Ag ro
ke tujuh</w>
10 7
pen erima</w>
ki raan</w>
r ama</w>
19 37</w>
15 8
26 8
z z
tim bangan</w>
mos fer</w>
a xia</w>
c ok
on str
anj i</w>
Glo bal</w>
ni at</w>
24 5
Sing el</w>
kri tis</w>
is t</w>
C ara</w>
R h
é e</w>
ban jir</w>
kon teks</w>
har inya</w>
Stu di
anc is</w>
p ala
Sau dara</w>
tur unkan</w>
and anya</w>
SD N</w>
diman faatkan</w>
man is</w>
A n</w>
ber pusat</w>
ra wa</w>
dika itkan</w>
g re
mig ran</w>
en ti
r ing</w>
Per pustakaan</w>
Mela lui</w>
27 6
penga w
10 5</w>
publi kasikan</w>
Mar ie</w>
kombin asi</w>
ber saing</w>
an isme</w>
regi on</w>
Tanj ung
ber pikir</w>
K ai
SM AN</w>
J r</w>
r us</w>
di pan
mu lut</w>
ka cang</w>
Ko to</w>
ber bahaya</w>
me lebi
J abatan</w>
M ilan</w>
ber alih</w>
te tangga</w>
Pr in
T hi
am nya</w>
peng ikut</w>
on ya</w>
Per tengahan</w>
28 8
Su matera</w>
ta bel</w>
mu lyo</w>
memper luas</w>
P hil
en e</w>
Franc isco</w>
defin isikan</w>
di besarkan</w>
for ma
rah am</w>
semes ta</w>
po tong</w>
be tina</w>
ter ang</w>
po t</w>
16 0</w>
san tren</w>
pelun curan</w>
se harusnya</w>
mem ban
Rho do
reu en</w>
tu b</w>
diser ahkan</w>
ber kat</w>
iku lum</w>
pemberon tak</w>
19 36</w>
ah aman</w>
G ur
L as
ke suksesan</w>
Mar os</w>
Da y</w>
Amer ica</w>
ba ch</w>
a inya</w>
k ong</w>
ik anan</w>
Anth axia</w>
W u</w>
te h</w>
A K
ay ai</w>
melebi hi</w>
je ct</w>
tw ork</w>
Hi gh</w>
hidro gen</w>
z u</w>
n abi</w>
du ta</w>
ko m</w>
o u</w>
meny usun</w>
klasi fikasi</w>
14 0</w>
peny air</w>
mor al</w>
i annya</w>
per pustakaan</w>
mem eng
pac e</w>
au x</w>
at ukan</w>
19 35</w>
lo komotif</w>
B ila</w>
Cyper us</w>
di jelaskan</w>
do sen</w>
27 5
ju lukan</w>
vi ew</w>
per kawinan</w>
Mar s</w>
in stitusi</w>
ke yakinan</w>
ic ro
re publik</w>
T au
er ja</w>
ra y</w>
Apo sto
rastr uktur</w>
har aan</w>
A T</w>
diny anyikan</w>
y ono</w>
Se k
S hu
kon ten</w>
M adi
modi fikasi</w>
3 50</w>
n asi</w>
12 5</w>
dul unya</w>
W ir
tar kan</w>
po kok</w>
pemak aman</w>
Al ban
memper ing
dr o</w>
mas in</w>
Din as</w>
kal ender</w>
Ma ur
Manaj emen</w>
M uk
Hi tam</w>
kir kan</w>
menyer upai</w>
o w
ic us</w>
karak teristik</w>
Ath ena</w>
Make donia</w>
Y oshi
k lin
war e</w>
eks peri
ur nya</w>
men darat</w>
Ben dera</w>
konf irmasi</w>
h um
j un</w>
in ci</w>
om po
o ma</w>
c c
v is</w>
D KI</w>
ch el</w>
Kem atian</w>
both ris</w>
Chryso bothris</w>
R C
ke can
efisi en</w>
menem puh</w>
di turunkan</w>
angg ur</w>
Bi ma</w>
Ni ko
La ur
inda han</w>
ber encana</w>
10 00</w>
f ir
ter n</w>
ing inkan</w>
Ken ne
Pemberon takan</w>
f os
u ap</w>
pe perangan</w>
sek s</w>
la tus</w>
Me tode</w>
G M</w>
K E
menik mati</w>
Sy ekh</w>
ko taan</w>
k ro
Zh ang</w>
peme karan</w>
tu pi</w>
1 12</w>
n er
ban an</w>
ekseku si</w>
diser tai</w>
ba ck</w>
e v</w>
Hu tan</w>
K us
M uni
le vel</w>
re volusi</w>
demok rasi</w>
war tawan</w>
tran s</w>
Tam il</w>
H asan</w>
Mar in
am in</w>
ki e</w>
Kon disi</w>
y am</w>
Bul garia</w>
av or
p ung
di ha
lelu hur</w>
3 54
jad wal</w>
fi ah</w>
den dron</w>
deskrip sikan</w>
A qu
H un
p ha</w>
pe t</w>
ten an</w>
Shang hai</w>
20 9
14 7
ce p
ke pemilikan</w>
H us
te bal</w>
ri buan</w>
pen en
10 8
cur i</w>
ri n</w>
E mp
mener us</w>
c tor</w>
tran sit</w>
A C
A I</w>
19 29</w>
tempor er</w>
amb ing</w>
i at</w>
S am</w>
be n</w>
mem isahkan</w>
19 28</w>
Hi ro
bes arnya</w>
sem bunyi</w>
person el</w>
Usah a</w>
men unggu</w>
per baikan</w>
melar ang</w>
pot ongan</w>
meng emba
ha d</w>
mere kam</w>
Fe deral</w>
jaba r</w>
pangg ilan</w>
I M
b os
ba ta</w>
Sum ber
Kat edral</w>
galak si</w>
E lec
S ti
28 5
Chris tian</w>
C le
ch y
diju luki</w>
s yah</w>
pu tasi</w>
30 6
May or</w>
Sam ar
di definisikan</w>
ve i</w>
menek ankan</w>
T ab
ata wan</w>
Pur wo
Alek sand
ber hak</w>
kela k</w>
apa hit</w>
menghorm ati</w>
am atan</w>
ter sendiri</w>
ger e
kon tak</w>
bi oskop</w>
im bang</w>
pende ta</w>
spesi fik</w>
e ta
meng arah</w>
tribu sikan</w>
ber sejarah</w>
ta il</w>
You Tu
tu duhan</w>
dipe gang</w>
S ony</w>
tam adya</w>
Aki batnya</w>
K ali</w>
Tung gal</w>
Mag elang</w>
mem buktikan</w>
Se ba
c lo
pi da
usa k</w>
A man
pe santren</w>
mengen dalikan</w>
Mad rid</w>
pe tugas</w>
25 4
menj awab</w>
Ba gi</w>
Mus a</w>
28 9
rap at</w>
o pe
lam in</w>
be lahan</w>
he im</w>
ag aman</w>
T ru
jad w
pem bi
Ar t</w>
Li ve</w>
taku t</w>
s kenario</w>
al ko
mem icu</w>
C el
pe sat</w>
pem ro
land asan</w>
feno mena</w>
ran tai</w>
cu t</w>
S and
In c</w>
Si g
ke dudukan</w>
Champi on
k m2</w>
Tu ju
Pes ta</w>
pingg iran</w>
do l</w>
c em
en se</w>
ke satuan</w>
s annya</w>
Ar si
sik lus</w>
b olehkan</w>
e volusi</w>
cok lat</w>
ti knya</w>
seba liknya</w>
ep ungan</w>
14 8
di bi
To p</w>
A re
Ke ber
par an</w>
lang gar</w>
tu al
lu han</w>
ro s</w>
Ku il</w>
tim ologi</w>
a w</w>
ter en
or s</w>
f al
Ak tris</w>
j et</w>
ter min
hir o</w>
D ong
ker abat</w>
yar ak
Bos nia</w>
mekan isme</w>
pu lkan</w>
fe deral</w>
ber s
kali mat</w>
Ru ang</w>
kema juan</w>
M aya</w>
Fre der
A vi
inte grasi</w>
Cri tics</w>
ing nya</w>
tri n</w>
Bun ga</w>
perman en</w>
T E
T asi
Mah ar
pu tar</w>
memen angi</w>
Ling kungan</w>
li sensi</w>
Per kembangan</w>
26 7
Phi lip
5 59
R aw
U lu</w>
Kem erdekaan</w>
Cen tral</w>
ag an</w>
Simp ang</w>
pari wisata</w>
in tai</w>
di catat</w>
Pier re</w>
! "</w>
ru dal</w>
oto t</w>
Y u</w>
oloph ia</w>
c at
p ap
p han
ber guna</w>
me dang</w>
gan tinya</w>
e le
di sip
th ria</w>
s op
ter ke
kon ferensi</w>
Ben e
B lue</w>
10 6</w>
keba karan</w>
1 11</w>
gen der</w>
ka y
Maj apahit</w>
c le</w>
y ung</w>
i ch
men tasi</w>
hi asan</w>
ch u
Kar i
Gun ung
U I</w>
meng ar
min um</w>
M ati
at mosfer</w>
ra x</w>
or ogo</w>
menga tasi</w>
F ungsi</w>
min eral</w>
Hi dup</w>
K ole
v asi</w>
ber har
menj alin</w>
B en</w>
co kelat</w>
l nya</w>
penye baran</w>
ar s</w>
Bam bang</w>
or gan</w>
ka i
dise tujui</w>
pang kalan</w>
T ir
ta ka</w>
5 58
P O
Y ug
ke selamatan</w>
19 19</w>
Ch en</w>
Val en
pembela jaran</w>
K is
X II</w>
eng ka</w>
Hol lywood</w>
Fried rich</w>
n ap
f rom</w>
en o
min a</w>
labor atorium</w>
ta in</w>
Biz antium</w>
ku lasi</w>
tem bok</w>
10 3</w>
menc er
gu gus</w>
bun y
memeng ar
di ag
ce takan</w>
J es
10 8</w>
Lem bah</w>
mu atan</w>
19 32</w>
sah kan</w>
memper baiki</w>
Ma x</w>
jah teraan</w>
teng ge
E ver
jur i</w>
top ik</w>
kega galan</w>
H um
te s
menye tujui</w>
gel andang</w>
jaw i</w>
Rhodo dendron</w>
K ini</w>
t ty</w>
14 9
ber kumpul</w>
ki l</w>
ban on</w>
e an</w>
gra tis</w>
mem indahkan</w>
23 6
it anya</w>
di baw
ul unya</w>
menga jar
Kam boja</w>
Plan et</w>
lac ap</w>
H eli
H ab
ay ah
ekspe disi</w>
f u</w>
Aposto lik</w>
pa usan</w>
wuju dkan</w>
urn al</w>
Nam anya</w>
instr umen</w>
di tolak</w>
pe lindung</w>
ad isi</w>
ak ra
membaw akan</w>
lo g</w>
menj elang</w>
an mar</w>
ke dalam</w>
is ter</w>
po s
menyebu tnya</w>
10 9</w>
p y</w>
K ah
ter nya</w>
per asaan</w>
kon g
is ola
Ren cana</w>
menon jol</w>
akadem ik</w>
man nya</w>
kerj aan</w>
ala mat</w>
kebi asaan</w>
Pang kalan</w>
pe juang</w>
Per empuan</w>
Ti pe</w>
p to
pe lu
pin ang</w>
Mad ura</w>
Pter olophia</w>
memengar uhi</w>
ung un</w>
en zim</w>
si li
me l
kan didat</w>
cen t</w>
perlu an</w>
a is
pem egang</w>
10 2</w>
Pari wisata</w>
bil ang</w>
10 4</w>
usa i</w>
ke kurangan</w>
mem bagi</w>
5 17
ter gabung</w>
lar utan</w>
ung u</w>
Te am</w>
W ay</w>
cu aca</w>
Bang ka</w>
ter bunuh</w>
meneg askan</w>
L and
B one</w>
tubu hnya</w>
Se iring</w>
in ah</w>
meng usulkan</w>
buk unya</w>
ke j
" -</w>
asi hat</w>
ing go</w>
Chan nel</w>
membe dakan</w>
C O</w>
Po ales</w>
D un
Be lak
Ho t</w>
P ati</w>
f t
og en</w>
S it
n ag
kemba r</w>
kan al</w>
Kom p
Ex o
Let nan</w>
f il</w>
kan dungan</w>
menge jar</w>
19 34</w>
B ahan</w>
Ch el
Peng e
U D</w>
han y
Kon sep</w>
kos ong</w>
ba li</w>
pe desaan</w>
19 31</w>
S pong
b ra
se waktu</w>
isti rah
z on</w>
pa us</w>
Del i</w>
mak si
ma cu
qu es</w>
ditan da
ber kurang</w>
19 14</w>
sek re
fil man</w>
Flor es</w>
P it
S por
penjela jah</w>
J unior</w>
re y</w>
s ung</w>
menu tup</w>
as ur
min at</w>
P ho
f em
ber perang</w>
per cobaan</w>
dise diakan</w>
R in
R ac
y er</w>
wis atawan</w>
waji ban</w>
20 6
Bo ur
sat ria</w>
1 15</w>
ke perluan</w>
ta se</w>
ak lukan</w>
volu sioner</w>
D ic
u dera</w>
dic apai</w>
D ik
d jo</w>
as ana</w>
Per dagangan</w>
pun c
ob o</w>
dimin ta</w>
D ol
27 4
J urusan</w>
gi r</w>
19 12</w>
Z hou</w>
se lam</w>
ber kas</w>
sah abatan</w>
insi den</w>
D ri
o b</w>
A KB
C hu
ter akhirnya</w>
lay ak</w>
asis ten</w>
K O
Ju ara</w>
dimen angkan</w>
sad ar</w>
penyimp anan</w>
Yug os
la san</w>
pela ku</w>
Str at
dike li
A ch
R uk
10 7</w>
dire kam</w>
W it
g it
m uran</w>
habi s</w>
A U</w>
La hir</w>
kem ar
Be au
tang ga
ba mbu</w>
Dem ak</w>
Bro ad
pel anggaran</w>
j ep
cur i
mo de</w>
con tohnya</w>
A de
30 5
ber ulang</w>
Bar ito</w>
Pr em
seku tuan</w>
li ber
Kebu men</w>
fin is</w>
P N
26 4
in al</w>
ranc angan</w>
per kem
ke tat</w>
Suka bumi</w>
è s</w>
Nov el</w>
Lap angan</w>
Ch ris</w>
mengemba likan</w>
b kan</w>
ar gu
peng elolaan</w>
can tik</w>
Ak tor</w>
pe du
l lah</w>
v ich</w>
ri set</w>
Bo y</w>
rasi o</w>
w is</w>
mer usak</w>
diplo matik</w>
O n</w>
dram ayu</w>
K ami</w>
L au
o us</w>
b ran
Se oul</w>
ter luka</w>
ter inspirasi</w>
Bo u
su k</w>
de wi</w>
lem ak</w>
kun jungan</w>
Mak am</w>
shi ma</w>
ai i</w>
peny em
semu la</w>
John son</w>
Direk torat</w>
A sian</w>
konsu men</w>
C op
o e</w>
ker ta</w>
An dro
s ol
dan ia</w>
syar atan</w>
bai jan</w>
e sa</w>
My anmar</w>
persi apan</w>
Mo jo
en da</w>
P ori
T ul
ko de
K ay
Aug us
S par
Jon es</w>
G aya</w>
Ser dang</w>
s ha</w>
ber darah</w>
R A</w>
S m
cad angan</w>
di ce
d asan</w>
di r</w>
Ste ph
dol f</w>
In fanteri</w>
To tal</w>
lu kkan</w>
per adaban</w>
us tr
ul lah</w>
kris tenan</w>
el an</w>
30 4
1 13</w>
B h
t v</w>
Franc e</w>
P is
an ag
gh ts</w>
R E
pro perti</w>
dr um</w>
dijal ankan</w>
F it
Pe trus</w>
í a</w>
di huni</w>
Su ko
Fran k
Sat uan</w>
timbu l</w>
Moham mad</w>
K up
10 4
sam ana</w>
1 19</w>
e ch
he bat</w>
Komun ikasi</w>
hel m</w>
Pori fera</w>
er baijan</w>
O pen</w>
Gir l</w>
unggu hnya</w>
Mo der
sy u
sar af</w>
lam asi</w>
e da</w>
Par az
Madi un</w>
Ke polisian</w>
ser ikat</w>
ko lam</w>
19 24</w>
pan jangan</w>
R ai
meng izinkan</w>
YouTu be</w>
f ac
Hin di</w>
s burg</w>
keben aran</w>
V OC</w>
19 22</w>
fi c</w>
Yugos lavia</w>
peng iri
Dr ama</w>
li o</w>
A mp
u asi</w>
ba ku</w>
lin e
sin yur</w>
mur ah</w>
meng adopsi</w>
hi dangan</w>
To y
Mon t
Ku alifikasi</w>
Q ing</w>
K um
17 7
jadw alkan</w>
. &</w>
Z u
ad iknya</w>
tr um</w>
Kom unitas</w>
H au
mit ra</w>
mul anya</w>
pu s
19 27</w>
ma hal</w>
bin aan</w>
permu kiman</w>
d ini</w>
ic um</w>
Pem uda</w>
Le on
anggo tanya</w>
cinc in</w>
po ten
Re al</w>
S P
pener us</w>
mer deka</w>
pad uan</w>
Kolon el</w>
dikeli lingi</w>
19 25</w>
Th er
Sam uel</w>
pe lo
S L
i si
vo kalis</w>
men cu
ri e</w>
tern akan</w>
ot ball</w>
menghil angkan</w>
Pro duk</w>
sing katan</w>
Mah asiswa</w>
penu tup</w>
men ahan</w>
Mo tor</w>
p li
do k</w>
Paraz oa</w>
Pe kalongan</w>
dem onstr
sub regnum</w>
Stu dio</w>
D S</w>
ba kal</w>
Hak im</w>
hi lir</w>
Ko ta
Gir ls</w>
per masalahan</w>
ke dokteran</w>
Sen at</w>
des h</w>
E mas</w>
36 0</w>
R A
l v
1 14</w>
c ra
ne layan</w>
pan si</w>
B es
d h
di e
In done
man diri</w>
lo y
tur a</w>
pu tus</w>
Pr am
Ku ba</w>
at es</w>
di jadwalkan</w>
pak ar</w>
pla y</w>
men ampung</w>
Ke bijakan</w>
ban a</w>
wi g</w>
Ter n
di dominasi</w>
samp aikan</w>
en tal</w>
sep si</w>
B T</w>
17 0</w>
Kon vensi</w>
No bel</w>
1 17</w>
meng hi
W ina</w>
be la</w>
18 6
De sain</w>
Bar cel
jurn al</w>
Bla ck
ila ian</w>
pen datang</w>
alko hol</w>
on to</w>
ic s</w>
Hit ler</w>
de g
g y
ro w</w>
sem bahkan</w>
Whi te</w>
D aw
di isi</w>
pengar ang</w>
k asi
ce dera</w>
amb ung</w>
j angka
ta jam</w>
ku an
13 5</w>
Ri wayat</w>
kas ar</w>
di mu
ma ta
trad arai</w>
tis me</w>
ke hadiran</w>
du an</w>
kon stitusi</w>
I r</w>
penam bahan</w>
ar annya</w>
10 5
per kotaan</w>
jurn alis</w>
N ah
K RI</w>
ber tu
19 17</w>
Se belah</w>
P ak</w>
h en</w>
ga jah</w>
B um
kon stitu
29 5
S iti</w>
Brun ei</w>
ir kan</w>
M eg
kh ali
Z ona</w>
per tu
way s</w>
Mer i
e tan</w>
pr as
gene tik</w>
R ep
P T
Lan ka</w>
musi kal</w>
kop ter</w>
T eng
bang annya</w>
pa ket</w>
Pur worejo</w>
Gre en
sion aris</w>
diju mpai</w>
ta p</w>
tor s</w>
regu ler</w>
1 18</w>
r é
Co lum
a cu
p in</w>
22 0</w>
meman dang</w>
KT 48</w>
mener uskan</w>
V ar
audi si</w>
F am
on ik</w>
und uran</w>
w on
memben tang</w>
K M</w>
ad e
Nor th</w>
man i</w>
wak ia</w>
Tasi k
E lek
nan tinya</w>
al jabar</w>
19 26</w>
mas sal</w>
Rail way</w>
L ah
th at</w>
o ides</w>
si sir</w>
Administr asi</w>
In dah</w>
kes ad
per unggu</w>
tual angan</w>
ber as</w>
sa li
Pu b
Banjar masin</w>
ker aj
ck y</w>
rem pah</w>
Ti bet</w>
1 16</w>
d adi</w>
di l</w>
Gem pa</w>
è re</w>
Ke vin</w>
19 00</w>
di kar
kap nya</w>
T as
as osiasi</w>
sa urus</w>
As ing</w>
Ge lar</w>
For d</w>
Barcel ona</w>
h ama</w>
ti ket</w>
keku asaannya</w>
J uan</w>
su per</w>
k son</w>
meng isahkan</w>
aw i
as asi</w>
Sh ah</w>
May oritas</w>
J an</w>
gi us</w>
Az erbaijan</w>
toph ila</w>
ar do</w>
histor is</w>
berhar ap</w>
tang g
min or</w>
Banyu wangi</w>
Os car</w>
Ke duanya</w>
Pos o</w>
meng hadap</w>
lar angan</w>
les s</w>
Ne twork</w>
3 20</w>
Me ta
T an</w>
ka bin
Don ald</w>
th es</w>
keli ling</w>
dokumen ter</w>
D ag
Ye ar</w>
19 23</w>
di cetak</w>
tar ungan</w>
dar urat</w>
Myce tophila</w>
ko lek
Ni ght</w>
sa u
her bi
Ar ya</w>
isti mewa</w>
anggo takan</w>
se d</w>
12 7</w>
op ia</w>
fre d</w>
klar asi</w>
H ap
or us</w>
U mar</w>
pe ti</w>
bi e</w>
kon temporer</w>
Su ara</w>
Gam e</w>
muncul nya</w>
P rusia</w>
v s</w>
15 7
mi mp
sedi aan</w>
ditanda tangani</w>
Jo e</w>
CE O</w>
Pol ri</w>
se arch</w>
dise lesaikan</w>
kin erja</w>
c s</w>
angga pan</w>
Bro wn</w>
j agung</w>
so l</w>
la dang</w>
Gar ut</w>
ko in</w>
Ser ang</w>
pri bumi</w>
Te ater</w>
R is
dini lai</w>
ter atas</w>
und track</w>
G P
b or</w>
Se panjang</w>
Ban i</w>
h onan</w>
In do</w>
13 9
ini si
domin an</w>
S ten
u si
le e</w>
Is mail</w>
5 49
ti an
ili san</w>
per em
12 3</w>
16 4
Ser ies</w>
Me i
co urt</w>
re zim</w>
tan tangan</w>
pr o</w>
S U
ku e</w>
Jum at</w>
Gener al</w>
penjela san</w>
L on
5 56
B au
fil suf</w>
komen tar</w>
diam eter</w>
19 21</w>
iku ler</w>
Soe harto</w>
d ad
la desh</w>
wad ah</w>
N ug
c ong</w>
Li m
v ul
Sta tion</w>
Cla thria</w>
W ad
pem ahaman</w>
K H</w>
di hancurkan</w>
putr inya</w>
Hein rich</w>
s hi</w>
et te</w>
un ting</w>
cur ah</w>
Am bon</w>
Jos é</w>
ber anggotakan</w>
te ologi</w>
to m</w>
co ba</w>
g eng
dar ing</w>
9 00</w>
az ah</w>
I kan</w>
li on</w>
memper lihatkan</w>
ari us</w>
Trans portasi</w>
arsi tek</w>
AKB 48</w>
f akultas</w>
gi o</w>
Uni on</w>
gr ad
D ingin</w>
S tor
Re formasi</w>
kun jung</w>
pr em
12 8</w>
12 2</w>
Wiki pedia</w>
semen jak</w>
Sali b</w>
Ada t</w>
keten tuan</w>
isola si</w>
ce patan</w>
O tto</w>
bi an</w>
16 7
Sco tt</w>
k anak</w>
p akan</w>
Tu gas</w>
rad ar</w>
b ong
y an
War isan</w>
Bil l</w>
Mong ol</w>
B uruh</w>
j uru</w>
o ba
c op
f avor
ur o</w>
17 8
usu han</w>
dibe baskan</w>
J in
maksi mum</w>
lis nya</w>
amo to</w>
Haw aii</w>
orien tasi</w>
on om
ke du
ati pula</w>
didi s
tuntu tan</w>
33 0</w>
17 0
diting galkan</w>
ti pis</w>
po ol</w>
Sur ya</w>
vis ual</w>
R ang
di adaptasi</w>
Cek o</w>
si hkan</w>
mer ayakan</w>
ah lian</w>
Tasik malaya</w>
K e</w>
k ho
ke lamin</w>
ha z
li han</w>
ter api</w>
diba tasi</w>
ra wan</w>
ban taian</w>
B aj
E timologi</w>
Kar o</w>
dibe dakan</w>
ur ai</w>
me war
oper asional</w>
12 4</w>
Arane idae</w>
k ada</w>
sa ins</w>
me yak
12 1</w>
kor an</w>
bi ografi</w>
T ala
radi asi</w>
13 3</w>
Mas ter</w>
i tia</w>
ba ju</w>
le taknya</w>
J em
a set</w>
g ir
ta li</w>
ke y</w>
inte gr
C o</w>
g el</w>
hany alah</w>
D I
l ur
pin jaman</w>
Ale x</w>
ti ons</w>
per kiraan</w>
und angan</w>
Y as
ta b
bu hkan</w>
Ch ili</w>
F la
G ali
ke le
bas ket</w>
Au to
16 8
Mo to
Li b
tun da</w>
di hentikan</w>
diser ang</w>
pres s</w>
bu kota</w>
tang kis</w>
ge ome
Per ancis</w>
Kun ingan</w>
M isi</w>
G ajah</w>
ber mula</w>
ak o</w>
jam in</w>
d p
k wa</w>
s son</w>
ber ken
is inya</w>
Le banon</w>
Maj alah</w>
menak lukkan</w>
meme luk</w>
gun ya</w>
w anan</w>
kar et</w>
tor i</w>
C amb
ter it
keda laman</w>
Pah lawan</w>
y ana</w>
Car ol
bol inggo</w>
Con tohnya</w>
penga cara</w>
i or</w>
me lem
Pi die</w>
F ul
ti dak
ker am
Mad rasah</w>
F eli
kesad aran</w>
Kol om
ma i</w>
13 2</w>
h om
p h</w>
uk akan</w>
O t
c ian</w>
n ai</w>
dis kusi</w>
lin tasan</w>
re ferensi</w>
sur i</w>
Kadi paten</w>
B BC</w>
s ka</w>
Ke ku
tan si</w>
peng as
L ong
An ne</w>
16 9
bis u</w>
diper gunakan</w>
K m</w>
dip aksa</w>
po gon</w>
w il
ber tahun</w>
selu ler</w>
ber to</w>
Man ado</w>
ri dge</w>
ger ia</w>
fi gur
pere konomian</w>
diba ca</w>
pengaw asan</w>
b ru
to ma</w>
oni c</w>
T op
sela ku</w>
gor eng</w>
G resik</w>
Tay lor</w>
serv atif</w>
peng ambilan</w>
angka pan</w>
ti anak</w>
unju k</w>
dip lom
pener bitan</w>
pe dang</w>
Per nikahan</w>
ber i
Y uan</w>
ker angka</w>
n us</w>
Ke ter
Bu gis</w>
memba tasi</w>
Per an</w>
Sta te</w>
Gu a</w>
ap o
tre m</w>
O ber
d j
d ada</w>
p ic
19 0</w>
dino batkan</w>
ne u
Pe sisir</w>
disip lin</w>
5 57
y anto</w>
ah al</w>
kor upsi</w>
f ak</w>
Pen em
2 10</w>
di hi
al s</w>
eg o</w>
Da ud</w>
C ros
i lasi</w>
inf rastruktur</w>
E le
pe za</w>
man da
Bata m</w>
temba kan</w>
di makan</w>
As h
ter ai</w>
Bang ladesh</w>
menye barkan</w>
Kor ps</w>
Alban ia</w>
di sampaikan</w>
Hon da</w>
C ik
C hir
I s</w>
o p</w>
o lia</w>
y angan</w>
menga jak</w>
peru mahan</w>
Cyper aceae</w>
meng ancam</w>
har d</w>
pem andangan</w>
13 4</w>
Ser ie</w>
Ar ts</w>
Z o
ye o</w>
J i</w>
ati h</w>
gere jawi</w>
A R</w>
v ice</w>
ber layar</w>
al un</w>
Di re
tino pel</w>
b la
c kh
ta tus</w>
Par oki</w>
hi ma</w>
19 13</w>
fas ci
mengajar kan</w>
19 10</w>
din as</w>
av e</w>
r ak</w>
sas aran</w>
G as
Ten is</w>
Sys tem</w>
ko s</w>
Gre en</w>
Ma lam</w>
R O
ber dua</w>
ter or
pe lay
meny im
jem aat</w>
Mali k</w>
al tar</w>
ko alisi</w>
Car l</w>
in us</w>
Me ja</w>
Per u</w>
tu snya</w>
l é
as aki</w>
Si pil</w>
2 12</w>
anu si
Sab tu</w>
Fer nan
j ing</w>
ra tik</w>
meny arankan</w>
lo go</w>
ter dekat</w>
Seba liknya</w>
da tar</w>
mem anggil</w>
dip isahkan</w>
dibe li</w>
Ge o
sus unan</w>
no sis</w>
5 50
I k
Le o</w>
D I</w>
di banding</w>
23 0</w>
eli dikan</w>
menem ui</w>
In dra
pida to</w>
tam bang</w>
Muni sipalitas</w>
H adi
ing en</w>
Ro ad</w>
poli tisi</w>
Mak anan</w>
B I</w>
J KT48</w>
da laman</w>
A P</w>
cen s</w>
J ung</w>
N I
im por</w>
15 5</w>
di rek
habi tat</w>
u tusan</w>
w n
ar k</w>
deg lang</w>
do u
mo to</w>
Y ak
o ffice</w>
per lahan</w>
rum pun</w>
]] .</w>
Patri ck</w>
kabin et</w>
t d</w>
en ne</w>
18 4
keber hasilan</w>
B om
pi ta</w>
v ard</w>
Li hat</w>
herbi vora</w>
pem en
W en
ta g
ke pon
peng anut</w>
akur ikuler</w>
B aga
24 0</w>
tam bangan</w>
Toy ota</w>
M u</w>
menging inkan</w>
kecan tikan</w>
Up acara</w>
di tahan</w>
War na</w>
Peng u
Man ag
Lit tle</w>
Phy to
C ru
pan demi</w>
bang nya</w>
G la
meng eli
melan carkan</w>
Steph en</w>
S ili
meng ganggu</w>
T ony</w>
12 6</w>
dro m</w>
h ab
k ins</w>
ber sekolah</w>
i taan</w>
s he
si dang</w>
At lan
Sosi alis</w>
J az
K ita</w>
memper siapkan</w>
mengh a
Tu a</w>
Alek san
S ong
Os aka</w>
B M
ke t
mp a</w>
te lahnya</w>
J R</w>
Mo bil</w>
k ung</w>
Per maisuri</w>
K yo
Y us
men a
ber ani</w>
pen ang
3 55
" :</w>
mo s</w>
peny erang</w>
sir kuit</w>
Pun cak</w>
% ),</w>
i takan</w>
ber upaya</w>
ce a</w>
han curan</w>
sal inan</w>
Anton io</w>
dis ana</w>
Or de</w>
Sen in</w>
Jo se
Reg ion</w>
ti kal</w>
men di
Tek s</w>
na ungan</w>
Ye hu
Dou g
m bang</w>
13 1</w>
klu sif</w>
P I</w>
so li
á n
un t</w>
po sisinya</w>
an ne</w>
ra d</w>
pub likasi</w>
Fo otball</w>
o sir</w>
12 9</w>
Car los</w>
di izinkan</w>
Tran s</w>
Pand emi</w>
U ru
W arga</w>
l engan</w>
ta sinya</w>
is ahan</w>
c itra</w>
si f
meny ing
ber satu</w>
14 4</w>
pekerj akan</w>
mor e</w>
ug ian</w>
gi tiga</w>
49 0
U T
si lia</w>
Konstan tinopel</w>
Vene sia</w>
G anda</w>
meny aksikan</w>
Ri o</w>
per hitungan</w>
In dra</w>
R asul</w>
d dy</w>
ł aw</w>
sis anya</w>
D E
P rak
di lan
pu tera</w>
pener bit</w>
anda lkan</w>
mon arki</w>
Ki dul</w>
Wis ata</w>
Colum bia</w>
ber dekatan</w>
J im
kolo m</w>
19 11</w>
di cer
th or
ho use</w>
la ang</w>
Champion ship</w>
Ci anjur</w>
Nas kah</w>
ke sultanan</w>
Ar n
form is</w>
ta tif</w>
S op
ir ah</w>
C it
14 3</w>
me langgar</w>
pung gung</w>
li pat</w>
D ang
c air</w>
s c
Pro ject</w>
Pe kerjaan</w>
Is la
34 0</w>
N G
an o
ton ia</w>
A mir</w>
h angat</w>
ko t</w>
ven t</w>
u lat</w>
ol ong</w>
pro y
Mar gar
se leksi</w>
Kh ali
M ovi
mela kukannya</w>
jen jang</w>
v ing</w>
im bangan</w>
ko v</w>
20 1</w>
per buatan</w>
Gu ang
Sing le</w>
S pace</w>
Pas angan</w>
menga w
B aw
d é
ti um</w>
13 6</w>
14 1</w>
dibaw akan</w>
meng identifikasi</w>
13 7</w>
Har apan</w>
pe tisi</w>
me tal</w>
14 6</w>
Tan aman</w>
poten sial</w>
ber tahap</w>
Ke kristenan</w>
el s</w>
gra vi
rah man</w>
ke wajiban</w>
le dakan</w>
14 5</w>
Kar awang</w>
berla wanan</w>
26 0</w>
has ilnya</w>
In si
Tele visi</w>
ne o</w>
a g</w>
dah ulunya</w>
H em
f fer
so al</w>
Law as</w>
C up</w>
ai t</w>
en te</w>
Lab or
da lian</w>
pem buka</w>
mo u
E du
ber tentangan</w>
be ban</w>
tr ag
ci us</w>
desa k</w>
unggu l</w>
M E
Pu teri</w>
pemba ca</w>
Wes t
O S
y aran</w>
amp ing</w>
ü n
dis am
sep akat</w>
Mos kwa</w>
kontro versi</w>
min oritas</w>
pal su</w>
Y ud
13 9</w>
Tr adisi</w>
T o</w>
n aan</w>
mem ak
j ai</w>
In ves
29 4
Ac ma
Lam bang</w>
per sahabatan</w>
ab le</w>
Mi ke</w>
Pasi r</w>
Marin ir</w>
su asana</w>
C opa</w>
t ini</w>
San s
gin ia</w>
semp it</w>
b s</w>
Mit su
Ban da</w>
Ba ik</w>
in sinyur</w>
Ten aga</w>
te luk</w>
bi k</w>
19 16</w>
ser i
dp l</w>
di bata
ter pen
da l
har fiah</w>
J at
an tu
as um
og iri</w>
eb oman</w>
mon umen</w>
ol an</w>
peng amatan</w>
meng undang</w>
diper ankan</w>
K aj
S 1</w>
mus lim</w>
T K</w>
f lek
ur is
anusi aan</w>
w angsa</w>
wa yang</w>
di hukum</w>
15 3</w>
tengge lam</w>
B lok</w>
ro mb
An da
E disi</w>
F orm
S la
k ambing</w>
r untu
A lat</w>
ak un</w>
mu ara</w>
23 4
Faba ceae</w>
penamp ilannya</w>
y ong</w>
is to
Ap ple</w>
Lor d</w>
N U</w>
” ,</w>
ula tan</w>
ses ungguhnya</w>
Glen ea</w>
Samar inda</w>
se hat</w>
i f
pre fektur</w>
P ok
s tar
seluru hnya</w>
F lorida</w>
M angg
Doug las</w>
5 47
pu luhan</w>
Pa ul
Wal ter</w>
la ter
pe tunjuk</w>
17 5</w>
P P</w>
S ma</w>
be tu
up an</w>
atri um</w>
r ing
aw at</w>
14 6
Ap abila</w>
pang lima</w>
bad i</w>
Univer se</w>
ido la</w>
Tern ate</w>
Pem impin</w>
Ber beda</w>
kar dinal</w>
pat ri
15 4</w>
Ur usan</w>
Sa ch
A udi
Po s</w>
Per jalanan</w>
meny usul</w>
18 5</w>
gan istan</w>
kap ten</w>
pun ah</w>
eo dera</w>
Acma eodera</w>
tang kan</w>
13 8</w>
at um</w>
bi ar
mer ancang</w>
20 5</w>
meng gan
Ke j
A ur
z en</w>
v ektor</w>
si ran</w>
C ov
Ch er
Or do</w>
Kenne dy</w>
C li
g y</w>
jam ur</w>
T es
c ah</w>
ab o
B y
ju t</w>
peng gabungan</w>
Lak samana</w>
penger tian</w>
V illa</w>
p seudo
Pra bu</w>
B ang</w>
L td</w>
V ik
Z en
Hil l</w>
P seudo
t ya</w>
as ari</w>
ga u</w>
Ni geria</w>
Nag ari</w>
si e</w>
ali as</w>
w ak</w>
di tarik</w>
14 2</w>
Mah kota</w>
Mi d
kun jungi</w>
nes s</w>
c os
h y</w>
ola kan</w>
la y</w>
ak al</w>
16 5</w>
ri t</w>
fin alis</w>
Mala ka</w>
mat ri
ti r
kam u</w>
gas nya</w>
an ni</w>
tam in</w>
mene p</w>
N ad
t su
or ejo</w>
18 2</w>
190 5</w>
klasi fikasikan</w>
tawar ingin</w>
U jung</w>
ni r
ber ia</w>
Per bedaan</w>
meng gelar</w>
peng aturan</w>
Erica les</w>
s w
per syaratan</w>
Ke jadian</w>
pan j
Men y
J ember</w>
s aksi</w>
Ci lacap</w>
pribad ian</w>
meyak inkan</w>
dibata lkan</w>
J ombang</w>
W e</w>
An di</w>
Andre w</w>
pemer iksaan</w>
Kul on</w>
ba kan</w>
lek tual</w>
hem ia</w>
v ol
se x</w>
Me ga
Fi si
S ag
tar sus</w>
u de</w>
per tarungan</w>
mengun tungkan</w>
ar ta</w>
wah ana</w>
k ia</w>
m is</w>
se in</w>
der son</w>
W er
a bel</w>
pe li
lam anya</w>
H D</w>
15 2</w>
Banyu mas</w>
z idae</w>
ber markas</w>
per ut</w>
Di dirikan</w>
no t</w>
n ol</w>
z y</w>
an tin</w>
menga k
M au
T rum
Ra y</w>
Sar jana</w>
eksp resi</w>
F ront</w>
Bur sa</w>
di tunjukkan</w>
se le
am al</w>
ch in
ab e</w>
lang ka</w>
Ci ri</w>
teren dah</w>
Arane us</w>
Jar ingan</w>
ter ancam</w>
P eg
ken y
Re aksi</w>
hub ungannya</w>
T su
Pen ampilan</w>
A bi
ta tnya</w>
kar angan</w>
hu a</w>
bertem pur</w>
pen didi
Br ah
membe baskan</w>
Isti mewa</w>
W ri
s ore</w>
ch an
bar nya</w>
uk nya</w>
Y i</w>
19 15</w>
Ter letak</w>
38 0</w>
Gar is</w>
Fir st</w>
pengiri man</w>
30 1</w>
den t</w>
da hkan</w>
Co ur
ter bakar</w>
The odo
dia jukan</w>
J oko</w>
ole han</w>
mah era</w>
Alex and
li ght</w>
14 8</w>
Is land</w>
Pas uruan</w>
Que en</w>
M ing</w>
z on
per encanaan</w>
190 8</w>
Aki bat</w>
20 2</w>
istirah at</w>
S om
M T
am bat</w>
22 5</w>
B E
mo yang</w>
sub jek</w>
feren dum</w>
Po p</w>
bour ne</w>
kur un</w>
Kamp anye</w>
Chel sea</w>
b by</w>
Pro to
ru tin</w>
28 0</w>
14 7</w>
imp lemen
k ru</w>
bo y</w>
27 0</w>
se gmen</w>
ing rat</w>
anc angan</w>
. ”</w>
mu d</w>
ane h</w>
y g</w>
menyu tradarai</w>
A er
i chi</w>
di hitung</w>
pr us</w>
arke ologi</w>
b ing
is o
i ang</w>
p it</w>
ta tor</w>
K ata
K il
pin dahan</w>
bertar ung</w>
k il
ke bangsaan</w>
ku deta</w>
bas ah</w>
son o</w>
kak aknya</w>
berta juk</w>
je jak</w>
Du bai</w>
se kun
or ang
trans misi</w>
Sak ti</w>
tawar an</w>
G at
w en</w>
jaz z</w>
heli kopter</w>
ta lis</w>
Fer r
Fu ku
D A</w>
P C</w>
ka d</w>
Mar ga</w>
fo sil</w>
tingg inya</w>
tr uk</w>
den g</w>
j al</w>
an n</w>
Lam ongan</w>
ko modi
Su medang</w>
penga jar</w>
ser at</w>
Bu di</w>
Bis nis</w>
di publikasikan</w>
mak simal</w>
ar ana</w>
20 6</w>
Sido arjo</w>
y x</w>
I N</w>
te li
kris tal</w>
9 37
re ditasi</w>
Mong olia</w>
E par
an baru</w>
li di
bi r
memper kirakan</w>
Phi lip</w>
S udi
a ur
Moder n</w>
T aw
ber karier</w>
tang nya</w>
rum it</w>
ber harga</w>
Mer upakan</w>
diken dalikan</w>
diaw ali</w>
M ai
Li ver
20 3</w>
Ru te</w>
P ir
15 7</w>
menem bak</w>
de batan</w>
ir ingi</w>
im al</w>
ter de
15 1</w>
de k</w>
mon o
memberi tahu</w>
ser ang</w>
peng hormatan</w>
mp ang</w>
Gab ri
tangga pan</w>
il la
yak in</w>
komp ilasi</w>
Sum bawa</w>
dor f</w>
f are</w>
r er
on kan</w>
le u
meng anut</w>
peng olahan</w>
At lantik</w>
Faba les</w>
O gan</w>
su kar
16 2</w>
48 0
menghar gai</w>
R yan</w>
j ajaran</w>
por a</w>
a e
su mpah</w>
ti e</w>
me wah</w>
18 1</w>
Camb ridge</w>
ri wayat</w>
mi sionaris</w>
16 8</w>
Di gital</w>
Vir ginia</w>
omy za</w>
R he
ti san</w>
14 9</w>
Af ganistan</w>
ber an
Si mal
23 5</w>
16 3</w>
Ste ve</w>
L ud
l eri</w>
v ar
per filman</w>
Studi os</w>
li tas</w>
T ad
k un</w>
ro gen</w>
aj ikan</w>
pon sel</w>
bur y</w>
J upiter</w>
16 6</w>
Pon tianak</w>
Pek anbaru</w>
ce book</w>
ru mus</w>
par oki</w>
belak angan</w>
M TV</w>
memper timbangkan</w>
Gu in
pad u</w>
no w</w>
G og
ay ana</w>
13 38
Ka puas</w>
beg in</w>
U m
w ari</w>
15 8</w>
13 47
B M</w>
s ons</w>
J ati</w>
S C</w>
i tasi</w>
mu k
Sar ana</w>
menghil ang</w>
p al</w>
20 5
menga wali</w>
Wil son</w>
berke dudukan</w>
dikar uni
H ati</w>
i migran</w>
x y</w>
Ku ta</w>
ondo w</w>
AI N</w>
ti es</w>
si fikasi</w>
bar unya</w>
har mon
Ri z
Pa gi</w>
9 36
19 2</w>
A yah</w>
P lus</w>
d r</w>
33 5
vel op
20 4
15 6</w>
13 37
menyim pulkan</w>
H ok
T uan</w>
si tu</w>
os obo</w>
e tas</w>
sa m</w>
25 6</w>
memec ahkan</w>
sekre taris</w>
B ulu</w>
Di per
Stan dar</w>
ri l</w>
Pen yak
9 38
Bli tar</w>
e o</w>
ti kannya</w>
D it
di aman</w>
musi knya</w>
Fil m
Sta tistik</w>
Reg i
bah nya</w>
tu t</w>
hi per
28 4
3 10</w>
K ala
N ata
di usulkan</w>
pak sa</w>
j ad</w>
per enang</w>
Com mun
buk itan</w>
dok trin</w>
C ao</w>
M N
mengu sir</w>
. "></w>
sam pel</w>
pemba yaran</w>
penj ajahan</w>
S pr
o des</w>
peng in
mela ju</w>
13 39
Re search</w>
X IX</w>
r ang
ang un</w>
meny anyi</w>
kri p</w>
my zidae</w>
Kla ten</w>
Kolom bia</w>
2 14</w>
D il
bu sana</w>
Peng ar
jum lahnya</w>
Agro myzidae</w>
om or
psi kologi</w>
Boj onegoro</w>
le gasi</w>
menga pa</w>
ide ologi</w>
ster dam</w>
Ka um</w>
Ni lai</w>
mem uji</w>
Penyak it</w>
20 4</w>
ko mu
s ty
di war
to k</w>
18 4</w>
16 4</w>
ter ikat</w>
is ai</w>
pen ilaian</w>
K ru
Ch ap
sin tesis</w>
bern y
s anya</w>
kese jahteraan</w>
diken akan</w>
ca le</w>
keter angan</w>
K ayu</w>
P le
pem bangkit</w>
16 9</w>
untu han</w>
di ali
H os
Nor th
F at
S A</w>
S arah</w>
ke w
tan egara</w>
ong kan</w>
Su kar
seni ornya</w>
I lir</w>
tu kang</w>
mer es
18 9</w>
se sudah</w>
ata snya</w>
samp ah</w>
dur asi</w>
tif kan</w>
coun ty</w>
ting katan</w>
tran sisi</w>
kali an</w>
pen derita</w>
Lib ya</w>
Epar ki</w>
2 15</w>
se tinggi</w>
ber penduduk</w>
22 60
16 1</w>
Pon orogo</w>
ungg uh</w>
Glo be</w>
men dominasi</w>
ser ver</w>
tang annya</w>
plas tik</w>
16 7</w>
pad anya</w>
190 7</w>
ba la</w>
Mas sa
eks pansi</w>
menan dakan</w>
a z</w>
se lir</w>
ta s
sel l</w>
E i
e wa</w>
pe p
Per juangan</w>
22 58
ber karya</w>
meng kritik</w>
Ke da
mun d</w>
Sam udera</w>
dile takkan</w>
li bur</w>
pen cer
Ke dokteran</w>
udi n</w>
h ia</w>
k lor
r ang</w>
ber tanya</w>
22 80
bad ai</w>
f it
u annya</w>
la ju</w>
si lah</w>
it raan</w>
th y</w>
14 4
lesa ian</w>
astron omi</w>
j un
ber kontribusi</w>
mu t</w>
Sci ence</w>
ep i
tre t</w>
O c
memb ran</w>
unda tion</w>
Indone sian</w>
di hubungkan</w>
ur s</w>
do lar</w>
pu jian</w>
17 1</w>
reg at</w>
Aleksan der</w>
peng isi</w>
h on
Sh er
son an</w>
M um
T ol
Cor ne
ti gasi</w>
22 57
Is landia</w>
dimak sud</w>
18 8</w>
P G
ber gelar</w>
ren tang</w>
o posisi</w>
Ab raham</w>
mit os</w>
S O
j uni
do main</w>
meny ajikan</w>
Am sterdam</w>
menger jakan</w>
% )</w>
k papan</w>
la v</w>
ber lebihan</w>
dikaruni ai</w>
neg osiasi</w>
B har
ol lis</w>
Pe tro
Kas us</w>
ali ansi</w>
Ser vice</w>
penting nya</w>
ayah andanya</w>
G ay
R un
men um
pan en</w>
w w
ar u</w>
19 1</w>
Mas kapai</w>
ck s</w>
Karak ter</w>
T at
c l
po grafi</w>
Ab dur
as alnya</w>
sekun der</w>
Simal ungun</w>
lan ds</w>
Ag us</w>
lin er</w>
o da</w>
ga kan</w>
Mak mur</w>
to wn</w>
Wi do
A FC</w>
I z
Le wis</w>
jen dela</w>
mimp i</w>
mp ingi</w>
Al fred</w>
Go od</w>
Phyto myza</w>
18 3</w>
17 9</w>
Ne o
48 0</w>
mengu kur</w>
univer sal</w>
S c
ole on</w>
15 9</w>
pengem bang</w>
si lat</w>
N um
h aji</w>
gaw ang</w>
pre si</w>
2 11</w>
ch on
las s</w>
t ter
lom baan</w>
Kon sili</w>
say uran</w>
2 17</w>
18 6</w>
Tur namen</w>
seni lai</w>
R ama</w>
pelu ang</w>
re kannya</w>
N BA</w>
di on</w>
pi ano</w>
D amp
ta tion</w>
ta bung</w>
peng ukuran</w>
Ch in
jal annya</w>
prose dur</w>
G y
19 3</w>
22 56
Gre at</w>
si as</w>
inte lektual</w>
dihad iri</w>
g ma</w>
ker ugian</w>
dinam ika</w>
cap aian</w>
Myr tales</w>
E di
ke lem
min imal</w>
Kam ila</w>
lengka pan</w>
Andro id</w>
A mar
ro k
re al</w>
13 40
Kem en
angga r</w>
Lu buk</w>
romb ongan</w>
ik kan</w>
30 5</w>
50 1</w>
Dhar ma</w>
Se suai</w>
tan am</w>
De fin
Des kripsi</w>
mengaw asi</w>
ka bur</w>
22 59
36 5</w>
Bi reuen</w>
anggo taan</w>
da hnya</w>
on d</w>
13 46
16 6
col or</w>
Sans kerta</w>
meng angkut</w>
Kam pus</w>
S eng
tem per
peng ur
min kan</w>
qu i
R ek
terp re
habi tatnya</w>
deng arkan</w>
Anti ok
B N</w>
f ul
le d</w>
17 2</w>
Pem enang</w>
erin e</w>
kom ite</w>
A las
tar aan</w>
17 8</w>
argu men</w>
berke lanjutan</w>
us ung</w>
C em
w at
12 46
Si silia</w>
mili knya</w>
kar go</w>
9 39
di sem
li ve</w>
str a</w>
mengeli lingi</w>
B lan
j as
ke delapan</w>
25 5</w>
Ro h</w>
Mas alah</w>
15 40
tar iat</w>
ola li</w>
T amp
bu han
17 3</w>
sur vei</w>
G ul
U H
12 37
ti on
me wujudkan</w>
18 5
Ken ya</w>
wit ter</w>
spi ritual</w>
30 3</w>
Is kan
magne tik</w>
? "</w>
ter ima</w>
sis tem
En ergi</w>
kerj akan</w>
Chris toph
menu liskan</w>
C ak
me des
al ti</w>
ah annya</w>
12 57
Wil helm</w>
mende fin
gravi tasi</w>
lin ga</w>
Ne t
ber salah</w>
ber kunjung</w>
22 1</w>
22 47
op tim
pri mer</w>
Nep al</w>
H ur
ko tamadya</w>
berny anyi</w>
ka annya</w>
to lem
17 6</w>
pen erimaan</w>
19 9</w>
12 69
neg aranya</w>
dar in</w>
pemba karan</w>
Sri wijaya</w>
H ampir</w>
v ad
la kuan</w>
Pen da
Su zuki</w>
mengaku isisi</w>
O ffice</w>
p lay
gr aman</w>
dira ih</w>
grad asi</w>
12 47
Ch ur
diha pus</w>
9 40
se ter
Per damaian</w>
popu lar
Ah li</w>
A lan</w>
ki dul</w>
Jac kson</w>
f us
men ari</w>
per satuan</w>
S I
ba lan</w>
meny atukan</w>
13 36
Be ta
ram ai</w>
a o
la zim</w>
mas ikan</w>
ce ph
par asit</w>
Les te</w>
R I
n em
dise men</w>
an is</w>
ti lla</w>
22 67
cer ai</w>
karen anya</w>
meren canakan</w>
3 25</w>
h um</w>
am ida</w>
ter penting</w>
man di</w>
12 56
27 5</w>
diper bolehkan</w>
Do li
Liver pool</w>
- "</w>
20 8</w>
di kunjungi</w>
22 39
gor it
Bos ton</w>
C is
ke terli
P om
ter lepas</w>
tan jung</w>
Tan pa</w>
Gener asi</w>
A s</w>
e ko
p il
permu laan</w>
Tele vision</w>
f o</w>
di lindungi</w>
per sem
peng huni</w>
Gram my</w>
N es
Mu lia</w>
la utan</w>
ov o</w>
pi ala</w>
tu han</w>
meng orbit</w>
19 5</w>
kem anusiaan</w>
22 40
22 46
Fo undation</w>
meni lai</w>
velop ment</w>
28 67
han tu</w>
We i</w>
Nap oleon</w>
disu kai</w>
saw it</w>
12 38
17 4</w>
adi pati</w>
Mer deka</w>
mene kan</w>
N T
R ektor</w>
meng gun
ide al</w>
di ung
ur o
as ian</w>
ad an</w>
In dramayu</w>
M in</w>
me di
meng ep
ban dung</w>
pendidi kannya</w>
B lu
e w
Hat ta</w>
F uj
sul ung</w>
horm at</w>
Tech n
A yu</w>
ati ve</w>
25 1</w>
S tory</w>
it men</w>
12 40
an tan</w>
12 67
jar ing</w>
Ak sara</w>
sali b</w>
H ome</w>
c c</w>
c ker</w>
ku asa</w>
D K
J as
ga ji</w>
ke cer
22 50
Ro y</w>
sal ju</w>
inc ian</w>
perlu asan</w>
do re</w>
25 4</w>
w ich</w>
ken aikan</w>
ab a</w>
Univer sal</w>
ingg uan</w>
ga gung</w>
pen daratan</w>
pen aklukan</w>
ken yataan</w>
Fran ç
19 6</w>
12 59
Le i
la tan</w>
23 8</w>
J ur
T ong
22 70
Ber bahasa</w>
rat ing</w>
CA R</w>
f ia</w>
22 79
Pan icum</w>
cu k</w>
190 6</w>
G in
ok s</w>
den dam</w>
peru sak</w>
memo tong</w>
eksperi men</w>
E ra</w>
se m</w>
ber nilai</w>
12 50
trans aksi</w>
las t</w>
lan an</w>
dibu barkan</w>
Manda iling</w>
dipen uhi</w>
j ek
di m</w>
di promosikan</w>
on disemen</w>
be i</w>
ch en
22 8</w>
22 2</w>
to logi</w>
bij ak
diting katkan</w>
i ya</w>
an sa</w>
se gitiga</w>
di inginkan</w>
so m</w>
Ko mer
2 16</w>
ber makna</w>
ak urat</w>
ili asi</w>
22 38
pertu karan</w>
L ine</w>
ni ght</w>
Pres tasi</w>
Dra gon</w>
e bu
ber api</w>
ber janji</w>
p isah</w>
ung utan</w>
ban yu
15 39
ven sional</w>
Mah a</w>
Arsi tektur</w>
matri ks</w>
w el
fil oso
17 7</w>
Gi ov
jaw aban</w>
keda ulatan</w>
I bunya</w>
mer asakan</w>
Bri an</w>
stan si</w>
P ura</w>
u to</w>
at su</w>
22 69
17 6
peny elidikan</w>
19 7</w>
us salam</w>
12 58
tar e</w>
ww w</w>
F ac
p tis</w>
ber niat</w>
mela tih</w>
ov en</w>
H o</w>
L S</w>
12 36
26 2</w>
ger akkan</w>
nuk le
25 2</w>
Hal mahera</w>
x t</w>
eks klusif</w>
htt p</w>
30 2</w>
Pen dukung</w>
kontro ver
Lap oran</w>
Demok ratik</w>
Ke adaan</w>
nasi b</w>
diar tikan</w>
l unya</w>
bu di</w>
Lum pur</w>
K ho
22 49
Ri d
tiv asi</w>
ar akan</w>
22 6</w>
par kir</w>
ou gh</w>
F on
ta skan</w>
ke polisian</w>
Kar dinal</w>
Pu bli
temba ga</w>
ke lo
20 7</w>
pen ce
kem a</w>
Jar ak</w>
20 9</w>
12 60
Gre g
men angga
22 7</w>
kor on
Ru bi
Ox ford</w>
P si
p ta</w>
s ch</w>
re alitas</w>
peng ungsi</w>
22 37
26 4</w>
Gad ing</w>
peng urus</w>
30 4</w>
Ad ri
UN ES
Beli tung</w>
le a</w>
22 36
Mar oko</w>
Hi p
b asa</w>
per ilisan</w>
or bi
pen asihat</w>
su mur</w>
au i</w>
figur asi</w>
A A</w>
B it
si ar</w>
G az
M C
tu gasnya</w>
Ch ang</w>
Si prus</w>
M é
T rak
si buk</w>
ra gam</w>
ta inya</w>
22 89
18 7</w>
didis tribusikan</w>
B ay</w>
I van</w>
pe waris</w>
keti ganya</w>
A gen
ke ahlian</w>
22 99
hor or</w>
amer ika</w>
Tuju h</w>
Bre bes</w>
lidi ki</w>
g lu
atur al</w>
mencer minkan</w>
O ly
kre dit</w>
pah am</w>
Sou th
3 23</w>
la h
35 5</w>
ku k</w>
pen angkapan</w>
30 8</w>
Gar uda</w>
prak tis</w>
Demok rasi</w>
Mojo kerto</w>
E pi
f in</w>
24 6</w>
To wn</w>
Yo ur</w>
Fi tur</w>
A H</w>
per ikanan</w>
22 4</w>
kon on</w>
op tik</w>
tor al</w>
de d</w>
19 4</w>
NAS A</w>
as ah</w>
ditu turkan</w>
fin an
berte patan</w>
A ne
me luas</w>
og rap
Kebu n</w>
k asa</w>
gra fis</w>
Yo ko
H es
mu mnya</w>
19 8</w>
memper hatikan</w>
N el
S tone</w>
ke diaman</w>
pem bantu</w>
Peny i
Rac ing</w>
ta f
hi dr
member inya</w>
L as</w>
ba ca</w>
do mba</w>
al engka</w>
meng hitung</w>
Ku cing</w>
kre atif</w>
h omo
l eng</w>
ir ingan</w>
ph y
Sy ah
pemas aran</w>
B lang</w>
P A</w>
mul ti</w>
F an
R T
o x
15 37
lis h</w>
w eb
un cul
He wan</w>
presen tasi</w>
F en
H ai
se telahnya</w>
ir at</w>
b og
e kat</w>
190 1</w>
S S
ko sa</w>
Mar kus</w>
26 5
cer das</w>
in do</w>
26 5</w>
Po hon</w>
For ce</w>
3 21</w>
on im</w>
33 1</w>
eli hara</w>
bas s</w>
RC TI</w>
mendefin isikan</w>
A kh
awar sa</w>
F is
U lama</w>
i mau</w>
an ku</w>
ber ge
Mel bourne</w>
jau an</w>
Dat aran</w>
sa han</w>
ban kan</w>
ber cerita</w>
meng eksp
ata annya</w>
Vic tor</w>
2 19</w>
22 9</w>
ber kolaborasi</w>
mem i
Lad y</w>
3 15</w>
J og
23 1</w>
Po wer</w>
23 3</w>
ber kantor</w>
ke pu
22 48
23 2</w>
Lu kas</w>
mal ang</w>
Fa cebook</w>
pis ang</w>
oton om</w>
perban dingan</w>
H AM</w>
bu mbu</w>
ji ang</w>
se pasang</w>
di alami</w>
Dre am</w>
3 11</w>
h aki
Su bang</w>
Li ang</w>
cor e</w>
ber tempat</w>
re e</w>
kon vensional</w>
ok ia</w>
membaw anya</w>
2 13</w>
K a</w>
as h</w>
t ten</w>
gal nya</w>
me yakini</w>
par am
Ca bang</w>
de ki
mb ing</w>
Anth ony</w>
dar d</w>
SM PN</w>
e si
li sihan</w>
per anan</w>
3 18</w>
F rancis</w>
vi er</w>
Komp leks</w>
K yai</w>
T anda</w>
Beli au</w>
pe dalaman</w>
buny ikan</w>
B apa</w>
P tolem
se masa</w>
27 4</w>
Pem ak
na f
3 19</w>
per mo
In dian</w>
og e</w>
Ap likasi</w>
30 7</w>
perg ian</w>
git aris</w>
Y an</w>
di undang</w>
kon sisten</w>
kuan tum</w>
C itra</w>
t adi</w>
w abah</w>
as ter</w>
pen cipta</w>
24 5</w>
Are a</w>
men dis
ber awal</w>
Pe lak
audi o</w>
f el
lor asi</w>
Sing h</w>
reli gius</w>
favor it</w>
3 26</w>
z an</w>
per to
Ar ti
ve y</w>
UNES CO</w>
D omin
t bah</w>
re d</w>
24 3</w>
ori dor</w>
bal ingga</w>
pe tualangan</w>
Le bak</w>
22 3</w>
lan a</w>
penyi aran</w>
G au
R embang</w>
y et</w>
me t</w>
bar ang
kontrover sial</w>
y id</w>
cho peza</w>
atur e</w>
Belak ang</w>
juni ornya</w>
me a</w>
33 7</w>
K it
g r</w>
jal anannya</w>
lem but</w>
mene was
I dol</w>
V ari
ber hadapan</w>
ala gi</w>
25 3</w>
sis tensi</w>
ph ora</w>
ter dengar</w>
te linga</w>
In forma
ay angan</w>
dem ik</w>
tamp ilan</w>
indu stri
Beg itu</w>
W eb
ha o</w>
Bol lywood</w>
20 24</w>
ata i</w>
eg e
Si tu
kumpu lkan</w>
sho w</w>
roman tis</w>
g es
ai b</w>
33 5</w>
kun ingan</w>
ti mnya</w>
ju tkan</w>
25 7</w>
For um</w>
disu sul</w>
ke sembilan</w>
15 47
Mala ya</w>
NAS CAR</w>
b ogan</w>
Ri der</w>
Bu ah</w>
mon t</w>
cti ons</w>
Ke senian</w>
29 2</w>
an um</w>
tu pan</w>
29 0</w>
yo u</w>
L E
e y
di atas</w>
24 4</w>
3 13</w>
S wasta</w>
2 18</w>
tu ania</w>
24 7</w>
Dem ikian</w>
kay asa</w>
F anta
ci fic</w>
24 1</w>
37 0</w>
35 4</w>
zu ela</w>
Dat uk</w>
3 12</w>
K ing
uru tnya</w>
12 48
ge ografi</w>
29 8</w>
33 6</w>
nika hannya</w>
jaz air</w>
P lu
y en</w>
33 8</w>
Kup ang</w>
men dalam</w>
28 1</w>
b le
ile gal</w>
26 3</w>
33 3</w>
54 0</w>
Penge tahuan</w>
3 16</w>
ta lkan</w>
ang o</w>
su bur</w>
ch o</w>
ag as
ho p</w>
Char t</w>
3 14</w>
fil mnya</w>
12 49
rat us</w>
Spong e
A ta
L az
edi tor</w>
peng hasilan</w>
seku el</w>
seter usnya</w>
X I</w>
s t
Sam bas</w>
diak ses</w>
uc apkan</w>
P M</w>
si gn
23 4</w>
Bur ma</w>
inde ks</w>
An as
Pro bolinggo</w>
produ seri</w>
horm ati</w>
d asikan</w>
o to</w>
per maisuri</w>
ke bangkitan</w>
Mar ino</w>
ou t
khu su
rad ikal</w>
psi kolo
B ole
di sahkan</w>
kon tin
keti mbang</w>
Han s</w>
menewas kan</w>
z eg
mela mp
23 7</w>
J ad
Du kuh</w>
Mic hi
Es tonia</w>
B iro</w>
me tri</w>
y yah</w>
en an</w>
Ko ordin
ham il</w>
kec ilnya</w>
Film fare</w>
sep atu</w>
oton omi</w>
f tarkan</w>
j ajar</w>
k lorida</w>
mem anc
iden tik</w>
m ara</w>
se min
di identifikasi</w>
ber akhirnya</w>
kon versi</w>
Pos t</w>
T amb
sen si
Dip onegoro</w>
Slo ven
ke te
pe ternakan</w>
24 2</w>
ale l</w>
A K</w>
ma je
23 6</w>
26 8</w>
27 6</w>
c er</w>
ber pasangan</w>
Kom posisi</w>
F M</w>
T ol</w>
le her</w>
de a</w>
kar ang
berse dia</w>
mer ek
aba tnya</w>
Ci amis</w>
J aw
at ed</w>
meta bo
peng ujian</w>
24 8</w>
lis annya</w>
en do
per debatan</w>
34 3</w>
ku pu</w>
Baga i
V ladi
la gunya</w>
ter ben
ter muda</w>
at lah</w>
il ton</w>
du kuh</w>
senj ataan</w>
A is
z il</w>
29 5</w>
wak tunya</w>
S wi
Per angkat</w>
22 68
Me tropolitan</w>
Kon f
Pok é
C ah
i fikasi</w>
ber putar</w>
26 9</w>
35 2</w>
medes mia</w>
am u</w>
po ser</w>
29 1</w>
Pe serta</w>
tele komunikasi</w>
n s</w>
av irus</w>
pac u</w>
se berang</w>
is aris</w>
pem isahan</w>
30 6</w>
35 9</w>
Cen tre</w>
menun jang</w>
Y a</w>
p y
p aw
w hi
aj arkan</w>
Pen ulis</w>
oksi dasi</w>
koordin asi</w>
3 28</w>
ser agam</w>
la kan</w>
ler eng</w>
D ana</w>
R p
Pen ing
hen tian</w>
Mat su
S oph
per saingan</w>
Sen yawa</w>
g ili
26 1</w>
fi gur</w>
35 1</w>
K RL</w>
g la
is on</w>
so alan</w>
40 1</w>
Lam i
memad ai</w>
Th om
Su menep</w>
33 47
Kyo to</w>
panj angnya</w>
P ep
V es
28 9</w>
au to
23 9</w>
vari abel</w>
y am
si te</w>
hu tanan</w>
mb ingan</w>
Bali kpapan</w>
2 200
3 22</w>
C C</w>
Pro fesor</w>
res pon</w>
lem an</w>
Fernan do</w>
C ul
D olok</w>
Tor y
3 17</w>
3 27</w>
se kadar</w>
di ad
ma ya</w>
Per e
28 6</w>
27 8</w>
Pr o</w>
v il
meng ikat</w>
To ku
35 8</w>
keter ampilan</w>
mempering ati</w>
Dav is</w>
maje lis</w>
set ts</w>
o le</w>
u tang</w>
Ke empat</w>
189 0</w>
A x
e f
Sa leh</w>
56 0
C N
ber ger</w>
sa lat</w>
Ar j
un e</w>
tar y</w>
kom itmen</w>
Gre gor
3 24</w>
12 68
30 9</w>
Asa m</w>
onom idae</w>
2 198
G r
ta war</w>
ur e
au h</w>
bon eka</w>
vak sin</w>
u ts
An ti</w>
28 5</w>
umu man</w>
Chir onomidae</w>
Sach sen</w>
B T
bi ak</w>
de x</w>
33 2</w>
diper luas</w>
35 3</w>
Ek seku
H ung
27 9</w>
co s</w>
dip ahami</w>
En am</w>
27 7</w>
y adi</w>
per asi</w>
V as
a ah</w>
ber status</w>
mas ter</w>
lo w
Den pasar</w>
29 9</w>
tin o</w>
Kong o</w>
menger ti</w>
h ong</w>
lu s
An war</w>
39 0</w>
af iliasi</w>
menu tupi</w>
semi perairan</w>
Movi e</w>
q i</w>
ke pribadian</w>
duk tor</w>
Te gal
Johan n</w>
Tu ban</w>
Pol y
se ko
lin der</w>
Mati us</w>
Se cre
mar i
34 2</w>
Hen ri</w>
do s</w>
28 4</w>
4 50</w>
15 36
oper a</w>
Pil kada</w>
Defin isi</w>
E do</w>
per tambangan</w>
aw ati</w>
Man darin</w>
34 4</w>
mengam ati</w>
ter asa</w>
sen sor</w>
28 7</w>
28 8</w>
2 197
P las
T ali
ten ang</w>
56 0</w>
A maz
W aj
per olehan</w>
tan bul</w>
Ken dal</w>
Mad inah</w>
D ong</w>
H ang
te pung</w>
sar ang</w>
dimu at</w>
komodi tas</w>
th ia</w>
34 8</w>
190 3</w>
G h
di g
mem ori</w>
28 2</w>
gu bern
34 7</w>
sepu tar</w>
P KI</w>
se gar</w>
Al jazair</w>
im un</w>
Rah man</w>
is k
man i
fi le</w>
He art</w>
chu setts</w>
akra b</w>
t v
mening katnya</w>
Wil l</w>
B us</w>
I katan</w>
46 0</w>
34 9</w>
T j
k is
das awarsa</w>
sy s
angka u</w>
khi an
n yar
ati on
24 9</w>
34 6</w>
35 7</w>
kas inya</w>
190 9</w>
x on</w>
y in</w>
ti ara</w>
fa atan</w>
3 29</w>
to mo</w>
27 2</w>
and y</w>
u lah</w>
ik u</w>
Kom puter</w>
Poli teknik</w>
omy ia</w>
28 3</w>
Li tuania</w>
Sta lin</w>
34 5</w>
ber pengalaman</w>
hi k
Se i</w>
kemba likan</w>
Kon federasi</w>
Com te</w>
bere dar</w>
C ac
í n</w>
kon testan</w>
27 3</w>
57 0</w>
Ex press</w>
se jati</w>
op le</w>
Ek s
P abrik</w>
u tuh</w>
es okan</w>
dise suaikan</w>
penu tur</w>
Ferr ari</w>
28 68
35 6</w>
Pres s</w>
Yehu da</w>
ro bot</w>
ris on</w>
As asi</w>
kur a</w>
37 5</w>
per sen
pi pa</w>
berku alitas</w>
Th or
Ch am
Sy bra</w>
Vene zuela</w>
E t
in sta
da wa</w>
eg or
33 9</w>
ham batan</w>
mag net</w>
U mumnya</w>
men curi</w>
26 6</w>
26 7</w>
can anya</w>
190 4</w>
Pin ang</w>
bangk itkan</w>
Aster aceae</w>
K ō
N in
anj urkan</w>
waji bkan</w>
N gan
P lot</w>
in tern
is lam</w>
ch ing</w>
ver tikal</w>
33 4</w>
pener apan</w>
dita war
tif ikat</w>
cri p
H ir
ba lai</w>
do man</w>
Lu wu</w>
e tika</w>
z ia</w>
ter bentuknya</w>
ma jang</w>
34 1</w>
m ian</w>
bah ar
Me h
N H
h amp
m icro
t tle</w>
em isi</w>
Per mu
penga jaran</w>
190 2</w>
M ap
Y an
ba tik</w>
per timbangan</w>
per sekutuan</w>
ti ca</w>
hi as</w>
ki mi
29 3</w>
val eri</w>
men tah</w>
27 1</w>
par t
Eri c</w>
Gus ti</w>
u istik</w>
lan car</w>
48 6</w>
menem bus</w>
Joh or</w>
I K
di m
per panjangan</w>
tidak lah</w>
te gas</w>
189 8</w>
F ati
25 8</w>
Poké mon</w>
2 199
L ast</w>
T witter</w>
di wakili</w>
Sin tang</w>
Ruk un</w>
C H
per gantian</w>
Mor o
Jay apura</w>
Z am
ra in</w>
th ers</w>
bo s</w>
at han</w>
ke pal
po lis</w>
ir u</w>
dar is</w>
Sa id</w>
Bo hemia</w>
c ation</w>
spon sor</w>
pemro graman</w>
S ky
on tak</w>
tem ukan</w>
gul ingkan</w>
a ci
n os
n aga</w>
s ya
di hormati</w>
per jalanannya</w>
Bel l</w>
Maj alengka</w>
X u</w>
am puannya</w>
finan sial</w>
29 4</w>
ti pan</w>
bar isan</w>
29 7</w>
Mo u
Po sisi</w>
em ia</w>
he ad</w>
a ult</w>
c atan</w>
ili ki</w>
25 9</w>
Ju li
penye lesaian</w>
gon is</w>
in ess</w>
deki awan</w>
a er
qu e
Fe der
ditan am</w>
Karang anyar</w>
s aran</w>
di ru
ke samaan</w>
ce l</w>
mi ted</w>
Kam en</w>
v ik</w>
di desain</w>
di alog</w>
hi er
Bai t</w>
Fa ir
seng ke
d uri</w>
ling kup</w>
gro up</w>
ditawar kan</w>
F ak
M B
se e</w>
40 4</w>
Mon umen</w>
pembe lian</w>
dicer itakan</w>
de z</w>
cu alian</w>
Ala bama</w>
penyer angan</w>
Nug ini</w>
B e</w>
e le</w>
ter nama</w>
dis kri
ton o</w>
Ver n
L og
g han
Su dan</w>
6 39
ad aannya</w>
menj amin</w>
49 0</w>
kri teria</w>
Ali ce</w>
US A</w>
isk inan</w>
R NA</w>
s ori</w>
di kembalikan</w>
si ca</w>
at e
peng hasil</w>
Ar chi
opo gon</w>
ping gir</w>
C han</w>
K erin
di kumpulkan</w>
lu an</w>
Ke n</w>
War ner</w>
amer kan</w>
) ".</w>
2 196
z y
ka kek</w>
per bukitan</w>
Si fat</w>
umpu lan</w>
V atikan</w>
f isme</w>
pe i</w>
ir nya</w>
Fran sis
Yor dania</w>
perkem bangannya</w>
di pec
hi dung</w>
memba talkan</w>
A G
da p</w>
man ik</w>
pan ah</w>
Bi ara</w>
un du
sosi alis</w>
H av
S cre
ta pa</w>
du al</w>
ku tub</w>
wak arta</w>
33 48
taku tan</w>
menju arai</w>
pe layan</w>
hi j
Freder ick</w>
F ad
hek tar</w>
Rog er</w>
Massa chusetts</w>
A di</w>
D um
e tis</w>
54 5</w>
mam alia</w>
z ar</w>
ker usuhan</w>
trans formasi</w>
ny aman</w>
kes ak
Wido do</w>
De v
dip in
Sta tus</w>
38 4</w>
Bat u
J am</w>
ba li
ke unggulan</w>
tro cera</w>
F ra
50 2</w>
kur sus</w>
C ath
ov ina</w>
50 0
K K</w>
s lo
di ucapkan</w>
pr in
A zi
O u
S t
58 0
40 2</w>
in ovasi</w>
Da i
memba las</w>
C D
per nikahannya</w>
ing er</w>
ul angan</w>
Im peri
Aster ales</w>
ke indahan</w>
re la
37 8</w>
J ag
ur ia</w>
peng ikutnya</w>
sta tistik</w>
59 0</w>
jep ang</w>
Christoph er</w>
Sloven ia</w>
K ang</w>
di kerjakan</w>
meny ala
ker bau</w>
vi ć</w>
47 5</w>
tin ju</w>
trad ara</w>
54 4</w>
tim bal</w>
khawati r</w>
nag ari</w>
Sponge Bob</w>
N ur</w>
Y aman</w>
sa u</w>
kon servatif</w>
Ik lim</w>
pi dana</w>
cas ila</w>
per lombaan</w>
Eur ope
koordin at</w>
s tro
en demik</w>
ber gaya</w>
ber ujung</w>
or angan</w>
hi ri</w>
In dus
mas uknya</w>
kan d
meman jang</w>
melamp aui</w>
29 6</w>
y at
di buktikan</w>
15 48
54 3</w>
54 1</w>
ter kecil</w>
du gaan</w>
Kon tro
ditu duh</w>
ku ler</w>
ken da
in tahkan</w>
per s
menga b
189 5</w>
Shi n</w>
A H
ber da
22 87
Ch il
belan jaan</w>
S u</w>
si linder</w>
kar bon
es te
lan tas</w>
kri minal</w>
I d
W as
em at
ga hnya</w>
22 77
38 6</w>
Ko dam</w>
menyi apkan</w>
Kim ia</w>
bi ologis</w>
A BC</w>
sa wa</w>
diper tahankan</w>
dida patkan</w>
p ondok</w>
to sa</w>
Go d</w>
ale n</w>
ber komunikasi</w>
op s</w>
Pe ar
akadem i</w>
c akan</w>
s han</w>
fem in
f eld</w>
ker s</w>
Ro c
54 6</w>
geome tri</w>
j ung
pem bunuh</w>
Ros e</w>
die sel</w>
Penem uan</w>
menj atu
N ick</w>
di oksida</w>
th on</w>
ber dampak</w>
per for
pem ungutan</w>
temper atur</w>
I stri</w>
z en
an lah</w>
li ter
ter susun</w>
ap at</w>
54 2</w>
Fer din
ur un</w>
ter ius</w>
su ma</w>
ag regat</w>
ram ah</w>
pelay aran</w>
N aga</w>
be kerjasama</w>
Is tanbul</w>
gr am
w ono</w>
bo wo</w>
Sy am
nit rogen</w>
tan ding</w>
Pi hak</w>
ba terai</w>
Pur n</w>
Suk am
nar ko
f taran</w>
i g</w>
w ir
kar kan</w>
Su tradara</w>
54 7</w>
C ris
E thi
M en</w>
peng amat</w>
12 39
47 0</w>
40 7</w>
Kamp ar</w>
se k</w>
12 9
mem elihara</w>
meng antar
eli haraan</w>
Komer ing</w>
la tor</w>
alum ni</w>
è res</w>
di klasifikasikan</w>
pen ciptaan</w>
bas e</w>
dipu tar</w>
s ungguh</w>
bi us</w>
aw arah</w>
Por t</w>
memas ak</w>
gubern uran</w>
di dapat</w>
13 8
38 1</w>
Pi e
I o
ku han</w>
re f
40 3</w>
37 3</w>
Air ways</w>
simp angan</w>
oba ti</w>
on t</w>
per ka
38 2</w>
f ran
Se bas
Sar awak</w>
enti tas</w>
Indus tri
" ".</w>
y ayasan</w>
di jat
40 6</w>
Pan deglang</w>
He av
D ak
di ker
berla tih</w>
inte li
Ham ilton</w>
y ani</w>
os e</w>
Pen u
50 9</w>
ori us</w>
sp ong
sh all</w>
E P</w>
L es</w>
R ud
T P</w>
m ingguan</w>
or um</w>
sam pul</w>
R C</w>
di duduki</w>
47 6</w>
K ang
W ono
Y on
a is</w>
men onton</w>
lu gu</w>
80 2</w>
antar iksa</w>
sy lv
ye on</w>
diplom at</w>
j ata</w>
ta pan</w>
Mul ti
R ag
diam ati</w>
em e</w>
to li</w>
Bu lu
Har vard</w>
e e</w>
e ku
Ber senjata</w>
A ji</w>
Rubi aceae</w>
jangka uan</w>
U K</w>
g il
mak muran</w>
tam at</w>
Peng en
Komun e</w>
bahag ia</w>
member ontak</w>
vari etas</w>
Bus iness</w>
sepu pu</w>
e u</w>
Ta bel</w>
Sali m</w>
later al</w>
la da</w>
menc al
memba kar</w>
c adi
k h</w>
Mu si</w>
38 3</w>
ff en
asur ansi</w>
perem puannya</w>
S tri
di gabungkan</w>
ber buru</w>
mu lia</w>
aba i</w>
hy un</w>
Johan nes</w>
per aih</w>
al th</w>
me tropolitan</w>
Mo z
tah apan</w>
48 3</w>
N okia</w>
b ina</w>
j il
te bing</w>
we tan</w>
Go wa</w>
pay ung</w>
t ney</w>
do wn</w>
Ne u
we wenang</w>
189 7</w>
56 5</w>
Po ten
Bon d</w>
le tusan</w>
De klarasi</w>
hidu pkan</w>
Ro o
Syar if</w>
an n
ta wa</w>
hi o</w>
Ar ena</w>
49 1</w>
46 7</w>
38 9</w>
sik lo
d ria</w>
Bi ak</w>
Har ian</w>
Gus ta
ga y</w>
Kerin ci</w>
er ing</w>
li at</w>
dan aan</w>
B é
G ag
th ing</w>
Men jadi</w>
Mo bile</w>
r kan</w>
li teratur</w>
por ter</w>
ompo kkan</w>
T O
s che</w>
tem bak</w>
Ro u
Her man</w>
3 D</w>
A ga
f ol
sen ti
58 0</w>
S H</w>
o o</w>
46 5</w>
Insi den</w>
haki man</w>
tah bis
ung kap</w>
Mar kas</w>
49 4</w>
sep tor</w>
La os</w>
Gen tian
dan ai</w>
zeg ovina</w>
ta pang</w>
ti o</w>
perse lisihan</w>
F adil</w>
i v
ba y</w>
do sis</w>
me ling
hir annya</w>
50 4</w>
36 1</w>
mala ikat</w>
I g
L aki</w>
S E</w>
ung kapan</w>
wi ra
amb ungan</w>
46 1</w>
Pas ca</w>
j ay
o di
meng ga
kon figurasi</w>
tic al</w>
nor ma</w>
produk tif</w>
Gentian ales</w>
membi arkan</w>
ple x</w>
T ag
W u
in kannya</w>
bu ahan</w>
so undtrack</w>
36 4</w>
54 9</w>
h au
at uan</w>
ole hnya</w>
diper intahkan</w>
Lu c
Q atar</w>
49 8</w>
38 5</w>
zi arah</w>
R al
U N</w>
di li
re le
mak mur</w>
Le u
54 8</w>
44 0</w>
id nya</w>
Ear th</w>
Ekseku tif</w>
mencal onkan</w>
Kan ton</w>
re aktor</w>
ser u</w>
48 5</w>
Won ogiri</w>
A lur</w>
23 5
We tan</w>
um e</w>
Pem er
tur unannya</w>
48 4</w>
59 8</w>
ad er</w>
ko stu
gu dang</w>
39 5</w>
Squ are</w>
D J</w>
48 7</w>
Sem in
Ku w
Pr insip</w>
ase m</w>
Lud wig</w>
o per</w>
ar te
ur e</w>
am annya</w>
pas an</w>
gur un</w>
peng gerak</w>
tribu tor</w>
Pengar uh</w>
b asi
di us</w>
kom isi</w>
mat ang</w>
lamp ung</w>
demonstr asi</w>
f ul</w>
re volusioner</w>
57 4</w>
40 5</w>
proto kol</w>
g n</w>
n atrium</w>
ter laris</w>
ke adilan</w>
59 1</w>
36 7</w>
Bang gai</w>
Ak si</w>
Brig ade</w>
D a</w>
J ason</w>
h r
t r</w>
per soalan</w>
Pr ing
B lora</w>
pan el</w>
Bo laang</w>
50 3</w>
46 3</w>
cer min</w>
Kur ikulum</w>
el nya</w>
aw e</w>
49 5</w>
Ten tang</w>
37 4</w>
L in</w>
P an</w>
w ang
49 2</w>
uc apan</w>
k lamasi</w>
40 9</w>
O h</w>
dar inya</w>
Ek spe
189 9</w>
Pal u</w>
D o</w>
36 6</w>
tong kat</w>
Chal leng
N er
o g</w>
s ta</w>
ku dus</w>
re dak
Al li
50 7</w>
59 4</w>
36 3</w>
Sh ō
Sam osir</w>
cau an</w>
i b</w>
en nya</w>
menc intai</w>
58 1</w>
Kom petisi</w>
Char lie</w>
yo ung</w>
De velopment</w>
tri c</w>
Bil ly</w>
TV RI</w>
di pelajari</w>
46 2</w>
fo ku
S ac
40 8</w>
mengar ahkan</w>
sau dari</w>
M gr</w>
T I
y es</w>
ak apan</w>
tan ol</w>
Ma ul
36 8</w>
dinam is</w>
M anga</w>
T aj
An dy</w>
Mar io</w>
50 9
Del ta</w>
Del hi</w>
U z
ali ty</w>
48 9</w>
Kem bali</w>
kli en</w>
y ad
as ap</w>
mis terius</w>
57 0
pen alti</w>
ko v
kon eksi</w>
Pa cific</w>
kese imbangan</w>
C ry
bi lis</w>
18 70</w>
ge ologi</w>
len sa</w>
Me diter
jen azah</w>
189 6</w>
Nor man</w>
bac aan</w>
la inya</w>
55 5</w>
188 9</w>
menu duh</w>
f on</w>
me l</w>
55 3</w>
mengha pus</w>
pen in
12 7
kom poser</w>
Bun da</w>
D h
58 7</w>
M ada</w>
l angan</w>
o ya</w>
Li ri
Kom pas</w>
55 2</w>
D jo
di mula
48 8</w>
58 6</w>
59 3</w>
38 8</w>
gh t
bermu kim</w>
d ani</w>
37 1</w>
pis au</w>
Indra giri</w>
K ron
d inya</w>
em asan</w>
si de</w>
el o</w>
56 9</w>
las h</w>
diu kur</w>
liber al</w>
la ka</w>
se demikian</w>
Pan casila</w>
Pr ad
khusu skan</w>
J ong</w>
in es</w>
ga lian</w>
pu skan</w>
22 90
Ve gas</w>
Ekspe disi</w>
W W
ta annya</w>
pu lan</w>
re z</w>
ati r</w>
Do ku
pan duan</w>
tor o</w>
36 2</w>
sur ga</w>
Ek str
Jac ques</w>
sen tral</w>
Sa f
Giov anni</w>
p ons</w>
bu atannya</w>
Resi men</w>
Fam ily</w>
U sai</w>
ong ga</w>
O bat</w>
T angg
tor nya</w>
Vin cent</w>
Philip pe</w>
ebu tkan</w>
per kara</w>
Bang kok</w>
T ris
men desak</w>
adi r</w>
49 6</w>
Pas kah</w>
menyer bu</w>
Kun ing</w>
hek tare</w>
F ro
G and
K res
Z ul
be asiswa</w>
sa s</w>
Sa ins</w>
loy d</w>
o an</w>
49 7</w>
Konf lik</w>
H e</w>
se olah</w>
bar ui</w>
Pem bebasan</w>
49 3</w>
50 8</w>
36 9</w>
S P</w>
b rata</w>
in fanteri</w>
ma yat</w>
47 2</w>
37 7</w>
AS E
Maz mur</w>
Iskan dar</w>
K li
se li
ber suku</w>
Mar x
Tor onto</w>
menjatu hkan</w>
S w
W ar</w>
w ongan</w>
el i</w>
bo y
39 3</w>
Bu ton</w>
Gol kar</w>
Kontro versi</w>
K ö
s tar</w>
un dingan</w>
sa yang</w>
Ter akhir</w>
56 2</w>
37 2</w>
fa bet</w>
Re publi
Par am
56 7</w>
58 2</w>
46 4</w>
nasion alis</w>
sylv ania</w>
c es
la was</w>
ta li
di kur
it or</w>
ma c</w>
kan dal</w>
59 5</w>
37 9</w>
Beta wi</w>
W ong</w>
58 9</w>
Ni p
Ja va</w>
f li
ke takutan</w>
me dy</w>
pen der
kemba linya</w>
57 5</w>
Margar et</w>
Doli chopeza</w>
B le
M i</w>
s ha
58 5</w>
John ny</w>
ber pisah</w>
Dan ce</w>
Say angnya</w>
Af ghan
pelak sana</w>
h ro
z ine</w>
kon sonan</w>
jar um</w>
usah anya</w>
49 9</w>
59 7</w>
kat egor
dak wah</w>
kode pos</w>
mer am
Da un</w>
aba r</w>
Sen jata</w>
Wil lem</w>
Hy medesmia</w>
fan tasi</w>
Mek kah</w>
yarak atan</w>
55 9</w>
lim bah</w>
me to
Se ti
popular itas</w>
T w
y l</w>
an na</w>
56 1</w>
39 4</w>
Pa le
Her zegovina</w>
U C
Sula iman</w>
gin jal</w>
S a</w>
U k
re k</w>
kem ampuannya</w>
es an</w>
My cale</w>
ke anggotaan</w>
meng andalkan</w>
17 9
Mem iliki</w>
gro und</w>
s z
ar ena</w>
ku bah</w>
hu i</w>
Di ego</w>
menye lidiki</w>
48 1</w>
For t</w>
bers angkutan</w>
PN S</w>
pengas ingan</w>
se pur</w>
be th</w>
57 1</w>
39 2</w>
fas ili
kepal anya</w>
A pa</w>
47 3</w>
37 6</w>
jat uhnya</w>
ft ware</w>
T eg
ro r</w>
Ti tik</w>
Bo ys</w>
47 9</w>
38 7</w>
cor nis</w>
P er</w>
f is
me lo
pem bebasan</w>
sejar ahnya</w>
cra ft</w>
y ut</w>
meng i
ogra m</w>
tre k</w>
S d</w>
ar an
am us</w>
li tur
Per temuan</w>
Mo ore</w>
ren ce</w>
59 9</w>
elek trik</w>
h un
u ma</w>
ti ri</w>
per belanjaan</w>
ro l</w>
ch ia</w>
bar uan</w>
mele takkan</w>
L and</w>
pe lan
re f</w>
kel en
39 7</w>
bur kan</w>
Mal ta</w>
permo honan</w>
m ik</w>
ber i</w>
ang ku</w>
de tail</w>
av ia</w>
wor ld</w>
2 190
c ro
mem atikan</w>
56 8</w>
57 2</w>
50 5</w>
47 7</w>
semi final</w>
per isai</w>
ra gen</w>
Per kebunan</w>
56 3</w>
47 8</w>
cen dekiawan</w>
koron avirus</w>
l ung</w>
di deskripsikan</w>
Su gi
gu lat</w>
50 6</w>
kela paran</w>
sir kan</w>
N O
e sia</w>
si hir</w>
de legasi</w>
Me kan
57 3</w>
bur gh</w>
kor e
Up aya</w>
u h
ak um
pro g
selam atkan</w>
SC TV</w>
Ar sen
fo lia</w>
Ju ven
bung su</w>
usu lan</w>
penye dia</w>
Tem anggung</w>
Ji wa</w>
keraj inan</w>
K ha
ar inya</w>
men olong</w>
39 1</w>
Gu ild</w>
memo hon</w>
Damp ak</w>
57 7</w>
ar o
ker aton</w>
Ma x
46 9</w>
himp un</w>
ger il
Bru ce</w>
uncul an</w>
F el
se belas</w>
48 2</w>
58 8</w>
Po tter</w>
nyar is</w>
emba kan</w>
pag anda</w>
sen g</w>
Ro ber
Ly n
menyam but</w>
Afghan istan</w>
I T</w>
om on</w>
57 9</w>
Bir u</w>
Europe an</w>
55 1</w>
Dar ussalam</w>
mendi ami</w>
t land</w>
dan anya</w>
Vern onia</w>
h r</w>
Jac ob</w>
mende teksi</w>
diken ali</w>
L or</w>
P op
t ch</w>
se tingkat</w>
tem ent</w>
Pen n
dem en</w>
diber lakukan</w>
o or</w>
meny uruh</w>
Kam is</w>
lamp au</w>
pengen dalian</w>
46 8</w>
ta pan
si lang</w>
hi e</w>
Ber ita</w>
C uru
N a</w>
in tr
kem iskinan</w>
pemak aian</w>
mengam ankan</w>
pen un
diper sembahkan</w>
58 4</w>
Mon te
E as
in terpre
ko grafi</w>
tin asi</w>
syu ting</w>
12 33
46 6</w>
langs ungkan</w>
Won osobo</w>
H ai</w>
c eng</w>
d rum
h ala</w>
or e
sim pulan</w>
F u</w>
b uruan</w>
m ing</w>
39 9</w>
diba kar</w>
pen dahulunya</w>
57 6</w>
Mas ing</w>
Abdur rahman</w>
T angga</w>
l ler</w>
w oso</w>
mer ta</w>
ra tis</w>
Pe dro</w>
bay aran</w>
di wara</w>
men dengarkan</w>
ab adi</w>
Hu ang</w>
Jan e</w>
ch y</w>
47 1</w>
leng kung</w>
Rom an
Mo on</w>
san tri</w>
lam bung</w>
dira wat</w>
Arj una</w>
T it
b y
t le
ber interaksi</w>
su aian</w>
De puti</w>
Peng urus</w>
Fil ms</w>
59 6</w>
Ang ka</w>
mur idnya</w>
ab ad
Tu gu</w>
A can
O ton
peng li
An alisis</w>
sem ak</w>
eks ternal</w>
Azi z</w>
at ha</w>
ro myza</w>
ra i</w>
55 6</w>
55 4</w>
mula si</w>
anag romyza</w>
d re
ber bahan</w>
ker u
tek tif</w>
47 4</w>
Sar gas
Vol ks
2 201
u sus</w>
tr isi</w>
og ne</w>
den ti
Ma y</w>
59 2</w>
ari um</w>
br altar</w>
en dra</w>
di konfirmasi</w>
ke knya</w>
f un
ba pak</w>
Sa in
kaw in</w>
kela hirannya</w>
mengu c
Mil ler</w>
akadem isi</w>
punc aknya</w>
usi anya</w>
keram ik</w>
Mangg arai</w>
Franç ois</w>
T ri</w>
ke pausan</w>
ala ba</w>
lay aknya</w>
56 4</w>
bere aksi</w>
ren ang</w>
Am in</w>
Rom an</w>
c han</w>
un dian</w>
28 70
39 6</w>
7 37</w>
J im</w>
lu hur</w>
Sem bilan</w>
Pla za</w>
Keber adaan</w>
Trum p</w>
S 2</w>
f ur
55 7</w>
45 1</w>
Wal la
S ari
T ren
d ya</w>
se wu</w>
ro kok</w>
ko w</w>
ne n</w>
tem puh</w>
56 6</w>
Lin ux</w>
kostu m</w>
al y
residen an</w>
peny u
la l</w>
Se s
popu ler
kew enangan</w>
I man</w>
eg ro</w>
Pr as
C A</w>
p lu
Per ak</w>
th ro
ce d</w>
Bo ok</w>
kur ikulum</w>
Ben jamin</w>
U lar</w>
bu kannya</w>
kon servasi</w>
Ch ang
Po tensi</w>
hil angnya</w>
F aktor</w>
any ian</w>
inisi atif</w>
i bun
Re y</w>
Ter jemahan</w>
per lengkapan</w>
Ter jun</w>
Kon ser</w>
Hi gh
say ur</w>
mah kamah</w>
Ferdin and</w>
L A</w>
di jabat</w>
kri m</w>
O to
r al</w>
da le</w>
ber cerai</w>
58 3</w>
Anth rax</w>
Labor atorium</w>
I AIN</w>
L é
O re
per ancang</w>
sem b
din ia</w>
amb e</w>
qu ad
Pak u
ts un
dibu ang</w>
penyel enggara</w>
Tory mus</w>
o don
ar ahan</w>
pro s
22 88
Man uel</w>
57 8</w>
K ag
ak un
cender ungan</w>
sele bri
G E
P M
ra un</w>
ch er
gra f</w>
Ko tawaringin</w>
Lepto tarsus</w>
dad ak</w>
A j
M aga
kem enterian</w>
ce lah</w>
mi c</w>
Semen jak</w>
les tarian</w>
Mong ondow</w>
i kon</w>
Mas akan</w>
Hi de
iri gasi</w>
188 5</w>
gad ing</w>
perban kan</w>
v as
me lengkapi</w>
Q in</w>
ne tral</w>
por e</w>
mele dak</w>
lum pur</w>
Ori con</w>
pe do</w>
tero wongan</w>
member sihkan</w>
mengh ambat</w>
sum o</w>
Dar ul</w>
Ach mad</w>
K hal
c angan</w>
t ti</w>
Peng epungan</w>
To wer</w>
Gol d</w>
er opa</w>
buhan batu</w>
Su ka</w>
Ger bang</w>
Ab bas</w>
can tum</w>
188 0</w>
arti leri</w>
K r
pen olakan</w>
tad t</w>
menangga pi</w>
N AT
di sepak
As yur</w>
resi kan</w>
sig n</w>
inten do</w>
H ala
T his</w>
Y ang
a gi</w>
ti aan</w>
os to
bun uhnya</w>
br akan</w>
55 8</w>
penang anan</w>
48 8
jam inan</w>
penge cualian</w>
D P</w>
g um
ber genre</w>
tek n
Tum buhan</w>
ckh ol
men eli
ur ah</w>
is yar
Sta tes</w>
Sir kuit</w>
W ho</w>
ti da</w>
ber tanding</w>
sis me</w>
Ci le
80 1</w>
sum bu</w>
mele kat</w>
Bac trocera</w>
akh stan</w>
Manag ement</w>
T ō
i sir</w>
bi mbingan</w>
ting an</w>
ly n</w>
Ek sp
h isme</w>
inves tor</w>
B ad</w>
di ajarkan</w>
bi lah</w>
san to</w>
Ta urat</w>
Bern ard</w>
O ut</w>
y anya</w>
Si ak</w>
K K
ö r
pas okan</w>
189 4</w>
jam kan</w>
W ay
h ali
ma tion</w>
ce ps</w>
maz hab</w>
Purwo kerto</w>
Ge de</w>
termin us</w>
k lip</w>
se la</w>
mer s</w>
pen i
tan yakan</w>
Th ai</w>
66 0</w>
kla semen</w>
kompe ti
C ep
N intendo</w>
h as</w>
ro li</w>
kem bang</w>
jah tera</w>
S pesi
s kema</w>
ting nya</w>
Wi jaya</w>
Fran z</w>
Regi onal</w>
Mum bai</w>
P é
f aksi</w>
ku lon</w>
Be la
co l</w>
ondo woso</w>
taw anan</w>
C ad
E up
N asi
das ari</w>
memu lihkan</w>
oni f</w>
betu lan</w>
L O
p po</w>
me lukis</w>
Pe layanan</w>
69 0</w>
Nap oli</w>
vul kan
i tal</w>
ur annya</w>
as yarakatan</w>
ug h</w>
Z hu
mem pekerjakan</w>
mengh al
Can nes</w>
22 33
tor asi</w>
oto p</w>
S o</w>
an alog</w>
il ustr
kre t</w>
Hal te</w>
penyer ahan</w>
spek tif</w>
A geng</w>
di j
po sal</w>
Pand angan</w>
" &</w>
pem bantaian</w>
Guin ea</w>
c eng
d nya</w>
m ir
o pat
hi on</w>
pem binaan</w>
ha pu
radi o
Gor don</w>
Fisi ka</w>
ter cantum</w>
Ber kat</w>
ris e</w>
39 8</w>
Kole ksi</w>
meng urus</w>
18 60</w>
D en</w>
uni sia</w>
cor ak</w>
komen dasikan</w>
Boy olali</w>
u kiran</w>
li un</w>
Al fon
tur nya</w>
60 1</w>
ph ia</w>
188 6</w>
7 50</w>
e b</w>
peng hubung</w>
ten egro</w>
dan ce</w>
as rama</w>
R ab
alis asikan</w>
jat uhan</w>
Bor neo</w>
N gu
ba ya</w>
per lakuan</w>
ul angi</w>
menda tang</w>
ph one</w>
AT P</w>
Hadi ah</w>
re p
ala r</w>
13 33
di cu
Er n
su ka
cas ting</w>
Be at
Cov id</w>
2 189
A mi
u hkan</w>
ti kkan</w>
peng epungan</w>
44 5</w>
W hat</w>
or d</w>
ni gri
ir sa</w>
tun duk</w>
Sekre tariat</w>
P aj
f urt</w>
en o</w>
di iringi</w>
ba gai
pem batasan</w>
bo tol</w>
menye suaikan</w>
mis teri</w>
di tangani</w>
Ne der
he e</w>
memu dahkan</w>
F os
N ai
Pat ung</w>
Kri sis</w>
S ão</w>
Rus sell</w>
A lor</w>
M T</w>
per pindahan</w>
80 0
Sin ar</w>
Ren ault</w>
meng han
den si</w>
Bra zil</w>
Slo wakia</w>
astron om</w>
pras arana</w>
f lor
gar ap</w>
peme luk</w>
kolek tif</w>
meneli ti</w>
Me x
28 69
Ma xi
uj aan</w>
Sin etron</w>
j anda</w>
u ta</w>
u ki</w>
ter kini</w>
Jo urnal</w>
menyer ukan</w>
Banjar negara</w>
Perse makmuran</w>
kemar au</w>
ur ung</w>
cur bi
pen capaian</w>
Se ine</w>
Hi jau</w>
Ak tivitas</w>
aku asi</w>
legen daris</w>
hipo tesis</w>
Bene dik
M bah</w>
q i
du et</w>
meng ge
a ero
o dy</w>
w asit</w>
ar ca</w>
vi si
Dip lo
na vi
Techn ology</w>
meny um
angga pnya</w>
pengur angan</w>
di eksekusi</w>
s kuat</w>
as is</w>
me ga
Bo li
dila lui</w>
semen anjung</w>
F F
X in
j unior</w>
C ala
O ld</w>
S ty
di potong</w>
ke lebihan</w>
Bar isan</w>
jer uk</w>
P R
i on
v y</w>
er ra</w>
ber profesi</w>
Aleksand ria</w>
keterli batan</w>
Arsen al</w>
D ro
F lo
i sian</w>
80 8</w>
Hi da
Mad agas
sas tr
hat tan</w>
H az
L u</w>
for um</w>
A dolf</w>
L G
ra jin</w>
188 8</w>
ev al
hidro k
ter panjang</w>
ru jukan</w>
angg ih</w>
En de</w>
anda lan</w>
G os
ba iknya</w>
al gorit
pen jahat</w>
Se banyak</w>
Br ad
tim nas</w>
run ner</w>
F ly
V el
r asul</w>
Con ne
Ste ven</w>
Wo men</w>
Prem ier</w>
Gabri el</w>
C agar</w>
S abah</w>
li sis</w>
ku tan</w>
de batkan</w>
hi ts</w>
sta tusnya</w>
apar temen</w>
barang ay</w>
cadi on</w>
ASE AN</w>
am ing</w>
be k
bi rok
Ke du
ala s</w>
Li mited</w>
Man ila</w>
dide dikasikan</w>
y oshi</w>
se tan</w>
Se puluh</w>
Gam bar</w>
pam annya</w>
Sto ckhol
tom bol</w>
ka k</w>
pen gab
it ing</w>
45 5</w>
Pur i</w>
memer iksa</w>
Jose on</w>
tsun ami</w>
5 50</w>
Be si</w>
Te lugu</w>
I C</w>
l ers</w>
ber doa</w>
at em
te gak</w>
ing kali</w>
lis ti
g os
is en
Po int</w>
Gi b
n ers</w>
ban i</w>
Jo han</w>
Wis nu</w>
Sm p</w>
B udi
X VI</w>
tem urun</w>
Si dang</w>
Ok in
45 2</w>
pembu angan</w>
temba kau</w>
mewar isi</w>
: "</w>
th y
dem am</w>
sam butan</w>
tak tik</w>
il lus</w>
ver s</w>
mar hum</w>
Pari aman</w>
hapu san</w>
) ",</w>
S olok</w>
S T</w>
S ky</w>
ab ri
Bag h
Vladi mir</w>
B a</w>
J ap
ingg ris</w>
kul tur</w>
cl ona</w>
NAT O</w>
5 13
pem ilih</w>
memas ang</w>
line ar</w>
l ina</w>
li ter</w>
ber macam</w>
Se jar
tar o</w>
Pri a</w>
kon vensi</w>
htt ps</w>
y uan</w>
en ds</w>
per dananya</w>
Pem eran</w>
vi tamin</w>
Ba bel</w>
cen trus</w>
Ven us</w>
Jor dan</w>
W ali
f raksi</w>
m ing
s ong</w>
z ah</w>
ch es
Pi us</w>
Ben dungan</w>
Cu curbi
menyen angkan</w>
inteli jen</w>
ku bu</w>
ch es</w>
ob i</w>
sy air</w>
kas til</w>
45 4</w>
Kela pa</w>
K asi
p ha
Per tumbuhan</w>
meny usu
bo u
han tes</w>
bang ku</w>
7 47</w>
J un</w>
men ab
men dadak</w>
pro por
bang unannya</w>
44 4</w>
Min ang</w>
Mat the
Kaz akhstan</w>
Mediter ania</w>
" ",</w>
G ong</w>
H op
p ho
di produseri</w>
Se bagaimana</w>
ki h</w>
ren cananya</w>
60 5</w>
67 0</w>
alis tik</w>
His tory</w>
Arti kel</w>
disepak ati</w>
N ations</w>
Q i
Z im
ki pr
80 3</w>
Har ris</w>
i bukota</w>
men deskripsikan</w>
pen amaan</w>
hi an</w>
gol ongkan</w>
Sh ah
menda ftar</w>
H olo
ter balik</w>
ata ma</w>
peng eboman</w>
kon sul
pas aran</w>
pekerj aannya</w>
Tin dakan</w>
eko sistem</w>
g un</w>
ter bitan</w>
de on</w>
diper intah</w>
Ra ch
C l
Co urt</w>
66 6</w>
formula_ 1</w>
Pin tu</w>
B O
Y onif</w>
ter ungkap</w>
ma af</w>
P anji</w>
Se l</w>
der han
lin tang</w>
San ti
Mal l</w>
Gi braltar</w>
Gol d
bu ta</w>
el li</w>
Ro kan</w>
diper kuat</w>
47 9
mengen ang</w>
dir asakan</w>
Clar k</w>
Keku atan</w>
ke bang
be li</w>
su it</w>
ap nya</w>
12 17
Te bing</w>
lin k</w>
gu e</w>
44 8</w>
188 4</w>
kamp ungan</w>
O ut
c over</w>
is ma</w>
aw iyah</w>
Ali ansi</w>
spek trum</w>
O bama</w>
at re</w>
hi ta</w>
re produksi</w>
sedi h</w>
rac un</w>
ap asan</w>
el li
dr as
Jon athan</w>
b k</w>
f ahan</w>
h ori
i z</w>
lo itasi</w>
49 8
Penn sylvania</w>
R antau</w>
ke u
be ton</w>
Mi chel
68 0</w>
ven tion</w>
45 8</w>
fak tur</w>
ku lan</w>
Per lindungan</w>
47 8
Lu th
80 9</w>
eks trem</w>
di un
Gu ad
Sam sung</w>
45 9</w>
mengu tip</w>
m adu</w>
pri x</w>
Pan dawa</w>
Br us
efisi ensi</w>
Secre t</w>
per kumpulan</w>
Spor ts</w>
C lin
kem en
Jer sey</w>
klin is</w>
Alas ka</w>
V ul
l ini</w>
da pur</w>
ati n</w>
Ho ward</w>
45 6</w>
don g
ye ong
ul d</w>
lo ck</w>
gra fer</w>
saw ahan</w>
per simpangan</w>
par tement</w>
lem peng</w>
memper panjang</w>
45 3</w>
N an</w>
an tha</w>
un c
hi da</w>
Bab y</w>
a us
e i
g ila</w>
ke y
pemba c
IT B</w>
u kur</w>
hu lui</w>
lin ois</w>
d n</w>
em o</w>
ti lasi</w>
pen an
to ler
bag ikan</w>
Ar isto
28 09
60 9</w>
Pari gi</w>
r incian</w>
kem iri
Li ght</w>
Kla sifikasi</w>
komen dasi</w>
Carol ina</w>
su ke</w>
Tah ta</w>
Mon tenegro</w>
oni aceae</w>
vir tual</w>
F un
H z</w>
s por
pen aw
An derson</w>
Hu ta</w>
organ isir</w>
gr ap
dile paskan</w>
prose sor</w>
Lun atipula</w>
runtu h</w>
c erah</w>
s ton</w>
wor th</w>
s un</w>
un gagung</w>
as us</w>
Te ologi</w>
co u
45 7</w>
ini um</w>
Mor gan</w>
Tor aja</w>
spesi al</w>
Uk uran</w>
Z hao</w>
f lora</w>
á s</w>
kaw ah</w>
neu tron</w>
C ic
lak inya</w>
57 8
68 5</w>
penye lam
M asih</w>
as tr
bu d</w>
sa y</w>
meng ulang</w>
Lu is</w>
fra gmen</w>
memun cul
J ab
57 9
Lu ther</w>
Tah ap</w>
penggun aannya</w>
Tr in
Paul o</w>
ak ata</w>
um pan</w>
ong o</w>
23 16
49 9
ling uistik</w>
car akan</w>
dira yakan</w>
H IV</w>
b h
In tan</w>
sem ata</w>
44 7</w>
asu tion</w>
Kas til</w>
Lis trik</w>
geng gam</w>
g us
an ah</w>
da gai</w>
Go od
44 3</w>
pre s</w>
penyi ar</w>
p ong</w>
pen jual</w>
Ch â
Singa pore</w>
pengli hatan</w>
P d</w>
a j</w>
su aranya</w>
Ch eng</w>
56 7
80 7
cas ar
Produ ctions</w>
tapan uli</w>
Okin awa</w>
F ah
di modifikasi</w>
ke i</w>
ke de
44 2</w>
menge jutkan</w>
Sis wa</w>
Wah yu</w>
Jim my</w>
memuncul kan</w>
s ki
en i</w>
12 16
Be bas</w>
diper panjang</w>
tin um</w>
Budd his</w>
pembu luh</w>
dipas arkan</w>
A G</w>
S R</w>
c ikal</w>
13 17
Ch amp
ac un</w>
44 1</w>
Pur balingga</w>
Sat elit</w>
cac at</w>
a x
y uris
22 17
kon seku
Habi b</w>
Prin ce</w>
akum buh</w>
peng unduran</w>
peng umuman</w>
ren tan</w>
Dis kografi</w>
tan dang</w>
Pen duduknya</w>
Kem enangan</w>
Kari bia</w>
C an</w>
ti er</w>
man uel</w>
sen dirian</w>
64 5</w>
We b</w>
konstitu sional</w>
Ethi opia</w>
Liri omyza</w>
P lo
V it
en s
ter lahir</w>
war alaba</w>
Re li
60 4</w>
sum bangan</w>
44 6</w>
er to</w>
pem eliharaan</w>
pern apasan</w>
Co t</w>
Gu y</w>
sim bo
lom pat</w>
ST I
ter mo
Mar shall</w>
sem burg</w>
kepon akan</w>
Cucurbi tales</w>
Di am
amb angan</w>
Bo x</w>
Ri set</w>
60 2</w>
Har un</w>
yu ki</w>
I w
Al len</w>
Car lo</w>
Tul ungagung</w>
foku skan</w>
G as</w>
22 27
co de</w>
189 2</w>
Beg oniaceae</w>
Inde ks</w>
pedu li</w>
% ).</w>
c anggih</w>
ber potensi</w>
per senjataan</w>
Gu ar
berla tar</w>
Bab il
tangg ung
Poten tilla</w>
o ut</w>
di konsumsi</w>
al o</w>
ne w</w>
15 46
dila tih</w>
S anj
h na</w>
or g</w>
ku anti
gi e</w>
My com
Cros s</w>
h ap
p ia</w>
ku lar</w>
der et</w>
par alel</w>
ge de</w>
80 5</w>
ug asan</w>
Em irat</w>
cha e
in taan</w>
di tunda</w>
am atir</w>
ke lanjutan</w>
ser tifikat</w>
22 78
ab jad</w>
kan tong</w>
t engg
ter dahulu</w>
In f
duk ungnya</w>
Ro ti</w>
64 1</w>
di dorong</w>
be dah</w>
hidu pannya</w>
lin s</w>
80 4</w>
f it</w>
ti t</w>
ke ham
ro tasi</w>
sa la
re t</w>
Man hattan</w>
Tur k
pribad inya</w>
Ham id</w>
m un</w>
mem bangkitkan</w>
presen ter</w>
persem bahan</w>
Cath erine</w>
di me
is hi</w>
de katnya</w>
70 7</w>
44 9</w>
mut lak</w>
Bro thers</w>
bak ti</w>
mik ro</w>
J ala
am ah</w>
bis hi</w>
N asion
b om
ber maksud</w>
lo sa</w>
80 8
nam e</w>
hal ang</w>
menan tang</w>
p agar</w>
Ki ai</w>
B ris
B ren
pem irsa</w>
15 17
tam ia</w>
Ku antan</w>
dok tor</w>
Nar uto</w>
N aj
do no</w>
horm on</w>
Tal ang</w>
sif atnya</w>
B awang</w>
as u</w>
bu san</w>
den an</w>
oph ora</w>
Pla y</w>
Kres na</w>
I an</w>
n ga
ber wenang</w>
mu lus</w>
Ri ver</w>
Pan ama</w>
Sal uran</w>
gin al</w>
c ir
d d</w>
si lo</w>
lu aran</w>
lu llah</w>
12 8
Po pulasi</w>
Ker aton</w>
angga lan</w>
ke tegangan</w>
An ton</w>
12 13
Pem u
Mahar aja</w>
p ai</w>
ro ll</w>
de bat</w>
23 17
Man tan</w>
Sala tiga</w>
menggun akannya</w>
la yang</w>
il ly</w>
memper c
49 7
Sor ong</w>
New ton</w>
sys tem</w>
an at
sem arang</w>
gra fik</w>
menem ba
pin tar</w>
Hu go</w>
65 6</w>
Gad is</w>
c up
un der
tic us</w>
Law rence</w>
perka taan</w>
U L
fer ence</w>
6 50</w>
us krip</w>
An ug
tam akan</w>
We i
Lor en
khali fah</w>
Anug erah</w>
z ong</w>
an trop
di campur</w>
un tung</w>
Se benarnya</w>
ali han</w>
mo dium</w>
Ra chel</w>
Kal ender</w>
klar asikan</w>
C I</w>
I si</w>
ber manfaat</w>
tu lisannya</w>
is al</w>
Mah mud</w>
230 0
diu sir</w>
Nun ukan</w>
bagai manapun</w>
P ol</w>
ku tai</w>
lan das</w>
Pe ople</w>
Kap oor</w>
Karak teristik</w>
B N
S had
it z</w>
Pem bu
tis t</w>
terit orial</w>
H T
y lo
Pa ser</w>
68 4</w>
189 1</w>
ath er</w>
menging atkan</w>
nasi hat</w>
lame t</w>
bio tik</w>
Pul o</w>
bong kar</w>
" '</w>
A ven
L isa</w>
N on</w>
g ny</w>
ba tu
ke kasih</w>
ben sin</w>
aj u</w>
mo bile</w>
Bah rain</w>
188 1</w>
Juven tus</w>
K rak
w alau</w>
in au</w>
Me di
D ru
M O
ri er</w>
pen cu
Me dal</w>
60 8</w>
68 3</w>
Gen e
berla ga</w>
pelo por</w>
G ampong</w>
di selamatkan</w>
men o
lu asnya</w>
mas ak</w>
amb ur
ogra fer</w>
simp an</w>
mengon trol</w>
bu dakan</w>
ac ak</w>
inter vensi</w>
mou th</w>
L inc
N uru
ar is
ro hani</w>
om inasi</w>
Bu t
menunju kan</w>
Lin tas</w>
mengem ban</w>
Ear l</w>
tom bak</w>
Nga wi</w>
terke jut</w>
v a
Ke gubernuran</w>
ver te
ph us</w>
Ali ran</w>
Nep hro
Erica ceae</w>
Hau te</w>
Mitsu bishi</w>
B ung</w>
el le</w>
Bar on</w>
gi at</w>
Sem pat</w>
60 3</w>
Ray mond</w>
s s
Me kar
50 8
Gu i
60 6</w>
Chris t
Kos ovo</w>
Dok ter</w>
casar jana</w>
C av
g ni
189 3</w>
pemu lihan</w>
sekali pun</w>
teror is</w>
menguc apkan</w>
K ram
K asih</w>
g at</w>
belan ja</w>
v illa</w>
di gabung</w>
ti annya</w>
ke san</w>
bi ro</w>
vi e</w>
o w</w>
y i
an y</w>
si rip</w>
ik on
ane kar
J asa</w>
f ic
h n</w>
re ferendum</w>
ru kun</w>
ge tkan</w>
he m</w>
79 0</w>
Sar dinia</w>
B ukan</w>
I l</w>
Ke pausan</w>
22 98
Par ti
dar ai</w>
ditem bak</w>
Mer ce
pela ut</w>
68 8</w>
j elang</w>
p raja</w>
leng kapnya</w>
o sus</w>
per am
baw ahan</w>
48 7
foto grafi</w>
Michi gan</w>
pender itaan</w>
Madagas kar</w>
S B
Se tahun</w>
80 6</w>
nu trisi</w>
seko lahnya</w>
Mycom ya</w>
mem us
meng obati</w>
00 1</w>
Per encanaan</w>
ser atus</w>
th en
65 1</w>
T bk</w>
li sit</w>
Dem i</w>
asum si</w>
D ad
Go a</w>
kat anya</w>
Sch u
diar ahkan</w>
keny ataannya</w>
A ar
d wi
o sis</w>
ga kkan</w>
ch is
et ta</w>
menghad irkan</w>
Air bus</w>
M D</w>
Q uran</w>
ke cenderungan</w>
ir ama</w>
c li
men tum</w>
si er</w>
ber lari</w>
be an</w>
Pen erimaan</w>
Leg enda</w>
M una</w>
al us</w>
ser an</w>
67 5</w>
kes mas</w>
log istik</w>
D uk
R ing
me tro</w>
bab nya</w>
pur ba</w>
A E
Men ga
han i
Go d
Pur wakarta</w>
pros opa</w>
A ma
K no
f rasa</w>
ter ganggu</w>
15 00</w>
Wes tern</w>
Buk ti</w>
dimula inya</w>
A sisten</w>
ku buran</w>
bag inya</w>
tem s</w>
13 24
Pen dirian</w>
Ang el</w>
87 0</w>
dire but</w>
Suko harjo</w>
T wo</w>
e z
kar bo
gan dum</w>
Si ri
F le
Ara m</w>
Linc ol
J ud
ke si
kelu aran</w>
188 3</w>
wo o</w>
orbi tal</w>
si t
ber bunyi</w>
sa us</w>
Al ber
ton ik</w>
ph y</w>
pre diksi</w>
keka cauan</w>
g emba
p atah</w>
da pan</w>
tu tup</w>
ak in</w>
22 26
60 7</w>
68 7</w>
con om
Fran ka</w>
Ji ang
9 17
K anan</w>
M C</w>
h ang
ber sembunyi</w>
ser ba</w>
peng gambaran</w>
22 97
zi g</w>
bour g</w>
sengke ta</w>
N BC</w>
e di</w>
In vasi</w>
ili ka</w>
Mar ta
Kon on</w>
san diwara</w>
pad ahal</w>
emo si</w>
atem ala</w>
da kannya</w>
Se a</w>
us unan</w>
De w
57 7
Ker ta
Ri tus</w>
187 8</w>
Indo siar</w>
Pram uka</w>
spong ia</w>
S po
n anti</w>
ke warganegaraan</w>
gol a</w>
La w</w>
macu lata</w>
l angg
Th at</w>
Kas ti
P anj
d ina</w>
di feren
da t</w>
24 24
bo di</w>
Eur o</w>
Budd hisme</w>
aman at</w>
Plas modium</w>
menghal angi</w>
Nephro toma</w>
J o</w>
ber kapasitas</w>
de presi</w>
hi p</w>
ban nya</w>
dah ara</w>
Ada ms</w>
Ph one</w>
mekan ik</w>
kong res</w>
O ver
R abu</w>
c agar</w>
k ian</w>
ta lisasi</w>
on so</w>
ho s</w>
Char lo
menyen tuh</w>
de bu</w>
18 00</w>
ken tal</w>
Ch u</w>
bin ti</w>
66 1</w>
o e
an di</w>
bu di
per sis</w>
Ser ge
64 4</w>
her e</w>
U may
n yawa</w>
di kritik</w>
ju angkan</w>
gen ap</w>
gu l</w>
Con stan
ff e</w>
Trak tat</w>
ak reditasi</w>
Pem alang</w>
Jer ry</w>
Sen sus</w>
sin ga</w>
dang dut</w>
Y aku
y land</w>
Re za</w>
ram en</w>
O f</w>
Fil safat</w>
56 8
v okasi</w>
Ka iro</w>
bo bot</w>
67 4</w>
En er
Ren ais
Phi la
Exo prosopa</w>
Publi c</w>
A lam
J ak
Ber satu</w>
La ura</w>
penj uru</w>
pere butan</w>
hay ati</w>
Lat via</w>
Ar m
gi g
69 6</w>
ters burg</w>
Santi ago</w>
J ing
se umur</w>
di ap
So er
Ku mar</w>
38 0
80 7</w>
69 2</w>
struk tural</w>
65 4</w>
Has ilnya</w>
Sil va</w>
dipas tikan</w>
L eng
c ard</w>
pen ayangan</w>
to lo
kom posi
Sen tai</w>
67 7</w>
He i
tadi um</w>
L angkat</w>
R up
li c
meng hub
re asi</w>
64 3</w>
Il linois</w>
fung sional</w>
Tau fan</w>
listi wa</w>
ov ich</w>
Lu majang</w>
mele tus</w>
kep ing</w>
orang tuanya</w>
bog or</w>
eval uasi</w>
F or</w>
ter integrasi</w>
penu tupan</w>
M P</w>
menga baikan</w>
67 6</w>
He ar
menyum bangkan</w>
Z hu</w>
j asanya</w>
to peng</w>
22 13
diter uskan</w>
65 5</w>
disam but</w>
o pen</w>
ber acun</w>
us hu</w>
23 30
den s</w>
70 1</w>
ins tein</w>
9 16
te e</w>
mi yah</w>
poli tiknya</w>
66 7</w>
187 1</w>
Dam as
Ot to
fasili tasi</w>
N asution</w>
tri liun</w>
Mar ne</w>
47 7
pak u</w>
Gro bogan</w>
f fe
s angg
ter sembunyi</w>
per undingan</w>
bah as</w>
15 16
69 8</w>
Mat t</w>
gas ter</w>
Mel anagromyza</w>
Kuw ait</w>
Konstan tinus</w>
9 13
en ix</w>
ci rebon</w>
12 30
B UM
T H
bu tir</w>
In te
peng antin</w>
Su tan</w>
MP R</w>
U E</w>
U na</w>
n av
ter hitung</w>
pem ec
ser dang</w>
man ia</w>
Bun des
diku tip</w>
resm inya</w>
K ai</w>
i tif</w>
s pan</w>
64 2</w>
kre di
Nic o
p m</w>
su kan</w>
Par ker</w>
Eng lish</w>
H uruf</w>
t uran</w>
ko la</w>
Kat h
dor yx</w>
Kla sik</w>
terke san</w>
kai do</w>
mengep ung</w>
DK PBB</w>
N ik
d la
meng udara</w>
memu kul</w>
65 2</w>
Wal t</w>
Bay u</w>
emati ka</w>
Luk isan</w>
M aw
an ar
se jajar</w>
ber isikan</w>
mer o
sebu lan</w>
las to
64 6</w>
Swi ft</w>
W ang
am ino</w>
12 14
min ahasa</w>
Kom isaris</w>
70 5</w>
mengem ukakan</w>
ber ba
22 14
keber adaannya</w>
i aan</w>
ter infeksi</w>
Ter nyata</w>
Ma le
67 8</w>
77 7</w>
suk sesi</w>
am un
th i</w>
18 64</w>
24 17
Ma o</w>
sti l</w>
68 1</w>
kos lo
Hab sburg</w>
- -</w>
F L</w>
M ün
h n
s kop</w>
Al un</w>
79 7</w>
188 7</w>
s port</w>
é ri
79 9</w>
Ken daraan</w>
des kripsi</w>
dak wa</w>
Jes sica</w>
e konom
m ikan</w>
an ian</w>
pe z</w>
ka pur</w>
ma tius</w>
pro paganda</w>
13 30
28 26
ge o
Co dex</w>
narko ba</w>
f fi
eng at</w>
re m</w>
kar tun</w>
15 24
28 08
gu es</w>
Sum ba</w>
ob li
ff rey</w>
fac to</w>
Ngan juk</w>
Ern st</w>
A F</w>
A ku
T os
bi d
om ial</w>
Le op
menan am</w>
kecer dasan</w>
le leng</w>
me dium</w>
dila kukannya</w>
67 2</w>
br un
proy ek
at ory</w>
om bak</w>
Per ingkat</w>
Pe jabat</w>
hat inya</w>
Hali clona</w>
meng gung</w>
G over
I da</w>
M RT</w>
ber abad</w>
is otop</w>
13 26
Pri badi</w>
A me
K har
O e
T unisia</w>
in struksi</w>
ne ur
ne st</w>
pem ujaan</w>
22 25
Ter it
Ju lius</w>
perc akapan</w>
Yoko hama</w>
p aan</w>
in ata</w>
ang katnya</w>
ke hancuran</w>
dikiri mkan</w>
Luk semburg</w>
Merce des</w>
ku liner</w>
ban jar
Pe ter
69 5</w>
Hi j
68 2</w>
kat or</w>
65 7</w>
Fre e
tu ai</w>
pu tan</w>
pem o
Per hubungan</w>
12 10
Kar ta
Par ad
Ak bar</w>
87 6</w>
Dar win</w>
sedi k
osi asikan</w>
penen tuan</w>
pence gahan</w>
a men
er ahan</w>
al ly</w>
Mang kun
kategor ikan</w>
do h</w>
ke bo
il les</w>
gan tungan</w>
79 4</w>
66 5</w>
Lo ck
64 7</w>
p hi
ch art</w>
ine e</w>
mini mum</w>
Raw as</w>
Alfon so</w>
Matthe w</w>
S lamet</w>
s per
as ter
du o</w>
22 16
De but</w>
Ch ro
Be ach</w>
log ika</w>
Nel son</w>
5 10
G B</w>
Ke turunan</w>
13 27
Me un
23 26
67 3</w>
188 2</w>
218 0
mema jukan</w>
opat ra</w>
h eran</w>
ter pengaruh</w>
De fen
be ll</w>
ap annya</w>
Per ry</w>
ch ro
mi um</w>
Si me
gu ay</w>
To u
oph orus</w>
Gener ation</w>
Mos kow</w>
anekar agaman</w>
H adi</w>
ser tifikasi</w>
he i</w>
tor pedo</w>
50 7
sul fat</w>
pat roli</w>
memper cepat</w>
fi r</w>
67 1</w>
oto motif</w>
Khali fah</w>
R asu
sin drom</w>
Ah med</w>
psikolo gis</w>
il us</w>
min ta</w>
Vo lu
Cho i</w>
S k
z aki</w>
up ah</w>
tuju annya</w>
68 6</w>
Penye bab</w>
U t
10 24
28 10
Sela sa</w>
lis t</w>
Br y
y im</w>
ing annya</w>
sek al</w>
89 0</w>
gem bi
O toritas</w>
ak h</w>
Ke c</w>
23 24
Kar tanegara</w>
sta l</w>
69 4</w>
Oper a</w>
PS SI</w>
K S</w>
W alau</w>
u dang</w>
it tinggi</w>
13 29
ab angan</w>
Ni cho
aki batnya</w>
I kh
N en
di ben
ra p</w>
spesi men</w>
Bus h</w>
pengen alan</w>
kemiri pan</w>
1 201
E ti
h ok
Gu atemala</w>
alum inium</w>
o id</w>
di ver
mer awat</w>
eg u</w>
23 29
Pu erto</w>
gu bah</w>
Man i
R ancangan</w>
c am</w>
ar aja</w>
ber migrasi</w>
pu asa</w>
Franc es
Kad ang</w>
C il
D O
22 24
Bang kalan</w>
dika barkan</w>
mal l</w>
memban tunya</w>
mengak ses</w>
C BS</w>
De ad</w>
tang ganya</w>
tern us</w>
Ter tinggi</w>
Le tak</w>
Dis amping</w>
atu listiwa</w>
flek si
E c
U ganda</w>
a qu
ber buat</w>
for t</w>
Ma ch
Pela tih</w>
X III</w>
w ai</w>
ju tan</w>
re putasi</w>
Kar a
69 1</w>
Ob jek</w>
ar ing</w>
le tik</w>
mas anya</w>
10 25
ger ai</w>
im anya</w>
67 0
Vil la
Tel kom</w>
menyi arkan</w>
bu ahnya</w>
ke hidupannya</w>
al bu
ko tor</w>
sam anya</w>
cor an</w>
penc ari</w>
Jaz z</w>
Form at</w>
E us
22 30
Pro fe
Bak ar</w>
dimas ak</w>
p si</w>
di anut</w>
ke hendak</w>
is ha</w>
ro k</w>
mon ster</w>
IS O</w>
sang atlah</w>
le i
Ke ba
ru l</w>
89 9</w>
87 4</w>
Min yak</w>
penj ajah</w>
ekstr akurikuler</w>
meng uji</w>
28 30
23 27
Men ing
So malia</w>
dihad api</w>
H ud
li ta</w>
ab str
sin ema</w>
Mes opo
78 7</w>
osi da</w>
merek rut</w>
H u</w>
di ca
ku pi</w>
pri v
79 1</w>
66 9</w>
O hio</w>
te ga</w>
15 08
66 8</w>
Rum pun</w>
ono tus</w>
Maul ana</w>
C lu
d ren</w>
di kat</w>
ber bunga</w>
eng ga
ru an</w>
28 24
24 25
angk ang</w>
c lu
k tik</w>
ar di</w>
di ton
De ath</w>
ru as</w>
mo dul</w>
temp o</w>
gene tika</w>
9 25
h ta</w>
bah u</w>
kem u
13 25
65 8</w>
diak hiri</w>
dipu tuskan</w>
memberi tah
Lincol n</w>
M D
har imau</w>
qu ot</w>
Gala xy</w>
Umay yah</w>
6 37
9 24
b lin</w>
ay angkan</w>
ti i</w>
si ve</w>
man ual</w>
tahbis kan</w>
P ris
r man</w>
litur gi</w>
c ari</w>
u si</w>
22 28
ali b</w>
Bang un</w>
67 9</w>
89 2</w>
sil silah</w>
Exo centrus</w>
esi denan</w>
Mesopo tamia</w>
r ina</w>
Frank lin</w>
A B</w>
M ini</w>
W uhan</w>
Z ar
asi at</w>
30 00</w>
war t</w>
ge seran</w>
69 7</w>
66 4</w>
indivi dual</w>
Ala san</w>
dé partement</w>
per hiasan</w>
der ma
23 25
mengantar kan</w>
di klaim</w>
ter je
bu ang</w>
amp ang</w>
22 29
tar if</w>
Mo un
Ang kutan</w>
79 2</w>
On line</w>
membu juk</w>
G O
a but</w>
p ilih</w>
s urut</w>
ten tunya</w>
Ma c</w>
89 8</w>
87 2</w>
Cal on</w>
mengin dikasikan</w>
S leman</w>
ta e</w>
ber am
le g</w>
ak ut</w>
Ban tul</w>
serv atorium</w>
keham ilan</w>
J ae</w>
as aran</w>
bin er</w>
79 5</w>
Kel ly</w>
Persi b</w>
65 9</w>
Wri ght</w>
X u
i v</w>
tr is
sel ang</w>
bur n</w>
87 8</w>
Cir cle</w>
Pem an
89 4</w>
87 9</w>
64 9</w>
Ad ven
ur eu
Ar tinya</w>
Mar co</w>
j ang
ka keknya</w>
re sen
kon stan</w>
aga an</w>
pad atan</w>
87 5</w>
Cho ice</w>
integr al</w>
C es
n anya</w>
ber uang</w>
re sep</w>
ki k</w>
bung kus</w>
z a
li l</w>
pat kannya</w>
Di rilis</w>
79 6</w>
79 8</w>
Ho us
87 3</w>
yu b</w>
Sargas sum</w>
T u</w>
c atur</w>
k ana</w>
to grafi</w>
Pem buatan</w>
Su hu</w>
Pu isi</w>
lem baran</w>
Sum mer</w>
tun angan</w>
demok ratis</w>
terpen cil</w>
k inya</w>
ke betulan</w>
Ro bin</w>
Ba ch
Nicho las</w>
p akai</w>
ba ck
bi ola</w>
Gon z
Oly mpi
f ur</w>
l s
in ang</w>
pu kan</w>
Ch ev
69 3</w>
65 3</w>
rup iah</w>
memun cak</w>
dipec at</w>
pers onal</w>
S lavia</w>
la mi</w>
ter mal</w>
ban jar</w>
89 6</w>
Coun cil</w>
Kri mea</w>
Lang it</w>
produk sinya</w>
c is</w>
t man</w>
di aan</w>
pe ti
Per tunjukan</w>
Ti mo
Par ty</w>
68 9</w>
Dor cadion</w>
IP A</w>
W aw
c ta</w>
on ne</w>
Pen jela
66 3</w>
car aan</w>
ani um</w>
dihi asi</w>
gem e
Ada lah</w>
menang is</w>
khawati ran</w>
Greg orius</w>
diskri minasi</w>
i di
Se le
De uts
27 56
dis che</w>
Pan itia</w>
Car ter</w>
Gran de</w>
Pengu asa</w>
F ire</w>
J ay</w>
K lo
c ang
di in
20 22</w>
Ke satuan</w>
op o</w>
so s</w>
Li e</w>
berke li
ye v</w>
Tem bok</w>
S kad
n ografi</w>
sa buk</w>
mu tu</w>
bin tik</w>
87 7</w>
Bag us</w>
Frank furt</w>
9 26
O ce
h kannya</w>
meng ira</w>
po int</w>
tem patnya</w>
ala i</w>
pir asi</w>
j at</w>
29 60
anc ar</w>
stu dinya</w>
Gi ri
dikel ompokkan</w>
N ir
h atnya</w>
ter e
el ing</w>
kan toran</w>
Ge ografis</w>
Sen tral</w>
Fre e</w>
Sudi rman</w>
P h</w>
d har
di aki
es mian</w>
13 18
Men jelang</w>
Kon struksi</w>
bur sa</w>
peman faatan</w>
hidr at</w>
li buran</w>
Ju lia</w>
Broad way</w>
9 29
o bus</w>
p H</w>
v ege
ke p</w>
le gi
An ato
penga was</w>
88 0</w>
Diper kirakan</w>
men ci
De lapan</w>
70 9</w>
pene tapan</w>
Sya ikh</w>
L ac
is sa</w>
ben ang</w>
ati m</w>
70 8</w>
Ru dolf</w>
ula ta</w>
yarak atnya</w>
n ik
ta i
Ke tapang</w>
18 30</w>
mo som</w>
Tu menggung</w>
cac ing</w>
G um
S W
u bi</w>
peman asan</w>
BM W</w>
si sik</w>
Ke adilan</w>
po pula
14 27
kak inya</w>
C ar</w>
G ang
S illa</w>
ne ll</w>
Per ikanan</w>
An to
tur y</w>
79 3</w>
Tin tin</w>
I D
re kayasa</w>
ni as</w>
Mi chel</w>
70 6</w>
kali um</w>
Han zi</w>
menggan tikannya</w>
S N
la va</w>
Per s
hu l</w>
Ju dul</w>
plas ma</w>
kelem ahan</w>
F E
ba p
89 7</w>
Boj ong
A m</w>
K u</w>
c ket</w>
an te</w>
en za</w>
em on</w>
be ta</w>
ben dungan</w>
ho k</w>
ogra d</w>
89 5</w>
Informa tika</w>
toler ansi</w>
un der</w>
Wa ter
Sejar awan</w>
F ur
An n</w>
jam uan</w>
persen tase</w>
c ast</w>
s s</w>
C R</w>
R M</w>
ar um</w>
es o
69 9</w>
sim o</w>
Rad ar</w>
Ce koslo
Hap py</w>
E g
ber ibu</w>
gg er</w>
Ac t</w>
hal te</w>
ase hat</w>
Leg islatif</w>
Ron ald</w>
Uru guay</w>
p lus</w>
in su
ad ing</w>
di golongkan</w>
meny umbang</w>
fisi kawan</w>
Aug ust</w>
B asi
ar ikan</w>
ke d</w>
pen ugasan</w>
pu puk</w>
Man diri</w>
isti adat</w>
disi apkan</w>
sk t</w>
F au
T itan</w>
be lla</w>
pem buru</w>
ul ung</w>
Bo w
For tun
manu faktur</w>
D atu</w>
p au
um icro
22 10
15 23
op oli</w>
Pe le
peri o
umicro tipula</w>
J ang</w>
ter kandung</w>
18 50</w>
24 23
23 23
penge luaran</w>
Mag etan</w>
M á
U ang</w>
g ong</w>
en ium</w>
ta ceae</w>
si ma</w>
ber kisah</w>
po tret</w>
Un sur</w>
jen g</w>
66 2</w>
Ram ad
inves tigasi</w>
dile wati</w>
Rem aja</w>
Buk ittinggi</w>
di penjara</w>
war u</w>
ac o</w>
asu han</w>
membu ang</w>
dikur angi</w>
li fe</w>
pe lan</w>
pe doman</w>
es ta</w>
12 18
28 27
70 3</w>
Er nest</w>
9 30
a vi
r um</w>
w anda</w>
é r
é s</w>
en ia</w>
22 23
han na</w>
Spe cial</w>
Fanta sy</w>
i gi</w>
s ten
w anya</w>
ber sekutu</w>
Do wn</w>
Kota baru</w>
hi u</w>
mener jemahkan</w>
ril ler</w>
Asa han</w>
cc er</w>
per kampungan</w>
man d</w>
Sili wangi</w>
I ren
ad am</w>
meng or
Per himpunan</w>
60 0
70 4</w>
70 2</w>
89 3</w>
78 0</w>
Gar y</w>
Charlo tte</w>
A bang</w>
f us</w>
on y
mer ang
pen danaan</w>
ko mo
ov e</w>
89 1</w>
kerj anya</w>
Andre a</w>
P ajak</w>
f 1</w>
do t</w>
Ke ce
kom putasi</w>
87 1</w>
Ca e
4 20</w>
A lue</w>
la hirnya</w>
ber angan</w>
re komendasi</w>
Tar ian</w>
er on</w>
ke turunannya</w>
pem in
eli minasi</w>
Sh en
kat edral</w>
Ros s</w>
kuad ron</w>
Hok kaido</w>
Damas kus</w>
K w
R on</w>
l ès</w>
men iru</w>
per ti
lo kasinya</w>
13 23
28 23
Te patnya</w>
et s</w>
76 7</w>
Bal l</w>
Fre d</w>
dras tis</w>
engga lek</w>
Da lem</w>
Me dic
Ar ondisemen</w>
Pe gawai</w>
spe kulasi</w>
Ori ental</w>
pus aka</w>
per intis</w>
col lis</w>
9 23
B res
Peny el
anta uan</w>
pol y
Bombyli us</w>
Boli via</w>
eng kau</w>
ku t</w>
23 18
kan on</w>
Mus ta
Dan ny</w>
Em my</w>
untu knya</w>
D atar</w>
s om
ap u</w>
13 28
k lah</w>
x a</w>
Se gera</w>
tr ac
ch eng</w>
ag ensi</w>
187 2</w>
fung sinya</w>
R hy
w ing</w>
had its</w>
diaki batkan</w>
ba lasan</w>
bu buk</w>
mer us</w>
ay anya</w>
baw ahnya</w>
les tarikan</w>
Stan ley</w>
biar awan</w>
vulkan ik</w>
9 14
F raksi</w>
as as</w>
pen anda
bah asan</w>
cu ti</w>
sah abatnya</w>
mar ket</w>
cer pen</w>
Ta ke
At uran</w>
Cy r
Rasu lullah</w>
P dt</w>
de m</w>
Ke bon
28 18
mi le</w>
Man u
The atre</w>
, ”</w>
2 188
L av
V os
la hi</w>
ta lan</w>
te lan
um bu</w>
Mc Car
sastr awan</w>
p ian</w>
peny unting</w>
187 9</w>
Sci en
Liber al</w>
ben ih</w>
Ar my</w>
Pe tersburg</w>
Ex p
Gra ce</w>
kelen jar</w>
i han</w>
m iring</w>
per sediaan</w>
kal sium</w>
dor ongan</w>
yuris diksi</w>
J ing</w>
W oman</w>
w agen</w>
pen si
uk urannya</w>
A ek</w>
H ul
su tra</w>
ser en
ek s</w>
Ob last</w>
Volu me</w>
k asan</w>
el y</w>
mo men</w>
Bo bby</w>
88 8</w>
arsi p</w>
Antiok hia</w>
Toku gawa</w>
A do
C M
i ti
da te</w>
it annya</w>
kar at</w>
Bar bara</w>
sta te</w>
Hu ta
5 15
P ati
i ii</w>
al do</w>
es pon
Ch i</w>
Bar ry</w>
88 5</w>
bon do</w>
M im
e au</w>
t ten
ser ies</w>
Pi agam</w>
88 6</w>
rus a</w>
di langsungkan</w>
In sta
ong nya</w>
diper debatkan</w>
Kop i</w>
arte fak</w>
e ds</w>
ke jam</w>
el aran</w>
meny angkut</w>
menj anj
den ominasi</w>
gh ter</w>
77 0</w>
klin ik</w>
Moro wali</w>
Scre en</w>
I ly
T O</w>
kon stan
12 15
Kar no</w>
sub spesies</w>
Inde pen
n atal</w>
en ai</w>
di bahas</w>
ter tangkap</w>
15 38
Bil angan</w>
Has an
S yah</w>
ka yat</w>
Per ta
uru han</w>
bo h</w>
iku t
Ber ry</w>
emo sional</w>
E ni
l l
u w</w>
pro posal</w>
23 15
Pa v
AN G</w>
Dri ve</w>
mata pencaharian</w>
M ungkin</w>
P residen
X i</w>
f r
ber orientasi</w>
mo si</w>
Di ag
diper baiki</w>
tek s
kese puluh</w>
Jen ewa</w>
Ay am</w>
Meri am</w>
e kologi</w>
f ar</w>
ber enang</w>
pen anda</w>
ma chus</w>
tr ak
Per wira</w>
hu tang</w>
ce han</w>
Pen ta
Andre as</w>
D wi
te a</w>
te olog</w>
re presentasi</w>
tang kai</w>
ek asan</w>
Mu g
go t</w>
187 6</w>
Stan d</w>
a ker</w>
a ustr
d son</w>
de ling</w>
ken tang</w>
bo ts</w>
Jam a
Peny anyi</w>
Ox y
Q ur
dis ini</w>
Ko dim</w>
pr am
hil angkan</w>
af siran</w>
W ag
W ins
ur yeo</w>
un ikan</w>
ti ce</w>
to ur</w>
peny atuan</w>
33 9
antar muka</w>
Mat ematika</w>
ga p</w>
mem at
23 28
menye ber
gel anggang</w>
Stockhol m</w>
W H
g ne</w>
bu sur</w>
22 15
kon sol</w>
15 15
pri ma</w>
Mag ister</w>
Tem a</w>
pis tol</w>
kompon is</w>
le gal</w>
15 10
mul ya</w>
r asional</w>
ó w</w>
in jau</w>
se jalan</w>
pen a</w>
Se at
keba ikan</w>
nasion alisme</w>
MN C</w>
H ou
J urnal</w>
le i</w>
meny andang</w>
Me lihat</w>
Dah ulu</w>
per pecahan</w>
te t</w>
pan tas</w>
Pro fes
Un der
Ma in</w>
Ki ds</w>
Qu in
ine ering</w>
pusta ka</w>
menying kirkan</w>
j k</w>
ar u
di kategorikan</w>
ju taan</w>
Ar e</w>
tis asi</w>
Pho enix</w>
jil id</w>
G ö
h ail</w>
j or
mas ukan</w>
58 9
Bad ai</w>
Tom my</w>
Pam eran</w>
Jat in
x us</w>
ber ry</w>
per kalian</w>
per budakan</w>
En d</w>
kuad or</w>
A Y
ta lisme</w>
di tahbiskan</w>
peng angkatan</w>
pan dai</w>
Ge jala</w>
187 3</w>
dang kal</w>
menyam ar</w>
F ame</w>
am bang</w>
bu wana</w>
bu lanan</w>
al urkan</w>
Ch em
88 3</w>
Lo komotif</w>
Kap ol
seksu alitas</w>
Maga zine</w>
J angan</w>
P K</w>
en us</w>
si di</w>
lu suri</w>
Pro g
Ra fa
Tu lisan</w>
Em ma</w>
Lang kah</w>
A kun
B ondowoso</w>
e jaan</w>
v ar</w>
re lasi</w>
kon sultan</w>
Ara gon</w>
Penyi aran</w>
“ "</w>
ta tanan</w>
ku tipan</w>
ch ange</w>
18 48</w>
pi lar</w>
Ku tub</w>
59 0
88 9</w>
Coun try</w>
B B</w>
K alau</w>
h l</w>
ke ta
Jen dral</w>
Phila del
H j</w>
a a</w>
b one</w>
di can
ke simpulan</w>
de kor
Bo o
Bel arus</w>
99 9</w>
Her bert</w>
97 8</w>
bertem a</w>
spesi alis</w>
UT C</w>
Meun asah</w>
di lem
ti ani</w>
Per ayaan</w>
gen catan</w>
Ro b
Ter masuk</w>
Maur ice</w>
Pub lik</w>
Benedik tus</w>
y awan</w>
bi yah</w>
pen damp
ra gu</w>
tri an</w>
Pu luh</w>
Sa v
ling ton</w>
ila hi</w>
e lec
p resi
Da ily</w>
Ang likan</w>
US S</w>
t ta
z awa</w>
ber matapencaharian</w>
ga e</w>
In ilah</w>
man tra</w>
De c
par kan</w>
Sa vo
omb ong</w>
.. .
metabo lisme</w>
S ung
Y ong</w>
ab or
Kem bang</w>
pener bang</w>
f ologi</w>
ber mesin</w>
meng as
tr ay
Cas tro</w>
B W
I rian</w>
N O</w>
mengen ali</w>
belak angnya</w>
L una</w>
Ke y
Re d
ac ana</w>
Ro bin
diba yar</w>
vad or</w>
slo gan</w>
menjanj ikan</w>
K anj
L et</w>
me o</w>
gen ik</w>
he tero
im peri
Chi ang</w>
kak u</w>
Jad wal</w>
C L
K and
N anjing</w>
S hir
c apai</w>
y on</w>
da c
meng gerakkan</w>
Pro fil</w>
he ed</w>
Mah ab
Yah ya</w>
peng hapusan</w>
10 23
Sur ga</w>
Bra wijaya</w>
Nag oya</w>
Hiro shima</w>
khali fahan</w>
H uman</w>
se i
si i</w>
ak us
gun an</w>
18 61</w>
15 49
ai ki</w>
ge lapan</w>
gu el</w>
Tom o
Lak e</w>
mekan ika</w>
NG C</w>
interpre tasi</w>
P H
P G</w>
n ur
12 66
lar as</w>
6 38
9 28
t é</w>
ta yangan</w>
si o</w>
tu lah</w>
hi tungkan</w>
mas yarakatnya</w>
menga lihkan</w>
pri oritas</w>
Te uku</w>
Bi asa</w>
mele s
Je ff</w>
penem u</w>
bahag iaan</w>
tir inya</w>
N T</w>
or nis</w>
mem bandingkan</w>
15 30
Pus taka</w>
Bro s</w>
gur unya</w>
PD I</w>
mempering atkan</w>
drum mer</w>
budi daya</w>
I L
S ragen</w>
n um
am fi
sis wi</w>
yl li
Wol f
populer kan</w>
pembac aan</w>
Babil onia</w>
ke pun
hi p
so k</w>
No t</w>
Kri tik</w>
Rat na</w>
E va</w>
J aksa</w>
P B</w>
ber daya</w>
Ka uk
din e</w>
memper ebutkan</w>
menda mpingi</w>
Dem on
kor ak</w>
Val ley</w>
instr u
Su b</w>
Ben er</w>
San tos</w>
dikem ukakan</w>
/ "</w>
A W
W en</w>
Ke hutanan</w>
uru k</w>
10 28
phan tes</w>
T ana</w>
e ur
te st</w>
il o</w>
pen cetak</w>
re septor</w>
aw am</w>
mi e</w>
Mas sa</w>
son omi</w>
sukar ela</w>
o ds</w>
as ar</w>
ka takan</w>
Ti ger</w>
24 18
s hire</w>
w ski</w>
ad es</w>
men duga</w>
ter padu</w>
ker ang</w>
Angg aran</w>
bere volusi</w>
sepu punya</w>
meles tarikan</w>
H ambur
V la
n é
ber tenaga</w>
per empat</w>
il us
SM S</w>
sin te
78 6</w>
li lin</w>
ter tanggal</w>
sen tuhan</w>
Re ich
88 1</w>
120 7
profe sion
akadem is</w>
roman sa</w>
ap i
Th ree</w>
Le on</w>
Ab i</w>
78 2</w>
law ar</w>
B alkan</w>
bi reuen</w>
22 18
Sin dang
For e
Tam iang</w>
shi n</w>
penaw aran</w>
B o</w>
bu bar</w>
meng o
ap alagi</w>
seku ler</w>
ny anyian</w>
Geor ges</w>
Len in</w>
kedu taan</w>
b nya</w>
g aran</w>
per spektif</w>
sat nya</w>
stre aming</w>
Chap lin</w>
Cah aya</w>
Prad esh</w>
V A</w>
c apan</w>
ni gro
Pen gaw
DP D</w>
Sah am</w>
kro mosom</w>
Pear l</w>
B ack</w>
S BS</w>
y un
Bi o
Sen ator</w>
Sy n
bertem an</w>
Bagai manapun</w>
diton ton</w>
W an</w>
ar tistik</w>
Pem atang</w>
Eli sa
E kuador</w>
ri o</w>
mer iah</w>
ch tar</w>
wi d
Gu il
hak ti</w>
Valen cia</w>
Spar ta</w>
Fit ri</w>
9 27
P aya</w>
T K
g ata</w>
ke ing
In ter</w>
10 18
ditem pati</w>
c ru
la u
ti sti
re r</w>
Mar sekal</w>
Kem ampuan</w>
kali ber</w>
Hung aria</w>
an ta</w>
le p
meng es
pro ton</w>
Has san</w>
teor ema</w>
H amp
f ace</w>
o bu
Ke ka
Li rik</w>
menda tangkan</w>
Ang kasa</w>
88 2</w>
urn ian</w>
sak ti</w>
Elec tric</w>
Lah at</w>
C IA</w>
Pem i
Bo ard</w>
menda tangi</w>
Den is</w>
cak ram</w>
dibi arkan</w>
Seat tle</w>
A les
d ings</w>
in stansi</w>
Me tro
Ser am</w>
lar d</w>
Pr inc
kela inan</w>
i he</w>
j in
per sawahan</w>
ing o</w>
Tu buh</w>
lam kan</w>
U mat</w>
18 68</w>
ce t</w>
cu lata</w>
pas tian</w>
Mi ya
Bat ur
Hel lo</w>
menyem bunyikan</w>
N em
t han</w>
la tih</w>
in er
ro e</w>
meng an
pro fes
The ater</w>
pembi caraan</w>
Pemak aman</w>
Gag asan</w>
M M</w>
S hi</w>
In g
Re view</w>
Mor ning</w>
reli ef</w>
f lo
g ang
w af
ter kuat</w>
meng hidupkan</w>
ch al
lo ad</w>
kece wa</w>
land ria</w>
P a</w>
ag er</w>
23 33
So ccer</w>
Cap e</w>
navi gasi</w>
menyeber angi</w>
h agen</w>
fil mkan</w>
peri hal</w>
rer untuhan</w>
geril ya</w>
le x</w>
ser ibu</w>
ran a</w>
den burg</w>
kos akata</w>
angk ung</w>
Bole s
Y az
la ser</w>
man uskrip</w>
ting en</w>
122 8
Pun j
mata ceae</w>
H ui</w>
mo du
ji ma</w>
perc intaan</w>
Lin tang</w>
menyem buhkan</w>
F em
P ab
en er
men ayangkan</w>
mem bunuhnya</w>
tah ana</w>
Kar im</w>
77 5</w>
c ke</w>
g um</w>
ber durasi</w>
w ung</w>
y ia</w>
men u</w>
ter pecah</w>
peng gantinya</w>
Ser i
Di ana</w>
187 7</w>
web site</w>
Christ mas</w>
ev akuasi</w>
Bagh dad</w>
c ity</w>
hi ang</w>
sem buh</w>
Ra in
ikut ser
L ingga</w>
P ali
ter per
bo dy</w>
Al lo
As li</w>
48 6
menar uh</w>
n us
tr ak</w>
pem andu</w>
dis atukan</w>
ham i</w>
54 4
88 7</w>
konseku ensi</w>
be pergian</w>
ko le
ne l
22 86
tang ki</w>
40 0
Sur ah</w>
can egara</w>
88 4</w>
ovi ć</w>
hal uan</w>
AI DS</w>
Andr é</w>
E conom
Y ar
e tanol</w>
w ald</w>
ku hkan</w>
meng analisis</w>
Kon awe</w>
bor ough</w>
kir annya</w>
Hali chon
B ara</w>
V or
h ing</w>
is m</w>
pro fil</w>
ce k</w>
memper juangkan</w>
70 0
desa iner</w>
C T</w>
j ajahan</w>
p isi</w>
v re</w>
er un</w>
di hilangkan</w>
th riller</w>
psi ko
memanc ing</w>
fli x</w>
ilus trasi</w>
regu lasi</w>
seng it</w>
Gog uryeo</w>
B L
B atik</w>
su p</w>
ol s</w>
Con vention</w>
Ba ker</w>
War sawa</w>
aku isisi</w>
B ina</w>
S cho
r s</w>
li ps</w>
ka wat</w>
An gola</w>
90 7</w>
anc y</w>
pur n
L ain</w>
R é
mp u</w>
har d
Is hi
Kem ungkinan</w>
Ben gali</w>
Ste wart</w>
Hy un
konsul tasi</w>
as ri</w>
aj ian</w>
26 17
Be y
bad ak</w>
Om matius</w>
n un
r annya</w>
se x
te les</w>
amp as</w>
bang i</w>
Di alek</w>
Ban tuan</w>
Play Station</w>
E lang</w>
S port</w>
T ulang</w>
v isa</w>
me z</w>
peng antar</w>
Pe kerja</w>
res pons</w>
Sy iah</w>
Mon ster</w>
Kur si</w>
Kaw asaki</w>
bersi kap</w>
belan da</w>
perfor ma</w>
R UU</w>
an inya</w>
peng urusan</w>
Mi ami</w>
Pur ba</w>
Sal vador</w>
Ekstr akurikuler</w>
C P</w>
an tina</w>
ne tt</w>
diper hatikan</w>
tele skop</w>
Sy l
ff er</w>
pang er
are al</w>
Hida yat</w>
T umbang</w>
ka valeri</w>
de pannya</w>
ala m
18 67</w>
Yo se
Ba ek
Yu da
Gay o</w>
sensi tif</w>
N ay
di h</w>
ak muran</w>
to i
ag ara</w>
Da vi
Sh el
Gal uh</w>
5 20</w>
em y</w>
ke stra</w>
su ki</w>
musi c</w>
pela wak</w>
I chi
M ali</w>
S on</w>
T ari
re view</w>
Hi dro
sistem atis</w>
Luth eran</w>
sedik itnya</w>
c over
z zo</w>
ti tu
ber iklim</w>
pal an</w>
menyer takan</w>
120 9
Din am
des tinasi</w>
formula_ 2</w>
b lu
o th
Per intah</w>
peng elola</w>
tim ah</w>
Bro ok
diak u
ters angka</w>
bijak sanaan</w>
isyar at</w>
Demon ax</w>
H and
L ili
P D</w>
X IV</w>
ke khawatiran</w>
meng anggapnya</w>
Ku da</w>
diser ap</w>
gug atan</w>
pala i</w>
Chur ch</w>
Hous ton</w>
di olah</w>
ber skala</w>
be y</w>
bar ito</w>
gi h</w>
Ed die</w>
menghar uskan</w>
Mex ico</w>
I I
c ros
e to
r ongga</w>
s kandal</w>
mer ia</w>
to pi</w>
sen tr
78 8</w>
Nor man
w en
² ,</w>
ang kal</w>
Ke bangkitan</w>
kem unculan</w>
pan itia</w>
Me dali</w>
poli tis</w>
Hi er
120 8
verte brata</w>
S aksi</w>
V arian</w>
k adi
in stitu
te i</w>
meng ungsi</w>
Se y
Mar c</w>
ger bong</w>
kur ung</w>
dem puan</w>
Ho w</w>
Ju lian</w>
00 7</w>
76 8</w>
menu ai</w>
Wa yang</w>
Id ris</w>
9 18
9 15
sta bilitas</w>
Jo an</w>
cul a</w>
Vo ice</w>
Jus tin</w>
T S</w>
p son</w>
ο ς</w>
li c</w>
al fabet</w>
aba ikan</w>
Pen amaan</w>
49 6
cer itanya</w>
Ha meng
fan s</w>
spesi fikasi</w>
fasci ata</w>
dla tul</w>
Philadel phia</w>
E C</w>
di an
ber dagang</w>
to pografi</w>
Me lasto
war ung</w>
Su silo</w>
Si beria</w>
Li ke</w>
co c
eks asi</w>
ye vich</w>
kompe tensi</w>
dias ingkan</w>
Melasto mataceae</w>
ur ce</w>
ber jalannya</w>
ri tus</w>
Se con
ham bat</w>
00 2</w>
122 7
Ce le
Curu g</w>
Walla ce</w>
Nuru l</w>
5 30</w>
D z
t uni</w>
ang si
om oran</w>
au ke</w>
kur at</w>
memu tar</w>
Br on
77 4</w>
Pay akumbuh</w>
Anato lia</w>
J al
at ullah</w>
per orangan</w>
den da</w>
Ken da
ny eri</w>
Ari fin</w>
Sah ara</w>
air nya</w>
foto grafer</w>
Num for</w>
la mannya</w>
em ik</w>
ri ka</w>
str ong</w>
sam udra</w>
99 0</w>
Oli ver</w>
memer angi</w>
Mit ra</w>
Kece lakaan</w>
K hi
c ken
18 59</w>
ani ayaan</w>
We ek
A i</w>
el lo</w>
menye wa</w>
had is</w>
Mu tiara</w>
organ is
77 8</w>
Tan k</w>
L anu
P U</w>
f nya</w>
en al</w>
ar ab</w>
Sem asa</w>
langs ungan</w>
rek reasi</w>
90 1</w>
penda ftaran</w>
pir amida</w>
Commun ic
A lum
B u</w>
di samping</w>
te c
mer antau</w>
In tel</w>
aj akan</w>
sy awarah</w>
Gi u
ron ica</w>
Ada p
rap per</w>
E mer
V au
18 75</w>
15 67
15 68
Di e
diper ing
Wad uk</w>
Aven ue</w>
Cekoslo wakia</w>
J on</w>
t kannya</w>
z ai
em bahan</w>
sub yek</w>
K ala</w>
c au</w>
y ce</w>
22 20
12 20
dis asi</w>
Ang in</w>
k tika</w>
en i
se ason</w>
De p
Persi apan</w>
blo g</w>
Keter angan</w>
6 36
D wi</w>
N uk
Se bab</w>
lo ve</w>
tang erang</w>
ai annya</w>
ek anan</w>
Ch lor
gi zi</w>
Pad ahal</w>
Austr alian</w>
dor o</w>
Tr ini
Tai pei</w>
5 18
C S
P R</w>
gr ade</w>
Moto GP</w>
pencer naan</w>
hij rah</w>
c le
pem bicara</w>
Mar vel</w>
Pac itan</w>
s tor
men didik</w>
per adilan</w>
Le vi</w>
keku atannya</w>
pur worejo</w>
filoso fi</w>
S aka</w>
T anggapan</w>
ñ a</w>
at ing</w>
hi to</w>
ah at</w>
Hi dangan</w>
kat annya</w>
Ba b</w>
Air port</w>
Jon as</w>
membah ayakan</w>
memban tah</w>
E uni
F ol
v at
re gasi</w>
Per ny
22 66
Mo h
58 6
Peru mahan</w>
Waj o</w>
o h
ber afiliasi</w>
ri c</w>
15 69
so po
Mi guel</w>
ye ong</w>
Tak hta</w>
seri gala</w>
dica but</w>
4 30</w>
S H
e vent</w>
s tone</w>
ter cepat</w>
pen ah
ni fer</w>
og e
Ra o</w>
D R</w>
H MS</w>
si apapun</w>
ber ikan</w>
tek stil</w>
Kom pon
Or der</w>
Lin d
ve teran</w>
tif ul</w>
A eg
Y udi
j aksa</w>
di er</w>
ber bakat</w>
ber sumpah</w>
pu lih</w>
Se i
56 6
122 9
kak ao</w>
ilmu an</w>
Teng ku</w>
menab rak</w>
Mahab har
K L
u peti</w>
ker um
and aran</w>
mon yet</w>
77 6</w>
Lo ire</w>
Fi ve</w>
Fuj i
kompeti tif</w>
S kuat</w>
k isaran</w>
In spek
po mpa</w>
mo tivasi</w>
Ka b</w>
Kar tu</w>
menj au
Mo j
Lar en</w>
mis sion</w>
moder n
u lasi</w>
en tri</w>
em en
pen dingin</w>
Ro sa
ha bili
Kor em</w>
Kur di</w>
PE R
C ode</w>
Y el
s har
per antara</w>
ev o</w>
tum or</w>
M B</w>
men any
ber motor</w>
sel f</w>
Po pu
59 8
Kan aan</w>
Cla ude</w>
n h</w>
78 9</w>
Ap akah</w>
anti asa</w>
dipin jamkan</w>
I t
S z
w ick</w>
bi lisasi</w>
penga wal</w>
pang kal</w>
amun isi</w>
B K
H ag
O ise</w>
p aman</w>
s ina</w>
v ag
ur anium</w>
kon struk
Me li
As mat</w>
ren ovasi</w>
hat annya</w>
pele cehan</w>
Koordin ator</w>
e kon
si do
ter sing
meny atu</w>
san ksi</w>
Aus tin</w>
Kas h
mik ros
Rol ling</w>
diali hkan</w>
M ade</w>
P ola</w>
g ate</w>
ur ban</w>
men imp
tro it</w>
Sem akin</w>
Ben ny</w>
mele pas</w>
230 7
sik lik</w>
bay angan</w>
Arn old</w>
zon tal</w>
algorit me</w>
Cae sar</w>
panger anan</w>
I G
An a</w>
Pem bantaian</w>
lem bar</w>
tor ium</w>
mengen darai</w>
Lou ise</w>
bentu klah</w>
Dal las</w>
AB RI</w>
teror isme</w>
teks tur</w>
S dn</w>
n isnya</w>
di eja</w>
ak tingnya</w>
18 63</w>
fer mentasi</w>
Hol land</w>
pac ar</w>
ES A</w>
nit rat</w>
Sek tor</w>
Purwo dadi</w>
Mei ji</w>
Frances co</w>
konstan ta</w>
W ai
y atnya</w>
be ku</w>
tri al</w>
Mar cus</w>
78 5</w>
76 3</w>
iz ation</w>
A bu
v et</w>
pen embakan</w>
kem itraan</w>
ch il
Bar ang</w>
Ne v
220 7
eksp lorasi</w>
she vik</w>
B av
I sa</w>
N aw
ga wan</w>
ke gi
ran ah</w>
por os</w>
tin i
Co medy</w>
oph y
ts al</w>
Ha iti</w>
Wah id</w>
Sebas tian</w>
In str
peng galian</w>
bo j
78 3</w>
karbon at</w>
y un</w>
me i</w>
meng hukum</w>
ap ian</w>
ra g
om i
Ar ke
28 48
24 20
Ser ibu</w>
sch ap
Myr taceae</w>
P ung
e th
ba it</w>
meng gulingkan</w>
tor si</w>
Ko laka</w>
Tu anku</w>
230 8
220 8
pra sejarah</w>
Strat egi</w>
Hos pi
X a
ga pura</w>
al marhum</w>
ong kok</w>
ger s</w>
ogra f
jem ah</w>
acu an</w>
Amaz on</w>
J auh</w>
pe larut</w>
pu teri</w>
ata k</w>
tur bo
Der by</w>
H im
Z el
c ess</w>
ba jak</w>
Ro dri
so den
For bes</w>
Gar den</w>
ty pe</w>
kej ayaan</w>
é n</w>
ar as</w>
di antara</w>
ber sumber</w>
baw aan</w>
membaw ahi</w>
inten sif</w>
implemen tasi</w>
Yaku b</w>
I M</w>
I de</w>
o tor
ta gonis</w>
tu be</w>
hi b</w>
lin ci</w>
ham ba</w>
187 4</w>
vel t</w>
w ol
ber posisi</w>
sen antiasa</w>
13 20
Ch ad</w>
memper sembahkan</w>
mar ta
90 9</w>
Dar k</w>
matemati kawan</w>
C ut</w>
S e</w>
S in</w>
ti ran</w>
li dah</w>
bi as</w>
ok ro
Ag nes</w>
77 3</w>
Mis ter</w>
inter ior</w>
Sat ur
tif nya</w>
Gaz a</w>
terje bak</w>
n or</w>
z er
di wajibkan</w>
ber istirahat</w>
te bu</w>
ra w
ben g</w>
58 8
dip amerkan</w>
Sen apan</w>
Cen tury</w>
Lom bar
oro ti</w>
5 10</w>
L ahan</w>
] ,</w>
k ari</w>
s kap</w>
se hubungan</w>
mu tasi</w>
didi ri
Sa lam</w>
77 9</w>
La buhanbatu</w>
indi kator</w>
NE T</w>
I gn
In dr
to mi</w>
Si am</w>
dag angkan</w>
kombin asikan</w>
Kela hiran</w>
dime karkan</w>
Skad ron</w>
" ."</w>
J av
an ea</w>
13 6
rek tor</w>
fos fat</w>
Perny ataan</w>
A gam</w>
L ost</w>
g ing</w>
di ga
mem buruk</w>
Do a</w>
Hon or</w>
Sol omon</w>
5 25</w>
L am</w>
R B</w>
ar to</w>
per ser
pem baruan</w>
Da ve</w>
der es</w>
Te lah</w>
Mer iah</w>
kese taraan</w>
No w</w>
98 0</w>
dita klu
76 5</w>
Produ ction</w>
Net flix</w>
WW E</w>
soden doryx</w>
A in</w>
c or</w>
do va</w>
bu aya</w>
Si wa</w>
vi c</w>
pun k</w>
dike palai</w>
78 1</w>
Hali m</w>
Pelak sana</w>
4 10</w>
f ili
j ag
in k</w>
ber mata</w>
le bat</w>
Ka u</w>
Ch and
Gran ada</w>
Cas tel
langg anan</w>
2 194
T il
V irus</w>
di jaga</w>
ber kali</w>
tu ber
pe lai</w>
pem a
Per sekutuan</w>
Di e</w>
Peng guna</w>
Rek aman</w>
Nip pon</w>
Lock heed</w>
tray ek</w>
M S
S ung</w>
T ur</w>
c ola</w>
Ar tis</w>
simp ang</w>
keba lan</w>
BUM N</w>
5 12</w>
R asa</w>
di uji</w>
ber tingkat</w>
meng gali</w>
pu kulan</w>
oph ila</w>
Mon te</w>
Her o
Wor ks</w>
Banyu asin</w>
ti vi
22 96
ci r</w>
menda ftarkan</w>
Sy e
penyi hir</w>
mari tim</w>
ilustr asikan</w>
A r</w>
Ke i</w>
Ki ev</w>
yo pes</w>
El li
br ary</w>
thi s</w>
Augus tus</w>
insta lasi</w>
C B
C ong
J ong
M og
R upa</w>
b asi</w>
ba tin</w>
Sh am
Bat ara</w>
far masi</w>
Ober ea</w>
M angku
N am</w>
d rik</w>
z burg</w>
per i</w>
Per batasan</w>
Per samaan</w>
rak yatnya</w>
jam ak</w>
Ox yopes</w>
L loyd</w>
T a</w>
l ongan</w>
ko tai</w>
meng gambar</w>
kom pen
akar sai</w>
99 7</w>
77 2</w>
wit z</w>
sosi ologi</w>
Sys tems</w>
H og
Ben ua</w>
Pening katan</w>
F landria</w>
t ress</w>
ti ada</w>
bi tung</w>
mo l</w>
tri ct</w>
46 0
len y
val uasi</w>
inten sitas</w>
Yud ho
antu mkan</w>
) )</w>
I bukota</w>
I BM</w>
pen hagen</w>
Per s</w>
Mar ina</w>
Re in
Re kor</w>
Peng er
86 4</w>
Col or
peraw at</w>
dram atis</w>
kasi hnya</w>
Beat les</w>
c abai</w>
f en</w>
m ong
as tro
da ur</w>
li ah</w>
ten gahnya</w>
ek nya</w>
lang ga</w>
kad er</w>
76 1</w>
person il</w>
LG BT</w>
menghub ungi</w>
A q
M AN</w>
men dasar</w>
lu min
pen tas</w>
ko wi</w>
23 20
vi ri
menc antumkan</w>
menj angkau</w>
akar ya</w>
Kon servasi</w>
oper asinya</w>
keter batasan</w>
Wo od
pengen dali</w>
Za in
M L</w>
ad ian</w>
em i
on na</w>
18 69</w>
kepon akannya</w>
Week ly</w>
M ati</w>
k no
De troit</w>
aj aya</w>
An om</w>
mbu s</w>
Sin ga</w>
00 4</w>
98 5</w>
97 0</w>
mac ro
melan da</w>
Green land</w>
Hasan uddin</w>
o y</w>
su a</w>
kem asan</w>
10 17
vi us</w>
78 4</w>
Ha ag</w>
may or</w>
Xi ao</w>
dokumen tasikan</w>
Challeng er</w>
Robin son</w>
ar oma</w>
ka tak</w>
ben tar</w>
So em
no tasi</w>
eu x</w>
fla v
diwar iskan</w>
Sain te</w>
R ai</w>
f unda
in ga</w>
men g</w>
90 2</w>
Anton ius</w>
Euni dia</w>
E instein</w>
F ron
w all</w>
ke lemba
mer ug
lu cu</w>
Da eng</w>
gen si</w>
sus astr
mengab di</w>
F O
Z eus</w>
se paruh</w>
at s</w>
per paduan</w>
ke ke
bi bir</w>
me tris</w>
op ini</w>
Sen na</w>
son i</w>
218 7
Az har</w>
Dang dut</w>
diung kapkan</w>
ditaklu kkan</w>
8 50</w>
Y os
c it
u e
v ali
al bi
pe tahana</w>
de gradasi</w>
meny ir
Mar ch</w>
Th am
gu ez</w>
Cer odon
Let kol</w>
Guad al
Yudho yono</w>
Cerodon tha</w>
B O</w>
B asuki</w>
F ren
G yeong
N yi</w>
men af
30 00
No ah</w>
R it
U ji</w>
a bi
w u
an eka</w>
ba las</w>
ban teng</w>
cu ma</w>
amb o</w>
sti c</w>
pengar uhnya</w>
77 1</w>
Ari zona</w>
Y i
se harga</w>
99 1</w>
76 4</w>
Mag ic</w>
Dam ai</w>
cy clo
elli te</w>
hori zontal</w>
E mili
or is</w>
be c</w>
Se peda</w>
ni g
Ker j
230 9
Trans jakarta</w>
G hana</w>
R ika</w>
f ront</w>
de ta
Ko tamadya</w>
kor espon
Tur ner</w>
olog ical</w>
Kh mer</w>
menger ahkan</w>
jer man</w>
penin dasan</w>
R wanda</w>
at kannya</w>
te tangganya</w>
re ll</w>
ole t</w>
ma hi</w>
ru tan</w>
ry s</w>
329 0
mal u</w>
Dok tor</w>
semin ar</w>
Mou tong</w>
Lanu d</w>
G es
L anc
M ar</w>
N il</w>
T awar
a ser</w>
c us
el o
peny usunan</w>
Mo tor
Sh u</w>
Kam erun</w>
keter sediaan</w>
Kaj ian</w>
Fransis kus</w>
li min</w>
on es</w>
pu cat</w>
An jing</w>
mo grafi</w>
Kat e</w>
fa una</w>
War ren</w>
menam ai</w>
Mun ich</w>
Domin ika</w>
albu mnya</w>
T hu
in dra</w>
di sim
ko ma</w>
Pe ta</w>
To ur
berkem bangnya</w>
KP U</w>
kem iringan</w>
jam bu</w>
Hy un</w>
pes anan</w>
Broad casting</w>
merug ikan</w>
P A
R ilis</w>
ri ght</w>
de lla</w>
mp ahan</w>
uru tkan</w>
96 1</w>
menyel uruh</w>
geng si</w>
perio dik</w>
susastr aan</w>
g ara</w>
So li
Bal tik</w>
sepak bola</w>
bek istan</w>
Q i</w>
pe st</w>
Co ok</w>
eksp lisit</w>
vak um</w>
Yuda isme</w>
Mahabhar ata</w>
C amp</w>
F ik
L awang</w>
24 16
Pro sopo
aga wa</w>
Pr aha</w>
00 3</w>
A bo
Z ah
mu danya</w>
An at
ting kah</w>
Si la
tur bin</w>
kad au</w>
engg an</w>
Jen nifer</w>
86 1</w>
gul ungan</w>
coun try</w>
Ze e</w>
Ke ten
peng umpulan</w>
18 40</w>
Ch andra</w>
sta bilan</w>
Ru th</w>
pember sihan</w>
76 2</w>
vic es</w>
syu kur</w>
1 st</w>
se par
meny es
mak alah</w>
sis tor</w>
ly tus</w>
90 3</w>
Wal l</w>
Mem orial</w>
Has yim</w>
Pela jar</w>
S os
c um</w>
d uni
di bidang</w>
per alihan</w>
ker is</w>
Mar cel
Ag ri
Sem i
gam elan</w>
Tan z
mat anya</w>
kebu men</w>
5 15</w>
un ic
mekan is</w>
Ramad han</w>
ti co</w>
pen dahulu</w>
De an</w>
we en</w>
Mon tre
90 4</w>
97 5</w>
kre ati
76 6</w>
Bon to
apo lis</w>
intern ational</w>
K lu
v oli</w>
y um</w>
per ta
man canegara</w>
ag am
Sun ni</w>
Pak u</w>
Samp ang</w>
Mik hail</w>
implemen tasikan</w>
Agen cy</w>
terben tang</w>
rele van</w>
Prosopo cera</w>
A las</w>
D og
R a</w>
S AR
in dra
di tumbu
li ca</w>
le o</w>
tr ad</w>
ep is
Li p
Ci p
abe tes</w>
Moham ed</w>
mena ikkan</w>
ba lisasi</w>
uk o</w>
mar t</w>
97 2</w>
Stan dard</w>
w ungu</w>
di h
ke bahagiaan</w>
to on</w>
member ikannya</w>
9 20
P o</w>
d adu</w>
Be ograd</w>
Kar tini</w>
imp inannya</w>
Mis sion</w>
rin ci</w>
Gab ungan</w>
kemar ahan</w>
c ina</w>
i mun
ar wah</w>
di ban
ang er</w>
Le ip
member lakukan</w>
kur va</w>
waw asan</w>
ko toran</w>
Ser ver</w>
ha el</w>
Fir man</w>
ket sa</w>
H imp
U RL</w>
di tar
si p</w>
bi k
ko ta
re visi</w>
Ke hormatan</w>
Pem e
poli mer</w>
keber anian</w>
96 5</w>
Volks wagen</w>
Exp lor
P ha
T sun
di bang
ang eli
Se sudah</w>
eg er</w>
so u
Ku bu</w>
Ki ri</w>
Pam ekasan</w>
Jos e</w>
Syar iah</w>
Sim bol</w>
Habi tat</w>
bos an</w>
Jem aat</w>
Chil dren</w>
G K
per geseran</w>
mem fasilitasi</w>
Bul l</w>
jah i</w>
PD B</w>
Mün chen</w>
ai os</w>
menc olok</w>
den ce</w>
sam in
99 5</w>
sy n
90 5</w>
bor n</w>
KP K</w>
Vir gin</w>
oso ma</w>
5 11</w>
N it
R awa</w>
U sia</w>
w akan</w>
Ani me</w>
anu merta</w>
Sy am</w>
99 8</w>
pembe li</w>
arke olog</w>
Industri es</w>
Nico las</w>
] .</w>
d un
di lu
pe g
tar io</w>
bo w</w>
dip ad
menun da</w>
integr asikan</w>
I de
T N</w>
se su
ma li
Har old</w>
Pri ma</w>
bili ty</w>
Bala pan</w>
Penye baran</w>
Vis ual</w>
S tadium</w>
p ik
di gi
le sia</w>
ak ti</w>
pen anggalan</w>
su lan</w>
peng khian
fi da</w>
sin y
86 5</w>
Ly on</w>
Gri ff
terit ori</w>
Baw ah</w>
Mer auke</w>
99 6</w>
76 9</w>
86 7</w>
pengem udi</w>
Otto man</w>
' )</w>
L ok
un ta</w>
at inya</w>
ke diri</w>
bersi ap</w>
Kle opatra</w>
liter asi</w>
habili tasi</w>
C las
K l
P ra</w>
j ahan</w>
ber jasa</w>
ber samanya</w>
at t</w>
ul o
99 3</w>
penge bom</w>
cel ana</w>
menghi bur</w>
keing inannya</w>
F ajar</w>
P seu
se velt</w>
ber ju
is u
bi o</w>
Me ga</w>
33 8
Ben cana</w>
98 4</w>
Bad en</w>
jek tif</w>
M ori
li ti</w>
Se dunia</w>
kar is
Jo kowi</w>
ditu liskan</w>
dike tuai</w>
98 7</w>
98 1</w>
Sak ura</w>
meling kar</w>
Kerj asama</w>
Himp unan</w>
5 38</w>
L hok
is s</w>
me trik</w>
Li v
gar ut</w>
Pan dan</w>
Kor ban</w>
99 4</w>
Wil d</w>
97 6</w>
awar ds</w>
W he
o tan</w>
Se an</w>
up e</w>
Me kar</w>
melu kai</w>
kho tbah</w>
Y ong
e sai</w>
p it
ba ling</w>
ber kulit</w>
le bah</w>
ko saan</w>
Ro w
din a
Hi day
dan o</w>
G A</w>
M ama</w>
in ov
me lengkung</w>
hi m
Bo m</w>
Pan embahan</w>
Mi G</w>
Pal ing</w>
curi gai</w>
Cru z</w>
K oridor</w>
T aba
h wa</w>
ko l
ap ati</w>
ten dangan</w>
min e</w>
ge las</w>
kam us</w>
Her ak
Elisa beth</w>
S kan
la ti
mem pro
Si erra</w>
Pas tor</w>
Du ke</w>
komp lek</w>
Ta banan</w>
86 3</w>
bon us</w>
AT A</w>
col span</w>
ter cipta</w>
pu ing</w>
ma ti
aj aib</w>
14 28
Pem bantu</w>
96 6</w>
Pel un
proto tipe</w>
sc ope</w>
Kompon en</w>
B hutan</w>
D arius</w>
d ha</w>
se saat</w>
se banding</w>
ek so
Man faat</w>
00 5</w>
cen ter</w>
86 6</w>
96 2</w>
Simp sons</w>
tz er</w>
hab isan</w>
berda ulat</w>
abad ikan</w>
Be th
Ra j</w>
ren g</w>
Lu ci
00 6</w>
86 8</w>
Lin da</w>
dida mpingi</w>
Gol ongan</w>
peli haraan</w>
G ren
S ton
g erah</w>
ber jenis</w>
per sepsi</w>
ro u
meng ad
sen tuh</w>
99 2</w>
86 2</w>
ela chis
seper tiga</w>
Alum ni</w>
S pin
ke anekaragaman</w>
meng usung</w>
ci kan</w>
18 62</w>
jen isnya</w>
menda pati</w>
sek ian</w>
ib n</w>
sit kom</w>
F uji</w>
J ung
S r
o tik</w>
da o</w>
li ft</w>
ber akting</w>
ter pusat</w>
ter henti</w>
sp in
Lom ba</w>
abstr ak</w>
D u</w>
h aw
k isi</w>
si m</w>
me lun
ay aannya</w>
ram e</w>
Brun o</w>
Avi ation</w>
Hyun dai</w>
Tawar ikh</w>
O ben
te tr
Ar ti</w>
Bi bli
Ko perasi</w>
IP M</w>
agu chi</w>
Belak angan</w>
Kedu taan</w>
Rafa el</w>
ad y</w>
ter simpan</w>
ang sur</w>
su pern
ben tro
Mar x</w>
Bo d
97 7</w>
star t</w>
Proto kol</w>
A gar</w>
C ab
C inc
P O</w>
at wa</w>
hi bri
ci k</w>
10 20
bun dar</w>
48 4
Sus unan</w>
B an</w>
_ _
a q</w>
an ali
meng gem
res or</w>
menem ani</w>
98 3</w>
Day s</w>
direk rut</w>
B uru</w>
h ost</w>
s ci
u ga</w>
am ura</w>
per undang</w>
ke kebalan</w>
ku ar
Se waktu</w>
ma buk</w>
pem angku</w>
kese tiaan</w>
96 8</w>
spesi alisasi</w>
keru cut</w>
elachis us</w>
I beria</w>
S ter
po wer</w>
Pem bangkit</w>
Te or
59 9
dari tas</w>
Bas ilika</w>
Kri tikus</w>
Aristo teles</w>
ar es</w>
de li</w>
he i
Sur in
97 3</w>
siklo pedia</w>
telan jang</w>
Oben berger</w>
di tin
ber s</w>
um nya</w>
pro sesi</w>
57 6
memu askan</w>
Ak ses</w>
mengu tuk</w>
Gur un</w>
C un
en os</w>
mer angkap</w>
Su dar
dis arankan</w>
diper barui</w>
sp in</w>
Mi dd
Kris tiani</w>
120 0</w>
86 9</w>
untu n</w>
Pela tihan</w>
CA F</w>
E isen
S usan</w>
l n</w>
em bri
meny oroti</w>
Th an
menc abut</w>
sat ukan</w>
sek si</w>
ff a</w>
Her mann</w>
97 4</w>
bor g</w>
menger ikan</w>
Nat han</w>
one ura</w>
Stor e</w>
6 40
G lor
W y
meng anjurkan</w>
ch ang</w>
Pen diri</w>
Pem ba
gu er
ditu tupi</w>
Lum ban</w>
mad rasah</w>
. ),</w>
ta at</w>
Ke bon</w>
sis t</w>
tur i</w>
inte sis</w>
gal angan</w>
Bak u</w>
Eng land</w>
Jus tice</w>
Dong gala</w>
dilan carkan</w>
A ri</w>
O H</w>
T atar</w>
c ap</w>
g ogne</w>
u ti
or al</w>
Ch op
bo tani</w>
didi dik</w>
Sa yang</w>
90 6</w>
mene gakkan</w>
memb ina</w>
Luc as</w>
h ra</w>
o di</w>
tr au
pan ik</w>
Pen dekatan</w>
pi h</w>
Co oper</w>
et t</w>
Bud ha</w>
Sil ver</w>
ase tat</w>
dipu ji</w>
Aleksand r</w>
quad ri
Michel le</w>
C é
t ley</w>
ter inya</w>
hu luan</w>
26 16
Al pha</w>
umu skan</w>
Ku e</w>
ton ya</w>
96 7</w>
pengu asaan</w>
sosi alisme</w>
ono mus</w>
saud araan</w>
Thom pson</w>
Gregor y</w>
Roo sevelt</w>
redak si</w>
H S</w>
k oridor</w>
ta ke</w>
ap ic
Ke bebasan</w>
kon ta
dis ing
Yo o</w>
Pres ley</w>
memi kirkan</w>
penyelam atan</w>
T up
W ür
as hi
ali gn</w>
op ang</w>
Gran t</w>
Cal ly
eksperi mental</w>
Nah dlatul</w>
Fuku oka</w>
5 16</w>
la w</w>
il ding</w>
lu ma</w>
ka la
Per ingatan</w>
18 65</w>
Di mulai</w>
Te laga</w>
Sin ode</w>
Yo on</w>
96 9</w>
U ran
i as</w>
Î le</w>
ne um
ik h
Ch en
Mu h
unju kan</w>
lis tik</w>
lun atipula</w>
5 22</w>
P agar</w>
d z
m it</w>
di kasi</w>
me ditasi</w>
tan d
tek stu
sat wa</w>
ji zat</w>
Gun awan</w>
Can ada</w>
B PS</w>
U GM</w>
g umi</w>
se berapa</w>
li ri
ber pakaian</w>
ber alamat</w>
per usah
te au</w>
Se un
12 34
16 00</w>
Kar yanya</w>
Lad ang</w>
Uz bekistan</w>
T me
m g</w>
24 89
gra c
Kom pi</w>
sur ah</w>
Her o</w>
Adi tya</w>
Scien ces</w>
A jaran</w>
D ian</w>
ä r
te tes</w>
angg u</w>
bis nisnya</w>
diper timbangkan</w>
Ne oloph
tor ial</w>
Du blin</w>
mengu tamakan</w>
che v</w>
Ral ph</w>
Neoloph onotus</w>
P ilihan</w>
o ga</w>
er y</w>
at ua</w>
amp il</w>
Ti dore</w>
Kos trad</w>
Wat son</w>
elektro magnetik</w>
E d</w>
I L</w>
I wan</w>
v as</w>
ta la</w>
per on</w>
il ang</w>
Ke ju</w>
par it</w>
Be las</w>
Be lum</w>
Ber g
kh ala
Ari el</w>
let nan</w>
flu ida</w>
Republi c</w>
E X
H aj
me lompat</w>
pen afsiran</w>
22 44
So undtrack</w>
South ern</w>
N ina</w>
o te</w>
ap ung</w>
ati tis</w>
25 56
ver y</w>
mili s</w>
amb an</w>
60 8
97 9</w>
pon sori</w>
memas ok</w>
keli ru</w>
Bum bu</w>
T R
Z an
g s</w>
per ju
33 7
ka hnya</w>
Sem en</w>
Bu leleng</w>
Mak kah</w>
Nis san</w>
Prak tik</w>
penan aman</w>
cou ver</w>
Arm strong</w>
G raham</w>
O se
e g</w>
r un</w>
z al</w>
ka bin</w>
po kan</w>
Pem binaan</w>
cu c
Li m</w>
So ul</w>
Ang lo</w>
Tr ade</w>
Lov ato</w>
ach ne</w>
Hambur g</w>
ekon om</w>
J et</w>
e chus</w>
te ch
pat ogen</w>
23 10
Ben da</w>
damp ingan</w>
keten aran</w>
Pap irus</w>
Aman da</w>
Bundes liga</w>
L amp
m ic
tu s
il li
Mar yland</w>
ac unan</w>
Al bi
Kor in
Kam al</w>
Pur w
af t</w>
dik bud</w>
kelo deon</w>
part ment</w>
Ales sand
menyir atkan</w>
5 32</w>
X X</w>
th us</w>
Si da
Pe tani</w>
Le taknya</w>
So f
oper asian</w>
fe ct</w>
96 3</w>
akus tik</w>
Pemi kiran</w>
4 27
4 25</w>
D M</w>
N S
z an
men aiki</w>
ik mati</w>
dic ari</w>
CO N
kepem impinannya</w>
WH O</w>
5 54
M K</w>
R as</w>
ber nomor</w>
ber komentar</w>
pen dukungnya</w>
de an</w>
Ti ap</w>
ff ic
Pol da</w>
dita k
keben cian</w>
Leip zig</w>
S tro
l eran</w>
pen ekanan</w>
59 7
Con ference</w>
90 8</w>
car anya</w>
menu turkan</w>
prog resif</w>
Princ ess</w>
5 16
5 17</w>
B in</w>
D apat</w>
H eb
L C</w>
P har
as annya</w>
ri r</w>
ole pta</w>
to mat</w>
pem indahan</w>
ker ak</w>
ab so
ud u</w>
Ma uri
He ter
Ac al
com mun
rat es</w>
Bol shevik</w>
memben ci</w>
teor etis</w>
5 36</w>
R ata</w>
S kenario</w>
V a
c ata</w>
o ther</w>
an jang</w>
ber gantian</w>
tar ekat</w>
J el
M BC</w>
T oko</w>
ô ne</w>
bar annya</w>
sela t</w>
Pro ven
sel ing
98 2</w>
nov elis</w>
ine sia</w>
Nic kelodeon</w>
gug at</w>
p aka</w>
le ft</w>
jar akan</w>
os an</w>
ek semp
Man dar</w>
buk anya</w>
sedi men</w>
Fo ur
220 9
Bal samin
217 8
Gad ang</w>
Balsamin aceae</w>
n ée</w>
z amannya</w>
men urutnya</w>
or es</w>
Se o</w>
Su i</w>
96 4</w>
Karang asem</w>
dipen taskan</w>
Rober ts</w>
E din
a fi</w>
j ono</w>
Ki mi</w>
bak tinya</w>
eksp loitasi</w>
obu dur</w>
H arga</w>
h os
s kaya</w>
di mili
be kal</w>
hi ko</w>
12 44
Ani mation</w>
ton i</w>
98 8</w>
sup lai</w>
membi ayai</w>
kep residenan</w>
Administr atif</w>
Habi bie</w>
4 11</w>
j ani</w>
j av
umu s</w>
cer us</w>
Cer e
ondo ng</w>
untu kkan</w>
selam anya</w>
6 10</w>
n ak
or namen</w>
ko efisien</w>
Se t
Se kadau</w>
Pe perangan</w>
kor ea</w>
Ta o</w>
tic ons</w>
Mc Laren</w>
Gel ombang</w>
Clin ton</w>
an akan</w>
ta sik
de tektif</w>
lan taran</w>
Ku lit</w>
Mi mo
lemen ter</w>
Jama ika</w>
N yai</w>
P og
e te</w>
j ara</w>
per kantoran</w>
mer a</w>
ku ala</w>
de klarasi</w>
18 57</w>
Bel la</w>
we i
La buhan</w>
00 8</w>
Fo ur</w>
pengu capan</w>
oni um</w>
Soci al</w>
Lit hu
gir l</w>
suka bumi</w>
menany akan</w>
B ar</w>
G ao</w>
K B</w>
si c</w>
mem publikasikan</w>
ka itannya</w>
um pam
28 20
dis ponsori</w>
Tr enggalek</w>
mende klarasikan</w>
pemas angan</w>
5 21</w>
A in
di fikasi</w>
ter lambat</w>
or ama</w>
tan o</w>
kor por
Bat tle</w>
Hun ter</w>
diag nosis</w>
kenda la</w>
tekn isi</w>
H ili
H ori
O mar</w>
be lang</w>
sa ji</w>
ko koh</w>
15 09
Da iri</w>
os ta
Jum p</w>
membu barkan</w>
Gra y</w>
Cap ital</w>
gene sis</w>
Chin ese</w>
Kasti lia</w>
5 37</w>
E ffen
I do
K o</w>
Z ero</w>
p uri</w>
su han</w>
00 9</w>
120 6
dida yakan</w>
Er win</w>
eksemp lar</w>
ter tinggal</w>
ke kasihnya</w>
pe saing</w>
peng adaan</w>
Bar o</w>
uj ungnya</w>
im balan</w>
97 1</w>
Riz al</w>
kadi paten</w>
5 27</w>
M ata
em b
ni ca</w>
ag enda</w>
As ur
anu gerah</w>
meli mpah</w>
pec ahnya</w>
ty lum</w>
Que ens
nap as</w>
Soph ronica</w>
memperc ayai</w>
seren tak</w>
5 31</w>
B isa</w>
J ust</w>
f le
m angkat</w>
ber aliran</w>
ke esokan</w>
sis ternus</w>
ungk ung</w>
Sing kil</w>
pes ona</w>
Penga kuan</w>
Ade la
fleksi bel</w>
Tanz ania</w>
s p</w>
si pan</w>
ku bik</w>
ka itan</w>
18 66</w>
Be atri
diber i
Gi gi</w>
217 9
Cop ris</w>
cover y</w>
F lu
n in
er ia</w>
ta ge</w>
da ki</w>
Se ven</w>
peng gantian</w>
mp ung</w>
Ban jir</w>
Ro berto</w>
Hu gh</w>
Pri ze</w>
hy n
dokumen tasi</w>
Studi es</w>
keraj aannya</w>
OS IS</w>
penyu trad
abor si</w>
J urn
k t</w>
ar ak</w>
di angkut</w>
ber urutan</w>
ber gengsi</w>
ter umbu</w>
ma e</w>
Ch ung</w>
27 39
Sta ge</w>
Bu da
sing gah</w>
Ed dy</w>
Gal eri</w>
la tion</w>
ber tani</w>
dis aksikan</w>
et ti</w>
tim asi</w>
Hel en
Lis sodendoryx</w>
Situ bondo</w>
5 14</w>
H om
m angsa</w>
ti va</w>
da patkan</w>
mer intis</w>
ala h
13 44
29 39
Li on</w>
So und</w>
mili ternya</w>
48 9
47 0
60 7
pur na</w>
Mac ro
Ari ef</w>
yp hantes</w>
Moham ad</w>
Hus sein</w>
pap aran</w>
6 50
v il</w>
se bentar</w>
lu mat</w>
Ro te</w>
mengh uni</w>
Hi po
Mon ako</w>
Mal inau</w>
na c</w>
angka i</w>
keber angkatan</w>
Mur ray</w>
che on</w>
M ā
i migrasi</w>
k r
per cetakan</w>
lu pa</w>
mu lih</w>
18 15</w>
usah akan</w>
Kong regasi</w>
Rh ap
Asur ansi</w>
2 195
se kumpulan</w>
Se ason</w>
po lar</w>
22 34
gen s</w>
str uc
kap as</w>
rat on</w>
PS N</w>
kand ungnya</w>
6 40</w>
9 33
J ah
ter pasang</w>
tu sannya</w>
ang ko</w>
te gal</w>
mer ata</w>
sa b
pu satnya</w>
Ke lima</w>
po dium</w>
ag ne</w>
Men urutnya</w>
memper tanyakan</w>
UN I
h yang</w>
an u</w>
al bo
ten u
46 9
sek te</w>
Meng enai</w>
Van couver</w>
Alexand ria</w>
Kauk asus</w>
Bav aria</w>
T ong</w>
in duknya</w>
se puh</w>
men ts</w>
ka ian</w>
ka set</w>
Se tia</w>
In dy</w>
Pen e
Ma at
san di</w>
Hil ls</w>
Star s</w>
Beau tiful</w>
pemen tasan</w>
se juk</w>
sa p
me kar</w>
pi j</w>
duk annya</w>
Bin jai</w>
fung sikan</w>
Acal olepta</w>
dimili kinya</w>
5 35</w>
6 18</w>
M o</w>
T ai</w>
j ō</w>
om bo</w>
13 34
Be dagai</w>
co me
Gu illa
et nik</w>
He len</w>
gul ung</w>
Lepto gaster</w>
Hala man</w>
Kanj eng</w>
diaku isisi</w>
I denti
P han
per cepatan</w>
ku li</w>
Se jahtera</w>
Ag u
mili tan</w>
He alth</w>
stan d</w>
penye diaan</w>
menghar apkan</w>
kron is</w>
tab let</w>
amfi bi</w>
Tme sisternus</w>
khala yak</w>
5 34</w>
i tis</w>
ber pangkat</w>
Ko alisi</w>
San to
tis ta</w>
ot ongan</w>
c ilik</w>
e der
o ke</w>
x ing</w>
di abadikan</w>
us u</w>
aw ali</w>
kas ta</w>
Beng kalis</w>
dino saurus</w>
Rud y</w>
tasik malaya</w>
E A</w>
G et</w>
or banan</w>
bo lak</w>
gam i</w>
br ak</w>
Gil bert</w>
Pring sewu</w>
b ble</w>
d ri</w>
t ch
ter bilang</w>
te kan</w>
pe warna</w>
Mo tion</w>
Bi aya</w>
meli hatnya</w>
122 6
anti sipasi</w>
Kur t</w>
Gor yeo</w>
Ai chi</w>
Alli ance</w>
5 33</w>
B I
G I</w>
L P</w>
S é
in is</w>
bu jur</w>
menem pel</w>
dik isahkan</w>
trag edi</w>
Mekan isme</w>
A wan</w>
C S</w>
W ith</w>
b lan
mu syawarah</w>
Par agu
bab we</w>
ven tris</w>
Ed win</w>
e sen
am ba</w>
ke jatuhan</w>
man an</w>
Ka le
str y</w>
tur is</w>
So o</w>
07 2</w>
Kole se</w>
awi rawan</w>
mendis tribusikan</w>
memberitah ukan</w>
Halichon dria</w>
P any
mer ger</w>
ru g
26 26
din ikmati</w>
98 6</w>
param eter</w>
5 23</w>
H ac
M U
s sa</w>
Ke esokan</w>
Mar ía</w>
teta pan</w>
Ne il</w>
vo kat</w>
Ken t</w>
ela wan</w>
Say yid</w>
aktiv asi</w>
Oton omi</w>
5 26</w>
H ik
s yat</w>
is annya</w>
das kan</w>
Mer api</w>
indi kasi</w>
Fin an
Sha ke
5 39</w>
6 30</w>
p ab
q ing</w>
ber balik</w>
23 79
Al bu
bun tu</w>
je jaring</w>
Yun us</w>
Ste fan</w>
menam atkan</w>
kos ongan</w>
kome dian</w>
wuju dan</w>
kesak sian</w>
G ula</w>
j anya</w>
tu i</w>
ung ut</w>
Per son
ai ban</w>
Ber batasan</w>
res pon
resi asi</w>
Ex e
Mac hi
Yam aha</w>
nar asi</w>
cin tanya</w>
A t</w>
u y</w>
ar uddin</w>
kar nasi</w>
15 70
bo i</w>
pre dikat</w>
Won osari</w>
Atlan ta</w>
Boles ław</w>
bik su</w>
4 31</w>
F ari
k sa</w>
o on</w>
t ton</w>
di tentang</w>
ber suara</w>
al ga</w>
il hami</w>
25 90
Bar n
Ser vices</w>
Re ferendum</w>
pri mi
Geor g</w>
Eti opia</w>
S angat</w>
m dpl</w>
o ma
se keliling</w>
ter capai</w>
de ll</w>
Ke hakiman</w>
ker i
[...]
