<unk>	0
<s>	0
</s>	0
,	-3.30899
.	-3.37826
▁dan	-4.1058
▁yang	-4.13312
doc	-4.2154
>	-4.21659
▁<	-4.2166
▁di	-4.34643
"	-4.44637
-	-4.72359
/	-4.79448
▁dari	-4.79871
▁id	-4.90604
▁title	-4.90952
▁url	-4.90972
="?	-4.90974
curid	-4.90974
="	-4.91197
▁ini	-4.9489
▁pada	-5.02153
▁"	-5.02705
▁adalah	-5.09713
▁dengan	-5.10412
▁(	-5.21167
▁untuk	-5.30228
▁dalam	-5.34926
nya	-5.51577
▁tahun	-5.51959
▁	-5.54531
▁oleh	-5.63127
▁ke	-5.67087
▁sebagai	-5.73121
)	-5.76167
▁juga	-5.866
an	-5.89301
▁merupakan	-5.93082
s	-6.00915
▁menjadi	-6.07816
▁atau	-6.18871
▁tidak	-6.21414
▁tersebut	-6.26611
▁Pada	-6.29798
▁sebuah	-6.30852
▁itu	-6.333
▁bagian	-6.34852
:	-6.39039
i	-6.45402
▁Indonesia	-6.47004
▁dapat	-6.48931
▁ia	-6.50448
▁satu	-6.51711
a	-6.52507
▁memiliki	-6.53818
▁mereka	-6.56303
▁telah	-6.57416
▁bahwa	-6.66453
▁spesies	-6.69758
▁pertama	-6.72554
;	-6.74002
e	-6.74083
▁lebih	-6.74974
▁seorang	-6.75814
▁orang	-6.7699
▁karena	-6.83036
".	-6.86783
▁akan	-6.87675
▁Ia	-6.88895
▁seperti	-6.89732
kan	-6.9147
▁secara	-6.94144
▁besar	-6.9523
▁kota	-7.02089
o	-7.02136
▁ada	-7.023
▁Di	-7.02388
▁lain	-7.02655
▁kemudian	-7.02773
▁saat	-7.05095
).	-7.05671
▁beberapa	-7.06503
▁salah	-7.09116
▁film	-7.09929
),	-7.11755
'	-7.13692
▁kayu	-7.14607
▁antara	-7.15747
▁banyak	-7.18562
▁setelah	-7.19779
▁kali	-7.20326
▁dua	-7.21623
▁Amerika	-7.22283
▁Spesies	-7.22385
▁ordo	-7.22511
t	-7.23109
▁tanggal	-7.23871
▁wilayah	-7.25277
▁A	-7.25749
▁genus	-7.26091
▁para	-7.27862
▁1	-7.28162
▁kelas	-7.28185
▁famili	-7.28276
▁nama	-7.28944
▁negara	-7.29708
▁tetapi	-7.29945
▁atas	-7.3157
▁desa	-7.31671
▁biasanya	-7.3189
n	-7.33691
▁hingga	-7.3438
▁bahasa	-7.34814
▁tergolong	-7.36366
▁kepada	-7.36574
▁yaitu	-7.38034
▁Kabupaten	-7.4007
▁I	-7.40414
k	-7.42178
▁digunakan	-7.42519
▁of	-7.42686
▁2	-7.44763
▁S	-7.45736
▁serta	-7.46135
▁terletak	-7.46199
▁sendiri	-7.4685
▁hanya	-7.48227
▁baru	-7.50091
▁tempat	-7.50647
y	-7.50774
▁dia	-7.50916
▁lainnya	-7.52068
▁()	-7.52339
▁sampai	-7.52383
▁Dalam	-7.52956
▁kumbang	-7.53484
us	-7.54074
▁hidup	-7.5503
",	-7.55124
▁dikenal	-7.55179
▁selama	-7.55357
▁asteroid	-7.55675
▁sangat	-7.5569
d	-7.56138
▁Jepang	-7.56244
▁masa	-7.57538
▁kembali	-7.57598
▁menggunakan	-7.57642
▁berada	-7.5789
▁sama	-7.58007
▁ber	-7.59671
▁3	-7.59782
▁sekitar	-7.59836
▁Serikat	-7.59932
A	-7.60023
▁Selatan	-7.60345
▁Timur	-7.61063
▁Barat	-7.62052
▁anggota	-7.62596
▁dunia	-7.63187
▁filum	-7.63224
▁Animalia	-7.63734
▁disebut	-7.64243
▁kingdom	-7.64617
▁anak	-7.65781
▁bulan	-7.65827
▁Jawa	-7.65859
▁kedua	-7.65925
▁mulai	-7.66054
er	-7.662
ta	-7.67292
m	-7.67622
▁Arthropoda	-7.67935
▁Insecta	-7.68068
▁berasal	-7.68492
▁bersama	-7.69078
di	-7.69246
▁Kota	-7.69733
▁Dia	-7.70141
▁Desa	-7.70923
in	-7.71517
▁Setelah	-7.71692
▁daerah	-7.72074
2	-7.72158
h	-7.72164
▁kecamatan	-7.72303
▁melalui	-7.72686
na	-7.73018
u	-7.73676
▁masih	-7.73835
▁hari	-7.73938
is	-7.74094
▁Film	-7.74377
▁lagu	-7.74438
▁Utara	-7.74632
▁termasuk	-7.7479
S	-7.75049
▁membuat	-7.75241
▁utama	-7.76143
▁terhadap	-7.76472
▁M	-7.76547
▁Negeri	-7.76633
▁ketika	-7.76789
▁sehingga	-7.7721
▁Inggris	-7.77705
▁sejak	-7.77793
▁Nama	-7.78345
▁the	-7.7947
▁panjang	-7.79923
▁pernah	-7.80612
▁tentang	-7.81264
▁bisa	-7.81803
▁waktu	-7.82991
▁bawah	-7.83178
▁awal	-7.83933
r	-7.84235
▁menyebabkan	-7.84321
▁4	-7.84398
▁air	-7.84496
▁bagi	-7.84822
▁berbagai	-7.85198
al	-7.85515
▁tiga	-7.86824
)"	-7.869
▁sudah	-7.8856
b	-7.88667
▁de	-7.89232
▁diterbitkan	-7.89571
▁-	-7.902
▁masyarakat	-7.90615
en	-7.90847
l	-7.91178
▁B	-7.91638
1	-7.91734
▁tinggi	-7.92096
▁rumah	-7.92453
▁terdapat	-7.92649
▁Namun	-7.92694
▁terjadi	-7.92701
▁suatu	-7.92724
▁terdiri	-7.92757
▁("	-7.94989
da	-7.94993
▁penduduk	-7.95005
on	-7.95199
▁paling	-7.95514
ka	-7.95871
▁Lalat	-7.96018
▁E	-7.96542
▁Al	-7.96543
ing	-7.96687
▁melakukan	-7.96932
▁5	-7.97194
▁mana	-7.97391
▁musim	-7.98285
C	-7.98335
si	-7.98761
▁kecil	-7.99008
de	-7.99104
▁The	-7.99354
")	-8.00022
▁Selain	-8.00334
▁ilmiah	-8.00472
to	-8.011
▁&	-8.01143
▁baik	-8.0141
▁Jerman	-8.01465
▁perusahaan	-8.01479
▁Kecamatan	-8.0149
▁sistem	-8.01991
▁umum	-8.02674
▁semua	-8.03102
▁musik	-8.03136
▁sementara	-8.03778
▁dilakukan	-8.04217
ra	-8.04288
▁abad	-8.04444
la	-8.05479
▁Prancis	-8.05685
▁Provinsi	-8.06088
▁asal	-8.06104
▁album	-8.06308
▁II	-8.06328
▁Belanda	-8.07322
The	-8.07397
▁harus	-8.07488
▁bola	-8.07558
▁hal	-8.07624
man	-8.07704
▁O	-8.07827
▁bernama	-8.07854
▁luar	-8.07966
▁10	-8.08316
▁diri	-8.08697
sa	-8.09013
▁Tengah	-8.09125
te	-8.09247
▁K	-8.09302
▁seluruh	-8.09968
ma	-8.10246
▁sering	-8.10392
▁jumlah	-8.10504
g	-8.10627
▁a	-8.10877
▁tim	-8.10908
▁sebesar	-8.11001
p	-8.11333
▁Eropa	-8.11488
▁sebelum	-8.11631
B	-8.1226
▁6	-8.12765
amp	-8.13458
no	-8.13507
es	-8.13736
c	-8.14796
▁akhir	-8.14997
▁pemain	-8.15271
▁F	-8.15808
▁berhasil	-8.15936
▁lagi	-8.17111
▁barat	-8.17121
▁H	-8.17201
ku	-8.17397
le	-8.18297
▁setiap	-8.18585
▁C	-8.18703
▁cukup	-8.1877
▁15	-8.18963
▁batang	-8.19482
▁and	-8.19769
▁Ke	-8.20335
▁D	-8.20409
ke	-8.20656
f	-8.20677
▁utara	-8.20886
▁bermain	-8.21081
▁akhirnya	-8.21235
▁karya	-8.21373
▁U	-8.21532
&	-8.21961
▁laut	-8.22129
▁sekolah	-8.22372
▁kerusakan	-8.22422
P	-8.22711
3	-8.22915
▁Universitas	-8.23103
▁Larva	-8.23559
▁Coleoptera	-8.23749
▁sebagian	-8.2381
ya	-8.23925
▁T	-8.2427
▁dirilis	-8.24369
▁bentuk	-8.245
se	-8.25103
▁Jakarta	-8.25232
▁memberikan	-8.25448
▁7	-8.25497
▁manusia	-8.25886
▁Tiongkok	-8.26101
at	-8.26268
▁16	-8.26272
▁tak	-8.26345
▁Raja	-8.26418
▁sebelumnya	-8.26784
▁provinsi	-8.26812
▁selatan	-8.26881
▁G	-8.26909
ar	-8.26983
▁per	-8.27108
▁matahari	-8.27116
▁jiwa	-8.2718
▁umumnya	-8.27305
▁12	-8.27437
▁Mei	-8.27604
lt	-8.27634
▁Perang	-8.28187
z	-8.28239
▁Dunia	-8.28388
▁Islam	-8.28448
▁tanah	-8.28636
▁P	-8.28755
▁8	-8.28759
D	-8.29136
▁namun	-8.29163
▁sepak	-8.29271
G	-8.29661
▁keluarga	-8.29729
▁pun	-8.29766
▁timur	-8.29811
li	-8.30186
▁luas	-8.30326
▁India	-8.30499
▁dekat	-8.30736
▁17	-8.30749
▁in	-8.30879
re	-8.30934
me	-8.30972
T	-8.31007
▁jenis	-8.31114
▁pemerintah	-8.3128
ia	-8.31385
M	-8.31444
▁ditemukan	-8.3149
lah	-8.31813
▁se	-8.32009
▁pendidikan	-8.32117
K	-8.32182
ri	-8.32294
▁km	-8.33145
ko	-8.33326
▁tanduk	-8.33386
ti	-8.33425
▁muda	-8.3372
▁Oktober	-8.33732
▁masuk	-8.33748
▁kapal	-8.33916
▁kata	-8.342
▁Desember	-8.34482
▁proses	-8.34526
▁Maret	-8.34566
▁Juli	-8.34572
▁tetap	-8.34794
▁pemerintahan	-8.35095
I	-8.35661
▁September	-8.35674
▁bidang	-8.35755
ne	-8.35872
▁ditebang	-8.35899
▁April	-8.36393
▁Cerambycidae	-8.36442
▁mengebor	-8.36445
▁Agustus	-8.366
▁Se	-8.36671
▁bekerja	-8.369
▁lalu	-8.37059
▁mempunyai	-8.37151
F	-8.3725
▁acara	-8.37313
▁Januari	-8.37718
▁Nasional	-8.3773
▁maka	-8.37768
H	-8.37978
▁Korea	-8.38141
▁al	-8.38401
▁lahir	-8.385
▁resmi	-8.38529
▁tumbuhan	-8.38781
▁sekarang	-8.38902
▁ter	-8.38916
▁empat	-8.39047
▁pasukan	-8.3907
▁Juni	-8.39356
▁9	-8.39403
▁–	-8.3949
▁Republik	-8.39572
▁berbeda	-8.3971
▁berdasarkan	-8.39926
▁nasional	-8.39989
E	-8.4007
▁mendapatkan	-8.40123
ah	-8.40392
▁kelompok	-8.40414
▁perang	-8.41496
▁Sejarah	-8.41504
▁Mereka	-8.4163
▁Beberapa	-8.41849
▁mencapai	-8.42099
ang	-8.42172
▁maupun	-8.42174
▁politik	-8.42855
▁api	-8.42926
▁berubah	-8.43117
orang	-8.43172
▁La	-8.43324
▁lalat	-8.43341
ni	-8.4355
▁Hal	-8.43768
gt	-8.43864
▁terakhir	-8.44233
▁terkenal	-8.44275
▁Seperti	-8.44366
▁sejarah	-8.4447
▁tinggal	-8.44501
go	-8.44627
▁kereta	-8.44866
▁11	-8.44939
▁menyatakan	-8.45008
▁pesawat	-8.45032
▁pusat	-8.45118
▁20	-8.45345
um	-8.45397
ter	-8.45547
▁November	-8.45586
O	-8.45988
▁R	-8.46218
▁dianggap	-8.46381
▁hasil	-8.46552
▁agama	-8.46807
▁14	-8.47047
▁Dengan	-8.47098
▁dibuat	-8.47121
▁nebula	-8.47289
▁langsung	-8.48146
▁Aceh	-8.48259
4	-8.48417
▁menjabat	-8.48543
ga	-8.48944
▁Pulau	-8.49104
▁suku	-8.49798
▁tanpa	-8.49807
▁Daftar	-8.50293
▁meninggal	-8.50493
ed	-8.50586
▁juta	-8.50801
▁muncul	-8.50989
▁raja	-8.51246
▁Tahun	-8.51291
ik	-8.51674
▁Sungai	-8.51708
el	-8.52039
▁gelar	-8.52116
▁J	-8.52142
ba	-8.52171
▁lama	-8.52395
mi	-8.52408
▁jalan	-8.52423
▁13	-8.52433
▁negeri	-8.52566
▁Dewan	-8.5258
▁Menurut	-8.52797
x	-8.52903
▁'	-8.52964
▁Si	-8.53006
▁Diptera	-8.531
▁mengenai	-8.53675
ro	-8.54017
▁penting	-8.54078
▁V	-8.54138
▁suara	-8.54242
▁agar	-8.54263
▁Presiden	-8.54799
▁udara	-8.54903
▁Februari	-8.5503
▁sedang	-8.55575
▁televisi	-8.55609
▁Menteri	-8.55802
▁Italia	-8.55937
do	-8.56138
▁klub	-8.563
▁ibu	-8.56411
et	-8.5682
▁didirikan	-8.57192
▁wanita	-8.57519
▁Saat	-8.57561
▁buku	-8.57604
–	-8.57638
▁Ka	-8.57675
▁melawan	-8.5785
▁hukum	-8.58171
▁No	-8.58317
▁militer	-8.58889
▁Asia	-8.5891
▁Stasiun	-8.58929
▁Para	-8.5898
▁Gereja	-8.59004
▁mungkin	-8.59066
▁mengalami	-8.59143
ja	-8.59854
pa	-8.59931
▁Untuk	-8.60207
▁menerima	-8.60245
ge	-8.60315
▁Raya	-8.60589
ca	-8.60746
▁tingkat	-8.60987
▁jalur	-8.60988
▁tengah	-8.60994
▁posisi	-8.61014
film	-8.61212
▁program	-8.62012
▁jika	-8.62381
▁grup	-8.62401
▁menunjukkan	-8.62852
▁ketiga	-8.62946
▁cara	-8.63292
▁perempuan	-8.63328
th	-8.63415
▁Rusia	-8.63436
▁pulau	-8.63456
▁bergabung	-8.63815
▁planet	-8.63828
▁N	-8.63931
▁terbesar	-8.64006
▁Kerajaan	-8.64182
▁saja	-8.64428
▁s	-8.64539
▁sejumlah	-8.6474
▁putra	-8.64768
▁ditulis	-8.65035
ji	-8.6513
▁De	-8.65312
▁New	-8.65319
▁Baru	-8.65466
▁Partai	-8.65808
▁orbit	-8.65819
▁periode	-8.65895
ton	-8.66341
R	-8.66553
▁bahan	-8.66651
▁internasional	-8.66741
▁kepala	-8.67133
▁batu	-8.6727
N	-8.67504
▁stasiun	-8.6778
▁terutama	-8.68182
▁berarti	-8.68199
▁bumi	-8.68691
▁dimulai	-8.68902
ch	-8.68973
ur	-8.6921
▁mengambil	-8.69794
▁tercatat	-8.7012
▁lima	-8.70192
▁Agung	-8.70401
▁sebelah	-8.70439
laba	-8.7045
▁kurang	-8.70581
▁membentuk	-8.70612
▁dibangun	-8.70784
ha	-8.70893
▁sumber	-8.71029
j	-8.71096
or	-8.71098
▁berikut	-8.71114
▁Ma	-8.71214
ung	-8.71308
▁Kristen	-8.71663
5	-8.71905
▁Sekolah	-8.71908
▁terbentuk	-8.72016
per	-8.72039
J	-8.72079
yang	-8.72149
▁yakni	-8.72153
ber	-8.72184
▁m	-8.72298
▁L	-8.72789
wa	-8.72857
▁memenangkan	-8.72886
▁ekonomi	-8.72898
▁hubungan	-8.72918
ki	-8.7316
▁biasa	-8.7324
▁Angkatan	-8.73283
il	-8.73449
▁sosial	-8.73481
▁Ber	-8.73557
▁Li	-8.73571
mo	-8.73669
▁sungai	-8.7367
▁Ini	-8.73759
▁makanan	-8.73843
▁pula	-8.73855
U	-8.74158
▁memulai	-8.74174
▁mendapat	-8.74482
gi	-8.74512
▁30	-8.74512
▁khusus	-8.74527
7	-8.74575
▁Negara	-8.74638
▁Sumatra	-8.74898
6	-8.75051
▁Laut	-8.7512
▁menemukan	-8.75344
▁Re	-8.75529
▁permukaan	-8.75657
▁Karena	-8.75954
▁menulis	-8.76013
▁terus	-8.76194
▁tubuh	-8.76293
▁SM	-8.76334
▁Bahasa	-8.76359
▁Me	-8.76458
▁Ketika	-8.76524
▁to	-8.76578
▁belum	-8.76697
▁W	-8.76887
▁sesuatu	-8.76999
▁kerajaan	-8.77031
it	-8.77112
os	-8.77144
ng	-8.77229
▁Katolik	-8.77246
▁Piala	-8.77441
▁Sebagai	-8.77883
▁menghasilkan	-8.78075
pe	-8.78088
▁Udara	-8.78111
▁sebanyak	-8.78186
w	-8.78211
▁Sa	-8.78216
▁budaya	-8.78285
ak	-8.78395
▁kawasan	-8.78593
▁2011	-8.78824
▁sedangkan	-8.78946
masing	-8.78956
son	-8.79061
▁Ha	-8.79107
▁jauh	-8.79175
W	-8.79234
▁berjudul	-8.79311
▁produksi	-8.79486
▁“	-8.79552
▁Arab	-8.79559
▁bukan	-8.7963
▁pertandingan	-8.79746
ry	-8.79857
▁versi	-8.80105
▁Yunani	-8.80195
▁dasar	-8.80257
▁Britania	-8.80444
▁Dari	-8.80558
▁diberikan	-8.80669
▁18	-8.80913
▁bin	-8.81042
bo	-8.81347
ce	-8.81481
▁pihak	-8.81549
▁organisasi	-8.8184
▁tokoh	-8.81959
▁belakang	-8.82124
sari	-8.82205
▁warga	-8.82631
▁Su	-8.82713
▁Ko	-8.8272
asi	-8.82848
▁penghargaan	-8.83224
L	-8.834
▁Le	-8.83474
8	-8.83715
▁[[	-8.83771
▁Daerah	-8.83908
as	-8.84015
▁Uni	-8.8415
▁bangunan	-8.8421
v	-8.84214
▁)	-8.84311
▁masing	-8.84397
▁bintang	-8.84475
un	-8.84885
▁re	-8.85132
▁peran	-8.85268
▁menurut	-8.85375
▁bahkan	-8.85496
▁kehidupan	-8.85513
co	-8.85677
▁penulis	-8.85878
▁mengikuti	-8.86382
▁zaman	-8.86605
▁mengatakan	-8.86613
▁jaringan	-8.86688
▁menuju	-8.86739
▁dirinya	-8.8679
▁Dan	-8.86821
▁sepanjang	-8.87098
▁Pendidikan	-8.87135
▁mampu	-8.87463
tan	-8.87518
▁Meskipun	-8.87651
▁kegiatan	-8.87828
▁awalnya	-8.88128
▁membantu	-8.88196
▁Gunung	-8.88351
▁dimana	-8.88433
▁bangsa	-8.88521
▁2010	-8.88784
▁alam	-8.88844
men	-8.89076
▁keseluruhan	-8.89316
▁industri	-8.89327
▁meraih	-8.89614
ul	-8.89624
▁tertentu	-8.89722
▁Terbaik	-8.89856
▁Australia	-8.89869
▁Pa	-8.9005
id	-8.90239
▁meskipun	-8.90417
▁Kemudian	-8.90495
▁mesin	-8.90676
lo	-8.90968
▁SD	-8.90969
▁berupa	-8.91152
▁Internasional	-8.91153
▁hak	-8.91188
ly	-8.91237
▁Per	-8.91266
V	-8.91323
▁membawa	-8.91361
▁Ba	-8.91449
▁25	-8.9155
▁Lagu	-8.9174
▁Ci	-8.91743
▁depan	-8.91761
▁meliputi	-8.92006
▁Spanyol	-8.92044
▁kerja	-8.9206
be	-8.92522
ir	-8.92544
▁sesuai	-8.92877
▁Pe	-8.92929
▁si	-8.93118
▁19	-8.93233
▁San	-8.9328
Daftar	-8.93312
mu	-8.93511
▁usia	-8.93557
▁Liga	-8.93602
▁ruang	-8.93642
▁masalah	-8.93679
▁Karier	-8.944
▁cerita	-8.94416
▁Afrika	-8.94495
▁melihat	-8.94587
▁Sejak	-8.94657
▁2008	-8.94809
anak	-8.94966
▁hampir	-8.95028
▁24	-8.95205
▁meter	-8.95234
▁akibat	-8.95423
va	-8.95456
▁21	-8.95466
▁daya	-8.95516
▁adanya	-8.95521
▁John	-8.95568
▁ilmu	-8.95618
▁mata	-8.95656
▁datang	-8.95708
▁video	-8.96212
▁rendah	-8.96271
’	-8.96415
▁2009	-8.96614
▁pe	-8.96821
▁pemimpin	-8.96872
▁Na	-8.97138
▁keras	-8.97184
▁tampil	-8.97234
▁daftar	-8.97347
▁TV	-8.97443
▁Kepulauan	-8.97595
▁seni	-8.97797
▁Kepala	-8.97846
▁sisi	-8.97903
▁SMA	-8.97933
▁modern	-8.97936
▁ingin	-8.98108
▁data	-8.98138
tu	-8.98177
▁serangan	-8.98247
ru	-8.98379
▁pertamanya	-8.9839
▁Ada	-8.98434
▁drama	-8.98469
▁sedikit	-8.98529
▁demikian	-8.98754
▁media	-8.98854
▁seri	-8.98867
▁Besar	-8.98921
▁formula	-8.99058
▁diketahui	-8.99065
tik	-8.99069
▁putri	-8.99078
▁daripada	-8.99161
▁mendirikan	-8.99367
9	-8.99426
▁penyanyi	-8.9951
▁Air	-8.99544
negara	-8.99715
▁Bo	-8.99753
▁Bangsa	-8.99956
lu	-9.00121
▁Sementara	-9.00137
▁ditemui	-9.00305
▁asli	-9.00516
▁perubahan	-9.00583
▁Man	-9.006
▁Kalimantan	-9.00697
▁Roma	-9.00735
▁Mo	-9.00955
▁serial	-9.00961
▁semakin	-9.01029
▁istilah	-9.01173
▁Selama	-9.01451
▁Malaysia	-9.01457
▁selalu	-9.01488
▁permainan	-9.01508
isme	-9.01528
▁menampilkan	-9.01571
▁22	-9.01658
▁berkembang	-9.01696
▁diberi	-9.01724
▁Allah	-9.01779
laki	-9.01895
▁buah	-9.02007
st	-9.02016
▁jam	-9.0207
lan	-9.02126
▁sel	-9.02319
▁Ar	-9.02344
jo	-9.02365
▁Bandung	-9.02503
▁2012	-9.02523
▁milik	-9.02676
bi	-9.02719
▁Soviet	-9.02735
-19	-9.03023
▁Da	-9.03357
du	-9.03559
▁tentara	-9.03687
▁Pembentukan	-9.03687
▁So	-9.03717
ut	-9.03856
▁me	-9.03928
▁Ki	-9.03946
am	-9.04368
▁lingkungan	-9.04373
▁diadakan	-9.04393
▁hutan	-9.04755
▁Go	-9.04757
▁magnitudo	-9.04793
han	-9.04801
▁AS	-9.04818
▁Bandar	-9.04824
▁berlangsung	-9.0489
▁e	-9.04928
▁nilai	-9.04936
▁23	-9.05156
▁tua	-9.05221
▁mobil	-9.05395
▁Penghargaan	-9.05523
▁Israel	-9.05611
▁surat	-9.05791
▁tangan	-9.05826
▁menikah	-9.06003
▁III	-9.06074
]]	-9.06204
▁kekuasaan	-9.06256
▁Tim	-9.06484
der	-9.06702
▁berikutnya	-9.06784
wan	-9.06904
▁Sulawesi	-9.06992
▁belajar	-9.07049
so	-9.07099
▁laki	-9.0741
▁Sultan	-9.07677
▁mendukung	-9.07681
▁kuat	-9.07764
▁Romawi	-9.07845
▁tujuan	-9.07857
▁cepat	-9.07864
▁X	-9.07893
▁Jalan	-9.07991
▁mantan	-9.08205
▁enam	-9.08216
▁produk	-9.0824
▁pendek	-9.08342
▁partai	-9.08397
▁Jalur	-9.08436
ek	-9.08651
▁apa	-9.08696
ok	-9.08765
▁kekuatan	-9.08788
”	-9.08856
▁pembangunan	-9.08869
▁2013	-9.08922
▁pecahan	-9.09062
2.	-9.09113
▁meninggalkan	-9.09114
▁In	-9.09133
▁keturunan	-9.09244
▁kabupaten	-9.09299
▁disutradarai	-9.09366
▁tradisional	-9.09387
rata	-9.09491
▁memilih	-9.09527
▁lokal	-9.09807
▁Eksentrisitas	-9.10019
▁mutlaknya	-9.1002
su	-9.10113
▁kelurahan	-9.10116
dan	-9.10236
▁kita	-9.10401
▁diproduksi	-9.1044
▁memutuskan	-9.10505
yo	-9.10535
▁perjalanan	-9.10684
▁An	-9.10709
ad	-9.109
ong	-9.11102
▁kematian	-9.11183
▁aktif	-9.11337
sh	-9.11378
wi	-9.11425
▁kasus	-9.11478
ck	-9.1156
▁kini	-9.11566
▁York	-9.11694
▁informasi	-9.11721
▁arah	-9.11976
▁model	-9.12066
ling	-9.12254
tor	-9.12321
▁gaya	-9.12348
▁Pemerintah	-9.12387
▁d	-9.12463
▁Ku	-9.12463
▁terpilih	-9.12528
▁Ketua	-9.12681
▁dipimpin	-9.12782
▁alat	-9.12784
chi	-9.1279
▁Ra	-9.12842
ensis	-9.13012
▁nomor	-9.13072
▁(19	-9.13088
▁band	-9.13132
▁Ta	-9.13149
▁pantai	-9.13327
="18	-9.13362
▁Tenggara	-9.13376
▁Secara	-9.13799
▁putih	-9.13808
▁Muhammad	-9.1382
▁Rakyat	-9.13923
▁membangun	-9.13959
▁Be	-9.14569
▁penerbangan	-9.14709
▁berakhir	-9.14887
▁pribadi	-9.14934
br	-9.14959
▁kaki	-9.15059
▁2007	-9.15174
▁pemilihan	-9.15181
▁Yang	-9.15317
▁penggunaan	-9.15318
▁Berikut	-9.15502
▁karakter	-9.15533
▁pindah	-9.15543
bu	-9.15554
=18	-9.15639
▁pergi	-9.15797
▁PT	-9.15824
▁Asteroid	-9.15994
▁Mesir	-9.16002
▁Yahudi	-9.16091
▁Pangeran	-9.16191
X	-9.16374
▁Bu	-9.16429
▁malam	-9.16497
▁Mar	-9.16579
▁populasi	-9.16592
▁primordial	-9.16661
▁Kaisar	-9.167
▁karier	-9.16823
▁meng	-9.16849
▁warna	-9.16996
land	-9.17096
(	-9.1728
▁sempat	-9.17449
▁sa	-9.17722
sen	-9.17789
▁pasar	-9.17811
▁Album	-9.1786
▁planetisimal	-9.17871
▁Lo	-9.17922
▁Wilayah	-9.17956
▁26	-9.17972
▁sekali	-9.18075
▁teknologi	-9.18143
▁keluar	-9.18276
▁utamanya	-9.18303
▁Pusat	-9.18322
▁episode	-9.18363
▁Co	-9.18427
▁tertinggi	-9.18454
tra	-9.18547
▁Sebuah	-9.1863
▁Ni	-9.1865
▁memberi	-9.18696
▁sakit	-9.18705
au	-9.18759
▁To	-9.18998
▁2006	-9.19075
▁terbaik	-9.19079
▁populer	-9.19097
ten	-9.19132
▁kondisi	-9.19302
▁uang	-9.1948
▁sub	-9.1957
▁for	-9.19601
▁operasi	-9.19605
▁distrik	-9.19714
▁gereja	-9.19724
▁dipakai	-9.19822
▁memperoleh	-9.19861
▁rakyat	-9.20032
▁penyakit	-9.20033
▁non	-9.20089
▁sang	-9.20102
▁la	-9.20115
ol	-9.20223
▁no	-9.20259
Y	-9.20335
den	-9.20412
▁mencari	-9.20762
▁ikut	-9.20892
pi	-9.20964
▁Awards	-9.20998
é	-9.21029
▁Te	-9.21197
▁berdiri	-9.21336
▁27	-9.21443
lin	-9.21546
▁presiden	-9.22186
▁ialah	-9.22542
▁Jenderal	-9.22598
▁spons	-9.23021
▁lokasi	-9.23024
SD	-9.23115
gen	-9.23125
▁ahli	-9.23169
▁berwarna	-9.23325
▁100	-9.23367
▁28	-9.23523
▁St	-9.23546
▁ulang	-9.23592
▁hewan	-9.23804
▁bertemu	-9.23927
isasi	-9.23989
▁Tinggi	-9.23998
ci	-9.24085
▁total	-9.24089
▁Bumi	-9.24097
▁men	-9.24177
▁panas	-9.24189
▁berisi	-9.24232
▁titik	-9.24235
▁situs	-9.24265
▁Dr	-9.24301
▁mencakup	-9.24444
▁Kekaisaran	-9.24584
uk	-9.24675
▁ayahnya	-9.24755
▁jabatan	-9.24852
za	-9.24868
▁Keuskupan	-9.25008
▁garis	-9.25233
▁tangga	-9.25268
▁layanan	-9.25411
▁Kehidupan	-9.2542
▁listrik	-9.25539
▁Ne	-9.26045
▁Ter	-9.26053
").	-9.261
san	-9.2614
▁Ro	-9.26219
▁ikan	-9.2652
▁merah	-9.26543
▁sana	-9.26698
▁berat	-9.26928
▁jarak	-9.27067
mer	-9.27226
▁sekaligus	-9.27363
▁mati	-9.27409
mar	-9.27414
▁meningkatkan	-9.27471
▁meminta	-9.2761
▁2014	-9.27686
▁Padang	-9.27818
▁senjata	-9.27852
▁Salah	-9.27896
▁Bali	-9.27914
"),	-9.27921
gan	-9.27971
▁usaha	-9.28004
▁dibentuk	-9.28132
▁gerakan	-9.28216
tus	-9.28247
▁2016	-9.28276
▁penuh	-9.28289
La	-9.28366
eng	-9.28416
▁As	-9.2845
▁2005	-9.28638
▁pertanian	-9.2868
▁Kedua	-9.28691
▁Ri	-9.28926
pan	-9.28929
▁Orang	-9.28952
▁terkait	-9.29214
gu	-9.29297
▁Lu	-9.29327
▁diangkat	-9.29391
▁teori	-9.29426
▁kuno	-9.29473
▁menarik	-9.2971
▁Tidak	-9.29818
▁mudah	-9.2987
▁unit	-9.30008
▁antaranya	-9.30019
▁tanaman	-9.30064
ve	-9.30248
▁kaum	-9.30297
ger	-9.30359
▁fungsi	-9.30378
ran	-9.3043
▁b	-9.30584
▁i	-9.31158
▁Mu	-9.31343
vi	-9.31566
ju	-9.31602
▁pengembangan	-9.31656
▁peringkat	-9.3173
▁keadaan	-9.31812
▁El	-9.31846
▁penelitian	-9.3209
▁mengumumkan	-9.32129
▁pria	-9.32175
Bangsa	-9.32215
▁babak	-9.32334
▁Han	-9.32489
▁bantuan	-9.32497
min	-9.32648
▁Yu	-9.3279
▁menggantikan	-9.33098
▁Dua	-9.33126
▁hitam	-9.3316
▁bunga	-9.33213
▁Alkitab	-9.33354
▁2000	-9.33456
satunya	-9.33463
Z	-9.33532
hi	-9.33763
▁Musim	-9.33801
▁rata	-9.34081
▁begitu	-9.34109
▁mengembangkan	-9.34239
▁merilis	-9.34486
▁2004	-9.34566
ner	-9.34578
▁perkembangan	-9.34582
▁terlihat	-9.34604
▁London	-9.34699
▁proyek	-9.34755
Se	-9.34786
]	-9.34871
▁jatuh	-9.35036
▁laba	-9.35072
▁bisnis	-9.35151
▁ka	-9.35153
▁metode	-9.35252
▁Yogyakarta	-9.35309
fa	-9.35351
▁mengalahkan	-9.35356
▁29	-9.35358
▁kesehatan	-9.35371
▁Pertempuran	-9.35378
itas	-9.35406
▁keduanya	-9.35491
▁be	-9.35669
▁rasa	-9.35715
▁Jaya	-9.35733
▁kemampuan	-9.35747
▁pa	-9.35809
▁peristiwa	-9.35842
▁Ti	-9.36012
bahasa	-9.36034
ting	-9.36035
▁tugas	-9.36037
▁memungkinkan	-9.36076
▁pertempuran	-9.36084
▁Perjanjian	-9.36107
ai	-9.36176
▁diambil	-9.36209
kar	-9.36244
▁novel	-9.36369
▁City	-9.36409
▁saudara	-9.36452
▁Ga	-9.36638
im	-9.36803
▁Olimpiade	-9.36815
▁dewasa	-9.36831
ina	-9.36867
ver	-9.36873
▁2015	-9.36936
hari	-9.37125
▁dibintangi	-9.37151
▁Ho	-9.37184
▁struktur	-9.37318
po	-9.37378
▁khas	-9.37415
▁Perserikatan	-9.37562
▁Ja	-9.3775
▁melanjutkan	-9.37815
Ka	-9.37816
▁tunggal	-9.37989
▁Men	-9.38016
=	-9.38149
▁anti	-9.38153
Ke	-9.38166
▁menolak	-9.38175
▁gol	-9.38237
▁Mi	-9.38316
▁lembaga	-9.38325
▁guru	-9.38328
▁terlibat	-9.38476
▁Bupati	-9.38656
▁gunung	-9.38693
▁Ali	-9.38749
▁juara	-9.38778
▁sebenarnya	-9.38916
▁Program	-9.39052
▁Masa	-9.39113
ana	-9.39208
▁World	-9.39255
▁perangkat	-9.39309
▁Polandia	-9.39331
▁Wakil	-9.39443
▁Batu	-9.39585
▁Festival	-9.39609
▁Award	-9.39643
▁Tanjung	-9.39665
▁energi	-9.39782
▁gambar	-9.3985
▁Keamanan	-9.39857
▁TNI	-9.39871
▁kemungkinan	-9.40001
▁Taman	-9.40093
▁berbentuk	-9.40354
ty	-9.40424
▁seseorang	-9.40597
Ma	-9.40616
▁publik	-9.40677
▁Distrik	-9.40899
▁bebas	-9.40953
▁Umum	-9.41156
▁aktor	-9.4131
tis	-9.41327
▁Laba	-9.41333
▁objek	-9.41436
▁menyerang	-9.41594
▁Dinasti	-9.41704
▁dikembangkan	-9.41711
ley	-9.41888
▁kulit	-9.41978
▁memimpin	-9.41982
▁singel	-9.42052
les	-9.4243
▁perdagangan	-9.42527
▁memakan	-9.42535
▁pohon	-9.42602
▁Hari	-9.42605
ll	-9.42709
▁debut	-9.42781
▁segera	-9.4285
▁2002	-9.42877
30	-9.42946
▁tradisi	-9.42987
▁tumbuh	-9.43113
▁berusaha	-9.43193
▁Jika	-9.43204
▁selanjutnya	-9.43208
ine	-9.43208
48	-9.43424
▁Sebelum	-9.4354
ster	-9.43641
pen	-9.43651
Tipula	-9.43731
▁badan	-9.43769
▁pasangan	-9.43783
▁berusia	-9.43784
▁berbasis	-9.43806
▁belas	-9.4381
▁benar	-9.43886
▁Sedangkan	-9.43972
▁tiba	-9.44038
▁mengubah	-9.44173
▁Kanada	-9.44248
0	-9.44255
▁Ca	-9.44264
▁Surabaya	-9.44311
▁Maria	-9.44364
▁olahraga	-9.44393
sama	-9.4455
▁dijadikan	-9.44719
fi	-9.44726
▁mirip	-9.44895
▁Sebagian	-9.45047
▁pertengahan	-9.45113
▁Kali	-9.45121
▁pro	-9.45141
▁kebijakan	-9.45144
▁pemeran	-9.45429
▁Museum	-9.45504
▁mewakili	-9.45517
▁Paus	-9.45525
▁misalnya	-9.4553
▁Z	-9.45543
▁c	-9.45652
▁Suku	-9.45673
▁mencoba	-9.45833
▁Du	-9.45858
ho	-9.45885
▁pengguna	-9.45984
▁terbuka	-9.4605
▁merasa	-9.46071
▁Yesus	-9.46178
pu	-9.46195
▁Bank	-9.46201
—	-9.46201
▁namanya	-9.46213
▁Tu	-9.4624
▁International	-9.46292
▁Pi	-9.4632
▁Perusahaan	-9.46354
▁Gubernur	-9.46413
▁kantor	-9.46426
▁Bi	-9.46436
▁ditayangkan	-9.46624
ker	-9.46628
▁kimia	-9.46629
▁pen	-9.46649
▁Ge	-9.46673
yu	-9.46685
▁gagal	-9.4681
▁Rumah	-9.46874
▁31	-9.46954
▁Pu	-9.46993
▁selesai	-9.47329
▁perdana	-9.47481
▁komputer	-9.47535
▁Yupiter	-9.47539
10	-9.4756
▁barang	-9.47646
▁Paris	-9.47649
▁:	-9.47704
▁final	-9.47723
▁Tanah	-9.47781
▁bertahan	-9.4781
▁jelas	-9.47859
▁berperan	-9.47914
▁cahaya	-9.47947
▁Singapura	-9.47976
▁Tionghoa	-9.48021
ian	-9.48077
▁Pertama	-9.48103
▁darah	-9.48116
Sa	-9.48225
q	-9.48286
Ba	-9.48396
Pa	-9.48539
▁2018	-9.48669
▁2019	-9.48688
▁tujuh	-9.48745
shi	-9.48759
▁tambahan	-9.48765
lagu	-9.48825
▁dibandingkan	-9.48927
▁/	-9.48931
▁Berdasarkan	-9.48942
▁SMP	-9.4896
em	-9.49055
▁menciptakan	-9.49139
▁Araneae	-9.49156
20	-9.49272
▁mengandung	-9.49337
▁2003	-9.49381
▁selain	-9.49415
▁istri	-9.4948
▁Turki	-9.49493
!	-9.495
▁teman	-9.49516
▁familia	-9.49545
▁kompetisi	-9.49834
▁Sri	-9.49855
▁dimiliki	-9.49859
▁Banyak	-9.49873
▁gas	-9.5004
▁p	-9.50121
▁berjalan	-9.50142
▁Sistem	-9.50227
▁gedung	-9.50237
▁bersifat	-9.5027
▁kemenangan	-9.50416
up	-9.50431
▁Tri	-9.50556
▁adat	-9.50559
▁dipilih	-9.5062
▁contoh	-9.5068
▁benda	-9.50722
▁dibuka	-9.50811
▁2017	-9.5094
▁radio	-9.5101
▁Latin	-9.51064
hu	-9.51137
▁Filipina	-9.51142
dy	-9.51159
ban	-9.51183
▁ha	-9.51427
▁menyelesaikan	-9.51438
▁khususnya	-9.51488
▁upaya	-9.51545
▁studi	-9.51672
lang	-9.51729
▁Pra	-9.51739
▁asam	-9.51806
▁Do	-9.51873
ring	-9.51905
▁2001	-9.51939
▁burung	-9.52047
▁bergerak	-9.52068
▁He	-9.52116
▁keempat	-9.52223
hal	-9.52272
▁lahan	-9.52368
▁judul	-9.52385
▁unsur	-9.52431
▁umat	-9.52451
com	-9.52461
▁James	-9.52499
▁Badan	-9.52528
▁oksigen	-9.52595
▁[	-9.52617
▁membuka	-9.5267
▁Fakultas	-9.52716
▁pekerjaan	-9.52779
▁minyak	-9.5302
▁ketinggian	-9.53111
▁Muslim	-9.53118
▁penguasa	-9.53151
▁tersedia	-9.53174
-2	-9.53275
▁Po	-9.53288
Si	-9.5336
▁Mas	-9.5338
ion	-9.53411
▁kategori	-9.53425
▁antar	-9.53503
atau	-9.5363
▁(;	-9.53637
▁2010,	-9.53705
▁memainkan	-9.53818
▁f	-9.53915
rejo	-9.54147
▁konsep	-9.54157
▁Melayu	-9.54174
▁Nomor	-9.54265
ud	-9.54277
▁Sang	-9.54339
▁diterima	-9.54359
▁menyebut	-9.54397
▁kendaraan	-9.54422
40	-9.54437
▁2020	-9.54461
tar	-9.54601
▁dibagi	-9.54728
▁Austria	-9.5478
▁Pro	-9.54806
▁daun	-9.55062
▁pengaruh	-9.55068
▁komunitas	-9.55076
▁Ratu	-9.55188
▁majalah	-9.5521
▁Pan	-9.55243
▁Jo	-9.55356
▁peserta	-9.55387
tahun	-9.55411
▁penumpang	-9.55459
▁van	-9.55571
▁huruf	-9.55604
▁bi	-9.5565
▁hati	-9.55818
=20	-9.55855
%	-9.55966
▁cabang	-9.55991
ron	-9.56016
▁diselenggarakan	-9.56091
▁emas	-9.56158
▁Y	-9.56237
ze	-9.56342
▁50	-9.56351
▁da	-9.56383
mon	-9.564
kota	-9.56445
▁Terdapat	-9.56525
tes	-9.56595
▁Ru	-9.56628
▁Hindia	-9.56666
▁menggambarkan	-9.56703
▁naskah	-9.56826
ler	-9.56907
▁standar	-9.56942
▁kampung	-9.57
▁menyediakan	-9.57042
▁Papua	-9.57054
Re	-9.57091
▁fasilitas	-9.5715
▁sukses	-9.57189
▁Grand	-9.57284
▁menit	-9.57325
▁tindakan	-9.57336
▁Satu	-9.57466
▁Ibu	-9.5748
▁Pen	-9.57544
▁korban	-9.57564
▁Super	-9.5761
▁era	-9.57634
▁teknik	-9.57666
▁pukul	-9.57681
je	-9.57755
▁peng	-9.57837
Al	-9.57855
▁Bar	-9.58012
▁jawab	-9.58026
14	-9.58114
ser	-9.58175
raja	-9.58197
yan	-9.58308
▁terbang	-9.58429
▁William	-9.58613
▁Masjid	-9.58651
▁status	-9.58759
▁an	-9.58808
zi	-9.59087
▁Hukum	-9.59241
▁Bagian	-9.59268
Le	-9.59271
lahir	-9.59279
▁Wa	-9.5932
ven	-9.59377
▁Ya	-9.59488
▁terlalu	-9.59564
▁aktris	-9.5967
sur	-9.59687
▁berjumlah	-9.597
dang	-9.59791
▁tenaga	-9.59813
▁edisi	-9.59865
▁kalangan	-9.59965
▁wisata	-9.59967
ie	-9.60049
▁ma	-9.6011
▁alasan	-9.60121
▁biaya	-9.60136
kon	-9.60159
▁naik	-9.60195
▁perjanjian	-9.60404
▁diikuti	-9.60422
▁FC	-9.60439
▁dukungan	-9.60454
▁beroperasi	-9.60466
sel	-9.60549
▁k	-9.60751
▁perlu	-9.60757
▁hujan	-9.6085
▁Saint	-9.60912
▁sifat	-9.60982
▁aliran	-9.61011
▁merujuk	-9.61164
▁te	-9.61222
▁Kumbang	-9.61432
▁Hong	-9.61515
▁Sam	-9.61516
="20	-9.61559
▁kecepatan	-9.61635
▁serangga	-9.61653
des	-9.61716
▁on	-9.61792
▁tanda	-9.61794
▁profesional	-9.61872
we	-9.61973
▁sutradara	-9.61992
he	-9.6201
▁jadi	-9.62321
▁mahasiswa	-9.6236
▁Buddha	-9.62418
▁Teluk	-9.62526
▁istana	-9.62553
▁Tak	-9.62593
ham	-9.62626
▁40	-9.62666
▁upacara	-9.62797
cha	-9.62912
▁turun	-9.62912
▁lulus	-9.62975
▁tepat	-9.63124
▁IV	-9.63155
▁David	-9.63178
ers	-9.63298
▁Semarang	-9.63302
▁obat	-9.63334
ren	-9.63355
▁catatan	-9.63364
▁kebanyakan	-9.63385
▁Perdana	-9.63424
▁petani	-9.63467
▁Jumlah	-9.63605
▁asing	-9.63611
▁batas	-9.63698
▁ukuran	-9.6374
▁Brasil	-9.6378
▁Stadion	-9.63805
▁masjid	-9.63865
▁ku	-9.63879
▁minggu	-9.64032
▁menjelaskan	-9.64039
Q	-9.64082
ic	-9.64264
Ra	-9.64625
▁Pemerintahan	-9.64642
▁ko	-9.64675
▁memakai	-9.64678
▁Pemilihan	-9.64698
rang	-9.64756
▁calon	-9.64769
▁aktivitas	-9.64838
▁Karya	-9.64869
▁berbatasan	-9.64878
=17	-9.64892
▁mempertahankan	-9.64939
▁rencana	-9.65014
=16	-9.65144
▁kebutuhan	-9.65222
▁rekaman	-9.65237
▁Tuhan	-9.65244
-1	-9.6528
▁ketua	-9.6534
lon	-9.6539
▁siswa	-9.65403
▁kabar	-9.65404
bar	-9.65648
▁membunuh	-9.6575
▁kadang	-9.6581
▁berita	-9.65841
▁saluran	-9.65982
▁makan	-9.66058
▁Kementerian	-9.66088
▁semi	-9.6609
ata	-9.66119
▁terbagi	-9.66339
▁kalinya	-9.66522
sia	-9.66549
▁mengadakan	-9.66681
rah	-9.66726
▁massa	-9.66751
="17	-9.66899
▁dilaksanakan	-9.66948
▁kisah	-9.66975
▁Con	-9.67158
▁Lee	-9.67352
mas	-9.67373
▁cinta	-9.67382
▁Sumber	-9.67386
ot	-9.67529
▁Kong	-9.67629
▁Ju	-9.6765
▁terbatas	-9.6768
▁memasuki	-9.67709
ts	-9.67836
▁Robert	-9.67917
19	-9.67975
▁Kelurahan	-9.67986
▁Putri	-9.68036
▁mengetahui	-9.68102
15	-9.68139
▁Je	-9.6818
▁digantikan	-9.68202
▁Kata	-9.68202
▁Utama	-9.68204
▁saya	-9.6822
▁ibunya	-9.68531
▁le	-9.68539
="16	-9.68554
▁Fa	-9.68559
▁Abdul	-9.68593
rin	-9.68626
▁pendiri	-9.68994
▁Banjar	-9.69002
▁saling	-9.69152
▁ayah	-9.69153
ura	-9.69206
De	-9.69261
▁perbedaan	-9.69285
▁setempat	-9.69305
▁Charles	-9.69393
bel	-9.69407
▁Park	-9.69592
▁pengetahuan	-9.69659
▁Oleh	-9.69743
▁Lampung	-9.6976
▁George	-9.6978
par	-9.69797
▁komunikasi	-9.69803
▁kilometer	-9.6987
▁su	-9.69875
▁generasi	-9.70121
▁kemerdekaan	-9.70151
dia	-9.70184
▁disebabkan	-9.70261
pun	-9.70265
70	-9.70317
▁pembuatan	-9.70327
▁kode	-9.7035
▁menengah	-9.70356
▁menjadikan	-9.70362
▁memproduksi	-9.70378
▁My	-9.70521
▁wakil	-9.70769
▁mengeluarkan	-9.70792
▁Agama	-9.70809
▁pimpinan	-9.7081
▁fisik	-9.70834
▁University	-9.70866
▁puluh	-9.70886
idae	-9.70958
▁perbatasan	-9.71059
50	-9.71093
bat	-9.71093
▁keputusan	-9.71228
▁Miss	-9.71253
▁dahulu	-9.71265
▁ta	-9.71292
lain	-9.71304
▁kehilangan	-9.71315
▁delapan	-9.71637
▁misi	-9.71665
▁Ben	-9.71676
▁ditetapkan	-9.71701
▁Kitab	-9.71783
▁Ilmu	-9.71789
▁menentukan	-9.71888
▁Hi	-9.71933
▁percaya	-9.71964
="9	-9.71996
▁=	-9.72027
▁studio	-9.72063
▁2011,	-9.72091
▁mencetak	-9.72123
tri	-9.72124
▁Darat	-9.72146
▁universitas	-9.72266
▁dewa	-9.72287
ria	-9.72314
▁aplikasi	-9.72441
disambiguasi	-9.72597
▁angka	-9.72599
▁1999	-9.72643
▁tahu	-9.72754
▁Am	-9.7276
ram	-9.7293
▁harga	-9.72959
▁tewas	-9.73077
60	-9.73101
▁Kejuaraan	-9.73101
▁kompleks	-9.73151
▁Cina	-9.73216
▁ataupun	-9.73233
25	-9.73333
11	-9.73362
▁Karang	-9.73378
▁segala	-9.73439
ara	-9.73468
▁suhu	-9.73478
▁Demospongiae	-9.7348
▁memenuhi	-9.7348
ella	-9.73499
▁pernikahan	-9.73615
Ta	-9.73625
Pe	-9.73771
▁melayani	-9.7394
▁bakar	-9.73963
▁menyerap	-9.74029
90	-9.74087
▁pertemuan	-9.74101
▁2014,	-9.74147
▁pabrik	-9.74187
▁Tiga	-9.74212
▁2012,	-9.74311
▁Wi	-9.74331
don	-9.74345
▁Dusun	-9.74346
▁kiri	-9.74407
▁Vietnam	-9.74433
▁na	-9.74444
▁Kim	-9.74588
ye	-9.74652
vo	-9.74662
Na	-9.74852
ken	-9.749
gar	-9.74911
▁United	-9.7493
▁2015,	-9.74956
▁(18	-9.74973
▁diperkirakan	-9.75034
▁DPRD	-9.75187
▁Departemen	-9.75259
album	-9.75283
▁2013,	-9.75286
che	-9.75386
wo	-9.75418
▁tapi	-9.75592
▁desain	-9.75624
▁Sun	-9.75646
▁berbahasa	-9.75666
▁penampilan	-9.7569
▁Swedia	-9.75761
▁sederhana	-9.75772
▁Shi	-9.75787
▁kitab	-9.75808
▁meningkat	-9.75842
▁komedi	-9.75871
▁Gi	-9.75968
Per	-9.75987
▁efek	-9.75997
▁cm	-9.76
▁administratif	-9.76051
▁pejabat	-9.76131
▁menteri	-9.7621
rat	-9.76303
▁Paul	-9.76346
▁memegang	-9.76411
res	-9.76484
▁Grup	-9.76489
▁bukti	-9.76491
▁Ekonomi	-9.76551
▁Bintang	-9.76563
▁menghadapi	-9.76578
▁Anak	-9.76635
▁berkebangsaan	-9.76704
▁digital	-9.76852
lis	-9.7687
▁raya	-9.76973
45	-9.77049
the	-9.7707
▁Car	-9.77078
nama	-9.77126
▁memang	-9.77138
▁miliar	-9.77202
▁bekas	-9.77369
▁turnamen	-9.77384
▁Walaupun	-9.77385
▁Divisi	-9.77416
▁pemenang	-9.7751
car	-9.77539
tal	-9.77655
▁sulit	-9.77789
▁kursi	-9.77883
▁reaksi	-9.77956
▁sastra	-9.77964
dar	-9.77982
nan	-9.77998
▁dihasilkan	-9.78
▁Thailand	-9.78108
▁Tokyo	-9.7814
▁Anggota	-9.78218
Agrilus	-9.78277
ida	-9.7835
▁Suci	-9.78357
▁area	-9.78475
▁urutan	-9.7855
▁kanan	-9.78685
▁angkatan	-9.78728
▁kontrak	-9.78741
-3	-9.78763
▁web	-9.78813
▁bertugas	-9.78977
▁Group	-9.79015
▁berfungsi	-9.79067
▁Cirebon	-9.79082
▁sipil	-9.79098
▁bagaimana	-9.79145
▁diantaranya	-9.79218
uh	-9.79224
ris	-9.79272
▁kelahiran	-9.79296
▁RI	-9.79309
▁Organisasi	-9.79382
kadang	-9.79402
36	-9.79445
00	-9.79548
▁teks	-9.79572
▁pra	-9.79674
▁Kebanyakan	-9.79697
▁ujung	-9.79773
▁logam	-9.79844
▁Akademi	-9.79944
▁positif	-9.80178
▁Chi	-9.80254
▁2006,	-9.80268
▁Surat	-9.80306
▁Hulu	-9.80316
▁mengurangi	-9.80351
▁Setiap	-9.80406
onlyinclude	-9.80421
▁ca	-9.80503
18	-9.80558
▁Tan	-9.80621
▁Par	-9.80765
▁penjualan	-9.80906
▁tulisan	-9.80966
▁lebar	-9.81028
jang	-9.81207
tak	-9.81254
▁puncak	-9.81333
▁berumur	-9.81388
Di	-9.8139
▁lewat	-9.81488
▁Irlandia	-9.81556
▁pembentukan	-9.81649
▁Lama	-9.81667
▁Pembangunan	-9.81756
▁California	-9.81778
▁Sha	-9.81787
▁Mer	-9.81787
▁lapangan	-9.81837
▁Olahraga	-9.81874
▁China	-9.81881
har	-9.819
▁agresif	-9.81948
▁ba	-9.8195
▁swasta	-9.81965
21	-9.8199
▁Entertainment	-9.8199
▁2016,	-9.82035
▁komune	-9.82078
▁terpisah	-9.82148
▁polisi	-9.82166
▁ganda	-9.8217
undang	-9.82215
▁Academy	-9.82234
▁melibatkan	-9.82256
▁Iran	-9.8227
▁aceh	-9.82341
▁Peng	-9.82392
▁Adipati	-9.82394
tur	-9.824
ov	-9.82466
▁walaupun	-9.82482
▁diluncurkan	-9.82515
▁Har	-9.82546
ea	-9.82601
▁Music	-9.8267
▁keuangan	-9.82903
▁pintu	-9.82931
▁School	-9.8295
zo	-9.82966
▁mm	-9.82972
▁Maluku	-9.83031
▁En	-9.83032
▁2011.	-9.83159
▁Penduduk	-9.83217
▁x	-9.83294
▁dirancang	-9.83502
▁2007,	-9.83503
▁as	-9.83569
▁individu	-9.83704
▁tahap	-9.83709
▁keamanan	-9.83736
▁Hindu	-9.83785
▁Michael	-9.83864
bang	-9.83868
tha	-9.83947
▁t	-9.83952
▁Love	-9.84002
▁Soe	-9.84003
▁perwakilan	-9.841
▁menang	-9.841
▁perhatian	-9.8426
▁Pasukan	-9.84292
sis	-9.84306
▁tekanan	-9.84345
▁aksi	-9.8438
sin	-9.84384
▁politikus	-9.84385
▁Tentara	-9.84515
▁kesempatan	-9.8453
▁Media	-9.84541
sta	-9.84654
▁sayap	-9.84655
▁dilihat	-9.84692
▁berkata	-9.8474
▁We	-9.84815
ii	-9.84838
▁You	-9.84847
ap	-9.84868
▁es	-9.84936
▁melewati	-9.84993
▁buatan	-9.84995
▁berhubungan	-9.85041
▁penduduknya	-9.85131
▁foto	-9.85266
▁Malang	-9.85304
▁membeli	-9.85332
▁saham	-9.85338
▁tema	-9.85343
▁g	-9.85361
▁pekerja	-9.85433
▁pertunjukan	-9.85484
ius	-9.85577
▁samping	-9.85595
▁dibawa	-9.85649
▁peningkatan	-9.85719
▁predator	-9.85719
▁Is	-9.85814
lia	-9.85886
▁dingin	-9.85912
▁Undang	-9.85952
ville	-9.86028
13	-9.86152
▁2017,	-9.86226
-4	-9.86244
▁Masyarakat	-9.86277
▁Vi	-9.86363
▁2012.	-9.86407
▁pendukung	-9.86425
▁menganggap	-9.86425
▁Gu	-9.86461
In	-9.86485
▁membuatnya	-9.86489
▁berlaku	-9.86639
▁Istilah	-9.86651
▁murid	-9.86743
▁Santo	-9.86781
▁Semua	-9.86811
▁ajang	-9.86821
▁kecuali	-9.86924
▁diumumkan	-9.86938
▁disebutkan	-9.87051
16	-9.87153
sekarang	-9.8718
▁diubah	-9.87271
▁Hasil	-9.8733
gon	-9.87465
▁Medan	-9.8749
▁Tom	-9.87669
▁Persia	-9.87695
by	-9.87722
ning	-9.87746
ena	-9.87893
▁nominasi	-9.87924
▁tertua	-9.88057
▁komersial	-9.88073
▁sebutan	-9.88075
▁menempati	-9.88084
▁mayoritas	-9.88085
kata	-9.88088
jar	-9.88161
▁Hongaria	-9.88267
▁single	-9.88377
Te	-9.88593
Ha	-9.88649
nu	-9.88654
▁jasa	-9.8869
lam	-9.88755
▁pertahanan	-9.88885
▁Fu	-9.88986
▁terbuat	-9.88992
▁lanjut	-9.89006
ica	-9.89057
▁tipe	-9.89076
▁macam	-9.89085
▁Abu	-9.89088
▁produser	-9.8911
Be	-9.89119
▁Maka	-9.89121
▁difusi	-9.89136
▁istrinya	-9.89136
41	-9.8924
▁berhenti	-9.89389
▁kariernya	-9.89417
▁o	-9.89556
cy	-9.896
▁2010.	-9.89726
▁alih	-9.8973
▁bila	-9.89803
▁hijau	-9.89808
á	-9.89821
▁kalah	-9.89867
▁Kesultanan	-9.89903
▁menjaga	-9.89932
▁bo	-9.89935
?	-9.90132
▁ajaran	-9.90147
▁2009,	-9.90207
tro	-9.90352
▁pertumbuhan	-9.90366
Li	-9.90395
▁mendorong	-9.90519
▁panggung	-9.90561
dari	-9.90575
▁2019,	-9.90704
55	-9.90706
▁ringan	-9.90881
▁0	-9.90904
ment	-9.90926
▁Wali	-9.90951
▁menyebutkan	-9.91007
▁$	-9.91018
▁Ahmad	-9.91051
one	-9.91153
▁diperlukan	-9.9117
▁Her	-9.91208
▁layar	-9.91307
▁keluarganya	-9.91514
▁National	-9.91558
▁menguasai	-9.91614
cu	-9.91679
▁1998	-9.91753
▁kepercayaan	-9.91807
▁faktor	-9.91824
▁Sunda	-9.91827
▁konflik	-9.91938
▁taman	-9.92006
▁mil	-9.92008
▁Pantai	-9.9201
▁makanannya	-9.92113
▁mengirim	-9.92176
▁bilangan	-9.92183
75	-9.92185
tin	-9.92259
▁sehari	-9.92315
▁konser	-9.92347
▁relatif	-9.92354
sha	-9.92386
dong	-9.92388
▁lunak	-9.92472
▁mengakibatkan	-9.92497
▁bus	-9.92552
Stasiun	-9.92585
▁daging	-9.92633
▁Putra	-9.92635
▁menerbitkan	-9.92643
▁Latar	-9.92665
kh	-9.92672
▁berpori	-9.92674
▁2008,	-9.92685
▁Keluarga	-9.92694
Su	-9.92745
▁etnis	-9.92749
▁artinya	-9.92867
35	-9.92883
46	-9.92905
▁ternyata	-9.92936
▁musuh	-9.9303
▁fitur	-9.9304
▁2018,	-9.93195
▁perwira	-9.93207
▁serupa	-9.93211
▁Seri	-9.93256
▁mi	-9.93322
12	-9.93354
▁Company	-9.93361
85	-9.93364
▁laporan	-9.93375
rus	-9.9343
ita	-9.9361
mat	-9.93707
▁Dasar	-9.93739
▁dokter	-9.93756
▁pakaian	-9.93795
▁atom	-9.93842
▁membutuhkan	-9.93843
▁pesisir	-9.93843
▁Thomas	-9.93849
▁artis	-9.93858
ini	-9.93914
▁dusun	-9.9394
▁ditunjuk	-9.93995
▁beragam	-9.93997
▁dioperasikan	-9.94031
▁skor	-9.94071
▁tersebar	-9.94085
▁FIFA	-9.94098
lak	-9.94105
▁berkaitan	-9.94165
▁2014.	-9.94173
▁Van	-9.94212
▁menjalankan	-9.94219
ada	-9.94239
▁Uskup	-9.94274
▁2016.	-9.94306
▁Ver	-9.94323
▁pemberontakan	-9.94359
▁halaman	-9.9436
▁dilengkapi	-9.94381
Mo	-9.94398
▁dikatakan	-9.94449
▁setengah	-9.94454
▁insting	-9.94475
▁menduduki	-9.94542
om	-9.94588
ard	-9.94683
Ro	-9.94721
Astragalus	-9.94735
80	-9.94769
▁Swiss	-9.94833
▁mempelajari	-9.94921
▁alami	-9.94932
▁ra	-9.94967
kat	-9.94999
▁tri	-9.95005
▁penonton	-9.95084
ā	-9.95089
▁dijual	-9.95109
▁Hu	-9.95141
ding	-9.95185
▁Alam	-9.95267
▁vokal	-9.95281
▁sektor	-9.95297
▁senyawa	-9.95299
▁co	-9.95445
24	-9.95472
▁Star	-9.95488
32	-9.95499
▁menjual	-9.95589
–19	-9.95599
▁berjarak	-9.95606
▁Atas	-9.95625
▁Teknik	-9.95821
▁menawarkan	-9.96039
▁Asilidae	-9.96066
annya	-9.96165
mus	-9.9622
▁kaisar	-9.96249
▁Ce	-9.96288
▁kebudayaan	-9.96379
▁maju	-9.96393
tum	-9.96409
▁Bogor	-9.96419
▁Pembagian	-9.96458
▁Kelas	-9.96487
▁Ji	-9.96519
▁Buku	-9.96525
▁Henry	-9.96531
▁lengkap	-9.96607
ks	-9.96709
▁Peter	-9.96806
▁persen	-9.9683
dik	-9.9691
▁mengatur	-9.96913
ny	-9.96914
▁merebut	-9.96935
kin	-9.97026
▁museum	-9.97084
▁gelombang	-9.97143
▁ga	-9.97214
▁bu	-9.97336
▁motor	-9.97393
▁Kampung	-9.97428
▁kelima	-9.97493
23	-9.97545
las	-9.97582
▁berukuran	-9.97604
▁tempur	-9.97699
▁dinyatakan	-9.97741
▁bersamaan	-9.97757
28	-9.97758
▁pelabuhan	-9.97776
▁Nusa	-9.97933
benar	-9.97988
tel	-9.9805
▁kampanye	-9.98061
▁2015.	-9.98101
▁tampak	-9.98179
▁kopi	-9.98264
▁du	-9.98265
▁pilihan	-9.98332
|	-9.98372
▁sepuluh	-9.98396
pang	-9.98432
▁do	-9.98467
▁Ibrani	-9.98513
tasi	-9.98521
▁Resolusi	-9.98521
▁mau	-9.98564
65	-9.9861
▁con	-9.98624
mis	-9.98642
▁UEFA	-9.98679
▁perintah	-9.98685
▁pelayanan	-9.98749
▁Danau	-9.98759
▁del	-9.98793
▁Taiwan	-9.98805
lat	-9.98806
▁ci	-9.98838
43	-9.98866
▁2013.	-9.98962
▁Komisi	-9.99062
sti	-9.99093
99	-9.99153
44	-9.99166
56	-9.9917
▁Operasi	-9.99185
▁medali	-9.99229
▁mo	-9.99296
▁Kapal	-9.99321
39	-9.99378
▁apabila	-9.99401
▁Prefektur	-9.99428
37	-9.99473
▁administrasi	-9.99521
▁melindungi	-9.99555
▁menghubungkan	-9.99555
▁keberadaan	-9.99608
49	-9.99634
tif	-9.99648
▁melarikan	-9.99654
▁gadis	-9.99686
▁wa	-9.99727
▁Meksiko	-9.99735
▁pegunungan	-9.9974
▁buruk	-9.99772
if	-9.99806
▁sini	-9.99852
▁suka	-9.9987
▁Musik	-9.99872
▁Riau	-9.99898
07	-9.99968
▁Kereta	-10.0017
▁seluas	-10.0017
▁perguruan	-10.002
nes	-10.0024
▁melaksanakan	-10.0028
bah	-10.0037
▁pu	-10.0039
▁diperkenalkan	-10.0045
▁mencegah	-10.0054
▁prajurit	-10.0056
▁Batas	-10.007
▁sudut	-10.0074
war	-10.0078
que	-10.0092
▁mengakui	-10.0092
▁mencatat	-10.0093
▁dikirim	-10.0094
▁maskapai	-10.0096
io	-10.0099
▁pandangan	-10.01
▁sebagaimana	-10.0113
▁Lembaga	-10.0114
iyah	-10.0115
68	-10.0119
▁200	-10.0126
▁klasik	-10.0126
57	-10.0128
▁menjalani	-10.0129
pin	-10.0129
▁satelit	-10.0131
▁berbicara	-10.0132
tz	-10.0132
▁arti	-10.0138
17	-10.0143
98	-10.0149
ola	-10.0153
▁ni	-10.0155
▁didukung	-10.0158
▁Khan	-10.0159
▁berpartisipasi	-10.0166
▁didasarkan	-10.0171
Bahasa	-10.018
▁tur	-10.0182
▁jenderal	-10.0186
▁am	-10.019
▁Istana	-10.0193
▁campuran	-10.0195
64	-10.0204
▁hilang	-10.021
▁menimbulkan	-10.0213
▁mem	-10.0217
▁Banten	-10.0218
▁lomba	-10.0219
58	-10.0219
▁pemilik	-10.0226
▁Q	-10.0228
▁demi	-10.0228
To	-10.0233
▁pulang	-10.0233
op	-10.0237
▁ar	-10.0241
pro	-10.0241
▁memerintah	-10.0244
bus	-10.0245
▁Kar	-10.0245
▁Onthophagus	-10.0246
▁departemen	-10.025
53	-10.0251
▁2004,	-10.0256
▁turut	-10.0257
▁Prix	-10.026
▁Can	-10.0266
▁Yayasan	-10.0268
▁kami	-10.0269
nd	-10.028
▁duduk	-10.0286
▁Majelis	-10.0289
▁Pasar	-10.0292
▁perairan	-10.0301
▁Nu	-10.0307
▁mini	-10.0315
▁Timor	-10.0316
▁komponen	-10.0316
▁Teknologi	-10.0321
til	-10.0331
▁Tetapi	-10.0332
▁ditangkap	-10.0342
ff	-10.0342
27	-10.0349
ologi	-10.0352
▁hakim	-10.0352
▁disiarkan	-10.0354
76	-10.0363
▁pos	-10.0364
▁darat	-10.0364
▁munisipalitas	-10.0365
▁kaya	-10.0368
▁mengunjungi	-10.037
29	-10.0371
▁lintas	-10.0376
karya	-10.0377
62	-10.0381
66	-10.0382
Mi	-10.0386
▁digambarkan	-10.0398
▁bertanggung	-10.0398
▁balapan	-10.0399
▁Denmark	-10.0403
▁mengajar	-10.041
▁hidupnya	-10.0412
let	-10.0419
▁sarana	-10.0423
▁Perwakilan	-10.0425
▁transportasi	-10.0427
▁sensus	-10.0432
▁Kesehatan	-10.0437
47	-10.0441
ari	-10.0443
▁tata	-10.0445
Bu	-10.0446
33	-10.0447
▁Richard	-10.0449
▁apakah	-10.0454
sar	-10.0467
▁Kantor	-10.0467
▁Bulan	-10.0472
con	-10.0475
▁Tang	-10.0476
▁Selanjutnya	-10.0479
▁Martin	-10.0479
▁lo	-10.049
▁Raden	-10.0491
▁pesan	-10.0495
▁Apollo	-10.0502
000	-10.0506
▁rangka	-10.0514
▁u	-10.0515
▁Injil	-10.0516
▁jarang	-10.0518
▁Gedung	-10.0521
▁2020,	-10.0523
▁li	-10.0527
▁60	-10.053
38	-10.053
▁kuda	-10.0535
▁akses	-10.0539
Da	-10.0539
-5	-10.054
▁Merah	-10.0541
▁2017.	-10.0542
86	-10.0546
▁hadir	-10.0547
sk	-10.0551
▁tepatnya	-10.0561
67	-10.0583
▁simbol	-10.0583
▁besi	-10.0586
osa	-10.0588
alis	-10.0599
▁hukuman	-10.0603
▁latar	-10.0604
▁Suka	-10.0606
mp	-10.0607
dis	-10.0617
▁Keputusan	-10.0625
▁medan	-10.0626
▁kualitas	-10.0633
▁lukisan	-10.0635
▁puisi	-10.064
▁Or	-10.064
kai	-10.0642
▁pasti	-10.0642
▁berpendapat	-10.0643
▁so	-10.0644
59	-10.0646
-18	-10.0647
▁kepemimpinan	-10.0675
▁Sar	-10.0685
▁kejadian	-10.0688
▁Troya	-10.0697
▁trans	-10.0698
▁Hubungan	-10.0698
▁kepulauan	-10.0701
73	-10.0702
ras	-10.0707
26	-10.071
▁kuning	-10.071
▁dataran	-10.0711
uddin	-10.0713
▁remaja	-10.0717
▁Kongres	-10.072
nda	-10.0722
ab	-10.0728
▁manajemen	-10.0736
▁dewan	-10.0739
▁mundur	-10.0749
▁rute	-10.0753
gas	-10.0758
▁1.	-10.0774
="4	-10.0777
▁liga	-10.0778
▁is	-10.0782
tta	-10.0789
▁seminggu	-10.0794
tsu	-10.0797
▁Ken	-10.0803
ino	-10.0816
fe	-10.0821
▁toko	-10.0822
Ar	-10.0822
05	-10.0829
▁2009.	-10.0833
▁ditempatkan	-10.0834
Bo	-10.0838
▁menghancurkan	-10.0848
▁Contoh	-10.0851
▁mengacu	-10.0854
kah	-10.086
▁vi	-10.0861
ei	-10.0863
▁Bersama	-10.0863
▁global	-10.0867
▁Belgia	-10.0872
era	-10.0877
Ci	-10.0878
▁menghabiskan	-10.0879
▁biru	-10.0898
▁sepenuhnya	-10.0899
▁dinamakan	-10.0908
▁divisi	-10.0909
▁dulu	-10.0914
▁suci	-10.0915
▁super	-10.0917
▁peralatan	-10.0919
▁Seni	-10.0924
▁bangsawan	-10.0927
▁permintaan	-10.093
▁situasi	-10.0933
▁Kan	-10.0942
▁diakui	-10.0942
▁rock	-10.0943
í	-10.0945
▁pembunuhan	-10.0949
▁Gar	-10.0949
An	-10.0955
▁Militer	-10.0962
-6	-10.0965
jaya	-10.0979
06	-10.098
▁dimainkan	-10.098
79	-10.0983
▁menikahi	-10.0985
▁elemen	-10.0993
▁ton	-10.0998
bin	-10.1001
▁Institut	-10.1009
▁signifikan	-10.1019
▁Rp	-10.102
84	-10.1022
▁Min	-10.1024
▁Proses	-10.1026
▁ri	-10.1026
tung	-10.1028
▁kepentingan	-10.1031
▁keuskupan	-10.1043
sch	-10.1056
▁Cinta	-10.1056
▁at	-10.1058
42	-10.1064
▁Wu	-10.1066
ens	-10.1066
▁Cha	-10.107
77	-10.1071
▁sembilan	-10.1072
▁kontes	-10.1076
▁merek	-10.108
▁2007.	-10.1083
▁pedagang	-10.1084
▁Acara	-10.1086
88	-10.1087
bal	-10.1093
▁dimasukkan	-10.1096
▁Sama	-10.1102
▁Kon	-10.1104
▁benteng	-10.1104
▁angin	-10.1106
▁menetapkan	-10.1107
78	-10.1111
Ja	-10.112
▁Cor	-10.1121
▁tepi	-10.1124
▁2.	-10.1125
▁lapisan	-10.1132
▁ge	-10.1132
eh	-10.1134
▁menandatangani	-10.1137
▁Dewa	-10.114
▁2005,	-10.1148
▁Los	-10.1155
▁inti	-10.1155
22	-10.1157
▁poin	-10.1159
▁diperoleh	-10.116
▁Kelompok	-10.1162
▁Sebelumnya	-10.1164
▁Akhirnya	-10.1164
▁Nabi	-10.1165
▁indonesia	-10.1166
▁Za	-10.1176
▁bulu	-10.1176
▁sisa	-10.118
▁pembalap	-10.1181
▁efektif	-10.1181
tt	-10.1182
▁2008.	-10.1183
▁Er	-10.1183
▁fiksi	-10.1183
▁animasi	-10.1185
▁Metro	-10.1193
mun	-10.12
▁artikel	-10.1204
jam	-10.1206
set	-10.1207
▁Serbia	-10.1212
▁putaran	-10.1213
▁pengalaman	-10.1223
▁Ban	-10.123
Man	-10.123
▁singkat	-10.1233
▁nuklir	-10.1234
-20	-10.1234
▁Kuno	-10.1235
▁mengumpulkan	-10.1255
eri	-10.1255
nia	-10.1259
▁Nur	-10.1262
ium	-10.1263
age	-10.1264
ep	-10.1267
van	-10.1271
▁Awal	-10.1273
ben	-10.1276
▁Louis	-10.1276
tang	-10.128
Bulbophyllum	-10.1285
▁2019.	-10.1288
bon	-10.1293
▁ditentukan	-10.1295
Carex	-10.1295
▁pola	-10.1297
vin	-10.1301
▁Budaya	-10.1306
ani	-10.1306
lum	-10.1307
▁Bukit	-10.1311
bak	-10.1313
ula	-10.1314
▁unik	-10.1318
▁tulang	-10.1319
▁Hingga	-10.1322
▁Cu	-10.1323
Bandar	-10.1325
▁Song	-10.1325
▁Demografi	-10.1328
▁1997	-10.133
-10	-10.1339
▁Kristus	-10.1341
ther	-10.1351
val	-10.1351
cal	-10.1352
▁pernyataan	-10.1357
▁lantai	-10.1359
▁tayang	-10.136
nas	-10.1363
97	-10.1365
▁Komite	-10.1367
dal	-10.137
▁sekitarnya	-10.1372
▁seksual	-10.1377
▁Meng	-10.1384
din	-10.1386
mata	-10.1389
▁makam	-10.139
fer	-10.139
▁memerintahkan	-10.1391
▁Video	-10.1394
▁Tempat	-10.1399
▁dikeluarkan	-10.1401
89	-10.1401
▁DPR	-10.1402
oh	-10.1403
▁Windows	-10.1405
Ko	-10.1405
▁Panas	-10.1409
▁pelajaran	-10.1409
▁mengklaim	-10.141
▁tamu	-10.1412
▁Bandara	-10.1417
▁diciptakan	-10.1418
▁kecelakaan	-10.1421
▁tu	-10.1423
Saint	-10.1434
▁gubernur	-10.1446
▁tuan	-10.1447
▁Un	-10.1451
▁plat	-10.1463
▁mengangkat	-10.1467
▁Jenis	-10.1468
▁praktik	-10.1468
▁antena	-10.1469
▁beserta	-10.1474
▁Bahkan	-10.1479
off	-10.1487
▁tenggara	-10.149
▁Gerakan	-10.1491
72	-10.1491
96	-10.1491
▁Luar	-10.1495
▁2018.	-10.1495
▁parlemen	-10.1508
Mar	-10.1509
▁Makassar	-10.1512
tengah	-10.1513
▁Ram	-10.1514
▁Skotlandia	-10.152
▁Sir	-10.1522
bra	-10.1523
▁West	-10.1533
▁Santa	-10.1533
ss	-10.1536
▁Yohanes	-10.1536
▁Akan	-10.1553
▁pendapat	-10.1556
61	-10.1558
Me	-10.156
▁tiap	-10.1561
▁Trans	-10.1564
lim	-10.1566
Undang	-10.1568
▁Bola	-10.1571
▁Pri	-10.1574
tipula	-10.1575
-15	-10.1575
▁bendera	-10.1575
tion	-10.1576
▁prinsip	-10.1577
▁go	-10.1579
▁independen	-10.1581
▁;	-10.1588
▁cenderung	-10.1588
▁Va	-10.1589
▁karyanya	-10.1591
▁fa	-10.1593
nus	-10.1593
ent	-10.1601
95	-10.1605
ay	-10.1615
▁500	-10.1616
▁Band	-10.1616
ika	-10.1619
mbo	-10.162
▁arsitektur	-10.1643
rak	-10.1643
▁pendapatan	-10.1649
ach	-10.1651
▁molekul	-10.1661
▁armada	-10.1666
▁dinamai	-10.1666
▁+	-10.1674
▁kematiannya	-10.1681
▁dekade	-10.1683
▁lembap	-10.1686
▁Palestina	-10.1686
▁teater	-10.1689
▁gen	-10.1693
▁v	-10.1693
hara	-10.1694
len	-10.1699
mal	-10.171
▁menentang	-10.1713
af	-10.1728
od	-10.1728
▁Jin	-10.173
▁induk	-10.173
▁Ir	-10.1731
▁bank	-10.1732
▁berkompetisi	-10.1737
▁sebab	-10.1739
▁aturan	-10.1741
▁menceritakan	-10.1747
ae	-10.1747
▁mu	-10.1749
▁disingkat	-10.1749
ph	-10.1753
dah	-10.1754
▁berkuasa	-10.1755
▁Che	-10.1767
▁Tar	-10.1767
▁Yo	-10.1768
▁protein	-10.1768
74	-10.1769
▁keuntungan	-10.1769
▁berpengaruh	-10.1773
cho	-10.1783
01	-10.1783
ity	-10.1785
▁elektronik	-10.1787
▁lu	-10.1787
69	-10.1788
win	-10.1788
▁Lalu	-10.1789
▁dinding	-10.1791
▁kejahatan	-10.1798
▁Mahkamah	-10.1799
kira	-10.18
▁Seorang	-10.1801
kal	-10.1808
▁perilaku	-10.1813
▁bayi	-10.1825
yama	-10.1826
▁2006.	-10.1827
▁inilah	-10.1832
qui	-10.1834
▁memperkenalkan	-10.1834
▁War	-10.1841
▁semuanya	-10.1841
▁terbanyak	-10.1846
54	-10.1848
peng	-10.1852
▁melainkan	-10.1853
▁perkebunan	-10.1854
▁persegi	-10.1858
Wa	-10.1861
▁Sekretaris	-10.1861
▁Sub	-10.1864
apa	-10.1868
71	-10.187
▁pengadilan	-10.1871
▁US	-10.1871
▁Hak	-10.1875
cer	-10.1877
▁label	-10.1879
▁boleh	-10.1879
▁Meski	-10.188
▁bertujuan	-10.1881
▁Maha	-10.1887
▁perlindungan	-10.1904
▁virus	-10.1905
▁Ad	-10.1905
Mu	-10.1906
▁Parlemen	-10.1911
yi	-10.1913
▁1996	-10.1917
▁ekor	-10.1919
pur	-10.1924
est	-10.1932
▁VI	-10.1933
▁wafat	-10.1934
▁Mc	-10.1937
▁volume	-10.1944
▁rekan	-10.1944
angan	-10.1946
▁takhta	-10.1949
▁ciri	-10.1951
Lo	-10.1951
▁multi	-10.1955
-7	-10.1956
▁dibawah	-10.196
83	-10.1961
▁identitas	-10.1961
▁dipindahkan	-10.1965
pura	-10.1966
▁daratan	-10.1968
nik	-10.1969
▁Ukraina	-10.1972
▁kapasitas	-10.1972
▁peraturan	-10.1978
▁Protestan	-10.1981
▁Agrilus	-10.1982
▁meluncurkan	-10.1983
▁terjadinya	-10.1985
▁balik	-10.1985
▁keagamaan	-10.1987
▁kuil	-10.1988
▁melahirkan	-10.1991
▁Menengah	-10.1994
kel	-10.2
▁adik	-10.2004
▁w	-10.2005
pas	-10.2006
▁berlokasi	-10.2008
▁Berlin	-10.2011
52	-10.2012
▁Kudus	-10.2016
cus	-10.2019
▁pan	-10.202
▁Red	-10.2026
▁pi	-10.2028
▁aslinya	-10.2033
▁pemuda	-10.2033
▁rilis	-10.2034
jan	-10.2046
▁koleksi	-10.2047
▁Kontes	-10.2049
Nya	-10.2053
▁Don	-10.2055
▁peringatan	-10.2068
Ku	-10.2069
dalam	-10.2082
▁Jati	-10.2083
hak	-10.2084
▁dikarenakan	-10.2085
ey	-10.2086
▁lepas	-10.2089
▁kertas	-10.2093
▁Penggunaan	-10.2095
▁ditampilkan	-10.2098
▁dinasti	-10.21
▁Sen	-10.21
▁iklim	-10.2108
▁Muda	-10.2116
▁dampak	-10.2122
31	-10.2126
▁Pakistan	-10.2129
▁with	-10.2132
lar	-10.2132
▁penjara	-10.2132
▁kucing	-10.2133
▁jantung	-10.2137
Keuskupan	-10.214
▁telur	-10.2141
!"	-10.2146
▁sambil	-10.2149
▁Yerusalem	-10.2168
▁kon	-10.2169
▁putranya	-10.217
ora	-10.217
ation	-10.2171
▁Joseph	-10.2171
▁East	-10.2172
▁35	-10.2176
▁langit	-10.2177
ney	-10.218
▁seniman	-10.2181
▁Direktur	-10.2182
▁Shin	-10.219
▁suaminya	-10.2191
▁membaca	-10.2192
tas	-10.22
▁menyelamatkan	-10.2202
▁Jan	-10.2205
ket	-10.2211
▁Sari	-10.2212
▁rumput	-10.2212
▁tari	-10.2213
▁patung	-10.2213
ves	-10.2214
▁set	-10.2215
▁melaporkan	-10.2221
▁dilahirkan	-10.2222
91	-10.2242
net	-10.2242
del	-10.225
▁Portugis	-10.225
▁sarjana	-10.2251
▁ro	-10.2252
▁Long	-10.2253
bur	-10.2255
▁angkasa	-10.2255
Psychotria	-10.2256
▁Sosial	-10.2257
87	-10.2258
;/	-10.226
▁tergantung	-10.2261
ret	-10.2268
▁dibunuh	-10.2272
▁Sinopsis	-10.2272
▁Kebudayaan	-10.2274
ros	-10.2282
-8	-10.2286
▁‘	-10.2289
▁danau	-10.2303
▁arus	-10.2306
ö	-10.2306
▁dokumen	-10.2317
▁American	-10.2325
▁bandar	-10.2327
▁menghindari	-10.2327
08	-10.2332
▁or	-10.2341
▁mar	-10.2343
▁perjuangan	-10.2354
▁mengungkapkan	-10.2356
▁larva	-10.2356
▁Tingkat	-10.2357
▁Irak	-10.2358
▁gampong	-10.236
▁jembatan	-10.236
nis	-10.236
▁Angeles	-10.2364
▁aspek	-10.2369
ac	-10.2369
▁pelatihan	-10.237
▁imam	-10.237
▁PBB	-10.2376
▁aku	-10.2379
Ri	-10.2382
▁Revolusi	-10.2389
▁jangka	-10.2397
▁nektar	-10.2398
▁bakteri	-10.2405
wu	-10.2406
▁memuat	-10.2409
▁ja	-10.241
+	-10.241
bit	-10.2421
09	-10.2421
▁nyata	-10.2425
▁pagi	-10.2432
ona	-10.2437
ex	-10.2439
ih	-10.244
▁Argentina	-10.2441
way	-10.2453
▁telepon	-10.2458
▁gagasan	-10.2462
▁semacam	-10.2463
▁Sepak	-10.2465
▁2020.	-10.2472
▁diganti	-10.2476
▁1990	-10.2481
▁Tata	-10.2489
▁Pasifik	-10.249
▁Norwegia	-10.2491
▁Biografi	-10.2491
▁mengakhiri	-10.2492
tek	-10.2494
▁kalau	-10.2501
▁pop	-10.2507
▁Center	-10.2513
▁Nazi	-10.2519
oides	-10.2523
▁bandara	-10.2524
pus	-10.2532
34	-10.2537
No	-10.2544
gel	-10.2545
▁Jean	-10.255
▁Batang	-10.2551
▁Kuala	-10.2555
▁menetap	-10.2557
sus	-10.2559
▁kekaisaran	-10.2564
▁Hotel	-10.2566
▁Versi	-10.2568
tia	-10.257
▁pengusaha	-10.2592
iana	-10.2593
lip	-10.2608
04	-10.2612
▁von	-10.2613
-12	-10.2613
▁Studi	-10.2616
▁hulu	-10.2618
▁Genus	-10.2618
▁dilaporkan	-10.2619
wati	-10.2622
▁uskup	-10.263
▁l	-10.264
▁bertindak	-10.2642
▁1995	-10.2644
▁Mark	-10.2646
▁alternatif	-10.2647
ense	-10.2648
▁Pre	-10.2651
63	-10.2653
▁°	-10.2654
pat	-10.2658
▁2021	-10.2661
▁kendali	-10.267
▁Nan	-10.2672
▁Portugal	-10.2673
▁n	-10.2676
▁satuan	-10.2676
fo	-10.268
▁menambahkan	-10.2686
َ	-10.2688
▁Daniel	-10.2692
seperti	-10.2698
▁kuliah	-10.2699
TV	-10.27
▁menangkap	-10.27
▁Nusantara	-10.2701
kam	-10.2703
▁Industri	-10.2703
ase	-10.2705
▁tampaknya	-10.2706
▁fokus	-10.2707
▁Suriah	-10.2708
▁agung	-10.271
▁polen	-10.2711
▁makhluk	-10.2712
▁sejenis	-10.2718
▁ilmuwan	-10.2719
atus	-10.2724
▁rangkaian	-10.2727
▁lulusan	-10.274
▁Awalnya	-10.274
▁Anda	-10.2748
▁langkah	-10.2748
▁berganti	-10.2748
▁bertelur	-10.2754
▁stadion	-10.2763
▁rel	-10.2764
▁Radio	-10.2772
51	-10.2777
▁setidaknya	-10.2778
▁materi	-10.278
▁lolos	-10.278
ary	-10.2783
▁ruangan	-10.2784
▁Pak	-10.2787
▁gelap	-10.2788
▁Mata	-10.2792
▁Ortodoks	-10.2792
▁skala	-10.2811
low	-10.2811
Ga	-10.2813
▁wali	-10.2817
▁padang	-10.2819
▁Bombyliidae	-10.2822
▁Guru	-10.2824
atan	-10.2831
▁en	-10.2834
▁undang	-10.2838
▁menempatkan	-10.2838
stra	-10.2843
▁anaknya	-10.2846
▁Lan	-10.2849
▁sejarawan	-10.285
▁gangguan	-10.2852
▁pajak	-10.2855
▁menyerahkan	-10.2858
▁Muara	-10.2858
▁Komunis	-10.2859
▁Lin	-10.2859
dra	-10.2859
▁All	-10.2866
sang	-10.2867
▁man	-10.2867
▁dipengaruhi	-10.2871
▁Dar	-10.2873
▁Natal	-10.2885
▁potensi	-10.2891
▁Manusia	-10.29
▁ayat	-10.2901
▁solo	-10.291
03	-10.2911
▁setahun	-10.2912
▁diduga	-10.2914
▁matematika	-10.2917
▁32	-10.2918
92	-10.2918
▁kering	-10.2919
Ca	-10.2919
Bi	-10.2922
▁80	-10.2922
▁sapi	-10.2929
▁Tour	-10.2929
▁Mac	-10.2932
▁elektron	-10.2935
ua	-10.2937
▁—	-10.2937
▁Matahari	-10.294
▁kualifikasi	-10.2941
pak	-10.2944
▁Bangunan	-10.2945
-13	-10.2947
batas	-10.2952
▁pasca	-10.2956
ator	-10.2958
▁he	-10.2959
lus	-10.2965
anda	-10.2966
▁mengundurkan	-10.2966
▁Bentuk	-10.2969
▁isi	-10.2978
▁menyadari	-10.2978
▁Lima	-10.2979
▁Pesawat	-10.2988
▁kamar	-10.2993
▁Beijing	-10.2997
▁Best	-10.2997
▁pengganti	-10.2998
▁Corporation	-10.3005
tempat	-10.3008
▁Frank	-10.301
▁anjing	-10.3014
▁memanfaatkan	-10.3016
tidak	-10.3022
▁South	-10.3024
▁internet	-10.3027
▁satunya	-10.3028
▁hotel	-10.3034
▁Dewi	-10.3036
▁kritikus	-10.3042
lai	-10.3044
▁Demokrat	-10.3045
▁analisis	-10.3046
▁Tegal	-10.3046
▁Tapi	-10.3047
▁menyebar	-10.3048
gal	-10.3055
▁beliau	-10.3056
▁dialek	-10.3067
thi	-10.3069
▁County	-10.3069
▁game	-10.3071
93	-10.3076
▁Az	-10.3079
▁hiburan	-10.3082
▁kala	-10.3087
mba	-10.3089
▁Sin	-10.3097
94	-10.3104
long	-10.3104
▁punya	-10.3108
▁Paulus	-10.3109
▁College	-10.3112
▁Putih	-10.3118
▁Edward	-10.3118
▁kekerasan	-10.3119
▁bar	-10.3119
▁berlanjut	-10.312
▁bukit	-10.312
bul	-10.3121
▁manga	-10.3129
▁Produksi	-10.3129
▁ne	-10.313
▁serangkaian	-10.3139
▁menderita	-10.3143
▁Geografi	-10.3147
▁zat	-10.3147
81	-10.3155
▁RT	-10.3157
mann	-10.3158
sing	-10.3159
mah	-10.3163
▁terjun	-10.3163
▁Ketiga	-10.3176
02	-10.3176
ist	-10.3176
▁lawan	-10.3186
▁Fasilitas	-10.3192
▁Bal	-10.3194
rit	-10.3194
▁iklan	-10.3199
▁bom	-10.3201
▁1994	-10.3208
▁kejuaraan	-10.3209
▁surya	-10.3213
ps	-10.3213
▁Jadi	-10.3218
▁One	-10.3223
▁selamat	-10.3223
▁musisi	-10.3224
▁negatif	-10.3228
kas	-10.3228
▁karbon	-10.3232
▁siapa	-10.3234
▁menara	-10.3245
▁Situs	-10.3246
abad	-10.3247
▁format	-10.3248
▁Hilir	-10.325
Coleoptera	-10.3251
▁70	-10.3256
▁King	-10.3257
▁agak	-10.3258
▁anime	-10.3259
▁Kawasan	-10.326
▁dipercaya	-10.3261
▁Amor	-10.3262
-17	-10.3263
▁mengalir	-10.3268
▁Ze	-10.3268
▁pembuat	-10.3274
tre	-10.3274
_	-10.3276
uri	-10.3277
lit	-10.3279
▁Imam	-10.328
zu	-10.328
-16	-10.3285
Fa	-10.3285
Buprestidae	-10.3286
▁mengajukan	-10.3286
Pen	-10.3286
▁pensiun	-10.3307
▁Daya	-10.3316
▁Kepler	-10.3317
cia	-10.3321
ō	-10.3321
▁perayaan	-10.3332
82	-10.3332
fu	-10.3333
mana	-10.3343
▁Washington	-10.3345
dam	-10.3345
lik	-10.3349
akan	-10.335
▁rekor	-10.3353
▁makna	-10.3355
▁gugur	-10.336
▁On	-10.3363
▁rahasia	-10.337
▁mula	-10.3373
jak	-10.3376
▁filsafat	-10.3378
▁poli	-10.3379
baru	-10.338
▁Eu	-10.3386
▁Pol	-10.3387
▁Cho	-10.3393
▁Mataram	-10.3395
▁umur	-10.3399
sy	-10.3399
▁1992	-10.3404
▁dll	-10.3405
▁pegawai	-10.3405
-14	-10.3406
▁ti	-10.3408
pada	-10.341
▁Kas	-10.3417
ure	-10.3419
juga	-10.3426
kapal	-10.3426
anti	-10.3429
▁lamela	-10.343
▁pelatih	-10.343
▁roda	-10.3432
▁siaran	-10.3435
isi	-10.3435
▁Pegunungan	-10.3449
pati	-10.345
ü	-10.3452
▁golongan	-10.3458
▁kepadatan	-10.3459
▁pemikiran	-10.346
▁Fi	-10.3461
▁Panjang	-10.3467
▁pembawa	-10.3475
);	-10.3491
▁senior	-10.3491
ó	-10.3495
ero	-10.3497
ns	-10.3499
▁Tujuan	-10.3505
▁baja	-10.3508
▁Pem	-10.351
▁ditutup	-10.351
▁Scarabaeidae	-10.3511
▁Prof	-10.3516
▁medis	-10.3518
▁ikatan	-10.3521
▁mengirimkan	-10.3521
▁Candi	-10.3522
▁promosi	-10.3532
▁Inter	-10.3541
▁kampus	-10.3541
▁ditambah	-10.3544
pal	-10.3545
uan	-10.3546
ys	-10.3552
▁Sakit	-10.3553
▁bergantung	-10.3557
▁terkemuka	-10.3557
▁aksara	-10.356
▁indah	-10.3561
▁mendengar	-10.3563
▁Tangerang	-10.3563
▁bupati	-10.3564
▁Pertahanan	-10.3572
▁marga	-10.3572
▁Zi	-10.3574
▁Final	-10.3576
bia	-10.3578
So	-10.3579
berg	-10.3579
▁1980	-10.3581
▁Mon	-10.3586
▁pers	-10.359
▁Hanya	-10.3592
▁pemilu	-10.3594
dak	-10.3597
▁Misalnya	-10.3602
ali	-10.3606
▁ulama	-10.3606
menyelenggarakan	-10.3607
▁komandan	-10.3608
-9	-10.3618
-11	-10.3622
▁bukanlah	-10.3622
▁Den	-10.3624
▁Mor	-10.3625
section	-10.3626
▁Astragalus	-10.3626
dai	-10.3626
▁dikalahkan	-10.3633
ori	-10.3649
dung	-10.3653
▁Drs	-10.3654
▁gua	-10.3659
▁kekalahan	-10.3664
▁sikap	-10.3665
▁berpindah	-10.3665
▁garapan	-10.3668
▁Eurovision	-10.367
▁normal	-10.3672
▁Selandia	-10.3675
▁setuju	-10.3678
tic	-10.3679
ski	-10.3681
▁Club	-10.3684
▁zona	-10.3689
▁gempa	-10.3697
▁formal	-10.37
▁gula	-10.37
▁perak	-10.3705
▁izin	-10.3705
▁terbit	-10.3708
▁Black	-10.3713
▁2005.	-10.3717
bert	-10.3718
";	-10.3722
▁Up	-10.3727
▁kolonial	-10.3728
▁45	-10.3731
pon	-10.3734
ati	-10.3737
line	-10.3743
ray	-10.3744
▁01	-10.3749
▁apapun	-10.3753
lek	-10.3753
▁disimpan	-10.3761
▁meriam	-10.3765
▁Disney	-10.3767
log	-10.3768
km	-10.3774
ira	-10.3775
▁diharapkan	-10.3775
▁Model	-10.3776
lla	-10.3776
š	-10.3779
▁kunci	-10.3779
▁Solo	-10.379
▁membintangi	-10.3796
RI	-10.3802
▁Cara	-10.3802
▁perannya	-10.3802
▁kartu	-10.3802
ré	-10.3805
▁Surakarta	-10.3812
▁tidur	-10.3813
tong	-10.382
▁Harry	-10.3821
▁guna	-10.383
Senecio	-10.3837
ndang	-10.3853
▁Serial	-10.3854
▁Palembang	-10.3854
▁Mun	-10.3857
▁aman	-10.3858
▁1991	-10.386
eus	-10.3862
▁At	-10.3868
▁Anti	-10.3868
▁tersisa	-10.3873
▁diatur	-10.3875
Dendrobium	-10.3881
▁Adapun	-10.3885
án	-10.3886
gun	-10.389
▁Pengadilan	-10.389
▁ribu	-10.3892
▁"(	-10.3893
▁gigi	-10.3894
field	-10.3897
▁1980-	-10.3899
tam	-10.39
▁1993	-10.3907
abu	-10.3907
▁terkadang	-10.391
▁ras	-10.3913
▁minuman	-10.3914
▁sinetron	-10.3914
▁ru	-10.392
▁ex	-10.3921
via	-10.3925
▁penyelenggaraan	-10.393
▁Ak	-10.393
ala	-10.3934
▁Sekitar	-10.3935
▁Sampai	-10.3937
▁buruh	-10.3946
▁Sch	-10.3947
▁Tephritidae	-10.3947
▁raksasa	-10.3948
duk	-10.3949
▁Mal	-10.3951
▁beragama	-10.3953
Or	-10.3956
my	-10.3962
turut	-10.3962
▁Adi	-10.3963
▁membayar	-10.3965
▁1945	-10.3979
▁harapan	-10.398
dus	-10.3981
▁jurusan	-10.3984
ev	-10.3984
hat	-10.3985
▁pasien	-10.3991
Ti	-10.3992
▁direktur	-10.3998
▁der	-10.4
▁ayam	-10.4001
wang	-10.4004
dua	-10.4004
▁kelapa	-10.4004
▁memasukkan	-10.4005
rasi	-10.4014
▁dikelola	-10.4015
▁Royal	-10.4017
▁menghentikan	-10.4022
ide	-10.4022
▁padi	-10.4024
▁mengisi	-10.4024
▁Simon	-10.4025
xi	-10.4028
▁lambang	-10.4028
▁Konstitusi	-10.4029
▁Dayak	-10.403
rik	-10.4036
▁itulah	-10.4037
pol	-10.4039
▁Tanggal	-10.4042
▁Bengkulu	-10.4043
▁Sekutu	-10.4045
▁Saudi	-10.4048
▁pasir	-10.4059
▁Records	-10.4059
▁4.	-10.4066
nga	-10.4066
▁Api	-10.4073
▁Armenia	-10.4079
pel	-10.4085
▁Empat	-10.4085
▁pekan	-10.4086
▁Episode	-10.4086
jin	-10.4087
ou	-10.4088
▁sepeda	-10.4089
▁Masehi	-10.4089
▁Abdullah	-10.4091
▁susu	-10.4092
▁luka	-10.4099
pit	-10.41
▁Ten	-10.4101
▁bulat	-10.4101
▁kebebasan	-10.4105
jah	-10.4106
eu	-10.4107
▁ditandai	-10.4108
▁1988	-10.4118
▁mempengaruhi	-10.4125
▁hadiah	-10.4131
▁1989	-10.4134
▁dibutuhkan	-10.4136
dha	-10.4138
▁Wales	-10.4146
▁Wang	-10.415
▁Show	-10.4156
▁Cerita	-10.4156
ib	-10.4157
▁diresmikan	-10.4164
▁syarat	-10.4174
▁keenam	-10.4175
Jo	-10.4178
▁agen	-10.4186
▁Penelitian	-10.4191
▁terbaru	-10.4198
▁Tari	-10.4199
▁Zaman	-10.4203
▁konstruksi	-10.4204
▁memerlukan	-10.4205
▁sengaja	-10.4205
tua	-10.4212
▁by	-10.4214
▁Mars	-10.4215
▁Association	-10.4216
▁Kal	-10.4219
▁Pengembangan	-10.4226
▁Land	-10.4227
Co	-10.4228
▁Hall	-10.423
▁eks	-10.4236
Go	-10.4236
▁Gen	-10.424
▁benua	-10.4241
▁lubang	-10.4249
▁Ayahnya	-10.4251
▁pasal	-10.4255
▁dimakamkan	-10.4257
▁Wanita	-10.4261
II	-10.4264
▁pelajar	-10.4267
▁dilanjutkan	-10.4268
▁gabungan	-10.4268
▁Luas	-10.4273
▁diper	-10.4274
▁meski	-10.4275
well	-10.4288
▁Airlines	-10.4292
▁pelaksanaan	-10.4292
rum	-10.4298
ngga	-10.4298
▁Internet	-10.4299
▁Utsmaniyah	-10.43
▁penggemar	-10.4307
▁ditambahkan	-10.4313
▁Pertandingan	-10.4315
og	-10.4318
ish	-10.432
▁menge	-10.4324
▁risiko	-10.4329
▁digelar	-10.4331
Asparagales	-10.4332
▁Formula	-10.4342
▁tahta	-10.4345
ano	-10.4351
▁Pertanian	-10.436
▁menyimpan	-10.4363
▁eksekutif	-10.4366
▁Pondok	-10.4366
▁Ph	-10.4374
▁90	-10.4376
ft	-10.4379
▁memperkuat	-10.438
▁Sal	-10.4385
▁ditujukan	-10.4385
▁kesalahan	-10.4389
▁diterapkan	-10.4393
ct	-10.441
▁Jambi	-10.4411
▁ritual	-10.4412
▁Catatan	-10.4413
▁Aku	-10.4416
▁Balai	-10.4418
▁Politik	-10.4418
▁bervariasi	-10.442
Vi	-10.4423
jen	-10.4428
▁300	-10.4429
▁Ab	-10.4433
▁diyakini	-10.4433
▁berturut	-10.4434
▁dagang	-10.4435
▁Minahasa	-10.4435
▁menambah	-10.4436
▁It	-10.4437
▁debutnya	-10.4444
▁pembukaan	-10.4444
▁kira	-10.4448
▁(),	-10.4451
▁strategis	-10.4453
ges	-10.4461
▁sah	-10.4462
▁otomatis	-10.4464
won	-10.4465
Do	-10.4467
▁melintasi	-10.4469
▁Google	-10.447
▁tropis	-10.4471
▁Bur	-10.4472
▁disusun	-10.4478
▁Sel	-10.4479
▁ancaman	-10.4484
kali	-10.4495
▁dianugerahi	-10.4496
▁terpaksa	-10.45
2,	-10.4503
▁dilantik	-10.4504
Po	-10.451
▁peta	-10.4516
▁Day	-10.4528
▁Yi	-10.4529
▁Khusus	-10.4529
▁bersenjata	-10.453
▁Top	-10.4536
pp	-10.4546
▁terminal	-10.4548
▁Far	-10.4549
Lu	-10.455
▁Bay	-10.4552
▁tank	-10.4553
▁pembagian	-10.4556
▁Alexander	-10.4557
▁Minangkabau	-10.4558
▁menuntut	-10.4558
▁Fe	-10.4559
▁cocok	-10.456
▁menurun	-10.4566
▁kaca	-10.4569
bung	-10.4575
▁menangani	-10.4575
ant	-10.4576
pes	-10.4577
oi	-10.4582
una	-10.4585
▁pendirian	-10.459
▁Tipulidae	-10.4592
▁geografis	-10.4593
▁Jam	-10.4594
▁terkena	-10.4595
yn	-10.4596
▁Abad	-10.4602
▁Peraturan	-10.4608
▁kesepakatan	-10.4615
▁dipanggil	-10.4619
▁dipasang	-10.4624
▁basis	-10.4625
▁Val	-10.463
▁festival	-10.4631
▁harian	-10.4632
▁ad	-10.4634
▁Struktur	-10.4638
▁pangkat	-10.4643
ela	-10.4645
▁setara	-10.4645
▁persamaan	-10.4649
▁bencana	-10.4649
tai	-10.4649
▁terbukti	-10.465
▁pengunjung	-10.4656
▁tahunan	-10.4664
uma	-10.4666
▁penjaga	-10.4667
▁Minggu	-10.467
▁peneliti	-10.4671
500	-10.4674
▁Proyek	-10.4679
–20	-10.4682
▁Batak	-10.4682
▁Society	-10.4683
tim	-10.469
▁prasasti	-10.4691
▁CD	-10.4691
▁bersaudara	-10.4691
▁kontrol	-10.4693
▁kanker	-10.4695
▁menyukai	-10.4699
▁lelaki	-10.47
gat	-10.4701
▁mempromosikan	-10.4708
▁sinyal	-10.4712
eb	-10.4713
▁rusak	-10.4713
kus	-10.4719
▁Sho	-10.4719
▁Mary	-10.4719
air	-10.4721
▁Pasal	-10.4722
Ber	-10.4728
▁sp	-10.4731
▁Bas	-10.4733
ez	-10.4735
▁Champions	-10.4735
▁meja	-10.4735
▁tertarik	-10.4745
▁memerankan	-10.4745
▁1990-	-10.4746
▁Es	-10.4747
masa	-10.4747
▁Yan	-10.4748
▁karang	-10.4749
▁mengenakan	-10.4749
▁kesulitan	-10.4755
▁Berbagai	-10.4761
▁Liu	-10.4768
▁papan	-10.4772
▁kehormatan	-10.4775
▁produsen	-10.4777
▁menjadikannya	-10.4777
▁2004.	-10.4781
$	-10.4781
100	-10.4792
tama	-10.4793
▁She	-10.4793
▁mengaku	-10.4794
▁Japan	-10.4795
▁komposisi	-10.4797
▁3.	-10.48
▁otak	-10.4804
▁!	-10.4811
▁rambut	-10.4821
▁binatang	-10.4824
▁Nias	-10.483
▁seekor	-10.4839
▁pendekatan	-10.484
▁akar	-10.4846
▁kakak	-10.4847
▁Jl	-10.4847
▁strategi	-10.4848
▁Linyphiidae	-10.4848
▁Tra	-10.4852
Kota	-10.4854
buku	-10.4854
▁Rock	-10.4856
▁Tai	-10.4862
▁diadopsi	-10.4865
▁Sehingga	-10.4865
▁perawatan	-10.487
▁Pranala	-10.4872
▁Lebih	-10.4872
▁target	-10.4872
▁League	-10.4876
▁semangat	-10.4876
▁Mycetophilidae	-10.4879
▁Adam	-10.4882
▁hi	-10.4886
▁Kegiatan	-10.489
port	-10.4896
▁Anna	-10.4897
▁direncanakan	-10.4897
▁menyampaikan	-10.4904
nar	-10.4907
▁Ker	-10.4908
▁halnya	-10.4908
▁penemuan	-10.4908
▁memper	-10.4912
ksi	-10.4915
bagian	-10.4917
▁Indo	-10.4922
▁rupa	-10.4924
▁infeksi	-10.4925
lihat	-10.4931
▁stabil	-10.4939
sam	-10.494
▁Ulu	-10.4941
▁Terminal	-10.4941
MI	-10.4941
ulang	-10.4941
▁Kara	-10.4942
▁Referensi	-10.4942
dengan	-10.4944
▁lemah	-10.4951
▁sekelompok	-10.4953
▁Bang	-10.4953
hir	-10.4954
▁SMK	-10.4954
▁Ren	-10.4956
▁Bapak	-10.4961
▁kamera	-10.497
▁Sp	-10.4971
▁Toba	-10.4973
tun	-10.4979
Kategori	-10.4982
▁y	-10.4988
▁Komando	-10.4989
bor	-10.4991
▁garam	-10.4996
ore	-10.5002
▁kumpulan	-10.5009
das	-10.5012
▁pergerakan	-10.5015
pha	-10.5015
uran	-10.5018
▁Juga	-10.5018
▁Fer	-10.5034
▁menerapkan	-10.5035
▁Asal	-10.5041
▁kepadanya	-10.5042
▁ditugaskan	-10.5043
▁h	-10.5045
▁tertulis	-10.5048
tiba	-10.5049
▁berdirinya	-10.5051
▁internal	-10.5052
▁pangeran	-10.5054
▁Karl	-10.5061
▁Kutai	-10.5066
▁penulisan	-10.5066
▁Klub	-10.5076
▁May	-10.5081
sik	-10.5082
▁material	-10.5084
▁Jack	-10.509
▁ibadah	-10.509
▁suami	-10.5091
▁Ang	-10.5091
▁Ye	-10.5092
▁pem	-10.5096
▁Tapanuli	-10.5099
▁urusan	-10.5102
▁justru	-10.5107
mula	-10.5113
▁berangkat	-10.5115
▁memaksa	-10.5122
▁Bidang	-10.5123
▁2001,	-10.5123
▁Itu	-10.5129
rt	-10.5131
▁mengganti	-10.5132
Pi	-10.5133
▁Ai	-10.5134
▁Ger	-10.5135
▁Pictures	-10.5136
▁1970-	-10.5136
illa	-10.5137
▁kekayaan	-10.514
▁terlebih	-10.5141
▁Kisah	-10.5148
▁adegan	-10.5148
▁gu	-10.5152
Ni	-10.5159
▁penari	-10.5167
▁atap	-10.5169
▁Komandan	-10.5175
▁Asosiasi	-10.5176
▁ki	-10.5177
ous	-10.5177
▁Ch	-10.5179
cap	-10.5188
tah	-10.5189
dor	-10.5189
▁Art	-10.5189
▁Surya	-10.5189
▁uji	-10.5195
▁kesenian	-10.5197
▁Shu	-10.5198
▁3.000	-10.5203
▁sinar	-10.5206
▁keinginan	-10.5207
▁1960	-10.5208
▁Il	-10.5215
▁malah	-10.5219
sal	-10.5221
▁2003,	-10.5223
▁domestik	-10.5224
▁Sta	-10.5228
lly	-10.523
▁organ	-10.5234
▁COVID	-10.5235
IP	-10.5235
▁saudaranya	-10.5236
▁padat	-10.5238
▁Sur	-10.5245
▁siap	-10.5247
▁biji	-10.5247
Amerika	-10.5247
▁Soekarno	-10.525
Tu	-10.5262
▁Ng	-10.5265
▁dipandang	-10.5267
▁Georgia	-10.5269
lor	-10.5269
▁ho	-10.5271
▁komik	-10.5274
▁Lokasi	-10.5276
▁pengakuan	-10.5276
▁seiring	-10.528
desa	-10.5281
▁angkutan	-10.5282
▁staf	-10.5287
seri	-10.529
▁Inc	-10.529
▁For	-10.5291
▁regional	-10.5294
▁ban	-10.5297
bol	-10.5301
▁kedatangan	-10.5306
▁Shah	-10.5307
▁organik	-10.5308
▁pencarian	-10.5312
▁Keuangan	-10.5313
▁diterjemahkan	-10.5314
è	-10.5319
”.	-10.5322
shan	-10.5325
▁Kai	-10.5325
▁fase	-10.533
nta	-10.5331
▁Street	-10.5339
PS	-10.534
▁Perubahan	-10.534
kir	-10.5344
Pulau	-10.5345
▁Ham	-10.5346
▁FA	-10.5347
▁Jembatan	-10.5352
mit	-10.5353
▁melambangkan	-10.5354
▁membahas	-10.5355
Ge	-10.5357
ichi	-10.536
▁Teori	-10.5361
▁Gorontalo	-10.5362
daerah	-10.5367
▁penyebab	-10.5373
▁1970	-10.5377
▁Mur	-10.5378
▁karyawan	-10.5381
▁manajer	-10.5381
▁Deli	-10.5384
▁Albert	-10.5392
rai	-10.5396
gin	-10.5399
▁Pati	-10.5403
▁dibantu	-10.5407
▁Bus	-10.5408
▁Salticidae	-10.541
▁Federasi	-10.5411
sir	-10.5415
but	-10.542
▁Pat	-10.5425
non	-10.5428
▁Armada	-10.5429
▁teknis	-10.5432
▁Bulbophyllum	-10.5432
cat	-10.5437
▁Bor	-10.5437
kawa	-10.5438
pri	-10.544
▁Peristiwa	-10.544
▁Fox	-10.5441
ping	-10.5443
▁Smith	-10.5446
ili	-10.5447
▁ide	-10.5448
▁Carex	-10.5448
▁menggabungkan	-10.545
▁terdaftar	-10.545
dhi	-10.545
▁Chu	-10.5451
▁Ana	-10.5452
St	-10.5452
▁tulis	-10.5457
▁balap	-10.5463
ford	-10.5465
▁Periode	-10.5474
▁perlawanan	-10.5474
iya	-10.5482
▁terjual	-10.5492
▁mengenal	-10.5494
▁Bayern	-10.5495
tara	-10.5497
▁Gal	-10.5498
▁ular	-10.5499
▁Wei	-10.5501
▁Muhammadiyah	-10.5503
cher	-10.5505
asa	-10.5505
▁j	-10.5513
▁Staf	-10.5517
▁1985	-10.5517
▁dikuasai	-10.5524
▁Haji	-10.5525
tter	-10.5527
▁Microsoft	-10.5529
rd	-10.5536
▁halus	-10.5537
▁Suatu	-10.5544
▁menunjuk	-10.5548
▁1950	-10.5549
▁car	-10.5554
▁Bel	-10.5556
▁mengelola	-10.5556
▁Cer	-10.5561
ec	-10.5566
▁pesta	-10.5567
▁Cal	-10.5567
oni	-10.5573
hai	-10.5574
▁penurunan	-10.5576
yer	-10.5584
meng	-10.5589
▁menyerah	-10.5592
kor	-10.5594
▁Permainan	-10.5601
▁paruh	-10.5603
gue	-10.5606
inus	-10.5607
▁candi	-10.5608
mbu	-10.5608
iz	-10.561
▁Bone	-10.5612
▁liar	-10.5618
1"	-10.562
▁melepaskan	-10.5622
▁sosok	-10.5622
rumah	-10.5628
harjo	-10.5629
▁Tur	-10.5632
▁1966	-10.5635
▁Bila	-10.5637
▁pengobatan	-10.5639
▁Mr	-10.564
▁SK	-10.5641
▁marah	-10.5642
▁pemerintahannya	-10.5644
▁kain	-10.5645
▁dinominasikan	-10.5646
▁perdamaian	-10.5654
▁otoritas	-10.5659
▁lembab	-10.5659
▁1999,	-10.5659
▁distribusi	-10.5662
▁pas	-10.5665
az	-10.5668
▁Bekasi	-10.5672
▁lirik	-10.5678
5%	-10.5679
▁02	-10.568
▁Bagi	-10.5681
▁Bima	-10.5684
▁Samudra	-10.5689
▁je	-10.569
▁membela	-10.5691
▁partikel	-10.5691
▁bunuh	-10.5691
▁VII	-10.5691
▁Pekan	-10.5693
▁investasi	-10.5696
eta	-10.5698
pra	-10.5706
▁/&	-10.5708
▁fisika	-10.5709
▁legenda	-10.5709
ef	-10.5711
▁konsentrasi	-10.5711
▁mulut	-10.5714
▁definisi	-10.5728
▁ditempuh	-10.5732
▁mengoperasikan	-10.5732
▁roti	-10.5734
▁mendekati	-10.5737
▁Ibnu	-10.5737
▁parah	-10.5739
▁kritik	-10.5739
▁Akhir	-10.5744
▁Pas	-10.5749
▁aktivis	-10.5754
▁Bra	-10.5755
▁dilayani	-10.5757
▁Jun	-10.5762
▁mahkota	-10.5762
▁Games	-10.5763
▁1984	-10.5763
▁sawah	-10.5769
▁tertutup	-10.577
▁wilayahnya	-10.5778
gh	-10.5781
▁Vol	-10.5782
▁latihan	-10.5783
▁wajib	-10.579
▁Golden	-10.579
▁menandai	-10.5798
▁Selat	-10.5799
Pan	-10.5802
▁supaya	-10.5803
▁Wangsa	-10.5809
ted	-10.5811
▁Musa	-10.5827
▁pemukiman	-10.5831
▁33	-10.5832
rs	-10.5833
▁Finlandia	-10.5836
ee	-10.5839
▁...	-10.584
▁Life	-10.5845
ence	-10.5846
kes	-10.585
▁Persatuan	-10.5851
▁Waktu	-10.5853
▁2000,	-10.5856
▁Kerja	-10.5856
▁pelanggan	-10.5856
SI	-10.5859
▁Dong	-10.5859
▁Naga	-10.586
▁Pelabuhan	-10.5862
▁Unit	-10.5873
▁kerap	-10.5875
▁pre	-10.5875
▁Elizabeth	-10.5879
mb	-10.5882
▁Sydney	-10.5884
▁reformasi	-10.5885
▁varian	-10.5886
▁wi	-10.5888
▁Seluruh	-10.5892
▁Institute	-10.5893
▁wajah	-10.5895
beda	-10.5895
▁Maya	-10.5899
▁mengingat	-10.59
;&	-10.5901
MA	-10.5901
▁Jepara	-10.5908
▁berbagi	-10.5911
plo	-10.5911
▁Biasanya	-10.5921
▁Efek	-10.5923
▁tarian	-10.5924
eo	-10.5927
ile	-10.5927
▁sempurna	-10.5929
oma	-10.593
▁berkisar	-10.5931
▁Milan	-10.5933
▁kasih	-10.5933
▁sesama	-10.5934
▁r	-10.5937
mir	-10.594
▁Data	-10.5942
▁mendarat	-10.5947
▁kesuksesan	-10.5949
▁Rumania	-10.5949
▁House	-10.5952
▁Semenanjung	-10.5954
▁Kecil	-10.5962
▁terjemahan	-10.5966
▁memahami	-10.5967
▁Victoria	-10.5977
mpu	-10.5977
▁adaptasi	-10.5977
bas	-10.5979
▁menyanyikan	-10.5985
ow	-10.5986
▁KA	-10.5986
▁pangan	-10.5987
kala	-10.5989
▁bakat	-10.599
ndi	-10.5991
suku	-10.5994
▁Sastra	-10.6001
▁(17	-10.6004
▁Saudara	-10.6004
▁mono	-10.6004
▁memastikan	-10.6009
ipennis	-10.6019
▁berpikir	-10.602
1.	-10.6021
barang	-10.6022
far	-10.6023
ix	-10.6027
▁peluncuran	-10.603
▁bertambah	-10.6034
anto	-10.6035
▁DNA	-10.6036
▁detik	-10.6046
▁dimaksudkan	-10.6046
▁komando	-10.6047
▁serius	-10.6047
▁kabel	-10.6053
▁dilarang	-10.6054
▁jari	-10.6055
▁senapan	-10.6058
her	-10.6062
://	-10.6063
▁Pesantren	-10.6065
▁cairan	-10.6065
▁nya	-10.6067
▁Indra	-10.6067
cker	-10.6068
▁Bre	-10.6068
▁prestasi	-10.6071
▁Panglima	-10.6074
▁damai	-10.6076
▁Young	-10.6079
uli	-10.6081
Resolusi	-10.6085
▁frekuensi	-10.6089
▁British	-10.609
PT	-10.6095
wangi	-10.6096
▁persetujuan	-10.6098
▁tes	-10.6107
▁menga	-10.6107
▁Informasi	-10.6114
▁Batavia	-10.6116
▁Kin	-10.612
▁disajikan	-10.6129
mont	-10.614
▁36	-10.6144
▁Pimpinan	-10.6147
zan	-10.6151
▁koloni	-10.6152
▁Boeing	-10.6152
▁krisis	-10.6153
Ho	-10.6155
▁PS	-10.6157
▁jabatannya	-10.6162
of	-10.6164
▁pemakaman	-10.6169
▁operator	-10.6169
▁kg	-10.6176
▁Antara	-10.6176
▁hendak	-10.6177
▁Babak	-10.6178
▁gejala	-10.6183
sco	-10.6183
▁segi	-10.6184
rie	-10.6185
vis	-10.6187
ä	-10.6198
▁murni	-10.6199
sil	-10.6203
dri	-10.6204
▁warisan	-10.6206
▁sejauh	-10.6206
onal	-10.6206
▁2003.	-10.6207
▁modal	-10.6211
▁skenario	-10.6216
]],	-10.622
▁Ash	-10.6221
Ne	-10.6222
▁terhubung	-10.6226
▁menghadiri	-10.623
kewarganegaraan	-10.6231
▁pendudukan	-10.6231
▁400	-10.6232
▁2002,	-10.6234
▁Kroasia	-10.624
eg	-10.624
▁cucu	-10.6243
ene	-10.6244
▁usul	-10.6244
▁mer	-10.6244
rong	-10.6245
lau	-10.6247
▁Texas	-10.6248
yl	-10.625
nai	-10.6253
▁menye	-10.6254
icus	-10.6255
cur	-10.6258
▁keju	-10.6263
▁peninggalan	-10.6272
▁tuanya	-10.6276
=4	-10.6276
▁miskin	-10.6278
▁Lombok	-10.6278
▁terang	-10.6281
Indonesia	-10.6289
▁invasi	-10.6289
▁organisme	-10.629
▁variasi	-10.629
▁kebun	-10.6291
▁Kapten	-10.6297
▁ketujuh	-10.6298
▁Qing	-10.6299
▁pemberian	-10.63
▁Mad	-10.6301
▁konteks	-10.6304
▁Yusuf	-10.631
▁jo	-10.6312
ón	-10.6316
▁1982	-10.6318
▁mode	-10.6319
hr	-10.632
▁menurunkan	-10.632
los	-10.6323
nah	-10.6324
▁Peran	-10.6327
apan	-10.6327
pah	-10.6332
▁5.	-10.6335
▁perkawinan	-10.6337
▁platform	-10.6338
▁pelukis	-10.634
▁wawancara	-10.6341
nang	-10.6349
▁Gan	-10.6351
▁Pemain	-10.6353
osis	-10.6354
▁Green	-10.6356
zar	-10.6356
▁atlet	-10.6357
▁setia	-10.6357
▁Penerbangan	-10.6364
qi	-10.6369
▁Duta	-10.6373
kha	-10.6376
uang	-10.6376
▁tahanan	-10.6377
▁Manchester	-10.6377
▁lurus	-10.6381
qua	-10.6381
▁legislatif	-10.6382
Ki	-10.6384
stan	-10.6387
▁Ex	-10.6389
▁dimensi	-10.6394
▁WIB	-10.6396
▁Jr	-10.6398
▁penerima	-10.6402
▁Psychotria	-10.6403
cita	-10.6408
▁Ran	-10.6414
rap	-10.6418
▁pilot	-10.642
wen	-10.6424
▁berjuang	-10.6425
tika	-10.6431
qu	-10.6431
ejumlah	-10.6432
▁perahu	-10.6433
▁berfokus	-10.6434
bun	-10.6437
▁kritis	-10.6441
▁Williams	-10.6446
▁blok	-10.6447
▁pahlawan	-10.6448
▁fakta	-10.6449
▁budak	-10.6451
He	-10.6461
▁betina	-10.6462
▁Mulai	-10.6462
▁Ayat	-10.6464
▁Jabatan	-10.6464
▁kamp	-10.6464
alih	-10.6482
▁dipegang	-10.6483
▁kepemilikan	-10.6485
▁Terbuka	-10.6486
▁Mel	-10.6488
▁Kediri	-10.6488
▁Pos	-10.6493
serial	-10.6493
▁profesor	-10.6494
nilai	-10.6497
▁gerbang	-10.6502
▁High	-10.6507
▁abu	-10.6512
pulau	-10.6513
Orchidaceae	-10.6513
▁restoran	-10.6516
aran	-10.6518
▁dasarnya	-10.6519
▁derajat	-10.6521
▁keyakinan	-10.6523
▁hancur	-10.6524
▁Kra	-10.6527
Pro	-10.6528
▁Koto	-10.6532
▁Konferensi	-10.6534
▁Hot	-10.6535
gawa	-10.6536
▁pena	-10.6538
para	-10.6543
Pu	-10.6547
tokoh	-10.6551
nie	-10.6551
▁et	-10.6553
My	-10.6555
▁1960-	-10.6555
▁Ibrahim	-10.6559
▁Carl	-10.656
▁Tokoh	-10.6561
Penghargaan	-10.6562
mpa	-10.6562
▁dimanfaatkan	-10.6568
▁melarang	-10.6569
▁bersih	-10.6576
▁po	-10.6577
ell	-10.6579
▁markas	-10.6582
▁ion	-10.6584
▁memperluas	-10.6584
mbi	-10.6584
▁julukan	-10.6586
▁Boy	-10.6587
▁bersaing	-10.6588
▁Zhang	-10.6589
▁Las	-10.6589
dok	-10.6589
▁fe	-10.6592
ografi	-10.6602
▁Real	-10.6603
▁Big	-10.6604
▁diserahkan	-10.6612
kur	-10.6613
▁ulasan	-10.6613
▁gitar	-10.6619
▁ratusan	-10.662
▁hidrogen	-10.662
cak	-10.6623
wood	-10.6626
▁Way	-10.6628
▁dikaitkan	-10.6628
▁Burung	-10.6629
▁personel	-10.6631
▁mitologi	-10.6634
200	-10.6635
▁roket	-10.6636
▁peluru	-10.6641
▁beralih	-10.665
▁Singel	-10.6652
▁Bangka	-10.6654
oka	-10.6655
▁Perguruan	-10.6655
nam	-10.6656
▁2001.	-10.6657
row	-10.6661
▁bagus	-10.6662
▁Kode	-10.6663
▁kandang	-10.6664
▁menyusun	-10.6667
▁Times	-10.6673
▁Usaha	-10.6673
eni	-10.6677
king	-10.6677
▁banjir	-10.6679
Miconia	-10.6684
▁pameran	-10.6686
awan	-10.669
-21	-10.6694
▁inter	-10.6694
▁Fungsi	-10.6695
ale	-10.6697
mes	-10.6698
gy	-10.6701
▁pesat	-10.6702
▁babi	-10.6703
▁1983	-10.6704
▁menyetujui	-10.6706
▁Nam	-10.6707
▁berpusat	-10.6708
▁Th	-10.6711
zhou	-10.6711
▁Gra	-10.6712
wilayah	-10.6717
▁himpunan	-10.6719
▁Pertengahan	-10.672
▁dibesarkan	-10.672
ky	-10.6724
termasuk	-10.6727
IS	-10.673
▁berbahaya	-10.6734
▁penyebaran	-10.6737
can	-10.6741
▁pemberontak	-10.6741
▁panggilan	-10.6743
▁Bunga	-10.6746
aria	-10.6746
▁Melalui	-10.6751
ive	-10.6751
▁menunggu	-10.6751
reng	-10.6752
▁Kabinet	-10.6753
▁Hol	-10.6756
▁dinyanyikan	-10.6756
tani	-10.6758
ele	-10.6758
▁bio	-10.6758
As	-10.6761
▁republik	-10.6768
▁Time	-10.6769
▁Mesin	-10.677
fal	-10.677
band	-10.6773
▁menikmati	-10.6773
▁IX	-10.6774
▁Live	-10.6775
▁transit	-10.6775
▁Sim	-10.6776
▁Zu	-10.6777
▁siang	-10.6781
San	-10.6783
▁masakan	-10.6783
▁Layanan	-10.6785
nding	-10.679
▁Depok	-10.679
tir	-10.6791
▁komunis	-10.6792
▁anggaran	-10.6796
▁mikro	-10.6796
▁berkumpul	-10.6797
kul	-10.6799
▁nenek	-10.6802
▁News	-10.6803
▁150	-10.6805
▁harta	-10.6805
▁semesta	-10.681
iran	-10.6814
ska	-10.6817
sky	-10.6818
El	-10.6821
▁Kedung	-10.6822
▁instrumen	-10.6823
AS	-10.6824
▁Christian	-10.6827
▁dijelaskan	-10.6827
▁Hasan	-10.6832
▁kembar	-10.6832
▁pandang	-10.6833
▁Batalyon	-10.6833
▁manis	-10.6836
▁karakteristik	-10.6836
▁lingkaran	-10.6838
▁memisahkan	-10.6841
ple	-10.6847
rian	-10.6848
▁DVD	-10.6851
▁melebihi	-10.6855
▁berkat	-10.6859
▁Bin	-10.686
▁Maros	-10.686
▁34	-10.6861
cang	-10.6863
▁Athena	-10.6869
▁menjawab	-10.6869
▁up	-10.6872
▁Kondisi	-10.6875
ming	-10.6876
▁Tol	-10.6879
▁akademik	-10.6879
▁1987	-10.688
▁ju	-10.6881
▁pasukannya	-10.6882
?"	-10.6884
▁el	-10.6888
sor	-10.689
gus	-10.6891
▁beras	-10.69
ite	-10.6904
▁Benteng	-10.6905
▁konten	-10.6905
ier	-10.691
▁Mari	-10.691
▁Chang	-10.6911
▁Son	-10.6911
red	-10.6913
▁perpustakaan	-10.6916
▁Op	-10.6916
▁0.0	-10.6919
▁Gua	-10.6919
▁0,	-10.6921
gala	-10.6925
▁region	-10.6927
▁tetangga	-10.6929
▁seharusnya	-10.6929
▁Brown	-10.6937
bri	-10.6938
▁Karo	-10.694
▁menempuh	-10.6943
▁2000.	-10.6944
▁kerjasama	-10.6945
▁kacang	-10.695
▁mengejar	-10.6955
▁Sekarang	-10.6959
▁lokomotif	-10.6963
▁peperangan	-10.6963
mel	-10.6969
▁diminta	-10.6969
▁diturunkan	-10.6975
gang	-10.6977
ue	-10.6978
▁fi	-10.6979
utan	-10.6981
▁duta	-10.6983
▁Kematian	-10.6986
▁lampu	-10.6987
▁Marga	-10.6988
bir	-10.6991
rem	-10.6992
▁menyerupai	-10.6992
Men	-10.6992
▁Sei	-10.6996
▁berencana	-10.6998
▁Gun	-10.6999
▁Sumatera	-10.7001
▁kunjungan	-10.7002
nk	-10.7003
▁Motor	-10.7004
▁mengatasi	-10.7007
burg	-10.7008
▁end	-10.7008
▁Novel	-10.7018
▁(16	-10.7023
▁kru	-10.7024
▁Pop	-10.7026
▁Port	-10.7027
▁rasi	-10.7027
aka	-10.7032
▁Pemilu	-10.7033
▁juri	-10.7034
▁federal	-10.7038
▁pelaku	-10.704
▁Ser	-10.704
▁Mayor	-10.7044
awa	-10.7047
▁membuktikan	-10.7049
▁Federal	-10.7055
▁merekam	-10.7059
▁pemekaran	-10.7061
▁dicatat	-10.7064
▁sin	-10.7067
▁asisten	-10.7068
▁pengikut	-10.707
ller	-10.7074
▁baris	-10.7076
▁uap	-10.7077
▁dosen	-10.7079
▁Polisi	-10.708
ú	-10.7082
▁Open	-10.7084
▁Max	-10.7085
▁Hitam	-10.7088
ي	-10.7089
▁pengelolaan	-10.7093
▁spesifik	-10.7094
Qur	-10.7094
▁1979	-10.7097
▁Ray	-10.7104
lli	-10.7105
hid	-10.7105
▁bersejarah	-10.7108
▁atmosfer	-10.711
1,	-10.7111
▁mengendalikan	-10.7116
▁Bosnia	-10.7125
▁Rama	-10.7126
nt	-10.7128
▁Global	-10.713
▁memindahkan	-10.7133
kun	-10.7135
hin	-10.7143
lem	-10.7144
Con	-10.7145
▁penyair	-10.7146
▁biara	-10.7154
▁Mont	-10.7155
▁1981	-10.7158
▁Serangan	-10.717
▁lembah	-10.717
▁terbunuh	-10.7175
▁kalender	-10.718
▁sadar	-10.7182
▁jantan	-10.7183
mm	-10.7189
▁tersendiri	-10.7189
adi	-10.719
▁Gaya	-10.719
▁takut	-10.7194
▁(15	-10.7195
▁wartawan	-10.7198
▁Makedonia	-10.7198
mbang	-10.72
teng	-10.72
▁pembelajaran	-10.7201
▁isu	-10.7202
▁berhak	-10.7204
▁senang	-10.7207
▁resolusi	-10.7208
▁mengarah	-10.721
▁menekankan	-10.721
▁ratu	-10.7213
▁GP	-10.7216
▁1986	-10.7216
▁kar	-10.7217
Hi	-10.7219
▁Tamil	-10.7219
2"	-10.722
▁perbaikan	-10.7221
▁Roh	-10.7222
▁didefinisikan	-10.7227
alat	-10.723
tos	-10.7235
ral	-10.7237
▁dr	-10.7239
▁Fo	-10.724
▁seks	-10.7245
Ter	-10.7248
▁aset	-10.7249
▁pinggiran	-10.7251
sum	-10.7251
▁Com	-10.7252
▁cha	-10.7253
disingkat	-10.7253
▁kegagalan	-10.7254
New	-10.7255
Eugenia	-10.7256
ag	-10.7257
▁Kun	-10.7259
▁memicu	-10.726
ahan	-10.7263
▁nu	-10.7266
▁pertanyaan	-10.7267
▁Akibatnya	-10.7268
▁Jung	-10.7269
▁2002.	-10.7271
ire	-10.7273
▁tiang	-10.7274
jong	-10.7277
▁sahabat	-10.7277
▁menghormati	-10.7278
▁DKI	-10.7283
Am	-10.7289
▁mineral	-10.7289
▁Perpustakaan	-10.7292
moto	-10.7293
▁keselamatan	-10.7298
▁Prasasti	-10.7298
ste	-10.7303
▁leluhur	-10.7305
▁Bad	-10.7306
▁kemajuan	-10.7307
pos	-10.7309
▁bawang	-10.7312
▁membagi	-10.7319
kara	-10.7319
bai	-10.732
▁mengizinkan	-10.7322
ono	-10.7323
▁Au	-10.7325
▁America	-10.733
▁Chan	-10.733
▁dijuluki	-10.733
▁kehadiran	-10.733
▁memperbaiki	-10.7333
▁diam	-10.7336
▁Dinas	-10.734
ds	-10.7341
▁mengembalikan	-10.7342
▁God	-10.7344
▁Madrid	-10.7345
▁kebenaran	-10.7346
▁Syekh	-10.7348
▁makin	-10.7348
ses	-10.735
▁1978	-10.7351
▁memenangi	-10.7351
▁institusi	-10.7355
Ju	-10.7356
PA	-10.7356
nto	-10.7358
▁petugas	-10.7358
▁landasan	-10.7359
ias	-10.7359
gg	-10.7359
▁disetujui	-10.736
oli	-10.736
▁Rencana	-10.7361
▁Alex	-10.7362
sit	-10.7364
▁dalamnya	-10.7364
▁Bulgaria	-10.7365
▁Manajemen	-10.7368
▁Tsu	-10.7369
AP	-10.737
▁Sunan	-10.7371
ub	-10.7372
▁kotak	-10.7374
▁gelandang	-10.7375
▁permanen	-10.7375
ikan	-10.7378
▁North	-10.7379
▁Francisco	-10.7379
AL	-10.7381
▁mekanisme	-10.7382
▁pokok	-10.7385
▁ditolak	-10.7387
untuk	-10.7389
▁rumahnya	-10.7392
▁pelindung	-10.7393
▁Bun	-10.7397
tari	-10.7397
▁sebaliknya	-10.7399
ila	-10.7399
▁ab	-10.7404
▁moral	-10.7405
▁Chen	-10.7406
▁White	-10.7406
angka	-10.7407
AD	-10.7407
▁berguna	-10.741
thy	-10.7414
▁kombinasi	-10.7415
▁ekspedisi	-10.7417
▁pariwisata	-10.7417
wer	-10.7418
nder	-10.7418
▁revolusi	-10.742
wah	-10.7421
▁muatan	-10.7425
▁tenis	-10.7426
kom	-10.7427
ig	-10.743
▁klan	-10.7435
pem	-10.7436
Bar	-10.7436
▁Hidup	-10.7438
▁Sky	-10.744
▁penutup	-10.7443
▁kedudukan	-10.7446
▁ben	-10.7448
▁Magelang	-10.745
▁Konsep	-10.745
▁Chicago	-10.7455
▁Perkembangan	-10.7456
get	-10.7458
▁Yuan	-10.7465
▁pesantren	-10.7466
3%	-10.7468
▁Sh	-10.7472
eda	-10.7473
▁ribuan	-10.7474
▁kandungan	-10.7474
▁mac	-10.7476
nata	-10.7478
Para	-10.7483
luk	-10.7484
▁Sc	-10.7489
▁Ganda	-10.7496
▁from	-10.7496
▁Junior	-10.7497
IN	-10.7504
▁menjalin	-10.7505
aan	-10.7506
▁Villa	-10.7508
▁1944	-10.7508
▁Kemerdekaan	-10.751
▁Planet	-10.7516
▁Pala	-10.7516
▁Tunggal	-10.7517
▁membawakan	-10.7519
▁kebakaran	-10.7519
▁Wina	-10.7521
end	-10.7523
able	-10.7523
▁YouTube	-10.7524
▁Taka	-10.7527
for	-10.7531
▁tanggung	-10.7532
▁rancangan	-10.7537
▁Kita	-10.754
▁dicapai	-10.7543
yong	-10.7544
▁laboratorium	-10.7547
▁UU	-10.7547
dol	-10.7557
top	-10.7558
olo	-10.7558
▁siklus	-10.7559
▁kedalam	-10.7559
oid	-10.7562
aga	-10.7563
ich	-10.7566
▁Metode	-10.7567
▁baku	-10.7572
▁memengaruhi	-10.758
lle	-10.7583
icollis	-10.7583
▁pikiran	-10.7584
▁Pang	-10.7589
▁kekurangan	-10.7592
lima	-10.7595
ade	-10.7597
▁Majapahit	-10.7607
▁coklat	-10.7607
▁Bulu	-10.7608
▁memandang	-10.7611
▁selam	-10.7615
nggang	-10.7617
▁gratis	-10.7624
ī	-10.7625
ath	-10.7625
▁kesatuan	-10.7626
▁timbul	-10.7629
ise	-10.7629
▁Lingkungan	-10.7632
▁rantai	-10.7632
▁menonjol	-10.7634
▁Drama	-10.7638
▁Apostolik	-10.7641
court	-10.7645
▁berulang	-10.7648
▁kebiasaan	-10.7649
▁lambat	-10.7651
Car	-10.7657
run	-10.7658
ric	-10.766
mia	-10.766
▁Ur	-10.7661
▁Kini	-10.7671
ins	-10.7672
▁Madura	-10.7672
▁Network	-10.7676
▁des	-10.7681
▁merusak	-10.7681
▁Ras	-10.7683
▁pemegang	-10.7684
▁rudal	-10.7685
▁her	-10.7685
▁menutup	-10.7687
iah	-10.7688
▁riset	-10.7688
dewa	-10.7692
benda	-10.7694
▁cuaca	-10.7696
gra	-10.77
onia	-10.7701
▁mengusulkan	-10.7702
ungan	-10.7705
▁pendeta	-10.7709
▁evolusi	-10.771
shima	-10.771
▁Produk	-10.7715
▁Menara	-10.7721
awi	-10.7722
▁kontak	-10.7722
bet	-10.7726
▁Hutan	-10.7728
star	-10.7729
▁menjelang	-10.773
▁tergabung	-10.7733
▁fenomena	-10.7736
ice	-10.774
yar	-10.7743
▁tentu	-10.7744
▁menahan	-10.7751
▁membedakan	-10.7752
We	-10.7753
▁tuduhan	-10.7755
▁menegaskan	-10.7755
▁kalimat	-10.7757
▁interaksi	-10.7764
▁Bahan	-10.7766
▁online	-10.7766
Fi	-10.7767
lung	-10.7767
sei	-10.7768
▁penyimpanan	-10.7769
▁galaksi	-10.777
▁konferensi	-10.7771
Poales	-10.7771
▁Central	-10.7774
▁Kang	-10.7774
var	-10.7775
▁sekutu	-10.7775
jalan	-10.7776
eli	-10.7781
▁klasifikasi	-10.7783
▁percobaan	-10.7786
▁dimenangkan	-10.7786
diri	-10.7788
▁Im	-10.7791
▁kandidat	-10.7792
▁(1	-10.7792
▁Shanghai	-10.7792
▁berkurang	-10.7797
▁berperang	-10.7797
▁insiden	-10.7798
▁diplomatik	-10.78
ble	-10.7801
▁menyebutnya	-10.7806
▁rapat	-10.7806
▁jawa	-10.7809
▁erat	-10.7811
▁Seiring	-10.7815
▁Desain	-10.7815
udin	-10.7817
▁Zhou	-10.7824
▁gerak	-10.7824
▁Bill	-10.7825
▁dulunya	-10.7825
ongan	-10.7826
▁Critics	-10.7828
▁Tha	-10.783
▁we	-10.7832
▁direkam	-10.7832
▁Wen	-10.7835
bis	-10.7836
batu	-10.7838
▁disediakan	-10.7842
bil	-10.7842
▁Zo	-10.7845
▁habis	-10.7846
▁Ruang	-10.7851
▁pedesaan	-10.7855
▁keperluan	-10.7858
hl	-10.7861
▁banyaknya	-10.7862
uhan	-10.7863
unsur	-10.7865
tok	-10.7867
lie	-10.7869
▁Lam	-10.7875
▁sewaktu	-10.7878
ima	-10.7879
▁Qu	-10.7879
putra	-10.7881
▁Juan	-10.7884
▁Hor	-10.7887
jat	-10.7896
▁cokelat	-10.7897
▁ii	-10.7901
▁Ara	-10.7903
▁Cat	-10.7906
▁demokrasi	-10.7909
ū	-10.7909
▁paru	-10.7909
▁Channel	-10.7915
sol	-10.7918
▁Kamboja	-10.792
▁teh	-10.7921
▁kelak	-10.7921
▁lapis	-10.7924
▁wisatawan	-10.7924
▁kosong	-10.7924
▁mengajak	-10.7927
tho	-10.793
▁Night	-10.7931
▁Railway	-10.7933
kelompok	-10.7939
ight	-10.7941
▁Flores	-10.7947
▁1976	-10.7953
ER	-10.7954
▁Senecio	-10.7957
▁properti	-10.7961
▁mengadopsi	-10.7965
▁minum	-10.7968
hab	-10.7982
7%	-10.7985
▁operasional	-10.7985
▁Tua	-10.7985
▁Wil	-10.7986
lea	-10.7987
zer	-10.7987
▁Makam	-10.7987
▁bioskop	-10.7991
▁Bizantium	-10.7995
▁wujud	-10.7999
▁dijalankan	-10.8003
▁Friedrich	-10.8003
▁konsumen	-10.8006
UN	-10.8018
▁genre	-10.8018
▁Peru	-10.8021
▁anggur	-10.8025
▁semula	-10.8032
▁jahat	-10.8033
▁penjelajah	-10.8033
▁1965	-10.8035
▁Barito	-10.8038
▁Dendrobium	-10.8042
▁jaya	-10.8044
▁persiapan	-10.8044
▁Bro	-10.8049
tuk	-10.8049
Sungai	-10.805
▁keberhasilan	-10.805
▁awak	-10.8054
▁doa	-10.8054
▁terdekat	-10.8055
▁1975	-10.8056
▁cor	-10.8058
▁terluka	-10.8061
Hu	-10.8068
▁Sony	-10.8068
yung	-10.8072
▁Lahir	-10.8073
▁Pariwisata	-10.8074
▁Pasir	-10.8076
▁perasaan	-10.8084
▁visual	-10.8084
▁ditandatangani	-10.8086
▁layak	-10.8088
▁Hai	-10.809
▁Wira	-10.8092
▁Otto	-10.8093
sun	-10.8093
▁Hollywood	-10.8096
▁bambu	-10.8096
▁cadangan	-10.8098
▁pejuang	-10.8099
ward	-10.8099
8%	-10.8104
▁tubuhnya	-10.8104
▁dihuni	-10.8105
Du	-10.8106
▁Kuba	-10.811
Impatiens	-10.8114
▁Tipe	-10.8114
▁1977	-10.8115
asan	-10.8122
▁Kam	-10.8126
Tim	-10.8127
▁Infanteri	-10.8127
▁tembok	-10.8129
▁Begonia	-10.8131
▁1974	-10.8135
kini	-10.8137
▁minat	-10.814
mulyo	-10.8143
▁berdarah	-10.8147
▁Kel	-10.8149
meter	-10.8153
▁terinspirasi	-10.8153
ardi	-10.8156
▁Kebumen	-10.8163
ukan	-10.8164
▁ya	-10.8165
▁Perdagangan	-10.8166
sumber	-10.8166
▁Serdang	-10.8167
ullah	-10.8168
▁Demak	-10.8175
▁Sem	-10.8181
▁dada	-10.8182
tina	-10.8185
▁Hill	-10.8186
▁membentang	-10.8192
uni	-10.8192
▁Tam	-10.8194
▁Porifera	-10.8195
Yu	-10.8196
dir	-10.82
opsis	-10.8203
Provinsi	-10.8205
▁diselesaikan	-10.8205
ette	-10.8205
▁ce	-10.8206
▁meneruskan	-10.8208
▁juru	-10.8217
3"	-10.8218
▁Jurusan	-10.8219
▁Kuta	-10.822
▁cedera	-10.8224
▁Tor	-10.8225
SA	-10.8233
▁rasio	-10.8237
Cha	-10.8239
ل	-10.824
rama	-10.8241
usa	-10.8241
▁42	-10.8242
▁lemak	-10.8242
bahan	-10.8248
▁menghilangkan	-10.8252
▁1968	-10.8253
▁enzim	-10.8253
▁kedokteran	-10.8257
▁Letnan	-10.8257
kra	-10.8259
▁peri	-10.826
mak	-10.8261
▁saraf	-10.8267
▁Total	-10.8267
mor	-10.8269
▁ob	-10.8272
▁Katedral	-10.8275
_2	-10.8278
▁metal	-10.8279
▁menghadap	-10.828
eks	-10.8281
rek	-10.8282
▁Pemberontakan	-10.8284
town	-10.8286
Universitas	-10.8286
▁Raj	-10.8287
▁muka	-10.8289
▁dikelilingi	-10.8289
▁Ros	-10.829
▁Qa	-10.8291
▁Road	-10.8292
tiga	-10.8294
▁1967	-10.8295
▁Pin	-10.8296
▁Chris	-10.8298
kov	-10.8299
▁UN	-10.8301
▁Kor	-10.8301
▁subregnum	-10.8302
tr	-10.8304
▁bek	-10.8304
▁Dharma	-10.8305
▁Parazoa	-10.8306
▁gi	-10.8306
▁sesi	-10.8306
и	-10.8306
▁penerus	-10.8308
▁Bambang	-10.8309
▁nabi	-10.831
fan	-10.8311
▁historis	-10.8312
▁Wal	-10.8313
uda	-10.8314
▁Neo	-10.8315
▁Lanka	-10.8317
▁Senat	-10.8322
▁menampung	-10.8322
▁hu	-10.8324
:00	-10.8324
▁Em	-10.8325
4%	-10.8325
▁batuan	-10.8329
▁1999.	-10.8331
▁dijumpai	-10.8332
▁Has	-10.8332
▁biologi	-10.8336
▁Johnson	-10.8339
jati	-10.8344
sse	-10.8345
▁Bell	-10.8347
ianus	-10.8349
▁konstitusi	-10.8351
tte	-10.8352
▁murah	-10.8353
▁Lembah	-10.8354
▁Girl	-10.8354
▁terakhirnya	-10.8356
▁Km	-10.8357
▁37	-10.8357
▁Sil	-10.8361
▁kajian	-10.8362
▁(3	-10.8363
9%	-10.8363
▁dijadwalkan	-10.8365
▁didominasi	-10.8365
▁RW	-10.8366
▁larutan	-10.8373
▁Seoul	-10.8375
yat	-10.8379
▁dosa	-10.8386
▁kasar	-10.8387
▁Emas	-10.8387
bangsa	-10.839
ibu	-10.8392
▁ketat	-10.84
▁nada	-10.84
misalnya	-10.8406
▁Post	-10.8407
tem	-10.841
▁Juara	-10.841
oe	-10.8413
▁Syah	-10.8415
▁38	-10.8416
▁paus	-10.8416
▁Siti	-10.8417
▁pelanggaran	-10.8418
▁Mahasiswa	-10.8418
ر	-10.8419
▁Del	-10.8419
▁SMAN	-10.8425
▁jadwal	-10.8425
▁pengarang	-10.8425
Ru	-10.8428
▁Anne	-10.8431
oko	-10.8435
ugh	-10.8435
▁cincin	-10.8437
▁ditinggalkan	-10.844
▁SDN	-10.844
▁Good	-10.844
▁tebal	-10.8446
▁level	-10.8446
agung	-10.8448
▁nelayan	-10.8448
ayat	-10.8449
▁Aktris	-10.8449
gur	-10.8449
▁Nobel	-10.845
▁AKB	-10.845
▁Hadi	-10.8452
fin	-10.8453
▁par	-10.8453
▁Scott	-10.8455
sat	-10.8455
psi	-10.8456
▁disertai	-10.8457
Gu	-10.8457
▁merdeka	-10.8457
▁vokalis	-10.8458
▁Perempuan	-10.8461
▁Sukabumi	-10.8461
▁gugus	-10.8465
▁AL	-10.8465
▁Hitler	-10.8468
▁Kuil	-10.8472
▁penjelasan	-10.8474
rina	-10.8478
▁1973	-10.8479
phi	-10.848
▁Tugas	-10.8482
▁Yugoslavia	-10.8484
▁dipaksa	-10.8487
▁teratas	-10.8488
▁Budi	-10.849
wara	-10.8493
▁peradaban	-10.8493
▁massal	-10.8495
▁hidangan	-10.8498
sial	-10.8498
▁Kami	-10.8502
▁diadaptasi	-10.8505
▁6.	-10.8506
▁Namanya	-10.8509
▁permasalahan	-10.8511
Perang	-10.8513
Par	-10.8518
▁merayakan	-10.8524
▁Ayu	-10.8527
▁pangkalan	-10.853
▁1969	-10.8531
▁musikal	-10.8535
▁penambahan	-10.8538
ture	-10.8541
uta	-10.8544
▁(5	-10.8544
▁Komunikasi	-10.8546
▁Madiun	-10.8547
bulan	-10.8549
▁Myanmar	-10.8551
▁harinya	-10.8552
▁Lang	-10.8553
▁Lor	-10.8556
▁maksimum	-10.8558
▁1972	-10.856
▁Kolonel	-10.8561
▁diisi	-10.8563
▁kelamin	-10.8571
ome	-10.8571
On	-10.8571
▁MA	-10.8571
▁Gelar	-10.8572
ance	-10.8573
sai	-10.8574
Tri	-10.8575
dera	-10.8575
atif	-10.8579
wai	-10.8583
ness	-10.8583
▁Pesta	-10.8585
jing	-10.859
▁Nga	-10.859
▁audisi	-10.8591
Ya	-10.8593
ate	-10.8594
▁Dja	-10.8594
oto	-10.8596
▁Pekalongan	-10.8598
▁Amir	-10.8609
▁mengisahkan	-10.8615
▁pendatang	-10.8615
▁Riwayat	-10.8618
▁kinerja	-10.8618
▁was	-10.8619
▁tahan	-10.8622
▁mandiri	-10.8624
ies	-10.8624
sah	-10.8627
omyia	-10.8627
put	-10.863
▁jati	-10.863
api	-10.8632
besaran	-10.8632
3.	-10.8632
▁Ul	-10.864
▁Mem	-10.864
▁pakar	-10.8642
▁Studio	-10.8642
▁Os	-10.8643
▁Teks	-10.8643
▁Andi	-10.8643
▁permukiman	-10.8645
▁protes	-10.8645
▁Stone	-10.8646
ا	-10.8647
tch	-10.8653
RT	-10.8656
▁Rio	-10.8658
▁Asing	-10.8658
▁dominan	-10.8659
▁Cup	-10.866
▁perunggu	-10.866
▁Indah	-10.8661
▁im	-10.8663
▁Pemuda	-10.867
▁penerbitan	-10.867
ndo	-10.8672
▁ver	-10.8672
stein	-10.8673
ial	-10.8673
▁Kha	-10.8676
hana	-10.8676
▁berkas	-10.8676
▁Anton	-10.8676
▁DC	-10.8685
▁kontemporer	-10.8686
sono	-10.8686
sey	-10.8686
pis	-10.8688
▁dicetak	-10.8689
▁ac	-10.8693
▁Ismail	-10.8694
▁1998.	-10.8699
aksi	-10.8702
▁Serang	-10.8702
kap	-10.8702
▁menemui	-10.8703
kannya	-10.8706
▁mulanya	-10.8707
▁tiket	-10.871
aw	-10.8712
▁Ming	-10.8713
▁pemahaman	-10.8717
▁1948	-10.8719
▁penge	-10.8722
▁otot	-10.8722
▁that	-10.8723
▁kecantikan	-10.8723
bb	-10.8724
▁jurnalis	-10.8724
▁1963	-10.8732
sung	-10.8735
onis	-10.8738
sul	-10.8738
▁bunyi	-10.8739
▁dokumenter	-10.8741
mang	-10.8741
▁berharap	-10.8742
▁Petrus	-10.8744
▁Tibet	-10.8745
▁Mayoritas	-10.8745
▁Kepolisian	-10.8746
▁pedang	-10.8746
▁1971	-10.8746
▁bermula	-10.8748
▁Marie	-10.8751
jun	-10.8752
versi	-10.8753
▁Salib	-10.8757
ax	-10.876
▁darurat	-10.8761
▁teologi	-10.8762
▁Bla	-10.8765
▁klaim	-10.8768
▁Kebijakan	-10.877
▁Samuel	-10.8775
▁Kre	-10.8775
▁pin	-10.8778
▁tra	-10.8779
à	-10.8782
▁Simpang	-10.8783
▁kolam	-10.8784
▁Mat	-10.8787
▁kadar	-10.8795
▁Brunei	-10.8799
▁rezim	-10.8799
▁Win	-10.88
▁tuntutan	-10.8802
▁perkotaan	-10.8802
▁Team	-10.8803
▁Poso	-10.8803
▁un	-10.8806
▁dihancurkan	-10.8806
▁Ol	-10.8811
toma	-10.8812
▁dinilai	-10.8814
▁Game	-10.8818
ien	-10.882
sana	-10.8823
▁serikat	-10.8826
▁arsitek	-10.8829
▁tan	-10.8831
▁asasi	-10.8832
▁Administrasi	-10.8833
▁Azerbaijan	-10.8835
had	-10.8835
▁Mala	-10.8836
▁State	-10.8836
sto	-10.8836
Clathria	-10.8837
bro	-10.8837
Grand	-10.884
▁memperlihatkan	-10.884
▁Satuan	-10.8841
Kon	-10.8841
▁curah	-10.8847
▁pengacara	-10.8848
▁kedalaman	-10.8853
num	-10.8853
▁topik	-10.8858
aya	-10.8865
▁Meja	-10.8868
musim	-10.887
▁perekonomian	-10.8871
lina	-10.8871
▁Misi	-10.8873
▁iman	-10.8873
ubah	-10.8875
▁Sebelah	-10.8875
▁Jones	-10.8875
art	-10.8877
indo	-10.8877
ular	-10.8881
hua	-10.8882
▁kekuasaannya	-10.8884
▁Ford	-10.8886
Begonia	-10.8888
▁Banda	-10.8888
▁Dingin	-10.889
ST	-10.8893
▁dibeli	-10.8893
bek	-10.8894
▁Ron	-10.8895
▁beranggotakan	-10.8895
▁dibebaskan	-10.8896
sek	-10.8897
▁Arthur	-10.8898
▁pembaca	-10.8898
Je	-10.8899
▁Yoshi	-10.8899
▁ternak	-10.89
▁Soeharto	-10.8906
▁ditarik	-10.8909
mina	-10.8909
▁memeluk	-10.8909
▁Keduanya	-10.8911
▁Hindi	-10.8911
▁Euro	-10.8912
▁1929	-10.8913
▁mengajarkan	-10.8914
▁Kayu	-10.8915
itan	-10.8916
▁menginginkan	-10.8916
Peng	-10.8918
Sha	-10.8922
▁Purworejo	-10.8923
dian	-10.8925
Salvia	-10.8926
▁1962	-10.8931
▁penye	-10.8932
▁Dor	-10.8933
▁menaklukkan	-10.8934
▁Roman	-10.8935
▁Hawaii	-10.8936
▁minor	-10.894
▁kabinet	-10.8941
▁disampaikan	-10.8944
rut	-10.8946
▁dihentikan	-10.8948
▁reguler	-10.8948
▁1950-	-10.8951
▁Banjarmasin	-10.8955
▁pembuka	-10.8955
saki	-10.8956
▁Gajah	-10.8956
bab	-10.8957
▁75	-10.8957
Raja	-10.8961
out	-10.8961
▁Pangkalan	-10.8965
▁Etimologi	-10.8965
▁semenjak	-10.8965
yah	-10.8967
▁Mongol	-10.8967
cc	-10.8969
▁tabel	-10.8969
bintang	-10.8973
▁jurnal	-10.8975
mura	-10.8977
▁Mag	-10.8979
▁Ly	-10.8981
saat	-10.8982
▁Bat	-10.8983
▁diserang	-10.8983
ato	-10.8983
▁AC	-10.8985
uw	-10.8985
▁Mak	-10.8987
US	-10.8988
anus	-10.899
▁cantik	-10.899
lasi	-10.8992
lot	-10.8993
▁fu	-10.8998
▁VOC	-10.9001
▁nantinya	-10.9003
▁Araneidae	-10.9004
▁Bani	-10.9005
▁Apple	-10.9007
▁48	-10.901
▁hilir	-10.9011
▁Malik	-10.9011
rio	-10.9013
â	-10.9014
▁dibedakan	-10.9014
▁tajam	-10.9016
amba	-10.9017
pres	-10.9018
▁com	-10.9021
▁bakal	-10.9023
▁perbuatan	-10.9024
▁Penampilan	-10.9025
▁paket	-10.9027
▁Philip	-10.9029
▁vs	-10.9031
▁radar	-10.9033
▁Puncak	-10.9036
▁wadah	-10.9036
▁laga	-10.9037
ere	-10.9042
▁Sepanjang	-10.9043
▁mengundang	-10.9046
▁dipergunakan	-10.9046
▁bisu	-10.9048
▁Monte	-10.9049
▁roh	-10.9055
▁kesadaran	-10.9056
▁Ambon	-10.9058
▁aljabar	-10.906
cle	-10.9061
▁menyarankan	-10.9064
▁tantangan	-10.9064
cor	-10.9066
▁mengancam	-10.9067
▁Aktor	-10.9073
ngan	-10.9079
▁XII	-10.9083
mpi	-10.9085
▁dibatasi	-10.9085
▁referensi	-10.9085
▁KH	-10.9088
▁Barcelona	-10.9094
▁formasi	-10.9094
▁lisensi	-10.9094
▁Komunitas	-10.9095
▁penganut	-10.9095
▁ser	-10.9095
▁Arya	-10.9097
▁tenggelam	-10.9099
▁menyebarkan	-10.9102
KA	-10.9103
▁Lapangan	-10.9104
▁jagung	-10.9107
tanda	-10.9108
▁Joe	-10.9111
▁bukunya	-10.9112
▁Law	-10.9113
*	-10.9113
▁Will	-10.9113
use	-10.9116
▁istimewa	-10.9117
▁pengawasan	-10.9117
▁membatasi	-10.912
▁Warna	-10.9123
John	-10.9124
▁Garut	-10.9127
stro	-10.9128
▁sal	-10.9129
▁Agus	-10.913
▁Ceko	-10.9131
▁can	-10.9133
aki	-10.9134
ntang	-10.9137
daya	-10.9137
▁39	-10.9138
▁pemandangan	-10.9138
▁infrastruktur	-10.9142
▁Warisan	-10.9142
▁Wisata	-10.9142
▁baju	-10.9143
mara	-10.9144
▁Pernikahan	-10.9147
▁Blue	-10.9147
č	-10.9148
▁Asian	-10.9149
▁sasaran	-10.9149
▁Rasul	-10.9152
▁pinjaman	-10.9152
▁hanyalah	-10.9156
mbung	-10.916
▁transfer	-10.9162
▁1000	-10.9166
ug	-10.917
▁pribumi	-10.917
▁Thi	-10.9171
▁kewajiban	-10.9172
gli	-10.9173
▁kotanya	-10.9174
▁Buruh	-10.9175
▁letaknya	-10.9176
▁Ari	-10.9179
▁RS	-10.918
▁03	-10.9181
▁Pidie	-10.9181
▁perut	-10.9182
▁tol	-10.9183
Allium	-10.9189
▁Leo	-10.919
▁dinobatkan	-10.9191
sekolah	-10.9192
▁Banyuwangi	-10.9192
▁Mobil	-10.9193
▁Daud	-10.9196
▁berdua	-10.9196
▁7.	-10.9197
▁1919	-10.9198
▁Adat	-10.9201
▁Lord	-10.9202
chen	-10.9204
▁gerejawi	-10.9205
▁Ball	-10.9205
ito	-10.9208
▁bertahun	-10.9208
▁solusi	-10.921
▁Chili	-10.9213
▁cetak	-10.9214
▁susunan	-10.9215
▁General	-10.9215
uz	-10.9215
rim	-10.9216
▁radiasi	-10.9217
▁dimakan	-10.9217
▁1998,	-10.9218
IA	-10.922
▁moyang	-10.9221
_1	-10.9222
▁berke	-10.9223
▁munculnya	-10.9226
▁Cap	-10.9227
▁Year	-10.9227
▁|	-10.923
▁VIII	-10.924
Air	-10.9242
▁Banyumas	-10.9242
sp	-10.9246
ip	-10.9247
kit	-10.925
="2012	-10.925
▁1964	-10.9254
▁×	-10.9256
▁meyakinkan	-10.9256
buk	-10.9256
▁Kom	-10.9257
▁fakultas	-10.9258
acara	-10.926
buru	-10.9261
▁PP	-10.9262
sson	-10.9263
▁Era	-10.9265
▁pengambilan	-10.9266
▁Tasikmalaya	-10.9268
SMP	-10.9271
▁dibawakan	-10.9271
▁Jing	-10.9272
ode	-10.9275
▁Gold	-10.9275
▁kristal	-10.9278
▁Transportasi	-10.9282
▁Mus	-10.9285
▁tarik	-10.9287
lur	-10.9287
Cyperaceae	-10.9288
▁mengganggu	-10.9289
▁Zona	-10.9289
▁Contohnya	-10.9291
▁genetik	-10.9292
▁Konvensi	-10.9293
▁bab	-10.9294
tul	-10.9295
▁Mohammad	-10.9297
▁akun	-10.9298
▁amat	-10.9299
▁ال	-10.9299
met	-10.9301
▁Gor	-10.9302
▁menyaksikan	-10.9303
▁Jacob	-10.9305
mut	-10.9306
Gunung	-10.9308
PM	-10.9309
▁Union	-10.9311
▁Bendera	-10.9315
tti	-10.9316
▁memberitahu	-10.9317
▁karet	-10.9319
▁berlayar	-10.9322
fon	-10.9324
▁Gre	-10.9326
▁kerangka	-10.9326
▁Baik	-10.9327
play	-10.9328
lay	-10.9332
▁manfaat	-10.9334
Cl	-10.9335
▁selaku	-10.9335
▁pandemi	-10.9335
▁Ve	-10.934
▁1932	-10.9342
▁tipis	-10.9343
bentuk	-10.9343
="2010	-10.9346
▁Sipil	-10.9349
▁Ag	-10.935
▁Ayah	-10.9354
▁rutin	-10.9355
▁Stephen	-10.9355
▁Gro	-10.9356
▁perhitungan	-10.9357
▁Hakim	-10.9358
ction	-10.9361
mbe	-10.9361
obatan	-10.9365
▁Gas	-10.9365
qa	-10.9366
▁memanggil	-10.9372
▁System	-10.9373
▁Perbedaan	-10.9375
lok	-10.9376
▁Pun	-10.9377
▁Umar	-10.9378
Piala	-10.9379
tera	-10.938
empat	-10.9383
▁Rai	-10.9385
▁Ac	-10.9385
▁Jumat	-10.9386
▁basket	-10.9387
▁Master	-10.9387
▁Warga	-10.9389
ifikasi	-10.9389
▁Kendal	-10.9389
▁bela	-10.9393
sekitar	-10.9393
5"	-10.9398
▁mempersiapkan	-10.9401
▁tembakan	-10.9402
form	-10.9407
▁mahal	-10.9408
▁Polri	-10.9409
mengidentifikasi	-10.9411
▁penyerang	-10.9412
▁Kala	-10.9414
▁End	-10.9414
▁lakukan	-10.9414
▁Sebaliknya	-10.9416
▁bersatu	-10.9417
EC	-10.9418
▁ladang	-10.942
▁Kuningan	-10.9423
▁pewaris	-10.9423
▁dibanding	-10.9424
▁Bab	-10.9428
▁koin	-10.943
▁kue	-10.9433
▁kontribusi	-10.9434
▁uni	-10.9435
▁2021,	-10.9436
▁SS	-10.9438
▁adiknya	-10.9438
▁Teater	-10.9442
PP	-10.9445
phy	-10.9445
▁hebat	-10.9446
▁Batam	-10.9446
DA	-10.9448
▁membebaskan	-10.9449
▁perumahan	-10.9449
▁Ny	-10.945
▁1961	-10.9451
2%	-10.9454
▁hit	-10.9457
▁Lebanon	-10.9463
▁dipisahkan	-10.9463
pre	-10.9468
pil	-10.9471
yon	-10.9471
▁turunan	-10.9476
▁1946	-10.9478
mini	-10.9479
▁penya	-10.9482
▁meluas	-10.9482
▁Gresik	-10.9486
eno	-10.9486
▁drum	-10.9487
ë	-10.9488
Pemilihan	-10.9491
OS	-10.9491
▁Rey	-10.9493
hor	-10.9495
▁naungan	-10.9501
ami	-10.9501
vel	-10.9504
▁gajah	-10.9504
▁1949	-10.9507
ksa	-10.951
esh	-10.9515
▁CEO	-10.9516
▁Des	-10.9516
▁1920	-10.952
CC	-10.9522
▁Ujung	-10.9524
▁Direktorat	-10.9525
▁Girls	-10.9525
▁bersekolah	-10.9527
▁Matt	-10.9528
SMA	-10.9528
▁persahabatan	-10.953
▁logo	-10.953
▁1945,	-10.953
tian	-10.9536
istik	-10.9536
▁Manado	-10.9539
▁filsuf	-10.954
▁1914	-10.9542
▁melancarkan	-10.9544
▁perlahan	-10.9547
▁Sosialis	-10.9553
▁lazim	-10.9556
▁Mall	-10.9557
▁ditahan	-10.9558
▁herbivora	-10.9559
▁pengamatan	-10.9561
▁Makanan	-10.9562
▁1934	-10.9562
AT	-10.9564
▁Perse	-10.9565
▁daring	-10.9567
▁tali	-10.9568
▁1942	-10.9568
▁Bangladesh	-10.957
▁sultan	-10.9571
▁Hati	-10.9573
▁Pesisir	-10.9574
teks	-10.9577
tica	-10.9577
▁motif	-10.9577
▁Pla	-10.9581
▁punggung	-10.9582
aq	-10.9583
yana	-10.9583
▁Heinrich	-10.9585
▁perkiraan	-10.9585
▁Mega	-10.9588
▁diizinkan	-10.9589
▁langka	-10.9591
▁Pekerjaan	-10.9592
▁Tenis	-10.9596
ulu	-10.9596
▁letak	-10.9597
▁Reformasi	-10.9597
zh	-10.9603
▁san	-10.9603
▁ketentuan	-10.9611
sius	-10.9614
▁berupaya	-10.9615
bre	-10.9618
En	-10.9624
gam	-10.963
▁Line	-10.963
▁menyusul	-10.963
xa	-10.963
▁Bala	-10.963
▁coba	-10.9631
▁Albania	-10.9638
▁Kidul	-10.9639
▁Bugis	-10.964
ref	-10.9643
gis	-10.9647
▁mere	-10.9647
nel	-10.9653
Kabupaten	-10.9655
▁disana	-10.9655
atum	-10.9656
oro	-10.9656
▁pasang	-10.966
satu	-10.9665
wal	-10.9666
alang	-10.9675
▁1931	-10.9677
▁lari	-10.9677
▁Rute	-10.9679
▁citra	-10.9679
▁Mah	-10.968
▁kolom	-10.9683
▁Power	-10.9683
hem	-10.9686
▁magnet	-10.9687
▁Dai	-10.9688
ces	-10.9691
▁Arts	-10.9692
▁Pahlawan	-10.9696
▁monarki	-10.9698
gua	-10.9699
▁Malam	-10.9699
cara	-10.97
▁yakin	-10.9701
▁ste	-10.9703
▁potongan	-10.9707
▁segmen	-10.9708
gereja	-10.9711
has	-10.9714
▁berani	-10.9715
rea	-10.9721
▁berdekatan	-10.9724
jer	-10.9724
▁melanggar	-10.9724
▁ekspor	-10.9725
▁Bru	-10.9726
▁Dis	-10.973
▁Tre	-10.9734
dom	-10.9735
▁Series	-10.9736
▁sirkuit	-10.9739
▁Championship	-10.9745
[	-10.975
Sam	-10.9751
lap	-10.9753
▁muslim	-10.9754
mik	-10.9754
▁suasana	-10.9754
lf	-10.9759
▁Prusia	-10.9763
▁datar	-10.9763
▁penerbit	-10.9763
▁unggulan	-10.9768
▁Lawas	-10.9769
▁Front	-10.977
▁menggelar	-10.977
▁habitat	-10.9771
▁putrinya	-10.9774
▁ideologi	-10.9776
NI	-10.9777
ios	-10.978
▁Sab	-10.9781
yr	-10.9782
▁1959	-10.9783
▁begin	-10.9785
hati	-10.9785
▁Epi	-10.9789
▁idola	-10.9789
▁44	-10.9792
ob	-10.9795
mil	-10.9795
▁sidang	-10.9797
▁Modern	-10.9797
▁office	-10.98
▁koran	-10.9805
▁Space	-10.9806
yak	-10.9807
▁1912	-10.9808
▁1924	-10.9809
▁Pasangan	-10.9812
aris	-10.9813
▁Mada	-10.9813
▁BA	-10.9814
▁mental	-10.9815
▁utusan	-10.9815
▁Lau	-10.9815
▁kontroversi	-10.9817
die	-10.9817
▁hadapan	-10.9819
▁Naskah	-10.9819
▁pseudo	-10.982
▁bertahap	-10.982
ao	-10.982
tana	-10.9822
▁Cianjur	-10.9823
▁Mau	-10.9827
▁gender	-10.9828
▁Ciri	-10.9831
):	-10.9831
▁rumpun	-10.9831
▁beban	-10.9832
sim	-10.9834
leng	-10.9835
▁Korps	-10.9838
FC	-10.9842
▁cair	-10.9842
nea	-10.9844
grup	-10.9857
cut	-10.9858
▁punah	-10.9861
▁Konstantinopel	-10.9864
▁120	-10.9866
▁akting	-10.9868
▁Dukuh	-10.9869
▁JKT	-10.9869
Neptunus	-10.9871
▁alkohol	-10.9876
Erica	-10.9876
▁tambang	-10.9879
▁sains	-10.9885
▁pecah	-10.9886
▁diraih	-10.9888
▁2021.	-10.9889
Wi	-10.989
▁•	-10.9892
م	-10.9893
rung	-10.9895
▁1958	-10.9895
▁Mara	-10.9899
hun	-10.9899
▁Home	-10.99
▁Ed	-10.99
zy	-10.9901
▁Sabtu	-10.9904
▁contohnya	-10.9907
mur	-10.9909
▁BBC	-10.991
ese	-10.9911
▁Dun	-10.9914
RS	-10.9917
▁paksa	-10.9918
▁singkatan	-10.992
▁potensial	-10.992
ui	-10.9922
▁pengertian	-10.9922
ld	-10.9926
▁Madrasah	-10.993
ill	-10.993
▁Us	-10.993
rawa	-10.9931
tat	-10.9931
▁Bond	-10.9933
▁koalisi	-10.9933
▁pembangkit	-10.9933
▁Tele	-10.9935
4"	-10.9936
▁(6	-10.9939
▁Jong	-10.9939
heim	-10.9941
Fabaceae	-10.9942
▁minoritas	-10.9942
▁ekspresi	-10.9943
▁Universe	-10.9946
SP	-10.995
▁Football	-10.9951
ls	-10.9952
AN	-10.9954
▁Jim	-10.9954
▁Ordo	-10.9955
▁merancang	-10.9957
dangan	-10.9959
▁mitra	-10.9959
uc	-10.9961
▁Shan	-10.9963
▁Ō	-10.9964
▁sisanya	-10.9965
orum	-10.9965
ota	-10.9966
▁AD	-10.9967
Is	-10.9967
▁Les	-10.9968
chan	-10.9969
ania	-10.997
▁Moskwa	-10.9972
▁Suara	-10.9973
zen	-10.9973
▁bertentangan	-10.9976
▁mengusir	-10.9976
▁dihukum	-10.9977
▁Sea	-10.9977
▁1947	-10.998
lio	-10.9982
▁dibatalkan	-10.9984
▁Ilir	-10.9985
▁mas	-10.9992
▁Bha	-10.9992
▁Harapan	-10.9992
▁Play	-10.9993
▁1900	-10.9994
hen	-10.9995
▁Kennedy	-10.9995
▁insinyur	-10.9995
▁ledakan	-10.9995
▁600	-11
▁Bung	-11.0006
▁Venesia	-11.0007
▁Senin	-11.0008
400	-11.0008
surat	-11.001
ssa	-11.0011
▁Alat	-11.0014
▁pencaharian	-11.0015
▁korupsi	-11.0015
▁keahlian	-11.0019
▁tabung	-11.0024
▁berlawanan	-11.0026
llo	-11.0027
ms	-11.0027
▁perilisan	-11.0034
▁Televisi	-11.0038
▁terendah	-11.0038
▁Mang	-11.0044
▁1927	-11.0045
aman	-11.0047
iki	-11.0048
▁SE	-11.0052
▁Karawang	-11.0055
▁profesi	-11.0055
▁seleksi	-11.0056
▁Osaka	-11.006
aro	-11.0061
▁pengaturan	-11.0069
▁Upacara	-11.007
▁Xi	-11.007
▁Qi	-11.0073
▁Didirikan	-11.0073
Tanjung	-11.0079
▁main	-11.0081
▁pengungsi	-11.0081
▁penutur	-11.0085
CA	-11.0085
sion	-11.0087
▁harfiah	-11.0089
▁dialami	-11.0089
▁Taylor	-11.0089
▁Nigeria	-11.009
bha	-11.0091
▁Ikan	-11.0092
▁menguntungkan	-11.0093
▁Tanaman	-11.0096
and	-11.0098
▁menembak	-11.0102
▁kardinal	-11.0104
▁jemaat	-11.0105
▁Berbeda	-11.0107
▁Urusan	-11.0108
▁penggabungan	-11.0108
kis	-11.0112
▁sesungguhnya	-11.0112
▁ideal	-11.0114
▁muara	-11.0114
▁1917	-11.0115
▁diajukan	-11.0116
Pertempuran	-11.0116
▁1925	-11.0119
gil	-11.0122
▁politisi	-11.0125
mad	-11.0126
▁1997,	-11.0126
▁1997.	-11.0126
gambar	-11.0127
diam	-11.0128
▁pertarungan	-11.0128
bong	-11.0128
Ericales	-11.0129
▁Majalah	-11.0129
▁Single	-11.0131
▁terbakar	-11.0132
▁kapten	-11.0136
▁Kevin	-11.0137
▁ketidak	-11.0139
▁Tel	-11.0144
▁Chart	-11.0148
nor	-11.0148
▁sehat	-11.0149
slav	-11.0153
tive	-11.0154
▁astronomi	-11.0154
▁persyaratan	-11.0155
=104	-11.0156
▁penampilannya	-11.0159
▁palsu	-11.0164
▁Henri	-11.0164
="104	-11.0165
baya	-11.0166
▁Kulon	-11.017
syah	-11.0171
▁Mike	-11.0173
▁1922	-11.0174
▁asosiasi	-11.0174
▁55	-11.0175
▁perencanaan	-11.0178
▁perusak	-11.0179
SE	-11.0179
hol	-11.018
▁pemeriksaan	-11.0181
▁Columbia	-11.0182
Gereja	-11.0184
Suka	-11.0184
▁kamu	-11.0185
▁pengiriman	-11.0185
▁soal	-11.0185
▁panglima	-11.0187
▁Island	-11.0187
▁memuji	-11.0188
▁anda	-11.0189
teri	-11.019
▁bermarkas	-11.0191
▁Tenaga	-11.0192
▁Af	-11.0193
▁lan	-11.0196
▁teluk	-11.0197
▁finis	-11.02
▁Wan	-11.0202
▁Orde	-11.0202
▁Out	-11.0204
▁tawaran	-11.0205
▁Serie	-11.0205
▁subjek	-11.0207
▁Dana	-11.0209
6"	-11.0214
▁Istimewa	-11.0215
▁Samarinda	-11.0215
▁lengan	-11.0215
▁ujian	-11.0219
▁Sakti	-11.0219
gor	-11.022
Har	-11.0221
ean	-11.0221
▁belahan	-11.0222
▁Tradisi	-11.0222
▁den	-11.0225
shin	-11.0228
nen	-11.023
SS	-11.0231
▁pengajar	-11.0232
SM	-11.0234
mani	-11.0235
rani	-11.0238
▁Edisi	-11.0241
bes	-11.0245
▁rombongan	-11.0246
▁kurun	-11.0247
▁hangat	-11.0247
lebih	-11.0248
gram	-11.0249
▁Permaisuri	-11.025
▁nasi	-11.025
▁Bio	-11.025
▁menyutradarai	-11.025
dur	-11.0252
▁publikasi	-11.0255
▁Malaka	-11.0259
▁menyanyi	-11.0259
aba	-11.026
▁aneh	-11.026
sisa	-11.0261
▁ditunjukkan	-11.0262
cil	-11.0265
▁bertempur	-11.0266
ern	-11.0267
▁penderita	-11.0268
▁tanggapan	-11.0268
ello	-11.0269
▁menghargai	-11.027
elo	-11.0275
▁Prabu	-11.0277
▁chi	-11.0281
▁terancam	-11.0282
▁sempit	-11.0283
▁bahaya	-11.0283
▁(4	-11.0284
lian	-11.0284
vy	-11.0284
mbah	-11.0286
▁petunjuk	-11.0287
try	-11.0292
salah	-11.0292
KI	-11.0293
▁Persi	-11.0293
▁Rose	-11.0294
▁seluler	-11.0294
▁Kri	-11.0295
▁menghilang	-11.0296
▁wayang	-11.0296
▁th	-11.0297
-19.	-11.0298
▁Mai	-11.0299
▁±	-11.0301
▁Ltd	-11.0302
▁putera	-11.0305
▁TK	-11.0306
hong	-11.0309
ert	-11.0309
▁Manga	-11.031
4.	-11.0311
▁Nagari	-11.0313
▁saksi	-11.0314
▁kor	-11.0315
temannya	-11.0315
ama	-11.0316
▁monumen	-11.0318
▁yg	-11.0319
▁Perancis	-11.032
hei	-11.0322
▁Pagi	-11.0322
▁Akibat	-11.0323
▁Kadipaten	-11.0323
▁Col	-11.0325
Mer	-11.0326
▁kebangsaan	-11.0326
▁Terletak	-11.0326
▁kerabat	-11.0327
▁pengolahan	-11.033
▁Aji	-11.033
▁Nar	-11.0334
▁bertarung	-11.0334
▁Patrick	-11.0335
PI	-11.0335
▁Statistik	-11.0338
▁rumit	-11.0343
dem	-11.0344
▁Ternate	-11.0346
cht	-11.0347
▁Inf	-11.0347
▁dipublikasikan	-11.035
▁Lebak	-11.0351
▁bertajuk	-11.0354
▁Sai	-11.0356
▁Apabila	-11.0358
▁berharga	-11.0362
▁Florida	-11.0363
dium	-11.0366
ops	-11.0368
▁Dam	-11.0368
▁Mahkota	-11.0371
▁Rus	-11.0375
pt	-11.0375
▁Sul	-11.0378
▁memperkirakan	-11.0378
▁1926	-11.0386
▁Pemenang	-11.0391
▁cita	-11.0395
▁arkeologi	-11.0395
▁anggotanya	-11.0399
▁Honda	-11.0401
▁Laksamana	-11.0411
▁perfilman	-11.0411
▁riwayat	-11.0412
Aku	-11.0413
▁gra	-11.0414
▁q	-11.0416
▁diawali	-11.042
▁Kho	-11.0421
▁intelektual	-11.0423
▁Mir	-11.0423
▁Project	-11.0424
▁berkarier	-11.0427
▁sekuel	-11.0427
▁kambing	-11.0427
▁menganut	-11.0427
▁kurangnya	-11.0428
▁Ogan	-11.0429
▁1996.	-11.043
▁helikopter	-11.0431
▁sekretaris	-11.0435
▁pengembang	-11.0438
▁dikendalikan	-11.0439
▁41	-11.0441
11"	-11.0444
jari	-11.0447
▁Bri	-11.0447
are	-11.0448
mempertimbangkan	-11.0451
▁250	-11.0456
▁box	-11.0458
▁mengelilingi	-11.0459
▁Comp	-11.046
▁minimal	-11.046
▁vektor	-11.0462
▁Cilacap	-11.0463
▁Pura	-11.0465
▁transmisi	-11.0468
▁Jember	-11.0468
▁1957	-11.0471
day	-11.0472
mala	-11.0473
vers	-11.0474
▁Peta	-11.0475
Fabales	-11.0476
▁dikenakan	-11.0476
▁José	-11.0476
kura	-11.0476
▁maksud	-11.0477
gara	-11.0479
▁mengkritik	-11.048
▁opera	-11.048
▁#	-11.0481
▁mengawali	-11.0485
▁panen	-11.0487
▁1923	-11.0487
▁ponsel	-11.0488
▁dihitung	-11.0488
ovich	-11.0489
▁pengurus	-11.049
odo	-11.0492
less	-11.0493
▁Kualifikasi	-11.0494
▁Camp	-11.0497
tinggi	-11.0497
mai	-11.05
▁Set	-11.0504
pho	-11.0505
AM	-11.0506
а	-11.0507
▁berkedudukan	-11.0512
▁nasib	-11.0521
7"	-11.0523
▁spiritual	-11.0524
▁mon	-11.0526
ndu	-11.0527
hn	-11.0528
▁Bisnis	-11.0529
▁Globe	-11.053
▁Walter	-11.0535
▁jejak	-11.0535
▁0.5	-11.0535
▁04	-11.0535
▁penghormatan	-11.0537
mbar	-11.0539
Ad	-11.054
ute	-11.0542
▁Sumedang	-11.0545
dio	-11.0546
shu	-11.0549
MS	-11.0556
▁pembayaran	-11.0557
▁Len	-11.0558
▁jet	-11.0562
rot	-11.0562
▁mengerjakan	-11.0565
▁his	-11.0568
▁sebagainya	-11.057
▁melaju	-11.0571
▁Town	-11.0571
▁Lamongan	-11.0574
▁Mali	-11.0574
nny	-11.0577
▁disiplin	-11.0578
▁Studios	-11.0579
lagi	-11.058
▁Pemimpin	-11.0581
▁Merupakan	-11.0582
ı	-11.0582
iri	-11.0583
▁Var	-11.0584
▁jazz	-11.0587
▁kredit	-11.0588
▁Pasuruan	-11.059
▁Eli	-11.0591
▁Tony	-11.0594
isa	-11.0594
▁Pterolophia	-11.0595
▁Joko	-11.0598
▁Jombang	-11.06
trans	-11.0601
▁penilaian	-11.0602
▁bara	-11.0609
▁piala	-11.0609
▁memecahkan	-11.061
yam	-11.0613
▁Karakter	-11.0619
▁menyimpulkan	-11.0619
▁diusulkan	-11.0619
Ben	-11.062
pop	-11.0621
▁Cao	-11.0622
▁Bob	-11.0624
▁Fuji	-11.0624
▁mewah	-11.0625
▁Hei	-11.0627
Star	-11.0629
iti	-11.0629
ij	-11.0631
▁menyajikan	-11.0631
▁mene	-11.0632
bau	-11.0635
▁Force	-11.0635
mos	-11.0636
▁Mongolia	-11.0638
▁awan	-11.0639
▁maksimal	-11.0639
▁(2	-11.064
▁disukai	-11.064
awang	-11.0642
▁melakukannya	-11.0643
organisasi	-11.0647
sak	-11.0649
▁Reaksi	-11.065
▁Bou	-11.0651
▁),	-11.0651
▁%	-11.0653
suke	-11.0655
▁jenjang	-11.0656
▁Xiao	-11.0658
ado	-11.0669
uf	-11.0671
▁Toyota	-11.0672
lahan	-11.0674
▁misionaris	-11.0677
▁Huta	-11.0678
DP	-11.0678
For	-11.068
ema	-11.068
kri	-11.0681
▁prosedur	-11.0681
▁64	-11.0683
▁1992.	-11.0687
▁kolaborasi	-11.0687
▁43	-11.069
alisme	-11.0691
eum	-11.0692
▁cu	-11.0693
600	-11.0695
dana	-11.0697
▁Saya	-11.0699
ş	-11.0701
▁Agromyzidae	-11.0702
▁hubungannya	-11.0702
▁Sarana	-11.0702
▁rentang	-11.0702
nc	-11.0703
▁Perjalanan	-11.0706
etta	-11.0706
▁Wikipedia	-11.0706
▁mewujudkan	-11.071
▁rumus	-11.0711
ciri	-11.0713
▁universal	-11.0714
▁kesejahteraan	-11.0714
sya	-11.0717
10"	-11.0722
▁kudeta	-11.0723
▁Stalin	-11.0725
▁diletakkan	-11.0727
nom	-11.0729
▁Dream	-11.0729
▁Sand	-11.073
▁Atlantik	-11.0731
▁sampel	-11.0736
nge	-11.0737
▁ganti	-11.0738
pung	-11.0739
more	-11.0739
▁2"	-11.0741
▁mendominasi	-11.0748
▁Blok	-11.0748
▁Poli	-11.075
odi	-11.0752
▁cap	-11.0754
▁Research	-11.0756
▁Sarjana	-11.0756
DI	-11.0759
poli	-11.076
▁Oscar	-11.0762
▁terikat	-11.0766
▁figur	-11.0768
▁Antonio	-11.0768
▁Citra	-11.0769
▁Sumbawa	-11.0771
sub	-11.0771
▁menuliskan	-11.0771
▁penjajahan	-11.0773
▁pembantu	-11.0773
▁Abi	-11.0777
gn	-11.0778
▁berkarya	-11.0782
▁kedaulatan	-11.0785
▁nol	-11.0788
▁Sidoarjo	-11.0794
▁Kapuas	-11.0794
▁Chelsea	-11.0796
Hari	-11.0798
main	-11.0798
▁Abraham	-11.0801
▁sur	-11.0802
▁mengorbit	-11.0802
hy	-11.0804
▁setinggi	-11.0805
bara	-11.0808
▁mela	-11.0814
▁Kla	-11.0814
▁Pon	-11.0818
▁Miconia	-11.0819
djo	-11.082
dd	-11.082
▁Mini	-11.082
▁psikologi	-11.0821
▁bertanya	-11.0821
▁imigran	-11.0823
▁Hen	-11.0824
▁1921	-11.0827
TI	-11.0832
▁berpenduduk	-11.0832
▁Apa	-11.0834
▁Ivan	-11.0835
odes	-11.0835
▁diinginkan	-11.0836
1%	-11.0838
▁seru	-11.0842
mond	-11.0843
▁membran	-11.0845
▁mengapa	-11.0846
▁dimaksud	-11.0846
side	-11.0847
▁mandi	-11.0847
▁Hy	-11.0847
MP	-11.0848
▁paroki	-11.0848
▁Jackson	-11.0851
▁Wilhelm	-11.0852
▁sekunder	-11.0853
▁Jaringan	-11.0853
bot	-11.0855
▁Kejadian	-11.0856
▁dihubungkan	-11.0857
gai	-11.0857
endra	-11.0858
▁berkontribusi	-11.0861
▁menandakan	-11.0861
udi	-11.0862
▁Tro	-11.0864
▁sesudah	-11.0864
▁1940	-11.0864
▁sha	-11.0866
▁Lambang	-11.0868
▁Nilai	-11.0868
▁mengu	-11.087
▁Pekanbaru	-11.087
ism	-11.0871
ude	-11.0874
▁Klaten	-11.0875
guru	-11.0875
▁kedelapan	-11.0877
Min	-11.0877
▁seniornya	-11.0877
▁tanjung	-11.088
data	-11.088
sten	-11.088
▁Mil	-11.0881
▁1930	-11.0881
▁Gading	-11.0882
▁Buah	-11.0885
▁dikaruniai	-11.0886
▁Puteri	-11.0888
▁Great	-11.0889
▁Virginia	-11.0891
▁jamur	-11.0891
▁transisi	-11.0892
iv	-11.0894
▁Pontianak	-11.0895
▁mengawasi	-11.0895
BA	-11.0898
▁seluruhnya	-11.0898
▁1995.	-11.0898
▁Roy	-11.0899
▁Kolombia	-11.0899
was	-11.0899
▁Kekristenan	-11.09
hon	-11.0905
▁Alfred	-11.0906
▁Victor	-11.0907
▁hasilnya	-11.0909
▁1956	-11.091
ă	-11.0916
▁Aleksander	-11.0916
▁mengukur	-11.0916
▁Afganistan	-11.0918
▁Eugenia	-11.0922
▁tingkatan	-11.0924
▁Vo	-11.0925
▁mengangkut	-11.0925
lock	-11.0925
elle	-11.0927
▁ayahandanya	-11.0928
gung	-11.0933
▁1996,	-11.0941
▁oposisi	-11.0942
▁Mul	-11.0943
▁kakaknya	-11.0947
▁Bon	-11.0949
▁puluhan	-11.095
▁keterangan	-11.0951
jadi	-11.0952
▁PC	-11.0953
▁Mulia	-11.0954
▁memori	-11.0956
Gi	-11.0957
uru	-11.096
▁laju	-11.0961
▁Kedokteran	-11.0963
▁konsumsi	-11.0963
▁Blitar	-11.0963
=107	-11.0964
ving	-11.0965
pl	-11.0965
▁Sum	-11.0967
▁Sara	-11.097
▁sejati	-11.097
▁Kei	-11.0971
▁berlebihan	-11.0972
▁penangkapan	-11.0974
jenis	-11.0975
▁Energi	-11.0976
▁terpenting	-11.098
▁Islandia	-11.098
▁wahana	-11.0981
▁Kamila	-11.0981
▁Dur	-11.0981
="107	-11.0981
▁kanal	-11.0985
kari	-11.0985
▁1936	-11.099
rid	-11.0994
▁Ryan	-11.0998
▁Douglas	-11.0998
▁Was	-11.1002
▁46	-11.1005
ngka	-11.1005
▁kerugian	-11.1006
dh	-11.1009
yun	-11.101
▁gravitasi	-11.101
▁Standar	-11.101
▁penerimaan	-11.1012
▁plastik	-11.1014
▁Lie	-11.1015
▁dolar	-11.1015
▁bergelar	-11.1016
Un	-11.1016
▁dihadiri	-11.1019
tori	-11.1019
▁mitos	-11.102
▁bernyanyi	-11.1023
Myrtales	-11.1027
▁Simalungun	-11.1027
▁dikunjungi	-11.1027
chin	-11.1028
▁membalas	-11.1032
▁pengukuran	-11.1036
▁kesultanan	-11.1037
▁islam	-11.1037
ova	-11.1038
▁menilai	-11.1038
▁Samudera	-11.104
baik	-11.1041
bulu	-11.1041
▁Dubai	-11.1041
cana	-11.1042
▁Giri	-11.1043
chy	-11.1043
rom	-11.1044
▁basah	-11.1044
▁Libya	-11.1045
Karang	-11.1045
aku	-11.1047
gah	-11.1047
▁diatas	-11.1053
▁salinan	-11.1053
cio	-11.1055
▁gawang	-11.106
our	-11.1061
▁Bojonegoro	-11.1062
▁Begitu	-11.1062
▁Ponorogo	-11.1066
▁Prestasi	-11.1066
IC	-11.1067
▁0.1	-11.1067
▁doktrin	-11.1068
▁pengisi	-11.1069
▁dihapus	-11.1069
▁Kenya	-11.1074
bach	-11.1074
▁Lem	-11.1079
▁senilai	-11.1081
▁Marino	-11.1084
▁badai	-11.1085
▁HD	-11.1089
tol	-11.109
▁Carlos	-11.1091
jeng	-11.1091
▁Bait	-11.1092
9"	-11.1092
ِ	-11.1096
▁$1	-11.1099
▁dendam	-11.1099
bing	-11.11
و	-11.11
▁Digital	-11.1101
▁Wilson	-11.1103
▁pita	-11.1103
▁berkelanjutan	-11.1105
101"	-11.1106
▁bersalah	-11.1107
▁Copa	-11.1108
108"	-11.1109
▁diskusi	-11.1109
▁menekan	-11.1111
▁dibaca	-11.1114
▁subur	-11.1117
▁(13	-11.1118
▁(20	-11.1119
▁menyatukan	-11.1119
▁kabur	-11.112
="2009	-11.1125
▁penasihat	-11.1131
▁lihat	-11.1134
time	-11.1135
▁Pierre	-11.1135
▁habitatnya	-11.1138
▁Bireuen	-11.1139
▁dibubarkan	-11.1139
sisi	-11.114
▁real	-11.1141
▁Andrew	-11.1141
100"	-11.1143
▁Sesuai	-11.1144
lic	-11.1147
▁menari	-11.1148
▁diperbolehkan	-11.1148
▁Deskripsi	-11.1148
▁Fan	-11.1152
▁pemasaran	-11.1153
▁47	-11.1153
▁it	-11.1154
vol	-11.1155
▁Jarak	-11.1159
▁sari	-11.1159
pper	-11.1161
▁permulaan	-11.1161
▁berkunjung	-11.1161
▁Service	-11.1163
ن	-11.1164
Onthophagus	-11.1166
▁mengakuisisi	-11.1166
▁sepatu	-11.1172
▁kan	-11.1174
▁Rektor	-11.1174
▁disahkan	-11.1175
▁Zhu	-11.1175
8"	-11.1176
ifera	-11.1176
▁Nepal	-11.1177
▁kargo	-11.1178
▁kreatif	-11.1179
▁Bursa	-11.1179
▁fosil	-11.118
▁Kaum	-11.1183
▁Maskapai	-11.1183
▁sampah	-11.1183
perusahaan	-11.1183
nat	-11.1185
▁Perjuangan	-11.1187
oc	-11.119
▁Amsterdam	-11.1192
▁Gil	-11.1192
▁tangkis	-11.1194
▁peranan	-11.1195
▁merencanakan	-11.1196
ayu	-11.12
rey	-11.1203
▁Edo	-11.1203
yō	-11.1204
="2013	-11.1206
▁Jupiter	-11.1208
▁pembakaran	-11.1209
▁melatih	-11.121
▁Cur	-11.1211
▁(8	-11.1211
Yo	-11.1212
▁Kris	-11.1213
▁1994.	-11.1213
ruk	-11.1213
▁menu	-11.1213
▁telinga	-11.1214
pet	-11.1214
asih	-11.1218
osus	-11.1221
▁1913	-11.1222
▁penerapan	-11.1222
▁cat	-11.1224
takan	-11.1225
▁serat	-11.1226
tangan	-11.1228
="2008	-11.1229
▁Sung	-11.123
▁sepakat	-11.123
peran	-11.1232
▁Marinir	-11.1233
▁kuasa	-11.1235
▁Francis	-11.1236
▁penaklukan	-11.1237
iensis	-11.1237
106"	-11.1238
▁Free	-11.1239
▁Muna	-11.1242
▁Press	-11.1242
▁situ	-11.1243
▁kenaikan	-11.1244
▁Makmur	-11.1245
▁Gempa	-11.125
▁Lihat	-11.1252
Pem	-11.1253
▁Posisi	-11.1254
▁penyelidikan	-11.1257
▁gar	-11.1257
3,	-11.1258
taka	-11.1259
▁sch	-11.126
icornis	-11.1263
▁Masalah	-11.1264
aceae	-11.1269
▁Sisilia	-11.1271
▁Paroki	-11.1271
▁piano	-11.1272
▁Tong	-11.1273
▁terlepas	-11.1276
▁Kur	-11.1276
eti	-11.1276
▁ak	-11.1279
▁permaisuri	-11.1284
▁pendaratan	-11.1286
AC	-11.1287
pia	-11.1289
aji	-11.1292
▁Lewis	-11.1293
▁Kep	-11.1294
▁Oe	-11.1294
rel	-11.1295
▁Your	-11.1296
▁survei	-11.1302
▁bicara	-11.1304
▁kenyataan	-11.1306
itz	-11.1308
▁65	-11.1309
▁Bernard	-11.1311
▁dilindungi	-11.1315
▁memotong	-11.1315
14"	-11.1316
▁SA	-11.1318
▁Foundation	-11.1319
▁beli	-11.132
▁perluasan	-11.132
▁pacu	-11.1324
▁primer	-11.1326
▁salib	-11.1329
Love	-11.133
▁Xu	-11.133
ole	-11.1333
ipes	-11.1335
▁tv	-11.134
▁kepribadian	-11.1341
111"	-11.1342
▁Hampir	-11.1343
▁dipenuhi	-11.1346
▁Singh	-11.1347
▁diundang	-11.1352
▁sulung	-11.1352
och	-11.1354
▁Kampus	-11.1355
="2011	-11.1357
AR	-11.1357
▁penga	-11.1357
cen	-11.136
▁amal	-11.1361
rna	-11.1365
EN	-11.1367
sz	-11.1367
▁merasakan	-11.1368
▁dewi	-11.1373
▁romantis	-11.1374
400"	-11.1376
iga	-11.1378
▁kemanusiaan	-11.1381
▁51	-11.1383
137"	-11.139
▁ditingkatkan	-11.139
▁temannya	-11.1392
aj	-11.14
181"	-11.1401
▁jendela	-11.1402
▁Said	-11.1402
▁1928	-11.1402
666"	-11.1408
▁Berbahasa	-11.1409
107"	-11.141
130"	-11.1411
124"	-11.1415
teman	-11.1415
Han	-11.1419
▁domain	-11.1422
cul	-11.1422
program	-11.1423
ston	-11.1426
▁mendefinisikan	-11.1426
▁Non	-11.1429
▁neo	-11.143
uchi	-11.1434
IM	-11.1435
▁kompilasi	-11.1437
agi	-11.1439
▁pidato	-11.144
▁ditanam	-11.144
123"	-11.1442
Billboard	-11.1445
▁Subang	-11.1446
▁52	-11.1447
▁berawal	-11.1448
▁jajaran	-11.1449
▁belah	-11.1449
▁berapi	-11.1451
▁1955	-11.1452
▁dipromosikan	-11.1453
lut	-11.1454
▁mengikat	-11.1454
121"	-11.1455
▁Cre	-11.1456
▁diameter	-11.1456
mem	-11.1457
PK	-11.1457
112"	-11.1461
▁posisinya	-11.147
▁Demokratik	-11.1472
alun	-11.1476
mark	-11.1479
▁biografi	-11.1482
▁1910	-11.1482
="108	-11.1484
▁Liverpool	-11.1484
IT	-11.1485
▁bermakna	-11.1485
▁efisien	-11.1486
▁Palu	-11.1487
▁praktis	-11.1488
rana	-11.1489
▁Turnamen	-11.1489
▁kepolisian	-11.1489
ES	-11.149
▁Napoleon	-11.1493
▁Pendukung	-11.1494
=108	-11.1494
kos	-11.1495
103"	-11.1495
itis	-11.1495
head	-11.1497
▁Indramayu	-11.1498
110"	-11.1498
180"	-11.15
▁truk	-11.15
▁Liang	-11.1501
▁Stra	-11.1501
▁lintasan	-11.1502
▁memperhatikan	-11.1502
▁berjanji	-11.1503
▁dinas	-11.1504
cin	-11.1506
▁Bai	-11.1506
rac	-11.1506
▁diartikan	-11.1507
uro	-11.151
072"	-11.151
254"	-11.1511
▁berniat	-11.1511
▁XIX	-11.1513
▁finalis	-11.1514
▁Lim	-11.1515
▁eksklusif	-11.1516
▁Television	-11.1516
▁Story	-11.1517
▁persatuan	-11.1517
134"	-11.1517
135"	-11.1519
▁akurat	-11.1522
616"	-11.1524
▁AFC	-11.1524
="115	-11.1524
▁Gri	-11.1527
FA	-11.1528
▁bernilai	-11.1529
▁op	-11.153
nal	-11.153
▁tukang	-11.1531
▁Android	-11.1534
154"	-11.1535
141"	-11.1536
127"	-11.1536
▁visi	-11.1538
119"	-11.154
gromyza	-11.154
ship	-11.1542
131"	-11.1546
▁rawa	-11.1547
▁Yaman	-11.1548
▁Yong	-11.1548
–18	-11.1549
rita	-11.1549
▁Region	-11.155
910"	-11.155
▁audio	-11.1551
▁segitiga	-11.1552
sifat	-11.1554
210"	-11.1555
wit	-11.1555
179"	-11.1557
133"	-11.1558
=115	-11.1559
▁jumlahnya	-11.156
102"	-11.156
jung	-11.1562
▁radikal	-11.1566
▁popularitas	-11.1566
941"	-11.157
▁Ring	-11.1572
▁miliknya	-11.1572
polis	-11.1572
▁pertukaran	-11.1575
▁menghitung	-11.1575
▁pencipta	-11.1576
▁Science	-11.1577
▁didistribusikan	-11.1579
Fe	-11.1581
▁Plus	-11.1583
▁mena	-11.1583
▁sen	-11.1584
▁Tanpa	-11.1586
iko	-11.1591
138"	-11.1591
▁Mandailing	-11.1593
▁pujian	-11.1593
▁Syarif	-11.1595
▁Char	-11.1596
▁Yon	-11.16
wil	-11.16
158"	-11.1602
▁hamil	-11.1604
▁Gol	-11.1605
α	-11.1605
▁Wo	-11.1606
▁Mycetophila	-11.1606
▁Lumpur	-11.1607
▁1994,	-11.1607
12"	-11.1607
▁Malaya	-11.1608
py	-11.161
▁Konsili	-11.1611
langan	-11.1613
laya	-11.1613
ech	-11.1613
139"	-11.1614
129"	-11.1615
143"	-11.1616
109"	-11.1616
182"	-11.1618
▁terapi	-11.1618
rad	-11.1619
300	-11.1619
500"	-11.162
▁teratur	-11.1623
▁Herman	-11.1624
▁Pasca	-11.1625
▁Kasus	-11.1628
105"	-11.1628
omi	-11.1629
▁Little	-11.1632
oleh	-11.1634
153"	-11.1635
132"	-11.1638
▁Ste	-11.164
343"	-11.1642
120"	-11.1643
atur	-11.1643
809"	-11.1644
797"	-11.1644
923"	-11.1644
16"	-11.1647
▁Penyakit	-11.1647
933"	-11.1649
157"	-11.165
▁Halmahera	-11.1652
▁dituturkan	-11.1652
▁perikanan	-11.1652
med	-11.1654
185"	-11.1656
▁£	-11.1656
ْ	-11.1657
▁meyakini	-11.1657
952"	-11.1659
920"	-11.1661
▁1993.	-11.1661
144"	-11.1662
098"	-11.1662
▁larangan	-11.1662
178"	-11.1663
079"	-11.1666
ries	-11.1667
▁parkir	-11.1668
▁robot	-11.1668
▁Court	-11.1669
RA	-11.1669
="117	-11.1669
▁alias	-11.1669
490"	-11.1671
142"	-11.1673
160"	-11.1673
932"	-11.1674
▁1911	-11.1674
331"	-11.1674
▁mencerminkan	-11.1675
=88	-11.1675
189"	-11.1676
▁transaksi	-11.1676
RC	-11.1676
162"	-11.1676
916"	-11.1678
122"	-11.1678
sho	-11.168
▁Keadaan	-11.168
▁Hans	-11.168
por	-11.1682
=117	-11.1683
402"	-11.1683
800"	-11.1686
▁kesembilan	-11.1688
171"	-11.1689
255"	-11.1689
stin	-11.1691
enberg	-11.1692
]].	-11.1694
▁sore	-11.1694
▁paham	-11.1695
798"	-11.1696
▁termuda	-11.1697
168"	-11.1698
▁mencintai	-11.1698
170"	-11.1699
126"	-11.17
ensi	-11.1701
▁diidentifikasi	-11.1702
▁akrab	-11.1703
242"	-11.1703
▁Pam	-11.1704
▁Jen	-11.1704
▁kontroversial	-11.1705
▁(12	-11.1707
▁keterampilan	-11.1707
▁aliansi	-11.1707
118"	-11.1708
▁realitas	-11.1709
▁Steve	-11.1711
▁bercerita	-11.1711
foto	-11.1713
▁KRI	-11.1714
paru	-11.1714
605"	-11.1714
166"	-11.1715
media	-11.1716
▁ekspansi	-11.1716
▁matriks	-11.1716
▁perbandingan	-11.1716
puk	-11.1716
329"	-11.1717
▁horor	-11.1718
▁kotamadya	-11.1719
600"	-11.172
tensi	-11.1721
▁Ibunya	-11.1721
077"	-11.1721
▁Rider	-11.1721
136"	-11.1723
241"	-11.1725
ess	-11.1725
391"	-11.1727
rup	-11.1729
337"	-11.1729
▁kriminal	-11.1729
085"	-11.173
▁Bara	-11.1732
795"	-11.1732
suk	-11.1736
▁berkantor	-11.1737
Saya	-11.1738
230"	-11.1739
163"	-11.174
472"	-11.174
back	-11.1741
355"	-11.1742
▁bertempat	-11.1742
734"	-11.1743
173"	-11.1744
203"	-11.1746
900"	-11.1748
▁Wood	-11.1748
▁Perdamaian	-11.1749
▁Kol	-11.1749
▁semasa	-11.1749
231"	-11.1749
071"	-11.175
15"	-11.1751
078"	-11.1751
▁Garis	-11.1753
▁ragam	-11.1753
omo	-11.1753
▁penyiaran	-11.1754
▁bit	-11.1754
▁pentingnya	-11.1757
▁Brebes	-11.1758
961"	-11.1758
551"	-11.1759
ois	-11.176
169"	-11.1761
▁busana	-11.1762
641"	-11.1763
tip	-11.1763
184"	-11.1763
752"	-11.1765
▁long	-11.1765
gul	-11.1765
810"	-11.1765
gre	-11.1765
▁geografi	-11.1766
214"	-11.1766
115"	-11.1766
326"	-11.1769
281"	-11.1769
475"	-11.177
kitab	-11.177
▁berkolaborasi	-11.1772
30"	-11.1774
304"	-11.1774
342"	-11.1774
125"	-11.1775
Kepler	-11.1775
▁Kardinal	-11.1776
407"	-11.1777
ê	-11.1778
058"	-11.1781
483"	-11.1783
494"	-11.1783
553"	-11.1784
056"	-11.1785
220"	-11.1785
656"	-11.1786
SC	-11.1786
805"	-11.1788
051"	-11.1788
246"	-11.1788
762"	-11.179
247"	-11.179
806"	-11.1791
260"	-11.1792
410"	-11.1792
934"	-11.1793
▁1952	-11.1793
790"	-11.1794
619"	-11.1794
▁Plot	-11.1796
mati	-11.1796
▁jalanan	-11.1798
▁1916	-11.1799
289"	-11.1799
794"	-11.1799
491"	-11.1799
626"	-11.1801
768"	-11.1802
esa	-11.1803
252"	-11.1805
155"	-11.1807
917"	-11.1807
307"	-11.1808
174"	-11.1808
338"	-11.1808
080"	-11.1809
▁menyuruh	-11.1809
335"	-11.1809
979"	-11.1811
▁mal	-11.1811
074"	-11.1812
151"	-11.1813
▁campur	-11.1813
▁Metropolitan	-11.1814
094"	-11.1814
879"	-11.1815
796"	-11.1815
539"	-11.1815
467"	-11.1815
517"	-11.1816
594"	-11.1816
Dia	-11.1816
148"	-11.1817
sebuah	-11.1817
▁konon	-11.1818
300"	-11.182
cre	-11.182
944"	-11.182
▁Kampanye	-11.182
25"	-11.182
492"	-11.182
ø	-11.1821
▁cerdas	-11.1823
128"	-11.1824
▁Johann	-11.1824
146"	-11.1825
525"	-11.1827
753"	-11.1827
▁sepasang	-11.1828
416"	-11.1828
▁bata	-11.1829
799"	-11.183
Anthaxia	-11.183
985"	-11.1831
▁Ple	-11.1831
raj	-11.1833
▁seberang	-11.1833
▁Had	-11.1834
▁kandung	-11.1834
786"	-11.1834
552"	-11.1835
113"	-11.1835
476"	-11.1835
295"	-11.1836
▁pedalaman	-11.1837
▁Sarah	-11.1837
489"	-11.1837
251"	-11.1838
793"	-11.1838
801"	-11.1838
▁tampilan	-11.1839
202"	-11.1839
176"	-11.184
▁Area	-11.1841
336"	-11.1841
150"	-11.1842
▁Fitur	-11.1843
PN	-11.1844
647"	-11.1844
378"	-11.1845
353"	-11.1845
▁county	-11.1846
▁terdengar	-11.1847
330"	-11.1847
037"	-11.1847
140"	-11.1848
▁Oxford	-11.1849
043"	-11.1849
936"	-11.185
471"	-11.185
▁Siprus	-11.1851
▁Beliau	-11.1851
791"	-11.1851
▁Auto	-11.1851
Orang	-11.1852
▁Ama	-11.1852
opa	-11.1852
rip	-11.1853
945"	-11.1853
229"	-11.1853
nin	-11.1854
328"	-11.1854
▁bandung	-11.1854
114"	-11.1855
ín	-11.1855
226"	-11.1855
305"	-11.1855
495"	-11.1856
274"	-11.1856
▁1945.	-11.1856
klasifikasikan	-11.1857
▁Sy	-11.1857
644"	-11.1857
cing	-11.1858
911"	-11.1859
193"	-11.1859
▁peluang	-11.186
183"	-11.186
perairan	-11.1863
373"	-11.1863
954"	-11.1864
256"	-11.1864
659"	-11.1865
951"	-11.1865
389"	-11.1865
▁sponsor	-11.1866
▁1.000	-11.1866
062"	-11.1866
547"	-11.1867
918"	-11.1867
117"	-11.1868
Cyperus	-11.1868
019"	-11.1869
▁1995,	-11.1869
360"	-11.1869
▁Cabang	-11.187
104"	-11.1871
jal	-11.1871
232"	-11.1872
309"	-11.1873
788"	-11.1874
▁kuantum	-11.1874
▁NASA	-11.1874
164"	-11.1874
557"	-11.1876
186"	-11.1876
▁Rob	-11.1879
▁alamat	-11.188
▁fo	-11.1881
warna	-11.1881
928"	-11.1881
olog	-11.1882
519"	-11.1882
409"	-11.1884
▁seputar	-11.1884
177"	-11.1884
227"	-11.1886
▁Tuan	-11.1886
161"	-11.1887
088"	-11.1888
501"	-11.1888
▁disusul	-11.1889
216"	-11.1889
116"	-11.189
340"	-11.1891
935"	-11.1893
487"	-11.1893
261"	-11.1893
082"	-11.1894
770"	-11.1894
348"	-11.1895
▁kediaman	-11.1895
346"	-11.1896
648"	-11.1896
064"	-11.1896
048"	-11.1897
▁menewaskan	-11.1897
▁diperankan	-11.1898
244"	-11.1898
▁France	-11.1899
ging	-11.1899
187"	-11.1899
477"	-11.1899
▁Der	-11.1901
▁show	-11.1903
314"	-11.1903
083"	-11.1904
393"	-11.1904
948"	-11.1904
▁juniornya	-11.1904
388"	-11.1904
026"	-11.1905
▁rating	-11.1905
516"	-11.1905
721"	-11.1906
Jepang	-11.1906
382"	-11.1906
351"	-11.1906
▁adipati	-11.1908
▁mendalam	-11.1908
147"	-11.1909
="88	-11.1909
old	-11.1909
▁bertepatan	-11.1912
783"	-11.1913
172"	-11.1915
349"	-11.1915
538"	-11.1915
461"	-11.1916
334"	-11.1916
opus	-11.1916
929"	-11.1916
318"	-11.1916
▁Estonia	-11.1916
▁Sriwijaya	-11.1917
light	-11.1917
812"	-11.1918
537"	-11.1918
▁peti	-11.1918
967"	-11.1919
217"	-11.1919
598"	-11.1921
▁religius	-11.1921
aux	-11.1922
983"	-11.1922
000"	-11.1923
292"	-11.1924
Th	-11.1924
▁Brian	-11.1924
591"	-11.1925
▁Sor	-11.1925
215"	-11.1926
167"	-11.1926
211"	-11.1926
953"	-11.1927
ctor	-11.1927
▁Maroko	-11.1927
913"	-11.1927
278"	-11.1927
926"	-11.1927
press	-11.1928
947"	-11.1929
498"	-11.1929
308"	-11.1929
▁Fred	-11.193
922"	-11.193
▁Melbourne	-11.193
243"	-11.1932
All	-11.1932
478"	-11.1932
804"	-11.1933
352"	-11.1933
761"	-11.1934
976"	-11.1935
512"	-11.1935
▁Belitung	-11.1935
159"	-11.1935
▁albo	-11.1936
ulus	-11.1936
▁Ahli	-11.1937
310"	-11.1938
344"	-11.1939
257"	-11.1939
903"	-11.1939
175"	-11.194
▁memperingati	-11.194
▁berhadapan	-11.194
anggota	-11.194
mbangan	-11.194
▁Belakang	-11.1941
213"	-11.1941
991"	-11.1941
639"	-11.1941
ido	-11.1941
404"	-11.1942
156"	-11.1942
031"	-11.1943
▁lanjutan	-11.1944
245"	-11.1944
543"	-11.1945
735"	-11.1946
▁Racing	-11.1946
775"	-11.1946
046"	-11.1946
403"	-11.1946
277"	-11.1946
765"	-11.1947
802"	-11.1949
cis	-11.195
061"	-11.195
▁konsisten	-11.1951
317"	-11.1951
474"	-11.1951
828"	-11.1952
299"	-11.1952
▁Facebook	-11.1954
955"	-11.1955
ew	-11.1956
811"	-11.1956
6.	-11.1957
975"	-11.1958
821"	-11.1958
oda	-11.1958
-19,	-11.1958
aktor	-11.1959
▁Biro	-11.1959
191"	-11.1959
250"	-11.196
038"	-11.196
504"	-11.196
420"	-11.1961
362"	-11.1961
301"	-11.1962
820"	-11.1963
422"	-11.1963
803"	-11.1963
▁kebangkitan	-11.1963
049"	-11.1964
377"	-11.1964
275"	-11.1965
▁Leste	-11.1965
287"	-11.1965
846"	-11.1965
48"	-11.1965
522"	-11.1965
943"	-11.1966
949"	-11.1967
488"	-11.1967
200"	-11.1968
610"	-11.1968
▁Rin	-11.1969
977"	-11.1969
924"	-11.1969
365"	-11.197
939"	-11.197
618"	-11.197
190"	-11.197
320"	-11.1971
825"	-11.1971
▁Keempat	-11.1972
▁Musi	-11.1972
406"	-11.1972
540"	-11.1973
997"	-11.1973
364"	-11.1974
▁terasa	-11.1974
303"	-11.1975
▁Wall	-11.1975
511"	-11.1975
237"	-11.1976
390"	-11.1976
925"	-11.1976
479"	-11.1976
219"	-11.1977
▁Heart	-11.1978
432"	-11.1978
ose	-11.1978
192"	-11.1979
507"	-11.1979
715"	-11.1979
463"	-11.1983
▁tawar	-11.1983
760"	-11.1984
zia	-11.1985
688"	-11.1986
wali	-11.1987
282"	-11.1987
▁ramai	-11.1987
612"	-11.1987
▁Are	-11.1988
341"	-11.199
870"	-11.199
▁Ap	-11.199
092"	-11.1991
Inggris	-11.1991
623"	-11.1992
374"	-11.1992
631"	-11.1993
661"	-11.1993
016"	-11.1993
484"	-11.1994
738"	-11.1994
Pri	-11.1995
224"	-11.1995
546"	-11.1997
.”	-11.1997
813"	-11.1998
660"	-11.1998
414"	-11.1998
057"	-11.1998
▁waris	-11.1998
339"	-11.2
258"	-11.2001
▁Aplikasi	-11.2001
▁ilegal	-11.2001
sman	-11.2002
▁gambaran	-11.2002
455"	-11.2002
▁spin	-11.2002
550"	-11.2003
263"	-11.2004
574"	-11.2004
▁49	-11.2004
sche	-11.2004
720"	-11.2005
228"	-11.2005
874"	-11.2005
464"	-11.2006
▁Pengetahuan	-11.2006
▁seterusnya	-11.2006
▁Komposisi	-11.2006
262"	-11.2006
987"	-11.2007
emi	-11.2008
675"	-11.2009
521"	-11.2009
▁Saleh	-11.2009
413"	-11.2009
502"	-11.201
620"	-11.201
424"	-11.201
988"	-11.201
▁membiarkan	-11.2011
▁segar	-11.2011
901"	-11.2011
233"	-11.2012
536"	-11.2012
055"	-11.2012
534"	-11.2012
▁Jon	-11.2012
497"	-11.2013
063"	-11.2013
▁Wijaya	-11.2013
994"	-11.2014
269"	-11.2014
570"	-11.2014
321"	-11.2015
036"	-11.2016
▁tegangan	-11.2017
573"	-11.2017
234"	-11.2017
▁Demikian	-11.2018
▁pendidikannya	-11.2018
531"	-11.2018
485"	-11.2018
759"	-11.2019
087"	-11.202
225"	-11.202
919"	-11.202
070"	-11.2022
060"	-11.2022
▁Pel	-11.2022
899"	-11.2023
559"	-11.2024
609"	-11.2025
510"	-11.2026
358"	-11.2026
212"	-11.2026
732"	-11.2027
Sc	-11.2027
▁alur	-11.2028
bala	-11.2029
998"	-11.2029
347"	-11.203
785"	-11.203
758"	-11.2031
437"	-11.2031
069"	-11.2032
782"	-11.2032
▁naga	-11.2033
993"	-11.2033
638"	-11.2033
427"	-11.2034
▁meletus	-11.2035
041"	-11.2035
065"	-11.2036
▁Gabriel	-11.2036
894"	-11.2036
188"	-11.2036
832"	-11.2037
731"	-11.2038
972"	-11.2038
gede	-11.2038
Chrysobothris	-11.2038
978"	-11.2039
▁petualangan	-11.2039
849"	-11.204
▁Ah	-11.204
392"	-11.204
▁belakangan	-11.204
356"	-11.2041
▁memberinya	-11.2041
259"	-11.2042
379"	-11.2042
419"	-11.2043
▁Om	-11.2043
493"	-11.2043
897"	-11.2043
▁Margaret	-11.2044
654"	-11.2044
990"	-11.2044
621"	-11.2044
=105	-11.2045
▁Fin	-11.2045
24"	-11.2045
ANG	-11.2045
842"	-11.2046
▁diakses	-11.2046
▁sensor	-11.2047
643"	-11.2047
426"	-11.2048
774"	-11.2048
ه	-11.2049
319"	-11.2049
▁editor	-11.2049
298"	-11.2049
▁Bull	-11.205
▁Swasta	-11.205
218"	-11.205
401"	-11.205
698"	-11.2051
971"	-11.2051
434"	-11.2051
hwa	-11.2052
509"	-11.2053
995"	-11.2053
885"	-11.2053
010"	-11.2053
▁konvensional	-11.2054
767"	-11.2054
302"	-11.2054
▁Hewan	-11.2055
914"	-11.2056
045"	-11.2056
Kar	-11.2056
ox	-11.2056
973"	-11.2057
096"	-11.2057
877"	-11.2057
657"	-11.2057
oo	-11.2057
905"	-11.2058
=119	-11.2059
▁Isa	-11.2059
470"	-11.2059
oph	-11.206
834"	-11.206
981"	-11.2061
359"	-11.2061
417"	-11.2062
963"	-11.2062
915"	-11.2062
646"	-11.2064
962"	-11.2065
433"	-11.2066
603"	-11.2066
741"	-11.2066
▁Kawa	-11.2067
383"	-11.2067
964"	-11.2068
685"	-11.2069
▁optik	-11.207
893"	-11.207
288"	-11.2071
956"	-11.2071
="105	-11.2071
345"	-11.2071
▁Sambas	-11.2071
361"	-11.2072
984"	-11.2072
▁menutupi	-11.2073
816"	-11.2073
▁Idol	-11.2073
886"	-11.2073
tulisan	-11.2075
593"	-11.2075
581"	-11.2075
235"	-11.2075
974"	-11.2076
20"	-11.2076
789"	-11.2076
▁Bol	-11.2076
651"	-11.2077
740"	-11.2077
575"	-11.2077
508"	-11.2077
dji	-11.2077
▁Universal	-11.2078
746"	-11.2078
▁ketimbang	-11.2079
459"	-11.2079
838"	-11.208
486"	-11.208
617"	-11.2081
906"	-11.2081
▁Laporan	-11.2082
▁Mojokerto	-11.2082
946"	-11.2083
354"	-11.2084
902"	-11.2085
836"	-11.2086
766"	-11.2087
628"	-11.2087
466"	-11.2088
384"	-11.2088
032"	-11.2089
315"	-11.2089
837"	-11.2089
lov	-11.209
▁peternakan	-11.209
059"	-11.209
▁eu	-11.209
439"	-11.2091
425"	-11.2092
405"	-11.2092
▁otonomi	-11.2092
lei	-11.2093
248"	-11.2093
293"	-11.2094
907"	-11.2095
615"	-11.2095
073"	-11.2095
533"	-11.2095
271"	-11.2096
363"	-11.2096
201"	-11.2096
556"	-11.2096
590"	-11.2096
780"	-11.2097
▁Peserta	-11.2097
394"	-11.2097
674"	-11.2097
ishi	-11.2098
280"	-11.2099
327"	-11.2099
313"	-11.2099
285"	-11.21
197"	-11.21
792"	-11.2101
095"	-11.2101
▁MTV	-11.2101
▁menuduh	-11.2101
▁Mis	-11.2101
▁didapat	-11.2102
▁kapan	-11.2102
528"	-11.2103
921"	-11.2103
450"	-11.2104
843"	-11.2104
▁persaingan	-11.2106
▁beredar	-11.2106
▁bangkit	-11.2106
375"	-11.2107
608"	-11.2107
▁pisang	-11.2107
503"	-11.2108
unt	-11.2108
221"	-11.2108
999"	-11.2108
876"	-11.2108
473"	-11.2109
700	-11.211
772"	-11.211
076"	-11.2111
376"	-11.2112
992"	-11.2112
818"	-11.2113
▁1992,	-11.2113
769"	-11.2114
cca	-11.2114
023"	-11.2114
272"	-11.2115
▁menunjang	-11.2115
▁bersedia	-11.2116
▁HAM	-11.2116
544"	-11.2117
283"	-11.2118
▁identik	-11.2118
569"	-11.2119
199"	-11.2119
149"	-11.212
520"	-11.212
909"	-11.212
784"	-11.212
889"	-11.2121
323"	-11.2121
011"	-11.2121
996"	-11.2122
555"	-11.2122
▁ok	-11.2122
223"	-11.2123
408"	-11.2124
009"	-11.2125
276"	-11.2125
▁Kesenian	-11.2125
480"	-11.2126
541"	-11.2126
068"	-11.2126
015"	-11.2126
864"	-11.2127
884"	-11.2127
597"	-11.2127
429"	-11.2128
460"	-11.2129
606"	-11.213
nov	-11.2132
515"	-11.2132
412"	-11.2132
sebelumnya	-11.2132
350"	-11.2133
▁Sah	-11.2133
273"	-11.2133
554"	-11.2134
▁memadai	-11.2135
Can	-11.2135
▁dimuat	-11.2135
279"	-11.2136
411"	-11.2136
815"	-11.2137
454"	-11.2137
ux	-11.2137
▁10.000	-11.2138
937"	-11.2138
▁pengajaran	-11.2138
044"	-11.2139
209"	-11.2139
324"	-11.2139
▁UNESCO	-11.2139
253"	-11.214
873"	-11.214
▁1991,	-11.2141
888"	-11.2141
940"	-11.2141
pemain	-11.2141
545"	-11.2141
687"	-11.2143
316"	-11.2143
▁Arsitektur	-11.2143
744"	-11.2144
635"	-11.2144
▁ST	-11.2144
▁Express	-11.2144
053"	-11.2145
748"	-11.2145
205"	-11.2145
021"	-11.2146
▁Tanda	-11.2147
632"	-11.2148
got	-11.2148
482"	-11.2148
655"	-11.2149
481"	-11.2149
824"	-11.2149
▁sam	-11.215
▁Rembang	-11.215
291"	-11.2151
▁Gong	-11.2152
▁Cri	-11.2152
▁Matsu	-11.2153
21"	-11.2153
033"	-11.2154
▁sekadar	-11.2154
693"	-11.2155
▁Bollywood	-11.2155
ogen	-11.2155
238"	-11.2156
456"	-11.2157
596"	-11.2158
863"	-11.2158
708"	-11.2158
▁otonom	-11.2158
tain	-11.2158
▁perdebatan	-11.2159
▁tembaga	-11.2159
714"	-11.2159
▁pengujian	-11.2159
665"	-11.2159
397"	-11.2159
▁sawit	-11.216
cel	-11.2161
595"	-11.2161
692"	-11.2161
284"	-11.2161
817"	-11.2162
779"	-11.2163
370"	-11.2164
240"	-11.2165
445"	-11.2165
204"	-11.2165
097"	-11.2165
020"	-11.2165
▁pelayan	-11.2165
268"	-11.2166
▁Demokrasi	-11.2166
861"	-11.2166
764"	-11.2166
165"	-11.2166
050"	-11.2166
560"	-11.2166
658"	-11.2167
034"	-11.2167
549"	-11.2167
325"	-11.2167
035"	-11.2168
588"	-11.2169
091"	-11.217
024"	-11.217
773"	-11.217
514"	-11.2171
881"	-11.2171
468"	-11.2171
369"	-11.2171
=89	-11.2172
▁fer	-11.2172
496"	-11.2173
895"	-11.2174
690"	-11.2174
904"	-11.2175
686"	-11.2175
542"	-11.2176
430"	-11.2176
562"	-11.2176
312"	-11.2176
756"	-11.2176
778"	-11.2176
236"	-11.2177
822"	-11.2177
▁RCTI	-11.2178
380"	-11.2178
017"	-11.2178
859"	-11.2178
950"	-11.2179
808"	-11.2179
ON	-11.218
sko	-11.218
029"	-11.218
399"	-11.218
662"	-11.2181
506"	-11.2181
▁Hart	-11.2181
17"	-11.2181
▁Nick	-11.2182
695"	-11.2182
▁pemba	-11.2183
▁mengamati	-11.2183
601"	-11.2183
931"	-11.2183
751"	-11.2184
725"	-11.2185
198"	-11.2185
▁Merdeka	-11.2186
▁respon	-11.2186
607"	-11.2188
▁Bir	-11.2188
▁basa	-11.2189
513"	-11.2189
▁Suzuki	-11.2189
▁1915	-11.219
067"	-11.219
462"	-11.2191
640"	-11.2191
▁Hil	-11.2191
965"	-11.2192
677"	-11.2192
054"	-11.2193
2)	-11.2193
787"	-11.2193
627"	-11.2193
872"	-11.2194
207"	-11.2194
gol	-11.2194
206"	-11.2195
152"	-11.2195
hiro	-11.2195
827"	-11.2196
960"	-11.2196
830"	-11.2196
32"	-11.2197
19"	-11.2197
428"	-11.2198
▁Isi	-11.2199
568"	-11.2199
452"	-11.22
530"	-11.22
435"	-11.22
930"	-11.2201
763"	-11.2201
081"	-11.2202
636"	-11.2203
311"	-11.2203
966"	-11.2203
645"	-11.2204
713"	-11.2206
332"	-11.2206
723"	-11.2206
385"	-11.2206
▁diberlakukan	-11.2207
kot	-11.2208
333"	-11.2208
▁membawanya	-11.2208
624"	-11.2209
440"	-11.2209
739"	-11.221
297"	-11.221
322"	-11.221
▁1991.	-11.221
980"	-11.221
580"	-11.2211
089"	-11.2212
stri	-11.2212
625"	-11.2212
896"	-11.2213
040"	-11.2213
444"	-11.2213
iyyah	-11.2214
678"	-11.2214
749"	-11.2214
stone	-11.2216
535"	-11.2216
892"	-11.2217
265"	-11.2217
421"	-11.2219
LS	-11.2221
▁telekomunikasi	-11.2221
637"	-11.2221
▁diwakili	-11.2222
982"	-11.2222
679"	-11.2222
381"	-11.2223
027"	-11.2224
395"	-11.2224
959"	-11.2224
532"	-11.2225
jek	-11.2225
=265	-11.2225
▁Ulama	-11.2225
putih	-11.2225
249"	-11.2226
▁sentral	-11.2227
826"	-11.2228
448"	-11.2229
208"	-11.2229
814"	-11.2229
561"	-11.223
755"	-11.223
807"	-11.223
▁diperluas	-11.2231
306"	-11.2233
▁Boston	-11.2233
▁parasit	-11.2233
086"	-11.2234
587"	-11.2234
396"	-11.2235
908"	-11.2235
563"	-11.2235
099"	-11.2236
▁penghuni	-11.2236
▁Cross	-11.2237
566"	-11.2237
572"	-11.2238
418"	-11.2238
▁Luwu	-11.2238
724"	-11.2238
▁ketiganya	-11.2239
▁Amin	-11.2241
438"	-11.2241
286"	-11.2241
006"	-11.2242
066"	-11.2244
841"	-11.2244
▁Sup	-11.2244
357"	-11.2244
λ	-11.2246
▁dipahami	-11.2246
875"	-11.2246
968"	-11.2247
093"	-11.2248
▁berputar	-11.2248
649"	-11.2248
529"	-11.2249
733"	-11.2249
571"	-11.225
▁Sala	-11.225
▁lautan	-11.225
▁lamanya	-11.225
oa	-11.2251
629"	-11.2251
022"	-11.2251
717"	-11.2252
▁salju	-11.2252
▁1905	-11.2252
527"	-11.2254
663"	-11.2256
526"	-11.2257
PD	-11.2259
▁Bak	-11.226
pot	-11.226
▁Chironomidae	-11.226
▁Bohemia	-11.226
670"	-11.2262
604"	-11.2262
43"	-11.2262
="265	-11.2262
028"	-11.2262
912"	-11.2263
▁prefektur	-11.2265
▁dikonfirmasi	-11.2265
266"	-11.2265
589"	-11.2266
844"	-11.2267
776"	-11.2267
565"	-11.2267
145"	-11.2268
▁hantu	-11.2268
585"	-11.2269
664"	-11.2269
▁bumbu	-11.2269
366"	-11.227
▁Sumenep	-11.227
823"	-11.227
▁Impatiens	-11.227
▁berpasangan	-11.2271
453"	-11.2271
743"	-11.2272
958"	-11.2273
039"	-11.2273
222"	-11.2275
436"	-11.2275
▁Mori	-11.2275
684"	-11.2276
▁1954	-11.2277
▁oksida	-11.2278
957"	-11.2278
296"	-11.2279
▁didapatkan	-11.2279
938"	-11.2279
feld	-11.2279
750"	-11.228
usul	-11.2281
709"	-11.2281
014"	-11.2282
680"	-11.2283
737"	-11.2284
▁Dra	-11.2284
▁dituduh	-11.2285
▁Penga	-11.2287
586"	-11.2289
▁Probolinggo	-11.2289
▁bungsu	-11.229
469"	-11.2291
736"	-11.2292
387"	-11.2292
630"	-11.2292
890"	-11.2294
833"	-11.2294
878"	-11.2294
▁Kompleks	-11.2295
elli	-11.2296
599"	-11.2296
▁Movie	-11.2298
294"	-11.2298
Purn	-11.2299
239"	-11.2299
▁agregat	-11.2299
986"	-11.2299
633"	-11.2301
727"	-11.2301
742"	-11.2302
▁Kupang	-11.2303
▁keanggotaan	-11.2304
747"	-11.2305
▁SC	-11.2305
858"	-11.2305
194"	-11.2305
▁Alan	-11.2306
▁Centre	-11.2307
372"	-11.2307
195"	-11.2307
700"	-11.2307
003"	-11.2308
667"	-11.2309
012"	-11.2309
▁pemisahan	-11.231
▁wabah	-11.231
845"	-11.2311
▁Mid	-11.2313
nium	-11.2314
akhir	-11.2314
696"	-11.2315
TS	-11.2315
▁berstatus	-11.2315
196"	-11.2315
ér	-11.2315
boy	-11.2318
716"	-11.2318
▁Peri	-11.2321
781"	-11.2321
613"	-11.2321
523"	-11.2321
004"	-11.2322
719"	-11.2322
883"	-11.2324
367"	-11.2324
264"	-11.2325
▁buat	-11.2325
▁menembus	-11.2328
726"	-11.2329
wana	-11.233
868"	-11.233
771"	-11.233
007"	-11.233
927"	-11.2331
703"	-11.2332
451"	-11.2332
622"	-11.2333
▁perolehan	-11.2333
▁keunggulan	-11.2333
▁Daun	-11.2333
706"	-11.2334
▁lem	-11.2334
579"	-11.2334
704"	-11.2335
084"	-11.2335
398"	-11.2336
652"	-11.2337
▁Billboard	-11.2337
835"	-11.2337
▁And	-11.2338
705"	-11.2338
▁Ciamis	-11.2338
▁keindahan	-11.2338
757"	-11.2339
001"	-11.2339
Her	-11.2339
▁Sifat	-11.234
423"	-11.234
728"	-11.2341
853"	-11.2341
090"	-11.2342
730"	-11.2343
524"	-11.2346
880"	-11.2347
▁Cra	-11.2347
611"	-11.2348
▁serang	-11.2348
▁pertambangan	-11.2348
wei	-11.2348
▁komentar	-11.2348
▁Mes	-11.235
▁jawaban	-11.2352
718"	-11.2352
722"	-11.2353
582"	-11.2353
▁Kyai	-11.2354
368"	-11.2355
▁Markus	-11.2355
564"	-11.2356
431"	-11.2358
441"	-11.2361
masalah	-11.2361
rul	-11.2361
548"	-11.2362
270"	-11.2363
898"	-11.2363
839"	-11.2363
▁Bapa	-11.2363
676"	-11.2364
=98	-11.2366
871"	-11.2366
848"	-11.2367
942"	-11.2368
▁Sachsen	-11.2369
578"	-11.2369
819"	-11.2369
▁gram	-11.237
ringin	-11.2372
650"	-11.2372
▁1990.	-11.2372
025"	-11.2373
701"	-11.2373
702"	-11.2376
829"	-11.2377
▁menolong	-11.2378
Cor	-11.2378
▁hidung	-11.2378
386"	-11.2379
847"	-11.238
13"	-11.238
415"	-11.2381
602"	-11.2381
710"	-11.2381
754"	-11.2382
862"	-11.2382
▁asalnya	-11.2382
290"	-11.2382
▁penyelesaian	-11.2382
▁Generasi	-11.2383
▁Pinang	-11.2383
▁Kec	-11.2383
▁Cy	-11.2384
891"	-11.2384
28"	-11.2384
▁komite	-11.2385
449"	-11.2385
▁Lukas	-11.2386
▁mengge	-11.2386
047"	-11.2386
075"	-11.2387
▁Fort	-11.2387
44"	-11.2388
▁Tun	-11.2388
683"	-11.2391
577"	-11.2391
518"	-11.2391
▁berakhirnya	-11.2392
989"	-11.2392
BS	-11.2392
▁inspirasi	-11.2394
▁Tru	-11.2394
969"	-11.2396
▁my	-11.2397
logi	-11.2397
▁Ei	-11.2398
lil	-11.2399
567"	-11.24
852"	-11.24
052"	-11.24
▁05	-11.2402
▁mencuri	-11.2403
860"	-11.2403
505"	-11.2404
▁lembut	-11.2404
499"	-11.2405
777"	-11.2407
▁Garuda	-11.2408
465"	-11.2408
fri	-11.241
Ex	-11.2411
uji	-11.2412
▁Grammy	-11.2412
nari	-11.2414
enia	-11.2414
29"	-11.2416
446"	-11.2418
711"	-11.2419
▁Pers	-11.2419
691"	-11.2421
008"	-11.2422
▁top	-11.2423
576"	-11.2425
vor	-11.2425
005"	-11.2426
▁Um	-11.2426
558"	-11.2426
Tan	-11.2427
694"	-11.2427
▁berpengalaman	-11.2427
642"	-11.2428
▁gitaris	-11.243
030"	-11.2431
▁Tuban	-11.2431
▁kontestan	-11.2431
▁memanjang	-11.2432
▁dikerjakan	-11.2432
American	-11.2433
867"	-11.2435
▁Dataran	-11.2437
682"	-11.2438
▁Dragon	-11.2439
rk	-11.244
882"	-11.244
▁Asasi	-11.2441
002"	-11.2442
▁Mojo	-11.2442
▁1939	-11.2443
614"	-11.2445
458"	-11.2446
18"	-11.2446
="159	-11.2447
="89	-11.2447
457"	-11.2449
855"	-11.2449
443"	-11.2449
▁geometri	-11.2453
▁Sat	-11.2454
042"	-11.2454
▁Cam	-11.2454
▁Oh	-11.2454
697"	-11.2455
▁menyi	-11.2456
689"	-11.2457
vir	-11.2459
869"	-11.2461
45"	-11.2461
▁membatalkan	-11.2461
018"	-11.2462
▁cipta	-11.2462
▁1951	-11.2462
gger	-11.2462
013"	-11.2463
▁vaksin	-11.2465
854"	-11.2466
▁pelayaran	-11.2466
Asteraceae	-11.2466
▁Pabrik	-11.2467
▁Huang	-11.2467
23"	-11.2468
371"	-11.247
▁Sol	-11.2471
laut	-11.2471
▁dikumpulkan	-11.2471
865"	-11.2473
Ser	-11.2475
▁Nara	-11.2476
669"	-11.2477
442"	-11.2478
▁boneka	-11.2478
26"	-11.2481
▁perpanjangan	-11.2481
▁Senyawa	-11.2481
ith	-11.2483
▁Tower	-11.2483
22"	-11.2487
Islam	-11.2488
▁Kyoto	-11.2488
447"	-11.2489
▁sumur	-11.2489
▁1941	-11.2491
▁Gede	-11.2492
681"	-11.2492
▁tenang	-11.2495
583"	-11.2495
gri	-11.2495
▁musiknya	-11.2496
▁dihormati	-11.2496
▁vertikal	-11.2496
=159	-11.2497
34"	-11.2497
267"	-11.2497
nos	-11.2498
866"	-11.2501
▁ditawarkan	-11.2501
▁SI	-11.2502
634"	-11.2504
ν	-11.2504
▁É	-11.2505
▁Balikpapan	-11.2506
▁finansial	-11.2506
▁komoditas	-11.2506
inger	-11.2509
▁(10	-11.2509
▁Moon	-11.251
▁Definisi	-11.2511
nyi	-11.2513
sian	-11.2516
▁Kab	-11.2516
▁berkualitas	-11.2516
▁disesuaikan	-11.2516
▁Ann	-11.2518
▁temperatur	-11.2521
_3	-11.2523
▁Bah	-11.2524
ball	-11.2527
831"	-11.2527
▁saran	-11.2528
729"	-11.2528
31"	-11.2535
673"	-11.2538
653"	-11.2539
▁wangsa	-11.254
592"	-11.2541
▁menjuarai	-11.2541
970"	-11.2542
▁semifinal	-11.2542
▁akademi	-11.2542
▁unggul	-11.2543
▁Burma	-11.2544
33"	-11.2544
▁1908	-11.2544
▁bala	-11.2545
▁Ton	-11.2545
▁Kh	-11.2546
hyun	-11.2548
▁koordinat	-11.2549
▁tikus	-11.2552
=112	-11.2552
WA	-11.2554
="112	-11.2555
dadi	-11.2555
▁kawan	-11.2556
▁diceritakan	-11.2556
▁pinggir	-11.2558
▁AM	-11.2559
▁Dolok	-11.256
▁Lady	-11.2562
LA	-11.2563
▁pemrograman	-11.2564
▁1930-	-11.2565
▁jangkauan	-11.2567
▁Old	-11.2568
▁tugasnya	-11.2568
▁Davis	-11.2569
887"	-11.2569
▁Aljazair	-11.2571
▁persekutuan	-11.2571
▁meningkatnya	-11.2575
▁lingkup	-11.2576
▁Madinah	-11.2576
▁1953	-11.2576
584"	-11.2577
▁tepung	-11.2577
▁Sanskerta	-11.2578
▁Yehuda	-11.2581
mma	-11.2585
▁Profesor	-11.2586
▁Sugi	-11.2587
672"	-11.2587
bay	-11.2587
▁Sintang	-11.2591
▁Lab	-11.2592
▁1993,	-11.2594
857"	-11.2595
▁Tujuh	-11.2596
uba	-11.2596
▁dikembalikan	-11.2596
avi	-11.2597
▁membakar	-11.2598
840"	-11.2599
▁Penulis	-11.2602
▁kesamaan	-11.2602
▁utuh	-11.2607
▁Komputer	-11.2611
▁Twitter	-11.2611
▁menonton	-11.2611
house	-11.2613
raya	-11.2614
dit	-11.2614
▁live	-11.2614
850"	-11.2616
phe	-11.2616
▁pembelian	-11.2619
▁USA	-11.2622
699"	-11.2622
▁Light	-11.2623
▁1943	-11.2626
▁Denpasar	-11.2627
▁Angka	-11.2627
▁Perangkat	-11.2627
671"	-11.2628
xia	-11.2631
▁Venezuela	-11.2632
▁pergantian	-11.2632
▁has	-11.2632
668"	-11.2632
zel	-11.2637
hee	-11.2638
dent	-11.2639
▁ternama	-11.2642
leg	-11.2643
zz	-11.2644
zon	-11.2645
▁Munisipalitas	-11.2646
▁wewenang	-11.2647
▁penghasil	-11.2647
▁memasak	-11.2647
851"	-11.2651
kil	-11.2652
▁pertimbangan	-11.2657
Rhododendron	-11.2658
▁53	-11.266
▁klien	-11.2662
▁lipat	-11.2664
Sen	-11.2664
▁Water	-11.2666
▁menjamin	-11.2668
yono	-11.2669
▁didesain	-11.2672
zawa	-11.2675
▁Salam	-11.2676
707"	-11.2677
▁Java	-11.2678
ain	-11.2679
cos	-11.2679
▁Andre	-11.2681
▁dipertahankan	-11.2682
▁penyerangan	-11.2683
uti	-11.2684
▁liberal	-11.2684
▁Gang	-11.2686
▁perenang	-11.2686
▁dasawarsa	-11.2687
▁pembunuh	-11.2687
▁seragam	-11.2688
▁Kodam	-11.2689
▁Warner	-11.269
▁Filmfare	-11.269
Suku	-11.2691
Fu	-11.2694
▁modul	-11.2694
ssi	-11.2695
▁Web	-11.2695
cera	-11.2699
▁Pohon	-11.2699
▁Fat	-11.2701
haru	-11.2701
▁diduduki	-11.2702
▁800	-11.2703
▁diputar	-11.2704
▁Rahman	-11.2706
goro	-11.2707
▁grafis	-11.2709
tuan	-11.2712
▁Status	-11.2712
▁Penemuan	-11.2713
▁Alabama	-11.2718
▁Baro	-11.2718
▁netral	-11.272
▁besarnya	-11.2723
▁Datuk	-11.2723
▁Glenea	-11.2725
anyar	-11.2728
▁dibuktikan	-11.2728
Kali	-11.2729
dapat	-11.2731
▁antariksa	-11.2732
▁janji	-11.2738
▁nyaman	-11.2738
▁Rum	-11.2738
nic	-11.2741
55"	-11.2746
▁menanggapi	-11.2748
young	-11.275
kang	-11.2752
▁memelihara	-11.2753
▁Jayapura	-11.2756
▁melampaui	-11.2758
▁perbukitan	-11.2758
▁Gusti	-11.276
wijaya	-11.2764
▁Lubuk	-11.2766
▁putus	-11.2766
ulis	-11.2767
▁salat	-11.2768
mulya	-11.2771
▁panah	-11.2773
▁Majalengka	-11.2779
▁kas	-11.2779
▁Forum	-11.2783
856"	-11.2784
▁Pal	-11.2784
Asterales	-11.2784
▁khawatir	-11.2784
fur	-11.2789
▁dipelajari	-11.2789
▁Pur	-11.2791
▁Av	-11.2792
▁Ing	-11.2792
58"	-11.2792
▁statistik	-11.2794
▁FM	-11.2798
lee	-11.2798
ffer	-11.28
▁Meta	-11.2802
▁Ferrari	-11.2805
▁not	-11.2806
resi	-11.2807
BI	-11.2808
istri	-11.2809
▁Salim	-11.281
▁klorida	-11.2811
▁1990,	-11.2811
54"	-11.2814
▁menyiapkan	-11.2815
▁Office	-11.2815
▁pemakaian	-11.2816
▁terkecil	-11.2817
▁Umumnya	-11.2818
▁Jang	-11.282
ful	-11.2821
▁KRL	-11.2821
▁Johor	-11.2821
hang	-11.2823
▁Kongo	-11.2828
yev	-11.2828
▁Bet	-11.2829
▁Vatikan	-11.283
”,	-11.2831
40"	-11.2831
ID	-11.2832
▁Wono	-11.2833
▁(14	-11.2834
▁Cheng	-11.2834
▁kriteria	-11.2835
minasi	-11.2836
cent	-11.2837
▁Gowa	-11.284
▁mendesak	-11.2841
▁Iklim	-11.2841
▁Biara	-11.2841
▁ten	-11.2843
Distrik	-11.2843
▁mentah	-11.2843
712"	-11.2845
▁jakarta	-11.2846
▁metropolitan	-11.2851
ril	-11.2851
="158	-11.2854
46"	-11.2856
yeong	-11.2857
lama	-11.2857
▁berujung	-11.2859
karyanya	-11.2859
▁domba	-11.2859
▁Norman	-11.2859
ane	-11.2859
51"	-11.286
ngkang	-11.286
dja	-11.2865
▁menyambut	-11.2866
▁majelis	-11.287
▁Angel	-11.287
▁tersusun	-11.2871
▁Widodo	-11.2872
syarat	-11.2873
ε	-11.2874
col	-11.2874
▁Asam	-11.2875
3)	-11.2875
▁Comte	-11.2877
745"	-11.2879
Stadion	-11.2879
rol	-11.288
▁56	-11.288
▁Indian	-11.288
▁Hel	-11.2881
▁Anwar	-11.2884
▁First	-11.2885
nica	-11.2888
zza	-11.289
41"	-11.289
▁Neu	-11.2891
▁pene	-11.2891
▁goreng	-11.2894
▁inci	-11.2897
▁bau	-11.2897
▁DJ	-11.2898
=158	-11.2899
▁Pseudo	-11.2901
50"	-11.2902
91"	-11.2907
Dan	-11.291
е	-11.2911
42"	-11.2914
▁(7	-11.2914
▁Saka	-11.2917
▁pipa	-11.2918
▁Nugini	-11.2918
▁Salvia	-11.292
▁berkomunikasi	-11.2921
Sekolah	-11.2921
▁sy	-11.2921
cta	-11.2922
org	-11.2923
fen	-11.2926
▁Lak	-11.2926
Final	-11.2927
▁lereng	-11.2927
nut	-11.2928
▁alumni	-11.2928
▁leher	-11.2931
▁Fire	-11.2935
▁Reg	-11.2936
-23	-11.2938
lembaga	-11.2939
▁Kap	-11.2939
▁Tae	-11.294
▁Cambridge	-11.294
▁diplomat	-11.2941
▁Pr	-11.2942
=96	-11.2942
▁Wong	-11.2943
ł	-11.2943
eksi	-11.2944
79"	-11.2946
36"	-11.2946
▁Enam	-11.2946
▁pemungutan	-11.2946
▁Kimia	-11.2948
produk	-11.2949
▁Puri	-11.295
▁NBA	-11.295
gos	-11.2952
shire	-11.2952
39"	-11.2954
▁berdampak	-11.2954
gna	-11.2956
▁penciptaan	-11.2959
icola	-11.296
gui	-11.296
▁Istri	-11.2965
▁Donald	-11.297
▁dioksida	-11.2971
dul	-11.2974
=95	-11.2974
▁kerusuhan	-11.2975
ngkung	-11.2976
▁kenal	-11.2978
sebut	-11.2979
▁NASCAR	-11.298
Chi	-11.2981
▁biologis	-11.2981
=76	-11.2982
ille	-11.2982
▁Pilkada	-11.2986
▁baterai	-11.2986
▁perlombaan	-11.2986
▁perkembangannya	-11.2986
▁mengarahkan	-11.2987
▁tidaklah	-11.2987
▁Kebun	-11.2991
▁Tana	-11.2992
Don	-11.2995
ifer	-11.2995
▁silinder	-11.2996
nti	-11.2996
▁barisan	-11.2998
35"	-11.2999
37"	-11.3
-20.	-11.3
Dewan	-11.3
▁mamalia	-11.3002
▁sampul	-11.3002
dé	-11.3003
▁diamati	-11.3004
ule	-11.3005
▁hektar	-11.3006
▁meletakkan	-11.3007
▁menjatuhkan	-11.3007
▁Syam	-11.3007
hae	-11.3009
▁Sudan	-11.301
▁kol	-11.301
▁perjalanannya	-11.301
▁dugaan	-11.3012
▁emisi	-11.3013
Super	-11.3017
mpo	-11.3017
ringan	-11.3018
▁Sya	-11.3019
iro	-11.3023
AK	-11.3023
60"	-11.3024
5.000	-11.3026
unggu	-11.303
▁Airways	-11.3033
▁Bersenjata	-11.3034
▁bir	-11.3036
▁Slovenia	-11.3038
▁Mandarin	-11.3039
▁Monumen	-11.3039
▁Pihak	-11.304
Partai	-11.3042
53"	-11.3042
▁variabel	-11.3042
▁sosialis	-11.3046
▁pernikahannya	-11.3047
▁yayasan	-11.3049
▁Luc	-11.3049
▁Pengaruh	-11.3049
▁Komering	-11.3049
▁tadi	-11.3049
▁Massachusetts	-11.305
▁libur	-11.3051
ava	-11.3053
buat	-11.3054
▁terbentuknya	-11.3054
▁Yordania	-11.3055
▁Kanton	-11.3056
▁bekerjasama	-11.3058
waktu	-11.3059
▁digabungkan	-11.3059
tomo	-11.306
git	-11.3062
▁River	-11.3062
▁Jiwa	-11.3063
dap	-11.3064
▁Hamilton	-11.3064
▁1907	-11.3064
▁Dwi	-11.3065
▁Anthony	-11.307
▁keliling	-11.3072
sem	-11.3072
▁pengamat	-11.3074
64"	-11.3074
▁ng	-11.3076
ans	-11.308
▁panel	-11.308
Rubiaceae	-11.308
▁IP	-11.3083
▁akal	-11.3084
akh	-11.309
▁ple	-11.3091
52"	-11.3093
▁Kir	-11.3095
▁Tara	-11.3095
▁berlatih	-11.3097
▁Biak	-11.3097
nja	-11.3099
▁memberontak	-11.3101
▁nitrogen	-11.3102
▁Araneus	-11.3104
hard	-11.3104
▁Konfederasi	-11.3104
▁KM	-11.3104
▁Nil	-11.3106
98"	-11.3106
▁kerbau	-11.3107
▁peraih	-11.3107
▁angkat	-11.3108
zin	-11.3108
ord	-11.3109
▁Bina	-11.311
▁lisan	-11.3111
ars	-11.3114
ngko	-11.3115
27"	-11.3115
38"	-11.3116
▁ekstrem	-11.3117
Mont	-11.3118
iel	-11.312
▁dialog	-11.3124
▁Queen	-11.3125
▁Pulo	-11.3126
▁diperintahkan	-11.3132
▁permohonan	-11.3133
cell	-11.3135
yuan	-11.3136
▁Kampar	-11.3138
▁Square	-11.3138
▁Bul	-11.3139
▁Erica	-11.3139
▁indeks	-11.314
▁Wild	-11.3141
▁bergaya	-11.3142
▁yu	-11.3145
▁sc	-11.3148
III	-11.3149
▁mencalonkan	-11.3149
81"	-11.3151
disebut	-11.3152
▁06	-11.3153
69"	-11.3153
▁impor	-11.3154
karan	-11.3155
▁Potensi	-11.3155
▁Kus	-11.3157
anaknya	-11.3158
▁mus	-11.3159
▁sayuran	-11.3159
▁Wetan	-11.3161
lling	-11.3161
▁Hui	-11.3161
▁berburu	-11.3162
68"	-11.3163
chel	-11.3165
▁server	-11.3167
urus	-11.3171
dat	-11.3177
ssel	-11.3177
woo	-11.3178
▁1,5	-11.318
70"	-11.3181
▁perselisihan	-11.3181
▁Tal	-11.3182
57"	-11.3193
▁Menjadi	-11.3193
dale	-11.3193
▁Willem	-11.3196
▁letusan	-11.3197
▁54	-11.3198
dou	-11.3198
▁manapun	-11.3198
56"	-11.3199
▁Earth	-11.3202
▁Jay	-11.3203
pala	-11.3204
▁lap	-11.3206
▁SH	-11.3208
lom	-11.3211
59"	-11.3212
▁Alur	-11.3212
▁pengasingan	-11.3213
kle	-11.3213
▁Singa	-11.3215
7.	-11.3215
▁kakek	-11.3216
=78	-11.3218
▁Dom	-11.3218
▁Pandeglang	-11.3218
▁Mao	-11.3222
▁Neptunus	-11.3225
▁bentuknya	-11.3226
▁lantas	-11.323
▁penyu	-11.323
peri	-11.3232
mari	-11.3233
4,	-11.3233
▁pondok	-11.3235
rou	-11.3238
▁Earl	-11.3238
▁endemik	-11.324
Gentianales	-11.324
▁Ek	-11.3242
95"	-11.3246
▁Qin	-11.3248
%),	-11.3249
▁dukuh	-11.3249
▁Premier	-11.3251
▁Adrian	-11.3252
▁pelaksana	-11.3254
▁1988.	-11.3254
hkan	-11.3254
▁epi	-11.3254
▁meny	-11.3254
▁har	-11.3255
▁apartemen	-11.3256
▁negaranya	-11.3257
▁terlaris	-11.3257
▁Sparta	-11.3265
66"	-11.3266
ić	-11.3268
arti	-11.327
Ban	-11.3272
sebagai	-11.3272
▁Kat	-11.3272
▁penghasilan	-11.3273
▁mor	-11.3273
▁Fra	-11.3273
cro	-11.3276
▁Hard	-11.3276
▁Sak	-11.3277
agama	-11.328
bagi	-11.3282
▁Development	-11.3288
▁menghapus	-11.3288
▁Kerinci	-11.3289
GI	-11.3289
Eu	-11.3291
93"	-11.3292
▁literatur	-11.3294
buh	-11.3295
▁Matius	-11.3295
bok	-11.3295
▁kutub	-11.3295
inter	-11.3296
▁menyerbu	-11.3299
▁Guild	-11.3301
▁sihir	-11.3302
▁Iskandar	-11.3304
▁pembebasan	-11.3304
▁timbal	-11.3304
▁Ide	-11.3305
PC	-11.3305
▁klip	-11.3307
▁Frederick	-11.3308
75"	-11.3308
▁Fri	-11.331
▁Rukun	-11.331
▁bermukim	-11.3313
▁ramah	-11.3313
eva	-11.3314
▁sup	-11.3314
macam	-11.3314
▁Diponegoro	-11.3315
▁han	-11.3317
ology	-11.3317
▁dini	-11.3318
-20,	-11.332
én	-11.332
▁kewenangan	-11.3321
baran	-11.3323
▁Ling	-11.3325
▁kepausan	-11.3326
▁Eks	-11.3327
▁1.0	-11.3327
▁usai	-11.3328
▁Keberadaan	-11.3331
▁protokol	-11.3331
▁Sarawak	-11.3332
▁Arena	-11.3333
▁Aksi	-11.3334
yla	-11.3334
▁Ross	-11.3336
▁penyelenggara	-11.3338
Kan	-11.3339
▁silat	-11.334
▁tongkat	-11.3342
chang	-11.3343
TA	-11.3344
▁Usai	-11.3344
▁Swa	-11.3344
giri	-11.3349
bank	-11.3349
▁kecilnya	-11.3349
▁99	-11.3349
▁sex	-11.335
▁Iman	-11.3351
▁penalti	-11.3353
▁jepang	-11.3354
Pra	-11.3356
▁Markas	-11.3356
ür	-11.3357
rida	-11.336
49"	-11.336
lokasi	-11.3362
▁matang	-11.3362
="78	-11.3362
▁larut	-11.3363
▁konservatif	-11.3367
oso	-11.3368
▁nagari	-11.3368
800	-11.3368
▁pengikutnya	-11.3369
▁Box	-11.3369
▁Istanbul	-11.3369
▁hektare	-11.337
nggo	-11.3372
▁favorit	-11.3373
61"	-11.3374
▁http	-11.3375
▁menyelidiki	-11.3375
▁Kembali	-11.3375
▁Rad	-11.3376
▁santri	-11.3387
▁kudus	-11.3387
nggar	-11.339
dara	-11.3391
71"	-11.3391
▁Say	-11.3392
▁adil	-11.3393
▁mulia	-11.3393
▁ketakutan	-11.3397
▁negosiasi	-11.3397
▁Allium	-11.3397
cerita	-11.3404
▁reaktor	-11.3404
buahan	-11.3404
OR	-11.3405
▁MS	-11.3406
▁Ende	-11.3409
Kerajaan	-11.3412
▁Eksekutif	-11.3413
▁Persib	-11.3415
▁you	-11.3415
PR	-11.3417
▁mayat	-11.3417
rich	-11.342
94"	-11.342
▁Besi	-11.3423
zzo	-11.3425
▁mel	-11.3427
gio	-11.3429
▁Tau	-11.343
▁1989.	-11.3432
▁eksperimen	-11.3434
62"	-11.3438
63"	-11.3441
bilis	-11.3442
▁Walt	-11.3443
96"	-11.3444
▁Fernando	-11.3445
▁sedemikian	-11.3446
▁Cro	-11.3446
▁mingguan	-11.3447
Bur	-11.345
▁penolakan	-11.3451
▁memukul	-11.3451
▁Sto	-11.3451
sso	-11.3453
ifolia	-11.3454
76"	-11.3454
wat	-11.3455
▁Samosir	-11.3457
▁Cot	-11.3457
▁waktunya	-11.3459
yuki	-11.3462
terutama	-11.3462
ault	-11.3465
▁Mgr	-11.3466
▁OS	-11.3466
▁Hiro	-11.3466
▁Kurikulum	-11.3468
▁UI	-11.3469
▁AU	-11.3472
▁Bolaang	-11.3475
Ab	-11.3478
▁ginjal	-11.3479
▁Mill	-11.348
▁keseimbangan	-11.3484
▁war	-11.3484
pong	-11.3486
Sal	-11.3488
▁tempuh	-11.349
Sy	-11.3491
5.	-11.3491
Luna	-11.3491
▁Spe	-11.3494
▁beasiswa	-11.3495
▁Phil	-11.3497
ick	-11.3499
sium	-11.35
▁Harvard	-11.3501
ons	-11.3501
▁Down	-11.3502
roy	-11.3502
all	-11.3504
▁argumen	-11.3504
▁misterius	-11.3505
▁bersuku	-11.3506
ē	-11.3506
▁varietas	-11.3506
47"	-11.3506
▁eksternal	-11.3506
▁Sound	-11.3508
Sejarah	-11.3511
▁dicampur	-11.3512
▁57	-11.3514
Hal	-11.3514
yaitu	-11.3515
ç	-11.3516
▁Mam	-11.3516
Ce	-11.3516
Shi	-11.3517
▁entitas	-11.3517
chu	-11.352
▁Laos	-11.3521
▁pisau	-11.3523
cial	-11.3523
▁Ty	-11.3524
Arab	-11.3525
▁tro	-11.3526
92"	-11.3527
▁sta	-11.3528
▁wo	-11.3528
▁SP	-11.3529
▁Hay	-11.3531
▁berpisah	-11.3532
Ag	-11.3534
▁Rawa	-11.3535
tap	-11.3538
▁Rat	-11.3541
▁Fadil	-11.3542
▁Roger	-11.3544
▁Kau	-11.3545
▁pema	-11.3548
65"	-11.3548
▁Eric	-11.3549
▁inovasi	-11.355
▁mendengarkan	-11.355
▁Banggai	-11.3551
▁Watu	-11.3551
▁tegas	-11.3553
▁detail	-11.3553
▁melekat	-11.3554
mono	-11.3555
▁malang	-11.3557
kelahiran	-11.3558
TP	-11.3559
▁ve	-11.3561
▁Karanganyar	-11.3562
▁Sura	-11.3563
▁memba	-11.3566
gong	-11.3568
▁tebing	-11.3568
▁Vegas	-11.3569
82"	-11.3571
▁jenazah	-11.3576
▁lampung	-11.3577
▁Indragiri	-11.3578
tologi	-11.3579
hit	-11.358
▁Potter	-11.3581
▁Berg	-11.3582
▁sebut	-11.3582
▁1906	-11.3585
▁1984.	-11.3587
▁Obat	-11.3589
oba	-11.3589
kia	-11.3589
07"	-11.359
▁kodepos	-11.359
yanto	-11.3593
▁diucapkan	-11.3594
å	-11.3594
▁(11	-11.3596
88"	-11.3596
▁keadilan	-11.3597
his	-11.3598
▁patah	-11.3599
Dolichopeza	-11.36
▁reputasi	-11.36
▁memasang	-11.36
▁Dampak	-11.3601
▁arena	-11.3601
At	-11.3602
emon	-11.3604
▁infanteri	-11.3606
hil	-11.3606
▁Bojong	-11.3607
▁62	-11.3607
CO	-11.3609
▁Kem	-11.3609
▁syuting	-11.3611
▁Plan	-11.3614
▁Qatar	-11.3615
▁sepupu	-11.3616
hum	-11.3616
▁Sutradara	-11.362
ico	-11.3622
▁revolusioner	-11.3622
▁0.3	-11.3623
▁tegak	-11.3623
▁terima	-11.3625
▁meledak	-11.3627
Ak	-11.3628
▁Pus	-11.3628
▁cer	-11.3629
sio	-11.3632
▁modifikasi	-11.3633
▁Aero	-11.3635
77"	-11.3635
▁72	-11.3638
▁Arjuna	-11.364
▁bra	-11.3645
▁Act	-11.3647
▁Cla	-11.3648
▁BP	-11.3649
▁Tum	-11.3649
د	-11.365
▁bersangkutan	-11.365
▁Kategori	-11.3653
▁Bau	-11.3654
mmer	-11.3654
▁Clark	-11.3655
89"	-11.3655
▁perbelanjaan	-11.3656
▁Buton	-11.3656
▁Kuning	-11.3657
0"	-11.3658
sma	-11.3658
nius	-11.3658
ago	-11.3659
▁Prima	-11.3659
74"	-11.3662
inda	-11.3664
▁Delhi	-11.3668
▁dijabat	-11.367
Taman	-11.3671
▁mematikan	-11.3673
▁natrium	-11.3673
▁Guy	-11.3673
▁Terakhir	-11.3674
▁Ludwig	-11.3676
▁mengandalkan	-11.3678
▁memohon	-11.3678
▁ran	-11.3681
83"	-11.3682
anta	-11.3683
GM	-11.3683
Negara	-11.3684
▁limbah	-11.3685
▁Wahyu	-11.3685
▁gurun	-11.3686
▁penyedia	-11.3689
▁bahagia	-11.3689
itu	-11.3691
=155	-11.3691
▁Purba	-11.3693
▁gay	-11.3696
▁Trump	-11.3697
esi	-11.37
▁nasionalis	-11.37
▁masuknya	-11.37
▁Aziz	-11.3701
="155	-11.3702
▁Konser	-11.3703
▁kubah	-11.3704
00"	-11.3707
▁bal	-11.3708
ρ	-11.3714
▁delegasi	-11.3717
elia	-11.3717
gunung	-11.3717
▁dideskripsikan	-11.3717
▁diukur	-11.3718
▁Vincent	-11.3718
dr	-11.3721
▁ikon	-11.3722
▁perempuannya	-11.3724
pula	-11.3725
80"	-11.3725
▁sun	-11.3725
▁Tem	-11.3727
▁(9	-11.3728
▁Teng	-11.3729
over	-11.3729
ihan	-11.3729
▁Mana	-11.3733
pai	-11.3739
mori	-11.374
▁batik	-11.3742
▁sepur	-11.3742
song	-11.3742
▁bro	-11.3744
▁komisi	-11.3746
78"	-11.3748
▁Lintas	-11.3748
sara	-11.3748
▁Mekkah	-11.3751
▁mendiami	-11.3751
ović	-11.3752
wung	-11.3754
▁karangan	-11.3754
▁Sains	-11.3755
ilasi	-11.3757
▁mengamankan	-11.3757
▁dilalui	-11.3757
▁Wonogiri	-11.3757
leh	-11.3757
▁lambung	-11.3759
▁lawas	-11.376
enburg	-11.376
bawa	-11.3761
▁mendeteksi	-11.3762
unda	-11.3763
▁Zhao	-11.3763
▁koronavirus	-11.3763
posisi	-11.3763
▁seolah	-11.3765
▁metro	-11.3766
▁Perak	-11.3767
▁Laki	-11.3767
ever	-11.3767
▁melengkapi	-11.3768
▁Sayangnya	-11.3769
Paul	-11.3772
▁doktor	-11.3776
part	-11.3776
▁bor	-11.3777
▁Kamp	-11.3778
▁Johan	-11.3779
▁Pont	-11.3779
ssy	-11.3782
97"	-11.3783
▁comp	-11.3785
▁pencapaian	-11.3785
▁Honor	-11.3787
tugas	-11.3788
opogon	-11.3789
▁dipersembahkan	-11.3789
yeon	-11.379
▁hambatan	-11.3792
▁Blora	-11.3793
gia	-11.3794
▁Tabel	-11.3794
▁pengu	-11.3795
▁Pela	-11.3796
▁Ay	-11.3797
pesawat	-11.3797
▁MI	-11.3799
▁Cop	-11.3801
▁Pembebasan	-11.3802
▁66	-11.3804
▁kelaparan	-11.3805
stor	-11.3805
▁pengendalian	-11.3805
▁Manu	-11.3806
▁perlengkapan	-11.3808
▁Pancasila	-11.3814
Ger	-11.3814
▁0.4	-11.3814
▁panjangnya	-11.3819
▁adu	-11.3822
▁tamat	-11.3825
▁Memiliki	-11.383
▁penayangan	-11.3831
▁1989,	-11.3833
Sin	-11.3837
▁Phytomyza	-11.3838
oy	-11.384
hani	-11.3841
▁UK	-11.3842
84"	-11.3843
rei	-11.3844
fil	-11.3845
▁Prinsip	-11.3846
▁laku	-11.3846
tern	-11.3846
www	-11.3848
Za	-11.3853
▁kemiskinan	-11.3853
▁Upaya	-11.3854
▁Leon	-11.386
▁Massa	-11.3863
vari	-11.3863
▁berse	-11.3863
ego	-11.3864
Hymedesmia	-11.3864
▁tren	-11.3864
▁Kumar	-11.3866
▁pala	-11.3866
▁Hamid	-11.3867
▁geologi	-11.3867
oga	-11.3868
▁KK	-11.3868
Pada	-11.387
antar	-11.3874
▁penanganan	-11.3876
▁dirawat	-11.3876
▁silang	-11.3876
85"	-11.3878
GA	-11.3879
▁Gui	-11.3879
iformis	-11.388
▁melukis	-11.3881
ulasi	-11.3882
05"	-11.3883
▁Fair	-11.3883
▁Alasan	-11.3884
86"	-11.3885
▁Rupa	-11.3886
▁produktif	-11.3886
isu	-11.3888
▁Ukuran	-11.3891
tura	-11.3892
▁Kompetisi	-11.3893
▁mempekerjakan	-11.3893
▁Minang	-11.3893
01"	-11.3894
▁Ry	-11.3894
73"	-11.3896
▁surga	-11.3896
▁persoalan	-11.3896
kuk	-11.3896
▁Jar	-11.3901
▁Ida	-11.3903
tle	-11.3905
▁Blang	-11.3907
trop	-11.391
▁kerajinan	-11.391
tag	-11.3912
eth	-11.3912
Ang	-11.3913
▁dibakar	-11.3914
Miss	-11.3914
▁pati	-11.3914
▁banjar	-11.3915
▁Business	-11.3915
▁renang	-11.3916
▁Regional	-11.3917
bangunan	-11.3917
menerus	-11.3918
▁menerus	-11.3918
09"	-11.3918
▁Pengurus	-11.3918
SK	-11.392
▁tanam	-11.392
chus	-11.3921
▁Tin	-11.3922
▁bur	-11.3924
▁Malta	-11.3926
▁facto	-11.3926
▁atasnya	-11.3927
▁cl	-11.3928
▁Politeknik	-11.3928
90"	-11.3929
escens	-11.3931
▁Gin	-11.3931
sih	-11.3933
▁Mama	-11.3933
▁Temanggung	-11.3933
▁Dal	-11.3935
▁budi	-11.3938
▁intelijen	-11.3939
arah	-11.394
▁Paskah	-11.394
▁tahapan	-11.394
anggung	-11.3944
▁kurikulum	-11.3945
▁Buddhis	-11.3948
▁berinteraksi	-11.3951
▁Populasi	-11.3951
garis	-11.3951
▁tingginya	-11.3951
-30	-11.3953
▁Sela	-11.3954
dani	-11.3957
ndra	-11.3958
Ali	-11.3958
gni	-11.3958
▁Moore	-11.396
ical	-11.3961
▁ciptaan	-11.3961
▁bangun	-11.3961
▁memeriksa	-11.3962
▁sumbu	-11.3962
▁Baron	-11.3962
▁Wisnu	-11.3962
tom	-11.3965
TO	-11.3965
87"	-11.3967
oki	-11.397
▁Jae	-11.397
ET	-11.3972
04"	-11.3972
PU	-11.3972
▁Senjata	-11.3974
▁rohani	-11.3974
▁nyaris	-11.3976
▁Kamis	-11.3976
▁BN	-11.3977
▁TVRI	-11.3977
▁Gaga	-11.3977
ington	-11.398
▁Hatta	-11.398
PO	-11.3982
▁perkara	-11.3984
▁asuransi	-11.3985
▁bereaksi	-11.3985
▁Betawi	-11.3986
▁Semi	-11.3988
=276	-11.3989
▁berbahan	-11.3989
itch	-11.399
▁Ikatan	-11.3991
tivitas	-11.3991
▁pendahulunya	-11.3991
67"	-11.3996
▁Kucing	-11.3997
▁Seng	-11.3998
▁kemampuannya	-11.3999
▁Allen	-11.4001
▁Banyu	-11.4002
▁fantasi	-11.4003
ista	-11.4007
▁Pertemuan	-11.4008
▁paduan	-11.4009
▁mengurus	-11.4011
▁mendatang	-11.4012
▁liter	-11.4013
ctus	-11.4014
▁Christopher	-11.4015
▁haji	-11.4016
▁Titan	-11.402
▁Koleksi	-11.4021
▁Masing	-11.4025
than	-11.4026
▁Tangga	-11.4027
ère	-11.4027
▁sep	-11.4027
▁Pria	-11.403
▁diajarkan	-11.4032
CI	-11.4033
pul	-11.4035
▁mala	-11.4036
▁cendekiawan	-11.4043
▁dibuang	-11.4044
▁konservasi	-11.4044
▁mengenang	-11.4044
kanak	-11.4044
Tra	-11.4044
▁Golkar	-11.4044
▁Audi	-11.4044
▁Harun	-11.4047
▁Sulaiman	-11.4049
▁Berkat	-11.4053
War	-11.4057
▁Bangkok	-11.4057
hou	-11.4057
▁setelahnya	-11.406
-0	-11.406
▁pemeluk	-11.4061
▁SMPN	-11.4061
▁Napoli	-11.4061
▁Lituania	-11.4062
É	-11.4062
▁bapak	-11.4063
▁astronom	-11.4065
99"	-11.4065
▁jatuhnya	-11.4065
▁santo	-11.4066
▁pembinaan	-11.4067
▁rokok	-11.4067
▁States	-11.4068
▁IC	-11.4068
Ver	-11.407
tahan	-11.407
▁bimbingan	-11.4072
core	-11.4074
-22	-11.4076
▁Gene	-11.4079
▁penghubung	-11.4081
▁membersihkan	-11.409
▁mendeskripsikan	-11.409
▁Darussalam	-11.409
organ	-11.4092
tation	-11.4094
ía	-11.4094
▁Moto	-11.4095
▁usulan	-11.4096
Leptotarsus	-11.4096
▁mahkamah	-11.4096
▁Qui	-11.4097
One	-11.4097
▁perbankan	-11.4101
▁Rom	-11.4102
▁lensa	-11.4103
▁keraton	-11.4109
cula	-11.4109
▁migrasi	-11.4111
▁Miller	-11.4112
▁bercerai	-11.4113
08"	-11.4113
rag	-11.4115
Republik	-11.4115
▁Kontroversi	-11.4116
ilmu	-11.4118
▁artileri	-11.4119
▁Terjun	-11.4121
▁1901	-11.4122
▁Kō	-11.4122
bumi	-11.4123
MB	-11.4123
▁Sing	-11.4124
▁Asyur	-11.4125
ndar	-11.4126
▁rasional	-11.4126
▁Ven	-11.4126
IV	-11.4126
▁1938	-11.4127
gau	-11.4127
▁CO	-11.4128
02"	-11.4129
▁Biru	-11.4129
▁pasokan	-11.4131
cco	-11.4131
▁Bush	-11.4132
act	-11.4132
▁Pandemi	-11.4133
▁asap	-11.414
▁komposer	-11.414
▁jangan	-11.4142
▁ABC	-11.4142
▁konsonan	-11.4142
ffa	-11.4143
–1	-11.4146
uch	-11.4147
▁kra	-11.4147
▁Afghanistan	-11.4148
▁malaikat	-11.4148
▁hiasan	-11.4152
▁Cas	-11.4153
▁Ferdinand	-11.4153
Uni	-11.4155
matsu	-11.4155
▁Sek	-11.4155
gami	-11.4158
▁Kelapa	-11.416
JR	-11.416
ilan	-11.416
▁au	-11.416
▁shi	-11.4162
▁kelahirannya	-11.4164
harga	-11.4165
Jalan	-11.4165
roh	-11.4166
rica	-11.4167
▁Tugu	-11.417
tius	-11.417
kkan	-11.417
▁mengantarkan	-11.4171
▁Wonosobo	-11.4172
▁bertanding	-11.4172
▁ditangani	-11.4172
novel	-11.4173
▁Brigade	-11.4176
kum	-11.4176
▁menghambat	-11.4178
▁Hand	-11.4182
Liga	-11.4183
▁bergenre	-11.4184
▁Berita	-11.4186
Jalur	-11.4187
▁usahanya	-11.4188
▁Tama	-11.4188
▁disepakati	-11.4189
▁bass	-11.4193
dina	-11.4196
kut	-11.4197
▁Pedro	-11.4199
▁perancang	-11.4199
▁Eparki	-11.4199
▁110	-11.4201
▁trek	-11.4201
▁Semenjak	-11.4201
▁1890	-11.4204
dro	-11.4206
hur	-11.4208
▁Br	-11.4212
zam	-11.4213
DS	-11.4216
▁Yun	-11.4216
blo	-11.4217
▁PM	-11.4218
▁memudahkan	-11.4219
▁skema	-11.4219
▁are	-11.4222
▁Faktor	-11.4223
▁kelebihan	-11.4225
alisasi	-11.4225
▁Gem	-11.4226
rma	-11.4226
▁Hum	-11.4227
▁penggerak	-11.4227
▁analog	-11.4228
Mon	-11.4229
ory	-11.4229
bana	-11.423
▁sar	-11.4231
iq	-11.4232
lid	-11.4233
bilitas	-11.4235
▁puncaknya	-11.4236
lir	-11.4236
lé	-11.4238
▁1937	-11.424
▁sayang	-11.424
▁terkini	-11.4241
cas	-11.4242
FI	-11.4246
▁Toronto	-11.4249
▁Brazil	-11.4249
▁Jordan	-11.4249
▁Over	-11.4251
uga	-11.4254
▁ap	-11.4255
rotipula	-11.426
▁amerika	-11.426
▁memulihkan	-11.426
▁menyesuaikan	-11.426
▁Thai	-11.4262
sep	-11.4262
▁Babel	-11.4263
Che	-11.4266
oth	-11.4266
▁Mongondow	-11.4266
▁sambutan	-11.4266
KP	-11.4269
ñ	-11.427
▁EP	-11.4272
▁terowongan	-11.4272
▁klasemen	-11.4272
▁Alice	-11.4274
▁Terjemahan	-11.4275
▁1933	-11.4275
▁kal	-11.4275
▁Jasa	-11.4275
▁az	-11.4276
kla	-11.4276
▁Kebon	-11.4277
ayan	-11.4277
▁kostum	-11.4279
▁mega	-11.428
▁Siak	-11.4281
Au	-11.4281
karakter	-11.4281
CD	-11.4284
oon	-11.4285
▁usus	-11.4285
▁Dance	-11.4285
kecil	-11.4287
nggal	-11.4289
▁700	-11.429
▁Bunda	-11.4291
▁ditembak	-11.4291
ovi	-11.4292
Jerman	-11.4293
▁Poly	-11.4293
illy	-11.4295
▁gaji	-11.4298
▁diesel	-11.4298
▁mimpi	-11.4298
▁Mahmud	-11.4301
▁penamaan	-11.4302
▁demonstrasi	-11.4303
▁Resimen	-11.4303
AU	-11.4304
▁tercantum	-11.4308
▁sayur	-11.4308
▁bak	-11.4309
▁XI	-11.4311
dens	-11.4313
▁Naka	-11.4315
uv	-11.4316
vil	-11.4316
▁sarang	-11.4316
▁Last	-11.4319
▁investor	-11.432
▁Manggarai	-11.432
▁Aktivitas	-11.432
unting	-11.432
▁skuat	-11.4321
▁Human	-11.4321
▁sebelas	-11.4322
atkan	-11.4325
▁Station	-11.4326
▁penyerahan	-11.4326
▁persis	-11.4331
▁Andy	-11.4334
▁Johannes	-11.434
▁Adolf	-11.4342
▁Paku	-11.4342
hri	-11.4344
▁Pandangan	-11.4344
▁meneliti	-11.4344
▁perlakuan	-11.4344
ual	-11.4344
▁makmur	-11.4347
72"	-11.4347
▁sek	-11.4349
▁pengecualian	-11.435
vet	-11.4351
▁Sembilan	-11.4358
▁perisai	-11.4362
▁Cannes	-11.4364
▁akademisi	-11.4366
▁master	-11.4367
▁Delta	-11.4368
▁Pacific	-11.4368
▁terungkap	-11.4368
▁kastil	-11.4369
▁Kotawaringin	-11.4369
mic	-11.437
lyn	-11.4371
▁Solok	-11.4372
▁dirasakan	-11.4372
▁Levi	-11.4372
▁Sas	-11.4373
ngkap	-11.4373
▁pengepungan	-11.4374
▁berlatar	-11.4374
▁kepalanya	-11.4374
▁pidana	-11.4374
ilo	-11.4374
▁diiringi	-11.4375
bukan	-11.4376
▁leg	-11.4378
▁Take	-11.4379
03"	-11.438
▁Jane	-11.4382
▁virtual	-11.4386
▁eropa	-11.4386
▁Darul	-11.4386
Mas	-11.4388
7,	-11.4389
ör	-11.4395
rr	-11.4396
▁MP	-11.4398
▁Management	-11.4404
▁pengawal	-11.4406
▁Hus	-11.4408
cheng	-11.4408
▁terminus	-11.441
▁SCTV	-11.441
▁March	-11.4413
▁gudang	-11.4413
▁Fisika	-11.4413
▁individual	-11.4414
ogo	-11.4414
▁perpindahan	-11.4416
MC	-11.4416
▁runtuh	-11.4424
▁hilangnya	-11.4425
▁janda	-11.4426
▁terpanjang	-11.443
▁Mono	-11.443
jur	-11.443
prinsip	-11.4431
▁Mario	-11.4432
▁norma	-11.4433
Kim	-11.4434
▁2.0	-11.4439
▁*	-11.444
tron	-11.4444
▁abadi	-11.4444
kerja	-11.4444
▁dinamis	-11.4445
▁rempah	-11.4448
Ch	-11.4449
sif	-11.4456
▁Ageng	-11.446
▁Run	-11.4464
langkah	-11.4467
▁banding	-11.4468
Gen	-11.447
▁07	-11.4471
ED	-11.4473
▁RA	-11.4476
▁irigasi	-11.4477
▁keramik	-11.4477
▁Covid	-11.4477
ès	-11.4478
▁58	-11.4478
thing	-11.4479
SO	-11.448
▁Blu	-11.448
aca	-11.448
▁Harian	-11.448
llen	-11.4482
=44	-11.4485
▁dieksekusi	-11.4489
bola	-11.449
▁terdahulu	-11.4491
Masjid	-11.4492
▁Pelayanan	-11.4493
▁Susan	-11.4494
▁mewarisi	-11.4495
▁che	-11.4495
▁ibukota	-11.4495
mei	-11.4499
▁0.2	-11.45
▁kemarau	-11.4501
▁kolektif	-11.4501
▁Rosa	-11.4501
masi	-11.4503
▁kursus	-11.4507
▁penglihatan	-11.4507
▁Chandra	-11.4507
board	-11.4511
▁Main	-11.4513
▁pembantaian	-11.4519
▁berprofesi	-11.4524
▁Steven	-11.4524
▁ekosistem	-11.4525
▁menyerukan	-11.4525
jian	-11.4527
Ken	-11.4527
▁Tema	-11.4527
ān	-11.4527
▁Bruce	-11.453
▁tunduk	-11.4532
char	-11.4532
▁dikenali	-11.4534
▁Secret	-11.4535
▁Bale	-11.4537
▁mengutip	-11.4537
▁reproduksi	-11.4538
▁Plaza	-11.4539
▁keterlibatan	-11.454
iat	-11.4541
ubur	-11.4541
Film	-11.4541
nil	-11.4542
η	-11.4543
ote	-11.4544
▁1918	-11.4546
06"	-11.4548
▁timnas	-11.4549
▁prasarana	-11.455
hel	-11.4552
▁Pandan	-11.4553
belas	-11.4554
-29	-11.4555
▁system	-11.4556
EM	-11.4556
▁fragmen	-11.4557
▁Taurat	-11.4557
▁konfigurasi	-11.4558
▁elit	-11.4558
▁didik	-11.4559
▁1986.	-11.4564
ein	-11.4565
▁wasit	-11.4567
▁vo	-11.4569
▁dipotong	-11.457
▁Tindakan	-11.4571
provinsi	-11.4572
▁ratus	-11.4572
olah	-11.4573
-25	-11.4575
int	-11.4576
▁Aleksandria	-11.4577
▁barangay	-11.4577
▁usianya	-11.4577
mid	-11.4578
▁Kle	-11.458
▁legendaris	-11.4581
▁maaf	-11.4583
▁buta	-11.4583
▁Diego	-11.4585
▁Vladimir	-11.4585
▁pembuangan	-11.4586
▁hip	-11.4587
▁hormon	-11.4587
▁Sebanyak	-11.4588
▁Insiden	-11.4588
mail	-11.4589
ombo	-11.4589
▁seng	-11.4592
▁liturgi	-11.4592
▁Sap	-11.4594
▁76	-11.4596
sikan	-11.4596
igi	-11.4597
▁Ik	-11.4597
NA	-11.4598
▁Cl	-11.4599
▁Of	-11.4599
▁file	-11.46
=90	-11.46
iva	-11.4606
wari	-11.4606
tet	-11.461
Gra	-11.461
▁mengingatkan	-11.4612
▁rasul	-11.4612
▁direbut	-11.4617
▁Banjarnegara	-11.4618
▁Nova	-11.4618
▁Satya	-11.462
▁2000-	-11.462
▁Jet	-11.4622
▁Boyolali	-11.4623
▁pengurangan	-11.4623
▁membujuk	-11.4623
▁Et	-11.4623
zzi	-11.4627
▁Demi	-11.4627
mena	-11.4628
▁Rod	-11.4632
▁1942,	-11.4633
ying	-11.4635
etti	-11.4635
▁Bag	-11.4638
▁diproduseri	-11.4642
▁rincian	-11.4645
▁Technology	-11.4648
▁didedikasikan	-11.4648
▁persenjataan	-11.4648
▁spektrum	-11.4648
kemudian	-11.4652
eun	-11.4652
▁Pandawa	-11.4656
ave	-11.4656
cra	-11.4658
▁play	-11.466
о	-11.466
▁mendadak	-11.466
▁terbalik	-11.4662
▁Klo	-11.4663
▁cal	-11.4663
ikat	-11.4664
vent	-11.4664
▁terbitan	-11.4664
lawan	-11.4664
uman	-11.4665
▁Deklarasi	-11.4667
▁Siswa	-11.4668
sca	-11.4669
▁za	-11.4669
▁August	-11.4672
▁bermacam	-11.4672
▁Nintendo	-11.4672
balik	-11.4677
▁Herzegovina	-11.4677
▁ucapan	-11.4679
▁semenanjung	-11.4679
▁sumbangan	-11.468
▁pemilih	-11.468
▁Aksara	-11.4683
kripsi	-11.4683
▁Sad	-11.4683
▁Gon	-11.4684
▁diperintah	-11.4685
▁pemirsa	-11.4685
▁nga	-11.4687
▁Kiri	-11.4687
ante	-11.4687
yoshi	-11.469
fah	-11.469
roto	-11.4691
▁mendaftar	-11.4691
onne	-11.4691
▁pembatasan	-11.4692
▁Analisis	-11.4693
deng	-11.4694
▁By	-11.4695
▁Mobile	-11.4696
▁Misa	-11.4696
dya	-11.4696
▁spesial	-11.47
Pd	-11.47
▁junior	-11.4701
к	-11.4703
▁Limited	-11.4703
sip	-11.4705
▁mema	-11.4706
ison	-11.4707
▁Dol	-11.4708
thia	-11.4709
▁puas	-11.4709
▁tawanan	-11.471
▁Tumbuhan	-11.471
▁Luis	-11.4711
mbal	-11.4713
▁Public	-11.4715
▁CC	-11.4721
▁Harris	-11.4721
▁Ekspedisi	-11.4721
▁sintesis	-11.4723
▁Mumbai	-11.4723
▁MC	-11.4724
▁berdoa	-11.4725
kerta	-11.4725
▁Bakar	-11.4727
▁Slowakia	-11.4728
▁kementerian	-11.4728
▁menghalangi	-11.4729
▁merawat	-11.4729
▁Lap	-11.4729
▁Alor	-11.4733
▁tsunami	-11.4735
▁dilepaskan	-11.4735
▁Laboratorium	-11.4737
▁Lingga	-11.4738
▁Kay	-11.4738
gum	-11.4739
▁menantang	-11.4741
atas	-11.4742
▁Nations	-11.4743
▁Aman	-11.4743
kalan	-11.4745
▁Guinea	-11.4747
▁imbang	-11.475
▁Who	-11.4751
▁Bayu	-11.4752
▁memperpanjang	-11.4753
▁Manila	-11.4755
cari	-11.4755
mart	-11.4757
▁Silva	-11.4758
ُ	-11.4759
▁Abdurrahman	-11.476
▁Family	-11.476
▁Wana	-11.4763
▁efisiensi	-11.4763
▁Kamen	-11.4764
▁kehendak	-11.4765
▁sejarahnya	-11.4765
▁menyenangkan	-11.4766
▁terganggu	-11.4766
▁diperkuat	-11.4766
Batu	-11.4769
Bri	-11.4769
▁Por	-11.477
raf	-11.4778
AI	-11.4778
▁Pet	-11.4779
oran	-11.4779
ound	-11.478
▁Komune	-11.478
▁racun	-11.478
▁Sutan	-11.4783
▁Persemakmuran	-11.4784
▁Pertumbuhan	-11.4785
▁Aram	-11.4787
▁pemeliharaan	-11.4788
▁Micro	-11.4789
6,	-11.4789
▁Mediterania	-11.4791
▁Let	-11.4792
▁Kos	-11.4792
enne	-11.4793
▁Lind	-11.4794
▁tindak	-11.4794
▁00	-11.4795
▁lampau	-11.4797
idah	-11.4798
▁Bros	-11.4798
▁88	-11.48
▁inggris	-11.4803
dun	-11.4803
=283	-11.4806
▁Franz	-11.4808
▁pengeboman	-11.481
▁group	-11.481
▁Nord	-11.4811
rif	-11.4812
▁1986,	-11.4814
▁1898	-11.4814
▁demam	-11.4816
▁ekologi	-11.4817
▁Gordon	-11.4817
uff	-11.4819
▁klinis	-11.4822
▁Baja	-11.4823
▁faksi	-11.4825
hutan	-11.4825
▁rela	-11.4826
▁Tahta	-11.4827
▁Sebagaimana	-11.4827
▁Marc	-11.4827
▁Mantan	-11.4828
▁kubu	-11.4828
▁katedral	-11.4828
▁penjahat	-11.4829
▁ren	-11.483
▁€	-11.4832
▁keping	-11.4832
▁Arti	-11.4834
▁madu	-11.4834
▁Johnny	-11.4834
▁bos	-11.4834
IL	-11.4835
▁berlari	-11.4835
0.6	-11.484
aja	-11.4841
▁pri	-11.4841
jana	-11.4842
▁karenanya	-11.4845
thon	-11.4846
▁penjual	-11.4846
▁Luna	-11.4847
="283	-11.4847
▁statusnya	-11.485
▁krim	-11.4851
▁Abbas	-11.4855
▁pamannya	-11.4855
pid	-11.4857
▁Bangun	-11.4858
▁performa	-11.4858
▁etika	-11.4859
▁liat	-11.4859
▁emosi	-11.4859
Sumber	-11.486
▁Penyebab	-11.486
▁mengulang	-11.4861
▁tembakau	-11.4861
▁Fla	-11.4863
bandingkan	-11.4864
maculata	-11.4865
▁Sindang	-11.4865
▁partisipasi	-11.4866
▁tar	-11.4867
▁1909	-11.4869
▁2.000	-11.4869
▁biak	-11.487
ast	-11.4873
▁Darwin	-11.4874
ت	-11.4876
▁Philippe	-11.4877
▁asia	-11.4878
▁ger	-11.4878
▁pengumuman	-11.4879
▁Pariaman	-11.4879
▁tangannya	-11.488
=156	-11.4881
▁utang	-11.4882
leu	-11.4883
emo	-11.4885
▁Joseon	-11.4888
phone	-11.4889
nagara	-11.489
▁dilatih	-11.4891
▁dimodifikasi	-11.4891
▁neutron	-11.4891
▁Kazakhstan	-11.4891
▁Point	-11.4895
▁cikal	-11.4895
▁Nokia	-11.4895
sie	-11.4896
▁hits	-11.4897
perang	-11.4897
▁Arsenal	-11.4898
▁tombol	-11.4898
▁dirayakan	-11.4898
▁konstitusional	-11.4898
="156	-11.4899
▁Jason	-11.49
Hubungan	-11.4903
Sang	-11.4903
▁tapanuli	-11.4904
penulis	-11.4904
ticus	-11.4904
iman	-11.4905
▁tele	-11.4905
Museum	-11.491
▁menyentuh	-11.491
▁persimpangan	-11.491
▁Debut	-11.491
Rumah	-11.4911
▁160	-11.4911
▁Boys	-11.4912
▁Sempat	-11.4913
rm	-11.4914
▁Hadiah	-11.4915
▁Sud	-11.4917
zhi	-11.4919
▁Indonesian	-11.4919
▁linear	-11.4921
▁Billy	-11.4922
▁Hijau	-11.4923
bukti	-11.4925
▁Rem	-11.4926
▁86	-11.4926
▁Titik	-11.4926
▁mengejutkan	-11.4929
▁misteri	-11.4931
stic	-11.4931
▁Luther	-11.4932
▁Bis	-11.4932
▁85	-11.4933
▁Ok	-11.4933
▁Ernest	-11.4935
▁amatir	-11.4935
▁Linux	-11.4935
▁mengabaikan	-11.4936
▁Jersey	-11.4936
RW	-11.4937
▁Pius	-11.4938
yne	-11.4938
▁ag	-11.4939
с	-11.4939
▁Sui	-11.4943
▁Back	-11.4944
▁AG	-11.4946
▁Ethiopia	-11.4948
▁dikonsumsi	-11.4948
▁meniru	-11.4949
▁berpotensi	-11.4949
cop	-11.4951
av	-11.4953
bs	-11.4953
▁terkejut	-11.4955
▁diperpanjang	-11.4955
▁perdananya	-11.4958
▁Joan	-11.4958
=43	-11.4958
sili	-11.4959
▁Gambar	-11.4961
▁memunculkan	-11.4961
▁pengunduran	-11.4961
ark	-11.4966
▁pel	-11.4966
▁Pennsylvania	-11.4968
sila	-11.4968
▁Ade	-11.4968
▁Obama	-11.4969
▁Brand	-11.4969
▁Rokan	-11.4971
▁São	-11.4973
▁dihadapi	-11.4974
▁Kemenangan	-11.4974
uki	-11.4975
1)	-11.4977
hadi	-11.4979
hukum	-11.498
model	-11.4985
kau	-11.4986
▁penggambaran	-11.4987
▁68	-11.4987
▁asrama	-11.4988
▁beton	-11.4988
▁Sumba	-11.4988
▁rentan	-11.4991
▁berlaga	-11.4992
▁Bonto	-11.4992
▁Book	-11.4993
▁sinema	-11.4995
cum	-11.4995
▁Pemeran	-11.4997
▁Rang	-11.4998
▁Sinetron	-11.4999
▁Cou	-11.5001
▁Films	-11.5002
▁Bern	-11.501
▁Productions	-11.5011
▁pernapasan	-11.5012
▁perkataan	-11.5012
▁pon	-11.5013
▁Kasih	-11.5017
Cucurbitales	-11.5019
▁peduli	-11.5019
▁ditunda	-11.5019
tie	-11.5019
fit	-11.502
▁PD	-11.502
▁setingkat	-11.5021
▁1980.	-11.5021
▁penderitaan	-11.5023
▁mengucapkan	-11.5025
AF	-11.5027
▁prix	-11.5027
ingan	-11.5031
ž	-11.5031
▁paralel	-11.5032
ters	-11.5032
kasi	-11.5033
karena	-11.5036
Begoniaceae	-11.5038
▁soundtrack	-11.504
wis	-11.504
▁Part	-11.5041
▁Kul	-11.5042
▁kemiripan	-11.5045
nit	-11.5047
▁sem	-11.5048
▁tutup	-11.5049
emia	-11.5049
ost	-11.505
▁Mazmur	-11.5051
▁Borneo	-11.5051
▁Benjamin	-11.5052
arto	-11.5053
▁semata	-11.5054
▁Sou	-11.5055
▁Okinawa	-11.5057
▁Riset	-11.5058
▁Ria	-11.5058
Mad	-11.5061
▁1903	-11.5063
▁Purwokerto	-11.5064
▁penyiar	-11.5064
▁dapur	-11.5066
▁member	-11.5072
ddy	-11.5073
BP	-11.5075
▁over	-11.5076
▁Konflik	-11.5077
coba	-11.5077
▁Giovanni	-11.5078
▁1980,	-11.5079
▁Achmad	-11.5083
▁Stand	-11.5083
▁Sidang	-11.5085
cam	-11.5086
▁SU	-11.5087
▁rencananya	-11.5089
="118	-11.509
utu	-11.509
▁Carolina	-11.509
bata	-11.5092
▁grafik	-11.5095
▁konvensi	-11.5096
▁Telugu	-11.5096
▁Listrik	-11.5096
▁diusir	-11.5097
▁transformasi	-11.5099
▁pekerjaannya	-11.5099
▁1935	-11.51
▁batasan	-11.5101
Acmaeodera	-11.5102
▁Mbah	-11.5104
▁1987.	-11.5105
uel	-11.5105
▁mutlak	-11.5107
▁Perlindungan	-11.5109
▁Parigi	-11.5111
tsch	-11.5111
▁Emirat	-11.5114
900	-11.5114
▁mende	-11.5114
▁membangkitkan	-11.5115
=118	-11.5116
▁Maru	-11.5117
▁1904	-11.5118
▁Kresna	-11.5122
▁dipasarkan	-11.5122
fra	-11.5122
▁Bukti	-11.5123
▁Charlie	-11.5124
▁Panama	-11.5126
▁Deputi	-11.5127
ß	-11.5127
▁50%	-11.5129
▁Sports	-11.5129
▁hiper	-11.5131
▁HIV	-11.5132
▁Tahap	-11.5133
▁Fitri	-11.5136
nz	-11.5138
KS	-11.5142
▁Pil	-11.5143
otipula	-11.5145
▁rujukan	-11.5148
zaki	-11.5149
▁Lisa	-11.5149
▁berwenang	-11.515
Mac	-11.5151
▁hipotesis	-11.5153
You	-11.5154
Cho	-11.5154
▁terpecah	-11.5155
▁bayaran	-11.5156
▁pasaran	-11.5159
▁Rak	-11.516
▁kecerdasan	-11.5161
andra	-11.5161
▁saudari	-11.5163
▁Gao	-11.5164
MD	-11.5166
▁Keturunan	-11.5167
▁1902	-11.5168
▁Venus	-11.5169
igny	-11.5169
beng	-11.517
ς	-11.5171
▁depresi	-11.5174
AA	-11.5174
▁purba	-11.5176
partai	-11.5177
langit	-11.518
Com	-11.518
▁bermaksud	-11.5181
▁grand	-11.5183
▁Michel	-11.5186
▁beta	-11.5187
icon	-11.5187
▁Habib	-11.5188
isan	-11.5189
wick	-11.5193
▁Russell	-11.5193
▁natal	-11.5195
UR	-11.5196
lema	-11.5197
Yang	-11.5197
▁Kekuatan	-11.5197
▁Rawas	-11.5197
distrik	-11.5199
▁61	-11.52
▁Gibraltar	-11.52
▁presenter	-11.52
garan	-11.52
▁mengemban	-11.5201
▁semen	-11.5201
Sp	-11.5204
▁Patung	-11.5204
▁teritorial	-11.5206
▁Karibia	-11.5206
▁Toraja	-11.5207
▁Tebing	-11.5208
▁Intan	-11.5208
▁pelopor	-11.5209
kou	-11.521
▁Hat	-11.5211
▁mengobati	-11.5213
ega	-11.5214
_4	-11.5215
▁sibuk	-11.5215
▁63	-11.5216
▁Hua	-11.5216
▁Metal	-11.5217
▁pemulihan	-11.5219
▁Karakteristik	-11.5219
▁bermanfaat	-11.522
▁ambil	-11.5221
▁130	-11.5221
▁Manuel	-11.5223
▁kehamilan	-11.5226
dog	-11.5228
▁Lea	-11.523
▁ulu	-11.5231
▁mengontrol	-11.5232
bby	-11.5233
▁Dou	-11.5233
▁Dead	-11.5234
▁Lake	-11.5237
Tom	-11.5237
▁Ratna	-11.5238
▁chart	-11.5238
▁Newton	-11.5238
▁Rata	-11.5238
▁Teologi	-11.5239
▁Kuantan	-11.5239
▁Penduduknya	-11.524
▁menanam	-11.5244
ations	-11.5247
ajaran	-11.5247
pora	-11.525
▁Tulungagung	-11.5252
nna	-11.5252
IR	-11.5255
▁Kompas	-11.5256
gate	-11.5257
▁Purbalingga	-11.5258
▁diselamatkan	-11.5258
▁fotografi	-11.5259
▁Sybra	-11.5261
luka	-11.5263
▁Alaska	-11.5264
▁Marshall	-11.5265
mili	-11.5266
▁didorong	-11.5266
pik	-11.5267
▁125	-11.5267
MT	-11.5269
▁Sinar	-11.5269
▁Bebas	-11.527
isha	-11.5272
▁Titi	-11.5272
▁landas	-11.5272
▁ukiran	-11.5272
▁Tab	-11.5274
▁Montenegro	-11.5278
ndro	-11.5278
Ericaceae	-11.5278
▁pengangkatan	-11.5279
▁pagar	-11.5279
pers	-11.5281
Desa	-11.5281
▁Est	-11.5282
stik	-11.5282
▁Baby	-11.5283
▁Wai	-11.5285
▁Oricon	-11.5285
▁saus	-11.5286
tria	-11.5287
▁TA	-11.5289
▁celah	-11.529
gro	-11.529
luna	-11.5291
esta	-11.5291
▁1987,	-11.5292
▁abjad	-11.5293
▁Anderson	-11.5293
beri	-11.5293
gent	-11.5294
▁kotor	-11.5295
ão	-11.5295
▁Wolf	-11.5296
▁rem	-11.5297
secara	-11.5298
naskah	-11.5298
▁seumur	-11.5298
▁Kairo	-11.53
NC	-11.53
idi	-11.5301
▁merekrut	-11.5305
▁bensin	-11.5306
▁digabung	-11.5306
ett	-11.5307
borg	-11.5308
kecuali	-11.5309
▁ATP	-11.5311
▁Perkebunan	-11.5311
▁vitamin	-11.5311
puh	-11.5314
▁new	-11.5318
▁koneksi	-11.5318
▁Morgan	-11.5318
alu	-11.5322
▁Mira	-11.5323
ander	-11.5323
▁nutrisi	-11.5324
▁Gla	-11.5325
▁Maharaja	-11.5327
▁dianut	-11.533
▁bagaimanapun	-11.5334
▁kewarganegaraan	-11.5335
▁persembahan	-11.5337
▁penjuru	-11.5338
EL	-11.5338
="2006	-11.5338
xy	-11.5338
▁Kapoor	-11.5338
rini	-11.5338
sida	-11.5342
▁Dev	-11.5344
▁Bahrain	-11.5344
▁jaminan	-11.5344
Black	-11.5346
▁auto	-11.5346
▁binti	-11.5347
mpul	-11.5349
BM	-11.5349
▁Nunukan	-11.5351
rima	-11.5351
▁cacat	-11.5352
▁taktik	-11.5353
▁hol	-11.5356
▁menunjukan	-11.536
wing	-11.5363
laga	-11.5363
ngo	-11.5365
▁Ae	-11.5366
ο	-11.5367
2010	-11.5367
▁menghadirkan	-11.5371
▁Sma	-11.5372
▁nan	-11.5372
▁penggunaannya	-11.5372
▁ungu	-11.5373
▁MD	-11.5375
ym	-11.5379
▁Howard	-11.5379
RO	-11.538
▁Pena	-11.5383
upa	-11.5384
▁ski	-11.5384
▁singa	-11.5384
▁Intel	-11.5385
huruf	-11.5386
hui	-11.5387
▁kawin	-11.5387
sberg	-11.5388
▁Sirkuit	-11.5389
▁LP	-11.5389
▁Paser	-11.539
jima	-11.5391
Kami	-11.5392
virus	-11.5393
▁Kru	-11.5393
▁bangku	-11.5394
▁pengantar	-11.5395
▁vari	-11.5396
▁ketegangan	-11.5397
▁komitmen	-11.5397
▁Xin	-11.5399
▁kongres	-11.54
ace	-11.5401
▁Ular	-11.5403
▁IAIN	-11.541
▁Salatiga	-11.5411
▁mengepung	-11.5411
▁mengudara	-11.5411
▁Rabu	-11.5415
▁Antar	-11.5416
▁Masih	-11.5416
ative	-11.5417
150	-11.5418
▁elektro	-11.5419
▁kecenderungan	-11.5419
▁diarahkan	-11.542
▁sho	-11.5421
TR	-11.5423
amat	-11.5423
▁khalifah	-11.5424
▁kemunculan	-11.5424
▁Under	-11.5424
▁Barisan	-11.5426
=213	-11.5427
▁Konon	-11.5429
tō	-11.5429
▁mazhab	-11.5429
▁Kepausan	-11.543
▁referendum	-11.543
Kapal	-11.5431
▁perkumpulan	-11.5431
.000.000	-11.5432
ashi	-11.5432
▁flavo	-11.5435
té	-11.5437
osia	-11.5438
▁Pendirian	-11.544
▁Tentang	-11.544
▁nasihat	-11.544
▁kekasih	-11.5441
▁Mati	-11.5441
▁Rain	-11.5443
ches	-11.5444
▁nyawa	-11.5447
gata	-11.545
▁demokratis	-11.545
▁barunya	-11.5451
▁Brothers	-11.5452
▁Petro	-11.5452
▁Siwa	-11.5455
asikan	-11.5456
kerajaan	-11.5459
rick	-11.5459
▁pintar	-11.5459
▁Shen	-11.5459
▁Vel	-11.5462
▁Kent	-11.5462
▁1988,	-11.5463
▁Madagaskar	-11.5464
▁kenyataannya	-11.5464
▁berbunyi	-11.5465
▁Setahun	-11.5467
▁Kerta	-11.5468
▁amanat	-11.5468
▁Kanan	-11.5469
dorf	-11.5469
▁sekalipun	-11.547
▁Klasifikasi	-11.5471
▁Tbk	-11.5471
▁Penerimaan	-11.5472
ings	-11.5474
zat	-11.5475
▁Aki	-11.5475
="213	-11.5475
▁konsultan	-11.5475
▁Satelit	-11.5477
▁rotasi	-11.5479
Cu	-11.548
▁Pokémon	-11.5484
▁terintegrasi	-11.5485
waru	-11.5487
she	-11.5487
▁100.000	-11.5487
▁Bee	-11.5488
enda	-11.549
▁keponakan	-11.5491
▁tombak	-11.5491
▁Mol	-11.5492
antara	-11.5492
osi	-11.5492
▁Halim	-11.5492
▁Hou	-11.5494
▁lempeng	-11.5497
abi	-11.5497
▁semarang	-11.5497
tium	-11.5499
▁08	-11.55
▁Puluh	-11.5503
▁ek	-11.5503
faktor	-11.5504
▁kehancuran	-11.5504
ô	-11.5507
▁Prince	-11.5508
▁duo	-11.5508
▁canggih	-11.5511
lica	-11.5512
▁Pene	-11.5512
▁va	-11.5512
▁integrasi	-11.5513
▁um	-11.5513
▁hidro	-11.5515
▁Kosovo	-11.5518
▁pengantin	-11.5518
Paus	-11.5518
▁Tambak	-11.552
Pas	-11.552
Robert	-11.5521
▁NATO	-11.5524
▁logistik	-11.5525
▁Opera	-11.5525
read	-11.5526
▁sim	-11.553
▁Paulo	-11.553
Jean	-11.553
▁triliun	-11.5531
▁95	-11.5531
▁menyumbangkan	-11.5534
▁dikritik	-11.5536
▁pribadinya	-11.5536
▁mekanik	-11.5538
▁berkapasitas	-11.5538
▁diteruskan	-11.5538
uruh	-11.5538
▁instruksi	-11.5538
World	-11.5539
▁1870	-11.554
▁konstan	-11.5542
▁Kiai	-11.5542
▁59	-11.5543
uy	-11.5544
▁pustaka	-11.5545
▁amino	-11.5545
Muhammad	-11.5546
▁(35	-11.5547
▁Yuki	-11.5549
rena	-11.5549
▁fraksi	-11.5549
jajar	-11.5553
ulan	-11.5553
▁penutupan	-11.5553
▁bersembunyi	-11.5553
lab	-11.5555
mand	-11.5559
▁suksesi	-11.5559
2012	-11.556
lect	-11.556
guchi	-11.5561
▁kutai	-11.5561
▁bedah	-11.5562
▁Beach	-11.5563
nasi	-11.5565
ume	-11.5569
▁Karim	-11.5571
▁pemanfaatan	-11.5572
▁Sebenarnya	-11.5572
ides	-11.5575
beli	-11.5577
▁mengakses	-11.5579
▁Renault	-11.5579
▁membandingkan	-11.5579
▁1984,	-11.558
▁Pola	-11.558
▁andalan	-11.5582
▁Asisten	-11.5583
▁Nge	-11.5585
▁dipastikan	-11.5585
▁Sardinia	-11.5585
▁Sepuluh	-11.5587
unit	-11.5592
▁name	-11.5592
▁terpengaruh	-11.5593
▁Panji	-11.5594
▁ji	-11.5595
EP	-11.5599
▁Lirik	-11.5599
▁gandum	-11.5599
▁Qua	-11.5601
gr	-11.5603
▁dikirimkan	-11.5606
▁Diploma	-11.5606
▁menyu	-11.5608
▁Abd	-11.5609
▁perempat	-11.561
▁Sekretariat	-11.5611
▁1895	-11.5611
▁beri	-11.5613
▁(2001)	-11.5613
ruh	-11.5614
hala	-11.5616
▁yo	-11.5617
fungsi	-11.5617
▁bacaan	-11.5618
▁Michigan	-11.5619
els	-11.562
▁kanon	-11.5621
▁walau	-11.5621
▁1985,	-11.5623
▁96	-11.5624
▁Jiang	-11.5625
▁isinya	-11.5626
ester	-11.5628
own	-11.563
Lin	-11.5633
▁kuliner	-11.5633
▁kental	-11.5633
rov	-11.5635
▁Not	-11.5635
▁DI	-11.5638
▁penetapan	-11.564
box	-11.564
▁perebutan	-11.564
▁fungsional	-11.5642
▁masak	-11.5642
▁Pac	-11.5643
▁Gus	-11.5645
ndy	-11.5645
▁disambut	-11.5646
quot	-11.5647
▁Cagar	-11.5647
▁Irian	-11.5647
▁sirip	-11.5648
▁Anom	-11.5648
▁Bridge	-11.5649
Ed	-11.5649
▁tembak	-11.565
angga	-11.5653
▁orangtuanya	-11.5653
▁beracun	-11.5654
sela	-11.5654
▁respons	-11.5654
▁Sabah	-11.5655
usaha	-11.5655
UI	-11.5656
dot	-11.5657
DE	-11.5659
▁Kah	-11.566
klo	-11.5661
dahulu	-11.5661
PL	-11.5662
luh	-11.5665
▁ala	-11.5666
▁Perencanaan	-11.5667
▁kekacauan	-11.5667
▁menerjemahkan	-11.5667
▁App	-11.5668
Jawa	-11.5671
▁mengemukakan	-11.5674
▁Carlo	-11.5675
ocladius	-11.5676
48.	-11.5676
eto	-11.5676
key	-11.5678
rier	-11.5679
ngkal	-11.568
▁Juventus	-11.568
arum	-11.5681
▁micro	-11.5681
Nu	-11.5682
▁Pintu	-11.5683
▁Ngawi	-11.5684
vas	-11.5686
▁Swift	-11.5687
-24	-11.5687
trik	-11.5688
▁Franka	-11.569
▁tiri	-11.569
▁cetakan	-11.569
▁François	-11.5693
▁cur	-11.5694
▁pemujaan	-11.5694
▁1897	-11.5695
▁botol	-11.5696
▁).	-11.5697
▁Garden	-11.5697
▁tel	-11.57
▁terkesan	-11.5701
▁menyiarkan	-11.5701
kop	-11.5703
Cinta	-11.5705
▁gantinya	-11.5705
▁Shar	-11.5706
▁membuang	-11.571
▁rap	-11.571
Fo	-11.5712
▁cagar	-11.5712
anga	-11.5712
color	-11.5712
hop	-11.5713
▁ASEAN	-11.5713
Dr	-11.5714
gaya	-11.5714
▁Asli	-11.5715
▁dikutip	-11.5715
▁Saf	-11.5715
ejo	-11.5715
She	-11.5716
▁Sorong	-11.5717
▁Tes	-11.5718
▁Tian	-11.5718
▁ram	-11.5718
sina	-11.5724
▁terlahir	-11.5724
loh	-11.5726
Va	-11.5727
▁bubar	-11.5728
iano	-11.5728
▁minahasa	-11.5728
▁pembuluh	-11.5729
▁tetra	-11.5729
▁Sentai	-11.573
▁arab	-11.573
fran	-11.573
kol	-11.5732
saka	-11.5733
hasil	-11.5734
▁pengeluaran	-11.5735
▁waralaba	-11.5735
▁Judul	-11.5736
▁Goa	-11.5737
him	-11.5737
▁1899	-11.5739
mul	-11.5739
▁forum	-11.5739
guna	-11.574
▁Akses	-11.5741
▁percakapan	-11.5742
▁temuan	-11.5742
▁terinfeksi	-11.5743
▁Keraton	-11.5744
▁Dae	-11.5745
▁menguji	-11.5747
▁Bawang	-11.5747
dil	-11.5747
dim	-11.5748
gem	-11.5748
▁Dokter	-11.5749
▁Oriental	-11.5752
▁2,5	-11.5753
▁Latvia	-11.5757
▁cerah	-11.576
▁sebulan	-11.5761
▁Artikel	-11.5763
▁rukun	-11.5764
gak	-11.5764
▁pacar	-11.5765
▁Kusuma	-11.5765
▁keluaran	-11.5766
▁Format	-11.5766
▁tang	-11.5767
▁meta	-11.5768
▁Cle	-11.5769
▁perantara	-11.577
▁cirebon	-11.577
▁98	-11.5771
▁tani	-11.5772
pir	-11.5774
▁Langkat	-11.5775
biasanya	-11.5776
▁debu	-11.5776
▁orientasi	-11.5777
▁DKPBB	-11.5777
pad	-11.5777
ME	-11.5779
▁Pemalang	-11.5779
lisis	-11.5779
obo	-11.5781
▁Bersatu	-11.5781
juk	-11.5781
tio	-11.5782
▁101	-11.5783
Sar	-11.5783
Ran	-11.5784
ganti	-11.5785
▁Nas	-11.5785
▁Haute	-11.5786
▁Women	-11.5786
▁Gerbang	-11.5787
▁niat	-11.579
Haliclona	-11.5791
▁Manhattan	-11.5794
▁teroris	-11.5794
▁semak	-11.5795
▁Penye	-11.5795
="2007	-11.5796
▁(2004)	-11.5797
kulasi	-11.5797
eur	-11.5798
▁serdang	-11.5799
▁SpongeBob	-11.5804
▁(2006)	-11.5805
▁1.2	-11.5805
▁bogor	-11.5807
▁Grobogan	-11.5811
▁BT	-11.5812
▁pengenalan	-11.5813
▁(1)	-11.5813
vern	-11.5814
▁PA	-11.5816
▁Carter	-11.5817
Seri	-11.5818
י	-11.5818
▁minimum	-11.582
▁mutu	-11.5821
▁Lawrence	-11.5821
=294	-11.5822
rug	-11.5823
▁Seram	-11.5825
▁Nasution	-11.5825
▁Telkom	-11.5826
▁terhitung	-11.5827
▁Halte	-11.5828
▁berisikan	-11.5831
▁Habsburg	-11.5832
▁Indosiar	-11.5832
plan	-11.5832
▁inisiatif	-11.5832
▁menyamar	-11.5834
▁Ani	-11.5834
▁Khu	-11.5835
▁Illinois	-11.5839
▁memajukan	-11.5839
▁tersembunyi	-11.584
▁Cook	-11.5841
▁linguistik	-11.5841
▁berabad	-11.5843
uria	-11.5844
UM	-11.5845
▁Tho	-11.5845
▁maha	-11.5845
tih	-11.5845
▁Hell	-11.5847
▁Perhubungan	-11.5847
▁Akbar	-11.5847
isasikan	-11.5848
aktif	-11.5849
▁kantong	-11.585
▁Liberal	-11.5851
▁integral	-11.5852
▁eksistensi	-11.5853
▁Syaikh	-11.5853
▁diakhiri	-11.5853
▁nanti	-11.5857
▁suaranya	-11.5857
▁Pir	-11.5859
▁pencegahan	-11.586
ngkong	-11.5861
▁Proto	-11.5862
puluh	-11.5867
▁silsilah	-11.5867
▁Purwakarta	-11.5867
eira	-11.5867
▁arca	-11.5867
σ	-11.5868
fir	-11.5868
mé	-11.587
▁struktural	-11.5871
▁Hasilnya	-11.5873
▁mempercepat	-11.5874
▁Bukan	-11.5874
▁kawah	-11.5876
▁Kemampuan	-11.5881
▁diputuskan	-11.5881
rab	-11.5883
▁mengenali	-11.5884
▁deli	-11.5884
▁PKI	-11.5888
▁kau	-11.5888
law	-11.5889
▁Bran	-11.5891
▁Bela	-11.5892
▁Suhu	-11.5892
▁PB	-11.5892
▁Samsung	-11.5896
▁Parker	-11.5899
haya	-11.5899
▁1889	-11.59
▁brevi	-11.5901
misi	-11.5901
▁Pribadi	-11.5902
▁Standard	-11.5902
▁Made	-11.5904
▁1982.	-11.5904
▁beribu	-11.5908
▁Syn	-11.5908
▁ungkapan	-11.5909
final	-11.591
som	-11.5911
yen	-11.5911
lun	-11.5914
▁Ob	-11.5914
▁penugasan	-11.5916
▁dangdut	-11.5916
▁sejajar	-11.5918
▁frasa	-11.5919
rau	-11.5919
cau	-11.5919
▁XVI	-11.592
bli	-11.592
Er	-11.5922
▁Lumajang	-11.5923
▁sumpah	-11.5923
▁sandiwara	-11.5923
▁penentuan	-11.5923
▁menangis	-11.5925
▁Laura	-11.593
▁Klasik	-11.593
▁ze	-11.5931
vie	-11.5931
▁Call	-11.5932
eve	-11.5932
▁iso	-11.5932
Belanda	-11.5933
▁nias	-11.5936
▁Kartanegara	-11.5938
tula	-11.5938
alam	-11.594
▁perintis	-11.5944
▁Moskow	-11.5944
yangan	-11.5944
▁Selasa	-11.5945
dek	-11.5947
▁Sher	-11.5948
anggu	-11.5948
▁Journal	-11.595
▁Letak	-11.595
ching	-11.5951
▁Nganjuk	-11.5951
▁sedih	-11.5951
tical	-11.5951
alitas	-11.5954
ب	-11.5955
ayah	-11.5957
Juli	-11.5958
▁Objek	-11.5958
▁69	-11.5959
▁dominasi	-11.5959
toko	-11.596
Mak	-11.5961
▁pelaut	-11.5961
rent	-11.5967
rest	-11.5968
lès	-11.5969
▁Get	-11.597
▁Spa	-11.597
▁serba	-11.5971
▁Sukoharjo	-11.5972
▁Aliansi	-11.5973
▁Tubuh	-11.5973
▁Anthaxia	-11.5975
sser	-11.5975
nau	-11.5977
prop	-11.5977
▁1920-	-11.5977
ocera	-11.5977
▁Eva	-11.5978
mpel	-11.5979
▁Komisaris	-11.5979
0°	-11.598
▁(2011)	-11.598
▁bermigrasi	-11.5981
▁genggam	-11.5982
▁Aliran	-11.5982
▁Yus	-11.5984
▁GM	-11.5984
▁Medal	-11.5985
cok	-11.5986
ś	-11.5986
gle	-11.5989
sistem	-11.599
▁Legenda	-11.599
nn	-11.5992
▁His	-11.5993
▁Sakura	-11.5994
▁Tertinggi	-11.5995
▁keberadaannya	-11.5995
▁arahan	-11.5996
▁syair	-11.5998
▁psikologis	-11.5999
▁perundingan	-11.6
▁kha	-11.6004
▁Choi	-11.6005
▁undangan	-11.6005
struktur	-11.6006
ometer	-11.6006
▁adi	-11.6007
▁logika	-11.6009
juang	-11.6011
▁Yonif	-11.6013
▁pencari	-11.6014
▁Disamping	-11.6014
▁kelemahan	-11.6014
▁kesan	-11.6015
▁Suko	-11.6015
rop	-11.6016
lal	-11.6016
▁Cape	-11.6018
▁berbunga	-11.6018
▁tarif	-11.602
▁Calon	-11.602
▁Airbus	-11.6021
département	-11.6021
▁Luksemburg	-11.6021
▁dikabarkan	-11.6022
▁kelanjutan	-11.6022
▁tas	-11.6022
▁wal	-11.6022
▁Pembuatan	-11.6023
▁Jeff	-11.6025
Pangeran	-11.6025
▁Astro	-11.6028
under	-11.6028
▁cerpen	-11.603
▁hias	-11.6031
▁Walau	-11.6032
iae	-11.6032
▁More	-11.6035
▁propaganda	-11.6036
▁port	-11.6038
eon	-11.604
▁relasi	-11.604
▁Mulya	-11.6043
▁Tunisia	-11.6044
iwa	-11.6044
Trans	-11.6045
▁Four	-11.6049
▁legal	-11.605
▁otomotif	-11.605
Ji	-11.6051
▁Kembang	-11.6058
▁Cyperus	-11.6059
▁900	-11.6059
▁NU	-11.6061
Eropa	-11.6062
▁disk	-11.6063
reja	-11.6065
▁Pramuka	-11.6065
▁KE	-11.6065
▁sungguh	-11.6065
National	-11.6068
▁ekstrakurikuler	-11.6071
▁dimasak	-11.6072
▁all	-11.6073
arius	-11.6073
▁gem	-11.6074
vision	-11.6074
basa	-11.6074
tau	-11.6074
kho	-11.6075
▁Saluran	-11.6075
▁em	-11.6075
▁1972.	-11.6076
▁imun	-11.6077
▁Nishi	-11.6077
▁berbuat	-11.6078
▁Board	-11.6078
▁Guatemala	-11.6078
▁Kuwait	-11.6078
und	-11.6079
▁mengira	-11.608
▁kartun	-11.6082
▁ibn	-11.6083
vre	-11.6085
▁Ternyata	-11.6086
▁tegal	-11.6086
▁Jer	-11.6087
▁meme	-11.6089
▁1896	-11.6089
iso	-11.6089
▁menyewa	-11.609
▁memuncak	-11.6091
▁Lincoln	-11.6093
ingkat	-11.6094
▁pil	-11.6094
▁1982,	-11.6095
▁Tiger	-11.6096
not	-11.6096
cinta	-11.6097
▁Arm	-11.6099
▁Gur	-11.6099
▁sindrom	-11.61
arch	-11.6101
▁resep	-11.6104
▁Lukisan	-11.6107
▁deskripsi	-11.6107
▁SO	-11.6107
▁Baku	-11.6107
▁(2008)	-11.6108
▁diklaim	-11.6109
budaya	-11.6112
tanah	-11.6113
gir	-11.6114
▁narkoba	-11.6114
▁dilewati	-11.6114
tec	-11.6115
▁rekannya	-11.6116
dono	-11.6116
▁MRT	-11.6116
▁Talang	-11.6121
▁Juru	-11.6122
tarian	-11.6122
▁dosis	-11.6124
▁lit	-11.6125
▁ang	-11.6127
▁Barang	-11.6127
Ph	-11.6127
▁Summer	-11.6127
▁Yokohama	-11.6128
eru	-11.613
vasi	-11.613
zong	-11.6133
lash	-11.6136
▁1976.	-11.6136
▁line	-11.6137
▁Khal	-11.6138
rahan	-11.6144
bari	-11.6147
▁af	-11.6149
▁Wer	-11.6149
▁Silla	-11.6149
tele	-11.6149
▁perhiasan	-11.615
▁Nik	-11.6151
TC	-11.6153
lita	-11.6154
contoh	-11.6157
arkan	-11.6158
▁penemu	-11.6161
asia	-11.6161
▁Indeks	-11.6162
▁1979,	-11.6165
▁Petr	-11.6166
▁penjajah	-11.6166
▁Nor	-11.617
▁lumpur	-11.6171
▁Pejabat	-11.6172
▁berapa	-11.6172
▁Chrysobothris	-11.6173
▁dimulainya	-11.6173
▁Sleman	-11.6175
▁Konstantinus	-11.6175
▁Dirilis	-11.6176
▁Fall	-11.6176
▁Penguasa	-11.6176
ée	-11.6177
▁Bantul	-11.6178
▁mengindikasikan	-11.6178
▁kapur	-11.6179
▁Seo	-11.6179
▁pakai	-11.6182
▁Rachel	-11.6183
س	-11.6183
ware	-11.6184
▁balasan	-11.6184
▁Kadang	-11.6188
▁1948,	-11.6189
▁Hugo	-11.619
▁Tempur	-11.619
onisme	-11.6191
dikenal	-11.6192
▁Sentral	-11.6193
Les	-11.6196
Katolik	-11.6197
rep	-11.6198
▁1.1	-11.6199
▁Kastil	-11.6199
▁1985.	-11.6199
▁dipecat	-11.62
▁ph	-11.62
▁Tulisan	-11.6204
▁Multi	-11.6205
drama	-11.6205
▁Koes	-11.6205
nim	-11.6207
48)	-11.6207
▁terpencil	-11.6207
▁persentase	-11.6208
DC	-11.6208
lih	-11.621
CS	-11.621
book	-11.621
▁dekatnya	-11.621
Asia	-11.6213
▁intervensi	-11.6213
▁koordinasi	-11.6215
▁1860	-11.6218
▁sifatnya	-11.6219
penyanyi	-11.6219
ende	-11.6219
Sma	-11.622
khi	-11.6221
▁Wars	-11.6221
▁Map	-11.6222
▁Apo	-11.6223
▁1981.	-11.6224
led	-11.6227
cast	-11.6229
▁penanda	-11.6229
▁konsekuensi	-11.6229
▁menemani	-11.6229
▁Justin	-11.623
▁Holland	-11.6231
▁mur	-11.6231
▁Bangkalan	-11.6233
▁memutar	-11.6233
AH	-11.6233
▁Haru	-11.6237
▁gerai	-11.6239
▁zi	-11.6243
angkan	-11.6245
sena	-11.6245
9,	-11.6246
▁Hassan	-11.6247
▁Rasa	-11.6248
ambi	-11.6251
▁pemburu	-11.6252
▁blog	-11.6252
▁Pha	-11.6253
sign	-11.6255
ery	-11.6256
iba	-11.6257
▁rupiah	-11.6258
▁Sport	-11.6259
▁Eb	-11.6259
ahli	-11.626
▁Hur	-11.6262
▁1979.	-11.6263
▁Konstruksi	-11.6265
eau	-11.6265
▁Gau	-11.6265
bela	-11.6266
▁paten	-11.6266
▁mol	-11.6268
▁Alas	-11.627
▁Cel	-11.6271
▁Kera	-11.6271
sea	-11.6273
alo	-11.6275
т	-11.6276
▁MPR	-11.6276
▁Ishi	-11.6277
▁Kate	-11.6281
▁NBC	-11.6281
▁layaknya	-11.6284
William	-11.6284
soni	-11.6285
▁jual	-11.6286
▁1880	-11.6287
▁Krimea	-11.6287
▁(2013)	-11.6287
▁$2	-11.6288
tru	-11.6288
▁gal	-11.6289
▁Reza	-11.629
▁cermin	-11.629
▁dihiasi	-11.6291
une	-11.6291
▁Cut	-11.6294
▁os	-11.6294
▁Bendungan	-11.6294
▁Adams	-11.6296
▁Uganda	-11.6297
▁padahal	-11.6298
▁Catherine	-11.6299
▁Theodor	-11.63
tiap	-11.6301
Kha	-11.6301
▁https	-11.6305
▁aluminium	-11.6309
▁mendampingi	-11.6309
▁pendanaan	-11.6309
▁Caesar	-11.6309
▁Raymond	-11.6309
▁lengkapnya	-11.631
▁Geo	-11.6311
▁disini	-11.6313
▁History	-11.6316
▁Pertunjukan	-11.6316
glo	-11.6316
▁Huruf	-11.6317
ija	-11.6317
▁Med	-11.6318
Mor	-11.6319
awat	-11.632
cti	-11.6322
▁nigro	-11.6322
▁dilangsungkan	-11.6323
▁inf	-11.6325
▁ur	-11.633
▁Wahid	-11.633
▁Theatre	-11.6331
▁dikelompokkan	-11.6331
▁Moh	-11.6331
▁manual	-11.6333
obi	-11.6334
mera	-11.6336
▁Generation	-11.6338
▁(2007)	-11.6338
▁Nyi	-11.6339
="157	-11.6341
▁paku	-11.6343
▁Wid	-11.6344
▁liburan	-11.6345
tten	-11.6345
▁PSSI	-11.6346
wir	-11.6346
▁Slamet	-11.6346
▁Age	-11.6347
banyak	-11.6348
▁Head	-11.6348
=157	-11.6349
hina	-11.6351
▁1968.	-11.6352
anthrax	-11.6353
▁Umayyah	-11.636
▁manufaktur	-11.636
▁memperingatkan	-11.636
▁Dahulu	-11.6361
roid	-11.6361
matik	-11.6362
▁Bei	-11.6366
▁pengawas	-11.6368
▁Sima	-11.6371
▁MM	-11.6371
putri	-11.6371
▁Puerto	-11.6375
48,	-11.6375
▁180	-11.6376
▁(2012)	-11.6376
nay	-11.6376
▁Knight	-11.6376
taro	-11.6378
bl	-11.638
NO	-11.6381
▁disiapkan	-11.6382
sungai	-11.6382
sap	-11.6383
▁kakeknya	-11.6386
RE	-11.6386
▁Buddhisme	-11.6389
eman	-11.639
wak	-11.639
▁Profil	-11.6391
pok	-11.6391
▁menyingkirkan	-11.6391
▁val	-11.6392
▁Kad	-11.6393
ement	-11.6394
▁Shang	-11.6396
▁Pele	-11.6396
▁Menjelang	-11.6397
▁1.5	-11.6397
▁Geografis	-11.6397
▁rekayasa	-11.6397
▁Mae	-11.6399
▁Á	-11.6399
asy	-11.64
yani	-11.6401
▁Jacques	-11.6402
▁Cinema	-11.6403
iter	-11.6404
▁Diperkirakan	-11.6404
▁Rancangan	-11.6404
▁Lenin	-11.6406
=293	-11.6407
▁yurisdiksi	-11.6411
▁diakibatkan	-11.6411
▁Ahmed	-11.6412
▁Kritik	-11.6414
▁out	-11.6417
▁Pastor	-11.6417
▁Lou	-11.6418
▁tentunya	-11.6418
▁balai	-11.6419
▁Somalia	-11.6419
▁Sensus	-11.642
▁Amb	-11.6421
▁diuji	-11.6421
SU	-11.6423
sed	-11.6424
barat	-11.6425
▁Stockholm	-11.6425
▁Kendaraan	-11.6426
▁sengketa	-11.6426
▁Jonathan	-11.6426
="293	-11.6426
▁Nelson	-11.6427
▁Khalifah	-11.6428
▁Dir	-11.6429
▁hama	-11.643
▁Surga	-11.6431
aster	-11.6432
▁Uruguay	-11.6433
▁keberanian	-11.6433
▁menyembunyikan	-11.6433
yin	-11.6434
▁Circle	-11.6434
▁10%	-11.6437
▁Jimmy	-11.644
▁ul	-11.6441
spor	-11.6444
▁Electric	-11.6444
ppa	-11.6447
γ	-11.6448
▁pusaka	-11.6449
▁cho	-11.6449
negoro	-11.6451
Panicum	-11.6454
▁Mene	-11.6454
▁ITB	-11.6456
▁Artinya	-11.6459
▁kembang	-11.646
▁Langkah	-11.646
▁Jazz	-11.6461
mping	-11.6462
`	-11.6463
▁kebetulan	-11.6463
▁Ohio	-11.6464
▁Peringkat	-11.6464
▁harimau	-11.6467
▁acak	-11.6468
▁78	-11.6468
International	-11.6468
▁Aka	-11.6469
▁Castro	-11.647
blok	-11.6471
khan	-11.6472
rasa	-11.6473
▁Choice	-11.6473
▁dipenjara	-11.6475
aire	-11.6475
ahi	-11.6476
rempah	-11.6477
▁menabrak	-11.6478
▁berkisah	-11.6482
OL	-11.6484
▁Matematika	-11.6485
NU	-11.6487
ors	-11.6488
tino	-11.6489
▁Amar	-11.6489
▁agensi	-11.6489
▁menyumbang	-11.649
tto	-11.649
▁komp	-11.6492
▁Council	-11.6493
▁digolongkan	-11.6493
its	-11.6493
▁See	-11.6494
▁Pandu	-11.6495
▁Pali	-11.65
▁terkandung	-11.65
▁prima	-11.6502
ntin	-11.6502
▁Karno	-11.6502
kō	-11.6502
kka	-11.6504
▁minta	-11.6505
operasi	-11.6507
▁Cooper	-11.6509
ved	-11.6512
▁Western	-11.6515
▁Frankfurt	-11.6515
▁kanak	-11.6515
lib	-11.6517
▁medium	-11.6517
▁Zen	-11.6518
murid	-11.6519
▁Pad	-11.652
▁surut	-11.652
Val	-11.6523
KB	-11.6523
▁Suk	-11.6525
▁Erik	-11.6526
ellus	-11.6529
ganda	-11.6529
Es	-11.653
▁mengerti	-11.6531
gens	-11.6534
Jakarta	-11.6536
▁Informatika	-11.6537
▁setan	-11.654
▁Langit	-11.654
KM	-11.6541
▁Santiago	-11.6541
–3	-11.6542
spe	-11.6542
▁Clo	-11.6543
stus	-11.6545
▁Legislatif	-11.6545
▁Lion	-11.6545
▁rekomendasi	-11.6546
▁bersekutu	-11.6547
▁Kelly	-11.6549
▁Matthew	-11.6552
gne	-11.6553
▁Pustaka	-11.6553
▁emosional	-11.6553
▁Santos	-11.6556
acu	-11.6557
France	-11.6557
▁Mandala	-11.6558
▁tertangkap	-11.656
▁Singapore	-11.656
▁dikurangi	-11.656
▁Moe	-11.656
▁Parti	-11.6562
issa	-11.6563
▁Dy	-11.6563
▁off	-11.6563
ça	-11.6564
yur	-11.6564
▁seratus	-11.6564
BB	-11.6565
▁Gustav	-11.6565
ì	-11.6567
▁Otoritas	-11.6567
▁Wuhan	-11.6569
Ur	-11.657
-27	-11.6572
fort	-11.6573
▁merata	-11.6573
▁Asy	-11.6573
kasih	-11.6575
▁Perry	-11.6576
▁Mesopotamia	-11.6577
▁deret	-11.6577
▁sm	-11.6578
▁bursa	-11.6579
="2005	-11.6582
▁Keadilan	-11.6582
▁spesimen	-11.6582
▁Jerry	-11.6584
▁Emmy	-11.6585
▁sekolahnya	-11.6587
omyza	-11.6587
OH	-11.6588
ombylius	-11.659
▁Magetan	-11.659
▁pistol	-11.659
▁artistik	-11.659
▁Segera	-11.659
▁pemanasan	-11.6591
hoe	-11.6591
▁jarum	-11.6591
▁start	-11.6593
pohon	-11.6595
▁Perikanan	-11.6597
▁(2014)	-11.6597
▁Krisis	-11.66
▁Bagus	-11.66
▁Franklin	-11.6601
▁Bolivia	-11.6605
▁Hj	-11.6609
▁Masakan	-11.661
▁Saham	-11.6611
▁persediaan	-11.6612
▁menja	-11.6612
▁Ritus	-11.6614
▁mendatangi	-11.6618
▁Chad	-11.6619
▁Manda	-11.6619
▁drastis	-11.662
oz	-11.662
▁Alfonso	-11.6622
kins	-11.6622
▁Pic	-11.6622
▁Rao	-11.6624
▁1975,	-11.6624
▁Anugerah	-11.6626
ophora	-11.6627
▁Aragon	-11.6628
ancing	-11.6629
Lee	-11.6631
▁Met	-11.6633
orn	-11.6634
ntu	-11.6634
▁Sejarawan	-11.6635
▁dakwah	-11.6635
▁ilahi	-11.6635
▁Goth	-11.6635
BU	-11.6635
▁Gejala	-11.6636
dasar	-11.6638
laksana	-11.6639
mbur	-11.6639
ough	-11.664
kui	-11.664
5,	-11.6642
Korea	-11.6642
▁Minyak	-11.6643
kem	-11.6644
▁sulfat	-11.6644
▁bel	-11.6645
Rusia	-11.6646
▁Mandiri	-11.6647
▁membantunya	-11.6649
ort	-11.6649
▁halte	-11.6651
larang	-11.6652
▁Abang	-11.6653
▁1983.	-11.6654
▁Amp	-11.6657
▁proposal	-11.6657
▁pupuk	-11.6658
▁Tepatnya	-11.6659
▁mainan	-11.6664
▁biner	-11.6664
▁pesaing	-11.6665
▁bon	-11.6665
▁payung	-11.6665
etto	-11.6666
▁Zee	-11.6666
rell	-11.6668
▁Key	-11.6669
▁gel	-11.6669
▁Fei	-11.6669
▁Ale	-11.6673
▁Rantau	-11.6675
▁Tani	-11.6675
▁Asahan	-11.6676
dos	-11.6676
suka	-11.6677
°	-11.6679
dhu	-11.6679
▁eksekusi	-11.668
▁Darma	-11.6684
mber	-11.6685
▁1.3	-11.6685
fat	-11.6685
▁kesetiaan	-11.6687
▁torpedo	-11.6687
dewi	-11.6688
Marne	-11.6688
▁Inti	-11.6692
▁Charlotte	-11.6692
duksi	-11.6695
Jan	-11.6696
duh	-11.6696
tub	-11.6697
Sch	-11.6697
bei	-11.6698
gha	-11.6698
ghi	-11.6698
▁hormat	-11.6699
▁mengharuskan	-11.6703
Up	-11.6704
▁kesepuluh	-11.6705
▁Wol	-11.6706
▁dibahas	-11.6706
▁Barry	-11.6707
inae	-11.6708
▁buahnya	-11.6709
▁Maxim	-11.6709
▁jeruk	-11.6709
kode	-11.671
▁akibatnya	-11.671
▁kesimpulan	-11.671
▁relevan	-11.671
▁1885	-11.6712
▁Angkutan	-11.6718
imbang	-11.6718
UD	-11.6719
jangan	-11.6719
angkat	-11.6722
Ana	-11.6723
kelas	-11.6724
▁73	-11.6725
▁kebaikan	-11.6726
osfer	-11.6727
dini	-11.6729
▁Sus	-11.673
▁Filsafat	-11.6731
▁alas	-11.6731
▁Sudirman	-11.6733
▁menyandang	-11.6733
▁kehidupannya	-11.6735
▁Side	-11.6735
▁Hero	-11.6735
gie	-11.6735
▁sabuk	-11.6736
▁Suro	-11.6736
▁profil	-11.6737
2003	-11.6738
▁melanda	-11.6739
▁Kid	-11.674
▁engkau	-11.6741
▁Maulana	-11.6741
▁politiknya	-11.6741
▁Lamp	-11.6741
muk	-11.6741
▁gla	-11.6742
:30	-11.6742
▁Ec	-11.6742
panjang	-11.6744
▁timnya	-11.6746
▁AN	-11.6747
▁istirahat	-11.6747
▁Damaskus	-11.6748
▁Gregorius	-11.6748
▁(2010)	-11.675
▁67	-11.675
kular	-11.6752
▁oksidasi	-11.6753
▁Hidayat	-11.6756
▁menyangkut	-11.6756
▁Fraksi	-11.6756
▁berkali	-11.6758
▁Kartu	-11.6758
▁1950,	-11.6759
▁Pengepungan	-11.676
▁min	-11.676
[...]
