{"<unk>":0,"<s>":1,"</s>":2,"<pad>":3,"!":4,"\"":5,"#":6,"$":7,"%":8,"&":9,"'":10,"(":11,")":12,"*":13,"+":14,",":15,"-":16,".":17,"/":18,"0":19,"1":20,"2":21,"3":22,"4":23,"5":24,"6":25,"7":26,"8":27,"9":28,":":29,";":30,"<":31,"=":32,">":33,"?":34,"@":35,"A":36,"B":37,"C":38,"D":39,"E":40,"F":41,"G":42,"H":43,"I":44,"J":45,"K":46,"L":47,"M":48,"N":49,"O":50,"P":51,"Q":52,"R":53,"S":54,"T":55,"U":56,"V":57,"W":58,"X":59,"Y":60,"Z":61,"[":62,"\\":63,"]":64,"^":65,"_":66,"`":67,"a":68,"b":69,"c":70,"d":71,"e":72,"f":73,"g":74,"h":75,"i":76,"j":77,"k":78,"l":79,"m":80,"n":81,"o":82,"p":83,"q":84,"r":85,"s":86,"t":87,"u":88,"v":89,"w":90,"x":91,"y":92,"z":93,"{":94,"|":95,"}":96,"~":97,"¡":98,"£":99,"¥":100,"§":101,"«":102,"¬":103,"®":104,"°":105,"±":106,"²":107,"³":108,"´":109,"µ":110,"·":111,"¹":112,"º":113,"»":114,"½":115,"À":116,"Á":117,"Â":118,"Ä":119,"Å":120,"Æ":121,"Ç":122,"É":123,"Í":124,"Î":125,"Ó":126,"Ö":127,"×":128,"Ø":129,"Ú":130,"Ü":131,"Þ":132,"ß":133,"à":134,"á":135,"â":136,"ã":137,"ä":138,"å":139,"æ":140,"ç":141,"è":142,"é":143,"ê":144,"ë":145,"ì":146,"í":147,"î":148,"ï":149,"ð":150,"ñ":151,"ò":152,"ó":153,"ô":154,"õ":155,"ö":156,"ø":157,"ù":158,"ú":159,"û":160,"ü":161,"ý":162,"þ":163,"Ā":164,"ā":165,"ă":166,"ą":167,"ć":168,"Č":169,"č":170,"Đ":171,"đ":172,"ē":173,"ĕ":174,"ė":175,"ę":176,"ě":177,"ğ":178,"ġ":179,"ħ":180,"ĩ":181,"ī":182,"İ":183,"ı":184,"Ł":185,"ł":186,"ń":187,"ņ":188,"ň":189,"ŋ":190,"Ō":191,"ō":192,"ŏ":193,"ő":194,"œ":195,"ř":196,"Ś":197,"ś":198,"Ş":199,"ş":200,"Š":201,"š":202,"ţ":203,"ũ":204,"ū":205,"ŭ":206,"ů":207,"ź":208,"Ż":209,"ż":210,"Ž":211,"ž":212,"ƒ":213,"ơ":214,"ư":215,"ǎ":216,"ǐ":217,"ǒ":218,"ǔ":219,"ș":220,"ț":221,"ɑ":222,"ɔ":223,"ə":224,"ɛ":225,"ɡ":226,"ɪ":227,"ʃ":228,"ʔ":229,"ʰ":230,"ʻ":231,"ʼ":232,"ʾ":233,"ʿ":234,"ˈ":235,"ː":236,"˚":237,"́":238,"̣":239,"Α":240,"Β":241,"Γ":242,"Δ":243,"Ε":244,"Θ":245,"Ι":246,"Κ":247,"Λ":248,"Μ":249,"Ν":250,"Ο":251,"Π":252,"Ρ":253,"Σ":254,"Τ":255,"Φ":256,"Χ":257,"Ω":258,"ά":259,"έ":260,"ή":261,"ί":262,"α":263,"β":264,"γ":265,"δ":266,"ε":267,"ζ":268,"η":269,"θ":270,"ι":271,"κ":272,"λ":273,"μ":274,"ν":275,"ξ":276,"ο":277,"π":278,"ρ":279,"ς":280,"σ":281,"τ":282,"υ":283,"φ":284,"χ":285,"ψ":286,"ω":287,"ό":288,"ύ":289,"ώ":290,"А":291,"Б":292,"В":293,"Г":294,"Д":295,"З":296,"И":297,"К":298,"Л":299,"М":300,"Н":301,"О":302,"П":303,"Р":304,"С":305,"Т":306,"У":307,"Ф":308,"Х":309,"Ц":310,"Ч":311,"Ш":312,"Я":313,"а":314,"б":315,"в":316,"г":317,"д":318,"е":319,"ж":320,"з":321,"и":322,"й":323,"к":324,"л":325,"м":326,"н":327,"о":328,"п":329,"р":330,"с":331,"т":332,"у":333,"ф":334,"х":335,"ц":336,"ч":337,"ш":338,"ъ":339,"ы":340,"ь":341,"э":342,"ю":343,"я":344,"ё":345,"і":346,"ј":347,"ћ":348,"ա":349,"ե":350,"ի":351,"յ":352,"ն":353,"ո":354,"ր":355,"ְ":356,"ִ":357,"ֵ":358,"ֶ":359,"ַ":360,"ָ":361,"ֹ":362,"ּ":363,"ׁ":364,"א":365,"ב":366,"ג":367,"ד":368,"ה":369,"ו":370,"ז":371,"ח":372,"ט":373,"י":374,"ך":375,"כ":376,"ל":377,"ם":378,"מ":379,"ן":380,"נ":381,"ס":382,"ע":383,"פ":384,"צ":385,"ק":386,"ר":387,"ש":388,"ת":389,"،":390,"ء":391,"آ":392,"أ":393,"إ":394,"ئ":395,"ا":396,"ب":397,"ة":398,"ت":399,"ث":400,"ج":401,"ح":402,"خ":403,"د":404,"ذ":405,"ر":406,"ز":407,"س":408,"ش":409,"ص":410,"ض":411,"ط":412,"ظ":413,"ع":414,"غ":415,"ـ":416,"ف":417,"ق":418,"ك":419,"ل":420,"م":421,"ن":422,"ه":423,"و":424,"ى":425,"ي":426,"ً":427,"ٌ":428,"ٍ":429,"َ":430,"ُ":431,"ِ":432,"ّ":433,"ْ":434,"پ":435,"چ":436,"ڠ":437,"ڤ":438,"ک":439,"گ":440,"ی":441,"ं":442,"अ":443,"क":444,"ग":445,"च":446,"ज":447,"ण":448,"त":449,"द":450,"ध":451,"न":452,"प":453,"ब":454,"भ":455,"म":456,"य":457,"र":458,"ल":459,"व":460,"श":461,"ष":462,"स":463,"ह":464,"ा":465,"ि":466,"ी":467,"ु":468,"े":469,"ो":470,"्":471,"ক":472,"দ":473,"ন":474,"ব":475,"ম":476,"য":477,"র":478,"ল":479,"া":480,"ি":481,"ে":482,"্":483,"க":484,"ச":485,"த":486,"ப":487,"ம":488,"ர":489,"ா":490,"ி":491,"ு":492,"்":493,"ా":494,"్":495,"ก":496,"ค":497,"ง":498,"จ":499,"ช":500,"ด":501,"ต":502,"ท":503,"ธ":504,"น":505,"บ":506,"ป":507,"พ":508,"ม":509,"ย":510,"ร":511,"ล":512,"ว":513,"ส":514,"ห":515,"อ":516,"ะ":517,"ั":518,"า":519,"ิ":520,"ี":521,"ุ":522,"เ":523,"่":524,"้":525,"์":526,"་":527,"်":528,"ა":529,"ე":530,"ი":531,"ლ":532,"ო":533,"რ":534,"ს":535,"ា":536,"្":537,"ᨀ":538,"ᨄ":539,"ᨅ":540,"ᨆ":541,"ᨈ":542,"ᨉ":543,"ᨑ":544,"ᨒ":545,"ᨔ":546,"ᨕ":547,"ᨗ":548,"ᨘ":549,"ᨙ":550,"ᨚ":551,"ᨛ":552,"ᮔ":553,"ᮤ":554,"᮪":555,"ḍ":556,"Ḥ":557,"ḥ":558,"ḫ":559,"ṁ":560,"ṃ":561,"ṅ":562,"ṇ":563,"ṛ":564,"Ṣ":565,"ṣ":566,"Ṭ":567,"ṭ":568,"ṯ":569,"ẓ":570,"ạ":571,"ả":572,"ấ":573,"ầ":574,"ậ":575,"ắ":576,"ằ":577,"ế":578,"ề":579,"ễ":580,"ệ":581,"ị":582,"ọ":583,"ố":584,"ồ":585,"ổ":586,"ộ":587,"ớ":588,"ờ":589,"ợ":590,"ụ":591,"ứ":592,"ữ":593,"ự":594,"ỳ":595,"ỹ":596,"ἀ":597,"ἄ":598,"Ἀ":599,"ἐ":600,"ὁ":601,"ὐ":602,"ὶ":603,"ὸ":604,"ῆ":605,"ῖ":606,"ῦ":607,"ῶ":608,"‐":609,"‑":610,"–":611,"—":612,"―":613,"‘":614,"’":615,"“":616,"”":617,"„":618,"†":619,"•":620,"…":621,"′":622,"″":623,"›":624,"⁄":625,"₩":626,"€":627,"₹":628,"℃":629,"ℓ":630,"™":631,"←":632,"→":633,"↓":634,"∈":635,"−":636,"∗":637,"∞":638,"≈":639,"≠":640,"≡":641,"≤":642,"≥":643,"⋅":644,"─":645,"░":646,"▪":647,"●":648,"◦":649,"★":650,"☆":651,"☉":652,"⟨":653,"⟩":654,"、":655,"。":656,"あ":657,"い":658,"う":659,"え":660,"お":661,"か":662,"が":663,"き":664,"く":665,"け":666,"こ":667,"さ":668,"し":669,"じ":670,"す":671,"た":672,"だ":673,"ち":674,"っ":675,"つ":676,"て":677,"で":678,"と":679,"な":680,"に":681,"の":682,"は":683,"ま":684,"み":685,"も":686,"よ":687,"ら":688,"り":689,"る":690,"れ":691,"を":692,"ん":693,"ア":694,"ィ":695,"イ":696,"ウ":697,"エ":698,"オ":699,"カ":700,"キ":701,"ク":702,"グ":703,"コ":704,"サ":705,"シ":706,"ジ":707,"ス":708,"タ":709,"ダ":710,"チ":711,"ッ":712,"テ":713,"デ":714,"ト":715,"ド":716,"ナ":717,"ニ":718,"バ":719,"フ":720,"プ":721,"マ":722,"ム":723,"ャ":724,"ラ":725,"リ":726,"ル":727,"レ":728,"ロ":729,"ン":730,"・":731,"ー":732,"一":733,"三":734,"上":735,"下":736,"不":737,"世":738,"东":739,"中":740,"主":741,"之":742,"九":743,"事":744,"二":745,"五":746,"井":747,"京":748,"人":749,"仁":750,"代":751,"会":752,"佛":753,"信":754,"元":755,"光":756,"八":757,"公":758,"利":759,"劉":760,"北":761,"十":762,"千":763,"华":764,"南":765,"原":766,"口":767,"古":768,"台":769,"史":770,"司":771,"合":772,"吉":773,"后":774,"君":775,"周":776,"命":777,"和":778,"唐":779,"四":780,"国":781,"國":782,"土":783,"地":784,"城":785,"堂":786,"士":787,"夏":788,"大":789,"天":790,"太":791,"夫":792,"女":793,"子":794,"孝":795,"学":796,"學":797,"安":798,"宗":799,"宮":800,"家":801,"寺":802,"小":803,"少":804,"山":805,"島":806,"川":807,"州":808,"工":809,"市":810,"帝":811,"師":812,"平":813,"年":814,"府":815,"建":816,"式":817,"張":818,"德":819,"心":820,"志":821,"愛":822,"成":823,"我":824,"戦":825,"教":826,"文":827,"新":828,"方":829,"日":830,"明":831,"星":832,"春":833,"昭":834,"時":835,"書":836,"會":837,"月":838,"有":839,"朝":840,"木":841,"本":842,"朱":843,"李":844,"村":845,"東":846,"林":847,"株":848,"機":849,"歌":850,"正":851,"武":852,"氏":853,"民":854,"水":855,"永":856,"江":857,"河":858,"治":859,"法":860,"海":861,"清":862,"漢":863,"玉":864,"王":865,"理":866,"生":867,"田":868,"町":869,"白":870,"百":871,"的":872,"皇":873,"真":874,"石":875,"社":876,"神":877,"福":878,"空":879,"立":880,"經":881,"美":882,"義":883,"聖":884,"花":885,"英":886,"華":887,"藤":888,"行":889,"西":890,"軍":891,"通":892,"道":893,"郎":894,"郡":895,"部":896,"都":897,"里":898,"野":899,"金":900,"長":901,"門":902,"阿":903,"院":904,"陳":905,"陽":906,"電":907,"青":908,"音":909,"香":910,"馬":911,"駅":912,"高":913,"黃":914,"龍":915,"ꦁ":916,"ꦂ":917,"ꦏ":918,"ꦒ":919,"ꦗ":920,"ꦠ":921,"ꦢ":922,"ꦤ":923,"ꦥ":924,"ꦧ":925,"ꦩ":926,"ꦫ":927,"ꦭ":928,"ꦮ":929,"ꦱ":930,"ꦲ":931,"ꦴ":932,"ꦶ":933,"ꦸ":934,"ꦺ":935,"ꦼ":936,"꧀":937,"가":938,"경":939,"고":940,"구":941,"국":942,"기":943,"김":944,"나":945,"다":946,"대":947,"도":948,"동":949,"라":950,"리":951,"무":952,"문":953,"미":954,"민":955,"박":956,"부":957,"비":958,"사":959,"산":960,"서":961,"선":962,"성":963,"소":964,"수":965,"스":966,"시":967,"신":968,"아":969,"어":970,"에":971,"연":972,"영":973,"오":974,"왕":975,"요":976,"우":977,"원":978,"유":979,"은":980,"의":981,"이":982,"인":983,"일":984,"자":985,"장":986,"전":987,"정":988,"제":989,"조":990,"주":991,"지":992,"진":993,"하":994,"한":995,"해":996,"현":997,"화":998,"！":999,"（":1000,"）":1001,"，":1002,"～":1003,"6</w>":1004,"a</w>":1005,"7</w>":1006,"3</w>":1007,"o</w>":1008,"0</w>":1009,"8</w>":1010,"m</w>":1011,"L</w>":1012,"5</w>":1013,"9</w>":1014,"i</w>":1015,"1</w>":1016,"r</w>":1017,"u</w>":1018,"d</w>":1019,"X</w>":1020,"n</w>":1021,"t</w>":1022,"4</w>":1023,"s</w>":1024,"g</w>":1025,"2</w>":1026,"z</w>":1027,"l</w>":1028,"e</w>":1029,"ā</w>":1030,"í</w>":1031,"P</w>":1032,"y</w>":1033,"v</w>":1034,"h</w>":1035,"k</w>":1036,"j</w>":1037,"ي</w>":1038,"C</w>":1039,"N</w>":1040,"A</w>":1041,"J</w>":1042,"M</w>":1043,"ō</w>":1044,"c</w>":1045,"ن</w>":1046,"x</w>":1047,"V</w>":1048,"U</w>":1049,"p</w>":1050,"오</w>":1051,"R</w>":1052,"S</w>":1053,"b</w>":1054,"T</w>":1055,"\"</w>":1056,"à</w>":1057,".</w>":1058,"а</w>":1059,"f</w>":1060,"î</w>":1061,"ص</w>":1062,"ा</w>":1063,"G</w>":1064,"w</w>":1065,"ς</w>":1066,"Q</w>":1067,"H</w>":1068,"ü</w>":1069,"Z</w>":1070,"é</w>":1071,"ا</w>":1072,"α</w>":1073,"K</w>":1074,"ٍ</w>":1075,"ḥ</w>":1076,"원</w>":1077,"ד</w>":1078,"B</w>":1079,"á</w>":1080,"ت</w>":1081,"F</w>":1082,"の</w>":1083,"E</w>":1084,"م</w>":1085,"ด</w>":1086,"></w>":1087,"ّ</w>":1088,"к</w>":1089,"D</w>":1090,"ь</w>":1091,"[</w>":1092,"W</w>":1093,"т</w>":1094,"ē</w>":1095,"ī</w>":1096,",</w>":1097,"I</w>":1098,"기</w>":1099,"ν</w>":1100,"ū</w>":1101,"수</w>":1102,"デ</w>":1103,"ğ</w>":1104,"O</w>":1105,"=</w>":1106,"ف</w>":1107,"도</w>":1108,"е</w>":1109,"ρ</w>":1110,"ْ</w>":1111,"ん</w>":1112,"า</w>":1113,"ŭ</w>":1114,"ć</w>":1115,"צ</w>":1116,"́</w>":1117,"М</w>":1118,"Р</w>":1119,"ë</w>":1120,")</w>":1121,"ῦ</w>":1122,"ő</w>":1123,"ド</w>":1124,"н</w>":1125,"λ</w>":1126,"া</w>":1127,"ș</w>":1128,"è</w>":1129,"р</w>":1130,"Ş</w>":1131,"_</w>":1132,"ı</w>":1133,"ú</w>":1134,"ụ</w>":1135,"ј</w>":1136,"о</w>":1137,"æ</w>":1138,"q</w>":1139,"(</w>":1140,"ー</w>":1141,"]</w>":1142,"미</w>":1143,"ة</w>":1144,"י</w>":1145,"ḫ</w>":1146,"*</w>":1147,"ι</w>":1148,"|</w>":1149,"일</w>":1150,"်</w>":1151,"å</w>":1152,"я</w>":1153,"る</w>":1154,"ο</w>":1155,"π</w>":1156,"ᨙ</w>":1157,"현</w>":1158,"꧀</w>":1159,"ó</w>":1160,"ء</w>":1161,"@</w>":1162,"ł</w>":1163,"º</w>":1164,"Y</w>":1165,"ò</w>":1166,"ή</w>":1167,"ق</w>":1168,"ُ</w>":1169,"в</w>":1170,"나</w>":1171,"선</w>":1172,"ر</w>":1173,"ě</w>":1174,";</w>":1175,"ð</w>":1176,"て</w>":1177,"”</w>":1178,"ί</w>":1179,"τ</w>":1180,"ი</w>":1181,"η</w>":1182,"ž</w>":1183,"ز</w>":1184,"경</w>":1185,"동</w>":1186,"ו</w>":1187,"ꦶ</w>":1188,"л</w>":1189,"ח</w>":1190,"â</w>":1191,"ч</w>":1192,"ם</w>":1193,"ی</w>":1194,"ė</w>":1195,"َ</w>":1196,"յ</w>":1197,"문</w>":1198,"й</w>":1199,"ה</w>":1200,"د</w>":1201,"ِ</w>":1202,"་</w>":1203,"र</w>":1204,"인</w>":1205,"ù</w>":1206,"ナ</w>":1207,"제</w>":1208,"ล</w>":1209,"ラ</w>":1210,"!</w>":1211,"ş</w>":1212,"…</w>":1213,"ø</w>":1214,"ר</w>":1215,"ì</w>":1216,"/</w>":1217,"ב</w>":1218,"ร</w>":1219,"ω</w>":1220,"ý</w>":1221,"ه</w>":1222,"주</w>":1223,"\\</w>":1224,"ö</w>":1225,"দ</w>":1226,"Δ</w>":1227,"해</w>":1228,"ย</w>":1229,"자</w>":1230,"и</w>":1231,"ش</w>":1232,"П</w>":1233,"य</w>":1234,"و</w>":1235,"υ</w>":1236,"č</w>":1237,"ṭ</w>":1238,"ꦺ</w>":1239,"ə</w>":1240,"Ö</w>":1241,"ト</w>":1242,"ä</w>":1243,"ث</w>":1244,"с</w>":1245,"ô</w>":1246,"ी</w>":1247,"่</w>":1248,"ع</w>":1249,"ᨚ</w>":1250,"ê</w>":1251,"ְ</w>":1252,"ᨗ</w>":1253,"ц</w>":1254,"э</w>":1255,"у</w>":1256,"고</w>":1257,"ą</w>":1258,"ᮤ</w>":1259,"&</w>":1260,"ת</w>":1261,"д</w>":1262,"立</w>":1263,"ु</w>":1264,"史</w>":1265,"न</w>":1266,"ך</w>":1267,"ŋ</w>":1268,"ꦤ</w>":1269,"ы</w>":1270,"ờ</w>":1271,"ら</w>":1272,"ă</w>":1273,"화</w>":1274,"ń</w>":1275,"タ</w>":1276,"ス</w>":1277,"ן</w>":1278,"전</w>":1279,"?</w>":1280,"ち</w>":1281,"ン</w>":1282,"가</w>":1283,"ề</w>":1284,"ッ</w>":1285,"″</w>":1286,"$</w>":1287,"ל</w>":1288,"∞</w>":1289,"ά</w>":1290,"ǐ</w>":1291,"ש</w>":1292,"š</w>":1293,"い</w>":1294,"장</w>":1295,"ꦁ</w>":1296,"국</w>":1297,"ổ</w>":1298,"ś</w>":1299,"ː</w>":1300,"ى</w>":1301,"ï</w>":1302,"─</w>":1303,"ɛ</w>":1304,"☆</w>":1305,"-</w>":1306,"்</w>":1307,"비</w>":1308,"왕</w>":1309,"ξ</w>":1310,"х</w>":1311,"こ</w>":1312,"ư</w>":1313,"ு</w>":1314,"マ</w>":1315,"은</w>":1316,"س</w>":1317,"ꦗ</w>":1318,"น</w>":1319,"์</w>":1320,"は</w>":1321,"Ø</w>":1322,"û</w>":1323,"ก</w>":1324,"な</w>":1325,"ṯ</w>":1326,"'</w>":1327,"ш</w>":1328,"א</w>":1329,"ʔ</w>":1330,"★</w>":1331,"ک</w>":1332,"°</w>":1333,"진</w>":1334,"ʿ</w>":1335,"᮪</w>":1336,"れ</w>":1337,"も</w>":1338,"ћ</w>":1339,"ন</w>":1340,"≠</w>":1341,"し</w>":1342,"~</w>":1343,"ً</w>":1344,"ง</w>":1345,"з</w>":1346,"オ</w>":1347,"お</w>":1348,"ɔ</w>":1349,"だ</w>":1350,"ט</w>":1351,"ț</w>":1352,"ɑ</w>":1353,"ʾ</w>":1354,"õ</w>":1355,"Н</w>":1356,"व</w>":1357,"ġ</w>":1358,"ն</w>":1359,"Σ</w>":1360,"ح</w>":1361,"‘</w>":1362,"’</w>":1363,"€</w>":1364,":</w>":1365,"ʃ</w>":1366,"−</w>":1367,"þ</w>":1368,"ण</w>":1369,"キ</w>":1370,"의</w>":1371,"ꦩ</w>":1372,"—</w>":1373,"ิ</w>":1374,"村</w>":1375,"え</w>":1376,"ε</w>":1377,"ว</w>":1378,"ã</w>":1379,"У</w>":1380,"カ</w>":1381,"ṃ</w>":1382,"Д</w>":1383,"스</w>":1384,"す</w>":1385,"라</w>":1386,"ل</w>":1387,"ק</w>":1388,"ր</w>":1389,"ħ</w>":1390,"ム</w>":1391,"성</w>":1392,"박</w>":1393,"ต</w>":1394,"연</w>":1395,"м</w>":1396,"た</w>":1397,"ǔ</w>":1398,"부</w>":1399,"ج</w>":1400,"ṁ</w>":1401,"ŏ</w>":1402,"С</w>":1403,"О</w>":1404,"ệ</w>":1405,"ض</w>":1406,"ĕ</w>":1407,"£</w>":1408,"か</w>":1409,"ţ</w>":1410,"ὶ</w>":1411,"{</w>":1412,"서</w>":1413,"ル</w>":1414,"¡</w>":1415,"っ</w>":1416,"ك</w>":1417,"（</w>":1418,"정</w>":1419,"^</w>":1420,"이</w>":1421,"К</w>":1422,"त</w>":1423,"े</w>":1424,"ß</w>":1425,"ี</w>":1426,"하</w>":1427,"ज</w>":1428,"다</w>":1429,"ữ</w>":1430,"ׁ</w>":1431,"산</w>":1432,"·</w>":1433,"“</w>":1434,"В</w>":1435,"う</w>":1436,"ώ</w>":1437,"Å</w>":1438,"ύ</w>":1439,"ظ</w>":1440,"ơ</w>":1441,"ल</w>":1442,"ṅ</w>":1443,"δ</w>":1444,"ィ</w>":1445,"り</w>":1446,"ब</w>":1447,"ç</w>":1448,"ʼ</w>":1449,"Ι</w>":1450,"에</w>":1451,"ǒ</w>":1452,"に</w>":1453,"우</w>":1454,"%</w>":1455,"ா</w>":1456,"城</w>":1457,"ָ</w>":1458,"Þ</w>":1459,"گ</w>":1460,"리</w>":1461,"ئ</w>":1462,"よ</w>":1463,"ế</w>":1464,"を</w>":1465,"ڠ</w>":1466,"จ</w>":1467,"ب</w>":1468,"θ</w>":1469,"Τ</w>":1470,"지</w>":1471,"・</w>":1472,"भ</w>":1473,"ả</w>":1474,"ř</w>":1475,"Ρ</w>":1476,"پ</w>":1477,"と</w>":1478,"द</w>":1479,"后</w>":1480,"ม</w>":1481,"श</w>":1482,"ꦴ</w>":1483,"г</w>":1484,"ٌ</w>":1485,"フ</w>":1486,"ṇ</w>":1487,"ю</w>":1488,"ό</w>":1489,"ʻ</w>":1490,"ꦠ</w>":1491,"高</w>":1492,"シ</w>":1493,"כ</w>":1494,"ে</w>":1495,"б</w>":1496,"ъ</w>":1497,"Λ</w>":1498,"ᨑ</w>":1499,"²</w>":1500,"خ</w>":1501,"ꦏ</w>":1502,"प</w>":1503,"テ</w>":1504,"き</w>":1505,"บ</w>":1506,"ა</w>":1507,"유</w>":1508,"ꦂ</w>":1509,"く</w>":1510,"ɪ</w>":1511,"ꦸ</w>":1512,"ं</w>":1513,"利</w>":1514,"ס</w>":1515,"ि</w>":1516,"`</w>":1517,"ท</w>":1518,"イ</w>":1519,"ồ</w>":1520,"年</w>":1521,"아</w>":1522,"्</w>":1523,"×</w>":1524,"月</w>":1525,"◦</w>":1526,"少</w>":1527,"ז</w>":1528,"ṛ</w>":1529,"ꦱ</w>":1530,"ذ</w>":1531,"Я</w>":1532,"ὸ</w>":1533,"–</w>":1534,"μ</w>":1535,"ũ</w>":1536,"ე</w>":1537,"ּ</w>":1538,"み</w>":1539,"ジ</w>":1540,"ク</w>":1541,"式</w>":1542,"Ν</w>":1543,"영</w>":1544,"민</w>":1545,"ñ</w>":1546,"░</w>":1547,"±</w>":1548,"स</w>":1549,"サ</w>":1550,"ᨀ</w>":1551,"γ</w>":1552,"ᨒ</w>":1553,"ộ</w>":1554,"র</w>":1555,"사</w>":1556,"⋅</w>":1557,"Ü</w>":1558,"ط</w>":1559,"#</w>":1560,"க</w>":1561,"ロ</w>":1562,"§</w>":1563,"リ</w>":1564,"요</w>":1565,"đ</w>":1566,"ᨆ</w>":1567,"）</w>":1568,"É</w>":1569,"日</w>":1570,"ি</w>":1571,"어</w>":1572,"क</w>":1573,"じ</w>":1574,"ꦢ</w>":1575,"ष</w>":1576,"ា</w>":1577,"Ó</w>":1578,"ż</w>":1579,"ま</w>":1580,"،</w>":1581,"あ</w>":1582,"ṣ</w>":1583,"}</w>":1584,"Х</w>":1585,"Α</w>":1586,"•</w>":1587,"ꦫ</w>":1588,"ア</w>":1589,"ค</w>":1590,"Č</w>":1591,"南</w>":1592,"한</w>":1593,"ի</w>":1594,"구</w>":1595,"ᨕ</w>":1596,"̣</w>":1597,"∈</w>":1598,"―</w>":1599,"Т</w>":1600,"म</w>":1601,"Ο</w>":1602,"Κ</w>":1603,"σ</w>":1604,"′</w>":1605,"ꦮ</w>":1606,"グ</w>":1607,"ạ</w>":1608,"ա</w>":1609,"ᨛ</w>":1610,"غ</w>":1611,"ɡ</w>":1612,"+</w>":1613,"신</w>":1614,"学</w>":1615,"ź</w>":1616,"ů</w>":1617,"ň</w>":1618,"夫</w>":1619,"が</w>":1620,"च</w>":1621,"新</w>":1622,"Â</w>":1623,"რ</w>":1624,"И</w>":1625,"チ</w>":1626,"ĩ</w>":1627,"무</w>":1628,"ǎ</w>":1629,"А</w>":1630,"ζ</w>":1631,"ो</w>":1632,"≤</w>":1633,"ক</w>":1634,"ג</w>":1635,"ַ</w>":1636,"ọ</w>":1637,"≥</w>":1638,"›</w>":1639,"ф</w>":1640,"ʰ</w>":1641,"合</w>":1642,"מ</w>":1643,"À</w>":1644,"³</w>":1645,"시</w>":1646,"Í</w>":1647,"พ</w>":1648,"Ω</w>":1649,"Š</w>":1650,"ᨘ</w>":1651,"ะ</w>":1652,"¬</w>":1653,"プ</w>":1654,"อ</w>":1655,"ե</w>":1656,"ダ</w>":1657,"劉</w>":1658,"ứ</w>":1659,"▪</w>":1660,"ꦲ</w>":1661,"ж</w>":1662,"四</w>":1663,"β</w>":1664,"ę</w>":1665,"Ç</w>":1666,"ᨔ</w>":1667,"أ</w>":1668,"ị</w>":1669,"Î</w>":1670,"ল</w>":1671,"→</w>":1672,"소</w>":1673,"ὁ</w>":1674,"ह</w>":1675,"Б</w>":1676,"ম</w>":1677,"ḍ</w>":1678,"皇</w>":1679,"馬</w>":1680,"歌</w>":1681,"ს</w>":1682,"ẓ</w>":1683,"פ</w>":1684,"«</w>":1685,"～</w>":1686,"ニ</w>":1687,"і</w>":1688,"ग</w>":1689,"έ</w>":1690,"¹</w>":1691,"κ</w>":1692,"建</w>":1693,"ป</w>":1694,"ி</w>":1695,"西</w>":1696,"ῖ</w>":1697,"ా</w>":1698,"్</w>":1699,"‐</w>":1700,"Θ</w>":1701,"®</w>":1702,"ध</w>":1703,"ῶ</w>":1704,"⟩</w>":1705,"ֹ</w>":1706,"←</w>":1707,"้</w>":1708,"п</w>":1709,"大</w>":1710,"ব</w>":1711,"京</w>":1712,"ャ</w>":1713,"理</w>":1714,"木</w>":1715,"コ</w>":1716,"₩</w>":1717,"ᨄ</w>":1718,"け</w>":1719,"福</w>":1720,"。</w>":1721,"昭</w>":1722,"Đ</w>":1723,"ウ</w>":1724,"Ч</w>":1725,"ע</w>":1726,"נ</w>":1727,"都</w>":1728,"さ</w>":1729,"ช</w>":1730,"대</w>":1731,"†</w>":1732,"ุ</w>":1733,"Φ</w>":1734,"φ</w>":1735,"্</w>":1736,"金</w>":1737,"ர</w>":1738,"ꦧ</w>":1739,"教</w>":1740,"五</w>":1741,"조</w>":1742,"，</w>":1743,"ᨈ</w>":1744,"ლ</w>":1745,"ˈ</w>":1746,"த</w>":1747,"漢</w>":1748,"州</w>":1749,"⁄</w>":1750,"郡</w>":1751,"駅</w>":1752,"愛</w>":1753,"川</w>":1754,"ო</w>":1755,"´</w>":1756,"ꦒ</w>":1757,"Γ</w>":1758,"代</w>":1759,"ỹ</w>":1760,"學</w>":1761,"ꦥ</w>":1762,"З</w>":1763,"∗</w>":1764,"য</w>":1765,"ņ</w>":1766,"Г</w>":1767,"で</w>":1768,"●</w>":1769,"公</w>":1770,"Μ</w>":1771,"ִ</w>":1772,"水</w>":1773,"師</w>":1774,"青</w>":1775,"主</w>":1776,"宮</w>":1777,"Л</w>":1778,"ᨉ</w>":1779,"˚</w>":1780,"ễ</w>":1781,"工</w>":1782,"白</w>":1783,"Π</w>":1784,"唐</w>":1785,"Á</w>":1786,"½</w>":1787,"之</w>":1788,"安</w>":1789,"ự</w>":1790,"清</w>":1791,"≡</w>":1792,"エ</w>":1793,"İ</w>":1794,"⟨</w>":1795,"Ä</w>":1796,"ƒ</w>":1797,"陽</w>":1798,"ё</w>":1799,"„</w>":1800,"<</w>":1801,"ꦼ</w>":1802,"孝</w>":1803,"士</w>":1804,"☉</w>":1805,"ố</w>":1806,"χ</w>":1807,"ợ</w>":1808,"ֶ</w>":1809,"府</w>":1810,"ỳ</w>":1811,"夏</w>":1812,"法</w>":1813,"つ</w>":1814,"ֵ</w>":1815,"Ε</w>":1816,"真</w>":1817,"ὐ</w>":1818,"電</w>":1819,"ῆ</w>":1820,"ꦭ</w>":1821,"戦</w>":1822,"行</w>":1823,"ส</w>":1824,"社</w>":1825,"氏</w>":1826,"ψ</w>":1827,"天</w>":1828,"朱</w>":1829,"バ</w>":1830,"原</w>":1831,"Ś</w>":1832,"レ</w>":1833,"Ḥ</w>":1834,"»</w>":1835,"김</w>":1836,"古</w>":1837,"地</w>":1838,"Ṭ</w>":1839,"µ</w>":1840,"ℓ</w>":1841,"ـ</w>":1842,"Ш</w>":1843,"阿</w>":1844,"！</w>":1845,"™</w>":1846,"口</w>":1847,"和</w>":1848,"朝</w>":1849,"春</w>":1850,"百</w>":1851,"Ł</w>":1852,"↓</w>":1853,"方</w>":1854,"町</w>":1855,"不</w>":1856,"ธ</w>":1857,"玉</w>":1858,"江</w>":1859,"志</w>":1860,"中</w>":1861,"、</w>":1862,"寺</w>":1863,"三</w>":1864,"英</w>":1865,"島</w>":1866,"چ</w>":1867,"人</w>":1868,"二</w>":1869,"生</w>":1870,"義</w>":1871,"平</w>":1872,"市</w>":1873,"龍</w>":1874,"文</w>":1875,"東</w>":1876,"₹</w>":1877,"司</w>":1878,"武</w>":1879,"機</w>":1880,"宗</w>":1881,"株</w>":1882,"軍</w>":1883,"Ф</w>":1884,"Ż</w>":1885,"ᨅ</w>":1886,"黃</w>":1887,"子</w>":1888,"井</w>":1889,"治</w>":1890,"≈</w>":1891,"元</w>":1892,"华</w>":1893,"一</w>":1894,"九</w>":1895,"星</w>":1896,"我</w>":1897,"℃</w>":1898,"張</w>":1899,"田</w>":1900,"ᮔ</w>":1901,"華</w>":1902,"太</w>":1903,"अ</w>":1904,"周</w>":1905,"Ž</w>":1906,"本</w>":1907,"帝</w>":1908,"的</w>":1909,"世</w>":1910,"石</w>":1911,"十</w>":1912,"家</w>":1913,"Ц</w>":1914,"正</w>":1915,"王</w>":1916,"聖</w>":1917,"君</w>":1918,"女</w>":1919,"Æ</w>":1920,"仁</w>":1921,"ո</w>":1922,"河</w>":1923,"土</w>":1924,"Ú</w>":1925,"野</w>":1926,"八</w>":1927,"œ</w>":1928,"ἀ</w>":1929,"海</w>":1930,"佛</w>":1931,"民</w>":1932,"ớ</w>":1933,"إ</w>":1934,"Β</w>":1935,"空</w>":1936,"Ō</w>":1937,"会</w>":1938,"信</w>":1939,"¥</w>":1940,"香</w>":1941,"郎</w>":1942,"国</w>":1943,"事</w>":1944,"神</w>":1945,"美</w>":1946,"陳</w>":1947,"李</w>":1948,"經</w>":1949,"明</w>":1950,"道</w>":1951,"小</w>":1952,"千</w>":1953,"永</w>":1954,"吉</w>":1955,"北</w>":1956,"有</w>":1957,"山</w>":1958,"ڤ</w>":1959,"花</w>":1960,"書</w>":1961,"台</w>":1962,"Ā</w>":1963,"堂</w>":1964,"东</w>":1965,"命</w>":1966,"院</w>":1967,"成</w>":1968,"上</w>":1969,"德</w>":1970,"‑</w>":1971,"Ṣ</w>":1972,"國</w>":1973,"林</w>":1974,"Χ</w>":1975,"時</w>":1976,"藤</w>":1977,"長</w>":1978,"ச</w>":1979,"音</w>":1980,"通</w>":1981,"會</w>":1982,"下</w>":1983,"里</w>":1984,"門</w>":1985,"部</w>":1986,"光</w>":1987,"心</w>":1988,"an</w>":1989,"an":1990,"er":1991,"en":1992,"ar":1993,"la":1994,"in":1995,"ang</w>":1996,"se":1997,"ad":1998,"ta":1999,"di":2000,"kan</w>":2001,"ur":2002,"em":2003,"un":2004,"ti":2005,"as":2006,"ba":2007,"do":2008,"men":2009,"dan</w>":2010,"yang</w>":2011,"da":2012,"id</w>":2013,"ya</w>":2014,"si":2015,"am":2016,"doc</w>":2017,"=\"</w>":2018,"li":2019,"ber":2020,"ter":2021,"at":2022,"at</w>":2023,"di</w>":2024,"tu":2025,"lah</w>":2026,"ang":2027,"bu":2028,"ga":2029,"on":2030,"per":2031,"ke":2032,"or":2033,"ada</w>":2034,"le":2035,"ari</w>":2036,"eng":2037,"te":2038,"ak":2039,"ah</w>":2040,"le</w>":2041,"dari</w>":2042,"al</w>":2043,"al":2044,"nya</w>":2045,"un</w>":2046,"ara</w>":2047,"cur":2048,"be":2049,"ini</w>":2050,"alah</w>":2051,"=\"":2052,"tle</w>":2053,"title</w>":2054,"url</w>":2055,"=\"?</w>":2056,"</</w>":2057,"curid</w>":2058,"\"></w>":2059,"pada</w>":2060,"is":2061,"mem":2062,"akan</w>":2063,"ga</w>":2064,"il":2065,"ta</w>":2066,"du":2067,"ri":2068,"ing":2069,"engan</w>":2070,"ju":2071,"ro":2072,"mer":2073,"adalah</w>":2074,"ku":2075,"lam</w>":2076,"si</w>":2077,"dengan</w>":2078,"tuk</w>":2079,"20":2080,"sa":2081,"pe":2082,"lu":2083,"tah":2084,"bi":2085,"mu":2086,"ka":2087,"me":2088,"pen":2089,"su":2090,"ko":2091,"ka</w>":2092,"ia</w>":2093,"untuk</w>":2094,"meng":2095,"de":2096,"dalam</w>":2097,"ak</w>":2098,"pu":2099,"hi":2100,"19":2101,"in</w>":2102,"re":2103,"Se":2104,"sebu":2105,"ole":2106,"ma</w>":2107,"it":2108,"gai</w>":2109,"ma":2110,"ata":2111,"tahun</w>":2112,"In":2113,"ian</w>":2114,"up":2115,"ap":2116,"ne":2117,"tr":2118,"bagai</w>":2119,"oleh</w>":2120,"to":2121,"us</w>":2122,"ung</w>":2123,"pat</w>":2124,"ol":2125,"ing</w>":2126,"asi</w>":2127,"ah":2128,"ili":2129,"ama</w>":2130,"Ke":2131,"wa</w>":2132,"ke</w>":2133,"sebagai</w>":2134,"anya</w>":2135,"ti</w>":2136,"on</w>":2137,"is</w>":2138,"jad":2139,"pem":2140,"ra":2141,"da</w>":2142,"po":2143,"mas":2144,"bah":2145,"es</w>":2146,"ung":2147,"sia</w>":2148,"kar":2149,"bag":2150,"tan</w>":2151,"juga</w>":2152,"om":2153,"ar</w>":2154,"atan</w>":2155,"jadi</w>":2156,"us":2157,"upakan</w>":2158,"ai</w>":2159,"merupakan</w>":2160,"orang</w>":2161,"kem":2162,"aan</w>":2163,"telah</w>":2164,"ki</w>":2165,"en</w>":2166,"ki":2167,"itu</w>":2168,"201":2169,"tan":2170,"angan</w>":2171,"tem":2172,"sebut</w>":2173,"asi":2174,"sa</w>":2175,"atu</w>":2176,"ik":2177,"Per":2178,"dak</w>":2179,"menjadi</w>":2180,"ser":2181,"tara</w>":2182,"han</w>":2183,"el":2184,"dapat</w>":2185,"bagian</w>":2186,"um":2187,"ban":2188,"ri</w>":2189,"atau</w>":2190,"pesi":2191,"peng":2192,"meny":2193,"200":2194,"pro":2195,"amp":2196,"ni":2197,"ch":2198,"tidak</w>":2199,"gi</w>":2200,"ul":2201,"asa</w>":2202,"mp":2203,"pesies</w>":2204,"ker":2205,"22":2206,"tama</w>":2207,"man":2208,"ja</w>":2209,"aw":2210,"as</w>":2211,"tersebut</w>":2212,"ag":2213,"th":2214,"ten":2215,"tas</w>":2216,"Pada</w>":2217,"sebuah</w>":2218,"ali":2219,"sen":2220,"cara</w>":2221,"annya</w>":2222,"gun":2223,"ben":2224,"um</w>":2225,"es":2226,"er</w>":2227,"bang</w>":2228,"eka</w>":2229,"lo":2230,"ir":2231,"bar":2232,"sar</w>":2233,"ong</w>":2234,"done":2235,"fil":2236,"donesia</w>":2237,"Ti":2238,"ci":2239,"dia</w>":2240,"ala":2241,"am</w>":2242,"lan":2243,"pat":2244,"ter</w>":2245,"kon":2246,"Indonesia</w>":2247,"18":2248,"De":2249,"memili":2250,"tar</w>":2251,"eg":2252,"gal</w>":2253,"satu</w>":2254,"har":2255,"diri</w>":2256,"or</w>":2257,"uru":2258,"pan":2259,"hu":2260,"ik</w>":2261,"\".</w>":2262,"ata</w>":2263,"ay":2264,"memiliki</w>":2265,"aj":2266,"besar</w>":2267,"ati":2268,"lay":2269,"ena</w>":2270,"la</w>":2271,"An":2272,"mereka</w>":2273,"15":2274,"bang":2275,"tang":2276,"tu</w>":2277,"Da":2278,"12":2279,"lain</w>":2280,"10":2281,"ap</w>":2282,"inya</w>":2283,"),</w>":2284,"ber</w>":2285,"dua</w>":2286,"ce":2287,"ran":2288,"li</w>":2289,"tang</w>":2290,"de</w>":2291,"ikan</w>":2292,"kal":2293,"ana</w>":2294,"apa</w>":2295,"onal</w>":2296,").</w>":2297,"aba":2298,"kat</w>":2299,"lebi":2300,"ken":2301,"perti</w>":2302,"bahwa</w>":2303,"mela":2304,"ong":2305,"op":2306,"do</w>":2307,"man</w>":2308,"13":2309,"gen":2310,"seorang</w>":2311,"spesies</w>":2312,"ru":2313,"ting":2314,"lebih</w>":2315,"mo":2316,"pertama</w>":2317,"Me":2318,"udi":2319,"Ar":2320,"ingga</w>":2321,"ic":2322,"ika</w>":2323,"jar":2324,"anan</w>":2325,"ur</w>":2326,"tri":2327,"gunakan</w>":2328,"yak</w>":2329,"30":2330,"ai":2331,"lis</w>":2332,"Mar":2333,"tak</w>":2334,"lai</w>":2335,"pi</w>":2336,"os":2337,"tik</w>":2338,"ek":2339,"uk":2340,"hingga</w>":2341,"28":2342,"berapa</w>":2343,"sama</w>":2344,"ota</w>":2345,"der":2346,"angg":2347,"karena</w>":2348,"las</w>":2349,"dang</w>":2350,"ungan</w>":2351,"25":2352,"ab":2353,"nama</w>":2354,"ep":2355,"neg":2356,"gan":2357,"seperti</w>":2358,"et</w>":2359,"udian</w>":2360,"24":2361,"Th":2362,"hir</w>":2363,"Ka":2364,"sela":2365,"14":2366,"isi</w>":2367,"kota</w>":2368,"it</w>":2369,"Ia</w>":2370,"wan</w>":2371,"ov":2372,"tar":2373,"war":2374,"og":2375,"film</w>":2376,"teta":2377,"\",</w>":2378,"secara</w>":2379,"Pen":2380,"wi":2381,"menga":2382,"aya</w>":2383,"pan</w>":2384,"au":2385,"17":2386,"mi":2387,"banyak</w>":2388,"san</w>":2389,"Ch":2390,"199":2391,"mak":2392,"el</w>":2393,"ver":2394,"Pem":2395,"lan</w>":2396,"Bar":2397,"23":2398,"16":2399,"26":2400,"Su":2401,"dah</w>":2402,"Pro":2403,"duk</w>":2404,"Ser":2405,"pi":2406,"mur</w>":2407,"Di":2408,"to</w>":2409,"par":2410,"cu":2411,"bo":2412,"yu</w>":2413,"Ban":2414,"kemudian</w>":2415,"cam":2416,"saat</w>":2417,"mi</w>":2418,"lia</w>":2419,"Re":2420,"duk":2421,"27":2422,"kali</w>":2423,"uk</w>":2424,"tkan</w>":2425,"menye":2426,"ku</w>":2427,"belu":2428,"min":2429,"beberapa</w>":2430,"sah":2431,"salah</w>":2432,"tor</w>":2433,"Be":2434,"uran</w>":2435,"asal</w>":2436,"ukan</w>":2437,"ili</w>":2438,"jal":2439,"hidu":2440,"ac":2441,"antara</w>":2442,"Kar":2443,"ba</w>":2444,"00</w>":2445,"erin":2446,"Amer":2447,"Al":2448,"tus</w>":2449,"layah</w>":2450,"iku":2451,"uan</w>":2452,"ya":2453,"pas":2454,"ge":2455,"Ro":2456,"pa</w>":2457,"asional</w>":2458,"bahasa</w>":2459,"str":2460,"negara</w>":2461,"kayu</w>":2462,"unan</w>":2463,"had":2464,"29":2465,"umu":2466,"musi":2467,"il</w>":2468,"camatan</w>":2469,"bentuk</w>":2470,"ok":2471,"bupat":2472,"wak":2473,"Si":2474,"fam":2475,"for":2476,"jang</w>":2477,"Mu":2478,"gu</w>":2479,"pal":2480,"unia</w>":2481,"gah</w>":2482,"ati</w>":2483,"ra</w>":2484,"Amerika</w>":2485,"aran</w>":2486,"kenal</w>":2487,"buat</w>":2488,"setelah</w>":2489,"peny":2490,"Ber":2491,"Pe":2492,"vi":2493,"aman</w>":2494,"atas</w>":2495,"Par":2496,"bupaten</w>":2497,"eri</w>":2498,"lik</w>":2499,"arkan</w>":2500,"Is":2501,"ordo</w>":2502,"tanggal</w>":2503,"kukan</w>":2504,"ina</w>":2505,"Spesies</w>":2506,"wilayah</w>":2507,"asanya</w>":2508,"so":2509,"erah</w>":2510,"ud":2511,"gol":2512,"tai</w>":2513,"Ag":2514,"usia</w>":2515,"mnya</w>":2516,"genus</w>":2517,"lu</w>":2518,"serta</w>":2519,"pri":2520,"masuk</w>":2521,"kom":2522,"Men":2523,"gi":2524,"kelas</w>":2525,"keti":2526,"ger":2527,"menc":2528,"sem":2529,"famili</w>":2530,"didi":2531,"tero":2532,"Sela":2533,"tetapi</w>":2534,"asan</w>":2535,"ho":2536,"usah":2537,"desa</w>":2538,"jak</w>":2539,"sel":2540,"biasanya</w>":2541,"ahan</w>":2542,"Li":2543,"samp":2544,"para</w>":2545,"33":2546,"20</w>":2547,"me</w>":2548,"hir":2549,"bah</w>":2550,"tempat</w>":2551,"ani</w>":2552,"dar":2553,"dae</w>":2554,"kum":2555,"mulai</w>":2556,"ita</w>":2557,"asil</w>":2558,"baru</w>":2559,"vin":2560,"tif</w>":2561,"Te":2562,"adi":2563,"uh</w>":2564,"yaitu</w>":2565,"golong</w>":2566,"tergolong</w>":2567,"tern":2568,"teroid</w>":2569,"198":2570,"anak</w>":2571,"mana</w>":2572,"Kabupaten</w>":2573,"tam":2574,"angkan</w>":2575,"kepada</w>":2576,"res":2577,"pun</w>":2578,"amun</w>":2579,"akhir</w>":2580,"Ter":2581,"Di</w>":2582,"bu</w>":2583,"olo":2584,"sis":2585,"Neg":2586,"ikat</w>":2587,"utama</w>":2588,"letak</w>":2589,"yar":2590,"panjang</w>":2591,"ingan</w>":2592,"das":2593,"jum":2594,"of</w>":2595,"tasi</w>":2596,"vinsi</w>":2597,"bis":2598,"tur":2599,"na</w>":2600,"Pu":2601,"inan</w>":2602,"tera</w>":2603,"The</w>":2604,"10</w>":2605,"digunakan</w>":2606,"Le":2607,"sendiri</w>":2608,"dis":2609,"lin":2610,"ut</w>":2611,"innya</w>":2612,"awa</w>":2613,"hi</w>":2614,"angat</w>":2615,"sis</w>":2616,"baik</w>":2617,"te</w>":2618,"Sa":2619,"bagi</w>":2620,"din":2621,"terletak</w>":2622,"sebelu":2623,"jumlah</w>":2624,"ola</w>":2625,"gg":2626,"hanya</w>":2627,"baw":2628,"aga":2629,"lem":2630,"II</w>":2631,"ris</w>":2632,"Jep":2633,"hari</w>":2634,"gu":2635,"eb":2636,"kemba":2637,"memper":2638,"por":2639,"bun":2640,"co":2641,"kan":2642,"sta":2643,"kitar</w>":2644,"lainnya</w>":2645,"tro":2646,"diper":2647,"sampai</w>":2648,"Peng":2649,"tur</w>":2650,"masa</w>":2651,"Dalam</w>":2652,"tek":2653,"lang":2654,"tah</w>":2655,"diter":2656,"ek</w>":2657,"takan</w>":2658,"kumbang</w>":2659,"ilan</w>":2660,"lak":2661,"Jepang</w>":2662,"Uni":2663,"So":2664,"dikenal</w>":2665,"Un":2666,"den</w>":2667,"hidup</w>":2668,"Ani":2669,"mili":2670,"selama</w>":2671,"ol</w>":2672,"asteroid</w>":2673,"suatu</w>":2674,"197":2675,"pula":2676,"sangat</w>":2677,"ris":2678,"sekitar</w>":2679,"fi":2680,"anj":2681,"pemerin":2682,"ih</w>":2683,"hasil</w>":2684,"As":2685,"()</w>":2686,"ton</w>":2687,"sec":2688,"menggunakan</w>":2689,"kembali</w>":2690,"Ne":2691,"berada</w>":2692,"tinggi</w>":2693,"bab":2694,"menj":2695,"mbu":2696,"dom</w>":2697,"ranc":2698,"amb":2699,"ftar</w>":2700,"Fil":2701,"rum":2702,"Serikat</w>":2703,"Selatan</w>":2704,"48":2705,"ir</w>":2706,"sitas</w>":2707,"mening":2708,"lagu</w>":2709,"dunia</w>":2710,"air</w>":2711,"Timur</w>":2712,"anggota</w>":2713,"Bo":2714,"poli":2715,"49":2716,"malia</w>":2717,"Arth":2718,"bahan</w>":2719,"au</w>":2720,"kelu":2721,"gra":2722,"kap":2723,"196":2724,"lui</w>":2725,"Barat</w>":2726,"56":2727,"jarah</w>":2728,"Mo":2729,"bulan</w>":2730,"disebut</w>":2731,"Man":2732,"kel":2733,"bin":2734,"king":2735,"he":2736,"filum</w>":2737,"alat</w>":2738,"Animalia</w>":2739,"diri":2740,"bil</w>":2741,"kingdom</w>":2742,"tor":2743,"han":2744,"hkan</w>":2745,"pern":2746,"kolah</w>":2747,"bum</w>":2748,"ditem":2749,"akar":2750,"lat</w>":2751,"12</w>":2752,"57":2753,"gar":2754,"poda</w>":2755,"50":2756,"Jawa</w>":2757,"resi":2758,"Ten":2759,"kedua</w>":2760,"urut</w>":2761,"den":2762,"ses</w>":2763,"Bel":2764,"les</w>":2765,"anda</w>":2766,"Kota</w>":2767,"tem</w>":2768,"Ra":2769,"tiga</w>":2770,"seluru":2771,"tnya</w>":2772,"ting</w>":2773,"58":2774,"duduk</w>":2775,"sisi</w>":2776,"daerah</w>":2777,"ropoda</w>":2778,"Insec":2779,"Arthropoda</w>":2780,"berasal</w>":2781,"Insecta</w>":2782,"sep":2783,"Jo":2784,"bersama</w>":2785,"and":2786,"member":2787,"akat</w>":2788,"bat</w>":2789,"dila":2790,"47":2791,"va</w>":2792,"termasuk</w>":2793,"Desa</w>":2794,"sus</w>":2795,"babkan</w>":2796,"15</w>":2797,"Po":2798,"kur":2799,"bangan</w>":2800,"imp":2801,"ten</w>":2802,"19</w>":2803,"jen":2804,"Sem":2805,"Kon":2806,"kecamatan</w>":2807,"Setelah</w>":2808,"lar</w>":2809,"ui</w>":2810,"hadap</w>":2811,"siun</w>":2812,"melalui</w>":2813,"dip":2814,"bawah</w>":2815,"masih</w>":2816,"Film</w>":2817,"To":2818,"bar</w>":2819,"Ma":2820,"tra</w>":2821,"waktu</w>":2822,"Mer":2823,"11</w>":2824,"Ku":2825,"Ingg":2826,"lek":2827,"Utara</w>":2828,"ler</w>":2829,"40":2830,"tahan</w>":2831,"ologi</w>":2832,"ketika</w>":2833,"Inggris</w>":2834,"ae</w>":2835,"kerja</w>":2836,"hat</w>":2837,"akarta</w>":2838,"usahaan</w>":2839,"membuat</w>":2840,"ren":2841,"Negeri</w>":2842,"yarakat</w>":2843,"katan</w>":2844,"Dia</w>":2845,"ea</w>":2846,"sehingga</w>":2847,"teri</w>":2848,"sejak</w>":2849,"59":2850,"194":2851,"bitkan</w>":2852,"alnya</w>":2853,"(\"</w>":2854,"terhadap</w>":2855,"awal</w>":2856,"eli":2857,"the</w>":2858,"mengh":2859,"Ker":2860,"Nama</w>":2861,"tal</w>":2862,"21</w>":2863,"14</w>":2864,"Kom":2865,"cil</w>":2866,"ungk":2867,"tis</w>":2868,"16</w>":2869,"13</w>":2870,"pun":2871,"Sta":2872,"46":2873,"uj":2874,"men</w>":2875,"Kem":2876,"ala</w>":2877,"duksi</w>":2878,"pub":2879,"mun":2880,"tentang</w>":2881,"39":2882,"and</w>":2883,"pernah</w>":2884,"18</w>":2885,"ali</w>":2886,"bisa</w>":2887,"mar":2888,"37":2889,"38":2890,"36":2891,"upun</w>":2892,"unju":2893,"Ri":2894,"semu":2895,"Jer":2896,"17</w>":2897,"ce</w>":2898,"sudah</w>":2899,"Bi":2900,"ode</w>":2901,"30</w>":2902,"lar":2903,"Pi":2904,"cer":2905,"tin":2906,"any":2907,")\"></w>":2908,"ca</w>":2909,"Bu":2910,"Univer":2911,"ori":2912,"didikan</w>":2913,"ikut</w>":2914,"berbagai</w>":2915,"tumbu":2916,"menyebabkan</w>":2917,"ha":2918,"kup</w>":2919,"kaan</w>":2920,"Pa":2921,"we":2922,"im</w>":2923,"Or":2924,"ungai</w>":2925,"tiap</w>":2926,"api</w>":2927,"Ge":2928,"sat":2929,"ilkan</w>":2930,"tuju":2931,"Pan":2932,"memu":2933,"empat</w>":2934,"dung</w>":2935,"dr":2936,"lkan</w>":2937,"lanju":2938,"dar</w>":2939,"rumah</w>":2940,"hnya</w>":2941,"im":2942,"hub":2943,"Bang":2944,"masyarakat</w>":2945,"195":2946,"diterbitkan</w>":2947,"Ko":2948,"album</w>":2949,"ji":2950,"ain</w>":2951,"hal</w>":2952,"tri</w>":2953,"lus</w>":2954,"penduduk</w>":2955,"apan</w>":2956,"abat</w>":2957,"sp":2958,"kad":2959,"angga":2960,"hak</w>":2961,"ori</w>":2962,"dem":2963,"Namun</w>":2964,"terdiri</w>":2965,"ubah</w>":2966,"abad</w>":2967,"hirnya</w>":2968,"terdapat</w>":2969,"semen":2970,"terjadi</w>":2971,"pok</w>":2972,"dul</w>":2973,"kecil</w>":2974,"ikasi</w>":2975,"ajaan</w>":2976,"anu":2977,"paling</w>":2978,"tua</w>":2979,"000</w>":2980,"daya</w>":2981,"meli":2982,"dasarkan</w>":2983,"Mas":2984,"musim</w>":2985,"langs":2986,"Sur":2987,"menem":2988,"yak":2989,"wat</w>":2990,"tikan</w>":2991,"Lu":2992,"atkan</w>":2993,"eri":2994,"ran</w>":2995,"Kor":2996,"but</w>":2997,"Co":2998,"inkan</w>":2999,"Lalat</w>":3000,"luas</w>":3001,"trik</w>":3002,"produksi</w>":3003,"lis":3004,"sistem</w>":3005,"SM":3006,"Tiong":3007,"melakukan</w>":3008,"Tu":3009,"san":3010,"25</w>":3011,"os</w>":3012,"Ger":3013,"miah</w>":3014,"Gu":3015,"perusahaan</w>":3016,"gam":3017,"sial</w>":3018,"bad":3019,"\")</w>":3020,"kok</w>":3021,"qu":3022,"Ci":3023,"80":3024,"rak":3025,"unya</w>":3026,"bur":3027,"uni":3028,"pin":3029,"karang</w>":3030,"gas</w>":3031,"Sh":3032,"Jerman</w>":3033,"visi</w>":3034,"eja</w>":3035,"der</w>":3036,"jar</w>":3037,"rancis</w>":3038,"uni</w>":3039,"pela":3040,"oper":3041,"publik</w>":3042,"udara</w>":3043,"Selain</w>":3044,"kkan</w>":3045,"Mi":3046,"Kecamatan</w>":3047,"Provinsi</w>":3048,"Daftar</w>":3049,"arga</w>":3050,"ha</w>":3051,"angkat</w>":3052,"ilmiah</w>":3053,"Sum":3054,"gaan</w>":3055,"Sen":3056,"semua</w>":3057,"acara</w>":3058,"60":3059,"musik</w>":3060,"24</w>":3061,"ch</w>":3062,"67":3063,"fi</w>":3064,"ulis</w>":3065,"isti":3066,"peri":3067,"umum</w>":3068,"puan</w>":3069,"Cer":3070,"ura</w>":3071,"langsung</w>":3072,"gab":3073,"sementara</w>":3074,"form":3075,"Prancis</w>":3076,"Lar":3077,"trad":3078,"kri":3079,"patkan</w>":3080,"karya</w>":3081,"Belanda</w>":3082,"mengen":3083,"dilakukan</w>":3084,"tim</w>":3085,"th</w>":3086,"bola</w>":3087,"kata</w>":3088,"menda":3089,"Har":3090,"Car":3091,"pala</w>":3092,"ompok</w>":3093,"Hu":3094,"luar</w>":3095,"bangunan</w>":3096,"ck</w>":3097,"je":3098,"main</w>":3099,"sam":3100,"2010</w>":3101,"ola":3102,"2011</w>":3103,"Ero":3104,"22</w>":3105,"diber":3106,"kannya</w>":3107,"bernama</w>":3108,"ty</w>":3109,"harus</w>":3110,"69":3111,"Bah":3112,"akhirnya</w>":3113,"seluruh</w>":3114,"kun":3115,"Eropa</w>":3116,"ni</w>":3117,"optera</w>":3118,"Tengah</w>":3119,"isasi</w>":3120,"lalu</w>":3121,"sin":3122,"sering</w>":3123,"50</w>":3124,"ditu":3125,"pula</w>":3126,"ham":3127,"23</w>":3128,"sum":3129,"ternasional</w>":3130,"sti":3131,"Kat":3132,"Sep":3133,"Sin":3134,"jalan</w>":3135,"plan":3136,"lahir</w>":3137,"Hi":3138,"Cole":3139,"Ang":3140,"gram</w>":3141,"eta</w>":3142,"sebelum</w>":3143,"54":3144,"sebesar</w>":3145,"sekolah</w>":3146,"eran</w>":3147,"kum</w>":3148,"jo</w>":3149,"68":3150,"wi</w>":3151,"ari":3152,"kh":3153,"omi</w>":3154,"jenis</w>":3155,"Coleoptera</w>":3156,"tukan</w>":3157,"skan</w>":3158,"pemain</w>":3159,"sat</w>":3160,"knya</w>":3161,"En":3162,"az":3163,"residen</w>":3164,"masing</w>":3165,"uli</w>":3166,"bangun</w>":3167,"34":3168,"lagi</w>":3169,"tahari</w>":3170,"tumbuhan</w>":3171,"Bri":3172,"bit</w>":3173,"79":3174,"memba":3175,"Ben":3176,"ier</w>":3177,"asikan</w>":3178,"fo":3179,"kasi</w>":3180,"hargaan</w>":3181,"lau</w>":3182,"kar</w>":3183,"ne</w>":3184,"sur":3185,"berhasil</w>":3186,"Universitas</w>":3187,"26</w>":3188,"barat</w>":3189,"ons</w>":3190,"ou":3191,"kipun</w>":3192,"amp</w>":3193,"vo":3194,"setiap</w>":3195,"fat</w>":3196,"ling":3197,"2012</w>":3198,"son</w>":3199,"yat</w>":3200,"nis</w>":3201,"27</w>":3202,"28</w>":3203,"sekarang</w>":3204,"bas":3205,"aga</w>":3206,"cukup</w>":3207,"lam":3208,"fin":3209,"tion</w>":3210,"pertan":3211,"Ok":3212,"ge</w>":3213,"batang</w>":3214,"dara</w>":3215,"pad":3216,"per</w>":3217,"tele":3218,"alan</w>":3219,"ko</w>":3220,"cata":3221,"tamp":3222,"ankan</w>":3223,"laut</w>":3224,"usakan</w>":3225,"kelompok</w>":3226,"ila</w>":3227,"tran":3228,"mengala":3229,"utara</w>":3230,"Ni":3231,"dekat</w>":3232,"ial</w>":3233,"Kan":3234,"Nov":3235,"Pas":3236,"lima</w>":3237,"sir</w>":3238,"sebelumnya</w>":3239,"70":3240,"bermain</w>":3241,"Wi":3242,"ly":3243,"buka</w>":3244,"beda</w>":3245,"dite":3246,"keku":3247,"sikan</w>":3248,"Perang</w>":3249,"anggap</w>":3250,"Jakarta</w>":3251,"rup</w>":3252,"kit</w>":3253,"kerusakan</w>":3254,"mes":3255,"atakan</w>":3256,"ahkan</w>":3257,"ogra":3258,"29</w>":3259,"tes</w>":3260,"ambil</w>":3261,"ahnya</w>":3262,"yai</w>":3263,"yah</w>":3264,"ton":3265,"sebagian</w>":3266,"av":3267,"2009</w>":3268,"Du":3269,"Ab":3270,"Larva</w>":3271,"provinsi</w>":3272,"2013</w>":3273,"tian</w>":3274,"kapal</w>":3275,"can":3276,"ceh</w>":3277,"Dem":3278,"posisi</w>":3279,"sin</w>":3280,"Tiongkok</w>":3281,"manusia</w>":3282,"lub</w>":3283,"dag":3284,"2008</w>":3285,"cidae</w>":3286,"ds</w>":3287,"tengah</w>":3288,"fer":3289,"sek":3290,"dirilis</w>":3291,"ci</w>":3292,"sional</w>":3293,"memberikan</w>":3294,"tanah</w>":3295,"Ho":3296,"organ":3297,"umumnya</w>":3298,"laki</w>":3299,"55":3300,"selatan</w>":3301,"sawat</w>":3302,"Raja</w>":3303,"jiwa</w>":3304,"ban</w>":3305,"mon":3306,"et":3307,"bangkan</w>":3308,"khu":3309,"matahari</w>":3310,"Dunia</w>":3311,"Aus":3312,"kus</w>":3313,"keluarga</w>":3314,"tika</w>":3315,"muda</w>":3316,"gelar</w>":3317,"memen":3318,"sing":3319,"namun</w>":3320,"sepak</w>":3321,"up</w>":3322,"89":3323,"raja</w>":3324,"India</w>":3325,"lama</w>":3326,"kam":3327,"pr":3328,"Tah":3329,"Islam</w>":3330,"apai</w>":3331,"aksi</w>":3332,"pusat</w>":3333,"ingin</w>":3334,"tung</w>":3335,"sejarah</w>":3336,"dir":3337,"Kris":3338,"laba</w>":3339,"isme</w>":3340,"pendidikan</w>":3341,"Vi":3342,"ph":3343,"Agus":3344,"timur</w>":3345,"pemerintah</w>":3346,"bidang</w>":3347,"Sy":3348,"tober</w>":3349,"oph":3350,"kaw":3351,"sen</w>":3352,"se</w>":3353,"kap</w>":3354,"ember</w>":3355,"agama</w>":3356,"perang</w>":3357,"ts</w>":3358,"fe":3359,"wan":3360,"km</w>":3361,"proses</w>":3362,"mantan</w>":3363,"disi</w>":3364,"sim":3365,"eng</w>":3366,"tih</w>":3367,"ditemukan</w>":3368,"ulu</w>":3369,"menyer":3370,"gh":3371,"2014</w>":3372,".\"</w>":3373,"sember</w>":3374,"Am":3375,"San":3376,"31</w>":3377,"hidupan</w>":3378,"fikasi</w>":3379,"Ak":3380,"terp":3381,"Oktober</w>":3382,"kal</w>":3383,"tre":3384,"tanduk</w>":3385,"dangkan</w>":3386,"mu</w>":3387,"Go":3388,"con":3389,"agar</w>":3390,"tember</w>":3391,"hubungan</w>":3392,"akit</w>":3393,"Desember</w>":3394,"ilihan</w>":3395,"Maret</w>":3396,"pemerintahan</w>":3397,"ve</w>":3398,"Mei</w>":3399,"kor":3400,"44":3401,"Apri":3402,"66":3403,"belum</w>":3404,"35":3405,"Mon":3406,"2007</w>":3407,"Ki":3408,"September</w>":3409,"Sam":3410,"tamanya</w>":3411,"kese":3412,"ad</w>":3413,"Mes":3414,"amby":3415,"Korea</w>":3416,"Janu":3417,"ca":3418,"Agustus</w>":3419,"Stasiun</w>":3420,"tab</w>":3421,"ven":3422,"April</w>":3423,"punyai</w>":3424,"tetap</w>":3425,"ditebang</w>":3426,"arnya</w>":3427,"Dip":3428,"angi</w>":3429,"suku</w>":3430,"Ceramby":3431,"ay</w>":3432,"antar":3433,"ebor</w>":3434,"Cerambycidae</w>":3435,"mengebor</w>":3436,"bahkan</w>":3437,"bekerja</w>":3438,"87":3439,"pasukan</w>":3440,"Januari</w>":3441,"mempunyai</w>":3442,"Sejarah</w>":3443,"Pulau</w>":3444,"upa</w>":3445,"Republik</w>":3446,"2006</w>":3447,"buah</w>":3448,"2016</w>":3449,"Yo":3450,"ser</w>":3451,"lusi</w>":3452,"Af":3453,"Dis":3454,"has":3455,"kat":3456,"dana</w>":3457,"impin</w>":3458,"inta</w>":3459,"tuan</w>":3460,"resmi</w>":3461,"maka</w>":3462,"Juli</w>":3463,"berdasarkan</w>":3464,"Nasional</w>":3465,"Con":3466,"lo</w>":3467,"bel</w>":3468,"judul</w>":3469,"bumi</w>":3470,"lang</w>":3471,"dukung</w>":3472,"Mak":3473,"berbeda</w>":3474,"Pr":3475,"kah</w>":3476,"He":3477,"bak</w>":3478,"Juni</w>":3479,"peran</w>":3480,"ibu</w>":3481,"politik</w>":3482,"ji</w>":3483,"nasional</w>":3484,"2015</w>":3485,"pengar":3486,"uru</w>":3487,"Mereka</w>":3488,"ok</w>":3489,"mendapatkan</w>":3490,"99":3491,"dro":3492,"pesawat</w>":3493,"formasi</w>":3494,"Beberapa</w>":3495,"konomi</w>":3496,"SD</w>":3497,"lun":3498,"maupun</w>":3499,"tinggal</w>":3500,"belah</w>":3501,"mencapai</w>":3502,"meter</w>":3503,"ju</w>":3504,"Pang":3505,"Gun":3506,"tangan</w>":3507,"ard</w>":3508,"usaha</w>":3509,"dingan</w>":3510,"warna</w>":3511,"ry</w>":3512,"mag":3513,"Sungai</w>":3514,"bula</w>":3515,"lalat</w>":3516,"ob":3517,"Wil":3518,"berubah</w>":3519,"sy":3520,"pener":3521,"temp":3522,"lt</w>":3523,"engg":3524,"menge":3525,"menunju":3526,"kereta</w>":3527,"mor":3528,"Seperti</w>":3529,"uku</w>":3530,"arti</w>":3531,"gr":3532,"terakhir</w>":3533,"hukum</w>":3534,"sik</w>":3535,"penga":3536,"November</w>":3537,"bata":3538,"du</w>":3539,"Mah":3540,"88":3541,"Jen":3542,"mad</w>":3543,"ikuti</w>":3544,"ampung</w>":3545,"menyatakan</w>":3546,"sus":3547,"terkenal</w>":3548,"Dengan</w>":3549,"istr":3550,"buku</w>":3551,"ongan</w>":3552,"Br":3553,"35</w>":3554,"angka</w>":3555,"del</w>":3556,"lahan</w>":3557,"kla":3558,"Ita":3559,"kas":3560,"dise":3561,"40</w>":3562,"awan</w>":3563,"gt</w>":3564,"penting</w>":3565,"gabung</w>":3566,"cip":3567,"77":3568,"Ara":3569,"Min":3570,"nebula</w>":3571,"buh</w>":3572,"dianggap</w>":3573,"Aceh</w>":3574,"Bangsa</w>":3575,"tanpa</w>":3576,"isan</w>":3577,"Tan":3578,"erima</w>":3579,"menjabat</w>":3580,"aki</w>":3581,"mkan</w>":3582,"wis":3583,"rek":3584,"La":3585,"Dewan</w>":3586,"Mala":3587,"no":3588,"32</w>":3589,"meninggal</w>":3590,"pec":3591,"jau":3592,"Kali":3593,"ine</w>":3594,"suara</w>":3595,"tiv":3596,"90":3597,"Al</w>":3598,"juta</w>":3599,"rikan</w>":3600,"cho":3601,"koh</w>":3602,"Tahun</w>":3603,"permu":3604,"pa":3605,"ilih</w>":3606,"tingkat</w>":3607,"Com":3608,"ingkat</w>":3609,"ungsi</w>":3610,"Feb":3611,"Mal":3612,"nam":3613,"ovi":3614,"empuan</w>":3615,"dibuat</w>":3616,"stitu":3617,"2005</w>":3618,"arah</w>":3619,"cul</w>":3620,"penggun":3621,"mis":3622,"2019</w>":3623,"Bahasa</w>":3624,"Ba":3625,"Gereja</w>":3626,"versi</w>":3627,"za</w>":3628,"2017</w>":3629,"car":3630,"pulau</w>":3631,"usan</w>":3632,"nom":3633,"putra</w>":3634,"negeri</w>":3635,"sal":3636,"klub</w>":3637,"Ju":3638,"hen":3639,"komp":3640,"ungkin</w>":3641,"gen</w>":3642,"ruari</w>":3643,"Diptera</w>":3644,"Menurut</w>":3645,"lin</w>":3646,"grup</w>":3647,"sel</w>":3648,"Menteri</w>":3649,"muncul</w>":3650,"Joh":3651,"2004</w>":3652,"janj":3653,"mengenai</w>":3654,"kali":3655,"taan</w>":3656,"Presiden</w>":3657,"batu</w>":3658,"lesa":3659,"kela":3660,"tahui</w>":3661,"bantu</w>":3662,"Februari</w>":3663,"catat</w>":3664,"48</w>":3665,"33</w>":3666,"pre":3667,"pur</w>":3668,"37</w>":3669,"ami</w>":3670,"re</w>":3671,"Italia</w>":3672,"bin</w>":3673,"pati</w>":3674,"Gen":3675,"sedang</w>":3676,"deral</w>":3677,"no</w>":3678,"terli":3679,"2018</w>":3680,"wanita</w>":3681,"kurang</w>":3682,"atian</w>":3683,"komun":3684,"36</w>":3685,"Lo":3686,"Asia</w>":3687,"Ek":3688,"alis</w>":3689,"tempuran</w>":3690,"ondo":3691,"luk</w>":3692,"era</w>":3693,"akai</w>":3694,"TV</w>":3695,"atif</w>":3696,"fa":3697,"anc":3698,"leng":3699,"didirikan</w>":3700,"mungkin</w>":3701,"struk":3702,"televisi</w>":3703,"Saat</w>":3704,"barkan</w>":3705,"39</w>":3706,"34</w>":3707,"emba":3708,"sar":3709,"program</w>":3710,"orm":3711,"Kerajaan</w>":3712,"38</w>":3713,"buk":3714,"ly</w>":3715,"kas</w>":3716,"isar</w>":3717,"orbit</w>":3718,"usu":3719,"militer</w>":3720,"kerj":3721,"dike":3722,"aki":3723,"ding</w>":3724,"sumber</w>":3725,"rata</w>":3726,"Untuk</w>":3727,"melawan</w>":3728,"asaan</w>":3729,"alia</w>":3730,"ff":3731,"eks":3732,"ade</w>":3733,"adakan</w>":3734,"Rusia</w>":3735,"sutrad":3736,"sub":3737,"Partai</w>":3738,"dakan</w>":3739,"trans":3740,"mele":3741,"pende":3742,"tujuan</w>":3743,"isah</w>":3744,"mengalami</w>":3745,"ografi</w>":3746,"stan":3747,"lit</w>":3748,"urahan</w>":3749,"aktor</w>":3750,"45":3751,"jalur</w>":3752,"asti</w>":3753,"stri</w>":3754,"Awar":3755,"Hal</w>":3756,"ensi</w>":3757,"jur":3758,"las":3759,"jika</w>":3760,"dirinya</w>":3761,"Raya</w>":3762,"na":3763,"tin</w>":3764,"New</w>":3765,"jauh</w>":3766,"ram":3767,"perempuan</w>":3768,"kuat</w>":3769,"stu":3770,"ts":3771,"terutama</w>":3772,"planet</w>":3773,"Mis":3774,"belak":3775,"uhi</w>":3776,"dan":3777,"Dar":3778,"menerima</w>":3779,"aut</w>":3780,"ation</w>":3781,"sedi":3782,"menunjukkan</w>":3783,"Pemerin":3784,"pimp":3785,"apkan</w>":3786,"yo</w>":3787,"kepala</w>":3788,"aknya</w>":3789,"kupan</w>":3790,"atnya</w>":3791,"ketiga</w>":3792,"idae</w>":3793,"Pad":3794,"landia</w>":3795,"bentukan</w>":3796,"Ye":3797,"sip":3798,"Do":3799,"terbesar</w>":3800,"sejumlah</w>":3801,"periode</w>":3802,"des</w>":3803,"Ru":3804,"alis":3805,"luh</w>":3806,"mata</w>":3807,"bergabung</w>":3808,"anyi</w>":3809,"atra</w>":3810,"uskupan</w>":3811,"Yun":3812,"saja</w>":3813,"berke":3814,"deo</w>":3815,"cana</w>":3816,"pulauan</w>":3817,"Sekolah</w>":3818,"00":3819,"angka":3820,"dy</w>":3821,"tugas</w>":3822,"adaan</w>":3823,"stasiun</w>":3824,"ditulis</w>":3825,"lor":3826,"ed</w>":3827,"hil":3828,"ona</w>":3829,"SM</w>":3830,"60</w>":3831,"2000</w>":3832,"Bul":3833,"operasi</w>":3834,"cen":3835,"Pol":3836,"2020</w>":3837,"lemba":3838,"menen":3839,"cor":3840,"My":3841,"sur</w>":3842,"Mus":3843,"Piala</w>":3844,"tun":3845,"batasan</w>":3846,"seku":3847,"bern":3848,"berarti</w>":3849,"mas</w>":3850,"ker</w>":3851,"78":3852,"Den":3853,"bela":3854,"ani":3855,"patan</w>":3856,"om</w>":3857,"indu":3858,"go</w>":3859,"internasional</w>":3860,"Gi":3861,"giatan</w>":3862,"sul":3863,"ron":3864,"Kam":3865,"olik</w>":3866,"For":3867,"Ta":3868,"kor</w>":3869,"Ac":3870,"biasa</w>":3871,"Sar":3872,"tokoh</w>":3873,"Negara</w>":3874,"Ken":3875,"peru":3876,"atur</w>":3877,"alitas</w>":3878,"dasar</w>":3879,"ceae</w>":3880,"bukan</w>":3881,"190":3882,"Angkatan</w>":3883,"ug":3884,"lim</w>":3885,"Kristen</w>":3886,"sungai</w>":3887,"sebelah</w>":3888,"ab</w>":3889,"don":3890,"dimulai</w>":3891,"III</w>":3892,"Her":3893,"bon</w>":3894,"tercatat</w>":3895,"iran</w>":3896,"Agung</w>":3897,"Mat":3898,"jam</w>":3899,"Musi":3900,"arai</w>":3901,"65":3902,"tim":3903,"fek":3904,"asu":3905,"membentuk</w>":3906,"mengambil</w>":3907,"Pri":3908,"122":3909,"yakni</w>":3910,"dok":3911,"itan</w>":3912,"tisi</w>":3913,"189":3914,"Tur":3915,"organisasi</w>":3916,"pe</w>":3917,"Baru</w>":3918,"berikut</w>":3919,"Austr":3920,"kerajaan</w>":3921,"64":3922,"senj":3923,"seba":3924,"Semen":3925,"tania</w>":3926,"makanan</w>":3927,"Mad":3928,"230":3929,"Pur":3930,"mula":3931,"Katolik</w>":3932,"enggara</w>":3933,"Ini</w>":3934,"ekonomi</w>":3935,"len":3936,"kitab</w>":3937,"Sal":3938,"janjian</w>":3939,"yu":3940,"Lag":3941,"tubuh</w>":3942,"Hin":3943,"Sumatra</w>":3944,"yakan</w>":3945,"pihak</w>":3946,"No":3947,"bunuh</w>":3948,"memenangkan</w>":3949,"mainan</w>":3950,"khusus</w>":3951,"terus</w>":3952,"mene":3953,"gar</w>":3954,"100</w>":3955,"araan</w>":3956,"dibangun</w>":3957,"mengu":3958,"Ap":3959,"terbentuk</w>":3960,"lap":3961,"budaya</w>":3962,"Ketika</w>":3963,"memulai</w>":3964,"mendapat</w>":3965,"jid</w>":3966,"nik</w>":3967,"ungkan</w>":3968,"sosial</w>":3969,"ket</w>":3970,"kadang</w>":3971,"bintang</w>":3972,"kungan</w>":3973,"butu":3974,"Laut</w>":3975,"tunju":3976,"daftar</w>":3977,"tentu</w>":3978,"pus</w>":3979,"batas</w>":3980,"120":3981,"menghas":3982,"alkan</w>":3983,"saan</w>":3984,"Cor":3985,"kawasan</w>":3986,"Pus":3987,"tis":3988,"nologi</w>":3989,"Yunani</w>":3990,"menulis</w>":3991,"mat":3992,"sesuatu</w>":3993,"tusan</w>":3994,"2003</w>":3995,"ampir</w>":3996,"Arab</w>":3997,"ll</w>":3998,"Karena</w>":3999,"Bandar</w>":4000,"menemukan</w>":4001,"yaan</w>":4002,"Sebagai</w>":4003,"mener":4004,"les":4005,"gantikan</w>":4006,"permukaan</w>":4007,"curkan</w>":4008,"ulang</w>":4009,"sifat</w>":4010,"adi</w>":4011,"fungsi</w>":4012,"Britania</w>":4013,"puti</w>":4014,"[[</w>":4015,"2002</w>":4016,"antaranya</w>":4017,"ational</w>":4018,"mat</w>":4019,"fas":4020,"menghasilkan</w>":4021,"angnya</w>":4022,"sebanyak</w>":4023,"Udara</w>":4024,"chi":4025,"sedangkan</w>":4026,"98":4027,"perc":4028,"cerita</w>":4029,"tina</w>":4030,"sana</w>":4031,"seri</w>":4032,"97":4033,"aih</w>":4034,"nilai</w>":4035,"2001</w>":4036,"bangsa</w>":4037,"pertandingan</w>":4038,"ity</w>":4039,"land</w>":4040,"umi</w>":4041,"dor":4042,"inc":4043,"pemba":4044,"berjudul</w>":4045,"Gar":4046,"War":4047,"belakang</w>":4048,"uju</w>":4049,"mur":4050,"suai</w>":4051,"layanan</w>":4052,"ua</w>":4053,"datang</w>":4054,"tana</w>":4055,"ikian</w>":4056,"ira</w>":4057,"Afri":4058,"iri":4059,"enam</w>":4060,"tria</w>":4061,"ungi</w>":4062,"amanan</w>":4063,"45</w>":4064,"sh":4065,"abatan</w>":4066,"Dari</w>":4067,"hra":4068,"ley</w>":4069,"diberikan</w>":4070,"Daerah</w>":4071,"Nor":4072,"bor":4073,"lir</w>":4074,"ampu</w>":4075,"ganti</w>":4076,"batkan</w>":4077,"Din":4078,"penulis</w>":4079,"Je":4080,"kul</w>":4081,"Muham":4082,"go":4083,"penghargaan</w>":4084,"Sul":4085,"Ad":4086,"mesin</w>":4087,"Por":4088,"warga</w>":4089,"zaman</w>":4090,"masalah</w>":4091,"yol</w>":4092,"Char":4093,"dera</w>":4094,"lokasi</w>":4095,"via</w>":4096,"bal</w>":4097,"co</w>":4098,"tinya</w>":4099,"ye":4100,"anda":4101,"ini":4102,"enggar":4103,"depan</w>":4104,"din</w>":4105,"hatan</w>":4106,"ria</w>":4107,"188":4108,"lum</w>":4109,"ministr":4110,"RI</w>":4111,"dirikan</w>":4112,"jadikan</w>":4113,"int</w>":4114,"AS</w>":4115,"karak":4116,"Bat":4117,"Gunung</w>":4118,"membe":4119,"isaran</w>":4120,"jaringan</w>":4121,"makin</w>":4122,"menurut</w>":4123,"jarak</w>":4124,"Ir":4125,"bas</w>":4126,"kehidupan</w>":4127,"Jam":4128,"awalnya</w>":4129,"af":4130,"jalanan</w>":4131,"gem":4132,"lukan</w>":4133,"inter":4134,"moder":4135,"dudu":4136,"lapan</w>":4137,"panyol</w>":4138,"ork</w>":4139,"mac":4140,"meskipun</w>":4141,"umumkan</w>":4142,"ator</w>":4143,"yi</w>":4144,"pember":4145,"Australia</w>":4146,"serial</w>":4147,"Pendidikan</w>":4148,"hon</w>":4149,"gan</w>":4150,"buatan</w>":4151,"galkan</w>":4152,"kegiatan</w>":4153,"Liga</w>":4154,"alam</w>":4155,"alur</w>":4156,"Rum":4157,"Bur":4158,"ensis</w>":4159,"turunan</w>":4160,"Bad":4161,"menik":4162,"Meskipun</w>":4163,"ingkan</w>":4164,"sepanjang</w>":4165,"lasi</w>":4166,"mengatakan</w>":4167,"udi</w>":4168,"ilo":4169,"gel":4170,"menuju</w>":4171,"data</w>":4172,"kir":4173,"bert</w>":4174,"rik</w>":4175,"dari":4176,"kre":4177,"pindah</w>":4178,"adanya</w>":4179,"Penghargaan</w>":4180,"mampu</w>":4181,"yo":4182,"mit":4183,"jaw":4184,"one</w>":4185,"onia</w>":4186,"Ste":4187,"jat":4188,"seum</w>":4189,"uju":4190,"We":4191,"John</w>":4192,"SMA</w>":4193,"Kel":4194,"diba":4195,"media</w>":4196,"dimana</w>":4197,"jual</w>":4198,"inggu</w>":4199,"seluruhan</w>":4200,"membantu</w>":4201,"bia</w>":4202,"aturan</w>":4203,"Spanyol</w>":4204,"mengikuti</w>":4205,"Kap":4206,"ck":4207,"Lagu</w>":4208,"Fi":4209,"jah":4210,"Ver":4211,"tel</w>":4212,"Terbaik</w>":4213,"popu":4214,"cepat</w>":4215,"tam</w>":4216,"Kemudian</w>":4217,"kompe":4218,"tertentu</w>":4219,"st</w>":4220,"lap</w>":4221,"meraih</w>":4222,"demikian</w>":4223,"oksi":4224,"puluh</w>":4225,"ukuran</w>":4226,"akibat</w>":4227,"berkem":4228,"aka</w>":4229,"Maj":4230,"ling</w>":4231,"bertem":4232,"penye":4233,"sesuai</w>":4234,"keseluruhan</w>":4235,"..</w>":4236,"berupa</w>":4237,"ruang</w>":4238,"kini</w>":4239,"dita":4240,"industri</w>":4241,"Wak":4242,"taran</w>":4243,"hraga</w>":4244,"ikatan</w>":4245,"gai":4246,"Internasional</w>":4247,"76":4248,"des":4249,"meliputi</w>":4250,"isode</w>":4251,"kaisaran</w>":4252,"senjata</w>":4253,"membawa</w>":4254,"pribad":4255,"putri</w>":4256,"dal</w>":4257,"ilmu</w>":4258,"bus</w>":4259,"bij":4260,"Afrika</w>":4261,"Fo":4262,"iah</w>":4263,"220":4264,"Sula":4265,"Keuskupan</w>":4266,"gus</w>":4267,"Kepala</w>":4268,"penyanyi</w>":4269,"hutan</w>":4270,"gung</w>":4271,"55</w>":4272,"aktif</w>":4273,"wo":4274,"hampir</w>":4275,"tangi</w>":4276,"enang</w>":4277,"Kepulauan</w>":4278,"terse":4279,"Sejak</w>":4280,"tadi":4281,"70</w>":4282,"ul</w>":4283,"keras</w>":4284,"karan</w>":4285,"ikutnya</w>":4286,"eti":4287,"dah":4288,"video</w>":4289,"penu":4290,"melihat</w>":4291,"drama</w>":4292,"jem":4293,"1999</w>":4294,"gerakan</w>":4295,"jo":4296,"Yah":4297,"pemimpin</w>":4298,"pertamanya</w>":4299,"ment</w>":4300,"Karier</w>":4301,"tuskan</w>":4302,"elek":4303,"yek</w>":4304,"DP":4305,"Malay":4306,"47</w>":4307,"Uni</w>":4308,"anjung</w>":4309,"hu</w>":4310,"iz":4311,"menamp":4312,"42</w>":4313,"Para</w>":4314,"Hen":4315,"surat</w>":4316,"satunya</w>":4317,"serangan</w>":4318,"meni":4319,"kel</w>":4320,"41</w>":4321,"44</w>":4322,"rael</w>":4323,"Sis":4324,"lon":4325,"Tek":4326,"dika":4327,"ny":4328,"lanjutnya</w>":4329,"pura</w>":4330,"pkan</w>":4331,"gahan</w>":4332,"Bag":4333,"est</w>":4334,"seni</w>":4335,"ver</w>":4336,"aian</w>":4337,"oviet</w>":4338,"rem":4339,"istilah</w>":4340,"perubahan</w>":4341,"dam</w>":4342,"46</w>":4343,"gaya</w>":4344,"formula":4345,"ayaan</w>":4346,"Mor":4347,"Malaysia</w>":4348,"toh</w>":4349,"86":4350,"Wor":4351,"adem":4352,"Pal":4353,"43</w>":4354,"pulasi</w>":4355,"peneli":4356,"Lin":4357,"son":4358,"mati</w>":4359,"ers</w>":4360,"Can":4361,"Qu":4362,"tampil</w>":4363,"simal</w>":4364,"chi</w>":4365,"FA</w>":4366,"mer</w>":4367,"sedikit</w>":4368,"radi":4369,"On":4370,"und":4371,"rendah</w>":4372,"undang</w>":4373,"tangga</w>":4374,"Rak":4375,"51</w>":4376,"Kalimantan</w>":4377,"penj":4378,"rah":4379,"saudara</w>":4380,"modern</w>":4381,"od</w>":4382,"permainan</w>":4383,"mengem":4384,"Ha":4385,"ora</w>":4386,"keber":4387,"tris</w>":4388,"banyakan</w>":4389,"diketahui</w>":4390,"suk":4391,"mendirikan</w>":4392,"Sementara</w>":4393,"pak":4394,"Jalur</w>":4395,"96":4396,"Bup":4397,"kita</w>":4398,"mut":4399,"52</w>":4400,"daripada</w>":4401,"asli</w>":4402,"temen</w>":4403,"Soviet</w>":4404,"sion</w>":4405,"53</w>":4406,"Allah</w>":4407,"pecahan</w>":4408,"jek</w>":4409,"magni":4410,"tribu":4411,"pengem":4412,"Sch":4413,"aja</w>":4414,"produk</w>":4415,"tudo</w>":4416,"formula_":4417,"Dan":4418,"tung":4419,"Air</w>":4420,"uang</w>":4421,"semakin</w>":4422,"Israel</w>":4423,"kekuatan</w>":4424,"mawi</w>":4425,"49</w>":4426,"istiwa</w>":4427,"selalu</w>":4428,"partai</w>":4429,"sian</w>":4430,"wesi</w>":4431,"jam":4432,"lom":4433,"Ib":4434,"ril":4435,"ditemui</w>":4436,"angku":4437,"pengu":4438,"lisan</w>":4439,"benar</w>":4440,"56</w>":4441,"estiv":4442,"Besar</w>":4443,"Jalan</w>":4444,"ras":4445,"sang</w>":4446,"218":4447,"cak</w>":4448,"Mic":4449,"lind":4450,"Bandung</w>":4451,"Selama</w>":4452,"59</w>":4453,"karier</w>":4454,"menampilkan</w>":4455,"54</w>":4456,"ry":4457,"mia</w>":4458,"res</w>":4459,"bernur</w>":4460,"berkembang</w>":4461,"Oli":4462,"kece":4463,"mobil</w>":4464,"57</w>":4465,"diberi</w>":4466,"Sun":4467,"pengaruh</w>":4468,"Fran":4469,"58</w>":4470,"milik</w>":4471,"Res":4472,"pang</w>":4473,"set</w>":4474,"lingkungan</w>":4475,"80</w>":4476,"cal":4477,"magnitudo</w>":4478,"Gre":4479,"uruan</w>":4480,"Gran":4481,"Sultan</w>":4482,"nov":4483,"angga</w>":4484,"estival</w>":4485,"Pat":4486,"pasar</w>":4487,"ted</w>":4488,"hy":4489,"pemu":4490,"ght</w>":4491,"gereja</w>":4492,"ld</w>":4493,"Pembentukan</w>":4494,"uri</w>":4495,"mere":4496,"teng</w>":4497,"\").</w>":4498,"putih</w>":4499,"Ex":4500,"sari</w>":4501,"ve":4502,"mum</w>":4503,"Romawi</w>":4504,"Bin":4505,"gul":4506,"olog":4507,"Roma</w>":4508,"Geor":4509,"Bro":4510,"bintangi</w>":4511,"Ada</w>":4512,"katkan</w>":4513,"laknya</w>":4514,"emen</w>":4515,"dik":4516,"tentara</w>":4517,"ciptakan</w>":4518,"satuan</w>":4519,"ins":4520,"\"),</w>":4521,"pas</w>":4522,"nomor</w>":4523,"Han":4524,"vitas</w>":4525,"berlangsung</w>":4526,"tani</w>":4527,"anti</w>":4528,"luk":4529,"Shi":4530,"Sulawesi</w>":4531,"penge":4532,"Chi":4533,"PT</w>":4534,"band</w>":4535,"pendek</w>":4536,"mpi":4537,"pel":4538,"Mag":4539,"menikah</w>":4540,"kabupaten</w>":4541,"berikutnya</w>":4542,"tradi":4543,"cah":4544,"kelurahan</w>":4545,"kekuasaan</w>":4546,"Muhammad</w>":4547,"be</w>":4548,"berla":4549,"jan</w>":4550,"Fe":4551,"yan</w>":4552,"belajar</w>":4553,"anti":4554,"tahanan</w>":4555,"sentri":4556,"09":4557,"alaupun</w>":4558,"Sing":4559,"Lab":4560,"ania</w>":4561,"Cen":4562,"ner</w>":4563,"lian</w>":4564,"distrik</w>":4565,"dak":4566,"Aran":4567,"wisata</w>":4568,"baran</w>":4569,"tikus</w>":4570,"kasus</w>":4571,"tup</w>":4572,"disutrad":4573,"mence":4574,"Tran":4575,"lanjutkan</w>":4576,"diadakan</w>":4577,"kompetisi</w>":4578,"keturunan</w>":4579,"sep</w>":4580,"dinam":4581,"Pangeran</w>":4582,"fer</w>":4583,"duanya</w>":4584,"pimpin</w>":4585,"dur</w>":4586,"tadion</w>":4587,"Tam":4588,"gaimana</w>":4589,"putusan</w>":4590,"pembangunan</w>":4591,"sentrisitas</w>":4592,"meninggalkan</w>":4593,"was":4594,"gambarkan</w>":4595,"batan</w>":4596,"basis</w>":4597,"likasi</w>":4598,"Kun":4599,"disutradarai</w>":4600,"egori</w>":4601,"model</w>":4602,"tode</w>":4603,"ilis</w>":4604,"Tri":4605,"Ketua</w>":4606,"lidae</w>":4607,"ano</w>":4608,"ny</w>":4609,"mutlaknya</w>":4610,"Eksentrisitas</w>":4611,"mendukung</w>":4612,"perjalanan</w>":4613,"No</w>":4614,"tradisional</w>":4615,"karakter</w>":4616,"Bata":4617,"pang":4618,"hal":4619,"uruh</w>":4620,"iden":4621,"say":4622,"informasi</w>":4623,"memutuskan</w>":4624,"waj":4625,"kematian</w>":4626,"diproduksi</w>":4627,"administr":4628,"gerak</w>":4629,"Il":4630,"mar</w>":4631,"non</w>":4632,"likan</w>":4633,"zi":4634,"Pemerintah</w>":4635,"Bud":4636,"memilih</w>":4637,"garis</w>":4638,"kaki</w>":4639,"lokal</w>":4640,"ice</w>":4641,"Arane":4642,"jung</w>":4643,"Ting":4644,"Sat":4645,"su</w>":4646,"malam</w>":4647,"Kaisar</w>":4648,"Tar":4649,"was</w>":4650,"aikan</w>":4651,"partemen</w>":4652,"macam</w>":4653,"kembangan</w>":4654,"wa":4655,"van</w>":4656,"laman</w>":4657,"teknologi</w>":4658,"ft</w>":4659,"08":4660,"yl":4661,"terka":4662,"bur</w>":4663,"Yahudi</w>":4664,"sanakan</w>":4665,"pantai</w>":4666,"Dan</w>":4667,"Wal":4668,"Yang</w>":4669,"Secara</w>":4670,"desa":4671,"disi":4672,"tujuh</w>":4673,"AN</w>":4674,"Gro":4675,"Tim</w>":4676,"menar":4677,"ty":4678,"York</w>":4679,"Tenggara</w>":4680,"samaan</w>":4681,"1998</w>":4682,"jaya</w>":4683,"aannya</w>":4684,"75</w>":4685,"jaran</w>":4686,"bi</w>":4687,"mula</w>":4688,"Rakyat</w>":4689,"aria</w>":4690,"sekali</w>":4691,"Pusat</w>":4692,"Ren":4693,"kai</w>":4694,"pribadi</w>":4695,"buhan</w>":4696,"dial</w>":4697,"Mesir</w>":4698,"oni":4699,"dipimpin</w>":4700,"net</w>":4701,"Ah":4702,"01</w>":4703,"ela":4704,"tivitas</w>":4705,"sekali":4706,"populasi</w>":4707,"mus</w>":4708,"beg":4709,"terpilih</w>":4710,"ergi</w>":4711,"Bal":4712,"seni":4713,"sas":4714,"utamanya</w>":4715,"dangan</w>":4716,"populer</w>":4717,"penggunaan</w>":4718,"gas":4719,"pemilihan</w>":4720,"Ale":4721,"tanya</w>":4722,"pergi</w>":4723,"Pak":4724,"ahli</w>":4725,"penerbangan</w>":4726,"barang</w>":4727,"Col":4728,"Asteroid</w>":4729,"At":4730,"ate</w>":4731,"band":4732,"Willi":4733,"membangun</w>":4734,"Berikut</w>":4735,"Sebuah</w>":4736,"primor":4737,"tiba</w>":4738,"90</w>":4739,"berakhir</w>":4740,"Tem":4741,"adilan</w>":4742,"titik</w>":4743,"dali</w>":4744,"Astr":4745,"NI</w>":4746,"belas</w>":4747,"primordial</w>":4748,"gam</w>":4749,"pekerj":4750,"Wilayah</w>":4751,"ks</w>":4752,"dagangan</w>":4753,"tron</w>":4754,"Stu":4755,"sempat</w>":4756,"Str":4757,"dus</w>":4758,"nas":4759,"Jum":4760,"Em":4761,"ilitas</w>":4762,"kala</w>":4763,"episode</w>":4764,"gambar</w>":4765,"snya</w>":4766,"Lam":4767,"Saint</w>":4768,"indi":4769,"ale":4770,"etisimal</w>":4771,"planetisimal</w>":4772,"turut</w>":4773,"329":4774,"Jenderal</w>":4775,"Adi":4776,"membu":4777,"Pertempuran</w>":4778,"tengahan</w>":4779,"ie</w>":4780,"64</w>":4781,"pon":4782,"enggarakan</w>":4783,"nia</w>":4784,"Kas":4785,"produ":4786,"urus</w>":4787,"hewan</w>":4788,"situs</w>":4789,"memberi</w>":4790,"ima</w>":4791,"tapi</w>":4792,"Album</w>":4793,"penyakit</w>":4794,"terbaik</w>":4795,"rakyat</w>":4796,"sakit</w>":4797,"Fin":4798,"untu":4799,"Pre":4800,"228":4801,"Cy":4802,"arang</w>":4803,"ney</w>":4804,"for</w>":4805,"akul":4806,"ff</w>":4807,"keluar</w>":4808,"lur</w>":4809,"parti":4810,"panas</w>":4811,"Orang</w>":4812,"fisi":4813,"oritas</w>":4814,"ampuan</w>":4815,"Kur":4816,"bijakan</w>":4817,"memperoleh</w>":4818,"AS":4819,"iswa</w>":4820,"Eur":4821,"burg</w>":4822,"jari</w>":4823,"juaraan</w>":4824,"Fre":4825,"pla":4826,"rat</w>":4827,"Awards</w>":4828,"kondisi</w>":4829,"profe":4830,"229":4831,"tertinggi</w>":4832,"puter</w>":4833,"ferensi</w>":4834,"ro</w>":4835,"ganya</w>":4836,"by</w>":4837,"65</w>":4838,"akup</w>":4839,"ica</w>":4840,"berat</w>":4841,"kir</w>":4842,"inda":4843,"enangan</w>":4844,"Mem":4845,"Eri":4846,"Kekaisaran</w>":4847,"dipakai</w>":4848,"fu":4849,"ialah</w>":4850,"Aw":4851,"bunga</w>":4852,"187":4853,"merah</w>":4854,"Gam":4855,"rasa</w>":4856,"let</w>":4857,"com":4858,"final</w>":4859,"gala</w>":4860,"tia</w>":4861,"tanan</w>":4862,"1990</w>":4863,"227":4864,"Poli":4865,"FC</w>":4866,"rip</w>":4867,"berdiri</w>":4868,"mpiade</w>":4869,"shi":4870,"mencari</w>":4871,"daan</w>":4872,"iter</w>":4873,"berwarna</w>":4874,"jabatan</w>":4875,"spons</w>":4876,"darah</w>":4877,"vari":4878,"misalnya</w>":4879,"dikem":4880,"bil":4881,"spe":4882,"62</w>":4883,"memas":4884,"olo</w>":4885,"mudah</w>":4886,"]]</w>":4887,"ayahnya</w>":4888,"Win":4889,"ru</w>":4890,"menghad":4891,"menu":4892,"bisnis</w>":4893,"wakilan</w>":4894,"Fer":4895,"oto":4896,"lawan</w>":4897,"inv":4898,"aksa</w>":4899,"cha":4900,"Tidak</w>":4901,"ite</w>":4902,"Kehidupan</w>":4903,"mencakup</w>":4904,"bertemu</w>":4905,"bes":4906,"ater</w>":4907,"ampilan</w>":4908,"gera</w>":4909,"her":4910,"volusi</w>":4911,"berisi</w>":4912,"Intern":4913,"Fili":4914,"tic":4915,"upaya</w>":4916,"una</w>":4917,"Ed":4918,"tron":4919,"listrik</w>":4920,"lesaikan</w>":4921,"diser":4922,"kumpu":4923,"lihat</w>":4924,"ogy":4925,"tensi</w>":4926,"unit</w>":4927,"Padang</w>":4928,"presiden</w>":4929,"tual</w>":4930,"dida":4931,"Pau":4932,"perse":4933,"maj":4934,"umur</w>":4935,"ws</w>":4936,"dew":4937,"Perser":4938,"komunikasi</w>":4939,"benarnya</w>":4940,"penuh</w>":4941,"Yu":4942,"pasangan</w>":4943,"tingg":4944,"umbang</w>":4945,"sinya</w>":4946,"sekaligus</w>":4947,"Tinggi</w>":4948,"struktur</w>":4949,"ao</w>":4950,"ino</w>":4951,"akultas</w>":4952,"61</w>":4953,"Distrik</w>":4954,"ungkinan</w>":4955,"inte":4956,"total</w>":4957,"bandingkan</w>":4958,"wati</w>":4959,"mul":4960,"peristiwa</w>":4961,"guru</w>":4962,"Bumi</w>":4963,"68</w>":4964,"meningkatkan</w>":4965,"iri</w>":4966,"ogyakarta</w>":4967,"posi":4968,"tungan</w>":4969,"66</w>":4970,"dayaan</w>":4971,"usa":4972,"menjal":4973,"teori</w>":4974,"rilus</w>":4975,"ales</w>":4976,"Agrilus</w>":4977,"Salah</w>":4978,"wakili</w>":4979,"top":4980,"jan":4981,"lembaga</w>":4982,"horm":4983,"dibentuk</w>":4984,"tong</w>":4985,"unitas</w>":4986,"Bas":4987,"bukti</w>":4988,"so</w>":4989,"meminta</w>":4990,"nika":4991,"kuno</w>":4992,"Es":4993,"teks</w>":4994,"kimia</w>":4995,"ky</w>":4996,"Perjanjian</w>":4997,"leh</w>":4998,"tanaman</w>":4999,"upiter</w>":5000,"Hol":5001,"ondon</w>":5002,"Budd":5003,"unsur</w>":5004,"hitam</w>":5005,"ilia</w>":5006,"lem</w>":5007,"IV</w>":5008,"kantor</w>":5009,"Singa":5010,"ius</w>":5011,"usun</w>":5012,"Musim</w>":5013,"abaya</w>":5014,"63</w>":5015,"benda</w>":5016,"erde":5017,"terkait</w>":5018,"rat":5019,"lak</w>":5020,"cu</w>":5021,"pertanian</w>":5022,"peringkat</w>":5023,"wn</w>":5024,"1997</w>":5025,"hati</w>":5026,"pel</w>":5027,"gunung</w>":5028,"Hy":5029,"Jac":5030,"Kedua</w>":5031,"olak</w>":5032,"Hal":5033,"67</w>":5034,"jatuh</w>":5035,"identi":5036,"El":5037,"pur":5038,"ent</w>":5039,"kaum</w>":5040,"keduanya</w>":5041,"adat</w>":5042,"ot</w>":5043,"ataan</w>":5044,"02</w>":5045,"diakan</w>":5046,"SMP</w>":5047,"pria</w>":5048,"ps</w>":5049,"istan</w>":5050,"luncurkan</w>":5051,"Dav":5052,"Chris":5053,"ler":5054,"Tr":5055,"diangkat</w>":5056,"menarik</w>":5057,"Tro":5058,"Ada":5059,"London</w>":5060,"penelitian</w>":5061,"tro</w>":5062,"Ram":5063,"alih</w>":5064,"ungkinkan</w>":5065,"jela":5066,"gia</w>":5067,"menam":5068,"hana</w>":5069,"bo</w>":5070,"asia</w>":5071,"gener":5072,"Alkitab</w>":5073,"Ham":5074,"proyek</w>":5075,"Lati":5076,"ev":5077,"Taman</w>":5078,"69</w>":5079,"fik</w>":5080,"Yogyakarta</w>":5081,"abi</w>":5082,"kontr":5083,"pangg":5084,"Undang</w>":5085,"lemen</w>":5086,"World</w>":5087,"Festival</w>":5088,"andia</w>":5089,"babak</w>":5090,"gon</w>":5091,"metode</w>":5092,"kak":5093,"keadaan</w>":5094,"mema":5095,"novel</w>":5096,"kebu":5097,"Bil":5098,"mengumumkan</w>":5099,"Soe":5100,"tein</w>":5101,"perangkat</w>":5102,"bantuan</w>":5103,"Kh":5104,"menggantikan</w>":5105,"uruf</w>":5106,"ayat</w>":5107,"fik":5108,"gor":5109,"badan</w>":5110,"ec":5111,"City</w>":5112,"tunggal</w>":5113,"pong":5114,"ille</w>":5115,"fek</w>":5116,"Eu":5117,"pengembangan</w>":5118,"stan</w>":5119,"puh</w>":5120,"Olimpiade</w>":5121,"Museum</w>":5122,"teman</w>":5123,"Tor":5124,"meman":5125,"500</w>":5126,"Air":5127,"Dua</w>":5128,"enter":5129,"dio</w>":5130,"pohon</w>":5131,"Suku</w>":5132,"07":5133,"memerin":5134,"may":5135,"stitusi</w>":5136,"Paus</w>":5137,"terlihat</w>":5138,"Bon":5139,"gad":5140,"pertempuran</w>":5141,"perkembangan</w>":5142,"Wakil</w>":5143,"Bali</w>":5144,"Gol":5145,"Cal":5146,"Tanjung</w>":5147,"Nom":5148,"oba</w>":5149,"yangkan</w>":5150,"kemampuan</w>":5151,"jabat</w>":5152,"sion":5153,"Bupati</w>":5154,"tahuan</w>":5155,"uhan</w>":5156,"gantung</w>":5157,"teknik</w>":5158,"siko</w>":5159,"sisa</w>":5160,"Tang":5161,"kulit</w>":5162,"Rumah</w>":5163,"Mc":5164,"begitu</w>":5165,"gol</w>":5166,"diak":5167,"pil</w>":5168,"cul":5169,"Nus":5170,"mengembangkan</w>":5171,"gis</w>":5172,"Dinasti</w>":5173,"memer":5174,"tt</w>":5175,"merilis</w>":5176,"agam</w>":5177,"200</w>":5178,"bri":5179,"TNI</w>":5180,"gn":5181,"atar</w>":5182,"ell</w>":5183,"Angg":5184,"layani</w>":5185,"ens</w>":5186,"Polandia</w>":5187,"latif</w>":5188,"1980</w>":5189,"ger</w>":5190,"Tak":5191,"1996</w>":5192,"bebas</w>":5193,"bak":5194,"Perserikatan</w>":5195,"pon</w>":5196,"che</w>":5197,"mal":5198,"insi":5199,"erdekaan</w>":5200,"Rad":5201,"irus</w>":5202,"pening":5203,"kemungkinan</w>":5204,"mengalahkan</w>":5205,"dai</w>":5206,"ed":5207,"objek</w>":5208,"diambil</w>":5209,"dewasa</w>":5210,"sebenarnya</w>":5211,"hiran</w>":5212,"pina</w>":5213,"ono</w>":5214,"2021</w>":5215,"Pra":5216,"osi":5217,"egang</w>":5218,"bol</w>":5219,"menolak</w>":5220,"sal</w>":5221,"kenalkan</w>":5222,"univer":5223,"harga</w>":5224,"kirakan</w>":5225,"hoa</w>":5226,"ast</w>":5227,"Jika</w>":5228,"prak":5229,"dian</w>":5230,"juara</w>":5231,"May":5232,"Tai":5233,"jau</w>":5234,"terlibat</w>":5235,"San</w>":5236,"kolo":5237,"konf":5238,"pra":5239,"istri</w>":5240,"melanjutkan</w>":5241,"khas</w>":5242,"mah":5243,"Kal":5244,"dibintangi</w>":5245,"dic":5246,"layu</w>":5247,"ombang</w>":5248,"makan</w>":5249,"31":5250,"International</w>":5251,"Os":5252,"br":5253,"lok</w>":5254,"Program</w>":5255,"tat</w>":5256,"lanjut</w>":5257,"Keamanan</w>":5258,"miliki</w>":5259,"fan":5260,"kesehatan</w>":5261,"memungkinkan</w>":5262,"seseorang</w>":5263,"status</w>":5264,"Grand</w>":5265,"berbentuk</w>":5266,"tradisi</w>":5267,"energi</w>":5268,"buk</w>":5269,"susnya</w>":5270,"my":5271,"Award</w>":5272,"krip":5273,"emi</w>":5274,"ambi":5275,"selanjutnya</w>":5276,"bon":5277,"dahulu</w>":5278,"287":5279,"Surabaya</w>":5280,"Kaw":5281,"217":5282,"daraan</w>":5283,"asih</w>":5284,"dagang</w>":5285,"aceae</w>":5286,"singel</w>":5287,"Pemilihan</w>":5288,"Kanada</w>":5289,"tumbuh</w>":5290,"wor":5291,"Tanah</w>":5292,"mengiri":5293,"Lan":5294,"segera</w>":5295,"iring</w>":5296,"gunungan</w>":5297,"dudukan</w>":5298,"andung</w>":5299,"utan</w>":5300,"tahu</w>":5301,"apun</w>":5302,"Umum</w>":5303,"namanya</w>":5304,"Az":5305,"kos":5306,"Bor":5307,"put</w>":5308,"angk":5309,"mo</w>":5310,"pis</w>":5311,"uangan</w>":5312,"umpang</w>":5313,"memimpin</w>":5314,"wit":5315,"ls</w>":5316,"kebijakan</w>":5317,"anga</w>":5318,"serv":5319,"gaw":5320,"Yesus</w>":5321,"bedaan</w>":5322,"por</w>":5323,"temuan</w>":5324,"kary":5325,"Tionghoa</w>":5326,"03</w>":5327,"Bun":5328,"Hari</w>":5329,"ex</w>":5330,"mirip</w>":5331,"promo":5332,"keter":5333,"85</w>":5334,"debut</w>":5335,"1995</w>":5336,"gh</w>":5337,"tum</w>":5338,"pemili":5339,"dikembangkan</w>":5340,"pasi":5341,"Bank</w>":5342,"namen</w>":5343,"inasi</w>":5344,"Sebelum</w>":5345,"Gubernur</w>":5346,"contoh</w>":5347,"berusaha</w>":5348,"antar</w>":5349,"pemeran</w>":5350,"delapan</w>":5351,"perdagangan</w>":5352,"tambahan</w>":5353,"La</w>":5354,"Perusahaan</w>":5355,"sosi":5356,"olahraga</w>":5357,"Mur":5358,"kiran</w>":5359,"Sistem</w>":5360,"Sedangkan</w>":5361,"tanda</w>":5362,"cabang</w>":5363,"butuhkan</w>":5364,"berusia</w>":5365,"Tipula</w>":5366,"menyerang</w>":5367,"FI":5368,"bangsaan</w>":5369,"enterian</w>":5370,"mengubah</w>":5371,"huruf</w>":5372,"khususnya</w>":5373,"agalus</w>":5374,"bunya</w>":5375,"cahaya</w>":5376,"Astragalus</w>":5377,"James</w>":5378,"pendapat</w>":5379,"Lov":5380,"dama":5381,"pertengahan</w>":5382,"memakan</w>":5383,"Masjid</w>":5384,".,</w>":5385,"Badan</w>":5386,"burung</w>":5387,"jelas</w>":5388,"naskah</w>":5389,"95</w>":5390,"Sebagian</w>":5391,"berg</w>":5392,"ine":5393,"gedung</w>":5394,"komputer</w>":5395,"way</w>":5396,"berbasis</w>":5397,"angkatan</w>":5398,"duknya</w>":5399,"ich</w>":5400,"Peny":5401,"anannya</w>":5402,"Sau":5403,"Singapura</w>":5404,"gal":5405,"leks</w>":5406,"Ali":5407,"lum":5408,"(;</w>":5409,"fre":5410,"dijadikan</w>":5411,"don</w>":5412,"mewakili</w>":5413,"gasi</w>":5414,"daun</w>":5415,"Lem":5416,"merasa</w>":5417,"tahankan</w>":5418,"ij":5419,"jawab</w>":5420,"=\"(</w>":5421,"mencoba</w>":5422,"asai</w>":5423,"1994</w>":5424,"nikahan</w>":5425,"Dr</w>":5426,"Stadion</w>":5427,"Pla":5428,"terbuka</w>":5429,"selain</w>":5430,"misi</w>":5431,"Bla":5432,"familia</w>":5433,"dire":5434,"bakar</w>":5435,"99</w>":5436,"Laba</w>":5437,"ditayangkan</w>":5438,"asam</w>":5439,"pengguna</w>":5440,"Ven":5441,"Cas":5442,"minal</w>":5443,"emas</w>":5444,"Paris</w>":5445,"dul":5446,"asuki</w>":5447,"minasi</w>":5448,"Ji":5449,"1992</w>":5450,"Bra":5451,"Maria</w>":5452,"gagal</w>":5453,"325":5454,"Yupiter</w>":5455,"perdana</w>":5456,"Has":5457,"tenaga</w>":5458,"hirkan</w>":5459,"lengka":5460,"Ay":5461,"tinggian</w>":5462,"ue</w>":5463,"desain</w>":5464,"88</w>":5465,"Mac":5466,"pua</w>":5467,"Ari":5468,"patnya</w>":5469,"bilan</w>":5470,"meneta":5471,"dibandingkan</w>":5472,"jukan</w>":5473,"pukul</w>":5474,"mam</w>":5475,"kisah</w>":5476,"bertahan</w>":5477,"wah</w>":5478,"ditan":5479,"The":5480,"Mel":5481,"berperan</w>":5482,"selesa":5483,"Berdasarkan</w>":5484,"layar</w>":5485,"ajaran</w>":5486,"Pertama</w>":5487,"05</w>":5488,"328":5489,"Turki</w>":5490,"doku":5491,"ins</w>":5492,"aliran</w>":5493,"tihan</w>":5494,"Reg":5495,"menciptakan</w>":5496,"Na":5497,"Fakultas</w>":5498,"ire</w>":5499,"omb":5500,"Institu":5501,"Melayu</w>":5502,"Gor":5503,"menang":5504,"uji</w>":5505,"11":5506,"Araneae</w>":5507,"Filipina</w>":5508,"Ratu</w>":5509,"aris</w>":5510,"rasi</w>":5511,"mengandung</w>":5512,"Latin</w>":5513,"pen</w>":5514,"disel":5515,"Portu":5516,"Kong":5517,"ST":5518,"majalah</w>":5519,"kemenangan</w>":5520,"bersifat</w>":5521,"mende":5522,"guruan</w>":5523,"Au":5524,"Reso":5525,"William</w>":5526,"catatan</w>":5527,"yawa</w>":5528,"Trans":5529,"konsep</w>":5530,"Oper":5531,"atus</w>":5532,"angkaian</w>":5533,"damp":5534,"dimiliki</w>":5535,"ayah</w>":5536,"Isti":5537,"04</w>":5538,"penguasa</w>":5539,"Organ":5540,"abrik</w>":5541,"berjalan</w>":5542,"dimak":5543,"1993</w>":5544,"313":5545,"glo":5546,"330":5547,"Val":5548,"cing</w>":5549,"tindakan</w>":5550,"tata</w>":5551,"ophyl":5552,"Jaya</w>":5553,"Universi":5554,"Beg":5555,"81</w>":5556,"Pon":5557,"72</w>":5558,"tahap</w>":5559,"minyak</w>":5560,"alisme</w>":5561,"law":5562,"86</w>":5563,"mb":5564,"dewa</w>":5565,"kolon":5566,"operasikan</w>":5567,"jana</w>":5568,"cio</w>":5569,"Muslim</w>":5570,"bok</w>":5571,"Swe":5572,"studi</w>":5573,"pekerjaan</w>":5574,"uc":5575,"use</w>":5576,"71</w>":5577,"Kebu":5578,"lepas</w>":5579,"92</w>":5580,"istik</w>":5581,"bergerak</w>":5582,"oksigen</w>":5583,"dut</w>":5584,"illa</w>":5585,"grasi</w>":5586,"Pela":5587,"kategori</w>":5588,"Tom":5589,"itas</w>":5590,"my</w>":5591,"angsa</w>":5592,"diny":5593,"89</w>":5594,"pu</w>":5595,"uman</w>":5596,"ail":5597,"79</w>":5598,"isahkan</w>":5599,"kome":5600,"sor</w>":5601,"komunitas</w>":5602,"syar":5603,"nam</w>":5604,"Austria</w>":5605,"Us":5606,"keempat</w>":5607,"kamp":5608,"selesai</w>":5609,"pac":5610,"elang</w>":5611,"menjela":5612,"zu":5613,"porkan</w>":5614,"dipilih</w>":5615,"gital</w>":5616,"pemberon":5617,"umat</w>":5618,"agung</w>":5619,"98</w>":5620,"kendaraan</w>":5621,"tangani</w>":5622,"76</w>":5623,"82</w>":5624,"keka":5625,"Nomor</w>":5626,"pembu":5627,"arsi":5628,"tribusi</w>":5629,"Banyak</w>":5630,"77</w>":5631,"tak":5632,"alasan</w>":5633,"berku":5634,"io</w>":5635,"1991</w>":5636,"06</w>":5637,"wasta</w>":5638,"yal</w>":5639,"standar</w>":5640,"Meng":5641,"oko</w>":5642,"impinan</w>":5643,"oro</w>":5644,"Bay":5645,"buran</w>":5646,"kampung</w>":5647,"126":5648,"Franc":5649,"Ca":5650,"anta":5651,"bau</w>":5652,"ujung</w>":5653,"AN":5654,"Pes":5655,"menyelesaikan</w>":5656,"hak":5657,"Pasi":5658,"membuka</w>":5659,"volu":5660,"Fa":5661,"ore</w>":5662,"ella</w>":5663,"asing</w>":5664,"Er":5665,"melar":5666,"ron</w>":5667,"pnya</w>":5668,"aktris</w>":5669,"1970</w>":5670,"78</w>":5671,"ketinggian</w>":5672,"87</w>":5673,"fes":5674,"ukkan</w>":5675,"Nag":5676,"96</w>":5677,"310":5678,"darat</w>":5679,"Ibu</w>":5680,"ho</w>":5681,"Satu</w>":5682,"tipe</w>":5683,"menyebut</w>":5684,"hujan</w>":5685,"telur</w>":5686,"Hindia</w>":5687,"mengun":5688,"Kol":5689,"Pin":5690,"spesi":5691,"elit</w>":5692,"Papua</w>":5693,"tain":5694,"bicara</w>":5695,"anye</w>":5696,"Bak":5697,"ros":5698,"sukses</w>":5699,"84</w>":5700,"menyebu":5701,"83</w>":5702,"1945</w>":5703,"Lou":5704,"ansi</w>":5705,"galan</w>":5706,"And":5707,"dibuka</w>":5708,"mahas":5709,"Resolusi</w>":5710,"bili":5711,"pres":5712,"kari":5713,"aranya</w>":5714,"74</w>":5715,"Hong":5716,"dis</w>":5717,"kalangan</w>":5718,"Terdapat</w>":5719,"tersedia</w>":5720,"memainkan</w>":5721,"73</w>":5722,"07</w>":5723,"sch":5724,"93</w>":5725,"dibagi</w>":5726,"314":5727,"fasilitas</w>":5728,"leksi</w>":5729,"manaj":5730,"portasi</w>":5731,"are</w>":5732,"gangg":5733,"peserta</w>":5734,"fa</w>":5735,"kam</w>":5736,"Teluk</w>":5737,"PB":5738,"Sho":5739,"97</w>":5740,"arian</w>":5741,"gur":5742,"ampi":5743,"Bagian</w>":5744,"219":5745,"edisi</w>":5746,"menyediakan</w>":5747,"sultanan</w>":5748,"saya</w>":5749,"91</w>":5750,"korban</w>":5751,"jah</w>":5752,"penumpang</w>":5753,"Asi":5754,"Coun":5755,"pos</w>":5756,"dus":5757,"dorong</w>":5758,"115":5759,"dibe":5760,"Hukum</w>":5761,"Tra":5762,"ula":5763,"117":5764,"pam":5765,"RD</w>":5766,"David</w>":5767,"terlalu</w>":5768,"oc":5769,"wali</w>":5770,"upacara</w>":5771,"09</w>":5772,"Inter":5773,"mon</w>":5774,"lon</w>":5775,"diselenggarakan</w>":5776,"ula</w>":5777,"biaya</w>":5778,"226":5779,"Del":5780,"ganda</w>":5781,"Buddha</w>":5782,"yar</w>":5783,"08</w>":5784,"Karang":5785,"AT":5786,"Kelu":5787,"cinta</w>":5788,"ejo</w>":5789,"perjanjian</w>":5790,"embatan</w>":5791,"Robert</w>":5792,"mada</w>":5793,"mm</w>":5794,"Mil":5795,",\"</w>":5796,"ophyllum</w>":5797,"ajang</w>":5798,"arti":5799,"buru":5800,"sutradara</w>":5801,"tanggung</w>":5802,"116":5803,"keda":5804,"butuhan</w>":5805,"kode</w>":5806,"obat</w>":5807,"Komun":5808,"terbang</w>":5809,"Kementerian</w>":5810,"ujuk</w>":5811,"kontro":5812,"ud</w>":5813,"menit</w>":5814,"urkan</w>":5815,"resif</w>":5816,"berjumlah</w>":5817,"Don":5818,"seder":5819,"Perdana</w>":5820,"diterima</w>":5821,"kepad":5822,"radio</w>":5823,"Fu":5824,"klaim</w>":5825,"lla</w>":5826,"327":5827,"ito</w>":5828,"Semarang</w>":5829,"aktivitas</w>":5830,"Sas":5831,"rektur</w>":5832,"agus</w>":5833,"94</w>":5834,"indivi":5835,"Tim":5836,"eksp":5837,"mengur":5838,"dukungan</w>":5839,"juk</w>":5840,"masjid</w>":5841,"Psy":5842,"Charles</w>":5843,"Kitab</w>":5844,"serangga</w>":5845,"kelahiran</w>":5846,"hala":5847,"merujuk</w>":5848,"ekor</w>":5849,"bab</w>":5850,"Kumbang</w>":5851,"abila</w>":5852,"fen":5853,"rebon</w>":5854,"saluran</w>":5855,"menanda":5856,"kebanyakan</w>":5857,"315":5858,"menggambarkan</w>":5859,"tidae</w>":5860,"calon</w>":5861,"1960</w>":5862,"Putri</w>":5863,"bung</w>":5864,"ingg":5865,"Alex":5866,"Ros":5867,"lulus</w>":5868,"Wan":5869,"nes</w>":5870,"zi</w>":5871,"guna</w>":5872,"Kejuaraan</w>":5873,"generasi</w>":5874,"minggu</w>":5875,"Batu</w>":5876,"Sri</w>":5877,"bagaimana</w>":5878,"petani</w>":5879,"Dr":5880,"sig":5881,"iyah</w>":5882,"berita</w>":5883,"kalinya</w>":5884,"Tuhan</w>":5885,"massa</w>":5886,"ster</w>":5887,"Bulb":5888,"eld</w>":5889,"pasang</w>":5890,"diikuti</w>":5891,"Bulbophyllum</w>":5892,"Wo":5893,"ium</w>":5894,"Fri":5895,"326":5896,"wo</w>":5897,"Carex</w>":5898,"beroperasi</w>":5899,"iskan</w>":5900,"cas":5901,"sik":5902,"sipasi</w>":5903,"erang</w>":5904,"ono":5905,"cel":5906,"George</w>":5907,"mahasiswa</w>":5908,"thi":5909,"kecu":5910,"dur":5911,"perlu</w>":5912,"Pemerintahan</w>":5913,"kecepatan</w>":5914,"316":5915,"tepat</w>":5916,"umpu":5917,"Ce":5918,"Tele":5919,"Lee</w>":5920,"tulisan</w>":5921,"(,</w>":5922,"Pertan":5923,"ony</w>":5924,"kalan</w>":5925,"profesional</w>":5926,"br</w>":5927,"ospong":5928,"Kelurahan</w>":5929,"rencana</w>":5930,"fis</w>":5931,"².</w>":5932,"urutan</w>":5933,"naik</w>":5934,"Jumlah</w>":5935,"rap":5936,"kes":5937,"tunjuk</w>":5938,"jen</w>":5939,"United</w>":5940,"po</w>":5941,"Gra":5942,"ema</w>":5943,"emati":5944,"ash":5945,"siswa</w>":5946,"strat":5947,"demi</w>":5948,"juan</w>":5949,"Lap":5950,"Ali</w>":5951,"duduknya</w>":5952,"hilangan</w>":5953,"Tok":5954,"kira</w>":5955,"pengaruhi</w>":5956,"Bre":5957,"oli</w>":5958,"intah</w>":5959,"125":5960,"wuju":5961,"berbatasan</w>":5962,"ditam":5963,"penda":5964,"istana</w>":5965,"taris</w>":5966,"Brasil</w>":5967,"seksu":5968,"fektur</w>":5969,"Karya</w>":5970,"iro</w>":5971,"Bos":5972,"110":5973,"Abdul</w>":5974,"tertu":5975,"menjelaskan</w>":5976,"iae</w>":5977,"UN":5978,"laksanakan</w>":5979,"aku":5980,"grafi</w>":5981,"Akad":5982,"Agama</w>":5983,"dra</w>":5984,"bersi":5985,"pah":5986,"len</w>":5987,"percaya</w>":5988,"dingin</w>":5989,"1989</w>":5990,"kilo":5991,"rad":5992,"Miss</w>":5993,"membunuh</w>":5994,"Rich":5995,"Gal":5996,"kebutuhan</w>":5997,"nan":5998,"118":5999,"mempertahankan</w>":6000,"pengetahuan</w>":6001,"terbagi</w>":6002,"fe</w>":6003,"317":6004,"Phi":6005,"Demok":6006,"em</w>":6007,"rekaman</w>":6008,"ei</w>":6009,"cus</w>":6010,"mengadakan</w>":6011,"universitas</w>":6012,"tif":6013,"kuan</w>":6014,"University</w>":6015,"ibunya</w>":6016,"Suk":6017,"jasa</w>":6018,"ion</w>":6019,"menjadikan</w>":6020,"ketua</w>":6021,"RT</w>":6022,"wakil</w>":6023,"dasi</w>":6024,"Kese":6025,"das</w>":6026,"jualan</w>":6027,"mengelu":6028,"labor":6029,"motif</w>":6030,"tunjukan</w>":6031,"Tho":6032,"struksi</w>":6033,"Das":6034,"urn":6035,"kemerdekaan</w>":6036,"menyu":6037,"kecuali</w>":6038,"etnam</w>":6039,"memakai</w>":6040,"Academ":6041,"jadian</w>":6042,"koman":6043,"Bintang</w>":6044,"adap":6045,"Ilmu</w>":6046,"Departemen</w>":6047,"213":6048,"1950</w>":6049,"chool</w>":6050,"Lampung</w>":6051,"henti</w>":6052,"waji":6053,"124":6054,"airan</w>":6055,"urusan</w>":6056,"saling</w>":6057,"his":6058,"memasuki</w>":6059,"sipalitas</w>":6060,"turun</w>":6061,"val":6062,"Masa</w>":6063,"Mek":6064,"digantikan</w>":6065,"Micha":6066,"Grup</w>":6067,"mau</w>":6068,"kur</w>":6069,"Bala":6070,"Utama</w>":6071,"225":6072,"dra":6073,"keputusan</w>":6074,"Hel":6075,"zim</w>":6076,"Kep":6077,"hara</w>":6078,"Oleh</w>":6079,"pis":6080,"kiri":6081,"perbedaan</w>":6082,"ambigu":6083,"tral</w>":6084,"tren</w>":6085,"dilaksanakan</w>":6086,"sto":6087,"215":6088,"basan</w>":6089,"1988</w>":6090,"dengar</w>":6091,"Ga":6092,"94":6093,"setempat</w>":6094,"lengkapi</w>":6095,"af</w>":6096,"onton</w>":6097,"okal</w>":6098,"tarik</w>":6099,"Stan":6100,"Vic":6101,"mengaku":6102,"324":6103,"akah</w>":6104,"ward</w>":6105,"ajak</w>":6106,"300</w>":6107,"kilometer</w>":6108,"amat</w>":6109,"tari</w>":6110,"terbatas</w>":6111,"Sak":6112,"und</w>":6113,"diku":6114,"kapai</w>":6115,"tahkan</w>":6116,"pembuatan</w>":6117,"mengetahui</w>":6118,"Hong</w>":6119,"ick</w>":6120,"disebabkan</w>":6121,"Dusun</w>":6122,"DPRD</w>":6123,"opsis</w>":6124,"kehilangan</w>":6125,"210":6126,"ayu</w>":6127,"thoph":6128,"pelajari</w>":6129,"inde":6130,"ernya</w>":6131,"uka</w>":6132,"kabar</w>":6133,"Ola":6134,"hubungkan</w>":6135,"BC</w>":6136,"amaan</w>":6137,"Vietnam</w>":6138,"320":6139,"lindungi</w>":6140,"area</w>":6141,"spir":6142,"duduki</w>":6143,"Cina</w>":6144,"224":6145,"alami</w>":6146,"Psycho":6147,"diteta":6148,"ath":6149,"Kri":6150,"keluar":6151,"pimpinan</w>":6152,"bebasan</w>":6153,"penting":6154,"kontrak</w>":6155,"memproduksi</w>":6156,"wira</w>":6157,"134":6158,"pejabat</w>":6159,"kesemp":6160,"raya</w>":6161,"tainment</w>":6162,"hidro":6163,"sif</w>":6164,"balik</w>":6165,"216":6166,"ahi</w>":6167,"perbatasan</w>":6168,"fokus</w>":6169,"gin":6170,"Cla":6171,"Ur":6172,"putr":6173,"Anak</w>":6174,"mengeluarkan</w>":6175,"menentukan</w>":6176,"buruk</w>":6177,"pabrik</w>":6178,"Psychotria</w>":6179,"ailand</w>":6180,"hancurkan</w>":6181,"murid</w>":6182,"aplikasi</w>":6183,"bai":6184,"opsi</w>":6185,"disingkat</w>":6186,"Rah":6187,"kompleks</w>":6188,"ambiguasi</w>":6189,"indahkan</w>":6190,"Bog":6191,"deng":6192,"keb":6193,"penampilan</w>":6194,"Koman":6195,"Sou":6196,"mencetak</w>":6197,"ans</w>":6198,"pertemuan</w>":6199,"thophagus</w>":6200,"pendiri</w>":6201,"alisis</w>":6202,"Swedia</w>":6203,"ataupun</w>":6204,"alifor":6205,"disambiguasi</w>":6206,"Eli":6207,"312":6208,"jian</w>":6209,"pernikahan</w>":6210,"inf":6211,"zo":6212,"studio</w>":6213,"sara</w>":6214,"St</w>":6215,"ayasan</w>":6216,"Divisi</w>":6217,"Surat</w>":6218,"segala</w>":6219,"anus</w>":6220,"perh":6221,"Academy</w>":6222,"fisik</w>":6223,"suhu</w>":6224,"mala":6225,"Tokyo</w>":6226,"defin":6227,"Darat</w>":6228,"bekas</w>":6229,"inclu":6230,"pori</w>":6231,"musu":6232,"jungi</w>":6233,"Tiga</w>":6234,"Park</w>":6235,"line</w>":6236,"trasi</w>":6237,"wer</w>":6238,"Demospong":6239,"Demospongiae</w>":6240,"Kim</w>":6241,"memenuhi</w>":6242,"Onthophagus</w>":6243,"ze</w>":6244,"khi":6245,"Ekonomi</w>":6246,"Enter":6247,"laku</w>":6248,"abu</w>":6249,"komedi</w>":6250,"alifikasi</w>":6251,"IS":6252,"rani</w>":6253,"ham</w>":6254,"nan</w>":6255,"fusi</w>":6256,"camp":6257,"cm</w>":6258,"286":6259,"diperkirakan</w>":6260,"col":6261,"elis</w>":6262,"ditetapkan</w>":6263,"menyerap</w>":6264,"kiri</w>":6265,"melayani</w>":6266,"que</w>":6267,"efek</w>":6268,"ides</w>":6269,"kaya</w>":6270,"linya</w>":6271,"Thailand</w>":6272,"Sene":6273,"Organisasi</w>":6274,"CO":6275,"Mili":6276,"samping</w>":6277,"mes</w>":6278,"ilu</w>":6279,"Mit":6280,"pusta":6281,"menengah</w>":6282,"ungnya</w>":6283,"PS":6284,"Far":6285,"bungan</w>":6286,"Dam":6287,"Michael</w>":6288,"eu":6289,"ordin":6290,"puncak</w>":6291,"ikannya</w>":6292,"ela</w>":6293,"yp":6294,"menteri</w>":6295,"berbahasa</w>":6296,"isa</w>":6297,"kin</w>":6298,"kanan</w>":6299,"jil</w>":6300,"Nam":6301,"komer":6302,"logam</w>":6303,"hat":6304,"aku</w>":6305,"sederhana</w>":6306,"323":6307,"penem":6308,"Hongaria</w>":6309,"Love</w>":6310,"awang</w>":6311,"alifornia</w>":6312,"ilnya</w>":6313,"Hil":6314,"Nep":6315,"teran</w>":6316,"insip</w>":6317,"tewas</w>":6318,"faatkan</w>":6319,"anggo":6320,"tekanan</w>":6321,"Kong</w>":6322,"ford</w>":6323,"gur</w>":6324,"ii</w>":6325,"sulit</w>":6326,"karen":6327,"kursi</w>":6328,"sembilan</w>":6329,"turnamen</w>":6330,"AR":6331,"aji</w>":6332,"tannya</w>":6333,"meningkat</w>":6334,"hit</w>":6335,"berkebangsaan</w>":6336,"askan</w>":6337,"China</w>":6338,"taman</w>":6339,"Cirebon</w>":6340,"Fas":6341,"Walaupun</w>":6342,"urat</w>":6343,"]]":6344,"Sil":6345,"dihas":6346,"perairan</w>":6347,"akadem":6348,"administratif</w>":6349,"walaupun</w>":6350,"pek</w>":6351,"politikus</w>":6352,"dator</w>":6353,"berka":6354,"ester</w>":6355,"unkan</w>":6356,"bium</w>":6357,"menging":6358,"wood</w>":6359,"terj":6360,"memegang</w>":6361,"Akademi</w>":6362,"lebar</w>":6363,"min</w>":6364,"Rom":6365,"nu":6366,"the":6367,"kiman</w>":6368,"sayap</w>":6369,"lamp":6370,"digital</w>":6371,"Wa":6372,"menghadapi</w>":6373,"positif</w>":6374,"Setiap</w>":6375,"luka</w>":6376,"mark</w>":6377,"Des":6378,"ald</w>":6379,"hou</w>":6380,"nuk":6381,"include</w>":6382,"habi":6383,"kesempatan</w>":6384,"Anth":6385,"318":6386,"sit</w>":6387,"dong</w>":6388,"duga</w>":6389,"Irlandia</w>":6390,"faktor</w>":6391,"Adipati</w>":6392,"Anggota</w>":6393,"kompon":6394,"Ph":6395,"diantaranya</w>":6396,"diken":6397,"reaksi</w>":6398,"sebutkan</w>":6399,"jur</w>":6400,"asasti</w>":6401,"Mul":6402,"dium</w>":6403,"sastra</w>":6404,"Mun":6405,"214":6406,"bertugas</w>":6407,"komune</w>":6408,"ide":6409,"Tentara</w>":6410,"Day":6411,"California</w>":6412,"Music</w>":6413,"menan":6414,"che":6415,"Kebanyakan</w>":6416,"atang</w>":6417,"berfungsi</w>":6418,"yataan</w>":6419,"Group</w>":6420,"ise</w>":6421,"derasi</w>":6422,"sipil</w>":6423,"1984</w>":6424,"nu</w>":6425,"Entertainment</w>":6426,"dri":6427,"Gener":6428,"Pel":6429,"rancang</w>":6430,"mengurangi</w>":6431,"angin</w>":6432,"foto</w>":6433,"percayaan</w>":6434,"nasi":6435,"dik</w>":6436,"tha</w>":6437,"IS</w>":6438,"pintu</w>":6439,"Samp":6440,"only":6441,"onlyinclude</w>":6442,"cur</w>":6443,"Kla":6444,"umen</w>":6445,"gro":6446,"wal</w>":6447,"Pasukan</w>":6448,"dimas":6449,"Suci</w>":6450,"Nar":6451,"Pantai</w>":6452,"car</w>":6453,"individu</w>":6454,"lapangan</w>":6455,"Beng":6456,"1986</w>":6457,"tema</w>":6458,"tangkap</w>":6459,"polisi</w>":6460,"derita</w>":6461,"Maluku</w>":6462,"Hulu</w>":6463,"berumur</w>":6464,"lec":6465,"sak</w>":6466,"Iran</w>":6467,"Olahraga</w>":6468,"ence</w>":6469,"Nas":6470,"sesi</w>":6471,"lewat</w>":6472,"pembentukan</w>":6473,"dikiri":6474,"ot":6475,"dihasilkan</w>":6476,"usnya</w>":6477,"National</w>":6478,"Champi":6479,"inves":6480,"poran</w>":6481,"pengalaman</w>":6482,"psi":6483,"swasta</w>":6484,"tel":6485,"pes</w>":6486,"til</w>":6487,"Paul</w>":6488,"miliar</w>":6489,"pakaian</w>":6490,"yata</w>":6491,"bangk":6492,"bro":6493,"vel":6494,"1985</w>":6495,"ville</w>":6496,"iknya</w>":6497,"Semua</w>":6498,"Kapal</w>":6499,"testan</w>":6500,"terpisah</w>":6501,"Zh":6502,"ide</w>":6503,"regi":6504,"1987</w>":6505,"ekseku":6506,"alisasi</w>":6507,"Lemba":6508,"agresif</w>":6509,"simp":6510,"tir</w>":6511,"daratan</w>":6512,"adaptasi</w>":6513,"(),</w>":6514,"penduduknya</w>":6515,"partisipasi</w>":6516,"113":6517,"aceh</w>":6518,"hur</w>":6519,"ys":6520,"semp":6521,"seksual</w>":6522,"Persia</w>":6523,"ado</w>":6524,"membuatnya</w>":6525,"sor":6526,"wangi</w>":6527,"Penduduk</w>":6528,"melibatkan</w>":6529,"usul</w>":6530,"gunaan</w>":6531,"Gir":6532,"Cu":6533,"penjualan</w>":6534,"Yam":6535,"variasi</w>":6536,"ingi</w>":6537,"menger":6538,"kra":6539,"114":6540,"Won":6541,"cang</w>":6542,"pemenang</w>":6543,"single</w>":6544,"dirancang</w>":6545,"Pembangunan</w>":6546,"lengkap</w>":6547,"154":6548,"menur":6549,"Thomas</w>":6550,"memb":6551,"KI</w>":6552,"ct</w>":6553,"ane":6554,"alo":6555,"fitur</w>":6556,"Banjar</w>":6557,"diluncurkan</w>":6558,"School</w>":6559,"memang</w>":6560,"saham</w>":6561,"keuangan</w>":6562,"Masyarakat</w>":6563,"tek</w>":6564,"Mos":6565,"seu":6566,"perhatian</w>":6567,"dirian</w>":6568,"Medan</w>":6569,"atikan</w>":6570,"kin":6571,"anto</w>":6572,"berhubungan</w>":6573,"ble</w>":6574,"sepak":6575,"ologis</w>":6576,"keamanan</w>":6577,"peningkatan</w>":6578,"pany</w>":6579,"obatan</w>":6580,"You</w>":6581,"Bol":6582,"Pam":6583,"dibu":6584,"pes":6585,"Banyu":6586,"gang</w>":6587,"Glo":6588,"Dendro":6589,"etnis</w>":6590,"Kampung</w>":6591,"artinya</w>":6592,"web</w>":6593,"130":6594,"sebutan</w>":6595,"adu</w>":6596,"Kesultanan</w>":6597,"jurn":6598,"Mang":6599,"Ala":6600,"Super</w>":6601,"Danau</w>":6602,"predator</w>":6603,"dimen":6604,"Pener":6605,"ringan</w>":6606,"kop</w>":6607,"karyanya</w>":6608,"curan</w>":6609,"dge</w>":6610,"kris":6611,"kon</w>":6612,"iti</w>":6613,"Istilah</w>":6614,"cre":6615,"Dor":6616,"tektur</w>":6617,"Sang</w>":6618,"pendukung</w>":6619,"kopi</w>":6620,"Hasil</w>":6621,"keba":6622,"hijau</w>":6623,"berkata</w>":6624,"pertunjukan</w>":6625,"unggu</w>":6626,"ida</w>":6627,"hormatan</w>":6628,"disebutkan</w>":6629,"bes</w>":6630,"dusun</w>":6631,"ciri</w>":6632,"\"\"</w>":6633,"bila</w>":6634,"nar":6635,"adopsi</w>":6636,"Keluarga</w>":6637,"Yer":6638,"tol</w>":6639,"uktur</w>":6640,"dilihat</w>":6641,"jurit</w>":6642,"perwakilan</w>":6643,"menganggap</w>":6644,"sensus</w>":6645,"Tal":6646,"juang</w>":6647,"UE":6648,"amkan</w>":6649,"cender":6650,"Hubungan</w>":6651,"diubah</w>":6652,"die</w>":6653,"Hindu</w>":6654,"huku":6655,"butan</w>":6656,"konflik</w>":6657,"ase":6658,"sir":6659,"istrinya</w>":6660,"mik":6661,"Rus":6662,"eter</w>":6663,"Kereta</w>":6664,"buan</w>":6665,"Wis":6666,"diumumkan</w>":6667,"pekerja</w>":6668,"AM":6669,"bal":6670,"mencata":6671,"cy</w>":6672,"pandang</w>":6673,"melewati</w>":6674,"produser</w>":6675,"mbulkan</w>":6676,"Senecio</w>":6677,"motor</w>":6678,"Santo</w>":6679,"nominasi</w>":6680,"Mong":6681,"1982</w>":6682,"Operasi</w>":6683,"Pos":6684,"katnya</w>":6685,"himp":6686,"Sumber</w>":6687,"Lak":6688,"gelombang</w>":6689,"bilangan</w>":6690,"mayoritas</w>":6691,"mengung":6692,"difusi</w>":6693,"Jar":6694,"VI</w>":6695,"embang</w>":6696,"kritik</w>":6697,"sup":6698,"Dendrobium</w>":6699,"Pic":6700,"dira":6701,"bunyi</w>":6702,"sejar":6703,"ican</w>":6704,"menempati</w>":6705,"Ahmad</w>":6706,"Media</w>":6707,"pesan</w>":6708,"terbuat</w>":6709,"kariernya</w>":6710,"Banjar":6711,"lakukan</w>":6712,"Henry</w>":6713,"ington</w>":6714,"atur":6715,"akannya</w>":6716,"cap":6717,"Leg":6718,"kumpulan</w>":6719,"Sekre":6720,"bol":6721,"Lang":6722,"Im":6723,"ster":6724,"bek</w>":6725,"ack</w>":6726,"US":6727,"mole":6728,"wiss</w>":6729,"kalah</w>":6730,"oni</w>":6731,"lintas</w>":6732,"untungan</w>":6733,"artis</w>":6734,"ingatan</w>":6735,"ago</w>":6736,"dibawa</w>":6737,"keluarganya</w>":6738,"kamah</w>":6739,"sawan</w>":6740,"IP":6741,"ther</w>":6742,"komersial</w>":6743,"atom</w>":6744,"menaw":6745,"keli":6746,"Ori":6747,"lantik</w>":6748,"omin":6749,"gabungan</w>":6750,"Malang</w>":6751,"panggung</w>":6752,"Lor":6753,"toran</w>":6754,"komen":6755,"atori":6756,"lamnya</w>":6757,"liga</w>":6758,"satelit</w>":6759,"berhenti</w>":6760,"Tap":6761,"Pari":6762,"unnya</w>":6763,"kepem":6764,"port</w>":6765,"halaman</w>":6766,"vokal</w>":6767,"ero":6768,"wu</w>":6769,"sho":6770,"vi</w>":6771,"bara</w>":6772,"hannya</w>":6773,"daging</w>":6774,"kaisar</w>":6775,"Buku</w>":6776,"spirasi</w>":6777,"perwira</w>":6778,"situ":6779,"Aki":6780,"ato</w>":6781,"cetak</w>":6782,"dampak</w>":6783,"pertahanan</w>":6784,"age</w>":6785,"arus</w>":6786,"cy":6787,"makanannya</w>":6788,"dipu":6789,"kebunan</w>":6790,"senyawa</w>":6791,"Pun":6792,"pandangan</w>":6793,"kuli":6794,"Uskup</w>":6795,"rejo</w>":6796,"250":6797,"Gad":6798,"yli":6799,"soci":6800,"menang</w>":6801,"gadis</w>":6802,"112":6803,"uskan</w>":6804,"Naz":6805,"260":6806,"Kos":6807,"Istana</w>":6808,"juangan</w>":6809,"lunak</w>":6810,"jaba":6811,"agen</w>":6812,"Law":6813,"membeli</w>":6814,"Ep":6815,"tida":6816,"abe":6817,"tertua</w>":6818,"Pres":6819,"Swiss</w>":6820,"sekit":6821,"Sel":6822,"sektor</w>":6823,"diperlukan</w>":6824,"publi":6825,"menjaga</w>":6826,"berlaku</w>":6827,"menyebutkan</w>":6828,"lor</w>":6829,"laporan</w>":6830,"nes":6831,"1983</w>":6832,"mekan":6833,"Pembagian</w>":6834,"anggil</w>":6835,"asitas</w>":6836,"mengaki":6837,"Lembaga</w>":6838,"ken</w>":6839,"Apol":6840,"serupa</w>":6841,"400</w>":6842,"KP":6843,"beli":6844,"rich</w>":6845,"kade</w>":6846,"...</w>":6847,"pulang</w>":6848,"lindungan</w>":6849,"ternyata</w>":6850,"Hon":6851,"NA</w>":6852,"relatif</w>":6853,"Wat":6854,"Latar</w>":6855,"musuh</w>":6856,"Micro":6857,"berpori</w>":6858,"menguasai</w>":6859,"dokter</w>":6860,"FIFA</w>":6861,"museum</w>":6862,"Komisi</w>":6863,"lomba</w>":6864,"Ling":6865,"mengakibatkan</w>":6866,"SD":6867,"dang":6868,"Company</w>":6869,"campuran</w>":6870,"1979</w>":6871,"Ran":6872,"muni":6873,"pemberontakan</w>":6874,"Bis":6875,"Ly":6876,"anaknya</w>":6877,"KB":6878,"hilang</w>":6879,"Abu</w>":6880,"efek":6881,"sehari</w>":6882,"kampanye</w>":6883,"Teknik</w>":6884,"xi":6885,"anyikan</w>":6886,"bersamaan</w>":6887,"egara</w>":6888,"Ve":6889,"ach":6890,"berkaitan</w>":6891,"ess</w>":6892,"alu</w>":6893,"com</w>":6894,"75":6895,"Taiwan</w>":6896,"isikan</w>":6897,"ye</w>":6898,"mengin":6899,"teng":6900,"lium</w>":6901,"kepercayaan</w>":6902,"dilengkapi</w>":6903,"ambi</w>":6904,"etron</w>":6905,"pelak":6906,"bulu</w>":6907,"pesisir</w>":6908,"meri":6909,"hanes</w>":6910,"fak":6911,"matemati":6912,"Gem":6913,"Lama</w>":6914,"pelabuhan</w>":6915,"uddin</w>":6916,"1981</w>":6917,"Sab":6918,"menerbitkan</w>":6919,"setengah</w>":6920,"dioperasikan</w>":6921,"dral</w>":6922,"pertumbuhan</w>":6923,"Imp":6924,"Ibrani</w>":6925,"Cap":6926,"Kelas</w>":6927,"lahnya</w>":6928,"konser</w>":6929,"insting</w>":6930,"American</w>":6931,"toko</w>":6932,"opa</w>":6933,"tt":6934,"ampong</w>":6935,"anim":6936,"Wali</w>":6937,"sepuluh</w>":6938,"saud":6939,"dkan</w>":6940,"bunuhan</w>":6941,"ys</w>":6942,"dikatakan</w>":6943,"dijual</w>":6944,"Wes":6945,"masi</w>":6946,"beragam</w>":6947,"menjalankan</w>":6948,"membutuhkan</w>":6949,"Bogor</w>":6950,"Sunda</w>":6951,"tersebar</w>":6952,"PBB</w>":6953,"1978</w>":6954,"zat</w>":6955,"berjarak</w>":6956,"sudut</w>":6957,"lakaan</w>":6958,"pustakaan</w>":6959,"atannya</w>":6960,"memerintah</w>":6961,"pol":6962,"ase</w>":6963,"menduduki</w>":6964,"art</w>":6965,"biru</w>":6966,"bere":6967,"andang</w>":6968,"disa":6969,"322":6970,"hakim</w>":6971,"damaian</w>":6972,"vis":6973,"Nic":6974,"Andre":6975,"awar":6976,"kebudayaan</w>":6977,"Prefektur</w>":6978,"selam":6979,"Asilidae</w>":6980,"skor</w>":6981,"van":6982,"ary</w>":6983,"ras</w>":6984,"IN":6985,"anggaran</w>":6986,"penyel":6987,"jati</w>":6988,"Dasar</w>":6989,"atal</w>":6990,"Cata":6991,"ey</w>":6992,"Yayasan</w>":6993,"sius</w>":6994,"ram</w>":6995,"Myce":6996,"bre":6997,"lip":6998,"abiskan</w>":6999,"sini</w>":7000,"hitung</w>":7001,"angkutan</w>":7002,"war</w>":7003,"ritual</w>":7004,"tindak</w>":7005,"dol":7006,"Majelis</w>":7007,"Kata</w>":7008,"him</w>":7009,"mendorong</w>":7010,"analisis</w>":7011,"mempelajari</w>":7012,"bentu":7013,"maju</w>":7014,"berukuran</w>":7015,"UEFA</w>":7016,"Atas</w>":7017,"kuda</w>":7018,"Li</w>":7019,"Meksiko</w>":7020,"Jon":7021,"Bus":7022,"Say":7023,"pere":7024,"atri":7025,"perguruan</w>":7026,"sebagaimana</w>":7027,"urt</w>":7028,"memo":7029,"alatan</w>":7030,"Kepler</w>":7031,"menawarkan</w>":7032,"itkan</w>":7033,"tunya</w>":7034,"ditunjuk</w>":7035,"mengatur</w>":7036,"Len":7037,"Pasar</w>":7038,"ms</w>":7039,"vin</w>":7040,"yakini</w>":7041,"bank</w>":7042,"tena</w>":7043,"dihar":7044,"ato":7045,"280":7046,"apakah</w>":7047,"Cam":7048,"Riau</w>":7049,"dima":7050,"pegunungan</w>":7051,"212":7052,"Vo":7053,"dinyatakan</w>":7054,"apabila</w>":7055,"perintah</w>":7056,"Eugen":7057,"lukis</w>":7058,"besi</w>":7059,"adari</w>":7060,"komponen</w>":7061,"keker":7062,"Raden</w>":7063,"CA":7064,"mengirim</w>":7065,"Peter</w>":7066,"tampak</w>":7067,"bai</w>":7068,"lahkan</w>":7069,"takh":7070,"terjad":7071,"pag":7072,"melak":7073,"kuning</w>":7074,"iman</w>":7075,"\";</w>":7076,"get</w>":7077,"penonton</w>":7078,";/</w>":7079,"ondok</w>":7080,"bom</w>":7081,"Xi":7082,"Les":7083,"Gedung</w>":7084,"Richard</w>":7085,"audi":7086,"elektron":7087,"simbol</w>":7088,"land":7089,"hidupnya</w>":7090,"penyi":7091,"Radi":7092,"Cho":7093,"medali</w>":7094,"maskapai</w>":7095,"jer":7096,"prajurit</w>":7097,"solusi</w>":7098,"Jan":7099,"jenderal</w>":7100,"cia</w>":7101,"akar</w>":7102,"prinsip</w>":7103,"melarikan</w>":7104,"Bukit</w>":7105,"mil</w>":7106,"feksi</w>":7107,"150":7108,"My</w>":7109,"ef</w>":7110,"merebut</w>":7111,"departemen</w>":7112,"74":7113,"IX</w>":7114,"lame":7115,"peng</w>":7116,"aban</w>":7117,"1975</w>":7118,"Banten</w>":7119,"Bap":7120,"Cinta</w>":7121,");</w>":7122,"baan</w>":7123,"Prix</w>":7124,"dile":7125,"bay":7126,"Lom":7127,"Bandara</w>":7128,"bul</w>":7129,"assar</w>":7130,"uri":7131,"Pand":7132,"penjara</w>":7133,"seluas</w>":7134,"persen</w>":7135,"Seri</w>":7136,"Kantor</w>":7137,"atiannya</w>":7138,"leg":7139,"Putra</w>":7140,"kejadian</w>":7141,"tarian</w>":7142,"Sko":7143,"makna</w>":7144,"Bomb":7145,"keberadaan</w>":7146,"Persi":7147,"ual</w>":7148,"kapasitas</w>":7149,"eus</w>":7150,"berbicara</w>":7151,"anut</w>":7152,"Denmark</w>":7153,"Timor</w>":7154,"tic</w>":7155,"sun":7156,"Musik</w>":7157,"Ki</w>":7158,"lie</w>":7159,"259":7160,"diam":7161,"pilihan</w>":7162,"lukisan</w>":7163,"administrasi</w>":7164,"Sah":7165,"diten":7166,"mental</w>":7167,"hukuman</w>":7168,"Teknologi</w>":7169,"menika":7170,"adik</w>":7171,"hin":7172,"susun</w>":7173,"Tetapi</w>":7174,"wad":7175,"raan</w>":7176,"kripsi</w>":7177,"Kad":7178,"1965</w>":7179,"AP":7180,"didasarkan</w>":7181,"hulu</w>":7182,"divisi</w>":7183,"pemilik</w>":7184,"didukung</w>":7185,"Kongres</w>":7186,"benteng</w>":7187,"sud</w>":7188,"lusan</w>":7189,"vel</w>":7190,"menjual</w>":7191,"Plan":7192,"menjalani</w>":7193,"berpartisipasi</w>":7194,"Up":7195,"nif":7196,"atorium</w>":7197,"Peri":7198,"menyel":7199,"ale</w>":7200,"all</w>":7201,"klasik</w>":7202,"menimbulkan</w>":7203,"Institut</w>":7204,"ksi</w>":7205,"bet</w>":7206,"munisipalitas</w>":7207,"potensi</w>":7208,"lantai</w>":7209,"sekitarnya</w>":7210,"1976</w>":7211,"melaksanakan</w>":7212,"Batas</w>":7213,"weg":7214,"suka</w>":7215,"angkut</w>":7216,"Alek":7217,"kelima</w>":7218,"ig":7219,"mencatat</w>":7220,"sai</w>":7221,"penden</w>":7222,"langkah</w>":7223,"ic</w>":7224,"bilitas</w>":7225,"ilmu":7226,"anjing</w>":7227,"kapkan</w>":7228,"Nusa</w>":7229,"Hor":7230,"tepatnya</w>":7231,"ern</w>":7232,"his</w>":7233,"Ja":7234,"hem":7235,"dominasi</w>":7236,"kami</w>":7237,"Josep":7238,"AM</w>":7239,"pelayanan</w>":7240,"papan</w>":7241,"Windo":7242,"iklim</w>":7243,"kau</w>":7244,"dikirim</w>":7245,"anuger":7246,"oa</w>":7247,"temba":7248,"Soci":7249,"peraw":7250,"menghubungkan</w>":7251,"canakan</w>":7252,"Bir":7253,"punya</w>":7254,"jarang</w>":7255,"ja":7256,"mengajar</w>":7257,"sarana</w>":7258,"ex":7259,"mini</w>":7260,"semuanya</w>":7261,"putaran</w>":7262,"disiarkan</w>":7263,"Merah</w>":7264,"mir</w>":7265,"Bombyli":7266,"diju":7267,"mus":7268,"Raj":7269,"tipula</w>":7270,"balapan</w>":7271,"bertanggung</w>":7272,"uda</w>":7273,"pemak":7274,"sanaan</w>":7275,"pola</w>":7276,"tulang</w>":7277,"Perwakilan</w>":7278,"permin":7279,"Spe":7280,"nyata</w>":7281,"tz</w>":7282,"latar</w>":7283,"Lep":7284,"Tak</w>":7285,"Jos":7286,"Han</w>":7287,"uel</w>":7288,"penjela":7289,"alek</w>":7290,"Kesehatan</w>":7291,"egaraan</w>":7292,"melindungi</w>":7293,"dewan</w>":7294,"Selanjutnya</w>":7295,"%.</w>":7296,"ome":7297,"lut</w>":7298,"transportasi</w>":7299,"diperkenalkan</w>":7300,"84":7301,"digambarkan</w>":7302,"Gerakan</w>":7303,"ogo</w>":7304,"tujui</w>":7305,"ng</w>":7306,"ditangkap</w>":7307,"okasi</w>":7308,"mengakui</w>":7309,"sak":7310,"tempur</w>":7311,"ikh</w>":7312,"promosikan</w>":7313,"Louis</w>":7314,"dulu</w>":7315,"mencegah</w>":7316,"tuanya</w>":7317,"resi</w>":7318,"langit</w>":7319,"Ath":7320,"safat</w>":7321,"pentingan</w>":7322,"dataran</w>":7323,"diam</w>":7324,"membaw":7325,"merek</w>":7326,"tidaknya</w>":7327,"ternal</w>":7328,"fiksi</w>":7329,"Pag":7330,"lapisan</w>":7331,"rock</w>":7332,"del":7333,"medan</w>":7334,"Belgia</w>":7335,"Keputusan</w>":7336,"pak</w>":7337,"artikel</w>":7338,"unjung</w>":7339,"1968</w>":7340,"penuhnya</w>":7341,"ES":7342,"Alam</w>":7343,"win</w>":7344,"Tin":7345,"kepulauan</w>":7346,"liknya</w>":7347,"ning</w>":7348,"pop</w>":7349,"1974</w>":7350,"elemen</w>":7351,"kec":7352,"ikal</w>":7353,"Injil</w>":7354,"Bulan</w>":7355,"1973</w>":7356,"Kelompok</w>":7357,"identifikasi</w>":7358,"puisi</w>":7359,"gon":7360,"asama</w>":7361,"Seni</w>":7362,"bad</w>":7363,"virus</w>":7364,"engah</w>":7365,"Sala":7366,"vensi</w>":7367,"US</w>":7368,"1977</w>":7369,"kol</w>":7370,"bukit</w>":7371,"150</w>":7372,"Jay":7373,"olos</w>":7374,"Dani":7375,"keuskupan</w>":7376,"dungan</w>":7377,"IP</w>":7378,"1972</w>":7379,"awak</w>":7380,"bangsawan</w>":7381,"klasi":7382,"rute</w>":7383,"kanlah</w>":7384,"Patri":7385,"praktik</w>":7386,"board</w>":7387,"wafat</w>":7388,"pedagang</w>":7389,"Martin</w>":7390,"suci</w>":7391,"Lis":7392,"rilis</w>":7393,"Windows</w>":7394,"Anti":7395,"ilir</w>":7396,"Scar":7397,"rangka</w>":7398,"we</w>":7399,"Pala":7400,"kepemimpinan</w>":7401,"egoro</w>":7402,"skala</w>":7403,"Troya</w>":7404,"hor":7405,"akses</w>":7406,"awi</w>":7407,"Mela":7408,"Komite</w>":7409,"lue</w>":7410,"Apollo</w>":7411,"hri":7412,"tory</w>":7413,"oman</w>":7414,"1967</w>":7415,"buru</w>":7416,"penyer":7417,"id":7418,"kuil</w>":7419,"Simp":7420,"indonesia</w>":7421,"protein</w>":7422,"jahatan</w>":7423,"karenakan</w>":7424,"kesu":7425,"Cri":7426,"tul</w>":7427,"Let":7428,"seminggu</w>":7429,"mengunjungi</w>":7430,"takhta</w>":7431,"pemi":7432,"dit</w>":7433,"peda</w>":7434,"tamu</w>":7435,"manajemen</w>":7436,"ila":7437,"signif":7438,"Kro":7439,"berse":7440,"lanjutan</w>":7441,"sepenuhnya</w>":7442,"Contoh</w>":7443,"sand":7444,"Pales":7445,"modi":7446,"jemahan</w>":7447,"alang</w>":7448,"global</w>":7449,"berpendapat</w>":7450,"inilah</w>":7451,"angannya</w>":7452,"menghabiskan</w>":7453,"hluk</w>":7454,"konstruksi</w>":7455,"ditempatkan</w>":7456,"teri":7457,"fon":7458,"tlandia</w>":7459,"Serbia</w>":7460,"Bersama</w>":7461,"Maka</w>":7462,"Sha":7463,"Militer</w>":7464,"dinamakan</w>":7465,"kualitas</w>":7466,"249":7467,"Acara</w>":7468,"banding</w>":7469,"signifikan</w>":7470,"inti</w>":7471,"cok</w>":7472,"senian</w>":7473,"Uts":7474,"Yohanes</w>":7475,"peralatan</w>":7476,"amo":7477,"Nap":7478,"Ange":7479,"isnya</w>":7480,"mengacu</w>":7481,"Sebelu":7482,"Jean</w>":7483,"pembunuhan</w>":7484,"Budaya</w>":7485,"IT":7486,"Los</w>":7487,"1969</w>":7488,"makam</w>":7489,"gag":7490,"semen</w>":7491,"Fir":7492,"ters</w>":7493,"Pember":7494,"gawai</w>":7495,"lori":7496,"lip</w>":7497,"Sebelumnya</w>":7498,"onan</w>":7499,"diperc":7500,"Si</w>":7501,"Wah":7502,"Recor":7503,"waw":7504,"rekan</w>":7505,"Whi":7506,"Tempat</w>":7507,"perilaku</w>":7508,"remaja</w>":7509,"Vol":7510,"disu":7511,"dinding</w>":7512,"1948</w>":7513,"Akhirnya</w>":7514,"Cyper":7515,"1942</w>":7516,"Star":7517,"unggu":7518,"mengumpu":7519,"tto</w>":7520,"dokumen</w>":7521,"dalamnya</w>":7522,"tal":7523,"nen":7524,"Makassar</w>":7525,"bung":7526,"ture</w>":7527,"Lit":7528,"Ob":7529,"pengen":7530,"taku":7531,"zona</w>":7532,"diakui</w>":7533,"tepi</w>":7534,"dimainkan</w>":7535,"poin</w>":7536,"resm":7537,"1971</w>":7538,"patung</w>":7539,"mundur</w>":7540,"olah</w>":7541,"menghancurkan</w>":7542,"semi":7543,"usalem</w>":7544,"sul</w>":7545,"Kristus</w>":7546,"indah</w>":7547,"odo":7548,"oki</w>":7549,"Ukra":7550,"bahaya</w>":7551,"putranya</w>":7552,"asinya</w>":7553,"Eng":7554,"menghin":7555,"Mam":7556,"ski</w>":7557,"pembalap</w>":7558,".)</w>":7559,"Palestina</w>":7560,"1963</w>":7561,"ies</w>":7562,"migrasi</w>":7563,"markas</w>":7564,"situasi</w>":7565,"danau</w>":7566,"apapun</w>":7567,"iksa</w>":7568,"karbon</w>":7569,"duh</w>":7570,"itu":7571,"oran</w>":7572,"nel</w>":7573,"Baba":7574,"kontes</w>":7575,"doks</w>":7576,"Lum":7577,"kepentingan</w>":7578,"Moham":7579,"Beli":7580,"hadir</w>":7581,"oli":7582,"Dra":7583,"tad":7584,"olok</w>":7585,"ahu</w>":7586,"animasi</w>":7587,"fan</w>":7588,"ografis</w>":7589,"gubernur</w>":7590,"dikel":7591,"One</w>":7592,"PE":7593,"Final</w>":7594,"mengumpulkan</w>":7595,"Hingga</w>":7596,"aminya</w>":7597,"1966</w>":7598,"menetapkan</w>":7599,"peme":7600,"form</w>":7601,"nuklir</w>":7602,"person":7603,"ill</w>":7604,"ven</w>":7605,"rin":7606,"dimasukkan</w>":7607,"keag":7608,"menandatangani</w>":7609,"Kuno</w>":7610,"konsen":7611,"mad":7612,"dipe":7613,"singkat</w>":7614,"Joseph</w>":7615,"log":7616,"efektif</w>":7617,"Tep":7618,"ario</w>":7619,"eritakan</w>":7620,"pembe":7621,"aspek</w>":7622,"Indu":7623,"Der":7624,"cera</w>":7625,"ily</w>":7626,"ome</w>":7627,"lek</w>":7628,"keluarkan</w>":7629,"nek":7630,"Sto":7631,"Jenis</w>":7632,"ditentukan</w>":7633,"sepu":7634,"unik</w>":7635,"parlemen</w>":7636,"toph":7637,"spek":7638,"Anton":7639,"permintaan</w>":7640,"Stre":7641,"butnya</w>":7642,"Sor":7643,"beserta</w>":7644,"bio":7645,"pemer":7646,"kecelakaan</w>":7647,"Vir":7648,"Video</w>":7649,"Flor":7650,"ID</w>":7651,"PP":7652,"Kin":7653,"if</w>":7654,"tenggara</w>":7655,"Bahkan</w>":7656,"teater</w>":7657,"ov</w>":7658,"gene":7659,"saw":7660,"hubung</w>":7661,"tahunan</w>":7662,"Demografi</w>":7663,"Skotlandia</w>":7664,"matik</w>":7665,"Argen":7666,"ashi</w>":7667,"ditamp":7668,"kesa":7669,"Star</w>":7670,"bendera</w>":7671,"dekade</w>":7672,"258":7673,"Sup":7674,"1962</w>":7675,"layan</w>":7676,"sebab</w>":7677,"pernyataan</w>":7678,"lisasi</w>":7679,"Konstan":7680,"pelajaran</w>":7681,"Sang":7682,"old</w>":7683,"1949</w>":7684,"aca</w>":7685,"molekul</w>":7686,"Luar</w>":7687,"mengklaim</w>":7688,"okan</w>":7689,"mengangkat</w>":7690,"demok":7691,"ujian</w>":7692,"antena</w>":7693,"1964</w>":7694,"way":7695,"cti":7696,"melan":7697,"Mahkamah</w>":7698,"wargan":7699,"Sekretaris</w>":7700,"Bab":7701,"lata</w>":7702,"ukannya</w>":7703,"237":7704,"itra</w>":7705,"tayang</w>":7706,"memben":7707,"Seorang</w>":7708,"Abdul":7709,"long":7710,"kul":7711,"berkuasa</w>":7712,"ormal</w>":7713,"dikeluarkan</w>":7714,"ahasa</w>":7715,"cenderung</w>":7716,"Pakistan</w>":7717,"jangka</w>":7718,"peraturan</w>":7719,"pasti</w>":7720,"Que":7721,"kematiannya</w>":7722,"inginan</w>":7723,"lot</w>":7724,"Ukraina</w>":7725,"kucing</w>":7726,"Panas</w>":7727,"mena</w>":7728,"ornya</w>":7729,"ahami</w>":7730,"huni</w>":7731,"dalikan</w>":7732,"tohnya</w>":7733,"Begonia</w>":7734,"1930</w>":7735,"pemuda</w>":7736,"Haw":7737,"Sali":7738,"legen":7739,"Sido":7740,"bot</w>":7741,"De</w>":7742,"Cur":7743,"Kategori</w>":7744,"1940</w>":7745,"ektor</w>":7746,"tesis</w>":7747,"terjadinya</w>":7748,"von</w>":7749,"menikahi</w>":7750,"ajar</w>":7751,"Miconia</w>":7752,"Khan</w>":7753,"ajah</w>":7754,"elektronik</w>":7755,"bandar</w>":7756,"teg":7757,"Best</w>":7758,"lembap</w>":7759,"he</w>":7760,"John":7761,"dinamai</w>":7762,"label</w>":7763,"Ul":7764,"kendali</w>":7765,"kologi</w>":7766,"Nu":7767,"nit":7768,"Manch":7769,"gabungkan</w>":7770,"DPR</w>":7771,"dt</w>":7772,"kop":7773,"Proses</w>":7774,"memerintahkan</w>":7775,"Sus":7776,"KT":7777,"Revolusi</w>":7778,"hai</w>":7779,"Tre":7780,"zo</w>":7781,"ander</w>":7782,"kejahatan</w>":7783,"oshi":7784,"membi":7785,"Dur":7786,"His":7787,"Vil":7788,"seniman</w>":7789,"lingi</w>":7790,"ings</w>":7791,"Le</w>":7792,"fla":7793,"cita</w>":7794,"ant</w>":7795,"todoks</w>":7796,"pendapatan</w>":7797,"aslinya</w>":7798,"pole":7799,"hasilan</w>":7800,"berkompetisi</w>":7801,"perkebunan</w>":7802,"Pasifik</w>":7803,"Lalu</w>":7804,"koleksi</w>":7805,"Muara</w>":7806,"fera</w>":7807,"Ng":7808,"pengadilan</w>":7809,"dinasti</w>":7810,"diciptakan</w>":7811,"onegoro</w>":7812,"Awal</w>":7813,"sad":7814,"County</w>":7815,"jangan</w>":7816,"300":7817,"Bola</w>":7818,"Akan</w>":7819,"persegi</w>":7820,"ketidak":7821,"altern":7822,"harjo</w>":7823,"tropis</w>":7824,"Associ":7825,"diren":7826,"ach</w>":7827,"jala</w>":7828,"Man</w>":7829,"Protestan</w>":7830,"hel":7831,"Mik":7832,"PD":7833,"terbanyak</w>":7834,"kualifikasi</w>":7835,"ancam</w>":7836,"rus":7837,"mbu</w>":7838,"persi":7839,"248":7840,"berpengaruh</w>":7841,"kawan</w>":7842,"pelatihan</w>":7843,"ayam</w>":7844,"melainkan</w>":7845,"menceritakan</w>":7846,"madi":7847,"ibad":7848,"dum</w>":7849,"bawa</w>":7850,"armada</w>":7851,"jantung</w>":7852,"infeksi</w>":7853,"Meski</w>":7854,"bertujuan</w>":7855,"ese</w>":7856,"ayakan</w>":7857,"Shin":7858,"alin</w>":7859,"sumsi</w>":7860,"Parlemen</w>":7861,"boleh</w>":7862,"jemahkan</w>":7863,"Ny":7864,"himpunan</w>":7865,"1961</w>":7866,"sil</w>":7867,"apar":7868,"Slo":7869,"dihad":7870,"tistik</w>":7871,"kalau</w>":7872,"fah</w>":7873,"gagasan</w>":7874,"independen</w>":7875,"izinkan</w>":7876,"You":7877,"makhluk</w>":7878,"Kudus</w>":7879,"wegia</w>":7880,"penger":7881,"keuntungan</w>":7882,"unggul":7883,"kertas</w>":7884,"amer":7885,"AI":7886,"melin":7887,"Yerusalem</w>":7888,"tun</w>":7889,"aksara</w>":7890,"kasih</w>":7891,"diperoleh</w>":7892,"arsitektur</w>":7893,"Portugis</w>":7894,"sinetron</w>":7895,"Had":7896,"kulu</w>":7897,"Direktur</w>":7898,"semacam</w>":7899,"perlindungan</w>":7900,"Mari":7901,"Hak</w>":7902,"Sci":7903,"sesan</w>":7904,"fesor</w>":7905,"tergantung</w>":7906,"kuh</w>":7907,"volume</w>":7908,"melahirkan</w>":7909,"perlu":7910,"Cin":7911,"Menengah</w>":7912,"Eugenia</w>":7913,"PS</w>":7914,"Irak</w>":7915,"atu":7916,"pele":7917,"chus</w>":7918,"senga":7919,"ance</w>":7920,"berlokasi</w>":7921,"dipindahkan</w>":7922,"menyelam":7923,"tures</w>":7924,"Nabi</w>":7925,"jembatan</w>":7926,"Peru":7927,"lywood</w>":7928,"cipta</w>":7929,"kang</w>":7930,"meluncurkan</w>":7931,"usulkan</w>":7932,"lines</w>":7933,"Harry</w>":7934,"Kebudayaan</w>":7935,"dikarenakan</w>":7936,"oso":7937,"1946</w>":7938,"Dewa</w>":7939,"rumput</w>":7940,"her</w>":7941,"menyem":7942,"Kir":7943,"gatif</w>":7944,"maan</w>":7945,"diting":7946,"kep":7947,"memperkenalkan</w>":7948,"osiasi</w>":7949,"egi</w>":7950,"uskup</w>":7951,"day</w>":7952,"imam</w>":7953,"Perse":7954,"ace</w>":7955,"peringatan</w>":7956,"sambil</w>":7957,"diu":7958,"Kontes</w>":7959,"aram</w>":7960,"egan</w>":7961,"gemar</w>":7962,"keagamaan</w>":7963,"suaminya</w>":7964,"ditampilkan</w>":7965,"elola</w>":7966,"Nur":7967,"257":7968,"Corpor":7969,"menghil":7970,"golongan</w>":7971,"xia</w>":7972,"Dou":7973,"tawar":7974,"kering</w>":7975,"Kuala</w>":7976,"ekstr":7977,"ath</w>":7978,"Berlin</w>":7979,"Kab":7980,"ship</w>":7981,"ren</w>":7982,"membah":7983,"Nan":7984,"Hali":7985,"menentang</w>":7986,"Argentina</w>":7987,"angkasa</w>":7988,"batnya</w>":7989,"95":7990,"1959</w>":7991,"gmen</w>":7992,"Seku":7993,"omo":7994,"Lay":7995,"Saw":7996,"Bam":7997,"Wash":7998,"MP":7999,"baikan</w>":8000,"kerto</w>":8001,"induk</w>":8002,"Khu":8003,"well</w>":8004,"sarjana</w>":8005,"stri":8006,"presen":8007,"paskan</w>":8008,"Dewi</w>":8009,"ijing</w>":8010,"tz":8011,"konom":8012,"dilahirkan</w>":8013,"Colle":8014,"Santa</w>":8015,"Ai":8016,"ez</w>":8017,"semi</w>":8018,"Sinopsis</w>":8019,"puk</w>":8020,"anggung</w>":8021,"Bupres":8022,"arki</w>":8023,"Dre":8024,"kis</w>":8025,"formal</w>":8026,"bir</w>":8027,"gampong</w>":8028,"Sosial</w>":8029,"Portugal</w>":8030,"ender</w>":8031,"ste":8032,"bandara</w>":8033,"baskan</w>":8034,"Edward</w>":8035,"bayi</w>":8036,"Penggunaan</w>":8037,"Rem":8038,"ague</w>":8039,"Sepak</w>":8040,"Ty":8041,"ilmuwan</w>":8042,"warganegaraan</w>":8043,"Angeles</w>":8044,"1958</w>":8045,"255":8046,"konsentrasi</w>":8047,"sy</w>":8048,"Norwegia</w>":8049,"sasa</w>":8050,"tasikan</w>":8051,"bing</w>":8052,"ves":8053,"padang</w>":8054,"Rho":8055,"sehi</w>":8056,"dibawah</w>":8057,"padat</w>":8058,"Utsman":8059,"opo":8060,"Me</w>":8061,"ety</w>":8062,"wayat</w>":8063,"matis</w>":8064,"onta":8065,"Pesawat</w>":8066,"Kamp":8067,"Nya</w>":8068,"Nusantara</w>":8069,"Scaraba":8070,"dibunuh</w>":8071,"Vene":8072,"musisi</w>":8073,"Suriah</w>":8074,"Sco":8075,"lubang</w>":8076,"telepon</w>":8077,"Center</w>":8078,"nas</w>":8079,"nektar</w>":8080,"with</w>":8081,"Apo":8082,"Kawasan</w>":8083,"OS</w>":8084,"BA</w>":8085,"con</w>":8086,"Imam</w>":8087,"jaan</w>":8088,"abah</w>":8089,"ses":8090,"Manusia</w>":8091,"mengungkapkan</w>":8092,"Pah":8093,"dahan</w>":8094,"Versi</w>":8095,"Manda":8096,"menghindari</w>":8097,"256":8098,"buktikan</w>":8099,"ple</w>":8100,"mewa</w>":8101,"pengusaha</w>":8102,"syarat</w>":8103,"diganti</w>":8104,"melaporkan</w>":8105,"khiri</w>":8106,"Hit":8107,"plat</w>":8108,"agak</w>":8109,"sejarawan</w>":8110,"mengund":8111,"319":8112,"cher</w>":8113,"Gon":8114,"kerjasama</w>":8115,"VII</w>":8116,"Biografi</w>":8117,"307":8118,"tampaknya</w>":8119,"lelu":8120,"stadion</w>":8121,"119":8122,"Muda</w>":8123,"udra</w>":8124,"memuat</w>":8125,"eo":8126,"kena</w>":8127,"larva</w>":8128,")\"</w>":8129,"end</w>":8130,"Metro</w>":8131,"setidaknya</w>":8132,"244":8133,"format</w>":8134,"cin":8135,"Aku</w>":8136,"gangguan</w>":8137,"dokteran</w>":8138,"caman</w>":8139,"iklan</w>":8140,"308":8141,"kuliah</w>":8142,"sengaja</w>":8143,"ruangan</w>":8144,"bli":8145,"sum</w>":8146,"membaca</w>":8147,"bertindak</w>":8148,"mengakhiri</w>":8149,"Bac":8150,"menghen":8151,"m2</w>":8152,"Genus</w>":8153,"kapan</w>":8154,"Ox":8155,"She":8156,"1947</w>":8157,"tw":8158,"koordin":8159,"deka</w>":8160,"eksi</w>":8161,"mengam":8162,"ois</w>":8163,"tuh</w>":8164,"Johan":8165,"dilaporkan</w>":8166,"Pran":8167,"Tingkat</w>":8168,"lim":8169,"pari":8170,"Awalnya</w>":8171,"menetap</w>":8172,"let":8173,"Beijing</w>":8174,"toritas</w>":8175,"keten":8176,"egis</w>":8177,"menghar":8178,"bakteri</w>":8179,"identitas</w>":8180,"kolabor":8181,"ajat</w>":8182,"matematika</w>":8183,"osari</w>":8184,"toria</w>":8185,"marga</w>":8186,"ks":8187,"coun":8188,"BS</w>":8189,"tos</w>":8190,"Washington</w>":8191,"pir":8192,"ular</w>":8193,"Matahari</w>":8194,"rangkaian</w>":8195,"cri":8196,"laga</w>":8197,"600</w>":8198,"aton</w>":8199,"tank</w>":8200,"mann</w>":8201,"belan":8202,"kekaisaran</w>":8203,"Studi</w>":8204,"hotel</w>":8205,"pagi</w>":8206,"Industri</w>":8207,"ón</w>":8208,"nor":8209,"dialek</w>":8210,"gelap</w>":8211,"Daniel</w>":8212,"279":8213,"reli":8214,"kunci</w>":8215,"155":8216,"olog</w>":8217,"reg":8218,"lisme</w>":8219,"South</w>":8220,"berganti</w>":8221,"ovision</w>":8222,"faat</w>":8223,"dor</w>":8224,"King</w>":8225,"od":8226,"larang</w>":8227,"sihan</w>":8228,"East</w>":8229,"Tel":8230,"penc":8231,"menambahkan</w>":8232,"blo":8233,"pemas":8234,"polen</w>":8235,"pajak</w>":8236,"sejenis</w>":8237,"siapa</w>":8238,"bertelur</w>":8239,"bitan</w>":8240,"tasan</w>":8241,"polisian</w>":8242,"Ortodoks</w>":8243,"pedia</w>":8244,"Situs</w>":8245,"diduga</w>":8246,"fisika</w>":8247,"kontrol</w>":8248,"omy":8249,"Tephri":8250,"jir</w>":8251,"sosiasi</w>":8252,"Radio</w>":8253,"cal</w>":8254,"inten":8255,"perannya</w>":8256,"padi</w>":8257,"Hotel</w>":8258,"menyimp":8259,"menempatkan</w>":8260,"alternatif</w>":8261,"Che":8262,"Pegunungan</w>":8263,"kekerasan</w>":8264,"\"(</w>":8265,"dokumen":8266,"Putih</w>":8267,"lambang</w>":8268,"lolos</w>":8269,"Bombyliidae</w>":8270,"hiburan</w>":8271,"pasir</w>":8272,"kati</w>":8273,"klar":8274,"SMK</w>":8275,"sey</w>":8276,"ancang</w>":8277,"dipengaruhi</w>":8278,"donia</w>":8279,"astron":8280,"enggaraan</w>":8281,"dianuger":8282,"ungannya</w>":8283,"benua</w>":8284,"Batang</w>":8285,"dram":8286,"Paulus</w>":8287,"New":8288,"ero</w>":8289,"asiswa</w>":8290,"lulusan</w>":8291,"SA":8292,"ulama</w>":8293,"Syar":8294,"field</w>":8295,"Geografi</w>":8296,"Ras":8297,"edral</w>":8298,"120</w>":8299,"genre</w>":8300,"dney</w>":8301,"negatif</w>":8302,"dinal</w>":8303,"doa</w>":8304,"Gil":8305,"wah":8306,"internet</w>":8307,"setahun</w>":8308,"bun</w>":8309,"cad":8310,"bangkit</w>":8311,"KA</w>":8312,"pengganti</w>":8313,"Sub":8314,"myza</w>":8315,"250</w>":8316,"campur</w>":8317,"paruh</w>":8318,"nah</w>":8319,"peman":8320,"CD</w>":8321,"Catatan</w>":8322,"mais":8323,"andra</w>":8324,"mengundurkan</w>":8325,"gua</w>":8326,"Bangunan</w>":8327,"saudaranya</w>":8328,"efisi":8329,"lawanan</w>":8330,"Produ":8331,"materi</w>":8332,"lemen":8333,"Peneli":8334,"menyelamatkan</w>":8335,"Pengadilan</w>":8336,"tone</w>":8337,"kritikus</w>":8338,"aktiv":8339,"pene":8340,"ple":8341,"Dat":8342,"cocok</w>":8343,"kejuaraan</w>":8344,"ovasi</w>":8345,"elektron</w>":8346,"Aug":8347,"yur</w>":8348,"atiens</w>":8349,"Administr":8350,"CE":8351,"perjuangan</w>":8352,"over":8353,"ish</w>":8354,"356":8355,"kontribusi</w>":8356,"cak":8357,"Corporation</w>":8358,"gugur</w>":8359,"uhnya</w>":8360,"Guru</w>":8361,"isisi</w>":8362,"tum":8363,"ogle</w>":8364,"F1</w>":8365,"dll</w>":8366,"Jati":8367,"Impatiens</w>":8368,"saing</w>":8369,"regu":8370,"menara</w>":8371,"ams</w>":8372,"gula</w>":8373,"wara</w>":8374,"teristik</w>":8375,"jaz":8376,"beliau</w>":8377,"litan</w>":8378,"sepakatan</w>":8379,"Komunis</w>":8380,"mbangkan</w>":8381,"Penga":8382,"garapan</w>":8383,"1920</w>":8384,"untut</w>":8385,"seng":8386,"ild</w>":8387,"pah</w>":8388,"menyadari</w>":8389,"oksida</w>":8390,"Indo":8391,"dikan</w>":8392,"serangkaian</w>":8393,"osok</w>":8394,"selamat</w>":8395,"inda</w>":8396,"Van</w>":8397,"Sim":8398,"sapi</w>":8399,"Nazi</w>":8400,"%,</w>":8401,"menderita</w>":8402,"pangkat</w>":8403,"Produksi</w>":8404,"organik</w>":8405,"bentuknya</w>":8406,"seudo":8407,"Ear":8408,"kasikan</w>":8409,"Drs</w>":8410,"cha</w>":8411,"SE":8412,"trus</w>":8413,"TA</w>":8414,"bupati</w>":8415,"Brun":8416,"College</w>":8417,"1957</w>":8418,"Fal":8419,"ope</w>":8420,"Gus":8421,"Sir":8422,"inspirasi</w>":8423,"Gab":8424,"paten</w>":8425,"osa</w>":8426,"gigi</w>":8427,"Abdullah</w>":8428,"Fasilitas</w>":8429,"Za":8430,"Pengem":8431,"anyar</w>":8432,"har</w>":8433,"perayaan</w>":8434,"Hanya</w>":8435,"terkadang</w>":8436,"SI</w>":8437,"normal</w>":8438,"ball</w>":8439,"karno</w>":8440,"Hilir</w>":8441,"maz":8442,"anime</w>":8443,"sk":8444,"Suka":8445,"tics</w>":8446,"dimin":8447,"ange</w>":8448,"lorida</w>":8449,"berlanjut</w>":8450,"pul":8451,"Faba":8452,"MA</w>":8453,"sium</w>":8454,"Hak":8455,"1956</w>":8456,"dipercaya</w>":8457,"islatif</w>":8458,"unior</w>":8459,"rel</w>":8460,"menyebar</w>":8461,"game</w>":8462,"rom</w>":8463,"Buprestidae</w>":8464,"unggulan</w>":8465,"lyon</w>":8466,"Ze":8467,"ayan</w>":8468,"Cre":8469,"bel":8470,"kadar</w>":8471,"án</w>":8472,"tasnya</w>":8473,"wijaya</w>":8474,"Empat</w>":8475,"Ma</w>":8476,"247":8477,"tidur</w>":8478,"harian</w>":8479,"85":8480,"roda</w>":8481,"pekan</w>":8482,"Chan":8483,"ffice</w>":8484,"mengajukan</w>":8485,"tambah</w>":8486,"menyerahkan</w>":8487,"ail</w>":8488,"Tangerang</w>":8489,"terjun</w>":8490,"filsafat</w>":8491,"1944</w>":8492,"surya</w>":8493,"CC":8494,"gaskan</w>":8495,"Alexander</w>":8496,"lac":8497,"El</w>":8498,"Lima</w>":8499,"League</w>":8500,"Shar":8501,"multi":8502,"pendudukan</w>":8503,"ganggu</w>":8504,"Mataram</w>":8505,"Zaman</w>":8506,"edi":8507,"meriam</w>":8508,"Vin":8509,"pembuat</w>":8510,"Kul":8511,"Song</w>":8512,"hendak</w>":8513,"icu</w>":8514,"akkan</w>":8515,"layahnya</w>":8516,"menia</w>":8517,"semangat</w>":8518,"eidae</w>":8519,"Tujuan</w>":8520,"gri":8521,"memanfaatkan</w>":8522,"torat</w>":8523,"taw":8524,"Buk":8525,"jong</w>":8526,"Asa":8527,"Pertahanan</w>":8528,"Serial</w>":8529,"kombin":8530,"pasal</w>":8531,"kemuka</w>":8532,"emo":8533,"rekor</w>":8534,"semes":8535,"puas</w>":8536,"kamar</w>":8537,"jin</w>":8538,"lamela</w>":8539,"Pondok</w>":8540,"Wanita</w>":8541,"AL</w>":8542,"Asosiasi</w>":8543,"Ky":8544,"ddin</w>":8545,"setu":8546,"ilannya</w>":8547,"Palembang</w>":8548,"kampus</w>":8549,"bih</w>":8550,"Selandia</w>":8551,"ibadah</w>":8552,"In</w>":8553,"pikir</w>":8554,"Sol":8555,"kim</w>":8556,"Sri":8557,"lemah</w>":8558,"Gel":8559,"Kre":8560,"Scarabaeidae</w>":8561,"Misalnya</w>":8562,"ilah</w>":8563,"Mas</w>":8564,"bukanlah</w>":8565,"ilot</w>":8566,"medis</w>":8567,"izin</w>":8568,"Sakit</w>":8569,"rahasia</w>":8570,"Mali":8571,"kartu</w>":8572,"Prof</w>":8573,"Konstitusi</w>":8574,"pemilu</w>":8575,"Chry":8576,"Lad":8577,"AD":8578,"gak</w>":8579,"fanteri</w>":8580,"mpan</w>":8581,"Surakarta</w>":8582,"dikalahkan</w>":8583,"cial</w>":8584,"ason</w>":8585,"sinar</w>":8586,"los</w>":8587,"klu":8588,"Demokrat</w>":8589,"IB</w>":8590,"Tapi</w>":8591,"bergantung</w>":8592,"lindung</w>":8593,"pelajar</w>":8594,"lambat</w>":8595,"270":8596,"itulah</w>":8597,"menangkap</w>":8598,"raksasa</w>":8599,"kabel</w>":8600,"299":8601,"manga</w>":8602,"Smit":8603,"pembawa</w>":8604,"off</w>":8605,"pegawai</w>":8606,"jahat</w>":8607,"harapan</w>":8608,"mengalir</w>":8609,"king</w>":8610,"terkemuka</w>":8611,"prose":8612,"ere</w>":8613,"komposisi</w>":8614,"Jembatan</w>":8615,"Wol":8616,"kepadatan</w>":8617,"wujud</w>":8618,"Sun</w>":8619,"pelun":8620,"minuman</w>":8621,"Eurovision</w>":8622,"besaran</w>":8623,"lius</w>":8624,"perawatan</w>":8625,"dung":8626,"tulis</w>":8627,"ust</w>":8628,"aat</w>":8629,"senior</w>":8630,"jurusan</w>":8631,"Jadi</w>":8632,"menyelenggarakan</w>":8633,"hadiah</w>":8634,"Bai":8635,"buruh</w>":8636,"kalis</w>":8637,"sioner</w>":8638,"alum":8639,"rahim</w>":8640,"pelatih</w>":8641,"Dayak</w>":8642,"manapun</w>":8643,"ditutup</w>":8644,"Camp":8645,"interaksi</w>":8646,"Penye":8647,"ew</w>":8648,"over</w>":8649,"vision</w>":8650,"ontalo</w>":8651,"aha</w>":8652,"ters":8653,"komandan</w>":8654,"section</w>":8655,"komotif</w>":8656,"1955</w>":8657,"isu</w>":8658,"309":8659,"ditambah</w>":8660,"kolonial</w>":8661,"baja</w>":8662,"Royal</w>":8663,"rac":8664,"tip</w>":8665,"geng</w>":8666,"pensiun</w>":8667,"malaya</w>":8668,"ement</w>":8669,"Google</w>":8670,"180":8671,"Bentuk</w>":8672,"Sys":8673,"Anda</w>":8674,"Adapun</w>":8675,"siaran</w>":8676,"sekutu</w>":8677,"oh</w>":8678,"ng":8679,"Daya</w>":8680,"soft</w>":8681,"alau</w>":8682,"Internet</w>":8683,"setuju</w>":8684,"organisme</w>":8685,"menyam":8686,"1941</w>":8687,"terial</w>":8688,"arke":8689,"maisuri</w>":8690,"tius</w>":8691,"tahta</w>":8692,"Masehi</w>":8693,"Blo":8694,"gainya</w>":8695,"menyi":8696,"menun":8697,"temannya</w>":8698,"Model</w>":8699,"diharapkan</w>":8700,"340":8701,"gempa</w>":8702,"sky</w>":8703,"feren":8704,"/&</w>":8705,"spi":8706,"balap</w>":8707,"promosi</w>":8708,"bra</w>":8709,"diatur</w>":8710,"Panjang</w>":8711,"berpindah</w>":8712,"kuit</w>":8713,"Sampai</w>":8714,"bakat</w>":8715,"jikan</w>":8716,"Tex":8717,"ges</w>":8718,"membintangi</w>":8719,"Salvia</w>":8720,"disimpan</w>":8721,"prestasi</w>":8722,"sepeda</w>":8723,"Komando</w>":8724,"lavia</w>":8725,"hadapan</w>":8726,"pecah</w>":8727,"kelapa</w>":8728,"Kela":8729,"160":8730,"tre</w>":8731,"atap</w>":8732,"diar":8733,"keben":8734,"yama</w>":8735,"800</w>":8736,"rasi":8737,"Disney</w>":8738,"air":8739,"tersisa</w>":8740,"med</w>":8741,"daceae</w>":8742,"mpah</w>":8743,"Armenia</w>":8744,"mahan</w>":8745,"Boe":8746,"Tanggal</w>":8747,"Abad</w>":8748,"run":8749,"gran":8750,"NAS":8751,"Bengkulu</w>":8752,"Formula</w>":8753,"meski</w>":8754,"Club</w>":8755,"tom":8756,"Bek":8757,"Balai</w>":8758,"beragama</w>":8759,"Py":8760,"berta":8761,"tish</w>":8762,"pemikiran</w>":8763,"madiyah</w>":8764,"Tephritidae</w>":8765,"Tata</w>":8766,"Cro":8767,"prasasti</w>":8768,"266":8769,"tinus</w>":8770,"salam</w>":8771,"Saudi</w>":8772,"Pertandingan</w>":8773,"ac</w>":8774,"tolak</w>":8775,"mengirimkan</w>":8776,"bour":8777,"damai</w>":8778,"kaca</w>":8779,"menjad":8780,"ip":8781,"wawan":8782,"Pil":8783,"bis</w>":8784,"Sekutu</w>":8785,"Episode</w>":8786,"lebihan</w>":8787,"”.</w>":8788,"takkan</w>":8789,"oton":8790,"roman":8791,"Myr":8792,"resmikan</w>":8793,"gantian</w>":8794,"ditandai</w>":8795,"setara</w>":8796,"Utsmaniyah</w>":8797,"penamp":8798,"Records</w>":8799,"Super":8800,"MI</w>":8801,"io":8802,"perak</w>":8803,"Sekitar</w>":8804,"rusak</w>":8805,"mos":8806,"direktur</w>":8807,"menak":8808,"baiki</w>":8809,"tform</w>":8810,"240":8811,"AD</w>":8812,"Aspar":8813,"mam":8814,"Kisah</w>":8815,"Nat":8816,"bermu":8817,"348":8818,"Cos":8819,"Hat":8820,"mendengar</w>":8821,"Association</w>":8822,"kebebasan</w>":8823,"instr":8824,"Peraturan</w>":8825,"of":8826,"1952</w>":8827,"foto":8828,"Natal</w>":8829,"UU</w>":8830,"festival</w>":8831,"sensi</w>":8832,"muncul":8833,"logi</w>":8834,"invasi</w>":8835,"Terminal</w>":8836,"angkabau</w>":8837,"ido":8838,"Neptun":8839,"Ton":8840,"blok</w>":8841,"dikelola</w>":8842,"pasien</w>":8843,"Dom":8844,"pers</w>":8845,"tujukan</w>":8846,"West</w>":8847,"Rp</w>":8848,"Pengembangan</w>":8849,"Rol":8850,"SK</w>":8851,"Ha</w>":8852,"adegan</w>":8853,"hitungan</w>":8854,"kepadanya</w>":8855,"1943</w>":8856,"Allium</w>":8857,"can</w>":8858,"binatang</w>":8859,"Wales</w>":8860,"sea</w>":8861,"357":8862,"mil":8863,"wana</w>":8864,"oloph":8865,"All</w>":8866,"dipen":8867,"Tun":8868,"kes</w>":8869,"tahannya</w>":8870,"Ketiga</w>":8871,"plas":8872,"fung":8873,"hek":8874,"ribu</w>":8875,"encana</w>":8876,"asit</w>":8877,"ogan</w>":8878,"Bapak</w>":8879,"kukannya</w>":8880,"dekatan</w>":8881,"vak":8882,"Federasi</w>":8883,"Persatuan</w>":8884,"pangeran</w>":8885,"Jambi</w>":8886,"meta":8887,"Tipu":8888,"Golden</w>":8889,"tte</w>":8890,"ancaman</w>":8891,"carian</w>":8892,"lora</w>":8893,"Pertanian</w>":8894,"Ayahnya</w>":8895,"Maz":8896,"jungan</w>":8897,"zh":8898,"selu":8899,"mengisi</w>":8900,"penyelenggaraan</w>":8901,"och":8902,"alian</w>":8903,"Gan":8904,"dipas":8905,"asnya</w>":8906,"oro":8907,"ort</w>":8908,"ction</w>":8909,"jaman</w>":8910,"penggemar</w>":8911,"detik</w>":8912,"Rat":8913,"memerlukan</w>":8914,"dibutuhkan</w>":8915,"fra":8916,"perangan</w>":8917,"):</w>":8918,"bama</w>":8919,"terbaru</w>":8920,"RS":8921,"asakan</w>":8922,"kekalahan</w>":8923,"cla":8924,"Inde":8925,"dimakamkan</w>":8926,"Airlines</w>":8927,"urunan</w>":8928,"pencah":8929,"vir":8930,"duhan</w>":8931,"bulat</w>":8932,"Teori</w>":8933,"Luk":8934,"Karak":8935,"day":8936,"teksi</w>":8937,"super":8938,"membayar</w>":8939,"je</w>":8940,"agales</w>":8941,"muka</w>":8942,"Minahasa</w>":8943,"Ev":8944,"waan</w>":8945,"otomatis</w>":8946,"penemuan</w>":8947,"Black</w>":8948,"mempengaruhi</w>":8949,"ova</w>":8950,"pendirian</w>":8951,"Tum":8952,"bencana</w>":8953,"debutnya</w>":8954,"eksekutif</w>":8955,"ico</w>":8956,"sah</w>":8957,"Penelitian</w>":8958,"Sai":8959,"Asparagales</w>":8960,"cac":8961,"dilanjutkan</w>":8962,"dias":8963,"rah</w>":8964,"277":8965,"kakak</w>":8966,"Tung":8967,"sahabat</w>":8968,"pelaksanaan</w>":8969,"Politik</w>":8970,"Squ":8971,"ditujukan</w>":8972,"baris</w>":8973,"OC</w>":8974,"PK":8975,"sikap</w>":8976,"Solo</w>":8977,"konsumsi</w>":8978,"Vis":8979,"sinyal</w>":8980,"memberi":8981,"sk</w>":8982,"VD</w>":8983,"memperkuat</w>":8984,"110</w>":8985,"jakan</w>":8986,"Minangkabau</w>":8987,"',</w>":8988,"win":8989,"Nak":8990,"bervariasi</w>":8991,"ditambahkan</w>":8992,"Gri":8993,"1939</w>":8994,"1954</w>":8995,"Phy":8996,"tungkan</w>":8997,"Mr</w>":8998,"kanker</w>":8999,"zhou</w>":9000,"paru</w>":9001,"dide":9002,"parah</w>":9003,"risiko</w>":9004,"Adam</w>":9005,"tropoli":9006,"yaknya</w>":9007,"Dhar":9008,"wilayahnya</w>":9009,"halnya</w>":9010,"ux</w>":9011,"elola":9012,"Society</w>":9013,"asis":9014,"terpaksa</w>":9015,"Dir":9016,"diyakini</w>":9017,"berturut</w>":9018,"ult</w>":9019,"kolaborasi</w>":9020,"anggan</w>":9021,"meme":9022,"298":9023,"Neptunus</w>":9024,"diresmikan</w>":9025,"sultan</w>":9026,"Tanj":9027,"siap</w>":9028,"dianugerahi</w>":9029,"Pasal</w>":9030,"kara</w>":9031,"yn":9032,"pembagian</w>":9033,"liskan</w>":9034,"terminal</w>":9035,"box</w>":9036,"ces</w>":9037,"menambah</w>":9038,"sih</w>":9039,"Lebih</w>":9040,"Erica</w>":9041,"AL":9042,"PL":9043,"Red</w>":9044,"Manaj":9045,"Chic":9046,"tenis</w>":9047,"Amor</w>":9048,"bong</w>":9049,"ungg":9050,"menghentikan</w>":9051,"sain</w>":9052,"109":9053,"strategis</w>":9054,"melintasi</w>":9055,"Life</w>":9056,"ther":9057,"pesta</w>":9058,"Yor":9059,"fase</w>":9060,"persamaan</w>":9061,"xi</w>":9062,"menyamp":9063,"pingg":9064,"kesepakatan</w>":9065,"hin</w>":9066,"awati":9067,"kenario</w>":9068,"kumpul</w>":9069,"Ron":9070,"Batak</w>":9071,"Tipulidae</w>":9072,"peneliti</w>":9073,"pul</w>":9074,"Cat":9075,"alog</w>":9076,"Kop":9077,"susu</w>":9078,"zabe":9079,"eral</w>":9080,"menjadikannya</w>":9081,"til":9082,"terbukti</w>":9083,"ith</w>":9084,"diterapkan</w>":9085,"Pier":9086,"]],</w>":9087,"Nga":9088,"tawan</w>":9089,"dilantik</w>":9090,"garam</w>":9091,"wajah</w>":9092,"ão</w>":9093,"disusun</w>":9094,"Kra":9095,"dipanggil</w>":9096,"..":9097,"keenam</w>":9098,"kesulitan</w>":9099,"meneg":9100,"347":9101,"Sik":9102,"masala":9103,"partikel</w>":9104,"Biz":9105,"terkena</w>":9106,"nie</w>":9107,"Pul":9108,"apa":9109,"orien":9110,"menangani</w>":9111,"menuntut</w>":9112,"suami</w>":9113,"sebagainya</w>":9114,"1953</w>":9115,"Bill":9116,"carkan</w>":9117,"British</w>":9118,"Proyek</w>":9119,"XX":9120,"Yusu":9121,"bersaudara</w>":9122,"upsi</w>":9123,"yphi":9124,"investasi</w>":9125,"ib":9126,"kawinan</w>":9127,"Minggu</w>":9128,"Berbagai</w>":9129,"Cerita</w>":9130,"Champions</w>":9131,"berte":9132,"Bran":9133,"feno":9134,"produsen</w>":9135,"lih</w>":9136,"low</w>":9137,"ame</w>":9138,"kain</w>":9139,"359":9140,"kesalahan</w>":9141,"Klub</w>":9142,"UM":9143,"dy":9144,"menyimpan</w>":9145,"suf</w>":9146,"ost</w>":9147,"berk":9148,"tertarik</w>":9149,"wenang</w>":9150,"Jl</w>":9151,"liar</w>":9152,"seekor</w>":9153,"Mary</w>":9154,"taknya</w>":9155,"Struktur</w>":9156,"marah</w>":9157,"solo</w>":9158,"Sehingga</w>":9159,"Microsoft</w>":9160,"selamatan</w>":9161,"Peristiwa</w>":9162,"asul</w>":9163,"non":9164,"timbu":9165,"menek":9166,"cinc":9167,"memerankan</w>":9168,"atik</w>":9169,"Bali":9170,"Tour</w>":9171,"lapis</w>":9172,"Bru":9173,"target</w>":9174,"suksesan</w>":9175,"Pranala</w>":9176,"349":9177,"lih":9178,"stein</w>":9179,"lirik</w>":9180,"tophi":9181,"pay":9182,"iling</w>":9183,"arjo</w>":9184,"inet</w>":9185,"teratur</w>":9186,"gitar</w>":9187,"yphiidae</w>":9188,"ky":9189,"pengunjung</w>":9190,"COV":9191,"Jor":9192,"fri":9193,"kuensi</w>":9194,"Nias</w>":9195,"pendekatan</w>":9196,"Linyphiidae</w>":9197,"mempromosikan</w>":9198,"distribusi</w>":9199,"Komandan</w>":9200,"Dj":9201,"Pekan</w>":9202,"magne":9203,"gali</w>":9204,"kema":9205,"tophilidae</w>":9206,"Referensi</w>":9207,"oso</w>":9208,"Mycetophilidae</w>":9209,"elektro":9210,"Candi</w>":9211,"berdirinya</w>":9212,"dosa</w>":9213,"set":9214,"sekelompok</w>":9215,"char":9216,"Kolon":9217,"mengenakan</w>":9218,"Long</w>":9219,"ze":9220,"diman":9221,"pennis</w>":9222,"Indi":9223,"memasukkan</w>":9224,"mikro":9225,"Tapan":9226,"batuan</w>":9227,"Band</w>":9228,"Bidang</w>":9229,"Babak</w>":9230,"direncanakan</w>":9231,"COVID</w>":9232,"cobaan</w>":9233,"reu":9234,"rup":9235,"tarikan</w>":9236,"346":9237,"proto":9238,"dimensi</w>":9239,"produk":9240,"AC</w>":9241,"strategi</w>":9242,"diadopsi</w>":9243,"'.</w>":9244,"omo</w>":9245,"Waktu</w>":9246,"Asal</w>":9247,"1951</w>":9248,"Periode</w>":9249,"cht</w>":9250,"sisten</w>":9251,"Son":9252,"Kutai</w>":9253,"servasi</w>":9254,"tempor":9255,"its</w>":9256,"Permainan</w>":9257,"biji</w>":9258,"Itu</w>":9259,"Juga</w>":9260,"residen":9261,"Kegiatan</w>":9262,"rid</w>":9263,"menyampaikan</w>":9264,"Billboard</w>":9265,"MS</w>":9266,"sasi</w>":9267,"vic":9268,"Elizabe":9269,"Tapanuli</w>":9270,"rupa</w>":9271,"Gram":9272,"Kak":9273,"hentikan</w>":9274,"teor":9275,"Time</w>":9276,"kg</w>":9277,"358":9278,"ations</w>":9279,"Pter":9280,"terbit</w>":9281,"Luas</w>":9282,"//</w>":9283,"chel":9284,"stru</w>":9285,"Georgia</w>":9286,"tsu</w>":9287,"ditugaskan</w>":9288,"Show</w>":9289,"memin":9290,"269":9291,"laris</w>":9292,"Japan</w>":9293,"ternak</w>":9294,"worejo</w>":9295,"Perubahan</w>":9296,"keinginan</w>":9297,"khawati":9298,"apura</w>":9299,"kehormatan</w>":9300,"larut</w>":9301,"mail</w>":9302,"justru</w>":9303,"agu":9304,"unda":9305,"Pictures</w>":9306,"Op":9307,"mestik</w>":9308,"tertulis</w>":9309,"lari</w>":9310,"pasca</w>":9311,"diterjemahkan</w>":9312,"gawa</w>":9313,"ita":9314,"terlebih</w>":9315,"IA</w>":9316,"pot":9317,"pengakuan</w>":9318,"berang</w>":9319,"140":9320,"otak</w>":9321,"tales</w>":9322,"mig":9323,"It</w>":9324,"Boeing</w>":9325,"budak</w>":9326,"resolusi</w>":9327,"diksi</w>":9328,"DNA</w>":9329,"Simon</w>":9330,"sh</w>":9331,"Ibnu</w>":9332,"RW</w>":9333,"memaksa</w>":9334,"ut":9335,"bersenjata</w>":9336,"geografis</w>":9337,"roti</w>":9338,"Pelabuhan</w>":9339,"zuki</w>":9340,"penulisan</w>":9341,"antren</w>":9342,"pergerakan</w>":9343,"val</w>":9344,"kesenian</w>":9345,"Frank</w>":9346,"definisi</w>":9347,"wang</w>":9348,"Lokasi</w>":9349,"sil":9350,"dup</w>":9351,"kamera</w>":9352,"atah</w>":9353,"diplo":9354,"278":9355,"Duta</w>":9356,"penyebab</w>":9357,"internal</w>":9358,"Clar":9359,"meja</w>":9360,"jol</w>":9361,"both":9362,"bagus</w>":9363,"Gorontalo</w>":9364,"digelar</w>":9365,"sub</w>":9366,"Dah":9367,"irmasi</w>":9368,"urna</w>":9369,"melambangkan</w>":9370,"mengaku</w>":9371,"Street</w>":9372,"ane</w>":9373,"akh":9374,"Smith</w>":9375,"Nun":9376,"Suatu</w>":9377,"kli":9378,"penyimp":9379,"Aster":9380,"Armada</w>":9381,"halus</w>":9382,"Bayern</w>":9383,"Zi":9384,"Habi":9385,"Sama</w>":9386,"inannya</w>":9387,"ominasikan</w>":9388,"pemerintahannya</w>":9389,"rambut</w>":9390,"Liu</w>":9391,"ratu</w>":9392,"unannya</w>":9393,"waris</w>":9394,"andangan</w>":9395,"Shan":9396,"iksaan</w>":9397,"Jun":9398,"kurangnya</w>":9399,"Batalyon</w>":9400,"Tay":9401,"101</w>":9402,"BP":9403,"Keuangan</w>":9404,"tho":9405,"pembukaan</w>":9406,"130</w>":9407,"yakinan</w>":9408,"seiring</w>":9409,"gejala</w>":9410,"Jack</w>":9411,"Don</w>":9412,"isco</w>":9413,"Sad":9414,"sili</w>":9415,"lelaki</w>":9416,"ix</w>":9417,"nada</w>":9418,"oka</w>":9419,"time</w>":9420,"menon":9421,"Hay":9422,"ish":9423,"track</w>":9424,"gambaran</w>":9425,"Clo":9426,"try</w>":9427,"beng":9428,"regional</w>":9429,"Api</w>":9430,"239":9431,"Liber":9432,"Qur</w>":9433,"matera</w>":9434,"cairan</w>":9435,"Mata</w>":9436,"pra</w>":9437,"Soekarno</w>":9438,"zer</w>":9439,"kebi":9440,"dron</w>":9441,"Dal":9442,"encan":9443,"dipandang</w>":9444,"sida</w>":9445,"Sydney</w>":9446,"Glen":9447,"Erica":9448,"peta</w>":9449,"eh</w>":9450,"TI</w>":9451,"itnya</w>":9452,"Isa":9453,"sawah</w>":9454,"100":9455,"sang":9456,"Tokoh</w>":9457,"Mark</w>":9458,"warisan</w>":9459,"won</w>":9460,"dino":9461,"Konferensi</w>":9462,"far":9463,"dibantu</w>":9464,"ticidae</w>":9465,"spon":9466,"TV":9467,"menerapkan</w>":9468,"Bekasi</w>":9469,"Sosi":9470,"berangkat</w>":9471,"Khusus</w>":9472,"Elizabeth</w>":9473,"dipasang</w>":9474,"hire</w>":9475,"Salticidae</w>":9476,"terdaftar</w>":9477,"Bob</w>":9478,"elolaan</w>":9479,"Muhammadiyah</w>":9480,"olehkan</w>":9481,"andu</w>":9482,"Gala":9483,"par</w>":9484,"pencarian</w>":9485,"uli":9486,"Play":9487,"akur":9488,"Panglima</w>":9489,"menyukai</w>":9490,"Arthur</w>":9491,"Tang</w>":9492,"Burung</w>":9493,"Kadi":9494,"terjual</w>":9495,"Go</w>":9496,"maksud</w>":9497,"Semenanjung</w>":9498,"Bung":9499,"Antar":9500,"Selat</w>":9501,"Mir":9502,"wajib</w>":9503,"700</w>":9504,"pemilikan</w>":9505,"domin":9506,"menju":9507,"material</w>":9508,"Andr":9509,"usa</w>":9510,"teknis</w>":9511,"mahkota</w>":9512,"membahas</w>":9513,"memec":9514,"janji</w>":9515,"galak":9516,"ders</w>":9517,"IC":9518,"sosok</w>":9519,"harusnya</w>":9520,"stabil</w>":9521,"pangan</w>":9522,"penjaga</w>":9523,"hay":9524,"penurunan</w>":9525,"Finlandia</w>":9526,"melu":9527,"deta</w>":9528,"regn":9529,"manfaat</w>":9530,"komik</w>":9531,"kapi":9532,"Tegal</w>":9533,"tegangan</w>":9534,"tunjukkan</w>":9535,"encanaan</w>":9536,"Wangsa</w>":9537,"perdamaian</w>":9538,"top</w>":9539,"jakarta</w>":9540,"Wel":9541,"puannya</w>":9542,"Sejumlah</w>":9543,"Tari</w>":9544,"VIII</w>":9545,"oi</w>":9546,"aksikan</w>":9547,"Sya":9548,"ory</w>":9549,"komunis</w>":9550,"platform</w>":9551,"Samudra</w>":9552,"tter</w>":9553,"dad</w>":9554,"kek</w>":9555,"Sap":9556,"lembab</w>":9557,"pemukiman</w>":9558,"legenda</w>":9559,"Young</w>":9560,"PN</w>":9561,"ciptaan</w>":9562,"ür":9563,"pembela":9564,"ep</w>":9565,"tra":9566,"hadiran</w>":9567,"Bli":9568,"350":9569,"profesi</w>":9570,"hatikan</w>":9571,"perahu</w>":9572,"House</w>":9573,"ake</w>":9574,"Benteng</w>":9575,"Games</w>":9576,"kron":9577,"Ya":9578,"Rumania</w>":9579,"ulan</w>":9580,"dinominasikan</w>":9581,"Saya</w>":9582,"perlawanan</w>":9583,"Ry":9584,"cat</w>":9585,"malah</w>":9586,"bul":9587,"trol</w>":9588,"Sekarang</w>":9589,"Sp":9590,"latihan</w>":9591,"tropolitan</w>":9592,"Ray":9593,"perg":9594,"Jepara</w>":9595,"Institute</w>":9596,"onis</w>":9597,"sudkan</w>":9598,"kamp</w>":9599,"dd":9600,"perban":9601,"0an</w>":9602,"180</w>":9603,"reformasi</w>":9604,"chen</w>":9605,"Pesantren</w>":9606,"Kabinet</w>":9607,"Shang":9608,"didat</w>":9609,"menghorm":9610,"supaya</w>":9611,"terjemahan</w>":9612,"tiang</w>":9613,"tive</w>":9614,"Karang</w>":9615,"AB":9616,"meren":9617,"kuad":9618,"Wang</w>":9619,"dia":9620,"luki</w>":9621,"kalongan</w>":9622,"ekh</w>":9623,"pung</w>":9624,"senapan</w>":9625,"Kroasia</w>":9626,"mah</w>":9627,"mengelola</w>":9628,"gin</w>":9629,"hol</w>":9630,"dini":9631,"Boj":9632,"fikasikan</w>":9633,"angkap</w>":9634,"pengobatan</w>":9635,"Bern":9636,"menggabungkan</w>":9637,"iko</w>":9638,"Prasasti</w>":9639,"Dok":9640,"Serangan</w>":9641,";&</w>":9642,"transfer</w>":9643,"Rap":9644,"208":9645,"otoritas</w>":9646,"erat</w>":9647,"Biasanya</w>":9648,"kebun</w>":9649,"taian</w>":9650,"senang</w>":9651,"candi</w>":9652,"regnum</w>":9653,"297":9654,"raksi</w>":9655,"wal":9656,"adaban</w>":9657,"Fried":9658,"Spi":9659,"berbagi</w>":9660,"oskop</w>":9661,"dilayani</w>":9662,"sisinya</w>":9663,"miskin</w>":9664,"tong":9665,"156":9666,"Kerja</w>":9667,"federasi</w>":9668,"peninggalan</w>":9669,"trop":9670,"Tom</w>":9671,"stre":9672,"Nav":9673,"adil</w>":9674,"Yusuf</w>":9675,"mal</w>":9676,"tifikasi</w>":9677,"menandai</w>":9678,"Haji</w>":9679,"238":9680,"krisis</w>":9681,"deskrip":9682,"memun":9683,"serius</w>":9684,"Seluruh</w>":9685,"karyawan</w>":9686,"SC":9687,"Batavia</w>":9688,"Av":9689,"wer":9690,"Kecil</w>":9691,"besarkan</w>":9692,"koloni</w>":9693,"domestik</w>":9694,"145":9695,"Kapten</w>":9696,"Hall</w>":9697,"frekuensi</w>":9698,"turkan</w>":9699,"rasah</w>":9700,"dikasikan</w>":9701,"DVD</w>":9702,"NE":9703,"klan</w>":9704,"pilot</w>":9705,"296":9706,"pahlawan</w>":9707,"dikuasai</w>":9708,"tau</w>":9709,"ruma":9710,"anggang</w>":9711,"Efek</w>":9712,"danya</w>":9713,"one":9714,"mengoperasikan</w>":9715,"long</w>":9716,"mang":9717,"bawang</w>":9718,"Brig":9719,"Fox</w>":9720,"penari</w>":9721,"News</w>":9722,"penam":9723,"Karl</w>":9724,"tubu":9725,"awab</w>":9726,"GP</w>":9727,"anjur</w>":9728,"bahag":9729,"staf</w>":9730,"tuntu":9731,"vora</w>":9732,"eman</w>":9733,"Pay":9734,"bac":9735,"mengingat</w>":9736,"berkisar</w>":9737,"ال":9738,"Unit</w>":9739,"murni</w>":9740,"Texas</w>":9741,"246":9742,"banyaknya</w>":9743,"esh</w>":9744,"ulasan</w>":9745,"Informasi</w>":9746,"Antara</w>":9747,"arankan</w>":9748,"didik</w>":9749,"Rog":9750,"ajahan</w>":9751,"jabatannya</w>":9752,"Cek":9753,"Akhir</w>":9754,"Manchester</w>":9755,"flu":9756,"gli":9757,"histor":9758,"htt":9759,"ditempuh</w>":9760,"Make":9761,"106":9762,"Nis":9763,"Mesin</w>":9764,"Albert</w>":9765,"kotak</w>":9766,"SS</w>":9767,"melepaskan</w>":9768,"Direk":9769,"ping":9770,"Staf</w>":9771,"setia</w>":9772,"ds":9773,"menyerah</w>":9774,"mendekati</w>":9775,"Pimpinan</w>":9776,"diaw":9777,"dijal":9778,"asaannya</w>":9779,"bertar":9780,"Ol":9781,"pelukis</w>":9782,"dimaksudkan</w>":9783,"lihkan</w>":9784,"rut</w>":9785,"memastikan</w>":9786,"Lombok</w>":9787,"dilarang</w>":9788,"pencaharian</w>":9789,"Pemain</w>":9790,"giri</w>":9791,"jantan</w>":9792,"://</w>":9793,"hancur</w>":9794,"mond</w>":9795,"antau</w>":9796,"Cir":9797,"yn</w>":9798,"operator</w>":9799,"Victoria</w>":9800,"adya</w>":9801,"konsu":9802,"().</w>":9803,"jaga</w>":9804,"desaan</w>":9805,"bertambah</w>":9806,"Toba</w>":9807,"orial</w>":9808,"MI":9809,"tok":9810,"kandung</w>":9811,"ingat</w>":9812,"fakta</w>":9813,"derajat</w>":9814,"varian</w>":9815,"ax</w>":9816,"asin</w>":9817,"Dy":9818,"aman":9819,"heli":9820,"rastr":9821,"konomian</w>":9822,"290":9823,"RS</w>":9824,"biara</w>":9825,"mitologi</w>":9826,"disajikan</w>":9827,"dela</w>":9828,"sejauh</w>":9829,"alisi</w>":9830,"laan</w>":9831,"bersih</w>":9832,"manu":9833,"boja</w>":9834,"Tech":9835,"hol":9836,"kata":9837,"kekayaan</w>":9838,"manajer</w>":9839,"Cra":9840,"tentangan</w>":9841,"erimaan</w>":9842,"lurus</w>":9843,"Mol":9844,"Om":9845,"menyen":9846,"tine</w>":9847,"menunjuk</w>":9848,"Hein":9849,"1918</w>":9850,"Wiki":9851,"Lat":9852,"Times</w>":9853,"restoran</w>":9854,"lyo</w>":9855,"aktivis</w>":9856,"online</w>":9857,"oul</w>":9858,"are":9859,"roket</w>":9860,"dasarnya</w>":9861,"Penerbangan</w>":9862,"wawancara</w>":9863,"ves</w>":9864,"mengganti</w>":9865,"Cha":9866,"tertutup</w>":9867,"nenek</w>":9868,"diti":9869,"kajian</w>":9870,"kedatangan</w>":9871,"komando</w>":9872,"jelaskan</w>":9873,"Pac":9874,"Kediri</w>":9875,"mini":9876,"sempurna</w>":9877,"ping</w>":9878,"kega":9879,"Perguruan</w>":9880,"Van":9881,"memahami</w>":9882,"pannya</w>":9883,"iner</w>":9884,"tino":9885,"Kode</w>":9886,"aro</w>":9887,"kurangan</w>":9888,"menyanyikan</w>":9889,"saingan</w>":9890,"suaikan</w>":9891,"Rail":9892,"pameran</w>":9893,"memad":9894,"modal</w>":9895,"334":9896,"terhubung</w>":9897,"gerbang</w>":9898,"atlet</w>":9899,"peluru</w>":9900,"menurun</w>":9901,"hani</w>":9902,"Data</w>":9903,"siang</w>":9904,"mengon":9905,"ambilan</w>":9906,"Up</w>":9907,"Chryso":9908,"resik</w>":9909,"cau":9910,"book</w>":9911,"Jus":9912,"cucu</w>":9913,"lembah</w>":9914,"Anna</w>":9915,"Sir</w>":9916,"WIB</w>":9917,"seper":9918,"mpai</w>":9919,"Ric":9920,"Kedung":9921,"ekspor</w>":9922,"vo</w>":9923,"Ibrahim</w>":9924,"arch</w>":9925,"Lepto":9926,"tural</w>":9927,"teria</w>":9928,"persetujuan</w>":9929,"tta</w>":9930,"berjuang</w>":9931,"pertanyaan</w>":9932,"pasukannya</w>":9933,"Menara</w>":9934,"Pemberon":9935,"Chicago</w>":9936,"Lun":9937,"ditasi</w>":9938,"berkewarganegaraan</w>":9939,"Sunan</w>":9940,"jawa</w>":9941,"atis</w>":9942,"menghadiri</w>":9943,"207":9944,"timbangkan</w>":9945,"bile</w>":9946,"1938</w>":9947,"ology</w>":9948,"kelat</w>":9949,"AF":9950,"gug":9951,"nasion":9952,"hipo":9953,"Boy":9954,"Jin</w>":9955,"rian</w>":9956,"Chal":9957,"pikiran</w>":9958,"legislatif</w>":9959,"lihatkan</w>":9960,"akting</w>":9961,"pelanggan</w>":9962,"berfokus</w>":9963,"1933</w>":9964,"sing</w>":9965,"intis</w>":9966,"oshi</w>":9967,"pemberian</w>":9968,"biologi</w>":9969,"kotanya</w>":9970,"menurunkan</w>":9971,"upai</w>":9972,"babi</w>":9973,"Ayat</w>":9974,"RL</w>":9975,"nis":9976,"antium</w>":9977,"pol</w>":9978,"Big</w>":9979,"Kaz":9980,"hab</w>":9981,"membela</w>":9982,"Orchi":9983,"Kle":9984,"garia</w>":9985,"lampu</w>":9986,"masakan</w>":9987,"Usah":9988,"lingkaran</w>":9989,"ront</w>":9990,"dengannya</w>":9991,"mba</w>":9992,"profesor</w>":9993,"Pemilu</w>":9994,"mengenal</w>":9995,"bangkitan</w>":9996,"ekspe":9997,"Layanan</w>":9998,"tahunnya</w>":9999,"rumahnya</w>":10000,"kandang</w>":10001,"sesama</w>":10002,"Pek":10003,"kawa</w>":10004,"rusia</w>":10005,"anth":10006,"sei</w>":10007,"harto</w>":10008,"kusi</w>":10009,"ilik</w>":10010,"harta</w>":10011,"Pap":10012,"asion":10013,"Williams</w>":10014,"Terbuka</w>":10015,"amis</w>":10016,"roh</w>":10017,"ical</w>":10018,"siapkan</w>":10019,"Polisi</w>":10020,"ratusan</w>":10021,"DC</w>":10022,"Kim":10023,"Depok</w>":10024,"masalahan</w>":10025,"ino":10026,"Mulai</w>":10027,"teraan</w>":10028,"perman":10029,"Orchidaceae</w>":10030,"ladi":10031,"vit":10032,"32":10033,"ress</w>":10034,"kerap</w>":10035,"159":10036,"ile":10037,"Resi":10038,"olahan</w>":10039,"segi</w>":10040,"keju</w>":10041,"Sastra</w>":10042,"Rock</w>":10043,"Sari</w>":10044,"protes</w>":10045,"Agro":10046,"ketujuh</w>":10047,"107":10048,"penerima</w>":10049,"kiraan</w>":10050,"rama</w>":10051,"1937</w>":10052,"158":10053,"268":10054,"zz":10055,"timbangan</w>":10056,"mosfer</w>":10057,"axia</w>":10058,"cok":10059,"onstr":10060,"anji</w>":10061,"Global</w>":10062,"niat</w>":10063,"245":10064,"Singel</w>":10065,"kritis</w>":10066,"ist</w>":10067,"Cara</w>":10068,"Rh":10069,"ée</w>":10070,"banjir</w>":10071,"konteks</w>":10072,"harinya</w>":10073,"Studi":10074,"ancis</w>":10075,"pala":10076,"Saudara</w>":10077,"turunkan</w>":10078,"andanya</w>":10079,"SDN</w>":10080,"dimanfaatkan</w>":10081,"manis</w>":10082,"An</w>":10083,"berpusat</w>":10084,"rawa</w>":10085,"dikaitkan</w>":10086,"gre":10087,"migran</w>":10088,"enti":10089,"ring</w>":10090,"Perpustakaan</w>":10091,"Melalui</w>":10092,"276":10093,"pengaw":10094,"105</w>":10095,"publikasikan</w>":10096,"Marie</w>":10097,"kombinasi</w>":10098,"bersaing</w>":10099,"anisme</w>":10100,"region</w>":10101,"Tanjung":10102,"berpikir</w>":10103,"Kai":10104,"SMAN</w>":10105,"Jr</w>":10106,"rus</w>":10107,"dipan":10108,"mulut</w>":10109,"kacang</w>":10110,"Koto</w>":10111,"berbahaya</w>":10112,"melebi":10113,"Jabatan</w>":10114,"Milan</w>":10115,"beralih</w>":10116,"tetangga</w>":10117,"Prin":10118,"Thi":10119,"amnya</w>":10120,"pengikut</w>":10121,"onya</w>":10122,"Pertengahan</w>":10123,"288":10124,"Sumatera</w>":10125,"tabel</w>":10126,"mulyo</w>":10127,"memperluas</w>":10128,"Phil":10129,"ene</w>":10130,"Francisco</w>":10131,"definisikan</w>":10132,"dibesarkan</w>":10133,"forma":10134,"raham</w>":10135,"semesta</w>":10136,"potong</w>":10137,"betina</w>":10138,"terang</w>":10139,"pot</w>":10140,"160</w>":10141,"santren</w>":10142,"peluncuran</w>":10143,"seharusnya</w>":10144,"memban":10145,"Rhodo":10146,"reuen</w>":10147,"tub</w>":10148,"diserahkan</w>":10149,"berkat</w>":10150,"ikulum</w>":10151,"pemberontak</w>":10152,"1936</w>":10153,"ahaman</w>":10154,"Gur":10155,"Las":10156,"kesuksesan</w>":10157,"Maros</w>":10158,"Day</w>":10159,"America</w>":10160,"bach</w>":10161,"ainya</w>":10162,"kong</w>":10163,"ikanan</w>":10164,"Anthaxia</w>":10165,"Wu</w>":10166,"teh</w>":10167,"AK":10168,"ayai</w>":10169,"melebihi</w>":10170,"ject</w>":10171,"twork</w>":10172,"High</w>":10173,"hidrogen</w>":10174,"zu</w>":10175,"nabi</w>":10176,"duta</w>":10177,"kom</w>":10178,"ou</w>":10179,"menyusun</w>":10180,"klasifikasi</w>":10181,"140</w>":10182,"penyair</w>":10183,"moral</w>":10184,"iannya</w>":10185,"perpustakaan</w>":10186,"memeng":10187,"pace</w>":10188,"aux</w>":10189,"atukan</w>":10190,"1935</w>":10191,"lokomotif</w>":10192,"Bila</w>":10193,"Cyperus</w>":10194,"dijelaskan</w>":10195,"dosen</w>":10196,"275":10197,"julukan</w>":10198,"view</w>":10199,"perkawinan</w>":10200,"Mars</w>":10201,"institusi</w>":10202,"keyakinan</w>":10203,"icro":10204,"republik</w>":10205,"Tau":10206,"erja</w>":10207,"ray</w>":10208,"Aposto":10209,"rastruktur</w>":10210,"haraan</w>":10211,"AT</w>":10212,"dinyanyikan</w>":10213,"yono</w>":10214,"Sek":10215,"Shu":10216,"konten</w>":10217,"Madi":10218,"modifikasi</w>":10219,"350</w>":10220,"nasi</w>":10221,"125</w>":10222,"dulunya</w>":10223,"Wir":10224,"tarkan</w>":10225,"pokok</w>":10226,"pemakaman</w>":10227,"Alban":10228,"mempering":10229,"dro</w>":10230,"masin</w>":10231,"Dinas</w>":10232,"kalender</w>":10233,"Maur":10234,"Manajemen</w>":10235,"Muk":10236,"Hitam</w>":10237,"kirkan</w>":10238,"menyerupai</w>":10239,"ow":10240,"icus</w>":10241,"karakteristik</w>":10242,"Athena</w>":10243,"Makedonia</w>":10244,"Yoshi":10245,"klin":10246,"ware</w>":10247,"eksperi":10248,"urnya</w>":10249,"mendarat</w>":10250,"Bendera</w>":10251,"konfirmasi</w>":10252,"hum":10253,"jun</w>":10254,"inci</w>":10255,"ompo":10256,"oma</w>":10257,"cc":10258,"vis</w>":10259,"DKI</w>":10260,"chel</w>":10261,"Kematian</w>":10262,"bothris</w>":10263,"Chrysobothris</w>":10264,"RC":10265,"kecan":10266,"efisien</w>":10267,"menempuh</w>":10268,"diturunkan</w>":10269,"anggur</w>":10270,"Bima</w>":10271,"Niko":10272,"Laur":10273,"indahan</w>":10274,"berencana</w>":10275,"1000</w>":10276,"fir":10277,"tern</w>":10278,"inginkan</w>":10279,"Kenne":10280,"Pemberontakan</w>":10281,"fos":10282,"uap</w>":10283,"peperangan</w>":10284,"seks</w>":10285,"latus</w>":10286,"Metode</w>":10287,"GM</w>":10288,"KE":10289,"menikmati</w>":10290,"Syekh</w>":10291,"kotaan</w>":10292,"kro":10293,"Zhang</w>":10294,"pemekaran</w>":10295,"tupi</w>":10296,"112</w>":10297,"ner":10298,"banan</w>":10299,"eksekusi</w>":10300,"disertai</w>":10301,"back</w>":10302,"ev</w>":10303,"Hutan</w>":10304,"Kus":10305,"Muni":10306,"level</w>":10307,"revolusi</w>":10308,"demokrasi</w>":10309,"wartawan</w>":10310,"trans</w>":10311,"Tamil</w>":10312,"Hasan</w>":10313,"Marin":10314,"amin</w>":10315,"kie</w>":10316,"Kondisi</w>":10317,"yam</w>":10318,"Bulgaria</w>":10319,"avor":10320,"pung":10321,"diha":10322,"leluhur</w>":10323,"354":10324,"jadwal</w>":10325,"fiah</w>":10326,"dendron</w>":10327,"deskripsikan</w>":10328,"Aqu":10329,"Hun":10330,"pha</w>":10331,"pet</w>":10332,"tenan</w>":10333,"Shanghai</w>":10334,"209":10335,"147":10336,"cep":10337,"kepemilikan</w>":10338,"Hus":10339,"tebal</w>":10340,"ribuan</w>":10341,"penen":10342,"108":10343,"curi</w>":10344,"rin</w>":10345,"Emp":10346,"menerus</w>":10347,"ctor</w>":10348,"transit</w>":10349,"AC":10350,"AI</w>":10351,"1929</w>":10352,"temporer</w>":10353,"ambing</w>":10354,"iat</w>":10355,"Sam</w>":10356,"ben</w>":10357,"memisahkan</w>":10358,"1928</w>":10359,"Hiro":10360,"besarnya</w>":10361,"sembunyi</w>":10362,"personel</w>":10363,"Usaha</w>":10364,"menunggu</w>":10365,"perbaikan</w>":10366,"melarang</w>":10367,"potongan</w>":10368,"mengemba":10369,"had</w>":10370,"merekam</w>":10371,"Federal</w>":10372,"jabar</w>":10373,"panggilan</w>":10374,"IM":10375,"bos":10376,"bata</w>":10377,"Sumber":10378,"Katedral</w>":10379,"galaksi</w>":10380,"Elec":10381,"Sti":10382,"285":10383,"Christian</w>":10384,"Cle":10385,"chy":10386,"dijuluki</w>":10387,"syah</w>":10388,"putasi</w>":10389,"306":10390,"Mayor</w>":10391,"Samar":10392,"didefinisikan</w>":10393,"vei</w>":10394,"menekankan</w>":10395,"Tab":10396,"atawan</w>":10397,"Purwo":10398,"Aleksand":10399,"berhak</w>":10400,"kelak</w>":10401,"apahit</w>":10402,"menghormati</w>":10403,"amatan</w>":10404,"tersendiri</w>":10405,"gere":10406,"kontak</w>":10407,"bioskop</w>":10408,"imbang</w>":10409,"pendeta</w>":10410,"spesifik</w>":10411,"eta":10412,"mengarah</w>":10413,"tribusikan</w>":10414,"bersejarah</w>":10415,"tail</w>":10416,"YouTu":10417,"tuduhan</w>":10418,"dipegang</w>":10419,"Sony</w>":10420,"tamadya</w>":10421,"Akibatnya</w>":10422,"Kali</w>":10423,"Tunggal</w>":10424,"Magelang</w>":10425,"membuktikan</w>":10426,"Seba":10427,"clo":10428,"pida":10429,"usak</w>":10430,"Aman":10431,"pesantren</w>":10432,"mengendalikan</w>":10433,"Madrid</w>":10434,"petugas</w>":10435,"254":10436,"menjawab</w>":10437,"Bagi</w>":10438,"Musa</w>":10439,"289":10440,"rapat</w>":10441,"ope":10442,"lamin</w>":10443,"belahan</w>":10444,"heim</w>":10445,"agaman</w>":10446,"Tru":10447,"jadw":10448,"pembi":10449,"Art</w>":10450,"Live</w>":10451,"takut</w>":10452,"skenario</w>":10453,"alko":10454,"memicu</w>":10455,"Cel":10456,"pesat</w>":10457,"pemro":10458,"landasan</w>":10459,"fenomena</w>":10460,"rantai</w>":10461,"cut</w>":10462,"Sand":10463,"Inc</w>":10464,"Sig":10465,"kedudukan</w>":10466,"Champion":10467,"km2</w>":10468,"Tuju":10469,"Pesta</w>":10470,"pinggiran</w>":10471,"dol</w>":10472,"cem":10473,"ense</w>":10474,"kesatuan</w>":10475,"sannya</w>":10476,"Arsi":10477,"siklus</w>":10478,"bolehkan</w>":10479,"evolusi</w>":10480,"coklat</w>":10481,"tiknya</w>":10482,"sebaliknya</w>":10483,"epungan</w>":10484,"148":10485,"dibi":10486,"Top</w>":10487,"Are":10488,"Keber":10489,"paran</w>":10490,"langgar</w>":10491,"tual":10492,"luhan</w>":10493,"ros</w>":10494,"Kuil</w>":10495,"timologi</w>":10496,"aw</w>":10497,"teren":10498,"ors</w>":10499,"fal":10500,"Aktris</w>":10501,"jet</w>":10502,"termin":10503,"hiro</w>":10504,"Dong":10505,"kerabat</w>":10506,"yarak":10507,"Bosnia</w>":10508,"mekanisme</w>":10509,"pulkan</w>":10510,"federal</w>":10511,"bers":10512,"kalimat</w>":10513,"Ruang</w>":10514,"kemajuan</w>":10515,"Maya</w>":10516,"Freder":10517,"Avi":10518,"integrasi</w>":10519,"Critics</w>":10520,"ingnya</w>":10521,"trin</w>":10522,"Bunga</w>":10523,"permanen</w>":10524,"TE":10525,"Tasi":10526,"Mahar":10527,"putar</w>":10528,"memenangi</w>":10529,"Lingkungan</w>":10530,"lisensi</w>":10531,"Perkembangan</w>":10532,"267":10533,"Philip":10534,"559":10535,"Raw":10536,"Ulu</w>":10537,"Kemerdekaan</w>":10538,"Central</w>":10539,"agan</w>":10540,"Simpang</w>":10541,"pariwisata</w>":10542,"intai</w>":10543,"dicatat</w>":10544,"Pierre</w>":10545,"!\"</w>":10546,"rudal</w>":10547,"otot</w>":10548,"Yu</w>":10549,"olophia</w>":10550,"cat":10551,"pap":10552,"phan":10553,"berguna</w>":10554,"medang</w>":10555,"gantinya</w>":10556,"ele":10557,"disip":10558,"thria</w>":10559,"sop":10560,"terke":10561,"konferensi</w>":10562,"Bene":10563,"Blue</w>":10564,"106</w>":10565,"kebakaran</w>":10566,"111</w>":10567,"gender</w>":10568,"kay":10569,"Majapahit</w>":10570,"cle</w>":10571,"yung</w>":10572,"ich":10573,"mentasi</w>":10574,"hiasan</w>":10575,"chu":10576,"Kari":10577,"Gunung":10578,"UI</w>":10579,"mengar":10580,"minum</w>":10581,"Mati":10582,"atmosfer</w>":10583,"rax</w>":10584,"orogo</w>":10585,"mengatasi</w>":10586,"Fungsi</w>":10587,"mineral</w>":10588,"Hidup</w>":10589,"Kole":10590,"vasi</w>":10591,"berhar":10592,"menjalin</w>":10593,"Ben</w>":10594,"cokelat</w>":10595,"lnya</w>":10596,"penyebaran</w>":10597,"ars</w>":10598,"Bambang</w>":10599,"organ</w>":10600,"kai":10601,"disetujui</w>":10602,"pangkalan</w>":10603,"Tir":10604,"taka</w>":10605,"558":10606,"PO":10607,"Yug":10608,"keselamatan</w>":10609,"1919</w>":10610,"Chen</w>":10611,"Valen":10612,"pembelajaran</w>":10613,"Kis":10614,"XII</w>":10615,"engka</w>":10616,"Hollywood</w>":10617,"Friedrich</w>":10618,"nap":10619,"from</w>":10620,"eno":10621,"mina</w>":10622,"laboratorium</w>":10623,"tain</w>":10624,"Bizantium</w>":10625,"kulasi</w>":10626,"tembok</w>":10627,"103</w>":10628,"mencer":10629,"gugus</w>":10630,"buny":10631,"memengar":10632,"diag":10633,"cetakan</w>":10634,"Jes":10635,"108</w>":10636,"Lembah</w>":10637,"muatan</w>":10638,"1932</w>":10639,"sahkan</w>":10640,"memperbaiki</w>":10641,"Max</w>":10642,"jahteraan</w>":10643,"tengge":10644,"Ever":10645,"juri</w>":10646,"topik</w>":10647,"kegagalan</w>":10648,"Hum":10649,"tes":10650,"menyetujui</w>":10651,"gelandang</w>":10652,"jawi</w>":10653,"Rhododendron</w>":10654,"Kini</w>":10655,"tty</w>":10656,"149":10657,"berkumpul</w>":10658,"kil</w>":10659,"banon</w>":10660,"ean</w>":10661,"gratis</w>":10662,"memindahkan</w>":10663,"236":10664,"itanya</w>":10665,"dibaw":10666,"ulunya</w>":10667,"mengajar":10668,"Kamboja</w>":10669,"Planet</w>":10670,"lacap</w>":10671,"Heli":10672,"Hab":10673,"ayah":10674,"ekspedisi</w>":10675,"fu</w>":10676,"Apostolik</w>":10677,"pausan</w>":10678,"wujudkan</w>":10679,"urnal</w>":10680,"Namanya</w>":10681,"instrumen</w>":10682,"ditolak</w>":10683,"pelindung</w>":10684,"adisi</w>":10685,"akra":10686,"membawakan</w>":10687,"log</w>":10688,"menjelang</w>":10689,"anmar</w>":10690,"kedalam</w>":10691,"ister</w>":10692,"pos":10693,"menyebutnya</w>":10694,"109</w>":10695,"py</w>":10696,"Kah":10697,"ternya</w>":10698,"perasaan</w>":10699,"kong":10700,"isola":10701,"Rencana</w>":10702,"menonjol</w>":10703,"akademik</w>":10704,"mannya</w>":10705,"kerjaan</w>":10706,"alamat</w>":10707,"kebiasaan</w>":10708,"Pangkalan</w>":10709,"pejuang</w>":10710,"Perempuan</w>":10711,"Tipe</w>":10712,"pto":10713,"pelu":10714,"pinang</w>":10715,"Madura</w>":10716,"Pterolophia</w>":10717,"memengaruhi</w>":10718,"ungun</w>":10719,"enzim</w>":10720,"sili":10721,"mel":10722,"kandidat</w>":10723,"cent</w>":10724,"perluan</w>":10725,"ais":10726,"pemegang</w>":10727,"102</w>":10728,"Pariwisata</w>":10729,"bilang</w>":10730,"104</w>":10731,"usai</w>":10732,"kekurangan</w>":10733,"membagi</w>":10734,"517":10735,"tergabung</w>":10736,"larutan</w>":10737,"ungu</w>":10738,"Team</w>":10739,"Way</w>":10740,"cuaca</w>":10741,"Bangka</w>":10742,"terbunuh</w>":10743,"menegaskan</w>":10744,"Land":10745,"Bone</w>":10746,"tubuhnya</w>":10747,"Seiring</w>":10748,"inah</w>":10749,"mengusulkan</w>":10750,"bukunya</w>":10751,"kej":10752,"\"-</w>":10753,"asihat</w>":10754,"inggo</w>":10755,"Channel</w>":10756,"membedakan</w>":10757,"CO</w>":10758,"Poales</w>":10759,"Dun":10760,"Belak":10761,"Hot</w>":10762,"Pati</w>":10763,"ft":10764,"ogen</w>":10765,"Sit":10766,"nag":10767,"kembar</w>":10768,"kanal</w>":10769,"Komp":10770,"Exo":10771,"Letnan</w>":10772,"fil</w>":10773,"kandungan</w>":10774,"mengejar</w>":10775,"1934</w>":10776,"Bahan</w>":10777,"Chel":10778,"Penge":10779,"UD</w>":10780,"hany":10781,"Konsep</w>":10782,"kosong</w>":10783,"bali</w>":10784,"pedesaan</w>":10785,"1931</w>":10786,"Spong":10787,"bra":10788,"sewaktu</w>":10789,"istirah":10790,"zon</w>":10791,"paus</w>":10792,"Deli</w>":10793,"maksi":10794,"macu":10795,"ques</w>":10796,"ditanda":10797,"berkurang</w>":10798,"1914</w>":10799,"sekre":10800,"filman</w>":10801,"Flores</w>":10802,"Pit":10803,"Spor":10804,"penjelajah</w>":10805,"Junior</w>":10806,"rey</w>":10807,"sung</w>":10808,"menutup</w>":10809,"asur":10810,"minat</w>":10811,"Pho":10812,"fem":10813,"berperang</w>":10814,"percobaan</w>":10815,"disediakan</w>":10816,"Rin":10817,"Rac":10818,"yer</w>":10819,"wisatawan</w>":10820,"wajiban</w>":10821,"206":10822,"Bour":10823,"satria</w>":10824,"115</w>":10825,"keperluan</w>":10826,"tase</w>":10827,"aklukan</w>":10828,"volusioner</w>":10829,"Dic":10830,"udera</w>":10831,"dicapai</w>":10832,"Dik":10833,"djo</w>":10834,"asana</w>":10835,"Perdagangan</w>":10836,"punc":10837,"obo</w>":10838,"diminta</w>":10839,"Dol":10840,"274":10841,"Jurusan</w>":10842,"gir</w>":10843,"1912</w>":10844,"Zhou</w>":10845,"selam</w>":10846,"berkas</w>":10847,"sahabatan</w>":10848,"insiden</w>":10849,"Dri":10850,"ob</w>":10851,"AKB":10852,"Chu":10853,"terakhirnya</w>":10854,"layak</w>":10855,"asisten</w>":10856,"KO":10857,"Juara</w>":10858,"dimenangkan</w>":10859,"sadar</w>":10860,"penyimpanan</w>":10861,"Yugos":10862,"lasan</w>":10863,"pelaku</w>":10864,"Strat":10865,"dikeli":10866,"Ach":10867,"Ruk":10868,"107</w>":10869,"direkam</w>":10870,"Wit":10871,"git":10872,"muran</w>":10873,"habis</w>":10874,"AU</w>":10875,"Lahir</w>":10876,"kemar":10877,"Beau":10878,"tangga":10879,"bambu</w>":10880,"Demak</w>":10881,"Broad":10882,"pelanggaran</w>":10883,"jep":10884,"curi":10885,"mode</w>":10886,"contohnya</w>":10887,"Ade":10888,"305":10889,"berulang</w>":10890,"Barito</w>":10891,"Prem":10892,"sekutuan</w>":10893,"liber":10894,"Kebumen</w>":10895,"finis</w>":10896,"PN":10897,"264":10898,"inal</w>":10899,"rancangan</w>":10900,"perkem":10901,"ketat</w>":10902,"Sukabumi</w>":10903,"ès</w>":10904,"Novel</w>":10905,"Lapangan</w>":10906,"Chris</w>":10907,"mengembalikan</w>":10908,"bkan</w>":10909,"argu":10910,"pengelolaan</w>":10911,"cantik</w>":10912,"Aktor</w>":10913,"pedu":10914,"llah</w>":10915,"vich</w>":10916,"riset</w>":10917,"Boy</w>":10918,"rasio</w>":10919,"wis</w>":10920,"merusak</w>":10921,"diplomatik</w>":10922,"On</w>":10923,"dramayu</w>":10924,"Kami</w>":10925,"Lau":10926,"ous</w>":10927,"bran":10928,"Seoul</w>":10929,"terluka</w>":10930,"terinspirasi</w>":10931,"Bou":10932,"suk</w>":10933,"dewi</w>":10934,"lemak</w>":10935,"kunjungan</w>":10936,"Makam</w>":10937,"shima</w>":10938,"aii</w>":10939,"penyem":10940,"semula</w>":10941,"Johnson</w>":10942,"Direktorat</w>":10943,"Asian</w>":10944,"konsumen</w>":10945,"Cop":10946,"oe</w>":10947,"kerta</w>":10948,"Andro":10949,"sol":10950,"dania</w>":10951,"syaratan</w>":10952,"baijan</w>":10953,"esa</w>":10954,"Myanmar</w>":10955,"persiapan</w>":10956,"Mojo":10957,"enda</w>":10958,"Pori":10959,"Tul":10960,"kode":10961,"Kay":10962,"Augus":10963,"Spar":10964,"Jones</w>":10965,"Gaya</w>":10966,"Serdang</w>":10967,"sha</w>":10968,"berdarah</w>":10969,"RA</w>":10970,"Sm":10971,"cadangan</w>":10972,"dice":10973,"dasan</w>":10974,"dir</w>":10975,"Steph":10976,"dolf</w>":10977,"Infanteri</w>":10978,"Total</w>":10979,"lukkan</w>":10980,"peradaban</w>":10981,"ustr":10982,"ullah</w>":10983,"kristenan</w>":10984,"elan</w>":10985,"304":10986,"113</w>":10987,"Bh":10988,"tv</w>":10989,"France</w>":10990,"Pis":10991,"anag":10992,"ghts</w>":10993,"RE":10994,"properti</w>":10995,"drum</w>":10996,"dijalankan</w>":10997,"Fit":10998,"Petrus</w>":10999,"ía</w>":11000,"dihuni</w>":11001,"Suko":11002,"Frank":11003,"Satuan</w>":11004,"timbul</w>":11005,"Mohammad</w>":11006,"Kup":11007,"104":11008,"samana</w>":11009,"119</w>":11010,"ech":11011,"hebat</w>":11012,"Komunikasi</w>":11013,"helm</w>":11014,"Porifera</w>":11015,"erbaijan</w>":11016,"Open</w>":11017,"Girl</w>":11018,"ungguhnya</w>":11019,"Moder":11020,"syu":11021,"saraf</w>":11022,"lamasi</w>":11023,"eda</w>":11024,"Paraz":11025,"Madiun</w>":11026,"Kepolisian</w>":11027,"serikat</w>":11028,"kolam</w>":11029,"1924</w>":11030,"panjangan</w>":11031,"Rai":11032,"mengizinkan</w>":11033,"YouTube</w>":11034,"fac":11035,"Hindi</w>":11036,"sburg</w>":11037,"kebenaran</w>":11038,"VOC</w>":11039,"1922</w>":11040,"fic</w>":11041,"Yugoslavia</w>":11042,"pengiri":11043,"Drama</w>":11044,"lio</w>":11045,"Amp":11046,"uasi</w>":11047,"baku</w>":11048,"line":11049,"sinyur</w>":11050,"murah</w>":11051,"mengadopsi</w>":11052,"hidangan</w>":11053,"Toy":11054,"Mont":11055,"Kualifikasi</w>":11056,"Qing</w>":11057,"Kum":11058,"177":11059,"jadwalkan</w>":11060,".&</w>":11061,"Zu":11062,"adiknya</w>":11063,"trum</w>":11064,"Komunitas</w>":11065,"Hau":11066,"mitra</w>":11067,"mulanya</w>":11068,"pus":11069,"1927</w>":11070,"mahal</w>":11071,"binaan</w>":11072,"permukiman</w>":11073,"dini</w>":11074,"icum</w>":11075,"Pemuda</w>":11076,"Leon":11077,"anggotanya</w>":11078,"cincin</w>":11079,"poten":11080,"Real</w>":11081,"SP":11082,"penerus</w>":11083,"merdeka</w>":11084,"paduan</w>":11085,"Kolonel</w>":11086,"dikelilingi</w>":11087,"1925</w>":11088,"Ther":11089,"Samuel</w>":11090,"pelo":11091,"SL":11092,"isi":11093,"vokalis</w>":11094,"mencu":11095,"rie</w>":11096,"ternakan</w>":11097,"otball</w>":11098,"menghilangkan</w>":11099,"Produk</w>":11100,"singkatan</w>":11101,"Mahasiswa</w>":11102,"penutup</w>":11103,"menahan</w>":11104,"Motor</w>":11105,"pli":11106,"dok</w>":11107,"Parazoa</w>":11108,"Pekalongan</w>":11109,"demonstr":11110,"subregnum</w>":11111,"Studio</w>":11112,"DS</w>":11113,"bakal</w>":11114,"Hakim</w>":11115,"hilir</w>":11116,"Kota":11117,"Girls</w>":11118,"permasalahan</w>":11119,"kedokteran</w>":11120,"Senat</w>":11121,"desh</w>":11122,"Emas</w>":11123,"360</w>":11124,"RA":11125,"lv":11126,"114</w>":11127,"cra":11128,"nelayan</w>":11129,"pansi</w>":11130,"Bes":11131,"dh":11132,"die":11133,"Indone":11134,"mandiri</w>":11135,"loy":11136,"tura</w>":11137,"putus</w>":11138,"Pram":11139,"Kuba</w>":11140,"ates</w>":11141,"dijadwalkan</w>":11142,"pakar</w>":11143,"play</w>":11144,"menampung</w>":11145,"Kebijakan</w>":11146,"bana</w>":11147,"wig</w>":11148,"Tern":11149,"didominasi</w>":11150,"sampaikan</w>":11151,"ental</w>":11152,"sepsi</w>":11153,"BT</w>":11154,"170</w>":11155,"Konvensi</w>":11156,"Nobel</w>":11157,"117</w>":11158,"menghi":11159,"Wina</w>":11160,"bela</w>":11161,"186":11162,"Desain</w>":11163,"Barcel":11164,"jurnal</w>":11165,"Black":11166,"ilaian</w>":11167,"pendatang</w>":11168,"alkohol</w>":11169,"onto</w>":11170,"ics</w>":11171,"Hitler</w>":11172,"deg":11173,"gy":11174,"row</w>":11175,"sembahkan</w>":11176,"White</w>":11177,"Daw":11178,"diisi</w>":11179,"pengarang</w>":11180,"kasi":11181,"cedera</w>":11182,"ambung</w>":11183,"jangka":11184,"tajam</w>":11185,"kuan":11186,"135</w>":11187,"Riwayat</w>":11188,"kasar</w>":11189,"dimu":11190,"mata":11191,"tradarai</w>":11192,"tisme</w>":11193,"kehadiran</w>":11194,"duan</w>":11195,"konstitusi</w>":11196,"Ir</w>":11197,"penambahan</w>":11198,"arannya</w>":11199,"105":11200,"perkotaan</w>":11201,"jurnalis</w>":11202,"Nah":11203,"KRI</w>":11204,"bertu":11205,"1917</w>":11206,"Sebelah</w>":11207,"Pak</w>":11208,"hen</w>":11209,"gajah</w>":11210,"Bum":11211,"konstitu":11212,"295":11213,"Siti</w>":11214,"Brunei</w>":11215,"irkan</w>":11216,"Meg":11217,"khali":11218,"Zona</w>":11219,"pertu":11220,"ways</w>":11221,"Meri":11222,"etan</w>":11223,"pras":11224,"genetik</w>":11225,"Rep":11226,"PT":11227,"Lanka</w>":11228,"musikal</w>":11229,"kopter</w>":11230,"Teng":11231,"bangannya</w>":11232,"paket</w>":11233,"Purworejo</w>":11234,"Green":11235,"sionaris</w>":11236,"dijumpai</w>":11237,"tap</w>":11238,"tors</w>":11239,"reguler</w>":11240,"118</w>":11241,"ré":11242,"Colum":11243,"acu":11244,"pin</w>":11245,"220</w>":11246,"memandang</w>":11247,"KT48</w>":11248,"meneruskan</w>":11249,"Var":11250,"audisi</w>":11251,"Fam":11252,"onik</w>":11253,"unduran</w>":11254,"won":11255,"membentang</w>":11256,"KM</w>":11257,"ade":11258,"North</w>":11259,"mani</w>":11260,"wakia</w>":11261,"Tasik":11262,"Elek":11263,"nantinya</w>":11264,"aljabar</w>":11265,"1926</w>":11266,"massal</w>":11267,"Railway</w>":11268,"Lah":11269,"that</w>":11270,"oides</w>":11271,"sisir</w>":11272,"Administrasi</w>":11273,"Indah</w>":11274,"kesad":11275,"perunggu</w>":11276,"tualangan</w>":11277,"beras</w>":11278,"sali":11279,"Pub":11280,"Banjarmasin</w>":11281,"keraj":11282,"cky</w>":11283,"rempah</w>":11284,"Tibet</w>":11285,"116</w>":11286,"dadi</w>":11287,"dil</w>":11288,"Gempa</w>":11289,"ère</w>":11290,"Kevin</w>":11291,"1900</w>":11292,"dikar":11293,"kapnya</w>":11294,"Tas":11295,"asosiasi</w>":11296,"saurus</w>":11297,"Asing</w>":11298,"Gelar</w>":11299,"Ford</w>":11300,"Barcelona</w>":11301,"hama</w>":11302,"tiket</w>":11303,"kekuasaannya</w>":11304,"Juan</w>":11305,"super</w>":11306,"kson</w>":11307,"mengisahkan</w>":11308,"awi":11309,"asasi</w>":11310,"Shah</w>":11311,"Mayoritas</w>":11312,"Jan</w>":11313,"gius</w>":11314,"Azerbaijan</w>":11315,"tophila</w>":11316,"ardo</w>":11317,"historis</w>":11318,"berharap</w>":11319,"tangg":11320,"minor</w>":11321,"Banyuwangi</w>":11322,"Oscar</w>":11323,"Keduanya</w>":11324,"Poso</w>":11325,"menghadap</w>":11326,"larangan</w>":11327,"less</w>":11328,"Network</w>":11329,"320</w>":11330,"Meta":11331,"Tan</w>":11332,"kabin":11333,"Donald</w>":11334,"thes</w>":11335,"keliling</w>":11336,"dokumenter</w>":11337,"Dag":11338,"Year</w>":11339,"1923</w>":11340,"dicetak</w>":11341,"tarungan</w>":11342,"darurat</w>":11343,"Mycetophila</w>":11344,"kolek":11345,"Night</w>":11346,"sau":11347,"herbi":11348,"Arya</w>":11349,"istimewa</w>":11350,"anggotakan</w>":11351,"sed</w>":11352,"127</w>":11353,"opia</w>":11354,"fred</w>":11355,"klarasi</w>":11356,"Hap":11357,"orus</w>":11358,"Umar</w>":11359,"peti</w>":11360,"bie</w>":11361,"kontemporer</w>":11362,"Suara</w>":11363,"Game</w>":11364,"munculnya</w>":11365,"Prusia</w>":11366,"vs</w>":11367,"157":11368,"mimp":11369,"sediaan</w>":11370,"ditandatangani</w>":11371,"Joe</w>":11372,"CEO</w>":11373,"Polri</w>":11374,"search</w>":11375,"diselesaikan</w>":11376,"kinerja</w>":11377,"cs</w>":11378,"anggapan</w>":11379,"Brown</w>":11380,"jagung</w>":11381,"sol</w>":11382,"ladang</w>":11383,"Garut</w>":11384,"koin</w>":11385,"Serang</w>":11386,"pribumi</w>":11387,"Teater</w>":11388,"Ris":11389,"dinilai</w>":11390,"teratas</w>":11391,"undtrack</w>":11392,"GP":11393,"bor</w>":11394,"Sepanjang</w>":11395,"Bani</w>":11396,"honan</w>":11397,"Indo</w>":11398,"139":11399,"inisi":11400,"dominan</w>":11401,"Sten":11402,"usi":11403,"lee</w>":11404,"Ismail</w>":11405,"549":11406,"tian":11407,"ilisan</w>":11408,"perem":11409,"123</w>":11410,"164":11411,"Series</w>":11412,"Mei":11413,"court</w>":11414,"rezim</w>":11415,"tantangan</w>":11416,"pro</w>":11417,"SU":11418,"kue</w>":11419,"Jumat</w>":11420,"General</w>":11421,"penjelasan</w>":11422,"Lon":11423,"556":11424,"Bau":11425,"filsuf</w>":11426,"komentar</w>":11427,"diameter</w>":11428,"1921</w>":11429,"ikuler</w>":11430,"Soeharto</w>":11431,"dad":11432,"ladesh</w>":11433,"wadah</w>":11434,"Nug":11435,"cong</w>":11436,"Lim":11437,"vul":11438,"Station</w>":11439,"Clathria</w>":11440,"Wad":11441,"pemahaman</w>":11442,"KH</w>":11443,"dihancurkan</w>":11444,"putrinya</w>":11445,"Heinrich</w>":11446,"shi</w>":11447,"ette</w>":11448,"unting</w>":11449,"curah</w>":11450,"Ambon</w>":11451,"José</w>":11452,"beranggotakan</w>":11453,"teologi</w>":11454,"tom</w>":11455,"coba</w>":11456,"geng":11457,"daring</w>":11458,"900</w>":11459,"azah</w>":11460,"Ikan</w>":11461,"lion</w>":11462,"memperlihatkan</w>":11463,"arius</w>":11464,"Transportasi</w>":11465,"arsitek</w>":11466,"AKB48</w>":11467,"fakultas</w>":11468,"gio</w>":11469,"Union</w>":11470,"grad":11471,"Dingin</w>":11472,"Stor":11473,"Reformasi</w>":11474,"kunjung</w>":11475,"prem":11476,"128</w>":11477,"122</w>":11478,"Wikipedia</w>":11479,"semenjak</w>":11480,"Salib</w>":11481,"Adat</w>":11482,"ketentuan</w>":11483,"isolasi</w>":11484,"cepatan</w>":11485,"Otto</w>":11486,"bian</w>":11487,"167":11488,"Scott</w>":11489,"kanak</w>":11490,"pakan</w>":11491,"Tugas</w>":11492,"radar</w>":11493,"bong":11494,"yan":11495,"Warisan</w>":11496,"Bill</w>":11497,"Mongol</w>":11498,"Buruh</w>":11499,"juru</w>":11500,"oba":11501,"cop":11502,"favor":11503,"uro</w>":11504,"178":11505,"usuhan</w>":11506,"dibebaskan</w>":11507,"Jin":11508,"maksimum</w>":11509,"lisnya</w>":11510,"amoto</w>":11511,"Hawaii</w>":11512,"orientasi</w>":11513,"onom":11514,"kedu":11515,"atipula</w>":11516,"didis":11517,"tuntutan</w>":11518,"330</w>":11519,"170":11520,"ditinggalkan</w>":11521,"tipis</w>":11522,"pool</w>":11523,"Surya</w>":11524,"visual</w>":11525,"Rang":11526,"diadaptasi</w>":11527,"Ceko</w>":11528,"sihkan</w>":11529,"merayakan</w>":11530,"ahlian</w>":11531,"Tasikmalaya</w>":11532,"Ke</w>":11533,"kho":11534,"kelamin</w>":11535,"haz":11536,"lihan</w>":11537,"terapi</w>":11538,"dibatasi</w>":11539,"rawan</w>":11540,"bantaian</w>":11541,"Baj":11542,"Etimologi</w>":11543,"Karo</w>":11544,"dibedakan</w>":11545,"urai</w>":11546,"mewar":11547,"operasional</w>":11548,"124</w>":11549,"Araneidae</w>":11550,"kada</w>":11551,"sains</w>":11552,"meyak":11553,"121</w>":11554,"koran</w>":11555,"biografi</w>":11556,"Tala":11557,"radiasi</w>":11558,"133</w>":11559,"Master</w>":11560,"itia</w>":11561,"baju</w>":11562,"letaknya</w>":11563,"Jem":11564,"aset</w>":11565,"gir":11566,"tali</w>":11567,"key</w>":11568,"integr":11569,"Co</w>":11570,"gel</w>":11571,"hanyalah</w>":11572,"DI":11573,"lur":11574,"pinjaman</w>":11575,"Alex</w>":11576,"tions</w>":11577,"perkiraan</w>":11578,"undangan</w>":11579,"Yas":11580,"tab":11581,"buhkan</w>":11582,"Chili</w>":11583,"Fla":11584,"Gali":11585,"kele":11586,"basket</w>":11587,"Auto":11588,"168":11589,"Moto":11590,"Lib":11591,"tunda</w>":11592,"dihentikan</w>":11593,"diserang</w>":11594,"press</w>":11595,"bukota</w>":11596,"tangkis</w>":11597,"geome":11598,"Perancis</w>":11599,"Kuningan</w>":11600,"Misi</w>":11601,"Gajah</w>":11602,"bermula</w>":11603,"ako</w>":11604,"jamin</w>":11605,"dp":11606,"kwa</w>":11607,"sson</w>":11608,"berken":11609,"isinya</w>":11610,"Lebanon</w>":11611,"Majalah</w>":11612,"menaklukkan</w>":11613,"memeluk</w>":11614,"gunya</w>":11615,"wanan</w>":11616,"karet</w>":11617,"tori</w>":11618,"Camb":11619,"terit":11620,"kedalaman</w>":11621,"Pahlawan</w>":11622,"yana</w>":11623,"Carol":11624,"bolinggo</w>":11625,"Contohnya</w>":11626,"pengacara</w>":11627,"ior</w>":11628,"melem":11629,"Pidie</w>":11630,"Ful":11631,"tidak":11632,"keram":11633,"Madrasah</w>":11634,"Feli":11635,"kesadaran</w>":11636,"Kolom":11637,"mai</w>":11638,"132</w>":11639,"hom":11640,"ph</w>":11641,"ukakan</w>":11642,"Ot":11643,"cian</w>":11644,"nai</w>":11645,"diskusi</w>":11646,"lintasan</w>":11647,"referensi</w>":11648,"suri</w>":11649,"Kadipaten</w>":11650,"BBC</w>":11651,"ska</w>":11652,"Keku":11653,"tansi</w>":11654,"pengas":11655,"Long":11656,"Anne</w>":11657,"169":11658,"bisu</w>":11659,"dipergunakan</w>":11660,"Km</w>":11661,"dipaksa</w>":11662,"pogon</w>":11663,"wil":11664,"bertahun</w>":11665,"seluler</w>":11666,"berto</w>":11667,"Manado</w>":11668,"ridge</w>":11669,"geria</w>":11670,"figur":11671,"perekonomian</w>":11672,"dibaca</w>":11673,"pengawasan</w>":11674,"bru":11675,"toma</w>":11676,"onic</w>":11677,"Top":11678,"selaku</w>":11679,"goreng</w>":11680,"Gresik</w>":11681,"Taylor</w>":11682,"servatif</w>":11683,"pengambilan</w>":11684,"angkapan</w>":11685,"tianak</w>":11686,"unjuk</w>":11687,"diplom":11688,"penerbitan</w>":11689,"pedang</w>":11690,"Pernikahan</w>":11691,"beri":11692,"Yuan</w>":11693,"kerangka</w>":11694,"nus</w>":11695,"Keter":11696,"Bugis</w>":11697,"membatasi</w>":11698,"Peran</w>":11699,"State</w>":11700,"Gua</w>":11701,"apo":11702,"trem</w>":11703,"Ober":11704,"dj":11705,"dada</w>":11706,"pic":11707,"190</w>":11708,"dinobatkan</w>":11709,"neu":11710,"Pesisir</w>":11711,"disiplin</w>":11712,"557":11713,"yanto</w>":11714,"ahal</w>":11715,"korupsi</w>":11716,"fak</w>":11717,"Penem":11718,"210</w>":11719,"dihi":11720,"als</w>":11721,"ego</w>":11722,"Daud</w>":11723,"Cros":11724,"ilasi</w>":11725,"infrastruktur</w>":11726,"Ele":11727,"peza</w>":11728,"manda":11729,"Batam</w>":11730,"tembakan</w>":11731,"dimakan</w>":11732,"Ash":11733,"terai</w>":11734,"Bangladesh</w>":11735,"menyebarkan</w>":11736,"Korps</w>":11737,"Albania</w>":11738,"disampaikan</w>":11739,"Honda</w>":11740,"Cik":11741,"Chir":11742,"Is</w>":11743,"op</w>":11744,"olia</w>":11745,"yangan</w>":11746,"mengajak</w>":11747,"perumahan</w>":11748,"Cyperaceae</w>":11749,"mengancam</w>":11750,"hard</w>":11751,"pemandangan</w>":11752,"134</w>":11753,"Serie</w>":11754,"Arts</w>":11755,"Zo":11756,"yeo</w>":11757,"Ji</w>":11758,"atih</w>":11759,"gerejawi</w>":11760,"AR</w>":11761,"vice</w>":11762,"berlayar</w>":11763,"alun</w>":11764,"Dire":11765,"tinopel</w>":11766,"bla":11767,"ckh":11768,"tatus</w>":11769,"Paroki</w>":11770,"hima</w>":11771,"1913</w>":11772,"fasci":11773,"mengajarkan</w>":11774,"1910</w>":11775,"dinas</w>":11776,"ave</w>":11777,"rak</w>":11778,"sasaran</w>":11779,"Gas":11780,"Tenis</w>":11781,"System</w>":11782,"kos</w>":11783,"Green</w>":11784,"Malam</w>":11785,"RO":11786,"berdua</w>":11787,"teror":11788,"pelay":11789,"menyim":11790,"jemaat</w>":11791,"Malik</w>":11792,"altar</w>":11793,"koalisi</w>":11794,"Carl</w>":11795,"inus</w>":11796,"Meja</w>":11797,"Peru</w>":11798,"tusnya</w>":11799,"lé":11800,"asaki</w>":11801,"Sipil</w>":11802,"212</w>":11803,"anusi":11804,"Sabtu</w>":11805,"Fernan":11806,"jing</w>":11807,"ratik</w>":11808,"menyarankan</w>":11809,"logo</w>":11810,"terdekat</w>":11811,"Sebaliknya</w>":11812,"datar</w>":11813,"memanggil</w>":11814,"dipisahkan</w>":11815,"dibeli</w>":11816,"Geo":11817,"susunan</w>":11818,"nosis</w>":11819,"550":11820,"Ik":11821,"Leo</w>":11822,"DI</w>":11823,"dibanding</w>":11824,"230</w>":11825,"elidikan</w>":11826,"menemui</w>":11827,"Indra":11828,"pidato</w>":11829,"tambang</w>":11830,"Munisipalitas</w>":11831,"Hadi":11832,"ingen</w>":11833,"Road</w>":11834,"politisi</w>":11835,"Makanan</w>":11836,"BI</w>":11837,"JKT48</w>":11838,"dalaman</w>":11839,"AP</w>":11840,"cens</w>":11841,"Jung</w>":11842,"NI":11843,"impor</w>":11844,"155</w>":11845,"direk":11846,"habitat</w>":11847,"utusan</w>":11848,"wn":11849,"ark</w>":11850,"deglang</w>":11851,"dou":11852,"moto</w>":11853,"Yak":11854,"office</w>":11855,"perlahan</w>":11856,"rumpun</w>":11857,"]].</w>":11858,"Patrick</w>":11859,"kabinet</w>":11860,"td</w>":11861,"enne</w>":11862,"184":11863,"keberhasilan</w>":11864,"Bom":11865,"pita</w>":11866,"vard</w>":11867,"Lihat</w>":11868,"herbivora</w>":11869,"pemen":11870,"Wen":11871,"tag":11872,"kepon":11873,"penganut</w>":11874,"akurikuler</w>":11875,"Baga":11876,"240</w>":11877,"tambangan</w>":11878,"Toyota</w>":11879,"Mu</w>":11880,"menginginkan</w>":11881,"kecantikan</w>":11882,"Upacara</w>":11883,"ditahan</w>":11884,"Warna</w>":11885,"Pengu":11886,"Manag":11887,"Little</w>":11888,"Phyto":11889,"Cru":11890,"pandemi</w>":11891,"bangnya</w>":11892,"Gla":11893,"mengeli":11894,"melancarkan</w>":11895,"Stephen</w>":11896,"Sili":11897,"mengganggu</w>":11898,"Tony</w>":11899,"126</w>":11900,"drom</w>":11901,"hab":11902,"kins</w>":11903,"bersekolah</w>":11904,"itaan</w>":11905,"she":11906,"sidang</w>":11907,"Atlan":11908,"Sosialis</w>":11909,"Jaz":11910,"Kita</w>":11911,"mempersiapkan</w>":11912,"mengha":11913,"Tua</w>":11914,"Aleksan":11915,"Song":11916,"Osaka</w>":11917,"BM":11918,"ket":11919,"mpa</w>":11920,"telahnya</w>":11921,"JR</w>":11922,"Mobil</w>":11923,"kung</w>":11924,"Permaisuri</w>":11925,"Kyo":11926,"Yus":11927,"mena":11928,"berani</w>":11929,"penang":11930,"355":11931,"\":</w>":11932,"mos</w>":11933,"penyerang</w>":11934,"sirkuit</w>":11935,"Puncak</w>":11936,"%),</w>":11937,"itakan</w>":11938,"berupaya</w>":11939,"cea</w>":11940,"hancuran</w>":11941,"salinan</w>":11942,"Antonio</w>":11943,"disana</w>":11944,"Orde</w>":11945,"Senin</w>":11946,"Jose":11947,"Region</w>":11948,"tikal</w>":11949,"mendi":11950,"Teks</w>":11951,"naungan</w>":11952,"Yehu":11953,"Doug":11954,"mbang</w>":11955,"131</w>":11956,"klusif</w>":11957,"PI</w>":11958,"soli":11959,"án":11960,"unt</w>":11961,"posisinya</w>":11962,"anne</w>":11963,"rad</w>":11964,"publikasi</w>":11965,"Football</w>":11966,"osir</w>":11967,"129</w>":11968,"Carlos</w>":11969,"diizinkan</w>":11970,"Trans</w>":11971,"Pandemi</w>":11972,"Uru":11973,"Warga</w>":11974,"lengan</w>":11975,"tasinya</w>":11976,"isahan</w>":11977,"citra</w>":11978,"sif":11979,"menying":11980,"bersatu</w>":11981,"144</w>":11982,"pekerjakan</w>":11983,"more</w>":11984,"ugian</w>":11985,"gitiga</w>":11986,"490":11987,"UT":11988,"silia</w>":11989,"Konstantinopel</w>":11990,"Venesia</w>":11991,"Ganda</w>":11992,"menyaksikan</w>":11993,"Rio</w>":11994,"perhitungan</w>":11995,"Indra</w>":11996,"Rasul</w>":11997,"ddy</w>":11998,"ław</w>":11999,"sisanya</w>":12000,"DE":12001,"Prak":12002,"dilan":12003,"putera</w>":12004,"penerbit</w>":12005,"andalkan</w>":12006,"monarki</w>":12007,"Kidul</w>":12008,"Wisata</w>":12009,"Columbia</w>":12010,"berdekatan</w>":12011,"Jim":12012,"kolom</w>":12013,"1911</w>":12014,"dicer":12015,"thor":12016,"house</w>":12017,"laang</w>":12018,"Championship</w>":12019,"Cianjur</w>":12020,"Naskah</w>":12021,"kesultanan</w>":12022,"Arn":12023,"formis</w>":12024,"tatif</w>":12025,"Sop":12026,"irah</w>":12027,"Cit":12028,"143</w>":12029,"melanggar</w>":12030,"punggung</w>":12031,"lipat</w>":12032,"Dang":12033,"cair</w>":12034,"sc":12035,"Project</w>":12036,"Pekerjaan</w>":12037,"Isla":12038,"340</w>":12039,"NG":12040,"ano":12041,"tonia</w>":12042,"Amir</w>":12043,"hangat</w>":12044,"kot</w>":12045,"vent</w>":12046,"ulat</w>":12047,"olong</w>":12048,"proy":12049,"Margar":12050,"seleksi</w>":12051,"Khali":12052,"Movi":12053,"melakukannya</w>":12054,"jenjang</w>":12055,"ving</w>":12056,"imbangan</w>":12057,"kov</w>":12058,"201</w>":12059,"perbuatan</w>":12060,"Guang":12061,"Single</w>":12062,"Space</w>":12063,"Pasangan</w>":12064,"mengaw":12065,"Baw":12066,"dé":12067,"tium</w>":12068,"136</w>":12069,"141</w>":12070,"dibawakan</w>":12071,"mengidentifikasi</w>":12072,"137</w>":12073,"Harapan</w>":12074,"petisi</w>":12075,"metal</w>":12076,"146</w>":12077,"Tanaman</w>":12078,"potensial</w>":12079,"bertahap</w>":12080,"Kekristenan</w>":12081,"els</w>":12082,"gravi":12083,"rahman</w>":12084,"kewajiban</w>":12085,"ledakan</w>":12086,"145</w>":12087,"Karawang</w>":12088,"berlawanan</w>":12089,"260</w>":12090,"hasilnya</w>":12091,"Insi":12092,"Televisi</w>":12093,"neo</w>":12094,"ag</w>":12095,"dahulunya</w>":12096,"Hem":12097,"ffer":12098,"soal</w>":12099,"Lawas</w>":12100,"Cup</w>":12101,"ait</w>":12102,"ente</w>":12103,"Labor":12104,"dalian</w>":12105,"pembuka</w>":12106,"mou":12107,"Edu":12108,"bertentangan</w>":12109,"beban</w>":12110,"trag":12111,"cius</w>":12112,"desak</w>":12113,"unggul</w>":12114,"ME":12115,"Puteri</w>":12116,"pembaca</w>":12117,"West":12118,"OS":12119,"yaran</w>":12120,"amping</w>":12121,"ün":12122,"disam":12123,"sepakat</w>":12124,"Moskwa</w>":12125,"kontroversi</w>":12126,"minoritas</w>":12127,"palsu</w>":12128,"Yud":12129,"139</w>":12130,"Tradisi</w>":12131,"To</w>":12132,"naan</w>":12133,"memak":12134,"jai</w>":12135,"Inves":12136,"294":12137,"Acma":12138,"Lambang</w>":12139,"persahabatan</w>":12140,"able</w>":12141,"Mike</w>":12142,"Pasir</w>":12143,"Marinir</w>":12144,"suasana</w>":12145,"Copa</w>":12146,"tini</w>":12147,"Sans":12148,"ginia</w>":12149,"sempit</w>":12150,"bs</w>":12151,"Mitsu":12152,"Banda</w>":12153,"Baik</w>":12154,"insinyur</w>":12155,"Tenaga</w>":12156,"teluk</w>":12157,"bik</w>":12158,"1916</w>":12159,"seri":12160,"dpl</w>":12161,"dibata":12162,"terpen":12163,"dal":12164,"harfiah</w>":12165,"Jat":12166,"antu":12167,"asum":12168,"ogiri</w>":12169,"eboman</w>":12170,"monumen</w>":12171,"olan</w>":12172,"pengamatan</w>":12173,"mengundang</w>":12174,"diperankan</w>":12175,"Kaj":12176,"S1</w>":12177,"muslim</w>":12178,"TK</w>":12179,"flek":12180,"uris":12181,"anusiaan</w>":12182,"wangsa</w>":12183,"wayang</w>":12184,"dihukum</w>":12185,"153</w>":12186,"tenggelam</w>":12187,"Blok</w>":12188,"romb":12189,"Anda":12190,"Edisi</w>":12191,"Form":12192,"Sla":12193,"kambing</w>":12194,"runtu":12195,"Alat</w>":12196,"akun</w>":12197,"muara</w>":12198,"234":12199,"Fabaceae</w>":12200,"penampilannya</w>":12201,"yong</w>":12202,"isto":12203,"Apple</w>":12204,"Lord</w>":12205,"NU</w>":12206,"”,</w>":12207,"ulatan</w>":12208,"sesungguhnya</w>":12209,"Glenea</w>":12210,"Samarinda</w>":12211,"sehat</w>":12212,"if":12213,"prefektur</w>":12214,"Pok":12215,"star":12216,"seluruhnya</w>":12217,"Florida</w>":12218,"Mangg":12219,"Douglas</w>":12220,"547":12221,"puluhan</w>":12222,"Paul":12223,"Walter</w>":12224,"later":12225,"petunjuk</w>":12226,"175</w>":12227,"PP</w>":12228,"Sma</w>":12229,"betu":12230,"upan</w>":12231,"atrium</w>":12232,"ring":12233,"awat</w>":12234,"146":12235,"Apabila</w>":12236,"panglima</w>":12237,"badi</w>":12238,"Universe</w>":12239,"idola</w>":12240,"Ternate</w>":12241,"Pemimpin</w>":12242,"Berbeda</w>":12243,"kardinal</w>":12244,"patri":12245,"154</w>":12246,"Urusan</w>":12247,"Sach":12248,"Audi":12249,"Pos</w>":12250,"Perjalanan</w>":12251,"menyusul</w>":12252,"185</w>":12253,"ganistan</w>":12254,"kapten</w>":12255,"punah</w>":12256,"eodera</w>":12257,"Acmaeodera</w>":12258,"tangkan</w>":12259,"138</w>":12260,"atum</w>":12261,"biar":12262,"merancang</w>":12263,"205</w>":12264,"menggan":12265,"Kej":12266,"Aur":12267,"zen</w>":12268,"vektor</w>":12269,"siran</w>":12270,"Cov":12271,"Cher":12272,"Ordo</w>":12273,"Kennedy</w>":12274,"Cli":12275,"gy</w>":12276,"jamur</w>":12277,"Tes":12278,"cah</w>":12279,"abo":12280,"By":12281,"jut</w>":12282,"penggabungan</w>":12283,"Laksamana</w>":12284,"pengertian</w>":12285,"Villa</w>":12286,"pseudo":12287,"Prabu</w>":12288,"Bang</w>":12289,"Ltd</w>":12290,"Vik":12291,"Zen":12292,"Hill</w>":12293,"Pseudo":12294,"tya</w>":12295,"asari</w>":12296,"gau</w>":12297,"Nigeria</w>":12298,"Nagari</w>":12299,"sie</w>":12300,"alias</w>":12301,"wak</w>":12302,"ditarik</w>":12303,"142</w>":12304,"Mahkota</w>":12305,"Mid":12306,"kunjungi</w>":12307,"ness</w>":12308,"cos":12309,"hy</w>":12310,"olakan</w>":12311,"lay</w>":12312,"akal</w>":12313,"165</w>":12314,"rit</w>":12315,"finalis</w>":12316,"Malaka</w>":12317,"matri":12318,"tir":12319,"kamu</w>":12320,"gasnya</w>":12321,"anni</w>":12322,"tamin</w>":12323,"menep</w>":12324,"Nad":12325,"tsu":12326,"orejo</w>":12327,"182</w>":12328,"1905</w>":12329,"klasifikasikan</w>":12330,"tawaringin</w>":12331,"Ujung</w>":12332,"nir":12333,"beria</w>":12334,"Perbedaan</w>":12335,"menggelar</w>":12336,"pengaturan</w>":12337,"Ericales</w>":12338,"sw":12339,"persyaratan</w>":12340,"Kejadian</w>":12341,"panj":12342,"Meny":12343,"Jember</w>":12344,"saksi</w>":12345,"Cilacap</w>":12346,"pribadian</w>":12347,"meyakinkan</w>":12348,"dibatalkan</w>":12349,"Jombang</w>":12350,"We</w>":12351,"Andi</w>":12352,"Andrew</w>":12353,"pemeriksaan</w>":12354,"Kulon</w>":12355,"bakan</w>":12356,"lektual</w>":12357,"hemia</w>":12358,"vol":12359,"sex</w>":12360,"Mega":12361,"Fisi":12362,"Sag":12363,"tarsus</w>":12364,"ude</w>":12365,"pertarungan</w>":12366,"menguntungkan</w>":12367,"arta</w>":12368,"wahana</w>":12369,"kia</w>":12370,"mis</w>":12371,"sein</w>":12372,"derson</w>":12373,"Wer":12374,"abel</w>":12375,"peli":12376,"lamanya</w>":12377,"HD</w>":12378,"152</w>":12379,"Banyumas</w>":12380,"zidae</w>":12381,"bermarkas</w>":12382,"perut</w>":12383,"Didirikan</w>":12384,"not</w>":12385,"nol</w>":12386,"zy</w>":12387,"antin</w>":12388,"mengak":12389,"Mau":12390,"Trum":12391,"Ray</w>":12392,"Sarjana</w>":12393,"ekspresi</w>":12394,"Front</w>":12395,"Bursa</w>":12396,"ditunjukkan</w>":12397,"sele":12398,"amal</w>":12399,"chin":12400,"abe</w>":12401,"langka</w>":12402,"Ciri</w>":12403,"terendah</w>":12404,"Araneus</w>":12405,"Jaringan</w>":12406,"terancam</w>":12407,"Peg":12408,"keny":12409,"Reaksi</w>":12410,"hubungannya</w>":12411,"Tsu":12412,"Penampilan</w>":12413,"Abi":12414,"tatnya</w>":12415,"karangan</w>":12416,"hua</w>":12417,"bertempur</w>":12418,"pendidi":12419,"Brah":12420,"membebaskan</w>":12421,"Istimewa</w>":12422,"Wri":12423,"sore</w>":12424,"chan":12425,"barnya</w>":12426,"uknya</w>":12427,"Yi</w>":12428,"1915</w>":12429,"Terletak</w>":12430,"380</w>":12431,"Garis</w>":12432,"First</w>":12433,"pengiriman</w>":12434,"301</w>":12435,"dent</w>":12436,"dahkan</w>":12437,"Cour":12438,"terbakar</w>":12439,"Theodo":12440,"diajukan</w>":12441,"Joko</w>":12442,"olehan</w>":12443,"mahera</w>":12444,"Alexand":12445,"light</w>":12446,"148</w>":12447,"Island</w>":12448,"Pasuruan</w>":12449,"Queen</w>":12450,"Ming</w>":12451,"zon":12452,"perencanaan</w>":12453,"1908</w>":12454,"Akibat</w>":12455,"202</w>":12456,"istirahat</w>":12457,"Som":12458,"MT":12459,"ambat</w>":12460,"225</w>":12461,"BE":12462,"moyang</w>":12463,"subjek</w>":12464,"ferendum</w>":12465,"Pop</w>":12466,"bourne</w>":12467,"kurun</w>":12468,"Kampanye</w>":12469,"Chelsea</w>":12470,"bby</w>":12471,"Proto":12472,"rutin</w>":12473,"280</w>":12474,"147</w>":12475,"implemen":12476,"kru</w>":12477,"boy</w>":12478,"270</w>":12479,"segmen</w>":12480,"ingrat</w>":12481,"ancangan</w>":12482,".”</w>":12483,"mud</w>":12484,"aneh</w>":12485,"yg</w>":12486,"menyutradarai</w>":12487,"Aer":12488,"ichi</w>":12489,"dihitung</w>":12490,"prus</w>":12491,"arkeologi</w>":12492,"bing":12493,"iso":12494,"iang</w>":12495,"pit</w>":12496,"tator</w>":12497,"Kata":12498,"Kil":12499,"pindahan</w>":12500,"bertarung</w>":12501,"kil":12502,"kebangsaan</w>":12503,"kudeta</w>":12504,"basah</w>":12505,"sono</w>":12506,"kakaknya</w>":12507,"bertajuk</w>":12508,"jejak</w>":12509,"Dubai</w>":12510,"sekun":12511,"orang":12512,"transmisi</w>":12513,"Sakti</w>":12514,"tawaran</w>":12515,"Gat":12516,"wen</w>":12517,"jazz</w>":12518,"helikopter</w>":12519,"talis</w>":12520,"Ferr":12521,"Fuku":12522,"DA</w>":12523,"PC</w>":12524,"kad</w>":12525,"Marga</w>":12526,"fosil</w>":12527,"tingginya</w>":12528,"truk</w>":12529,"deng</w>":12530,"jal</w>":12531,"ann</w>":12532,"Lamongan</w>":12533,"komodi":12534,"Sumedang</w>":12535,"pengajar</w>":12536,"serat</w>":12537,"Budi</w>":12538,"Bisnis</w>":12539,"dipublikasikan</w>":12540,"maksimal</w>":12541,"arana</w>":12542,"206</w>":12543,"Sidoarjo</w>":12544,"yx</w>":12545,"IN</w>":12546,"teli":12547,"kristal</w>":12548,"937":12549,"reditasi</w>":12550,"Mongolia</w>":12551,"Epar":12552,"anbaru</w>":12553,"lidi":12554,"bir":12555,"memperkirakan</w>":12556,"Philip</w>":12557,"Sudi":12558,"aur":12559,"Modern</w>":12560,"Taw":12561,"berkarier</w>":12562,"tangnya</w>":12563,"rumit</w>":12564,"berharga</w>":12565,"Merupakan</w>":12566,"dikendalikan</w>":12567,"diawali</w>":12568,"Mai":12569,"Liver":12570,"203</w>":12571,"Rute</w>":12572,"Pir":12573,"157</w>":12574,"menembak</w>":12575,"debatan</w>":12576,"iringi</w>":12577,"imal</w>":12578,"terde":12579,"151</w>":12580,"dek</w>":12581,"mono":12582,"memberitahu</w>":12583,"serang</w>":12584,"penghormatan</w>":12585,"mpang</w>":12586,"Gabri":12587,"tanggapan</w>":12588,"illa":12589,"yakin</w>":12590,"kompilasi</w>":12591,"Sumbawa</w>":12592,"dorf</w>":12593,"fare</w>":12594,"rer":12595,"onkan</w>":12596,"leu":12597,"menganut</w>":12598,"pengolahan</w>":12599,"Atlantik</w>":12600,"Fabales</w>":12601,"Ogan</w>":12602,"sukar":12603,"162</w>":12604,"480":12605,"menghargai</w>":12606,"Ryan</w>":12607,"jajaran</w>":12608,"pora</w>":12609,"ae":12610,"sumpah</w>":12611,"tie</w>":12612,"mewah</w>":12613,"181</w>":12614,"Cambridge</w>":12615,"riwayat</w>":12616,"misionaris</w>":12617,"168</w>":12618,"Digital</w>":12619,"Virginia</w>":12620,"omyza</w>":12621,"Rhe":12622,"tisan</w>":12623,"149</w>":12624,"Afganistan</w>":12625,"beran":12626,"Simal":12627,"235</w>":12628,"163</w>":12629,"Steve</w>":12630,"Lud":12631,"leri</w>":12632,"var":12633,"perfilman</w>":12634,"Studios</w>":12635,"litas</w>":12636,"Tad":12637,"kun</w>":12638,"rogen</w>":12639,"ajikan</w>":12640,"ponsel</w>":12641,"bury</w>":12642,"Jupiter</w>":12643,"166</w>":12644,"Pontianak</w>":12645,"Pekanbaru</w>":12646,"cebook</w>":12647,"rumus</w>":12648,"paroki</w>":12649,"belakangan</w>":12650,"MTV</w>":12651,"mempertimbangkan</w>":12652,"Guin":12653,"padu</w>":12654,"now</w>":12655,"Gog":12656,"ayana</w>":12657,"1338":12658,"Kapuas</w>":12659,"begin</w>":12660,"Um":12661,"wari</w>":12662,"158</w>":12663,"1347":12664,"BM</w>":12665,"sons</w>":12666,"Jati</w>":12667,"SC</w>":12668,"itasi</w>":12669,"muk":12670,"Sarana</w>":12671,"menghilang</w>":12672,"pal</w>":12673,"205":12674,"mengawali</w>":12675,"Wilson</w>":12676,"berkedudukan</w>":12677,"dikaruni":12678,"Hati</w>":12679,"imigran</w>":12680,"xy</w>":12681,"Kuta</w>":12682,"ondow</w>":12683,"AIN</w>":12684,"ties</w>":12685,"sifikasi</w>":12686,"barunya</w>":12687,"harmon":12688,"Riz":12689,"Pagi</w>":12690,"936":12691,"192</w>":12692,"Ayah</w>":12693,"Plus</w>":12694,"dr</w>":12695,"335":12696,"velop":12697,"204":12698,"156</w>":12699,"1337":12700,"menyimpulkan</w>":12701,"Hok":12702,"Tuan</w>":12703,"situ</w>":12704,"osobo</w>":12705,"etas</w>":12706,"sam</w>":12707,"256</w>":12708,"memecahkan</w>":12709,"sekretaris</w>":12710,"Bulu</w>":12711,"Diper":12712,"Standar</w>":12713,"ril</w>":12714,"Penyak":12715,"938":12716,"Blitar</w>":12717,"eo</w>":12718,"tikannya</w>":12719,"Dit":12720,"diaman</w>":12721,"musiknya</w>":12722,"Film":12723,"Statistik</w>":12724,"Regi":12725,"bahnya</w>":12726,"tut</w>":12727,"hiper":12728,"284":12729,"310</w>":12730,"Kala":12731,"Nata":12732,"diusulkan</w>":12733,"paksa</w>":12734,"jad</w>":12735,"perenang</w>":12736,"Commun":12737,"bukitan</w>":12738,"doktrin</w>":12739,"Cao</w>":12740,"MN":12741,"mengusir</w>":12742,".\"></w>":12743,"sampel</w>":12744,"pembayaran</w>":12745,"penjajahan</w>":12746,"Spr":12747,"odes</w>":12748,"pengin":12749,"melaju</w>":12750,"1339":12751,"Research</w>":12752,"XIX</w>":12753,"rang":12754,"angun</w>":12755,"menyanyi</w>":12756,"krip</w>":12757,"myzidae</w>":12758,"Klaten</w>":12759,"Kolombia</w>":12760,"214</w>":12761,"Dil":12762,"busana</w>":12763,"Pengar":12764,"jumlahnya</w>":12765,"Agromyzidae</w>":12766,"omor":12767,"psikologi</w>":12768,"Bojonegoro</w>":12769,"legasi</w>":12770,"mengapa</w>":12771,"ideologi</w>":12772,"sterdam</w>":12773,"Kaum</w>":12774,"Nilai</w>":12775,"memuji</w>":12776,"Penyakit</w>":12777,"204</w>":12778,"komu":12779,"sty":12780,"diwar":12781,"tok</w>":12782,"184</w>":12783,"164</w>":12784,"terikat</w>":12785,"isai</w>":12786,"penilaian</w>":12787,"Kru":12788,"Chap":12789,"sintesis</w>":12790,"berny":12791,"sanya</w>":12792,"kesejahteraan</w>":12793,"dikenakan</w>":12794,"cale</w>":12795,"keterangan</w>":12796,"Kayu</w>":12797,"Ple":12798,"pembangkit</w>":12799,"169</w>":12800,"untuhan</w>":12801,"diali":12802,"Hos":12803,"North":12804,"Fat":12805,"SA</w>":12806,"Sarah</w>":12807,"kew":12808,"tanegara</w>":12809,"ongkan</w>":12810,"Sukar":12811,"seniornya</w>":12812,"Ilir</w>":12813,"tukang</w>":12814,"meres":12815,"189</w>":12816,"sesudah</w>":12817,"atasnya</w>":12818,"sampah</w>":12819,"durasi</w>":12820,"tifkan</w>":12821,"county</w>":12822,"tingkatan</w>":12823,"transisi</w>":12824,"kalian</w>":12825,"penderita</w>":12826,"Libya</w>":12827,"Eparki</w>":12828,"215</w>":12829,"setinggi</w>":12830,"berpenduduk</w>":12831,"2260":12832,"161</w>":12833,"Ponorogo</w>":12834,"ungguh</w>":12835,"Globe</w>":12836,"mendominasi</w>":12837,"server</w>":12838,"tangannya</w>":12839,"plastik</w>":12840,"167</w>":12841,"padanya</w>":12842,"1907</w>":12843,"bala</w>":12844,"Massa":12845,"ekspansi</w>":12846,"menandakan</w>":12847,"az</w>":12848,"selir</w>":12849,"tas":12850,"sell</w>":12851,"Ei":12852,"ewa</w>":12853,"pep":12854,"Perjuangan</w>":12855,"2258":12856,"berkarya</w>":12857,"mengkritik</w>":12858,"Keda":12859,"mund</w>":12860,"Samudera</w>":12861,"diletakkan</w>":12862,"libur</w>":12863,"pencer":12864,"Kedokteran</w>":12865,"udin</w>":12866,"hia</w>":12867,"klor":12868,"rang</w>":12869,"bertanya</w>":12870,"2280":12871,"badai</w>":12872,"fit":12873,"uannya</w>":12874,"laju</w>":12875,"silah</w>":12876,"itraan</w>":12877,"thy</w>":12878,"144":12879,"lesaian</w>":12880,"astronomi</w>":12881,"jun":12882,"berkontribusi</w>":12883,"mut</w>":12884,"Science</w>":12885,"epi":12886,"tret</w>":12887,"Oc":12888,"membran</w>":12889,"undation</w>":12890,"Indonesian</w>":12891,"dihubungkan</w>":12892,"urs</w>":12893,"dolar</w>":12894,"pujian</w>":12895,"171</w>":12896,"regat</w>":12897,"Aleksander</w>":12898,"pengisi</w>":12899,"hon":12900,"Sher":12901,"sonan</w>":12902,"Mum":12903,"Tol":12904,"Corne":12905,"tigasi</w>":12906,"2257":12907,"Islandia</w>":12908,"dimaksud</w>":12909,"188</w>":12910,"PG":12911,"bergelar</w>":12912,"rentang</w>":12913,"oposisi</w>":12914,"Abraham</w>":12915,"mitos</w>":12916,"SO":12917,"juni":12918,"domain</w>":12919,"menyajikan</w>":12920,"Amsterdam</w>":12921,"mengerjakan</w>":12922,"%)</w>":12923,"kpapan</w>":12924,"lav</w>":12925,"berlebihan</w>":12926,"dikaruniai</w>":12927,"negosiasi</w>":12928,"Bhar":12929,"ollis</w>":12930,"Petro":12931,"Kasus</w>":12932,"aliansi</w>":12933,"Service</w>":12934,"pentingnya</w>":12935,"ayahandanya</w>":12936,"Gay":12937,"Run":12938,"menum":12939,"panen</w>":12940,"ww":12941,"aru</w>":12942,"191</w>":12943,"Maskapai</w>":12944,"cks</w>":12945,"Karakter</w>":12946,"Tat":12947,"cl":12948,"pografi</w>":12949,"Abdur":12950,"asalnya</w>":12951,"sekunder</w>":12952,"Simalungun</w>":12953,"lands</w>":12954,"Agus</w>":12955,"liner</w>":12956,"oda</w>":12957,"gakan</w>":12958,"Makmur</w>":12959,"town</w>":12960,"Wido":12961,"AFC</w>":12962,"Iz":12963,"Lewis</w>":12964,"jendela</w>":12965,"mimpi</w>":12966,"mpingi</w>":12967,"Alfred</w>":12968,"Good</w>":12969,"Phytomyza</w>":12970,"183</w>":12971,"179</w>":12972,"Neo":12973,"480</w>":12974,"mengukur</w>":12975,"universal</w>":12976,"Sc":12977,"oleon</w>":12978,"159</w>":12979,"pengembang</w>":12980,"silat</w>":12981,"Num":12982,"haji</w>":12983,"gawang</w>":12984,"presi</w>":12985,"211</w>":12986,"chon":12987,"lass</w>":12988,"tter":12989,"lombaan</w>":12990,"Konsili</w>":12991,"sayuran</w>":12992,"217</w>":12993,"186</w>":12994,"Turnamen</w>":12995,"senilai</w>":12996,"Rama</w>":12997,"peluang</w>":12998,"rekannya</w>":12999,"NBA</w>":13000,"dion</w>":13001,"piano</w>":13002,"Damp":13003,"tation</w>":13004,"tabung</w>":13005,"pengukuran</w>":13006,"Chin":13007,"jalannya</w>":13008,"prosedur</w>":13009,"Gy":13010,"193</w>":13011,"2256":13012,"Great</w>":13013,"sias</w>":13014,"intelektual</w>":13015,"dihadiri</w>":13016,"gma</w>":13017,"kerugian</w>":13018,"dinamika</w>":13019,"capaian</w>":13020,"Myrtales</w>":13021,"Edi":13022,"kelem":13023,"minimal</w>":13024,"Kamila</w>":13025,"lengkapan</w>":13026,"Android</w>":13027,"Amar":13028,"rok":13029,"real</w>":13030,"1340":13031,"Kemen":13032,"anggar</w>":13033,"Lubuk</w>":13034,"rombongan</w>":13035,"ikkan</w>":13036,"305</w>":13037,"501</w>":13038,"Dharma</w>":13039,"Sesuai</w>":13040,"tanam</w>":13041,"Defin":13042,"Deskripsi</w>":13043,"mengawasi</w>":13044,"kabur</w>":13045,"2259":13046,"365</w>":13047,"Bireuen</w>":13048,"anggotaan</w>":13049,"dahnya</w>":13050,"ond</w>":13051,"1346":13052,"166":13053,"color</w>":13054,"Sanskerta</w>":13055,"mengangkut</w>":13056,"Kampus</w>":13057,"Seng":13058,"temper":13059,"pengur":13060,"minkan</w>":13061,"qui":13062,"Rek":13063,"terpre":13064,"habitatnya</w>":13065,"dengarkan</w>":13066,"Antiok":13067,"BN</w>":13068,"ful":13069,"led</w>":13070,"172</w>":13071,"Pemenang</w>":13072,"erine</w>":13073,"komite</w>":13074,"Alas":13075,"taraan</w>":13076,"178</w>":13077,"argumen</w>":13078,"berkelanjutan</w>":13079,"usung</w>":13080,"Cem":13081,"wat":13082,"1246":13083,"Sisilia</w>":13084,"miliknya</w>":13085,"kargo</w>":13086,"939":13087,"disem":13088,"live</w>":13089,"stra</w>":13090,"mengelilingi</w>":13091,"Blan":13092,"jas":13093,"kedelapan</w>":13094,"255</w>":13095,"Roh</w>":13096,"Masalah</w>":13097,"1540":13098,"tariat</w>":13099,"olali</w>":13100,"Tamp":13101,"buhan":13102,"173</w>":13103,"survei</w>":13104,"Gul":13105,"UH":13106,"1237":13107,"tion":13108,"mewujudkan</w>":13109,"185":13110,"Kenya</w>":13111,"witter</w>":13112,"spiritual</w>":13113,"303</w>":13114,"Iskan":13115,"magnetik</w>":13116,"?\"</w>":13117,"terima</w>":13118,"sistem":13119,"Energi</w>":13120,"kerjakan</w>":13121,"Christoph":13122,"menuliskan</w>":13123,"Cak":13124,"medes":13125,"alti</w>":13126,"ahannya</w>":13127,"1257":13128,"Wilhelm</w>":13129,"mendefin":13130,"gravitasi</w>":13131,"linga</w>":13132,"Net":13133,"bersalah</w>":13134,"berkunjung</w>":13135,"221</w>":13136,"2247":13137,"optim":13138,"primer</w>":13139,"Nepal</w>":13140,"Hur":13141,"kotamadya</w>":13142,"bernyanyi</w>":13143,"kaannya</w>":13144,"tolem":13145,"176</w>":13146,"penerimaan</w>":13147,"199</w>":13148,"1269":13149,"negaranya</w>":13150,"darin</w>":13151,"pembakaran</w>":13152,"Sriwijaya</w>":13153,"Hampir</w>":13154,"vad":13155,"lakuan</w>":13156,"Penda":13157,"Suzuki</w>":13158,"mengakuisisi</w>":13159,"Office</w>":13160,"play":13161,"graman</w>":13162,"diraih</w>":13163,"gradasi</w>":13164,"1247":13165,"Chur":13166,"dihapus</w>":13167,"940":13168,"seter":13169,"Perdamaian</w>":13170,"popular":13171,
[...]
