<unk>
<s>
</s>
,
.
▁dan
▁yang
doc
>
▁<
▁di
"
-
/
▁dari
▁id
▁title
▁url
="?
curid
="
▁ini
▁pada
▁"
▁adalah
▁dengan
▁(
▁untuk
▁dalam
nya
▁tahun
▁
▁oleh
▁ke
▁sebagai
)
▁juga
an
▁merupakan
s
▁menjadi
▁atau
▁tidak
▁tersebut
▁Pada
▁sebuah
▁itu
▁bagian
:
i
▁Indonesia
▁dapat
▁ia
▁satu
a
▁memiliki
▁mereka
▁telah
▁bahwa
▁spesies
▁pertama
;
e
▁lebih
▁seorang
▁orang
▁karena
".
▁akan
▁Ia
▁seperti
kan
▁secara
▁besar
▁kota
o
▁ada
▁Di
▁lain
▁kemudian
▁saat
).
▁beberapa
▁salah
▁film
),
'
▁kayu
▁antara
▁banyak
▁setelah
▁kali
▁dua
▁Amerika
▁Spesies
▁ordo
t
▁tanggal
▁wilayah
▁A
▁genus
▁para
▁1
▁kelas
▁famili
▁nama
▁negara
▁tetapi
▁atas
▁desa
▁biasanya
n
▁hingga
▁bahasa
▁tergolong
▁kepada
▁yaitu
▁Kabupaten
▁I
k
▁digunakan
▁of
▁2
▁S
▁serta
▁terletak
▁sendiri
▁hanya
▁baru
▁tempat
y
▁dia
▁lainnya
▁()
▁sampai
▁Dalam
▁kumbang
us
▁hidup
",
▁dikenal
▁selama
▁asteroid
▁sangat
d
▁Jepang
▁masa
▁kembali
▁menggunakan
▁berada
▁sama
▁ber
▁3
▁sekitar
▁Serikat
A
▁Selatan
▁Timur
▁Barat
▁anggota
▁dunia
▁filum
▁Animalia
▁disebut
▁kingdom
▁anak
▁bulan
▁Jawa
▁kedua
▁mulai
er
ta
m
▁Arthropoda
▁Insecta
▁berasal
▁bersama
di
▁Kota
▁Dia
▁Desa
in
▁Setelah
▁daerah
2
h
▁kecamatan
▁melalui
na
u
▁masih
▁hari
is
▁Film
▁lagu
▁Utara
▁termasuk
S
▁membuat
▁utama
▁terhadap
▁M
▁Negeri
▁ketika
▁sehingga
▁Inggris
▁sejak
▁Nama
▁the
▁panjang
▁pernah
▁tentang
▁bisa
▁waktu
▁bawah
▁awal
r
▁menyebabkan
▁4
▁air
▁bagi
▁berbagai
al
▁tiga
)"
▁sudah
b
▁de
▁diterbitkan
▁-
▁masyarakat
en
l
▁B
1
▁tinggi
▁rumah
▁terdapat
▁Namun
▁terjadi
▁suatu
▁terdiri
▁("
da
▁penduduk
on
▁paling
ka
▁Lalat
▁E
▁Al
ing
▁melakukan
▁5
▁mana
▁musim
C
si
▁kecil
de
▁The
")
▁Selain
▁ilmiah
to
▁&
▁baik
▁Jerman
▁perusahaan
▁Kecamatan
▁sistem
▁umum
▁semua
▁musik
▁sementara
▁dilakukan
ra
▁abad
la
▁Prancis
▁Provinsi
▁asal
▁album
▁II
▁Belanda
The
▁harus
▁bola
▁hal
man
▁O
▁bernama
▁luar
▁10
▁diri
sa
▁Tengah
te
▁K
▁seluruh
ma
▁sering
▁jumlah
g
▁a
▁tim
▁sebesar
p
▁Eropa
▁sebelum
B
▁6
amp
no
es
c
▁akhir
▁pemain
▁F
▁berhasil
▁lagi
▁barat
▁H
ku
le
▁setiap
▁C
▁cukup
▁15
▁batang
▁and
▁Ke
▁D
ke
f
▁utara
▁bermain
▁akhirnya
▁karya
▁U
&
▁laut
▁sekolah
▁kerusakan
P
3
▁Universitas
▁Larva
▁Coleoptera
▁sebagian
ya
▁T
▁dirilis
▁bentuk
se
▁Jakarta
▁memberikan
▁7
▁manusia
▁Tiongkok
at
▁16
▁tak
▁Raja
▁sebelumnya
▁provinsi
▁selatan
▁G
ar
▁per
▁matahari
▁jiwa
▁umumnya
▁12
▁Mei
lt
▁Perang
z
▁Dunia
▁Islam
▁tanah
▁P
▁8
D
▁namun
▁sepak
G
▁keluarga
▁pun
▁timur
li
▁luas
▁India
▁dekat
▁17
▁in
re
me
T
▁jenis
▁pemerintah
ia
M
▁ditemukan
lah
▁se
▁pendidikan
K
ri
▁km
ko
▁tanduk
ti
▁muda
▁Oktober
▁masuk
▁kapal
▁kata
▁Desember
▁proses
▁Maret
▁Juli
▁tetap
▁pemerintahan
I
▁September
▁bidang
ne
▁ditebang
▁April
▁Cerambycidae
▁mengebor
▁Agustus
▁Se
▁bekerja
▁lalu
▁mempunyai
F
▁acara
▁Januari
▁Nasional
▁maka
H
▁Korea
▁al
▁lahir
▁resmi
▁tumbuhan
▁sekarang
▁ter
▁empat
▁pasukan
▁Juni
▁9
▁–
▁Republik
▁berbeda
▁berdasarkan
▁nasional
E
▁mendapatkan
ah
▁kelompok
▁perang
▁Sejarah
▁Mereka
▁Beberapa
▁mencapai
ang
▁maupun
▁politik
▁api
▁berubah
orang
▁La
▁lalat
ni
▁Hal
gt
▁terakhir
▁terkenal
▁Seperti
▁sejarah
▁tinggal
go
▁kereta
▁11
▁menyatakan
▁pesawat
▁pusat
▁20
um
ter
▁November
O
▁R
▁dianggap
▁hasil
▁agama
▁14
▁Dengan
▁dibuat
▁nebula
▁langsung
▁Aceh
4
▁menjabat
ga
▁Pulau
▁suku
▁tanpa
▁Daftar
▁meninggal
ed
▁juta
▁muncul
▁raja
▁Tahun
ik
▁Sungai
el
▁gelar
▁J
ba
▁lama
mi
▁jalan
▁13
▁negeri
▁Dewan
▁Menurut
x
▁'
▁Si
▁Diptera
▁mengenai
ro
▁penting
▁V
▁suara
▁agar
▁Presiden
▁udara
▁Februari
▁sedang
▁televisi
▁Menteri
▁Italia
do
▁klub
▁ibu
et
▁didirikan
▁wanita
▁Saat
▁buku
–
▁Ka
▁melawan
▁hukum
▁No
▁militer
▁Asia
▁Stasiun
▁Para
▁Gereja
▁mungkin
▁mengalami
ja
pa
▁Untuk
▁menerima
ge
▁Raya
ca
▁tingkat
▁jalur
▁tengah
▁posisi
film
▁program
▁jika
▁grup
▁menunjukkan
▁ketiga
▁cara
▁perempuan
th
▁Rusia
▁pulau
▁bergabung
▁planet
▁N
▁terbesar
▁Kerajaan
▁saja
▁s
▁sejumlah
▁putra
▁ditulis
ji
▁De
▁New
▁Baru
▁Partai
▁orbit
▁periode
ton
R
▁bahan
▁internasional
▁kepala
▁batu
N
▁stasiun
▁terutama
▁berarti
▁bumi
▁dimulai
ch
ur
▁mengambil
▁tercatat
▁lima
▁Agung
▁sebelah
laba
▁kurang
▁membentuk
▁dibangun
ha
▁sumber
j
or
▁berikut
▁Ma
ung
▁Kristen
5
▁Sekolah
▁terbentuk
per
J
yang
▁yakni
ber
▁m
▁L
wa
▁memenangkan
▁ekonomi
▁hubungan
ki
▁biasa
▁Angkatan
il
▁sosial
▁Ber
▁Li
mo
▁sungai
▁Ini
▁makanan
▁pula
U
▁memulai
▁mendapat
gi
▁30
▁khusus
7
▁Negara
▁Sumatra
6
▁Laut
▁menemukan
▁Re
▁permukaan
▁Karena
▁menulis
▁terus
▁tubuh
▁SM
▁Bahasa
▁Me
▁Ketika
▁to
▁belum
▁W
▁sesuatu
▁kerajaan
it
os
ng
▁Katolik
▁Piala
▁Sebagai
▁menghasilkan
pe
▁Udara
▁sebanyak
w
▁Sa
▁budaya
ak
▁kawasan
▁2011
▁sedangkan
masing
son
▁Ha
▁jauh
W
▁berjudul
▁produksi
▁“
▁Arab
▁bukan
▁pertandingan
ry
▁versi
▁Yunani
▁dasar
▁Britania
▁Dari
▁diberikan
▁18
▁bin
bo
ce
▁pihak
▁organisasi
▁tokoh
▁belakang
sari
▁warga
▁Su
▁Ko
asi
▁penghargaan
L
▁Le
8
▁[[
▁Daerah
as
▁Uni
▁bangunan
v
▁)
▁masing
▁bintang
un
▁re
▁peran
▁menurut
▁bahkan
▁kehidupan
co
▁penulis
▁mengikuti
▁zaman
▁mengatakan
▁jaringan
▁menuju
▁dirinya
▁Dan
▁sepanjang
▁Pendidikan
▁mampu
tan
▁Meskipun
▁kegiatan
▁awalnya
▁membantu
▁Gunung
▁dimana
▁bangsa
▁2010
▁alam
men
▁keseluruhan
▁industri
▁meraih
ul
▁tertentu
▁Terbaik
▁Australia
▁Pa
id
▁meskipun
▁Kemudian
▁mesin
lo
▁SD
▁berupa
▁Internasional
▁hak
ly
▁Per
V
▁membawa
▁Ba
▁25
▁Lagu
▁Ci
▁depan
▁meliputi
▁Spanyol
▁kerja
be
ir
▁sesuai
▁Pe
▁si
▁19
▁San
Daftar
mu
▁usia
▁Liga
▁ruang
▁masalah
▁Karier
▁cerita
▁Afrika
▁melihat
▁Sejak
▁2008
anak
▁hampir
▁24
▁meter
▁akibat
va
▁21
▁daya
▁adanya
▁John
▁ilmu
▁mata
▁datang
▁video
▁rendah
’
▁2009
▁pe
▁pemimpin
▁Na
▁keras
▁tampil
▁daftar
▁TV
▁Kepulauan
▁seni
▁Kepala
▁sisi
▁SMA
▁modern
▁ingin
▁data
tu
▁serangan
ru
▁pertamanya
▁Ada
▁drama
▁sedikit
▁demikian
▁media
▁seri
▁Besar
▁formula
▁diketahui
tik
▁putri
▁daripada
▁mendirikan
9
▁penyanyi
▁Air
negara
▁Bo
▁Bangsa
lu
▁Sementara
▁ditemui
▁asli
▁perubahan
▁Man
▁Kalimantan
▁Roma
▁Mo
▁serial
▁semakin
▁istilah
▁Selama
▁Malaysia
▁selalu
▁permainan
isme
▁menampilkan
▁22
▁berkembang
▁diberi
▁Allah
laki
▁buah
st
▁jam
lan
▁sel
▁Ar
jo
▁Bandung
▁2012
▁milik
bi
▁Soviet
-19
▁Da
du
▁tentara
▁Pembentukan
▁So
ut
▁me
▁Ki
am
▁lingkungan
▁diadakan
▁hutan
▁Go
▁magnitudo
han
▁AS
▁Bandar
▁berlangsung
▁e
▁nilai
▁23
▁tua
▁mobil
▁Penghargaan
▁Israel
▁surat
▁tangan
▁menikah
▁III
]]
▁kekuasaan
▁Tim
der
▁berikutnya
wan
▁Sulawesi
▁belajar
so
▁laki
▁Sultan
▁mendukung
▁kuat
▁Romawi
▁tujuan
▁cepat
▁X
▁Jalan
▁mantan
▁enam
▁produk
▁pendek
▁partai
▁Jalur
ek
▁apa
ok
▁kekuatan
”
▁pembangunan
▁2013
▁pecahan
2.
▁meninggalkan
▁In
▁keturunan
▁kabupaten
▁disutradarai
▁tradisional
rata
▁memilih
▁lokal
▁Eksentrisitas
▁mutlaknya
su
▁kelurahan
dan
▁kita
▁diproduksi
▁memutuskan
yo
▁perjalanan
▁An
ad
ong
▁kematian
▁aktif
sh
wi
▁kasus
ck
▁kini
▁York
▁informasi
▁arah
▁model
ling
tor
▁gaya
▁Pemerintah
▁d
▁Ku
▁terpilih
▁Ketua
▁dipimpin
▁alat
chi
▁Ra
ensis
▁nomor
▁(19
▁band
▁Ta
▁pantai
="18
▁Tenggara
▁Secara
▁putih
▁Muhammad
▁Rakyat
▁membangun
▁Be
▁penerbangan
▁berakhir
▁pribadi
br
▁kaki
▁2007
▁pemilihan
▁Yang
▁penggunaan
▁Berikut
▁karakter
▁pindah
bu
=18
▁pergi
▁PT
▁Asteroid
▁Mesir
▁Yahudi
▁Pangeran
X
▁Bu
▁malam
▁Mar
▁populasi
▁primordial
▁Kaisar
▁karier
▁meng
▁warna
land
(
▁sempat
▁sa
sen
▁pasar
▁Album
▁planetisimal
▁Lo
▁Wilayah
▁26
▁sekali
▁teknologi
▁keluar
▁utamanya
▁Pusat
▁episode
▁Co
▁tertinggi
tra
▁Sebuah
▁Ni
▁memberi
▁sakit
au
▁To
▁2006
▁terbaik
▁populer
ten
▁kondisi
▁uang
▁sub
▁for
▁operasi
▁distrik
▁gereja
▁dipakai
▁memperoleh
▁rakyat
▁penyakit
▁non
▁sang
▁la
ol
▁no
Y
den
▁mencari
▁ikut
pi
▁Awards
é
▁Te
▁berdiri
▁27
lin
▁presiden
▁ialah
▁Jenderal
▁spons
▁lokasi
SD
gen
▁ahli
▁berwarna
▁100
▁28
▁St
▁ulang
▁hewan
▁bertemu
isasi
▁Tinggi
ci
▁total
▁Bumi
▁men
▁panas
▁berisi
▁titik
▁situs
▁Dr
▁mencakup
▁Kekaisaran
uk
▁ayahnya
▁jabatan
za
▁Keuskupan
▁garis
▁tangga
▁layanan
▁Kehidupan
▁listrik
▁Ne
▁Ter
").
san
▁Ro
▁ikan
▁merah
▁sana
▁berat
▁jarak
mer
▁sekaligus
▁mati
mar
▁meningkatkan
▁meminta
▁2014
▁Padang
▁senjata
▁Salah
▁Bali
"),
gan
▁usaha
▁dibentuk
▁gerakan
tus
▁2016
▁penuh
La
eng
▁As
▁2005
▁pertanian
▁Kedua
▁Ri
pan
▁Orang
▁terkait
gu
▁Lu
▁diangkat
▁teori
▁kuno
▁menarik
▁Tidak
▁mudah
▁unit
▁antaranya
▁tanaman
ve
▁kaum
ger
▁fungsi
ran
▁b
▁i
▁Mu
vi
ju
▁pengembangan
▁peringkat
▁keadaan
▁El
▁penelitian
▁mengumumkan
▁pria
Bangsa
▁babak
▁Han
▁bantuan
min
▁Yu
▁menggantikan
▁Dua
▁hitam
▁bunga
▁Alkitab
▁2000
satunya
Z
hi
▁Musim
▁rata
▁begitu
▁mengembangkan
▁merilis
▁2004
ner
▁perkembangan
▁terlihat
▁London
▁proyek
Se
]
▁jatuh
▁laba
▁bisnis
▁ka
▁metode
▁Yogyakarta
fa
▁mengalahkan
▁29
▁kesehatan
▁Pertempuran
itas
▁keduanya
▁be
▁rasa
▁Jaya
▁kemampuan
▁pa
▁peristiwa
▁Ti
bahasa
ting
▁tugas
▁memungkinkan
▁pertempuran
▁Perjanjian
ai
▁diambil
kar
▁novel
▁City
▁saudara
▁Ga
im
▁Olimpiade
▁dewasa
ina
ver
▁2015
hari
▁dibintangi
▁Ho
▁struktur
po
▁khas
▁Perserikatan
▁Ja
▁melanjutkan
Ka
▁tunggal
▁Men
=
▁anti
Ke
▁menolak
▁gol
▁Mi
▁lembaga
▁guru
▁terlibat
▁Bupati
▁gunung
▁Ali
▁juara
▁sebenarnya
▁Program
▁Masa
ana
▁World
▁perangkat
▁Polandia
▁Wakil
▁Batu
▁Festival
▁Award
▁Tanjung
▁energi
▁gambar
▁Keamanan
▁TNI
▁kemungkinan
▁Taman
▁berbentuk
ty
▁seseorang
Ma
▁publik
▁Distrik
▁bebas
▁Umum
▁aktor
tis
▁Laba
▁objek
▁menyerang
▁Dinasti
▁dikembangkan
ley
▁kulit
▁memimpin
▁singel
les
▁perdagangan
▁memakan
▁pohon
▁Hari
ll
▁debut
▁segera
▁2002
30
▁tradisi
▁tumbuh
▁berusaha
▁Jika
▁selanjutnya
ine
48
▁Sebelum
ster
pen
Tipula
▁badan
▁pasangan
▁berusia
▁berbasis
▁belas
▁benar
▁Sedangkan
▁tiba
▁mengubah
▁Kanada
0
▁Ca
▁Surabaya
▁Maria
▁olahraga
sama
▁dijadikan
fi
▁mirip
▁Sebagian
▁pertengahan
▁Kali
▁pro
▁kebijakan
▁pemeran
▁Museum
▁mewakili
▁Paus
▁misalnya
▁Z
▁c
▁Suku
▁mencoba
▁Du
ho
▁pengguna
▁terbuka
▁merasa
▁Yesus
pu
▁Bank
—
▁namanya
▁Tu
▁International
▁Pi
▁Perusahaan
▁Gubernur
▁kantor
▁Bi
▁ditayangkan
ker
▁kimia
▁pen
▁Ge
yu
▁gagal
▁Rumah
▁31
▁Pu
▁selesai
▁perdana
▁komputer
▁Yupiter
10
▁barang
▁Paris
▁:
▁final
▁Tanah
▁bertahan
▁jelas
▁berperan
▁cahaya
▁Singapura
▁Tionghoa
ian
▁Pertama
▁darah
Sa
q
Ba
Pa
▁2018
▁2019
▁tujuh
shi
▁tambahan
lagu
▁dibandingkan
▁/
▁Berdasarkan
▁SMP
em
▁menciptakan
▁Araneae
20
▁mengandung
▁2003
▁selain
▁istri
▁Turki
!
▁teman
▁familia
▁kompetisi
▁Sri
▁dimiliki
▁Banyak
▁gas
▁p
▁berjalan
▁Sistem
▁gedung
▁bersifat
▁kemenangan
up
▁Tri
▁adat
▁dipilih
▁contoh
▁benda
▁dibuka
▁2017
▁radio
▁Latin
hu
▁Filipina
dy
ban
▁ha
▁menyelesaikan
▁khususnya
▁upaya
▁studi
lang
▁Pra
▁asam
▁Do
ring
▁2001
▁burung
▁bergerak
▁He
▁keempat
hal
▁lahan
▁judul
▁unsur
▁umat
com
▁James
▁Badan
▁oksigen
▁[
▁membuka
▁Fakultas
▁pekerjaan
▁minyak
▁ketinggian
▁Muslim
▁penguasa
▁tersedia
-2
▁Po
Si
▁Mas
ion
▁kategori
▁antar
atau
▁(;
▁2010,
▁memainkan
▁f
rejo
▁konsep
▁Melayu
▁Nomor
ud
▁Sang
▁diterima
▁menyebut
▁kendaraan
40
▁2020
tar
▁dibagi
▁Austria
▁Pro
▁daun
▁pengaruh
▁komunitas
▁Ratu
▁majalah
▁Pan
▁Jo
▁peserta
tahun
▁penumpang
▁van
▁huruf
▁bi
▁hati
=20
%
▁cabang
ron
▁diselenggarakan
▁emas
▁Y
ze
▁50
▁da
mon
kota
▁Terdapat
tes
▁Ru
▁Hindia
▁menggambarkan
▁naskah
ler
▁standar
▁kampung
▁menyediakan
▁Papua
Re
▁fasilitas
▁sukses
▁Grand
▁menit
▁tindakan
▁Satu
▁Ibu
▁Pen
▁korban
▁Super
▁era
▁teknik
▁pukul
je
▁peng
Al
▁Bar
▁jawab
14
ser
raja
yan
▁terbang
▁William
▁Masjid
▁status
▁an
zi
▁Hukum
▁Bagian
Le
lahir
▁Wa
ven
▁Ya
▁terlalu
▁aktris
sur
▁berjumlah
dang
▁tenaga
▁edisi
▁kalangan
▁wisata
ie
▁ma
▁alasan
▁biaya
kon
▁naik
▁perjanjian
▁diikuti
▁FC
▁dukungan
▁beroperasi
sel
▁k
▁perlu
▁hujan
▁Saint
▁sifat
▁aliran
▁merujuk
▁te
▁Kumbang
▁Hong
▁Sam
="20
▁kecepatan
▁serangga
des
▁on
▁tanda
▁profesional
we
▁sutradara
he
▁jadi
▁mahasiswa
▁Buddha
▁Teluk
▁istana
▁Tak
ham
▁40
▁upacara
cha
▁turun
▁lulus
▁tepat
▁IV
▁David
ers
▁Semarang
▁obat
ren
▁catatan
▁kebanyakan
▁Perdana
▁petani
▁Jumlah
▁asing
▁batas
▁ukuran
▁Brasil
▁Stadion
▁masjid
▁ku
▁minggu
▁menjelaskan
Q
ic
Ra
▁Pemerintahan
▁ko
▁memakai
▁Pemilihan
rang
▁calon
▁aktivitas
▁Karya
▁berbatasan
=17
▁mempertahankan
▁rencana
=16
▁kebutuhan
▁rekaman
▁Tuhan
-1
▁ketua
lon
▁siswa
▁kabar
bar
▁membunuh
▁kadang
▁berita
▁saluran
▁makan
▁Kementerian
▁semi
ata
▁terbagi
▁kalinya
sia
▁mengadakan
rah
▁massa
="17
▁dilaksanakan
▁kisah
▁Con
▁Lee
mas
▁cinta
▁Sumber
ot
▁Kong
▁Ju
▁terbatas
▁memasuki
ts
▁Robert
19
▁Kelurahan
▁Putri
▁mengetahui
15
▁Je
▁digantikan
▁Kata
▁Utama
▁saya
▁ibunya
▁le
="16
▁Fa
▁Abdul
rin
▁pendiri
▁Banjar
▁saling
▁ayah
ura
De
▁perbedaan
▁setempat
▁Charles
bel
▁Park
▁pengetahuan
▁Oleh
▁Lampung
▁George
par
▁komunikasi
▁kilometer
▁su
▁generasi
▁kemerdekaan
dia
▁disebabkan
pun
70
▁pembuatan
▁kode
▁menengah
▁menjadikan
▁memproduksi
▁My
▁wakil
▁mengeluarkan
▁Agama
▁pimpinan
▁fisik
▁University
▁puluh
idae
▁perbatasan
50
bat
▁keputusan
▁Miss
▁dahulu
▁ta
lain
▁kehilangan
▁delapan
▁misi
▁Ben
▁ditetapkan
▁Kitab
▁Ilmu
▁menentukan
▁Hi
▁percaya
="9
▁=
▁studio
▁2011,
▁mencetak
tri
▁Darat
▁universitas
▁dewa
ria
▁aplikasi
disambiguasi
▁angka
▁1999
▁tahu
▁Am
ram
▁harga
▁tewas
60
▁Kejuaraan
▁kompleks
▁Cina
▁ataupun
25
11
▁Karang
▁segala
ara
▁suhu
▁Demospongiae
▁memenuhi
ella
▁pernikahan
Ta
Pe
▁melayani
▁bakar
▁menyerap
90
▁pertemuan
▁2014,
▁pabrik
▁Tiga
▁2012,
▁Wi
don
▁Dusun
▁kiri
▁Vietnam
▁na
▁Kim
ye
vo
Na
ken
gar
▁United
▁2015,
▁(18
▁diperkirakan
▁DPRD
▁Departemen
album
▁2013,
che
wo
▁tapi
▁desain
▁Sun
▁berbahasa
▁penampilan
▁Swedia
▁sederhana
▁Shi
▁kitab
▁meningkat
▁komedi
▁Gi
Per
▁efek
▁cm
▁administratif
▁pejabat
▁menteri
rat
▁Paul
▁memegang
res
▁Grup
▁bukti
▁Ekonomi
▁Bintang
▁menghadapi
▁Anak
▁berkebangsaan
▁digital
lis
▁raya
45
the
▁Car
nama
▁memang
▁miliar
▁bekas
▁turnamen
▁Walaupun
▁Divisi
▁pemenang
car
tal
▁sulit
▁kursi
▁reaksi
▁sastra
dar
nan
▁dihasilkan
▁Thailand
▁Tokyo
▁Anggota
Agrilus
ida
▁Suci
▁area
▁urutan
▁kanan
▁angkatan
▁kontrak
-3
▁web
▁bertugas
▁Group
▁berfungsi
▁Cirebon
▁sipil
▁bagaimana
▁diantaranya
uh
ris
▁kelahiran
▁RI
▁Organisasi
kadang
36
00
▁teks
▁pra
▁Kebanyakan
▁ujung
▁logam
▁Akademi
▁positif
▁Chi
▁2006,
▁Surat
▁Hulu
▁mengurangi
▁Setiap
onlyinclude
▁ca
18
▁Tan
▁Par
▁penjualan
▁tulisan
▁lebar
jang
tak
▁puncak
▁berumur
Di
▁lewat
▁Irlandia
▁pembentukan
▁Lama
▁Pembangunan
▁California
▁Sha
▁Mer
▁lapangan
▁Olahraga
▁China
har
▁agresif
▁ba
▁swasta
21
▁Entertainment
▁2016,
▁komune
▁terpisah
▁polisi
▁ganda
undang
▁Academy
▁melibatkan
▁Iran
▁aceh
▁Peng
▁Adipati
tur
ov
▁walaupun
▁diluncurkan
▁Har
ea
▁Music
▁keuangan
▁pintu
▁School
zo
▁mm
▁Maluku
▁En
▁2011.
▁Penduduk
▁x
▁dirancang
▁2007,
▁as
▁individu
▁tahap
▁keamanan
▁Hindu
▁Michael
bang
tha
▁t
▁Love
▁Soe
▁perwakilan
▁menang
▁perhatian
▁Pasukan
sis
▁tekanan
▁aksi
sin
▁politikus
▁Tentara
▁kesempatan
▁Media
sta
▁sayap
▁dilihat
▁berkata
▁We
ii
▁You
ap
▁es
▁melewati
▁buatan
▁berhubungan
▁penduduknya
▁foto
▁Malang
▁membeli
▁saham
▁tema
▁g
▁pekerja
▁pertunjukan
ius
▁samping
▁dibawa
▁peningkatan
▁predator
▁Is
lia
▁dingin
▁Undang
ville
13
▁2017,
-4
▁Masyarakat
▁Vi
▁2012.
▁pendukung
▁menganggap
▁Gu
In
▁membuatnya
▁berlaku
▁Istilah
▁murid
▁Santo
▁Semua
▁ajang
▁kecuali
▁diumumkan
▁disebutkan
16
sekarang
▁diubah
▁Hasil
gon
▁Medan
▁Tom
▁Persia
by
ning
ena
▁nominasi
▁tertua
▁komersial
▁sebutan
▁menempati
▁mayoritas
kata
jar
▁Hongaria
▁single
Te
Ha
nu
▁jasa
lam
▁pertahanan
▁Fu
▁terbuat
▁lanjut
ica
▁tipe
▁macam
▁Abu
▁produser
Be
▁Maka
▁difusi
▁istrinya
41
▁berhenti
▁kariernya
▁o
cy
▁2010.
▁alih
▁bila
▁hijau
á
▁kalah
▁Kesultanan
▁menjaga
▁bo
?
▁ajaran
▁2009,
tro
▁pertumbuhan
Li
▁mendorong
▁panggung
dari
▁2019,
55
▁ringan
▁0
ment
▁Wali
▁menyebutkan
▁$
▁Ahmad
one
▁diperlukan
▁Her
▁layar
▁keluarganya
▁National
▁menguasai
cu
▁1998
▁kepercayaan
▁faktor
▁Sunda
▁konflik
▁taman
▁mil
▁Pantai
▁makanannya
▁mengirim
▁bilangan
75
tin
▁sehari
▁konser
▁relatif
sha
dong
▁lunak
▁mengakibatkan
▁bus
Stasiun
▁daging
▁Putra
▁menerbitkan
▁Latar
kh
▁berpori
▁2008,
▁Keluarga
Su
▁etnis
▁artinya
35
46
▁ternyata
▁musuh
▁fitur
▁2018,
▁perwira
▁serupa
▁Seri
▁mi
12
▁Company
85
▁laporan
rus
ita
mat
▁Dasar
▁dokter
▁pakaian
▁atom
▁membutuhkan
▁pesisir
▁Thomas
▁artis
ini
▁dusun
▁ditunjuk
▁beragam
▁dioperasikan
▁skor
▁tersebar
▁FIFA
lak
▁berkaitan
▁2014.
▁Van
▁menjalankan
ada
▁Uskup
▁2016.
▁Ver
▁pemberontakan
▁halaman
▁dilengkapi
Mo
▁dikatakan
▁setengah
▁insting
▁menduduki
om
ard
Ro
Astragalus
80
▁Swiss
▁mempelajari
▁alami
▁ra
kat
▁tri
▁penonton
ā
▁dijual
▁Hu
ding
▁Alam
▁vokal
▁sektor
▁senyawa
▁co
24
▁Star
32
▁menjual
–19
▁berjarak
▁Atas
▁Teknik
▁menawarkan
▁Asilidae
annya
mus
▁kaisar
▁Ce
▁kebudayaan
▁maju
tum
▁Bogor
▁Pembagian
▁Kelas
▁Ji
▁Buku
▁Henry
▁lengkap
ks
▁Peter
▁persen
dik
▁mengatur
ny
▁merebut
kin
▁museum
▁gelombang
▁ga
▁bu
▁motor
▁Kampung
▁kelima
23
las
▁berukuran
▁tempur
▁dinyatakan
▁bersamaan
28
▁pelabuhan
▁Nusa
benar
tel
▁kampanye
▁2015.
▁tampak
▁kopi
▁du
▁pilihan
|
▁sepuluh
pang
▁do
▁Ibrani
tasi
▁Resolusi
▁mau
65
▁con
mis
▁UEFA
▁perintah
▁pelayanan
▁Danau
▁del
▁Taiwan
lat
▁ci
43
▁2013.
▁Komisi
sti
99
44
56
▁Operasi
▁medali
▁mo
▁Kapal
39
▁apabila
▁Prefektur
37
▁administrasi
▁melindungi
▁menghubungkan
▁keberadaan
49
tif
▁melarikan
▁gadis
▁wa
▁Meksiko
▁pegunungan
▁buruk
if
▁sini
▁suka
▁Musik
▁Riau
07
▁Kereta
▁seluas
▁perguruan
nes
▁melaksanakan
bah
▁pu
▁diperkenalkan
▁mencegah
▁prajurit
▁Batas
▁sudut
war
que
▁mengakui
▁mencatat
▁dikirim
▁maskapai
io
▁pandangan
▁sebagaimana
▁Lembaga
iyah
68
▁200
▁klasik
57
▁menjalani
pin
▁satelit
▁berbicara
tz
▁arti
17
98
ola
▁ni
▁didukung
▁Khan
▁berpartisipasi
▁didasarkan
Bahasa
▁tur
▁jenderal
▁am
▁Istana
▁campuran
64
▁hilang
▁menimbulkan
▁mem
▁Banten
▁lomba
58
▁pemilik
▁Q
▁demi
To
▁pulang
op
▁ar
pro
▁memerintah
bus
▁Kar
▁Onthophagus
▁departemen
53
▁2004,
▁turut
▁Prix
▁Can
▁Yayasan
▁kami
nd
▁duduk
▁Majelis
▁Pasar
▁perairan
▁Nu
▁mini
▁Timor
▁komponen
▁Teknologi
til
▁Tetapi
▁ditangkap
ff
27
ologi
▁hakim
▁disiarkan
76
▁pos
▁darat
▁munisipalitas
▁kaya
▁mengunjungi
29
▁lintas
karya
62
66
Mi
▁digambarkan
▁bertanggung
▁balapan
▁Denmark
▁mengajar
▁hidupnya
let
▁sarana
▁Perwakilan
▁transportasi
▁sensus
▁Kesehatan
47
ari
▁tata
Bu
33
▁Richard
▁apakah
sar
▁Kantor
▁Bulan
con
▁Tang
▁Selanjutnya
▁Martin
▁lo
▁Raden
▁pesan
▁Apollo
000
▁rangka
▁u
▁Injil
▁jarang
▁Gedung
▁2020,
▁li
▁60
38
▁kuda
▁akses
Da
-5
▁Merah
▁2017.
86
▁hadir
sk
▁tepatnya
67
▁simbol
▁besi
osa
alis
▁hukuman
▁latar
▁Suka
mp
dis
▁Keputusan
▁medan
▁kualitas
▁lukisan
▁puisi
▁Or
kai
▁pasti
▁berpendapat
▁so
59
-18
▁kepemimpinan
▁Sar
▁kejadian
▁Troya
▁trans
▁Hubungan
▁kepulauan
73
ras
26
▁kuning
▁dataran
uddin
▁remaja
▁Kongres
nda
ab
▁manajemen
▁dewan
▁mundur
▁rute
gas
▁1.
="4
▁liga
▁is
tta
▁seminggu
tsu
▁Ken
ino
fe
▁toko
Ar
05
▁2009.
▁ditempatkan
Bo
▁menghancurkan
▁Contoh
▁mengacu
kah
▁vi
ei
▁Bersama
▁global
▁Belgia
era
Ci
▁menghabiskan
▁biru
▁sepenuhnya
▁dinamakan
▁divisi
▁dulu
▁suci
▁super
▁peralatan
▁Seni
▁bangsawan
▁permintaan
▁situasi
▁Kan
▁diakui
▁rock
í
▁pembunuhan
▁Gar
An
▁Militer
-6
jaya
06
▁dimainkan
79
▁menikahi
▁elemen
▁ton
bin
▁Institut
▁signifikan
▁Rp
84
▁Min
▁Proses
▁ri
tung
▁kepentingan
▁keuskupan
sch
▁Cinta
▁at
42
▁Wu
ens
▁Cha
77
▁sembilan
▁kontes
▁merek
▁2007.
▁pedagang
▁Acara
88
bal
▁dimasukkan
▁Sama
▁Kon
▁benteng
▁angin
▁menetapkan
78
Ja
▁Cor
▁tepi
▁2.
▁lapisan
▁ge
eh
▁menandatangani
▁Dewa
▁2005,
▁Los
▁inti
22
▁poin
▁diperoleh
▁Kelompok
▁Sebelumnya
▁Akhirnya
▁Nabi
▁indonesia
▁Za
▁bulu
▁sisa
▁pembalap
▁efektif
tt
▁2008.
▁Er
▁fiksi
▁animasi
▁Metro
mun
▁artikel
jam
set
▁Serbia
▁putaran
▁pengalaman
▁Ban
Man
▁singkat
▁nuklir
-20
▁Kuno
▁mengumpulkan
eri
nia
▁Nur
ium
age
ep
van
▁Awal
ben
▁Louis
tang
Bulbophyllum
▁2019.
bon
▁ditentukan
Carex
▁pola
vin
▁Budaya
ani
lum
▁Bukit
bak
ula
▁unik
▁tulang
▁Hingga
▁Cu
Bandar
▁Song
▁Demografi
▁1997
-10
▁Kristus
ther
val
cal
▁pernyataan
▁lantai
▁tayang
nas
97
▁Komite
dal
▁sekitarnya
▁seksual
▁Meng
din
mata
▁makam
fer
▁memerintahkan
▁Video
▁Tempat
▁dikeluarkan
89
▁DPR
oh
▁Windows
Ko
▁Panas
▁pelajaran
▁mengklaim
▁tamu
▁Bandara
▁diciptakan
▁kecelakaan
▁tu
Saint
▁gubernur
▁tuan
▁Un
▁plat
▁mengangkat
▁Jenis
▁praktik
▁antena
▁beserta
▁Bahkan
off
▁tenggara
▁Gerakan
72
96
▁Luar
▁2018.
▁parlemen
Mar
▁Makassar
tengah
▁Ram
▁Skotlandia
▁Sir
bra
▁West
▁Santa
ss
▁Yohanes
▁Akan
▁pendapat
61
Me
▁tiap
▁Trans
lim
Undang
▁Bola
▁Pri
tipula
-15
▁bendera
tion
▁prinsip
▁go
▁independen
▁;
▁cenderung
▁Va
▁karyanya
▁fa
nus
ent
95
ay
▁500
▁Band
ika
mbo
▁arsitektur
rak
▁pendapatan
ach
▁molekul
▁armada
▁dinamai
▁+
▁kematiannya
▁dekade
▁lembap
▁Palestina
▁teater
▁gen
▁v
hara
len
mal
▁menentang
af
od
▁Jin
▁induk
▁Ir
▁bank
▁berkompetisi
▁sebab
▁aturan
▁menceritakan
ae
▁mu
▁disingkat
ph
dah
▁berkuasa
▁Che
▁Tar
▁Yo
▁protein
74
▁keuntungan
▁berpengaruh
cho
01
ity
▁elektronik
▁lu
69
win
▁Lalu
▁dinding
▁kejahatan
▁Mahkamah
kira
▁Seorang
kal
▁perilaku
▁bayi
yama
▁2006.
▁inilah
qui
▁memperkenalkan
▁War
▁semuanya
▁terbanyak
54
peng
▁melainkan
▁perkebunan
▁persegi
Wa
▁Sekretaris
▁Sub
apa
71
▁pengadilan
▁US
▁Hak
cer
▁label
▁boleh
▁Meski
▁bertujuan
▁Maha
▁perlindungan
▁virus
▁Ad
Mu
▁Parlemen
yi
▁1996
▁ekor
pur
est
▁VI
▁wafat
▁Mc
▁volume
▁rekan
angan
▁takhta
▁ciri
Lo
▁multi
-7
▁dibawah
83
▁identitas
▁dipindahkan
pura
▁daratan
nik
▁Ukraina
▁kapasitas
▁peraturan
▁Protestan
▁Agrilus
▁meluncurkan
▁terjadinya
▁balik
▁keagamaan
▁kuil
▁melahirkan
▁Menengah
kel
▁adik
▁w
pas
▁berlokasi
▁Berlin
52
▁Kudus
cus
▁pan
▁Red
▁pi
▁aslinya
▁pemuda
▁rilis
jan
▁koleksi
▁Kontes
Nya
▁Don
▁peringatan
Ku
dalam
▁Jati
hak
▁dikarenakan
ey
▁lepas
▁kertas
▁Penggunaan
▁ditampilkan
▁dinasti
▁Sen
▁iklim
▁Muda
▁dampak
31
▁Pakistan
▁with
lar
▁penjara
▁kucing
▁jantung
Keuskupan
▁telur
!"
▁sambil
▁Yerusalem
▁kon
▁putranya
ora
ation
▁Joseph
▁East
▁35
▁langit
ney
▁seniman
▁Direktur
▁Shin
▁suaminya
▁membaca
tas
▁menyelamatkan
▁Jan
ket
▁Sari
▁rumput
▁tari
▁patung
ves
▁set
▁melaporkan
▁dilahirkan
91
net
del
▁Portugis
▁sarjana
▁ro
▁Long
bur
▁angkasa
Psychotria
▁Sosial
87
;/
▁tergantung
ret
▁dibunuh
▁Sinopsis
▁Kebudayaan
ros
-8
▁‘
▁danau
▁arus
ö
▁dokumen
▁American
▁bandar
▁menghindari
08
▁or
▁mar
▁perjuangan
▁mengungkapkan
▁larva
▁Tingkat
▁Irak
▁gampong
▁jembatan
nis
▁Angeles
▁aspek
ac
▁pelatihan
▁imam
▁PBB
▁aku
Ri
▁Revolusi
▁jangka
▁nektar
▁bakteri
wu
▁memuat
▁ja
+
bit
09
▁nyata
▁pagi
ona
ex
ih
▁Argentina
way
▁telepon
▁gagasan
▁semacam
▁Sepak
▁2020.
▁diganti
▁1990
▁Tata
▁Pasifik
▁Norwegia
▁Biografi
▁mengakhiri
tek
▁kalau
▁pop
▁Center
▁Nazi
oides
▁bandara
pus
34
No
gel
▁Jean
▁Batang
▁Kuala
▁menetap
sus
▁kekaisaran
▁Hotel
▁Versi
tia
▁pengusaha
iana
lip
04
▁von
-12
▁Studi
▁hulu
▁Genus
▁dilaporkan
wati
▁uskup
▁l
▁bertindak
▁1995
▁Mark
▁alternatif
ense
▁Pre
63
▁°
pat
▁2021
▁kendali
▁Nan
▁Portugal
▁n
▁satuan
fo
▁menambahkan
َ
▁Daniel
seperti
▁kuliah
TV
▁menangkap
▁Nusantara
kam
▁Industri
ase
▁tampaknya
▁fokus
▁Suriah
▁agung
▁polen
▁makhluk
▁sejenis
▁ilmuwan
atus
▁rangkaian
▁lulusan
▁Awalnya
▁Anda
▁langkah
▁berganti
▁bertelur
▁stadion
▁rel
▁Radio
51
▁setidaknya
▁materi
▁lolos
ary
▁ruangan
▁Pak
▁gelap
▁Mata
▁Ortodoks
▁skala
low
Ga
▁wali
▁padang
▁Bombyliidae
▁Guru
atan
▁en
▁undang
▁menempatkan
stra
▁anaknya
▁Lan
▁sejarawan
▁gangguan
▁pajak
▁menyerahkan
▁Muara
▁Komunis
▁Lin
dra
▁All
sang
▁man
▁dipengaruhi
▁Dar
▁Natal
▁potensi
▁Manusia
▁ayat
▁solo
03
▁setahun
▁diduga
▁matematika
▁32
92
▁kering
Ca
Bi
▁80
▁sapi
▁Tour
▁Mac
▁elektron
ua
▁—
▁Matahari
▁kualifikasi
pak
▁Bangunan
-13
batas
▁pasca
ator
▁he
lus
anda
▁mengundurkan
▁Bentuk
▁isi
▁menyadari
▁Lima
▁Pesawat
▁kamar
▁Beijing
▁Best
▁pengganti
▁Corporation
tempat
▁Frank
▁anjing
▁memanfaatkan
tidak
▁South
▁internet
▁satunya
▁hotel
▁Dewi
▁kritikus
lai
▁Demokrat
▁analisis
▁Tegal
▁Tapi
▁menyebar
gal
▁beliau
▁dialek
thi
▁County
▁game
93
▁Az
▁hiburan
▁kala
mba
▁Sin
94
long
▁punya
▁Paulus
▁College
▁Putih
▁Edward
▁kekerasan
▁bar
▁berlanjut
▁bukit
bul
▁manga
▁Produksi
▁ne
▁serangkaian
▁menderita
▁Geografi
▁zat
81
▁RT
mann
sing
mah
▁terjun
▁Ketiga
02
ist
▁lawan
▁Fasilitas
▁Bal
rit
▁iklan
▁bom
▁1994
▁kejuaraan
▁surya
ps
▁Jadi
▁One
▁selamat
▁musisi
▁negatif
kas
▁karbon
▁siapa
▁menara
▁Situs
abad
▁format
▁Hilir
Coleoptera
▁70
▁King
▁agak
▁anime
▁Kawasan
▁dipercaya
▁Amor
-17
▁mengalir
▁Ze
▁pembuat
tre
_
uri
lit
▁Imam
zu
-16
Fa
Buprestidae
▁mengajukan
Pen
▁pensiun
▁Daya
▁Kepler
cia
ō
▁perayaan
82
fu
mana
▁Washington
dam
lik
akan
▁rekor
▁makna
▁gugur
▁On
▁rahasia
▁mula
jak
▁filsafat
▁poli
baru
▁Eu
▁Pol
▁Cho
▁Mataram
▁umur
sy
▁1992
▁dll
▁pegawai
-14
▁ti
pada
▁Kas
ure
juga
kapal
anti
▁lamela
▁pelatih
▁roda
▁siaran
isi
▁Pegunungan
pati
ü
▁golongan
▁kepadatan
▁pemikiran
▁Fi
▁Panjang
▁pembawa
);
▁senior
ó
ero
ns
▁Tujuan
▁baja
▁Pem
▁ditutup
▁Scarabaeidae
▁Prof
▁medis
▁ikatan
▁mengirimkan
▁Candi
▁promosi
▁Inter
▁kampus
▁ditambah
pal
uan
ys
▁Sakit
▁bergantung
▁terkemuka
▁aksara
▁indah
▁mendengar
▁Tangerang
▁bupati
▁Pertahanan
▁marga
▁Zi
▁Final
bia
So
berg
▁1980
▁Mon
▁pers
▁Hanya
▁pemilu
dak
▁Misalnya
ali
▁ulama
menyelenggarakan
▁komandan
-9
-11
▁bukanlah
▁Den
▁Mor
section
▁Astragalus
dai
▁dikalahkan
ori
dung
▁Drs
▁gua
▁kekalahan
▁sikap
▁berpindah
▁garapan
▁Eurovision
▁normal
▁Selandia
▁setuju
tic
ski
▁Club
▁zona
▁gempa
▁formal
▁gula
▁perak
▁izin
▁terbit
▁Black
▁2005.
bert
";
▁Up
▁kolonial
▁45
pon
ati
line
ray
▁01
▁apapun
lek
▁disimpan
▁meriam
▁Disney
log
km
ira
▁diharapkan
▁Model
lla
š
▁kunci
▁Solo
▁membintangi
RI
▁Cara
▁perannya
▁kartu
ré
▁Surakarta
▁tidur
tong
▁Harry
▁guna
Senecio
ndang
▁Serial
▁Palembang
▁Mun
▁aman
▁1991
eus
▁At
▁Anti
▁tersisa
▁diatur
Dendrobium
▁Adapun
án
gun
▁Pengadilan
▁ribu
▁"(
▁gigi
field
▁1980-
tam
▁1993
abu
▁terkadang
▁ras
▁minuman
▁sinetron
▁ru
▁ex
via
▁penyelenggaraan
▁Ak
ala
▁Sekitar
▁Sampai
▁buruh
▁Sch
▁Tephritidae
▁raksasa
duk
▁Mal
▁beragama
Or
my
turut
▁Adi
▁membayar
▁1945
▁harapan
dus
▁jurusan
ev
hat
▁pasien
Ti
▁direktur
▁der
▁ayam
wang
dua
▁kelapa
▁memasukkan
rasi
▁dikelola
▁Royal
▁menghentikan
ide
▁padi
▁mengisi
▁Simon
xi
▁lambang
▁Konstitusi
▁Dayak
rik
▁itulah
pol
▁Tanggal
▁Bengkulu
▁Sekutu
▁Saudi
▁pasir
▁Records
▁4.
nga
▁Api
▁Armenia
pel
▁Empat
▁pekan
▁Episode
jin
ou
▁sepeda
▁Masehi
▁Abdullah
▁susu
▁luka
pit
▁Ten
▁bulat
▁kebebasan
jah
eu
▁ditandai
▁1988
▁mempengaruhi
▁hadiah
▁1989
▁dibutuhkan
dha
▁Wales
▁Wang
▁Show
▁Cerita
ib
▁diresmikan
▁syarat
▁keenam
Jo
▁agen
▁Penelitian
▁terbaru
▁Tari
▁Zaman
▁konstruksi
▁memerlukan
▁sengaja
tua
▁by
▁Mars
▁Association
▁Kal
▁Pengembangan
▁Land
Co
▁Hall
▁eks
Go
▁Gen
▁benua
▁lubang
▁Ayahnya
▁pasal
▁dimakamkan
▁Wanita
II
▁pelajar
▁dilanjutkan
▁gabungan
▁Luas
▁diper
▁meski
well
▁Airlines
▁pelaksanaan
rum
ngga
▁Internet
▁Utsmaniyah
▁penggemar
▁ditambahkan
▁Pertandingan
og
ish
▁menge
▁risiko
▁digelar
Asparagales
▁Formula
▁tahta
ano
▁Pertanian
▁menyimpan
▁eksekutif
▁Pondok
▁Ph
▁90
ft
▁memperkuat
▁Sal
▁ditujukan
▁kesalahan
▁diterapkan
ct
▁Jambi
▁ritual
▁Catatan
▁Aku
▁Balai
▁Politik
▁bervariasi
Vi
jen
▁300
▁Ab
▁diyakini
▁berturut
▁dagang
▁Minahasa
▁menambah
▁It
▁debutnya
▁pembukaan
▁kira
▁(),
▁strategis
ges
▁sah
▁otomatis
won
Do
▁melintasi
▁Google
▁tropis
▁Bur
▁disusun
▁Sel
▁ancaman
kali
▁dianugerahi
▁terpaksa
2,
▁dilantik
Po
▁peta
▁Day
▁Yi
▁Khusus
▁bersenjata
▁Top
pp
▁terminal
▁Far
Lu
▁Bay
▁tank
▁pembagian
▁Alexander
▁Minangkabau
▁menuntut
▁Fe
▁cocok
▁menurun
▁kaca
bung
▁menangani
ant
pes
oi
una
▁pendirian
▁Tipulidae
▁geografis
▁Jam
▁terkena
yn
▁Abad
▁Peraturan
▁kesepakatan
▁dipanggil
▁dipasang
▁basis
▁Val
▁festival
▁harian
▁ad
▁Struktur
▁pangkat
ela
▁setara
▁persamaan
▁bencana
tai
▁terbukti
▁pengunjung
▁tahunan
uma
▁penjaga
▁Minggu
▁peneliti
500
▁Proyek
–20
▁Batak
▁Society
tim
▁prasasti
▁CD
▁bersaudara
▁kontrol
▁kanker
▁menyukai
▁lelaki
gat
▁mempromosikan
▁sinyal
eb
▁rusak
kus
▁Sho
▁Mary
air
▁Pasal
Ber
▁sp
▁Bas
ez
▁Champions
▁meja
▁tertarik
▁memerankan
▁1990-
▁Es
masa
▁Yan
▁karang
▁mengenakan
▁kesulitan
▁Berbagai
▁Liu
▁papan
▁kehormatan
▁produsen
▁menjadikannya
▁2004.
$
100
tama
▁She
▁mengaku
▁Japan
▁komposisi
▁3.
▁otak
▁!
▁rambut
▁binatang
▁Nias
▁seekor
▁pendekatan
▁akar
▁kakak
▁Jl
▁strategi
▁Linyphiidae
▁Tra
Kota
buku
▁Rock
▁Tai
▁diadopsi
▁Sehingga
▁perawatan
▁Pranala
▁Lebih
▁target
▁League
▁semangat
▁Mycetophilidae
▁Adam
▁hi
▁Kegiatan
port
▁Anna
▁direncanakan
▁menyampaikan
nar
▁Ker
▁halnya
▁penemuan
▁memper
ksi
bagian
▁Indo
▁rupa
▁infeksi
lihat
▁stabil
sam
▁Ulu
▁Terminal
MI
ulang
▁Kara
▁Referensi
dengan
▁lemah
▁sekelompok
▁Bang
hir
▁SMK
▁Ren
▁Bapak
▁kamera
▁Sp
▁Toba
tun
Kategori
▁y
▁Komando
bor
▁garam
ore
▁kumpulan
das
▁pergerakan
pha
uran
▁Juga
▁Fer
▁menerapkan
▁Asal
▁kepadanya
▁ditugaskan
▁h
▁tertulis
tiba
▁berdirinya
▁internal
▁pangeran
▁Karl
▁Kutai
▁penulisan
▁Klub
▁May
sik
▁material
▁Jack
▁ibadah
▁suami
▁Ang
▁Ye
▁pem
▁Tapanuli
▁urusan
▁justru
mula
▁berangkat
▁memaksa
▁Bidang
▁2001,
▁Itu
rt
▁mengganti
Pi
▁Ai
▁Ger
▁Pictures
▁1970-
illa
▁kekayaan
▁terlebih
▁Kisah
▁adegan
▁gu
Ni
▁penari
▁atap
▁Komandan
▁Asosiasi
▁ki
ous
▁Ch
cap
tah
dor
▁Art
▁Surya
▁uji
▁kesenian
▁Shu
▁3.000
▁sinar
▁keinginan
▁1960
▁Il
▁malah
sal
▁2003,
▁domestik
▁Sta
lly
▁organ
▁COVID
IP
▁saudaranya
▁padat
▁Sur
▁siap
▁biji
Amerika
▁Soekarno
Tu
▁Ng
▁dipandang
▁Georgia
lor
▁ho
▁komik
▁Lokasi
▁pengakuan
▁seiring
desa
▁angkutan
▁staf
seri
▁Inc
▁For
▁regional
▁ban
bol
▁kedatangan
▁Shah
▁organik
▁pencarian
▁Keuangan
▁diterjemahkan
è
”.
shan
▁Kai
▁fase
nta
▁Street
PS
▁Perubahan
kir
Pulau
▁Ham
▁FA
▁Jembatan
mit
▁melambangkan
▁membahas
Ge
ichi
▁Teori
▁Gorontalo
daerah
▁penyebab
▁1970
▁Mur
▁karyawan
▁manajer
▁Deli
▁Albert
rai
gin
▁Pati
▁dibantu
▁Bus
▁Salticidae
▁Federasi
sir
but
▁Pat
non
▁Armada
▁teknis
▁Bulbophyllum
cat
▁Bor
kawa
pri
▁Peristiwa
▁Fox
ping
▁Smith
ili
▁ide
▁Carex
▁menggabungkan
▁terdaftar
dhi
▁Chu
▁Ana
St
▁tulis
▁balap
ford
▁Periode
▁perlawanan
iya
▁terjual
▁mengenal
▁Bayern
tara
▁Gal
▁ular
▁Wei
▁Muhammadiyah
cher
asa
▁j
▁Staf
▁1985
▁dikuasai
▁Haji
tter
▁Microsoft
rd
▁halus
▁Suatu
▁menunjuk
▁1950
▁car
▁Bel
▁mengelola
▁Cer
ec
▁pesta
▁Cal
oni
hai
▁penurunan
yer
meng
▁menyerah
kor
▁Permainan
▁paruh
gue
inus
▁candi
mbu
iz
▁Bone
▁liar
1"
▁melepaskan
▁sosok
rumah
harjo
▁Tur
▁1966
▁Bila
▁pengobatan
▁Mr
▁SK
▁marah
▁pemerintahannya
▁kain
▁dinominasikan
▁perdamaian
▁otoritas
▁lembab
▁1999,
▁distribusi
▁pas
az
▁Bekasi
▁lirik
5%
▁02
▁Bagi
▁Bima
▁Samudra
▁je
▁membela
▁partikel
▁bunuh
▁VII
▁Pekan
▁investasi
eta
pra
▁/&
▁fisika
▁legenda
ef
▁konsentrasi
▁mulut
▁definisi
▁ditempuh
▁mengoperasikan
▁roti
▁mendekati
▁Ibnu
▁parah
▁kritik
▁Akhir
▁Pas
▁aktivis
▁Bra
▁dilayani
▁Jun
▁mahkota
▁Games
▁1984
▁sawah
▁tertutup
▁wilayahnya
gh
▁Vol
▁latihan
▁wajib
▁Golden
▁menandai
▁Selat
Pan
▁supaya
▁Wangsa
ted
▁Musa
▁pemukiman
▁33
rs
▁Finlandia
ee
▁...
▁Life
ence
kes
▁Persatuan
▁Waktu
▁2000,
▁Kerja
▁pelanggan
SI
▁Dong
▁Naga
▁Pelabuhan
▁Unit
▁kerap
▁pre
▁Elizabeth
mb
▁Sydney
▁reformasi
▁varian
▁wi
▁Seluruh
▁Institute
▁wajah
beda
▁Maya
▁mengingat
;&
MA
▁Jepara
▁berbagi
plo
▁Biasanya
▁Efek
▁tarian
eo
ile
▁sempurna
oma
▁berkisar
▁Milan
▁kasih
▁sesama
▁r
mir
▁Data
▁mendarat
▁kesuksesan
▁Rumania
▁House
▁Semenanjung
▁Kecil
▁terjemahan
▁memahami
▁Victoria
mpu
▁adaptasi
bas
▁menyanyikan
ow
▁KA
▁pangan
kala
▁bakat
ndi
suku
▁Sastra
▁(17
▁Saudara
▁mono
▁memastikan
ipennis
▁berpikir
1.
barang
far
ix
▁peluncuran
▁bertambah
anto
▁DNA
▁detik
▁dimaksudkan
▁komando
▁serius
▁kabel
▁dilarang
▁jari
▁senapan
her
://
▁Pesantren
▁cairan
▁nya
▁Indra
cker
▁Bre
▁prestasi
▁Panglima
▁damai
▁Young
uli
Resolusi
▁frekuensi
▁British
PT
wangi
▁persetujuan
▁tes
▁menga
▁Informasi
▁Batavia
▁Kin
▁disajikan
mont
▁36
▁Pimpinan
zan
▁koloni
▁Boeing
▁krisis
Ho
▁PS
▁jabatannya
of
▁pemakaman
▁operator
▁kg
▁Antara
▁hendak
▁Babak
▁gejala
sco
▁segi
rie
vis
ä
▁murni
sil
dri
▁warisan
▁sejauh
onal
▁2003.
▁modal
▁skenario
]],
▁Ash
Ne
▁terhubung
▁menghadiri
kewarganegaraan
▁pendudukan
▁400
▁2002,
▁Kroasia
eg
▁cucu
ene
▁usul
▁mer
rong
lau
▁Texas
yl
nai
▁menye
icus
cur
▁keju
▁peninggalan
▁tuanya
=4
▁miskin
▁Lombok
▁terang
Indonesia
▁invasi
▁organisme
▁variasi
▁kebun
▁Kapten
▁ketujuh
▁Qing
▁pemberian
▁Mad
▁konteks
▁Yusuf
▁jo
ón
▁1982
▁mode
hr
▁menurunkan
los
nah
▁Peran
apan
pah
▁5.
▁perkawinan
▁platform
▁pelukis
▁wawancara
nang
▁Gan
▁Pemain
osis
▁Green
zar
▁atlet
▁setia
▁Penerbangan
qi
▁Duta
kha
uang
▁tahanan
▁Manchester
▁lurus
qua
▁legislatif
Ki
stan
▁Ex
▁dimensi
▁WIB
▁Jr
▁penerima
▁Psychotria
cita
▁Ran
rap
▁pilot
wen
▁berjuang
tika
qu
ejumlah
▁perahu
▁berfokus
bun
▁kritis
▁Williams
▁blok
▁pahlawan
▁fakta
▁budak
He
▁betina
▁Mulai
▁Ayat
▁Jabatan
▁kamp
alih
▁dipegang
▁kepemilikan
▁Terbuka
▁Mel
▁Kediri
▁Pos
serial
▁profesor
nilai
▁gerbang
▁High
▁abu
pulau
Orchidaceae
▁restoran
aran
▁dasarnya
▁derajat
▁keyakinan
▁hancur
▁Kra
Pro
▁Koto
▁Konferensi
▁Hot
gawa
▁pena
para
Pu
tokoh
nie
▁et
My
▁1960-
▁Ibrahim
▁Carl
▁Tokoh
Penghargaan
mpa
▁dimanfaatkan
▁melarang
▁bersih
▁po
ell
▁markas
▁ion
▁memperluas
mbi
▁julukan
▁Boy
▁bersaing
▁Zhang
▁Las
dok
▁fe
ografi
▁Real
▁Big
▁diserahkan
kur
▁ulasan
▁gitar
▁ratusan
▁hidrogen
cak
wood
▁Way
▁dikaitkan
▁Burung
▁personel
▁mitologi
200
▁roket
▁peluru
▁beralih
▁Singel
▁Bangka
oka
▁Perguruan
nam
▁2001.
row
▁bagus
▁Kode
▁kandang
▁menyusun
▁Times
▁Usaha
eni
king
▁banjir
Miconia
▁pameran
awan
-21
▁inter
▁Fungsi
ale
mes
gy
▁pesat
▁babi
▁1983
▁menyetujui
▁Nam
▁berpusat
▁Th
zhou
▁Gra
wilayah
▁himpunan
▁Pertengahan
▁dibesarkan
ky
termasuk
IS
▁berbahaya
▁penyebaran
can
▁pemberontak
▁panggilan
▁Bunga
aria
▁Melalui
ive
▁menunggu
reng
▁Kabinet
▁Hol
▁dinyanyikan
tani
ele
▁bio
As
▁republik
▁Time
▁Mesin
fal
band
▁menikmati
▁IX
▁Live
▁transit
▁Sim
▁Zu
▁siang
San
▁masakan
▁Layanan
nding
▁Depok
tir
▁komunis
▁anggaran
▁mikro
▁berkumpul
kul
▁nenek
▁News
▁150
▁harta
▁semesta
iran
ska
sky
El
▁Kedung
▁instrumen
AS
▁Christian
▁dijelaskan
▁Hasan
▁kembar
▁pandang
▁Batalyon
▁manis
▁karakteristik
▁lingkaran
▁memisahkan
ple
rian
▁DVD
▁melebihi
▁berkat
▁Bin
▁Maros
▁34
cang
▁Athena
▁menjawab
▁up
▁Kondisi
ming
▁Tol
▁akademik
▁1987
▁ju
▁pasukannya
?"
▁el
sor
gus
▁beras
ite
▁Benteng
▁konten
ier
▁Mari
▁Chang
▁Son
red
▁perpustakaan
▁Op
▁0.0
▁Gua
▁0,
gala
▁region
▁tetangga
▁seharusnya
▁Brown
bri
▁Karo
▁menempuh
▁2000.
▁kerjasama
▁kacang
▁mengejar
▁Sekarang
▁lokomotif
▁peperangan
mel
▁diminta
▁diturunkan
gang
ue
▁fi
utan
▁duta
▁Kematian
▁lampu
▁Marga
bir
rem
▁menyerupai
Men
▁Sei
▁berencana
▁Gun
▁Sumatera
▁kunjungan
nk
▁Motor
▁mengatasi
burg
▁end
▁Novel
▁(16
▁kru
▁Pop
▁Port
▁rasi
aka
▁Pemilu
▁juri
▁federal
▁pelaku
▁Ser
▁Mayor
awa
▁membuktikan
▁Federal
▁merekam
▁pemekaran
▁dicatat
▁sin
▁asisten
▁pengikut
ller
▁baris
▁uap
▁dosen
▁Polisi
ú
▁Open
▁Max
▁Hitam
ي
▁pengelolaan
▁spesifik
Qur
▁1979
▁Ray
lli
hid
▁bersejarah
▁atmosfer
1,
▁mengendalikan
▁Bosnia
▁Rama
nt
▁Global
▁memindahkan
kun
hin
lem
Con
▁penyair
▁biara
▁Mont
▁1981
▁Serangan
▁lembah
▁terbunuh
▁kalender
▁sadar
▁jantan
mm
▁tersendiri
adi
▁Gaya
▁takut
▁(15
▁wartawan
▁Makedonia
mbang
teng
▁pembelajaran
▁isu
▁berhak
▁senang
▁resolusi
▁mengarah
▁menekankan
▁ratu
▁GP
▁1986
▁kar
Hi
▁Tamil
2"
▁perbaikan
▁Roh
▁didefinisikan
alat
tos
ral
▁dr
▁Fo
▁seks
Ter
▁aset
▁pinggiran
sum
▁Com
▁cha
disingkat
▁kegagalan
New
Eugenia
ag
▁Kun
▁memicu
ahan
▁nu
▁pertanyaan
▁Akibatnya
▁Jung
▁2002.
ire
▁tiang
jong
▁sahabat
▁menghormati
▁DKI
Am
▁mineral
▁Perpustakaan
moto
▁keselamatan
▁Prasasti
ste
▁leluhur
▁Bad
▁kemajuan
pos
▁bawang
▁membagi
kara
bai
▁mengizinkan
ono
▁Au
▁America
▁Chan
▁dijuluki
▁kehadiran
▁memperbaiki
▁diam
▁Dinas
ds
▁mengembalikan
▁God
▁Madrid
▁kebenaran
▁Syekh
▁makin
ses
▁1978
▁memenangi
▁institusi
Ju
PA
nto
▁petugas
▁landasan
ias
gg
▁disetujui
oli
▁Rencana
▁Alex
sit
▁dalamnya
▁Bulgaria
▁Manajemen
▁Tsu
AP
▁Sunan
ub
▁kotak
▁gelandang
▁permanen
ikan
▁North
▁Francisco
AL
▁mekanisme
▁pokok
▁ditolak
untuk
▁rumahnya
▁pelindung
▁Bun
tari
▁sebaliknya
ila
▁ab
▁moral
▁Chen
▁White
angka
AD
▁berguna
thy
▁kombinasi
▁ekspedisi
▁pariwisata
wer
nder
▁revolusi
wah
▁muatan
▁tenis
kom
ig
▁klan
pem
Bar
▁Hidup
▁Sky
▁penutup
▁kedudukan
▁ben
▁Magelang
▁Konsep
▁Chicago
▁Perkembangan
get
▁Yuan
▁pesantren
3%
▁Sh
eda
▁ribuan
▁kandungan
▁mac
nata
Para
luk
▁Sc
▁Ganda
▁from
▁Junior
IN
▁menjalin
aan
▁Villa
▁1944
▁Kemerdekaan
▁Planet
▁Pala
▁Tunggal
▁membawakan
▁kebakaran
▁Wina
end
able
▁YouTube
▁Taka
for
▁tanggung
▁rancangan
▁Kita
▁dicapai
yong
▁laboratorium
▁UU
dol
top
olo
▁siklus
▁kedalam
oid
aga
ich
▁Metode
▁baku
▁memengaruhi
lle
icollis
▁pikiran
▁Pang
▁kekurangan
lima
ade
▁Majapahit
▁coklat
▁Bulu
▁memandang
▁selam
nggang
▁gratis
ī
ath
▁kesatuan
▁timbul
ise
▁Lingkungan
▁rantai
▁menonjol
▁Drama
▁Apostolik
court
▁berulang
▁kebiasaan
▁lambat
Car
run
ric
mia
▁Ur
▁Kini
ins
▁Madura
▁Network
▁des
▁merusak
▁Ras
▁pemegang
▁rudal
▁her
▁menutup
iah
▁riset
dewa
benda
▁cuaca
gra
onia
▁mengusulkan
ungan
▁pendeta
▁evolusi
shima
▁Produk
▁Menara
awi
▁kontak
bet
▁Hutan
star
▁menjelang
▁tergabung
▁fenomena
ice
yar
▁tentu
▁menahan
▁membedakan
We
▁tuduhan
▁menegaskan
▁kalimat
▁interaksi
▁Bahan
▁online
Fi
lung
sei
▁penyimpanan
▁galaksi
▁konferensi
Poales
▁Central
▁Kang
var
▁sekutu
jalan
eli
▁klasifikasi
▁percobaan
▁dimenangkan
diri
▁Im
▁kandidat
▁(1
▁Shanghai
▁berkurang
▁berperang
▁insiden
▁diplomatik
ble
▁menyebutnya
▁rapat
▁jawa
▁erat
▁Seiring
▁Desain
udin
▁Zhou
▁gerak
▁Bill
▁dulunya
ongan
▁Critics
▁Tha
▁we
▁direkam
▁Wen
bis
batu
▁disediakan
bil
▁Zo
▁habis
▁Ruang
▁pedesaan
▁keperluan
hl
▁banyaknya
uhan
unsur
tok
lie
▁Lam
▁sewaktu
ima
▁Qu
putra
▁Juan
▁Hor
jat
▁cokelat
▁ii
▁Ara
▁Cat
▁demokrasi
ū
▁paru
▁Channel
sol
▁Kamboja
▁teh
▁kelak
▁lapis
▁wisatawan
▁kosong
▁mengajak
tho
▁Night
▁Railway
kelompok
ight
▁Flores
▁1976
ER
▁Senecio
▁properti
▁mengadopsi
▁minum
hab
7%
▁operasional
▁Tua
▁Wil
lea
zer
▁Makam
▁bioskop
▁Bizantium
▁wujud
▁dijalankan
▁Friedrich
▁konsumen
UN
▁genre
▁Peru
▁anggur
▁semula
▁jahat
▁penjelajah
▁1965
▁Barito
▁Dendrobium
▁jaya
▁persiapan
▁Bro
tuk
Sungai
▁keberhasilan
▁awak
▁doa
▁terdekat
▁1975
▁cor
▁terluka
Hu
▁Sony
yung
▁Lahir
▁Pariwisata
▁Pasir
▁perasaan
▁visual
▁ditandatangani
▁layak
▁Hai
▁Wira
▁Otto
sun
▁Hollywood
▁bambu
▁cadangan
▁pejuang
ward
8%
▁tubuhnya
▁dihuni
Du
▁Kuba
Impatiens
▁Tipe
▁1977
asan
▁Kam
Tim
▁Infanteri
▁tembok
▁Begonia
▁1974
kini
▁minat
mulyo
▁berdarah
▁Kel
meter
▁terinspirasi
ardi
▁Kebumen
ukan
▁ya
▁Perdagangan
sumber
▁Serdang
ullah
▁Demak
▁Sem
▁dada
tina
▁Hill
▁membentang
uni
▁Tam
▁Porifera
Yu
dir
opsis
Provinsi
▁diselesaikan
ette
▁ce
▁meneruskan
▁juru
3"
▁Jurusan
▁Kuta
▁cedera
▁Tor
SA
▁rasio
Cha
ل
rama
usa
▁42
▁lemak
bahan
▁menghilangkan
▁1968
▁enzim
▁kedokteran
▁Letnan
kra
▁peri
mak
▁saraf
▁Total
mor
▁ob
▁Katedral
_2
▁metal
▁menghadap
eks
rek
▁Pemberontakan
town
Universitas
▁Raj
▁muka
▁dikelilingi
▁Ros
▁Qa
▁Road
tiga
▁1967
▁Pin
▁Chris
kov
▁UN
▁Kor
▁subregnum
tr
▁bek
▁Dharma
▁Parazoa
▁gi
▁sesi
и
▁penerus
▁Bambang
▁nabi
fan
▁historis
▁Wal
uda
▁Neo
▁Lanka
▁Senat
▁menampung
▁hu
:00
▁Em
4%
▁batuan
▁1999.
▁dijumpai
▁Has
▁biologi
▁Johnson
jati
sse
▁Bell
ianus
▁konstitusi
tte
▁murah
▁Lembah
▁Girl
▁terakhirnya
▁Km
▁37
▁Sil
▁kajian
▁(3
9%
▁dijadwalkan
▁didominasi
▁RW
▁larutan
▁Seoul
yat
▁dosa
▁kasar
▁Emas
bangsa
ibu
▁ketat
▁nada
misalnya
▁Post
tem
▁Juara
oe
▁Syah
▁38
▁paus
▁Siti
▁pelanggaran
▁Mahasiswa
ر
▁Del
▁SMAN
▁jadwal
▁pengarang
Ru
▁Anne
oko
ugh
▁cincin
▁ditinggalkan
▁SDN
▁Good
▁tebal
▁level
agung
▁nelayan
ayat
▁Aktris
gur
▁Nobel
▁AKB
▁Hadi
fin
▁par
▁Scott
sat
psi
▁disertai
Gu
▁merdeka
▁vokalis
▁Perempuan
▁Sukabumi
▁gugus
▁AL
▁Hitler
▁Kuil
▁penjelasan
rina
▁1973
phi
▁Tugas
▁Yugoslavia
▁dipaksa
▁teratas
▁Budi
wara
▁peradaban
▁massal
▁hidangan
sial
▁Kami
▁diadaptasi
▁6.
▁Namanya
▁permasalahan
Perang
Par
▁merayakan
▁Ayu
▁pangkalan
▁1969
▁musikal
▁penambahan
ture
uta
▁(5
▁Komunikasi
▁Madiun
bulan
▁Myanmar
▁harinya
▁Lang
▁Lor
▁maksimum
▁1972
▁Kolonel
▁diisi
▁kelamin
ome
On
▁MA
▁Gelar
ance
sai
Tri
dera
atif
wai
ness
▁Pesta
jing
▁Nga
▁audisi
Ya
ate
▁Dja
oto
▁Pekalongan
▁Amir
▁mengisahkan
▁pendatang
▁Riwayat
▁kinerja
▁was
▁tahan
▁mandiri
ies
sah
omyia
put
▁jati
api
besaran
3.
▁Ul
▁Mem
▁pakar
▁Studio
▁Os
▁Teks
▁Andi
▁permukiman
▁protes
▁Stone
ا
tch
RT
▁Rio
▁Asing
▁dominan
▁Cup
▁perunggu
▁Indah
▁im
▁Pemuda
▁penerbitan
ndo
▁ver
stein
ial
▁Kha
hana
▁berkas
▁Anton
▁DC
▁kontemporer
sono
sey
pis
▁dicetak
▁ac
▁Ismail
▁1998.
aksi
▁Serang
kap
▁menemui
kannya
▁mulanya
▁tiket
aw
▁Ming
▁pemahaman
▁1948
▁penge
▁otot
▁that
▁kecantikan
bb
▁jurnalis
▁1963
sung
onis
sul
▁bunyi
▁dokumenter
mang
▁berharap
▁Petrus
▁Tibet
▁Mayoritas
▁Kepolisian
▁pedang
▁1971
▁bermula
▁Marie
jun
versi
▁Salib
ax
▁darurat
▁teologi
▁Bla
▁klaim
▁Kebijakan
▁Samuel
▁Kre
▁pin
▁tra
à
▁Simpang
▁kolam
▁Mat
▁kadar
▁Brunei
▁rezim
▁Win
▁tuntutan
▁perkotaan
▁Team
▁Poso
▁un
▁dihancurkan
▁Ol
toma
▁dinilai
▁Game
ien
sana
▁serikat
▁arsitek
▁tan
▁asasi
▁Administrasi
▁Azerbaijan
had
▁Mala
▁State
sto
Clathria
bro
Grand
▁memperlihatkan
▁Satuan
Kon
▁curah
▁pengacara
▁kedalaman
num
▁topik
aya
▁Meja
musim
▁perekonomian
lina
▁Misi
▁iman
ubah
▁Sebelah
▁Jones
art
indo
ular
hua
▁kekuasaannya
▁Ford
Begonia
▁Banda
▁Dingin
ST
▁dibeli
bek
▁Ron
▁beranggotakan
▁dibebaskan
sek
▁Arthur
▁pembaca
Je
▁Yoshi
▁ternak
▁Soeharto
▁ditarik
mina
▁memeluk
▁Keduanya
▁Hindi
▁Euro
▁1929
▁mengajarkan
▁Kayu
itan
▁menginginkan
Peng
Sha
▁Purworejo
dian
Salvia
▁1962
▁penye
▁Dor
▁menaklukkan
▁Roman
▁Hawaii
▁minor
▁kabinet
▁disampaikan
rut
▁dihentikan
▁reguler
▁1950-
▁Banjarmasin
▁pembuka
saki
▁Gajah
bab
▁75
Raja
out
▁Pangkalan
▁Etimologi
▁semenjak
yah
▁Mongol
cc
▁tabel
bintang
▁jurnal
mura
▁Mag
▁Ly
saat
▁Bat
▁diserang
ato
▁AC
uw
▁Mak
US
anus
▁cantik
lasi
lot
▁fu
▁VOC
▁nantinya
▁Araneidae
▁Bani
▁Apple
▁48
▁hilir
▁Malik
rio
â
▁dibedakan
▁tajam
amba
pres
▁com
▁bakal
▁perbuatan
▁Penampilan
▁paket
▁Philip
▁vs
▁radar
▁Puncak
▁wadah
▁laga
ere
▁Sepanjang
▁mengundang
▁dipergunakan
▁bisu
▁Monte
▁roh
▁kesadaran
▁Ambon
▁aljabar
cle
▁menyarankan
▁tantangan
cor
▁mengancam
▁Aktor
ngan
▁XII
mpi
▁dibatasi
▁referensi
▁KH
▁Barcelona
▁formasi
▁lisensi
▁Komunitas
▁penganut
▁ser
▁Arya
▁tenggelam
▁menyebarkan
KA
▁Lapangan
▁jagung
tanda
▁Joe
▁bukunya
▁Law
*
▁Will
use
▁istimewa
▁pengawasan
▁membatasi
▁Warna
John
▁Garut
stro
▁sal
▁Agus
▁Ceko
▁can
aki
ntang
daya
▁39
▁pemandangan
▁infrastruktur
▁Warisan
▁Wisata
▁baju
mara
▁Pernikahan
▁Blue
č
▁Asian
▁sasaran
▁Rasul
▁pinjaman
▁hanyalah
mbung
▁transfer
▁1000
ug
▁pribumi
▁Thi
▁kewajiban
gli
▁kotanya
▁Buruh
▁letaknya
▁Ari
▁RS
▁03
▁Pidie
▁perut
▁tol
Allium
▁Leo
▁dinobatkan
sekolah
▁Banyuwangi
▁Mobil
▁Daud
▁berdua
▁7.
▁1919
▁Adat
▁Lord
chen
▁gerejawi
▁Ball
ito
▁bertahun
▁solusi
▁Chili
▁cetak
▁susunan
▁General
uz
rim
▁radiasi
▁dimakan
▁1998,
IA
▁moyang
_1
▁berke
▁munculnya
▁Cap
▁Year
▁|
▁VIII
Air
▁Banyumas
sp
ip
kit
="2012
▁1964
▁×
▁meyakinkan
buk
▁Kom
▁fakultas
acara
buru
▁PP
sson
▁Era
▁pengambilan
▁Tasikmalaya
SMP
▁dibawakan
▁Jing
ode
▁Gold
▁kristal
▁Transportasi
▁Mus
▁tarik
lur
Cyperaceae
▁mengganggu
▁Zona
▁Contohnya
▁genetik
▁Konvensi
▁bab
tul
▁Mohammad
▁akun
▁amat
▁ال
met
▁Gor
▁menyaksikan
▁Jacob
mut
Gunung
PM
▁Union
▁Bendera
tti
▁memberitahu
▁karet
▁berlayar
fon
▁Gre
▁kerangka
▁Baik
play
lay
▁manfaat
Cl
▁selaku
▁pandemi
▁Ve
▁1932
▁tipis
bentuk
="2010
▁Sipil
▁Ag
▁Ayah
▁rutin
▁Stephen
▁Gro
▁perhitungan
▁Hakim
ction
mbe
obatan
▁Gas
qa
▁memanggil
▁System
▁Perbedaan
lok
▁Pun
▁Umar
Piala
tera
empat
▁Rai
▁Ac
▁Jumat
▁basket
▁Master
▁Warga
ifikasi
▁Kendal
▁bela
sekitar
5"
▁mempersiapkan
▁tembakan
form
▁mahal
▁Polri
mengidentifikasi
▁penyerang
▁Kala
▁End
▁lakukan
▁Sebaliknya
▁bersatu
EC
▁ladang
▁Kuningan
▁pewaris
▁dibanding
▁Bab
▁koin
▁kue
▁kontribusi
▁uni
▁2021,
▁SS
▁adiknya
▁Teater
PP
phy
▁hebat
▁Batam
DA
▁membebaskan
▁perumahan
▁Ny
▁1961
2%
▁hit
▁Lebanon
▁dipisahkan
pre
pil
yon
▁turunan
▁1946
mini
▁penya
▁meluas
▁Gresik
eno
▁drum
ë
Pemilihan
OS
▁Rey
hor
▁naungan
ami
vel
▁gajah
▁1949
ksa
esh
▁CEO
▁Des
▁1920
CC
▁Ujung
▁Direktorat
▁Girls
▁bersekolah
▁Matt
SMA
▁persahabatan
▁logo
▁1945,
tian
istik
▁Manado
▁filsuf
▁1914
▁melancarkan
▁perlahan
▁Sosialis
▁lazim
▁Mall
▁ditahan
▁herbivora
▁pengamatan
▁Makanan
▁1934
AT
▁Perse
▁daring
▁tali
▁1942
▁Bangladesh
▁sultan
▁Hati
▁Pesisir
teks
tica
▁motif
▁Pla
▁punggung
aq
yana
▁Heinrich
▁perkiraan
▁Mega
▁diizinkan
▁langka
▁Pekerjaan
▁Tenis
ulu
▁letak
▁Reformasi
zh
▁san
▁ketentuan
sius
▁berupaya
bre
En
gam
▁Line
▁menyusul
xa
▁Bala
▁coba
▁Albania
▁Kidul
▁Bugis
ref
gis
▁mere
nel
Kabupaten
▁disana
atum
oro
▁pasang
satu
wal
alang
▁1931
▁lari
▁Rute
▁citra
▁Mah
▁kolom
▁Power
hem
▁magnet
▁Dai
ces
▁Arts
▁Pahlawan
▁monarki
gua
▁Malam
cara
▁yakin
▁ste
▁potongan
▁segmen
gereja
has
▁berani
rea
▁berdekatan
jer
▁melanggar
▁ekspor
▁Bru
▁Dis
▁Tre
dom
▁Series
▁sirkuit
▁Championship
[
Sam
lap
▁muslim
mik
▁suasana
lf
▁Prusia
▁datar
▁penerbit
▁unggulan
▁Lawas
▁Front
▁menggelar
▁habitat
▁putrinya
▁ideologi
NI
ios
▁Sab
yr
▁1959
▁begin
hati
▁Epi
▁idola
▁44
ob
mil
▁sidang
▁Modern
▁office
▁koran
▁Space
yak
▁1912
▁1924
▁Pasangan
aris
▁Mada
▁BA
▁mental
▁utusan
▁Lau
▁kontroversi
die
▁hadapan
▁Naskah
▁pseudo
▁bertahap
ao
tana
▁Cianjur
▁Mau
▁gender
▁Ciri
):
▁rumpun
▁beban
sim
leng
▁Korps
FC
▁cair
nea
grup
cut
▁punah
▁Konstantinopel
▁120
▁akting
▁Dukuh
▁JKT
Neptunus
▁alkohol
Erica
▁tambang
▁sains
▁pecah
▁diraih
▁2021.
Wi
▁•
م
rung
▁1958
▁Mara
hun
▁Home
▁Ed
zy
▁Sabtu
▁contohnya
mur
▁BBC
ese
▁Dun
RS
▁paksa
▁singkatan
▁potensial
ui
▁pengertian
ld
▁Madrasah
ill
▁Us
rawa
tat
▁Bond
▁koalisi
▁pembangkit
▁Tele
4"
▁(6
▁Jong
heim
Fabaceae
▁minoritas
▁ekspresi
▁Universe
SP
▁Football
ls
AN
▁Jim
▁Ordo
▁merancang
dangan
▁mitra
uc
▁Shan
▁Ō
▁sisanya
orum
ota
▁AD
Is
▁Les
chan
ania
▁Moskwa
▁Suara
zen
▁bertentangan
▁mengusir
▁dihukum
▁Sea
▁1947
lio
▁dibatalkan
▁Ilir
▁mas
▁Bha
▁Harapan
▁Play
▁1900
hen
▁Kennedy
▁insinyur
▁ledakan
▁600
▁Bung
▁Venesia
▁Senin
400
surat
ssa
▁Alat
▁pencaharian
▁korupsi
▁keahlian
▁tabung
▁berlawanan
llo
ms
▁perilisan
▁Televisi
▁terendah
▁Mang
▁1927
aman
iki
▁SE
▁Karawang
▁profesi
▁seleksi
▁Osaka
aro
▁pengaturan
▁Upacara
▁Xi
▁Qi
▁Didirikan
Tanjung
▁main
▁pengungsi
▁penutur
CA
sion
▁harfiah
▁dialami
▁Taylor
▁Nigeria
bha
▁Ikan
▁menguntungkan
▁Tanaman
and
▁menembak
▁kardinal
▁jemaat
▁Berbeda
▁Urusan
▁penggabungan
kis
▁sesungguhnya
▁ideal
▁muara
▁1917
▁diajukan
Pertempuran
▁1925
gil
▁politisi
mad
▁1997,
▁1997.
gambar
diam
▁pertarungan
bong
Ericales
▁Majalah
▁Single
▁terbakar
▁kapten
▁Kevin
▁ketidak
▁Tel
▁Chart
nor
▁sehat
slav
tive
▁astronomi
▁persyaratan
=104
▁penampilannya
▁palsu
▁Henri
="104
baya
▁Kulon
syah
▁Mike
▁1922
▁asosiasi
▁55
▁perencanaan
▁perusak
SE
hol
▁pemeriksaan
▁Columbia
Gereja
Suka
▁kamu
▁pengiriman
▁soal
▁panglima
▁Island
▁memuji
▁anda
teri
▁bermarkas
▁Tenaga
▁Af
▁lan
▁teluk
▁finis
▁Wan
▁Orde
▁Out
▁tawaran
▁Serie
▁subjek
▁Dana
6"
▁Istimewa
▁Samarinda
▁lengan
▁ujian
▁Sakti
gor
Har
ean
▁belahan
▁Tradisi
▁den
shin
nen
SS
▁pengajar
SM
mani
rani
▁Edisi
bes
▁rombongan
▁kurun
▁hangat
lebih
gram
▁Permaisuri
▁nasi
▁Bio
▁menyutradarai
dur
▁publikasi
▁Malaka
▁menyanyi
aba
▁aneh
sisa
▁ditunjukkan
cil
▁bertempur
ern
▁penderita
▁tanggapan
ello
▁menghargai
elo
▁Prabu
▁chi
▁terancam
▁sempit
▁bahaya
▁(4
lian
vy
mbah
▁petunjuk
try
salah
KI
▁Persi
▁Rose
▁seluler
▁Kri
▁menghilang
▁wayang
▁th
-19.
▁Mai
▁±
▁Ltd
▁putera
▁TK
hong
ert
▁Manga
4.
▁Nagari
▁saksi
▁kor
temannya
ama
▁monumen
▁yg
▁Perancis
hei
▁Pagi
▁Akibat
▁Kadipaten
▁Col
Mer
▁kebangsaan
▁Terletak
▁kerabat
▁pengolahan
▁Aji
▁Nar
▁bertarung
▁Patrick
PI
▁Statistik
▁rumit
dem
▁Ternate
cht
▁Inf
▁dipublikasikan
▁Lebak
▁bertajuk
▁Sai
▁Apabila
▁berharga
▁Florida
dium
ops
▁Dam
▁Mahkota
▁Rus
pt
▁Sul
▁memperkirakan
▁1926
▁Pemenang
▁cita
▁arkeologi
▁anggotanya
▁Honda
▁Laksamana
▁perfilman
▁riwayat
Aku
▁gra
▁q
▁diawali
▁Kho
▁intelektual
▁Mir
▁Project
▁berkarier
▁sekuel
▁kambing
▁menganut
▁kurangnya
▁Ogan
▁1996.
▁helikopter
▁sekretaris
▁pengembang
▁dikendalikan
▁41
11"
jari
▁Bri
are
mempertimbangkan
▁250
▁box
▁mengelilingi
▁Comp
▁minimal
▁vektor
▁Cilacap
▁Pura
▁transmisi
▁Jember
▁1957
day
mala
vers
▁Peta
Fabales
▁dikenakan
▁José
kura
▁maksud
gara
▁mengkritik
▁opera
▁#
▁mengawali
▁panen
▁1923
▁ponsel
▁dihitung
ovich
▁pengurus
odo
less
▁Kualifikasi
▁Camp
tinggi
mai
▁Set
pho
AM
а
▁berkedudukan
▁nasib
7"
▁spiritual
▁mon
ndu
hn
▁Bisnis
▁Globe
▁Walter
▁jejak
▁0.5
▁04
▁penghormatan
mbar
Ad
ute
▁Sumedang
dio
shu
MS
▁pembayaran
▁Len
▁jet
rot
▁mengerjakan
▁his
▁sebagainya
▁melaju
▁Town
▁Lamongan
▁Mali
nny
▁disiplin
▁Studios
lagi
▁Pemimpin
▁Merupakan
ı
iri
▁Var
▁jazz
▁kredit
▁Pasuruan
▁Eli
▁Tony
isa
▁Pterolophia
▁Joko
▁Jombang
trans
▁penilaian
▁bara
▁piala
▁memecahkan
yam
▁Karakter
▁menyimpulkan
▁diusulkan
Ben
pop
▁Cao
▁Bob
▁Fuji
▁mewah
▁Hei
Star
iti
ij
▁menyajikan
▁mene
bau
▁Force
mos
▁Mongolia
▁awan
▁maksimal
▁(2
▁disukai
awang
▁melakukannya
organisasi
sak
▁Reaksi
▁Bou
▁),
▁%
suke
▁jenjang
▁Xiao
ado
uf
▁Toyota
lahan
▁misionaris
▁Huta
DP
For
ema
kri
▁prosedur
▁64
▁1992.
▁kolaborasi
▁43
alisme
eum
▁cu
600
dana
▁Saya
ş
▁Agromyzidae
▁hubungannya
▁Sarana
▁rentang
nc
▁Perjalanan
etta
▁Wikipedia
▁mewujudkan
▁rumus
ciri
▁universal
▁kesejahteraan
sya
10"
▁kudeta
▁Stalin
▁diletakkan
nom
▁Dream
▁Sand
▁Atlantik
▁sampel
nge
▁ganti
pung
more
▁2"
▁mendominasi
▁Blok
▁Poli
odi
▁cap
▁Research
▁Sarjana
DI
poli
▁Oscar
▁terikat
▁figur
▁Antonio
▁Citra
▁Sumbawa
sub
▁menuliskan
▁penjajahan
▁pembantu
▁Abi
gn
▁berkarya
▁kedaulatan
▁nol
▁Sidoarjo
▁Kapuas
▁Chelsea
Hari
main
▁Abraham
▁sur
▁mengorbit
hy
▁setinggi
bara
▁mela
▁Kla
▁Pon
▁Miconia
djo
dd
▁Mini
▁psikologi
▁bertanya
▁imigran
▁Hen
▁1921
TI
▁berpenduduk
▁Apa
▁Ivan
odes
▁diinginkan
1%
▁seru
mond
▁membran
▁mengapa
▁dimaksud
side
▁mandi
▁Hy
MP
▁paroki
▁Jackson
▁Wilhelm
▁sekunder
▁Jaringan
bot
▁Kejadian
▁dihubungkan
gai
endra
▁berkontribusi
▁menandakan
udi
▁Tro
▁sesudah
▁1940
▁sha
▁Lambang
▁Nilai
▁mengu
▁Pekanbaru
ism
ude
▁Klaten
guru
▁kedelapan
Min
▁seniornya
▁tanjung
data
sten
▁Mil
▁1930
▁Gading
▁Buah
▁dikaruniai
▁Puteri
▁Great
▁Virginia
▁jamur
▁transisi
iv
▁Pontianak
▁mengawasi
BA
▁seluruhnya
▁1995.
▁Roy
▁Kolombia
was
▁Kekristenan
hon
▁Alfred
▁Victor
▁hasilnya
▁1956
ă
▁Aleksander
▁mengukur
▁Afganistan
▁Eugenia
▁tingkatan
▁Vo
▁mengangkut
lock
elle
▁ayahandanya
gung
▁1996,
▁oposisi
▁Mul
▁kakaknya
▁Bon
▁puluhan
▁keterangan
jadi
▁PC
▁Mulia
▁memori
Gi
uru
▁laju
▁Kedokteran
▁konsumsi
▁Blitar
=107
ving
pl
▁Sum
▁Sara
▁sejati
▁Kei
▁berlebihan
▁penangkapan
jenis
▁Energi
▁terpenting
▁Islandia
▁wahana
▁Kamila
▁Dur
="107
▁kanal
kari
▁1936
rid
▁Ryan
▁Douglas
▁Was
▁46
ngka
▁kerugian
dh
yun
▁gravitasi
▁Standar
▁penerimaan
▁plastik
▁Lie
▁dolar
▁bergelar
Un
▁dihadiri
tori
▁mitos
▁bernyanyi
Myrtales
▁Simalungun
▁dikunjungi
chin
▁membalas
▁pengukuran
▁kesultanan
▁islam
ova
▁menilai
▁Samudera
baik
bulu
▁Dubai
cana
▁Giri
chy
rom
▁basah
▁Libya
Karang
aku
gah
▁diatas
▁salinan
cio
▁gawang
our
▁Bojonegoro
▁Begitu
▁Ponorogo
▁Prestasi
IC
▁0.1
▁doktrin
▁pengisi
▁dihapus
▁Kenya
bach
▁Lem
▁senilai
▁Marino
▁badai
▁HD
tol
▁Carlos
jeng
▁Bait
9"
ِ
▁$1
▁dendam
bing
و
▁Digital
▁Wilson
▁pita
▁berkelanjutan
101"
▁bersalah
▁Copa
108"
▁diskusi
▁menekan
▁dibaca
▁subur
▁(13
▁(20
▁menyatukan
▁kabur
="2009
▁penasihat
▁lihat
time
▁Pierre
▁habitatnya
▁Bireuen
▁dibubarkan
sisi
▁real
▁Andrew
100"
▁Sesuai
lic
▁menari
▁diperbolehkan
▁Deskripsi
▁Fan
▁pemasaran
▁47
▁it
vol
▁Jarak
▁sari
pper
▁permulaan
▁berkunjung
▁Service
ن
Onthophagus
▁mengakuisisi
▁sepatu
▁kan
▁Rektor
▁disahkan
▁Zhu
8"
ifera
▁Nepal
▁kargo
▁kreatif
▁Bursa
▁fosil
▁Kaum
▁Maskapai
▁sampah
perusahaan
nat
▁Perjuangan
oc
▁Amsterdam
▁Gil
▁tangkis
▁peranan
▁merencanakan
ayu
rey
▁Edo
yō
="2013
▁Jupiter
▁pembakaran
▁melatih
▁Cur
▁(8
Yo
▁Kris
▁1994.
ruk
▁menu
▁telinga
pet
asih
osus
▁1913
▁penerapan
▁cat
takan
▁serat
tangan
="2008
▁Sung
▁sepakat
peran
▁Marinir
▁kuasa
▁Francis
▁penaklukan
iensis
106"
▁Free
▁Muna
▁Press
▁situ
▁kenaikan
▁Makmur
▁Gempa
▁Lihat
Pem
▁Posisi
▁penyelidikan
▁gar
3,
taka
▁sch
icornis
▁Masalah
aceae
▁Sisilia
▁Paroki
▁piano
▁Tong
▁terlepas
▁Kur
eti
▁ak
▁permaisuri
▁pendaratan
AC
pia
aji
▁Lewis
▁Kep
▁Oe
rel
▁Your
▁survei
▁bicara
▁kenyataan
itz
▁65
▁Bernard
▁dilindungi
▁memotong
14"
▁SA
▁Foundation
▁beli
▁perluasan
▁pacu
▁primer
▁salib
Love
▁Xu
ole
ipes
▁tv
▁kepribadian
111"
▁Hampir
▁dipenuhi
▁Singh
▁diundang
▁sulung
och
▁Kampus
="2011
AR
▁penga
cen
▁amal
rna
EN
sz
▁merasakan
▁dewi
▁romantis
400"
iga
▁kemanusiaan
▁51
137"
▁ditingkatkan
▁temannya
aj
181"
▁jendela
▁Said
▁1928
666"
▁Berbahasa
107"
130"
124"
teman
Han
▁domain
cul
program
ston
▁mendefinisikan
▁Non
▁neo
uchi
IM
▁kompilasi
agi
▁pidato
▁ditanam
123"
Billboard
▁Subang
▁52
▁berawal
▁jajaran
▁belah
▁berapi
▁1955
▁dipromosikan
lut
▁mengikat
121"
▁Cre
▁diameter
mem
PK
112"
▁posisinya
▁Demokratik
alun
mark
▁biografi
▁1910
="108
▁Liverpool
IT
▁bermakna
▁efisien
▁Palu
▁praktis
rana
▁Turnamen
▁kepolisian
ES
▁Napoleon
▁Pendukung
=108
kos
103"
itis
head
▁Indramayu
110"
180"
▁truk
▁Liang
▁Stra
▁lintasan
▁memperhatikan
▁berjanji
▁dinas
cin
▁Bai
rac
▁diartikan
uro
072"
254"
▁berniat
▁XIX
▁finalis
▁Lim
▁eksklusif
▁Television
▁Story
▁persatuan
134"
135"
▁akurat
616"
▁AFC
="115
▁Gri
FA
▁bernilai
▁op
nal
▁tukang
▁Android
154"
141"
127"
▁visi
119"
gromyza
ship
131"
▁rawa
▁Yaman
▁Yong
–18
rita
▁Region
910"
▁audio
▁segitiga
sifat
210"
wit
179"
133"
=115
▁jumlahnya
102"
jung
▁radikal
▁popularitas
941"
▁Ring
▁miliknya
polis
▁pertukaran
▁menghitung
▁pencipta
▁Science
▁didistribusikan
Fe
▁Plus
▁mena
▁sen
▁Tanpa
iko
138"
▁Mandailing
▁pujian
▁Syarif
▁Char
▁Yon
wil
158"
▁hamil
▁Gol
α
▁Wo
▁Mycetophila
▁Lumpur
▁1994,
12"
▁Malaya
py
▁Konsili
langan
laya
ech
139"
129"
143"
109"
182"
▁terapi
rad
300
500"
▁teratur
▁Herman
▁Pasca
▁Kasus
105"
omi
▁Little
oleh
153"
132"
▁Ste
343"
120"
atur
809"
797"
923"
16"
▁Penyakit
933"
157"
▁Halmahera
▁dituturkan
▁perikanan
med
185"
▁£
ْ
▁meyakini
952"
920"
▁1993.
144"
098"
▁larangan
178"
079"
ries
▁parkir
▁robot
▁Court
RA
="117
▁alias
490"
142"
160"
932"
▁1911
331"
▁mencerminkan
=88
189"
▁transaksi
RC
162"
916"
122"
sho
▁Keadaan
▁Hans
por
=117
402"
800"
▁kesembilan
171"
255"
stin
enberg
]].
▁sore
▁paham
798"
▁termuda
168"
▁mencintai
170"
126"
ensi
▁diidentifikasi
▁akrab
242"
▁Pam
▁Jen
▁kontroversial
▁(12
▁keterampilan
▁aliansi
118"
▁realitas
▁Steve
▁bercerita
foto
▁KRI
paru
605"
166"
media
▁ekspansi
▁matriks
▁perbandingan
puk
329"
▁horor
▁kotamadya
600"
tensi
▁Ibunya
077"
▁Rider
136"
241"
ess
391"
rup
337"
▁kriminal
085"
▁Bara
795"
suk
▁berkantor
Saya
230"
163"
472"
back
355"
▁bertempat
734"
173"
203"
900"
▁Wood
▁Perdamaian
▁Kol
▁semasa
231"
071"
15"
078"
▁Garis
▁ragam
omo
▁penyiaran
▁bit
▁pentingnya
▁Brebes
961"
551"
ois
169"
▁busana
641"
tip
184"
752"
▁long
gul
810"
gre
▁geografi
214"
115"
326"
281"
475"
kitab
▁berkolaborasi
30"
304"
342"
125"
Kepler
▁Kardinal
407"
ê
058"
483"
494"
553"
056"
220"
656"
SC
805"
051"
246"
762"
247"
806"
260"
410"
934"
▁1952
790"
619"
▁Plot
mati
▁jalanan
▁1916
289"
794"
491"
626"
768"
esa
252"
155"
917"
307"
174"
338"
080"
▁menyuruh
335"
979"
▁mal
074"
151"
▁campur
▁Metropolitan
094"
879"
796"
539"
467"
517"
594"
Dia
148"
sebuah
▁konon
300"
cre
944"
▁Kampanye
25"
492"
ø
▁cerdas
128"
▁Johann
146"
525"
753"
▁sepasang
416"
▁bata
799"
Anthaxia
985"
▁Ple
raj
▁seberang
▁Had
▁kandung
786"
552"
113"
476"
295"
▁pedalaman
▁Sarah
489"
251"
793"
801"
▁tampilan
202"
176"
▁Area
336"
150"
▁Fitur
PN
647"
378"
353"
▁county
▁terdengar
330"
037"
140"
▁Oxford
043"
936"
471"
▁Siprus
▁Beliau
791"
▁Auto
Orang
▁Ama
opa
rip
945"
229"
nin
328"
▁bandung
114"
ín
226"
305"
495"
274"
▁1945.
klasifikasikan
▁Sy
644"
cing
911"
193"
▁peluang
183"
perairan
373"
954"
256"
659"
951"
389"
▁sponsor
▁1.000
062"
547"
918"
117"
Cyperus
019"
▁1995,
360"
▁Cabang
104"
jal
232"
309"
788"
▁kuantum
▁NASA
164"
557"
186"
▁Rob
▁alamat
▁fo
warna
928"
olog
519"
409"
▁seputar
177"
227"
▁Tuan
161"
088"
501"
▁disusul
216"
116"
340"
935"
487"
261"
082"
770"
348"
▁kediaman
346"
648"
064"
048"
▁menewaskan
▁diperankan
244"
▁France
ging
187"
477"
▁Der
▁show
314"
083"
393"
948"
▁juniornya
388"
026"
▁rating
516"
721"
Jepang
382"
351"
▁adipati
▁mendalam
147"
="88
old
▁bertepatan
783"
172"
349"
538"
461"
334"
opus
929"
318"
▁Estonia
▁Sriwijaya
light
812"
537"
▁peti
967"
217"
598"
▁religius
aux
983"
000"
292"
Th
▁Brian
591"
▁Sor
215"
167"
211"
953"
ctor
▁Maroko
913"
278"
926"
press
947"
498"
308"
▁Fred
922"
▁Melbourne
243"
All
478"
804"
352"
761"
976"
512"
▁Belitung
159"
▁albo
ulus
▁Ahli
310"
344"
257"
903"
175"
▁memperingati
▁berhadapan
anggota
mbangan
▁Belakang
213"
991"
639"
ido
404"
156"
031"
▁lanjutan
245"
543"
735"
▁Racing
775"
046"
403"
277"
765"
802"
cis
061"
▁konsisten
317"
474"
828"
299"
▁Facebook
955"
ew
811"
6.
975"
821"
oda
-19,
aktor
▁Biro
191"
250"
038"
504"
420"
362"
301"
820"
422"
803"
▁kebangkitan
049"
377"
275"
▁Leste
287"
846"
48"
522"
943"
949"
488"
200"
610"
▁Rin
977"
924"
365"
939"
618"
190"
320"
825"
▁Keempat
▁Musi
406"
540"
997"
364"
▁terasa
303"
▁Wall
511"
237"
390"
925"
479"
219"
▁Heart
432"
ose
192"
507"
715"
463"
▁tawar
760"
zia
688"
wali
282"
▁ramai
612"
▁Are
341"
870"
▁Ap
092"
Inggris
623"
374"
631"
661"
016"
484"
738"
Pri
224"
546"
.”
813"
660"
414"
057"
▁waris
339"
258"
▁Aplikasi
▁ilegal
sman
▁gambaran
455"
▁spin
550"
263"
574"
▁49
sche
720"
228"
874"
464"
▁Pengetahuan
▁seterusnya
▁Komposisi
262"
987"
emi
675"
521"
▁Saleh
413"
502"
620"
424"
988"
▁membiarkan
▁segar
901"
233"
536"
055"
534"
▁Jon
497"
063"
▁Wijaya
994"
269"
570"
321"
036"
▁tegangan
573"
234"
▁Demikian
▁pendidikannya
531"
485"
759"
087"
225"
919"
070"
060"
▁Pel
899"
559"
609"
510"
358"
212"
732"
Sc
▁alur
bala
998"
347"
785"
758"
437"
069"
782"
▁naga
993"
638"
427"
▁meletus
041"
065"
▁Gabriel
894"
188"
832"
731"
972"
gede
Chrysobothris
978"
▁petualangan
849"
▁Ah
392"
▁belakangan
356"
▁memberinya
259"
379"
419"
▁Om
493"
897"
▁Margaret
654"
990"
621"
=105
▁Fin
24"
ANG
842"
▁diakses
▁sensor
643"
426"
774"
ه
319"
▁editor
298"
▁Bull
▁Swasta
218"
401"
698"
971"
434"
hwa
509"
995"
885"
010"
▁konvensional
767"
302"
▁Hewan
914"
045"
Kar
ox
973"
096"
877"
657"
oo
905"
=119
▁Isa
470"
oph
834"
981"
359"
417"
963"
915"
646"
962"
433"
603"
741"
▁Kawa
383"
964"
685"
▁optik
893"
288"
956"
="105
345"
▁Sambas
361"
984"
▁menutupi
816"
▁Idol
886"
tulisan
593"
581"
235"
974"
20"
789"
▁Bol
651"
740"
575"
508"
dji
▁Universal
746"
▁ketimbang
459"
838"
486"
617"
906"
▁Laporan
▁Mojokerto
946"
354"
902"
836"
766"
628"
466"
384"
032"
315"
837"
lov
▁peternakan
059"
▁eu
439"
425"
405"
▁otonomi
lei
248"
293"
907"
615"
073"
533"
271"
363"
201"
556"
590"
780"
▁Peserta
394"
674"
ishi
280"
327"
313"
285"
197"
792"
095"
▁MTV
▁menuduh
▁Mis
▁didapat
▁kapan
528"
921"
450"
843"
▁persaingan
▁beredar
▁bangkit
375"
608"
▁pisang
503"
unt
221"
999"
876"
473"
700
772"
076"
376"
992"
818"
▁1992,
769"
cca
023"
272"
▁menunjang
▁bersedia
▁HAM
544"
283"
▁identik
569"
199"
149"
520"
909"
784"
889"
323"
011"
996"
555"
▁ok
223"
408"
009"
276"
▁Kesenian
480"
541"
068"
015"
864"
884"
597"
429"
460"
606"
nov
515"
412"
sebelumnya
350"
▁Sah
273"
554"
▁memadai
Can
▁dimuat
279"
411"
815"
454"
ux
▁10.000
937"
▁pengajaran
044"
209"
324"
▁UNESCO
253"
873"
▁1991,
888"
940"
pemain
545"
687"
316"
▁Arsitektur
744"
635"
▁ST
▁Express
053"
748"
205"
021"
▁Tanda
632"
got
482"
655"
481"
824"
▁sam
▁Rembang
291"
▁Gong
▁Cri
▁Matsu
21"
033"
▁sekadar
693"
▁Bollywood
ogen
238"
456"
596"
863"
708"
▁otonom
tain
▁perdebatan
▁tembaga
714"
▁pengujian
665"
397"
▁sawit
cel
595"
692"
284"
817"
779"
370"
240"
445"
204"
097"
020"
▁pelayan
268"
▁Demokrasi
861"
764"
165"
050"
560"
658"
034"
549"
325"
035"
588"
091"
024"
773"
514"
881"
468"
369"
=89
▁fer
496"
895"
690"
904"
686"
542"
430"
562"
312"
756"
778"
236"
822"
▁RCTI
380"
017"
859"
950"
808"
ON
sko
029"
399"
662"
506"
▁Hart
17"
▁Nick
695"
▁pemba
▁mengamati
601"
931"
751"
725"
198"
▁Merdeka
▁respon
607"
▁Bir
▁basa
513"
▁Suzuki
▁1915
067"
462"
640"
▁Hil
965"
677"
054"
2)
787"
627"
872"
207"
gol
206"
152"
hiro
827"
960"
830"
32"
19"
428"
▁Isi
568"
452"
530"
435"
930"
763"
081"
636"
311"
966"
645"
713"
332"
723"
385"
▁diberlakukan
kot
333"
▁membawanya
624"
440"
739"
297"
322"
▁1991.
980"
580"
089"
stri
625"
896"
040"
444"
iyyah
678"
749"
stone
535"
892"
265"
421"
LS
▁telekomunikasi
637"
▁diwakili
982"
679"
381"
027"
395"
959"
532"
jek
=265
▁Ulama
putih
249"
▁sentral
826"
448"
208"
814"
561"
755"
807"
▁diperluas
306"
▁Boston
▁parasit
086"
587"
396"
908"
563"
099"
▁penghuni
▁Cross
566"
572"
418"
▁Luwu
724"
▁ketiganya
▁Amin
438"
286"
006"
066"
841"
▁Sup
357"
λ
▁dipahami
875"
968"
093"
▁berputar
649"
529"
733"
571"
▁Sala
▁lautan
▁lamanya
oa
629"
022"
717"
▁salju
▁1905
527"
663"
526"
PD
▁Bak
pot
▁Chironomidae
▁Bohemia
670"
604"
43"
="265
028"
912"
▁prefektur
▁dikonfirmasi
266"
589"
844"
776"
565"
145"
▁hantu
585"
664"
▁bumbu
366"
▁Sumenep
823"
▁Impatiens
▁berpasangan
453"
743"
958"
039"
222"
436"
▁Mori
684"
▁1954
▁oksida
957"
296"
▁didapatkan
938"
feld
750"
usul
709"
014"
680"
737"
▁Dra
▁dituduh
▁Penga
586"
▁Probolinggo
▁bungsu
469"
736"
387"
630"
890"
833"
878"
▁Kompleks
elli
599"
▁Movie
294"
Purn
239"
▁agregat
986"
633"
727"
742"
▁Kupang
▁keanggotaan
747"
▁SC
858"
194"
▁Alan
▁Centre
372"
195"
700"
003"
667"
012"
▁pemisahan
▁wabah
845"
▁Mid
nium
akhir
696"
TS
▁berstatus
196"
ér
boy
716"
▁Peri
781"
613"
523"
004"
719"
883"
367"
264"
▁buat
▁menembus
726"
wana
868"
771"
007"
927"
703"
451"
622"
▁perolehan
▁keunggulan
▁Daun
706"
▁lem
579"
704"
084"
398"
652"
▁Billboard
835"
▁And
705"
▁Ciamis
▁keindahan
757"
001"
Her
▁Sifat
423"
728"
853"
090"
730"
524"
880"
▁Cra
611"
▁serang
▁pertambangan
wei
▁komentar
▁Mes
▁jawaban
718"
722"
582"
▁Kyai
368"
▁Markus
564"
431"
441"
masalah
rul
548"
270"
898"
839"
▁Bapa
676"
=98
871"
848"
942"
▁Sachsen
578"
819"
▁gram
ringin
650"
▁1990.
025"
701"
702"
829"
▁menolong
Cor
▁hidung
386"
847"
13"
415"
602"
710"
754"
862"
▁asalnya
290"
▁penyelesaian
▁Generasi
▁Pinang
▁Kec
▁Cy
891"
28"
▁komite
449"
▁Lukas
▁mengge
047"
075"
▁Fort
44"
▁Tun
683"
577"
518"
▁berakhirnya
989"
BS
▁inspirasi
▁Tru
969"
▁my
logi
▁Ei
lil
567"
852"
052"
▁05
▁mencuri
860"
505"
▁lembut
499"
777"
▁Garuda
465"
fri
Ex
uji
▁Grammy
nari
enia
29"
446"
711"
▁Pers
691"
008"
▁top
576"
vor
005"
▁Um
558"
Tan
694"
▁berpengalaman
642"
▁gitaris
030"
▁Tuban
▁kontestan
▁memanjang
▁dikerjakan
American
867"
▁Dataran
682"
▁Dragon
rk
882"
▁Asasi
002"
▁Mojo
▁1939
614"
458"
18"
="159
="89
457"
855"
443"
▁geometri
▁Sat
042"
▁Cam
▁Oh
697"
▁menyi
689"
vir
869"
45"
▁membatalkan
018"
▁cipta
▁1951
gger
013"
▁vaksin
854"
▁pelayaran
Asteraceae
▁Pabrik
▁Huang
23"
371"
▁Sol
laut
▁dikumpulkan
865"
Ser
▁Nara
669"
442"
▁boneka
26"
▁perpanjangan
▁Senyawa
ith
▁Tower
22"
Islam
▁Kyoto
447"
▁sumur
▁1941
▁Gede
681"
▁tenang
583"
gri
▁musiknya
▁dihormati
▁vertikal
=159
34"
267"
nos
866"
▁ditawarkan
▁SI
634"
ν
▁É
▁Balikpapan
▁finansial
▁komoditas
inger
▁(10
▁Moon
▁Definisi
nyi
sian
▁Kab
▁berkualitas
▁disesuaikan
▁Ann
▁temperatur
_3
▁Bah
ball
831"
▁saran
729"
31"
673"
653"
▁wangsa
592"
▁menjuarai
970"
▁semifinal
▁akademi
▁unggul
▁Burma
33"
▁1908
▁bala
▁Ton
▁Kh
hyun
▁koordinat
▁tikus
=112
WA
="112
dadi
▁kawan
▁diceritakan
▁pinggir
▁AM
▁Dolok
▁Lady
LA
▁pemrograman
▁1930-
▁jangkauan
▁Old
▁tugasnya
▁Davis
887"
▁Aljazair
▁persekutuan
▁meningkatnya
▁lingkup
▁Madinah
▁1953
584"
▁tepung
▁Sanskerta
▁Yehuda
mma
▁Profesor
▁Sugi
672"
bay
▁Sintang
▁Lab
▁1993,
857"
▁Tujuh
uba
▁dikembalikan
avi
▁membakar
840"
▁Penulis
▁kesamaan
▁utuh
▁Komputer
▁Twitter
▁menonton
house
raya
dit
▁live
850"
phe
▁pembelian
▁USA
699"
▁Light
▁1943
▁Denpasar
▁Angka
▁Perangkat
671"
xia
▁Venezuela
▁pergantian
▁has
668"
zel
hee
dent
▁ternama
leg
zz
zon
▁Munisipalitas
▁wewenang
▁penghasil
▁memasak
851"
kil
▁pertimbangan
Rhododendron
▁53
▁klien
▁lipat
Sen
▁Water
▁menjamin
yono
▁didesain
zawa
▁Salam
707"
▁Java
ain
cos
▁Andre
▁dipertahankan
▁penyerangan
uti
▁liberal
▁Gang
▁perenang
▁dasawarsa
▁pembunuh
▁seragam
▁Kodam
▁Warner
▁Filmfare
Suku
Fu
▁modul
ssi
▁Web
cera
▁Pohon
▁Fat
haru
▁diduduki
▁800
▁diputar
▁Rahman
goro
▁grafis
tuan
▁Status
▁Penemuan
▁Alabama
▁Baro
▁netral
▁besarnya
▁Datuk
▁Glenea
anyar
▁dibuktikan
Kali
dapat
▁antariksa
▁janji
▁nyaman
▁Rum
nic
55"
▁menanggapi
young
kang
▁memelihara
▁Jayapura
▁melampaui
▁perbukitan
▁Gusti
wijaya
▁Lubuk
▁putus
ulis
▁salat
mulya
▁panah
▁Majalengka
▁kas
▁Forum
856"
▁Pal
Asterales
▁khawatir
fur
▁dipelajari
▁Pur
▁Av
▁Ing
58"
▁statistik
▁FM
lee
ffer
▁Meta
▁Ferrari
▁not
resi
BI
istri
▁Salim
▁klorida
▁1990,
54"
▁menyiapkan
▁Office
▁pemakaian
▁terkecil
▁Umumnya
▁Jang
ful
▁KRL
▁Johor
hang
▁Kongo
yev
▁Bet
▁Vatikan
”,
40"
ID
▁Wono
▁(14
▁Cheng
▁kriteria
minasi
cent
▁Gowa
▁mendesak
▁Iklim
▁Biara
▁ten
Distrik
▁mentah
712"
▁jakarta
▁metropolitan
ril
="158
46"
yeong
lama
▁berujung
karyanya
▁domba
▁Norman
ane
51"
ngkang
dja
▁menyambut
▁majelis
▁Angel
▁tersusun
▁Widodo
syarat
ε
col
▁Asam
3)
▁Comte
745"
Stadion
rol
▁56
▁Indian
▁Hel
▁Anwar
▁First
nica
zza
41"
▁Neu
▁pene
▁goreng
▁inci
▁bau
▁DJ
=158
▁Pseudo
50"
91"
Dan
е
42"
▁(7
▁Saka
▁pipa
▁Nugini
▁Salvia
▁berkomunikasi
Sekolah
▁sy
cta
org
fen
▁Lak
Final
▁lereng
nut
▁alumni
▁leher
▁Fire
▁Reg
-23
lembaga
▁Kap
▁Tae
▁Cambridge
▁diplomat
▁Pr
=96
▁Wong
ł
eksi
79"
36"
▁Enam
▁pemungutan
▁Kimia
produk
▁Puri
▁NBA
gos
shire
39"
▁berdampak
gna
▁penciptaan
icola
gui
▁Istri
▁Donald
▁dioksida
dul
=95
▁kerusuhan
ngkung
▁kenal
sebut
▁NASCAR
Chi
▁biologis
=76
ille
▁Pilkada
▁baterai
▁perlombaan
▁perkembangannya
▁mengarahkan
▁tidaklah
▁Kebun
▁Tana
Don
ifer
▁silinder
nti
▁barisan
35"
37"
-20.
Dewan
▁mamalia
▁sampul
dé
▁diamati
ule
▁hektar
▁meletakkan
▁menjatuhkan
▁Syam
hae
▁Sudan
▁kol
▁perjalanannya
▁dugaan
▁emisi
Super
mpo
ringan
▁Sya
iro
AK
60"
5.000
unggu
▁Airways
▁Bersenjata
▁bir
▁Slovenia
▁Mandarin
▁Monumen
▁Pihak
Partai
53"
▁variabel
▁sosialis
▁pernikahannya
▁yayasan
▁Luc
▁Pengaruh
▁Komering
▁tadi
▁Massachusetts
▁libur
ava
buat
▁terbentuknya
▁Yordania
▁Kanton
▁bekerjasama
waktu
▁digabungkan
tomo
git
▁River
▁Jiwa
dap
▁Hamilton
▁1907
▁Dwi
▁Anthony
▁keliling
sem
▁pengamat
64"
▁ng
ans
▁panel
Rubiaceae
▁IP
▁akal
akh
▁ple
52"
▁Kir
▁Tara
▁berlatih
▁Biak
nja
▁memberontak
▁nitrogen
▁Araneus
hard
▁Konfederasi
▁KM
▁Nil
98"
▁kerbau
▁peraih
▁angkat
zin
ord
▁Bina
▁lisan
ars
ngko
27"
38"
▁ekstrem
Mont
iel
▁dialog
▁Queen
▁Pulo
▁diperintahkan
▁permohonan
cell
yuan
▁Kampar
▁Square
▁Bul
▁Erica
▁indeks
▁Wild
▁bergaya
▁yu
▁sc
III
▁mencalonkan
81"
disebut
▁06
69"
▁impor
karan
▁Potensi
▁Kus
anaknya
▁mus
▁sayuran
▁Wetan
lling
▁Hui
▁berburu
68"
chel
▁server
urus
dat
ssel
woo
▁1,5
70"
▁perselisihan
▁Tal
57"
▁Menjadi
dale
▁Willem
▁letusan
▁54
dou
▁manapun
56"
▁Earth
▁Jay
pala
▁lap
▁SH
lom
59"
▁Alur
▁pengasingan
kle
▁Singa
7.
▁kakek
=78
▁Dom
▁Pandeglang
▁Mao
▁Neptunus
▁bentuknya
▁lantas
▁penyu
peri
mari
4,
▁pondok
rou
▁Earl
▁endemik
Gentianales
▁Ek
95"
▁Qin
%),
▁dukuh
▁Premier
▁Adrian
▁pelaksana
▁1988.
hkan
▁epi
▁meny
▁har
▁apartemen
▁negaranya
▁terlaris
▁Sparta
66"
ić
arti
Ban
sebagai
▁Kat
▁penghasilan
▁mor
▁Fra
cro
▁Hard
▁Sak
agama
bagi
▁Development
▁menghapus
▁Kerinci
GI
Eu
93"
▁literatur
buh
▁Matius
bok
▁kutub
inter
▁menyerbu
▁Guild
▁sihir
▁Iskandar
▁pembebasan
▁timbal
▁Ide
PC
▁klip
▁Frederick
75"
▁Fri
▁Rukun
▁bermukim
▁ramah
eva
▁sup
macam
▁Diponegoro
▁han
ology
▁dini
-20,
én
▁kewenangan
baran
▁Ling
▁kepausan
▁Eks
▁1.0
▁usai
▁Keberadaan
▁protokol
▁Sarawak
▁Arena
▁Aksi
yla
▁Ross
▁penyelenggara
Kan
▁silat
▁tongkat
chang
TA
▁Usai
▁Swa
giri
bank
▁kecilnya
▁99
▁sex
▁Iman
▁penalti
▁jepang
Pra
▁Markas
ür
rida
49"
lokasi
▁matang
="78
▁larut
▁konservatif
oso
▁nagari
800
▁pengikutnya
▁Box
▁Istanbul
▁hektare
nggo
▁favorit
61"
▁http
▁menyelidiki
▁Kembali
▁Rad
▁santri
▁kudus
nggar
dara
71"
▁Say
▁adil
▁mulia
▁ketakutan
▁negosiasi
▁Allium
cerita
▁reaktor
buahan
OR
▁MS
▁Ende
Kerajaan
▁Eksekutif
▁Persib
▁you
PR
▁mayat
rich
94"
▁Besi
zzo
▁mel
gio
▁Tau
▁1989.
▁eksperimen
62"
63"
bilis
▁Walt
96"
▁Fernando
▁sedemikian
▁Cro
▁mingguan
Bur
▁penolakan
▁memukul
▁Sto
sso
ifolia
76"
wat
▁Samosir
▁Cot
▁waktunya
yuki
terutama
ault
▁Mgr
▁OS
▁Hiro
▁Kurikulum
▁UI
▁AU
▁Bolaang
Ab
▁ginjal
▁Mill
▁keseimbangan
▁war
pong
Sal
▁tempuh
Sy
5.
Luna
▁Spe
▁beasiswa
▁Phil
ick
sium
▁Harvard
ons
▁Down
roy
all
▁argumen
▁misterius
▁bersuku
ē
▁varietas
47"
▁eksternal
▁Sound
Sejarah
▁dicampur
▁57
Hal
yaitu
ç
▁Mam
Ce
Shi
▁entitas
chu
▁Laos
▁pisau
cial
▁Ty
Arab
▁tro
92"
▁sta
▁wo
▁SP
▁Hay
▁berpisah
Ag
▁Rawa
tap
▁Rat
▁Fadil
▁Roger
▁Kau
▁pema
65"
▁Eric
▁inovasi
▁mendengarkan
▁Banggai
▁Watu
▁tegas
▁detail
▁melekat
mono
▁malang
kelahiran
TP
▁ve
▁Karanganyar
▁Sura
▁memba
gong
▁tebing
▁Vegas
82"
▁jenazah
▁lampung
▁Indragiri
tologi
hit
▁Potter
▁Berg
▁sebut
▁1906
▁1984.
▁Obat
oba
kia
07"
▁kodepos
yanto
▁diucapkan
å
▁(11
88"
▁keadilan
his
▁patah
Dolichopeza
▁reputasi
▁memasang
▁Dampak
▁arena
At
emon
▁infanteri
hil
▁Bojong
▁62
CO
▁Kem
▁syuting
▁Plan
▁Qatar
▁sepupu
hum
▁Sutradara
ico
▁revolusioner
▁0.3
▁tegak
▁terima
▁meledak
Ak
▁Pus
▁cer
sio
▁modifikasi
▁Aero
77"
▁72
▁Arjuna
▁bra
▁Act
▁Cla
▁BP
▁Tum
د
▁bersangkutan
▁Kategori
▁Bau
mmer
▁Clark
89"
▁perbelanjaan
▁Buton
▁Kuning
0"
sma
nius
ago
▁Prima
74"
inda
▁Delhi
▁dijabat
Taman
▁mematikan
▁natrium
▁Guy
▁Terakhir
▁Ludwig
▁mengandalkan
▁memohon
▁ran
83"
anta
GM
Negara
▁limbah
▁Wahyu
▁gurun
▁penyedia
▁bahagia
itu
=155
▁Purba
▁gay
▁Trump
esi
▁nasionalis
▁masuknya
▁Aziz
="155
▁Konser
▁kubah
00"
▁bal
ρ
▁delegasi
elia
gunung
▁dideskripsikan
▁diukur
▁Vincent
dr
▁ikon
▁perempuannya
pula
80"
▁sun
▁Tem
▁(9
▁Teng
over
ihan
▁Mana
pai
mori
▁batik
▁sepur
song
▁bro
▁komisi
78"
▁Lintas
sara
▁Mekkah
▁mendiami
ović
wung
▁karangan
▁Sains
ilasi
▁mengamankan
▁dilalui
▁Wonogiri
leh
▁lambung
▁lawas
enburg
bawa
▁mendeteksi
unda
▁Zhao
▁koronavirus
posisi
▁seolah
▁metro
▁Perak
▁Laki
ever
▁melengkapi
▁Sayangnya
Paul
▁doktor
part
▁bor
▁Kamp
▁Johan
▁Pont
ssy
97"
▁comp
▁pencapaian
▁Honor
tugas
opogon
▁dipersembahkan
yeon
▁hambatan
▁Blora
gia
▁Tabel
▁pengu
▁Pela
▁Ay
pesawat
▁MI
▁Cop
▁Pembebasan
▁66
▁kelaparan
stor
▁pengendalian
▁Manu
▁perlengkapan
▁Pancasila
Ger
▁0.4
▁panjangnya
▁adu
▁tamat
▁Memiliki
▁penayangan
▁1989,
Sin
▁Phytomyza
oy
hani
▁UK
84"
rei
fil
▁Prinsip
▁laku
tern
www
Za
▁kemiskinan
▁Upaya
▁Leon
▁Massa
vari
▁berse
ego
Hymedesmia
▁tren
▁Kumar
▁pala
▁Hamid
▁geologi
oga
▁KK
Pada
antar
▁penanganan
▁dirawat
▁silang
85"
GA
▁Gui
iformis
▁melukis
ulasi
05"
▁Fair
▁Alasan
86"
▁Rupa
▁produktif
isu
▁Ukuran
tura
▁Kompetisi
▁mempekerjakan
▁Minang
01"
▁Ry
73"
▁surga
▁persoalan
kuk
▁Jar
▁Ida
tle
▁Blang
trop
▁kerajinan
tag
eth
Ang
▁dibakar
Miss
▁pati
▁banjar
▁Business
▁renang
▁Regional
bangunan
menerus
▁menerus
09"
▁Pengurus
SK
▁tanam
chus
▁Tin
▁bur
▁Malta
▁facto
▁atasnya
▁cl
▁Politeknik
90"
escens
▁Gin
sih
▁Mama
▁Temanggung
▁Dal
▁budi
▁intelijen
arah
▁Paskah
▁tahapan
anggung
▁kurikulum
▁Buddhis
▁berinteraksi
▁Populasi
garis
▁tingginya
-30
▁Sela
dani
ndra
Ali
gni
▁Moore
ical
▁ciptaan
▁bangun
▁memeriksa
▁sumbu
▁Baron
▁Wisnu
tom
TO
87"
oki
▁Jae
ET
04"
PU
▁Senjata
▁rohani
▁nyaris
▁Kamis
▁BN
▁TVRI
▁Gaga
ington
▁Hatta
PO
▁perkara
▁asuransi
▁bereaksi
▁Betawi
▁Semi
=276
▁berbahan
itch
▁Ikatan
tivitas
▁pendahulunya
67"
▁Kucing
▁Seng
▁kemampuannya
▁Allen
▁Banyu
▁fantasi
ista
▁Pertemuan
▁paduan
▁mengurus
▁mendatang
▁liter
ctus
▁Christopher
▁haji
▁Titan
▁Koleksi
▁Masing
than
▁Tangga
ère
▁sep
▁Pria
▁diajarkan
CI
pul
▁mala
▁cendekiawan
▁dibuang
▁konservasi
▁mengenang
kanak
Tra
▁Golkar
▁Audi
▁Harun
▁Sulaiman
▁Berkat
War
▁Bangkok
hou
▁setelahnya
-0
▁pemeluk
▁SMPN
▁Napoli
▁Lituania
É
▁bapak
▁astronom
99"
▁jatuhnya
▁santo
▁pembinaan
▁rokok
▁States
▁IC
Ver
tahan
▁bimbingan
core
-22
▁Gene
▁penghubung
▁membersihkan
▁mendeskripsikan
▁Darussalam
organ
tation
ía
▁Moto
▁usulan
Leptotarsus
▁mahkamah
▁Qui
One
▁perbankan
▁Rom
▁lensa
▁keraton
cula
▁migrasi
▁Miller
▁bercerai
08"
rag
Republik
▁Kontroversi
ilmu
▁artileri
▁Terjun
▁1901
▁Kō
bumi
MB
▁Sing
▁Asyur
ndar
▁rasional
▁Ven
IV
▁1938
gau
▁CO
02"
▁Biru
▁pasokan
cco
▁Bush
act
▁Pandemi
▁asap
▁komposer
▁jangan
▁ABC
▁konsonan
ffa
–1
uch
▁kra
▁Afghanistan
▁malaikat
▁hiasan
▁Cas
▁Ferdinand
Uni
matsu
▁Sek
gami
▁Kelapa
JR
ilan
▁au
▁shi
▁kelahirannya
harga
Jalan
roh
rica
▁Tugu
tius
kkan
▁mengantarkan
▁Wonosobo
▁bertanding
▁ditangani
novel
▁Brigade
kum
▁menghambat
▁Hand
Liga
▁bergenre
▁Berita
Jalur
▁usahanya
▁Tama
▁disepakati
▁bass
dina
kut
▁Pedro
▁perancang
▁Eparki
▁110
▁trek
▁Semenjak
▁1890
dro
hur
▁Br
zam
DS
▁Yun
blo
▁PM
▁memudahkan
▁skema
▁are
▁Faktor
▁kelebihan
alisasi
▁Gem
rma
▁Hum
▁penggerak
▁analog
Mon
ory
bana
▁sar
iq
lid
bilitas
▁puncaknya
lir
lé
▁1937
▁sayang
▁terkini
cas
FI
▁Toronto
▁Brazil
▁Jordan
▁Over
uga
▁ap
rotipula
▁amerika
▁memulihkan
▁menyesuaikan
▁Thai
sep
▁Babel
Che
oth
▁Mongondow
▁sambutan
KP
ñ
▁EP
▁terowongan
▁klasemen
▁Alice
▁Terjemahan
▁1933
▁kal
▁Jasa
▁az
kla
▁Kebon
ayan
▁kostum
▁mega
▁Siak
Au
karakter
CD
oon
▁usus
▁Dance
kecil
nggal
▁700
▁Bunda
▁ditembak
ovi
Jerman
▁Poly
illy
▁gaji
▁diesel
▁mimpi
▁Mahmud
▁penamaan
▁demonstrasi
▁Resimen
AU
▁tercantum
▁sayur
▁bak
▁XI
dens
▁Naka
uv
vil
▁sarang
▁Last
▁investor
▁Manggarai
▁Aktivitas
unting
▁skuat
▁Human
▁sebelas
atkan
▁Station
▁penyerahan
▁persis
▁Andy
▁Johannes
▁Adolf
▁Paku
hri
▁Pandangan
▁meneliti
▁perlakuan
ual
▁makmur
72"
▁sek
▁pengecualian
vet
▁Sembilan
▁perisai
▁Cannes
▁akademisi
▁master
▁Delta
▁Pacific
▁terungkap
▁kastil
▁Kotawaringin
mic
lyn
▁Solok
▁dirasakan
▁Levi
▁Sas
ngkap
▁pengepungan
▁berlatar
▁kepalanya
▁pidana
ilo
▁diiringi
bukan
▁leg
▁Take
03"
▁Jane
▁virtual
▁eropa
▁Darul
Mas
7,
ör
rr
▁MP
▁Management
▁pengawal
▁Hus
cheng
▁terminus
▁SCTV
▁March
▁gudang
▁Fisika
▁individual
ogo
▁perpindahan
MC
▁runtuh
▁hilangnya
▁janda
▁terpanjang
▁Mono
jur
prinsip
▁Mario
▁norma
Kim
▁2.0
▁*
tron
▁abadi
kerja
▁dinamis
▁rempah
Ch
sif
▁Ageng
▁Run
langkah
▁banding
Gen
▁07
ED
▁RA
▁irigasi
▁keramik
▁Covid
ès
▁58
thing
SO
▁Blu
aca
▁Harian
llen
=44
▁dieksekusi
bola
▁terdahulu
Masjid
▁Pelayanan
▁Susan
▁mewarisi
▁che
▁ibukota
mei
▁0.2
▁kemarau
▁kolektif
▁Rosa
masi
▁kursus
▁penglihatan
▁Chandra
board
▁Main
▁pembantaian
▁berprofesi
▁Steven
▁ekosistem
▁menyerukan
jian
Ken
▁Tema
ān
▁Bruce
▁tunduk
char
▁dikenali
▁Secret
▁Bale
▁mengutip
▁reproduksi
▁Plaza
▁keterlibatan
iat
ubur
Film
nil
η
ote
▁1918
06"
▁timnas
▁prasarana
hel
▁Pandan
belas
-29
▁system
EM
▁fragmen
▁Taurat
▁konfigurasi
▁elit
▁didik
▁1986.
ein
▁wasit
▁vo
▁dipotong
▁Tindakan
provinsi
▁ratus
olah
-25
int
▁Aleksandria
▁barangay
▁usianya
mid
▁Kle
▁legendaris
▁maaf
▁buta
▁Diego
▁Vladimir
▁pembuangan
▁hip
▁hormon
▁Sebanyak
▁Insiden
mail
ombo
▁seng
▁liturgi
▁Sap
▁76
sikan
igi
▁Ik
NA
▁Cl
▁Of
▁file
=90
iva
wari
tet
Gra
▁mengingatkan
▁rasul
▁direbut
▁Banjarnegara
▁Nova
▁Satya
▁2000-
▁Jet
▁Boyolali
▁pengurangan
▁membujuk
▁Et
zzi
▁Demi
mena
▁Rod
▁1942,
ying
etti
▁Bag
▁diproduseri
▁rincian
▁Technology
▁didedikasikan
▁persenjataan
▁spektrum
kemudian
eun
▁Pandawa
ave
cra
▁play
о
▁mendadak
▁terbalik
▁Klo
▁cal
ikat
vent
▁terbitan
lawan
uman
▁Deklarasi
▁Siswa
sca
▁za
▁August
▁bermacam
▁Nintendo
balik
▁Herzegovina
▁ucapan
▁semenanjung
▁sumbangan
▁pemilih
▁Aksara
kripsi
▁Sad
▁Gon
▁diperintah
▁pemirsa
▁nga
▁Kiri
ante
yoshi
fah
roto
▁mendaftar
onne
▁pembatasan
▁Analisis
deng
▁By
▁Mobile
▁Misa
dya
▁spesial
Pd
▁junior
к
▁Limited
sip
▁mema
ison
▁Dol
thia
▁puas
▁tawanan
▁Tumbuhan
▁Luis
mbal
▁Public
▁CC
▁Harris
▁Ekspedisi
▁sintesis
▁Mumbai
▁MC
▁berdoa
kerta
▁Bakar
▁Slowakia
▁kementerian
▁menghalangi
▁merawat
▁Lap
▁Alor
▁tsunami
▁dilepaskan
▁Laboratorium
▁Lingga
▁Kay
gum
▁menantang
atas
▁Nations
▁Aman
kalan
▁Guinea
▁imbang
▁Who
▁Bayu
▁memperpanjang
▁Manila
cari
mart
▁Silva
ُ
▁Abdurrahman
▁Family
▁Wana
▁efisiensi
▁Kamen
▁kehendak
▁sejarahnya
▁menyenangkan
▁terganggu
▁diperkuat
Batu
Bri
▁Por
raf
AI
▁Pet
oran
ound
▁Komune
▁racun
▁Sutan
▁Persemakmuran
▁Pertumbuhan
▁Aram
▁pemeliharaan
▁Micro
6,
▁Mediterania
▁Let
▁Kos
enne
▁Lind
▁tindak
▁00
▁lampau
idah
▁Bros
▁88
▁inggris
dun
=283
▁Franz
▁pengeboman
▁group
▁Nord
rif
▁1986,
▁1898
▁demam
▁ekologi
▁Gordon
uff
▁klinis
▁Baja
▁faksi
hutan
▁rela
▁Tahta
▁Sebagaimana
▁Marc
▁Mantan
▁kubu
▁katedral
▁penjahat
▁ren
▁€
▁keping
▁Arti
▁madu
▁Johnny
▁bos
IL
▁berlari
0.6
aja
▁pri
jana
▁karenanya
thon
▁penjual
▁Luna
="283
▁statusnya
▁krim
▁Abbas
▁pamannya
pid
▁Bangun
▁performa
▁etika
▁liat
▁emosi
Sumber
▁Penyebab
▁mengulang
▁tembakau
▁Fla
bandingkan
maculata
▁Sindang
▁partisipasi
▁tar
▁1909
▁2.000
▁biak
ast
▁Darwin
ت
▁Philippe
▁asia
▁ger
▁pengumuman
▁Pariaman
▁tangannya
=156
▁utang
leu
emo
▁Joseon
phone
nagara
▁dilatih
▁dimodifikasi
▁neutron
▁Kazakhstan
▁Point
▁cikal
▁Nokia
sie
▁hits
perang
▁Arsenal
▁tombol
▁dirayakan
▁konstitusional
="156
▁Jason
Hubungan
Sang
▁tapanuli
penulis
ticus
iman
▁tele
Museum
▁menyentuh
▁persimpangan
▁Debut
Rumah
▁160
▁Boys
▁Sempat
rm
▁Hadiah
▁Sud
zhi
▁Indonesian
▁linear
▁Billy
▁Hijau
bukti
▁Rem
▁86
▁Titik
▁mengejutkan
▁misteri
stic
▁Luther
▁Bis
▁85
▁Ok
▁Ernest
▁amatir
▁Linux
▁mengabaikan
▁Jersey
RW
▁Pius
yne
▁ag
с
▁Sui
▁Back
▁AG
▁Ethiopia
▁dikonsumsi
▁meniru
▁berpotensi
cop
av
bs
▁terkejut
▁diperpanjang
▁perdananya
▁Joan
=43
sili
▁Gambar
▁memunculkan
▁pengunduran
ark
▁pel
▁Pennsylvania
sila
▁Ade
▁Obama
▁Brand
▁Rokan
▁São
▁dihadapi
▁Kemenangan
uki
1)
hadi
hukum
model
kau
▁penggambaran
▁68
▁asrama
▁beton
▁Sumba
▁rentan
▁berlaga
▁Bonto
▁Book
▁sinema
cum
▁Pemeran
▁Rang
▁Sinetron
▁Cou
▁Films
▁Bern
▁Productions
▁pernapasan
▁perkataan
▁pon
▁Kasih
Cucurbitales
▁peduli
▁ditunda
tie
fit
▁PD
▁setingkat
▁1980.
▁penderitaan
▁mengucapkan
AF
▁prix
ingan
ž
▁paralel
ters
kasi
karena
Begoniaceae
▁soundtrack
wis
▁Part
▁Kul
▁kemiripan
nit
▁sem
▁tutup
emia
ost
▁Mazmur
▁Borneo
▁Benjamin
arto
▁semata
▁Sou
▁Okinawa
▁Riset
▁Ria
Mad
▁1903
▁Purwokerto
▁penyiar
▁dapur
▁member
ddy
BP
▁over
▁Konflik
coba
▁Giovanni
▁1980,
▁Achmad
▁Stand
▁Sidang
cam
▁SU
▁rencananya
="118
utu
▁Carolina
bata
▁grafik
▁konvensi
▁Telugu
▁Listrik
▁diusir
▁transformasi
▁pekerjaannya
▁1935
▁batasan
Acmaeodera
▁Mbah
▁1987.
uel
▁mutlak
▁Perlindungan
▁Parigi
tsch
▁Emirat
900
▁mende
▁membangkitkan
=118
▁Maru
▁1904
▁Kresna
▁dipasarkan
fra
▁Bukti
▁Charlie
▁Panama
▁Deputi
ß
▁50%
▁Sports
▁hiper
▁HIV
▁Tahap
▁Fitri
nz
KS
▁Pil
otipula
▁rujukan
zaki
▁Lisa
▁berwenang
Mac
▁hipotesis
You
Cho
▁terpecah
▁bayaran
▁pasaran
▁Rak
▁kecerdasan
andra
▁saudari
▁Gao
MD
▁Keturunan
▁1902
▁Venus
igny
beng
ς
▁depresi
AA
▁purba
partai
langit
Com
▁bermaksud
▁grand
▁Michel
▁beta
icon
▁Habib
isan
wick
▁Russell
▁natal
UR
lema
Yang
▁Kekuatan
▁Rawas
distrik
▁61
▁Gibraltar
▁presenter
garan
▁mengemban
▁semen
Sp
▁Patung
▁teritorial
▁Karibia
▁Toraja
▁Tebing
▁Intan
▁pelopor
kou
▁Hat
▁mengobati
ega
_4
▁sibuk
▁63
▁Hua
▁Metal
▁pemulihan
▁Karakteristik
▁bermanfaat
▁ambil
▁130
▁Manuel
▁kehamilan
dog
▁Lea
▁ulu
▁mengontrol
bby
▁Dou
▁Dead
▁Lake
Tom
▁Ratna
▁chart
▁Newton
▁Rata
▁Teologi
▁Kuantan
▁Penduduknya
▁menanam
ations
ajaran
pora
▁Tulungagung
nna
IR
▁Kompas
gate
▁Purbalingga
▁diselamatkan
▁fotografi
▁Sybra
luka
▁Alaska
▁Marshall
mili
▁didorong
pik
▁125
MT
▁Sinar
▁Bebas
isha
▁Titi
▁landas
▁ukiran
▁Tab
▁Montenegro
ndro
Ericaceae
▁pengangkatan
▁pagar
pers
Desa
▁Est
stik
▁Baby
▁Wai
▁Oricon
▁saus
tria
▁TA
▁celah
gro
luna
esta
▁1987,
▁abjad
▁Anderson
beri
gent
▁kotor
ão
▁Wolf
▁rem
secara
naskah
▁seumur
▁Kairo
NC
idi
▁merekrut
▁bensin
▁digabung
ett
borg
kecuali
▁ATP
▁Perkebunan
▁vitamin
puh
▁new
▁koneksi
▁Morgan
alu
▁Mira
ander
▁nutrisi
▁Gla
▁Maharaja
▁dianut
▁bagaimanapun
▁kewarganegaraan
▁persembahan
▁penjuru
EL
="2006
xy
▁Kapoor
rini
sida
▁Dev
▁Bahrain
▁jaminan
Black
▁auto
▁binti
mpul
BM
▁Nunukan
rima
▁cacat
▁taktik
▁hol
▁menunjukan
wing
laga
ngo
▁Ae
ο
2010
▁menghadirkan
▁Sma
▁nan
▁penggunaannya
▁ungu
▁MD
ym
▁Howard
RO
▁Pena
upa
▁ski
▁singa
▁Intel
huruf
hui
▁kawin
sberg
▁Sirkuit
▁LP
▁Paser
jima
Kami
virus
▁Kru
▁bangku
▁pengantar
▁vari
▁ketegangan
▁komitmen
▁Xin
▁kongres
ace
▁Ular
▁IAIN
▁Salatiga
▁mengepung
▁mengudara
▁Rabu
▁Antar
▁Masih
ative
150
▁elektro
▁kecenderungan
▁diarahkan
▁sho
TR
amat
▁khalifah
▁kemunculan
▁Under
▁Barisan
=213
▁Konon
tō
▁mazhab
▁Kepausan
▁referendum
Kapal
▁perkumpulan
.000.000
ashi
▁flavo
té
osia
▁Pendirian
▁Tentang
▁nasihat
▁kekasih
▁Mati
▁Rain
ches
▁nyawa
gata
▁demokratis
▁barunya
▁Brothers
▁Petro
▁Siwa
asikan
kerajaan
rick
▁pintar
▁Shen
▁Vel
▁Kent
▁1988,
▁Madagaskar
▁kenyataannya
▁berbunyi
▁Setahun
▁Kerta
▁amanat
▁Kanan
dorf
▁sekalipun
▁Klasifikasi
▁Tbk
▁Penerimaan
ings
zat
▁Aki
="213
▁konsultan
▁Satelit
▁rotasi
Cu
▁Pokémon
▁terintegrasi
waru
she
▁100.000
▁Bee
enda
▁keponakan
▁tombak
▁Mol
antara
osi
▁Halim
▁Hou
▁lempeng
abi
▁semarang
tium
▁08
▁Puluh
▁ek
faktor
▁kehancuran
ô
▁Prince
▁duo
▁canggih
lica
▁Pene
▁va
▁integrasi
▁um
▁hidro
▁Kosovo
▁pengantin
Paus
▁Tambak
Pas
Robert
▁NATO
▁logistik
▁Opera
read
▁sim
▁Paulo
Jean
▁triliun
▁95
▁menyumbangkan
▁dikritik
▁pribadinya
▁mekanik
▁berkapasitas
▁diteruskan
uruh
▁instruksi
World
▁1870
▁konstan
▁Kiai
▁59
uy
▁pustaka
▁amino
Muhammad
▁(35
▁Yuki
rena
▁fraksi
jajar
ulan
▁penutupan
▁bersembunyi
lab
mand
▁suksesi
2012
lect
guchi
▁kutai
▁bedah
▁Beach
nasi
ume
▁Karim
▁pemanfaatan
▁Sebenarnya
ides
beli
▁mengakses
▁Renault
▁membandingkan
▁1984,
▁Pola
▁andalan
▁Asisten
▁Nge
▁dipastikan
▁Sardinia
▁Sepuluh
unit
▁name
▁terpengaruh
▁Panji
▁ji
EP
▁Lirik
▁gandum
▁Qua
gr
▁dikirimkan
▁Diploma
▁menyu
▁Abd
▁perempat
▁Sekretariat
▁1895
▁beri
▁(2001)
ruh
hala
▁yo
fungsi
▁bacaan
▁Michigan
els
▁kanon
▁walau
▁1985,
▁96
▁Jiang
▁isinya
ester
own
Lin
▁kuliner
▁kental
rov
▁Not
▁DI
▁penetapan
box
▁perebutan
▁fungsional
▁masak
▁Pac
▁Gus
ndy
▁disambut
quot
▁Cagar
▁Irian
▁sirip
▁Anom
▁Bridge
Ed
▁tembak
angga
▁orangtuanya
▁beracun
sela
▁respons
▁Sabah
usaha
UI
dot
DE
▁Kah
klo
dahulu
PL
luh
▁ala
▁Perencanaan
▁kekacauan
▁menerjemahkan
▁App
Jawa
▁mengemukakan
▁Carlo
ocladius
48.
eto
key
rier
ngkal
▁Juventus
arum
▁micro
Nu
▁Pintu
▁Ngawi
vas
▁Swift
-24
trik
▁Franka
▁tiri
▁cetakan
▁François
▁cur
▁pemujaan
▁1897
▁botol
▁).
▁Garden
▁tel
▁terkesan
▁menyiarkan
kop
Cinta
▁gantinya
▁Shar
▁membuang
▁rap
Fo
▁cagar
anga
color
hop
▁ASEAN
Dr
gaya
▁Asli
▁dikutip
▁Saf
ejo
She
▁Sorong
▁Tes
▁Tian
▁ram
sina
▁terlahir
loh
Va
▁bubar
iano
▁minahasa
▁pembuluh
▁tetra
▁Sentai
▁arab
fran
kol
saka
hasil
▁pengeluaran
▁waralaba
▁Judul
▁Goa
him
▁1899
mul
▁forum
guna
▁Akses
▁percakapan
▁temuan
▁terinfeksi
▁Keraton
▁Dae
▁menguji
▁Bawang
dil
dim
gem
▁Dokter
▁Oriental
▁2,5
▁Latvia
▁cerah
▁sebulan
▁Artikel
▁rukun
gak
▁pacar
▁Kusuma
▁keluaran
▁Format
▁tang
▁meta
▁Cle
▁perantara
▁cirebon
▁98
▁tani
pir
▁Langkat
biasanya
▁debu
▁orientasi
▁DKPBB
pad
ME
▁Pemalang
lisis
obo
▁Bersatu
juk
tio
▁101
Sar
Ran
ganti
▁Nas
▁Haute
▁Women
▁Gerbang
▁niat
Haliclona
▁Manhattan
▁teroris
▁semak
▁Penye
="2007
▁(2004)
kulasi
eur
▁serdang
▁SpongeBob
▁(2006)
▁1.2
▁bogor
▁Grobogan
▁BT
▁pengenalan
▁(1)
vern
▁PA
▁Carter
Seri
י
▁minimum
▁mutu
▁Lawrence
=294
rug
▁Seram
▁Nasution
▁Telkom
▁terhitung
▁Halte
▁berisikan
▁Habsburg
▁Indosiar
plan
▁inisiatif
▁menyamar
▁Ani
▁Khu
▁Illinois
▁memajukan
▁tersembunyi
▁Cook
▁linguistik
▁berabad
uria
UM
▁Tho
▁maha
tih
▁Hell
▁Perhubungan
▁Akbar
isasikan
aktif
▁kantong
▁Liberal
▁integral
▁eksistensi
▁Syaikh
▁diakhiri
▁nanti
▁suaranya
▁Pir
▁pencegahan
ngkong
▁Proto
puluh
▁silsilah
▁Purwakarta
eira
▁arca
σ
fir
mé
▁struktural
▁Hasilnya
▁mempercepat
▁Bukan
▁kawah
▁Kemampuan
▁diputuskan
rab
▁mengenali
▁deli
▁PKI
▁kau
law
▁Bran
▁Bela
▁Suhu
▁PB
▁Samsung
▁Parker
haya
▁1889
▁brevi
misi
▁Pribadi
▁Standard
▁Made
▁1982.
▁beribu
▁Syn
▁ungkapan
final
som
yen
lun
▁Ob
▁penugasan
▁dangdut
▁sejajar
▁frasa
rau
cau
▁XVI
bli
Er
▁Lumajang
▁sumpah
▁sandiwara
▁penentuan
▁menangis
▁Laura
▁Klasik
▁ze
vie
▁Call
eve
▁iso
Belanda
▁nias
▁Kartanegara
tula
alam
▁perintis
▁Moskow
yangan
▁Selasa
dek
▁Sher
anggu
▁Journal
▁Letak
ching
▁Nganjuk
▁sedih
tical
alitas
ب
ayah
Juli
▁Objek
▁69
▁dominasi
toko
Mak
▁pelaut
rent
rest
lès
▁Get
▁Spa
▁serba
▁Sukoharjo
▁Aliansi
▁Tubuh
▁Anthaxia
sser
nau
prop
▁1920-
ocera
▁Eva
mpel
▁Komisaris
0°
▁(2011)
▁bermigrasi
▁genggam
▁Aliran
▁Yus
▁GM
▁Medal
cok
ś
gle
sistem
▁Legenda
nn
▁His
▁Sakura
▁Tertinggi
▁keberadaannya
▁arahan
▁syair
▁psikologis
▁perundingan
▁kha
▁Choi
▁undangan
struktur
ometer
▁adi
▁logika
juang
▁Yonif
▁pencari
▁Disamping
▁kelemahan
▁kesan
▁Suko
rop
lal
▁Cape
▁berbunga
▁tarif
▁Calon
▁Airbus
département
▁Luksemburg
▁dikabarkan
▁kelanjutan
▁tas
▁wal
▁Pembuatan
▁Jeff
Pangeran
▁Astro
under
▁cerpen
▁hias
▁Walau
iae
▁More
▁propaganda
▁port
eon
▁relasi
▁Mulya
▁Tunisia
iwa
Trans
▁Four
▁legal
▁otomotif
Ji
▁Kembang
▁Cyperus
▁900
▁NU
Eropa
▁disk
reja
▁Pramuka
▁KE
▁sungguh
National
▁ekstrakurikuler
▁dimasak
▁all
arius
▁gem
vision
basa
tau
kho
▁Saluran
▁em
▁1972.
▁imun
▁Nishi
▁berbuat
▁Board
▁Guatemala
▁Kuwait
und
▁mengira
▁kartun
▁ibn
vre
▁Ternyata
▁tegal
▁Jer
▁meme
▁1896
iso
▁menyewa
▁memuncak
▁Lincoln
ingkat
▁pil
▁1982,
▁Tiger
not
cinta
▁Arm
▁Gur
▁sindrom
arch
▁resep
▁Lukisan
▁deskripsi
▁SO
▁Baku
▁(2008)
▁diklaim
budaya
tanah
gir
▁narkoba
▁dilewati
tec
▁rekannya
dono
▁MRT
▁Talang
▁Juru
tarian
▁dosis
▁lit
▁ang
▁Barang
Ph
▁Summer
▁Yokohama
eru
vasi
zong
lash
▁1976.
▁line
▁Khal
rahan
bari
▁af
▁Wer
▁Silla
tele
▁perhiasan
▁Nik
TC
lita
contoh
arkan
▁penemu
asia
▁Indeks
▁1979,
▁Petr
▁penjajah
▁Nor
▁lumpur
▁Pejabat
▁berapa
▁Chrysobothris
▁dimulainya
▁Sleman
▁Konstantinus
▁Dirilis
▁Fall
▁Penguasa
ée
▁Bantul
▁mengindikasikan
▁kapur
▁Seo
▁pakai
▁Rachel
س
ware
▁balasan
▁Kadang
▁1948,
▁Hugo
▁Tempur
onisme
dikenal
▁Sentral
Les
Katolik
rep
▁1.1
▁Kastil
▁1985.
▁dipecat
▁ph
▁Tulisan
▁Multi
drama
▁Koes
nim
48)
▁terpencil
▁persentase
DC
lih
CS
book
▁dekatnya
Asia
▁intervensi
▁koordinasi
▁1860
▁sifatnya
penyanyi
ende
Sma
khi
▁Wars
▁Map
▁Apo
▁1981.
led
cast
▁penanda
▁konsekuensi
▁menemani
▁Justin
▁Holland
▁mur
▁Bangkalan
▁memutar
AH
▁Haru
▁gerai
▁zi
angkan
sena
9,
▁Hassan
▁Rasa
ambi
▁pemburu
▁blog
▁Pha
sign
ery
iba
▁rupiah
▁Sport
▁Eb
ahli
▁Hur
▁1979.
▁Konstruksi
eau
▁Gau
bela
▁paten
▁mol
▁Alas
▁Cel
▁Kera
sea
alo
т
▁MPR
▁Ishi
▁Kate
▁NBC
▁layaknya
William
soni
▁jual
▁1880
▁Krimea
▁(2013)
▁$2
tru
▁gal
▁Reza
▁cermin
▁dihiasi
une
▁Cut
▁os
▁Bendungan
▁Adams
▁Uganda
▁padahal
▁Catherine
▁Theodor
tiap
Kha
▁https
▁aluminium
▁mendampingi
▁pendanaan
▁Caesar
▁Raymond
▁lengkapnya
▁Geo
▁disini
▁History
▁Pertunjukan
glo
▁Huruf
ija
▁Med
Mor
awat
cti
▁nigro
▁dilangsungkan
▁inf
▁ur
▁Wahid
▁Theatre
▁dikelompokkan
▁Moh
▁manual
obi
mera
▁Generation
▁(2007)
▁Nyi
="157
▁paku
▁Wid
▁liburan
tten
▁PSSI
wir
▁Slamet
▁Age
banyak
▁Head
=157
hina
▁1968.
anthrax
▁Umayyah
▁manufaktur
▁memperingatkan
▁Dahulu
roid
matik
▁Bei
▁pengawas
▁Sima
▁MM
putri
▁Puerto
48,
▁180
▁(2012)
nay
▁Knight
taro
bl
NO
▁disiapkan
sungai
sap
▁kakeknya
RE
▁Buddhisme
eman
wak
▁Profil
pok
▁menyingkirkan
▁val
▁Kad
ement
▁Shang
▁Pele
▁Menjelang
▁1.5
▁Geografis
▁rekayasa
▁Mae
▁Á
asy
yani
▁Jacques
▁Cinema
iter
▁Diperkirakan
▁Rancangan
▁Lenin
=293
▁yurisdiksi
▁diakibatkan
▁Ahmed
▁Kritik
▁out
▁Pastor
▁Lou
▁tentunya
▁balai
▁Somalia
▁Sensus
▁Amb
▁diuji
SU
sed
barat
▁Stockholm
▁Kendaraan
▁sengketa
▁Jonathan
="293
▁Nelson
▁Khalifah
▁Dir
▁hama
▁Surga
aster
▁Uruguay
▁keberanian
▁menyembunyikan
yin
▁Circle
▁10%
▁Jimmy
▁ul
spor
▁Electric
ppa
γ
▁pusaka
▁cho
negoro
Panicum
▁Mene
▁ITB
▁Artinya
▁kembang
▁Langkah
▁Jazz
mping
`
▁kebetulan
▁Ohio
▁Peringkat
▁harimau
▁acak
▁78
International
▁Aka
▁Castro
blok
khan
rasa
▁Choice
▁dipenjara
aire
ahi
rempah
▁menabrak
▁berkisah
OL
▁Matematika
NU
ors
tino
▁Amar
▁agensi
▁menyumbang
tto
▁komp
▁Council
▁digolongkan
its
▁See
▁Pandu
▁Pali
▁terkandung
▁prima
ntin
▁Karno
kō
kka
▁minta
operasi
▁Cooper
ved
▁Western
▁Frankfurt
▁kanak
lib
▁medium
▁Zen
murid
▁Pad
▁surut
Val
KB
▁Suk
▁Erik
ellus
ganda
Es
▁mengerti
gens
Jakarta
▁Informatika
▁setan
▁Langit
KM
▁Santiago
–3
spe
▁Clo
stus
▁Legislatif
▁Lion
▁rekomendasi
▁bersekutu
▁Kelly
▁Matthew
gne
▁Pustaka
▁emosional
▁Santos
acu
France
▁Mandala
▁tertangkap
▁Singapore
▁dikurangi
▁Moe
▁Parti
issa
▁Dy
▁off
ça
yur
▁seratus
BB
▁Gustav
ì
▁Otoritas
▁Wuhan
Ur
-27
fort
▁merata
▁Asy
kasih
▁Perry
▁Mesopotamia
▁deret
▁sm
▁bursa
="2005
▁Keadilan
▁spesimen
▁Jerry
▁Emmy
▁sekolahnya
omyza
OH
ombylius
▁Magetan
▁pistol
▁artistik
▁Segera
▁pemanasan
hoe
▁jarum
▁start
pohon
▁Perikanan
▁(2014)
▁Krisis
▁Bagus
▁Franklin
▁Bolivia
▁Hj
▁Masakan
▁Saham
▁persediaan
▁menja
▁Ritus
▁mendatangi
▁Chad
▁Manda
▁drastis
oz
▁Alfonso
kins
▁Pic
▁Rao
▁1975,
▁Anugerah
ophora
▁Aragon
ancing
Lee
▁Met
orn
ntu
▁Sejarawan
▁dakwah
▁ilahi
▁Goth
BU
▁Gejala
dasar
laksana
mbur
ough
kui
5,
Korea
▁Minyak
kem
▁sulfat
▁bel
Rusia
▁Mandiri
▁membantunya
ort
▁halte
larang
▁Abang
▁1983.
▁Amp
▁proposal
▁pupuk
▁Tepatnya
▁mainan
▁biner
▁pesaing
▁bon
▁payung
etto
▁Zee
rell
▁Key
▁gel
▁Fei
▁Ale
▁Rantau
▁Tani
▁Asahan
dos
suka
°
dhu
▁eksekusi
▁Darma
mber
▁1.3
fat
▁kesetiaan
▁torpedo
dewi
Marne
▁Inti
▁Charlotte
duksi
Jan
duh
tub
Sch
bei
gha
ghi
▁hormat
▁mengharuskan
Up
▁kesepuluh
▁Wol
▁dibahas
▁Barry
inae
▁buahnya
▁Maxim
▁jeruk
kode
▁akibatnya
▁kesimpulan
▁relevan
▁1885
▁Angkutan
imbang
UD
jangan
angkat
Ana
kelas
▁73
▁kebaikan
osfer
dini
▁Sus
▁Filsafat
▁alas
▁Sudirman
▁menyandang
▁kehidupannya
▁Side
▁Hero
gie
▁sabuk
▁Suro
▁profil
2003
▁melanda
▁Kid
▁engkau
▁Maulana
▁politiknya
▁Lamp
muk
▁gla
:30
▁Ec
panjang
▁timnya
▁AN
▁istirahat
▁Damaskus
▁Gregorius
▁(2010)
▁67
kular
▁oksidasi
▁Hidayat
▁menyangkut
▁Fraksi
▁berkali
▁Kartu
▁1950,
▁Pengepungan
▁min
▁Adalah
matapencaharian
▁1975.
▁1949,
tuh
▁Cher
enta
phyll
TK
▁studinya
▁Gy
▁Soo
▁poros
teg
▁penerbang
icum
▁Chin
cke
Hanzi
▁mengalihkan
GP
Ac
▁Wat
cks
Sya
ics
▁stra
▁Robin
▁diperdebatkan
tya
▁akademis
▁Invasi
▁personal
zuki
▁berorientasi
▁Kalender
▁Puisi
Dar
ár
mbong
▁Grace
▁Tumenggung
▁97
▁Morowali
kimia
▁Kotabaru
▁Rhododendron
sburg
▁AT
▁menggantikannya
▁Antiokhia
▁diperbaiki
▁menaruh
▁ditempati
▁SBS
▁barito
▁Bud
mukti
▁quadri
▁Lamb
tima
kad
▁komputasi
▁but
▁Datar
ulat
▁1981,
saran
enter
eka
▁Dark
▁Galaxy
▁Review
sepak
tv
▁menjanjikan
▁Remaja
▁Bukittinggi
▁Zhong
▁Setia
▁Gula
Mal
jō
▁Tao
▁Aga
▁bahu
▁bawahan
▁Ronald
lands
▁sekuler
▁Nya
ets
dz
liang
▁Buru
fre
KN
inia
▁menyembuhkan
▁perkampungan
pter
▁1978.
▁Kesatuan
lata
▁kejam
now
▁paman
sampai
▁Hokkaido
▁ditahbiskan
▁Pegawai
▁Kuda
▁Rasulullah
▁Moro
▁Mans
Ir
▁hatinya
▁menayangkan
▁berenang
▁Special
▁Julius
CH
▁Christ
tman
▁identifikasi
▁Wright
▁monster
iang
▁love
▁maritim
▁bilang
▁71
ektif
▁vulkanik
▁People
ici
urut
ikh
ult
▁Jauh
▁Tulang
▁1970,
mble
▁melestarikan
▁Jenewa
▁Panitia
▁bubuk
▁Nai
▁Qur
▁Nah
▁Net
▁orbital
▁Tas
Sel
=160
▁Anthrax
▁pul
Abdul
▁Datu
▁Pot
KO
▁Slavia
▁dikemukakan
MM
dekat
naga
▁tempo
▁biarawan
▁dikategorikan
▁antarmuka
▁Carr
▁awam
TU
ع
awal
▁tour
▁genetika
▁pantas
▁Grande
▁ISO
ratus
▁1965,
▁Male
dad
▁bertema
▁miring
▁bukannya
▁mun
iella
▁pelarut
▁Rou
▁representasi
NS
▁trem
▁Seine
▁Aur
▁resminya
rō
nae
▁lagunya
▁prioritas
▁kalium
▁Sau
▁sejalan
▁buatannya
NE
▁sutra
▁Kli
▁Ketapang
▁kalsium
may
▁Kubu
▁AR
ection
▁Fame
▁Sk
▁Sid
SL
▁dangkal
▁Ober
▁dibayar
▁Publik
ières
▁er
▁Avi
▁menggerakkan
▁1978,
▁budidaya
▁Bing
iza
_5
▁84
▁review
▁Eka
▁akut
▁ven
▁momen
▁Army
pusat
undangan
▁subyek
grad
bina
▁1960,
▁pH
▁sastrawan
▁teleskop
keluarga
sci
▁gencat
Ap
▁(31
▁Yak
stad
▁Pdt
sc
▁81
▁pembicaraan
▁diskriminasi
▁memperebutkan
▁Beat
pisah
Sur
▁Res
▁kara
▁sosiologi
▁bendungan
▁benang
▁butir
▁1965.
▁us
▁kelenjar
▁alfabet
▁1886
▁Bisa
▁bermesin
hm
▁Off
▁Akh
▁RNA
trum
arn
▁Mercedes
▁busur
▁Pes
right
adik
ι
▁Bondowoso
▁reruntuhan
▁mengungsi
▁penyatuan
▁topografi
▁prosesor
tier
▁1983,
angin
▁tatanan
▁Balkan
PG
vio
▁Lon
▁Biasa
▁1888
▁kekhawatiran
▁menduga
▁st
▁konsol
▁pangkal
▁Mekar
▁Pajak
▁Melihat
▁kakinya
temu
▁mengi
▁Chiang
lipat
▁Sila
▁77
toni
lop
▁melingkar
▁Anglikan
▁Ent
cott
▁pengelola
grafi
▁terkuat
dae
▁Franco
▁1967,
▁Mitra
▁ditonton
▁gunakan
▁Marco
umi
BC
▁Tembok
▁subspesies
▁penyunting
▁Hyun
▁perpecahan
seorang
▁pencetak
ilah
▁Silver
real
▁abstrak
▁cacing
▁Pengu
▁”
ines
landia
▁Lyon
▁Kutub
▁fre
▁140
ated
▁membantah
▁Idris
="160
David
Ah
▁tirinya
dow
▁perkalian
▁slogan
moro
▁Amazon
view
▁Ernst
▁Aru
▁Fantasy
ario
▁kentang
nggi
Martin
▁alun
bag
▁terpadu
▁KO
ojo
▁ingatan
phan
▁Death
lusi
BR
▁Penyiaran
eki
▁penawaran
produksi
▁Perwira
agen
kupu
manik
▁pembacaan
▁Pema
phus
ssen
▁pikir
ente
ح
▁Kehutanan
▁bireuen
▁Pradesh
▁Pelatih
▁bertenaga
nggu
rain
IK
▁percintaan
ony
gerakan
chia
▁Baker
▁Gul
pihak
▁kromosom
▁menyeberangi
▁komponis
▁1894
nesia
▁mekanika
▁Petersburg
▁(2003)
▁Gagasan
▁Hama
tipe
▁Jum
▁gugatan
▁penghapusan
eux
▁lembaran
▁terwujud
▁kuningan
▁tercipta
list
▁92
▁catur
▁world
kawan
▁Traktat
▁Bener
face
▁menghidupkan
Long
▁Pagar
pic
▁Kamal
uban
cola
▁Toko
л
▁sertifikat
▁interior
▁endo
▁Pearl
▁Tul
▁Lot
▁Cik
lumpang
▁flav
▁biola
▁sukarela
▁Mungkin
▁rekreasi
ansi
▁Lutheran
catatan
▁Mission
▁Semen
▁memburuk
ncong
▁Fre
osaurus
▁tercapai
▁kecewa
▁tertanggal
▁Eng
▁CS
LP
▁berevolusi
arium
ك
▁dibiarkan
▁potret
▁reseptor
▁sengit
▁Papa
▁Nun
▁z
▁Party
▁lokasinya
Br
titik
▁teolog
▁sh
▁Benediktus
peristiwa
▁Ep
Ham
HA
▁Jadwal
▁longi
link
▁Page
▁unjuk
▁meriah
teori
▁JR
▁Tokugawa
▁1963.
▁20.000
▁Belarus
▁menghukum
enam
▁Devi
borough
zio
▁dorongan
▁Jessica
▁Theo
It
▁berteman
ampang
illo
▁mendatangkan
▁Valley
Art
▁om
▁Lei
▁Tah
▁(2)
▁ruas
▁dilakukannya
plat
▁Broadway
▁Benua
▁(2015)
▁umpan
▁Church
bad
vat
▁Feng
▁Angkasa
lier
reg
▁Grant
hā
▁Selo
▁Seven
▁sembuh
sher
8,
▁pendamping
▁persawahan
▁Sr
▁European
▁Termasuk
▁CIA
▁udang
▁pemu
▁Guan
▁kosakata
▁dihilangkan
▁menganalisis
▁tum
▁Julian
▁1973.
oner
▁Kopi
▁menempel
▁Magister
▁Delapan
▁Stan
▁(22
count
▁Soccer
▁perspektif
▁mendidik
Time
tory
rok
▁one
▁83
▁spesialis
enti
▁interpretasi
▁Eri
Pin
dle
▁Lar
▁Ramadhan
vittata
yg
▁Chung
▁Cen
gene
Sho
uya
ð
▁Unsur
▁Wallace
▁Bac
▁hadits
ering
pod
▁Maz
▁Yasu
lav
raga
▁1969,
Best
▁Agam
▁ara
ologis
▁nasionalisme
▁kedutaan
▁Doktor
▁Bagaimanapun
▁disatukan
fel
▁Hiroshima
▁Carol
▁putusan
▁USS
ders
▁Dalem
▁Senator
▁Pemakaman
▁menggulingkan
galan
nh
▁(2002)
▁kre
▁Das
live
▁Helen
▁1973,
saudara
▁kavaleri
▁Perayaan
▁(2009)
▁politis
▁Baghdad
▁Lili
▁baca
litik
wet
▁1974,
▁pandai
▁Sragen
▁fans
▁Airport
dut
▁zo
▁Lahat
▁Chun
quin
▁Varian
Banjar
▁Rhein
▁Keju
▁cc
=113
ق
▁sedimen
▁perihal
medi
nir
▁Aleksandr
="113
kt
▁Mitsubishi
▁Ris
▁romansa
imp
▁Ekuador
▁memperjuangkan
▁menyertakan
KK
▁sistematis
▁Cruz
▁apalagi
ope
▁jer
▁bantu
▁Skenario
▁berdurasi
▁perbudakan
ree
▁1968,
▁Screen
▁PK
▁Dog
▁upah
▁bepergian
▁ketertarikan
▁Tamiang
syi
And
tema
▁tandang
▁hamba
▁Waka
ded
dum
▁laser
▁Roti
▁col
▁Valencia
▁Gayo
▁kawat
▁Jose
Kitab
▁mendaftarkan
▁tor
▁akuisisi
▁Konawe
▁menggunakannya
▁English
▁Ain
Sultan
Anak
▁pendaftaran
▁1976,
▁panduan
▁Chaplin
▁cakram
▁diserap
▁topeng
FF
▁perundang
▁bas
▁navigasi
▁implementasi
ifrons
▁sakti
▁disamping
undi
▁Julia
▁Eun
Sun
pag
р
▁plan
▁memerangi
▁she
▁memancing
▁Wind
▁esai
▁hiu
tris
▁keturunannya
▁Penge
▁psiko
▁iii
▁mera
Pierre
cord
▁diperhatikan
▁fisikawan
▁opsi
▁Rudolf
▁ukurannya
▁Ryo
▁Nag
dt
▁kla
▁filosofi
▁Kemungkinan
▁Arn
▁Stanley
▁Yahya
▁menda
▁demo
EA
jumlah
pam
▁melepas
▁Aten
gasi
▁separuh
▁pulih
née
▁Lain
▁Kazu
card
ete
▁Heli
▁asumsi
▁Nicholas
▁Woman
▁2011"
▁ketenaran
▁gantung
▁sepupunya
▁Marvel
hausen
▁Umat
cabang
▁kemarahan
oco
Sem
▁menuai
▁areal
ush
format
▁UE
guan
vu
▁1884
ngki
▁tangki
▁beriklim
esti
rod
▁spesifikasi
▁Syi
▁nyanyian
▁beruang
▁Warsawa
−
▁Gampong
▁sor
▁hy
raman
▁Nata
▁Hana
▁Ath
▁time
▁Saga
▁Tek
madi
▁dicabut
▁Pameran
ttle
▁runner
▁Bia
▁Mach
▁Naruto
▁Bom
tine
▁topi
▁bersikap
ration
▁Babilonia
▁Hamburg
▁tersangka
▁stres
likan
yut
tab
▁LA
KT
▁Sche
Sri
▁Penamaan
▁PDI
▁sertifikasi
▁pal
cius
▁pencernaan
▁berskala
▁redaksi
cs
erang
▁Angola
laris
▁kuburan
▁stabilitas
▁Pasi
▁penggantinya
▁Oka
▁Vent
HI
rub
▁Paya
▁filmnya
▁bah
gok
▁bang
▁poly
▁post
Melastomataceae
▁Goguryeo
▁Ekstrakurikuler
▁personil
date
▁Jaksa
▁5.000
▁plasma
▁Chao
▁lintang
kembang
▁isotop
▁Field
!!
fasciata
▁Tomo
besar
▁lucu
ordin
▁Curug
▁Convention
▁Stewart
▁teorema
▁Urban
▁boy
kei
▁PO
siasi
▁menghubungi
▁diasingkan
▁Jendral
▁cr
▁Morning
▁Gaza
isitas
guk
▁Siam
▁Vir
▁elektrik
▁Gha
▁Hun
="114
▁Magazine
▁konversi
▁asin
▁sendirian
▁desainer
taran
▁pam
▁proto
sensi
▁Foto
▁Bella
▁Bil
▁turbin
æ
▁CBS
ruf
▁menya
▁German
▁mempercayai
▁mencantumkan
▁Nagoya
▁Volume
▁Tarian
▁Margo
▁ham
▁Marcel
▁Ichi
▁Wajo
▁André
tono
▁peliharaan
▁panitia
▁Anggaran
DM
zah
imo
layang
▁kerjanya
▁metabolisme
▁Piagam
nier
TE
Bal
James
▁1969.
ampir
=114
▁Gran
jet
î
▁ilustrasi
▁berdagang
▁Susilo
▁kelainan
▁Mut
▁sela
dika
tami
▁Theater
▁bayangan
4)
MO
▁Soul
▁That
▁Wel
▁menyatu
▁rektor
▁pemandu
▁1892
▁SV
▁lah
dag
ulf
▁membunuhnya
▁mekanis
▁Lintang
▁jin
▁sya
▁diolah
▁Soma
▁Ryu
ulosa
ike
▁botani
▁ekstra
Il
Gar
▁mengendarai
▁kemitraan
jono
▁Sebastian
▁AB
kana
▁1948.
ulata
▁bakti
▁mengkonfirmasi
▁mempersembahkan
▁Simbol
▁1.4
▁(2016)
seni
▁Online
▁Cru
semua
sme
▁Rilis
▁jutaan
▁CA
▁Numfor
▁Salvador
▁membahayakan
▁arsip
▁kompetensi
▁Siberia
▁Bong
▁sul
▁Semasa
▁1800
▁tercepat
▁lahirnya
▁pembicara
▁Uang
▁AP
▁Vin
▁mengabdi
▁Ayam
▁jilid
▁Nanjing
▁absen
uge
▁Gadis
VI
▁Sema
▁1940-
10.
atom
▁Marsekal
▁Mexico
▁nyeri
▁BB
▁Rejo
▁pot
▁durasi
▁tiada
▁Vas
▁Woo
cir
▁hipo
▁sahabatnya
▁regulasi
tail
▁Resort
▁purworejo
▁1941,
▁Shō
▁Purwa
lag
▁sir
patan
tribut
▁simpang
▁amunisi
▁kompetitif
▁Pekerja
▁MNC
▁Ala
ruang
▁Syiah
tib
lich
▁music
▁skandal
▁berbakat
anna
▁Fil
Ten
illi
▁Barbara
▁menghibur
▁RM
▁beku
▁bermotor
▁350
▁1967.
mpung
proyek
▁Saw
master
dasi
▁menggambar
▁lebat
▁Voice
▁PlayStation
▁nitrat
▁Seattle
cz
▁fungsinya
ntara
▁berafiliasi
▁merantau
▁veteran
▁20%
eja
▁Guo
▁opini
▁Tanggapan
▁Ave
▁Asa
▁proton
▁teng
Louis
▁Nurul
▁perorangan
▁dialihkan
bie
sala
▁tekstil
▁anumerta
▁diantara
▁tangerang
▁benih
▁menganggapnya
▁drummer
▁kap
▁Argo
▁Atom
Bad
▁hadis
▁Cekoslowakia
▁sensitif
3.000
▁Praha
▁Liriomyza
▁Diri
="2004
▁ditaklukkan
▁website
tini
sley
▁Arch
▁tabu
▁ubi
olin
▁kisaran
legi
▁dipinjamkan
bury
▁Math
▁Arnold
▁Aria
▁Hit
▁hor
▁membenci
▁Fen
imi
ijn
vid
Michael
▁Legend
▁Emma
д
▁keterbatasan
▁renovasi
▁Kro
▁Ian
▁Haiti
lakinya
bersama
▁peledak
▁puteri
ped
▁flu
▁Gary
▁Cipa
osum
▁Gru
▁1964,
kultur
▁AK
▁Pemba
turi
▁Anatolia
jiwa
▁Melana
oksida
▁Lawang
▁instansi
Hy
▁1946,
▁bersumber
Bank
▁mengin
▁pit
▁menimpa
▁Abe
▁Leu
▁pembeli
kisah
▁1970.
▁Mandar
-26
▁bersumpah
▁etanol
▁Schu
▁Turk
graf
kiran
▁bait
▁Got
▁Sida
▁1972,
Myrtaceae
▁samudra
▁kakao
▁Asmat
▁intensitas
hingga
▁urban
▁Country
▁1960.
ος
▁This
trasi
▁Kursi
uto
▁makalah
down
у
▁melimpah
▁uranium
▁imbalan
▁fotografer
▁upeti
0,
▁Avenue
lion
▁bun
tata
▁penyusunan
▁dijaga
bayang
▁kepresidenan
wee
Charles
▁Galeri
▁buang
▁masukan
▁seribu
Ste
▁Ky
▁Sali
▁Pengguna
▁Virgin
▁menjangkau
▁gelanggang
▁Pacitan
▁acuan
▁evaluasi
▁Agar
▁Pho
▁dibidang
tional
▁Cos
ngi
▁berposisi
hom
▁selebriti
▁Kiev
▁Krishna
GB
▁buka
▁Cole
pac
pie
τ
mac
▁Mela
awak
kro
Ng
hulu
▁Dara
▁dipamerkan
▁1.6
▁Yakub
▁pinang
▁kejayaan
▁pengendali
atu
▁Ita
drum
▁beristirahat
▁1950.
▁revisi
rud
▁PNS
▁ketersediaan
▁pelecehan
▁Hasyim
▁Panca
▁Strategi
cah
life
▁saingan
rach
▁geng
▁membawahi
▁tebu
SMK
▁warung
▁Andrea
▁hayati
▁Persiapan
κ
▁hierarki
▁Payakumbuh
ove
▁und
▁berjalannya
▁Rika
▁siapapun
▁Suri
▁1947,
▁Anime
▁Stefan
▁dramatis
▁diwajibkan
▁BMW
▁gerbong
▁prasejarah
▁Bumbu
▁RUU
▁Bantuan
▁diungkapkan
▁Herbert
kok
▁les
▁1977.
Lam
▁Glo
▁Meriam
▁Sebab
▁mat
▁Koordinator
▁belanda
▁Pelaksana
▁1943,
▁Mula
▁intensif
▁Tat
▁XIII
ewa
▁piramida
▁Now
▁Perhimpunan
▁Aturan
▁isyarat
▁Haag
suara
▁74
▁Tatar
▁Jump
▁senantiasa
Sing
nol
uka
▁Tali
▁dilancarkan
▁Perumahan
mau
serta
▁Inilah
▁mangkat
▁Gay
▁lam
▁penembakan
ingen
▁artefak
▁Taj
▁Cero
-35
▁bis
suatu
▁Radar
‘
▁Ble
▁Patriark
cid
▁tayangan
ו
▁trayek
▁mengutuk
2017
▁song
▁lidah
muka
▁memb
▁Lokomotif
▁Penyanyi
▁kemasan
▁wu
▁algoritme
▁Takhta
▁Kolaka
gard
ktur
▁Kira
▁Thor
Jam
▁bobot
▁dipukul
▁Tommy
▁Taufan
▁Andreas
▁Phoenix
lou
▁luasnya
fl
▁dimekarkan
▁melompat
▁mendasar
▁Meriah
▁Kanaan
▁mag
▁Lahan
Kepala
yal
▁kutipan
▁menamakan
▁sanksi
▁bermata
▁1974.
ansyah
▁Emil
▁menular
▁kontra
▁Jurnal
▁Padahal
▁FK
▁Brad
▁Mycale
▁Agri
▁Rekor
▁Arifin
▁terse
▁Rekaman
▁Labuhanbatu
▁Tung
▁kegunaan
mag
▁Whit
▁1963,
▁rongga
zul
▁01"
▁Ibukota
nasional
▁Dha
▁Perintah
▁1962,
▁Lip
▁Taipei
glia
LE
▁dpl
▁menggali
▁geo
Kh
▁Ruth
▁1891
▁1971,
▁Masuk
Hol
▁1881
hira
▁cy
▁Kalau
▁82
▁LGBT
Masa
enko
xo
▁Bos
▁Habitat
▁belanja
▁terhenti
▁Uji
▁Galuh
▁09
▁ranah
▁Seba
osit
▁patroli
ime
ssus
▁Sektor
▁lor
▁iri
▁rusa
▁penggalian
м
▁Health
▁dikepalai
alia
▁Agen
=138
▁Keterangan
▁track
▁Rel
▁sehubungan
Let
▁Pana
▁Seung
▁1971.
▁Two
▁Marta
negeri
▁Bengali
▁aktingnya
▁bertingkat
wakil
="138
▁1964.
formasi
▁kesetaraan
Shin
implementasikan
▁Sita
▁Jian
mbahan
▁terjebak
▁Granada
▁aroma
▁Kompi
▁Stein
▁Senna
▁Kegubernuran
▁Ning
▁Battle
▁Meiji
–15
▁Wah
rium
▁diwariskan
▁Century
▁kafe
▁Bobby
LO
vic
▁Alpha
▁lilin
horn
▁Nasi
▁manuskrip
biru
▁Tank
▁Pay
▁gila
worth
evich
▁kom
▁Store
▁PER
tukan
▁Count
Prancis
▁international
▁melukai
▁Paling
▁Semakin
tit
▁Ski
▁polimer
▁Mycomya
▁dicari
▁aur
▁maya
dontha
▁pelawak
▁rinci
▁Ami
vit
▁1500
▁peradilan
▁pengemudi
▁Blo
fas
setelah
▁konstanta
▁pengg
▁ajaib
▁Sisi
▁م
▁tumor
unan
pemimpin
India
▁Banyuasin
▁Peningkatan
▁digit
opi
▁petahana
▁Monster
kiri
▁Solomon
▁CF
▁Que
skaya
iger
kek
▁teritori
▁Teuku
▁Magic
▁Philadelphia
maru
bio
▁Bawah
luar
▁matematikawan
urai
ometri
Ve
▁Gel
cata
ridge
▁istiadat
tomi
engan
▁1893
▁Kese
▁Dialek
TM
▁Rabi
▁Tr
▁Season
Wo
▁menamai
▁dieja
▁Lumban
market
▁Beatles
▁Bactrocera
SR
▁Cab
▁batin
rae
▁Wir
▁Pass
▁Nippon
▁Logo
▁Oblast
musik
▁Yudhoyono
▁almarhum
▁beralamat
▁pembaruan
▁dwi
▁Production
rar
jit
▁Sido
▁DPD
▁Brit
lani
rib
pola
jaran
lana
pindah
▁serigala
▁fil
▁sedikitnya
▁Greenland
▁bundar
wald
▁Order
bunga
▁mengerahkan
▁Cast
▁Ever
AB
▁Kurdi
▁bajak
▁Fal
▁Thu
▁Ghana
RP
▁Lao
▁Than
▁Maj
▁Netflix
▁1942.
▁1962.
jawa
▁Xian
▁Cai
eas
▁90%
CR
▁dek
cky
ique
▁Š
▁corak
PB
▁cre
▁eksplisit
▁merugikan
▁melengkung
▁Bod
OC
▁Bilangan
merah
▁home
hubungan
▁Kane
▁Muh
▁Sesudah
▁Mikro
▁Hey
▁tafsir
metri
Mahabharata
▁memberlakukan
▁penyihir
ossa
▁Zheng
▁Zhi
▁br
dip
▁duet
▁Muk
▁100%
▁pura
riya
▁Kids
▁destinasi
masuk
▁Temp
uck
▁patogen
▁Warren
Kejuaraan
fik
stal
kusuma
▁monyet
▁Konservasi
▁pang
▁sei
▁Pink
▁Yoo
LI
tut
▁lancar
▁tun
▁ters
lanjut
▁menyeluruh
▁Flandria
▁TH
▁Dominika
▁menunda
gut
khe
▁(25
▁Systems
▁1977,
hewan
▁ejaan
▁enggan
stadt
Pol
▁Design
nell
cot
▁Pendiri
▁Belas
▁Lum
dea
gerak
ة
▁Social
▁Kebangkitan
▁93
▁malu
▁Yama
▁tujuannya
pari
▁Wing
wy
plex
▁memikirkan
▁MotoGP
▁Ward
ities
dō
▁Deep
▁Baba
▁pemer
▁Medali
▁Tengku
teen
▁Hide
▁topologi
▁cabai
▁Robinson
▁nigr
▁Artis
▁Corn
uca
▁1940,
▁Dave
mene
aturan
▁Penyu
▁Fur
olus
eiro
▁mencabut
▁penindasan
▁horizontal
lengkap
▁(2017)
▁pucat
istilah
▁Exoprosopa
▁menelan
▁Hungaria
▁kebahagiaan
▁Moutong
▁vol
mol
▁Gram
▁lembar
▁Beta
▁relief
▁1864
▁indikator
▁terbentang
ña
▁mantra
Bel
▁Dimulai
BE
▁Broadcasting
pr
lawang
odon
▁Trade
ior
▁pak
zim
▁jerman
▁mani
▁Lomba
▁Rwanda
mbri
▁belakangnya
▁menaikkan
▁Ping
▁kekuatannya
▁keponakannya
▁Pernyataan
▁kebencian
▁mancanegara
▁pengumpulan
▁Pari
▁kun
▁arwah
▁79
mod
▁inang
▁LS
olok
stre
▁Hills
▁kera
▁kebumen
cip
gula
cover
▁Penya
▁farmasi
▁kemiringan
▁vakum
Mag
▁Cakra
mum
▁miliki
▁sepertiga
spirasi
▁Diskografi
mine
▁jajahan
▁perpaduan
▁Penyebaran
▁mengusung
hitung
▁Batik
TN
▁Prime
rono
rand
▁asuhan
▁keberangkatan
▁mencolok
▁ana
▁notasi
▁tau
odor
▁Beograd
▁Bharat
rog
ffi
▁tulisannya
▁1883
▁Telah
▁Baltik
▁bea
▁pukulan
Tanah
▁Sampang
▁91
emba
Tak
▁Tintin
▁investigasi
▁Kamerun
malang
2.000
▁PL
▁Residen
▁Ono
▁Usman
▁737
▁Shima
ج
▁menganjurkan
▁Letkol
▁Agency
tala
▁pentas
seng
▁105
▁Agnes
▁Kamar
Red
▁Education
▁memfasilitasi
▁pedoman
▁peralihan
▁tendangan
MG
zai
="207
CE
▁Kabar
▁lini
▁170
μ
▁1961,
▁PN
▁imp
▁Lucas
▁Pare
▁Comedy
▁Sepeda
▁seminar
ianum
wono
▁Kakek
▁Usia
▁pilar
gge
nicus
▁Pemikiran
▁berakting
▁menginspirasi
▁Slav
usia
▁1878
hall
bani
▁Elektro
Af
▁asas
▁memberitahukan
▁mempublikasikan
▁Jemaat
▁Calvin
▁irama
lac
hilang
hya
▁Mutiara
kamp
▁Anglo
▁Mikhail
tifikasi
▁Amal
-40
▁Come
VA
▁1966.
▁bersiap
▁berjasa
illon
Australia
▁(24
▁depannya
▁pengebom
▁Rev
▁Control
KU
▁mikroskop
▁beda
naka
="1338
▁termal
▁02"
Hak
▁80%
spesies
3/
simbol
▁ari
▁optimal
▁Yin
▁Gilbert
8.000
rate
wel
left
▁hutang
▁que
Bra
LB
▁87
▁diketuai
▁Angga
hill
▁Basuki
▁1887
▁Tay
▁kerak
▁merespon
South
▁Pamekasan
=1338
oneta
▁pesanan
ged
▁mence
="1339
▁Kajian
▁Place
▁sport
▁kos
yasa
▁Damai
▁Reich
▁ditimbulkan
=1339
▁kejatuhan
▁Dangdut
shah
optera
▁Sedunia
▁keris
▁kurung
usi
▁Jonas
Ker
▁Ano
▁keemasan
▁celana
2001
="2227
▁terpusat
="1231
▁Memorial
▁Ou
▁IBM
▁kurva
=2227
=1231
▁Zeus
hō
▁Danny
rensis
▁minim
wad
▁Waduk
SF
▁daur
planet
take
▁perawat
▁1871
gitar
▁makro
benteng
▁ekonom
▁Daeng
kepala
=559
wetan
▁periodik
▁via
▁Balapan
▁lada
="1347
▁dilanda
▁Industries
gga
▁Won
▁didampingi
▁direkrut
▁Christmas
edo
Dis
Pat
▁fatal
▁1949.
▁awards
sinetron
kegiatan
▁pat
▁(26
▁Oliver
▁Syariah
say
awar
▁Nap
trus
▁karo
▁Canada
kli
Peter
Tar
United
mpet
▁pendengar
=1347
▁Arizona
▁Visual
1.000
▁Korem
▁entri
▁Una
▁Firman
▁dituliskan
▁Yuri
▁Porto
kita
="559
bom
oen
dre
▁Augustus
▁Fransiskus
▁Manfaat
▁fundamental
dl
#
kami
▁Pelajar
▁Munich
▁oc
hul
="2258
▁arkeolog
loka
▁singgah
teh
▁kabin
anne
▁Denis
gno
▁nano
▁Poe
▁pemasangan
=2258
▁penekanan
▁IS
▁balas
▁berjenis
mantri
als
bow
▁mayor
▁With
umen
▁Bata
▁berdaulat
▁tersimpan
▁Kawasaki
EK
▁Mode
▁Def
▁Korban
="1337
▁rakyatnya
▁Angin
▁debat
▁instalasi
▁Houston
▁Harold
dell
▁berkulit
▁Pul
umpa
katan
apkan
2011
Hongaria
resmi
▁pergeseran
▁kekebalan
▁biksu
▁pemadam
▁komplek
▁valid
▁Resi
haus
ghe
▁keanekaragaman
▁cakupan
=1337
sungguh
chisus
▁kediri
rupa
steri
▁berta
▁Bhutan
▁Sangat
rukan
ḥ
▁München
▁prototipe
Bas
▁Stadium
▁Austin
4.000
="2257
="2260
cie
pta
▁keinginannya
▁Aya
▁event
▁sitkom
=2257
▁memuaskan
▁ae
Em
▁butuh
▁Phy
▁timah
nadi
▁kader
▁Codex
▁1850
kuri
▁Obenberger
250
bali
▁Drive
kong
▁Harga
▁palu
Qu
▁ceritanya
π
▁Diana
▁Ant
▁Batara
▁disarankan
mona
▁melodi
▁membina
-100
▁Marcus
kasus
▁pementasan
▁sesaat
Ze
▁penanggalan
=2260
=2419
="2419
▁Pale
▁pela
▁Marx
▁gamelan
tig
▁Bow
stu
="1216
▁Cahaya
="1324
formula
▁bawahnya
▁bre
▁garut
▁Nathan
▁Neg
▁Detroit
▁Merauke
▁berpakaian
=1216
=1324
▁persepsi
▁Greg
▁kerang
▁sebanding
="1318
▁Miami
=207
▁host
etz
▁sk
miya
▁amfibi
▁Georg
▁eksperimental
▁Lanud
mania
="2002
▁Tuanku
Festival
▁Mani
▁kapas
▁Hospital
▁Praktik
▁dipuji
▁Tabanan
▁pembersihan
▁katanya
daran
▁gurunya
ondong
▁penguasaan
▁Kehormatan
▁menyoroti
▁ornamen
ghan
ror
ogram
▁dipindah
Ada
▁bat
ceng
▁pemakai
▁Belakangan
▁cover
▁menegakkan
▁masanya
▁1961.
-60
▁Susunan
▁Derby
lig
George
▁Tō
▁Benda
="1205
beck
phora
▁mendapati
▁way
moni
▁Kotamadya
▁Flu
="2264
▁Rap
▁Wayang
▁menaiki
▁had
▁Tok
▁ditutupi
room
jk
Vernonia
▁Hira
▁Bea
▁Dapat
▁seberapa
=2264
­
▁pla
▁Kristiani
▁aneka
="1233
tual
▁denominasi
▁Sunni
morfisme
▁neuro
▁BE
▁Simpsons
▁hum
▁gerilya
▁Komponen
▁diperbarui
▁dipertimbangkan
▁membiayai
▁telanjang
=1233
=1205
▁McG
="1217
▁Antonius
nio
▁penyelamatan
▁Daily
▁Gigi
="1207
▁sol
▁Monta
situs
▁Arif
=1207
="1232
▁IT
▁Kulit
▁Sisa
="1237
vul
evo
=1232
=1237
▁1944.
▁Pembantu
▁dididik
=553
="2226
rga
tty
▁Server
nami
▁Sis
▁menuturkan
▁memasok
=2226
▁Persamaan
▁merangkap
="1219
▁bibir
▁pastor
▁kerucut
=1219
=2809
▁penanaman
="2809
="1245
nuk
▁baginya
▁Kerjasama
▁Hip
▁Sewaktu
▁motivasi
Perjanjian
▁teoretis
=1245
=2873
▁militan
="553
="2873
stel
present
▁Sean
indah
sional
hiko
▁degradasi
kuda
▁kesaksian
▁elektromagnetik
▁Iberia
▁Beck
2018
▁Polo
▁1882
abilitas
action
▁Thompson
▁Ottoman
jakan
="1218
▁URL
="1340
▁Ocean
▁Edgar
Sistem
tropi
=1218
="2256
ING
="1253
="1257
▁Sendang
▁Miguel
sering
=1217
=1253
=1340
=2256
=1257
▁Soundtrack
mendistribusikan
WI
Vo
nova
="1230
="1250
▁Exocentrus
▁Skuat
▁Seribu
▁Sawah
karbon
ucci
Micro
▁Record
▁pelantikan
="2330
=521
▁Presley
▁Kartini
▁Iwan
="502
toria
▁Vis
Just
="1208
▁kaliber
▁hop
=2330
▁mengutamakan
=2864
=2867
=2872
▁Panda
="2872
="2864
aksara
="2867
bell
▁penafsiran
="521
▁Sayyid
▁euro
▁Einstein
=1230
oti
bila
Teluk
ño
="1269
▁Mie
="1524
sad
="1206
leksi
▁Kleopatra
▁Leipzig
=1269
▁pembubaran
=1524
=1206
=1208
▁GT
=502
onik
=1318
="1236
▁Like
hof
▁Turner
oechus
▁Aristoteles
=1250
=1236
▁Pilihan
▁berkembangnya
▁Republic
="2259
="1261
Jati
▁Indy
▁Noah
▁masyarakatnya
▁hijrah
=2259
=1261
▁tetangganya
hadap
▁Pematang
="1224
▁Tarakan
ental
omer
▁Pelatihan
Grup
▁Roosevelt
▁dipentaskan
=2871
=2874
="2322
▁1958.
="2871
="1336
="1220
="1212
="2874
="1234
▁Rei
▁Gum
▁Kelima
Kereta
=2322
▁mendeklarasikan
▁Yudaisme
=1336
=1212
▁hobi
▁pengaruhnya
▁roman
▁Burg
▁Donggala
▁Ö
="1267
="1214
="2253
="2244
="1264
▁Hera
="1342
rius
bridge
laku
bed
▁Nikola
▁sisik
cek
▁Baden
▁Lovato
=1214
=1267
=2253
=2424
=2826
▁Perbatasan
=1220
=2244
=1224
=1234
=1342
sisten
="2826
▁terlambat
▁berkomentar
="2424
▁Badai
="1246
▁Hunter
="1252
kyu
="1255
2002
▁produksinya
ppen
▁pasif
▁menyiratkan
=2819
="2316
=1246
=1252
=1255
▁Pendekatan
="2819
▁Sierra
="1204
uar
mesin
hart
▁Qian
▁lupa
=1264
=1204
▁menanyakan
▁1830
FL
="1328
▁PR
="1211
="1235
teknik
="1326
▁tomat
="1210
shō
="2220
="1256
="1343
="1540
▁tekstur
▁Pei
▁Nahdlatul
▁pemindahan
=1211
=1328
=1235
=1256
=1326
▁Dublin
hib
="1228
="2228
Badan
="1322
anten
fr
="1317
▁thriller
see
▁Dean
musuh
Israel
=2316
Balsaminaceae
=1228
=2228
=1210
▁membubarkan
=1540
▁progresif
▁ketahanan
Kampung
="1330
="1238
="1266
="2200
▁bernomor
="1259
ization
cik
6.000
=1238
=1266
=1259
="1213
▁koefisien
▁parit
▁1958,
▁diangkut
▁1959,
▁Train
=1213
=1322
=1330
=2200
=1343
=2220
▁mengerikan
▁Major
▁Nike
▁Sumar
▁Gabungan
cun
="2219
="2249
Sido
soe
="1327
="1522
▁Dorcadion
="1320
▁oto
klub
="495
▁Tji
Torymus
▁Ped
▁koridor
▁keesokan
=2249
=1327
=1522
=2292
="2222
▁Makkah
="2268
zumi
een
▁elang
cet
▁dihapuskan
="2292
▁mabuk
▁napas
=492
="1203
▁Ted
=488
ppi
▁Alun
▁kuadrat
▁percetakan
=2268
=2420
=2868
=1320
▁Aviation
▁Leg
elles
Bukit
="2231
="2276
bangan
="1346
="2277
="2420
="1242
="2868
=495
eder
▁open
▁Langsa
llus
▁Kritikus
▁Gurun
▁kidul
▁Sulu
xin
=2231
▁Uzbekistan
=2276
=1242
=2277
=2862
▁pemangku
self
=544
▁Sayang
="1321
tech
="2214
="1268
="2862
▁NT
▁peron
trich
▁Marina
▁dibaptis
▁Challenger
adat
▁taat
mukim
▁GB
="492
=1225
=1321
=2214
▁letnan
=1268
=1203
Cr
▁Eddie
cchi
="1225
="1262
="1260
▁Kaki
▁narasi
▁PG
▁Prize
▁kuala
▁Xuan
▁Buleleng
=1262
=1346
="1229
="1227
enstein
="2225
="1523
▁England
▁Gali
▁penyangga
▁Sekar
="488
▁Spirit
="544
▁biro
▁Letaknya
▁baktinya
11)
▁Peringatan
▁detektif
▁disponsori
=1227
=1229
=2222
=1523
=2225
=2810
="2328
=1260
="2324
="2326
meskipun
="1215
=554
="2239
="2217
="2252
▁MiG
="1226
="2221
="2810
="1265
vita
Bandara
="1244
="1254
="1345
▁NA
▁Steel
▁diikat
▁Gam
=1317
rella
▁power
nem
▁Beau
▁Benny
=2324
=2326
=2328
=1215
▁Animation
=1226
=2217
=2219
=2221
=2239
=2818
=1254
=1345
=1517
▁vas
▁anatomi
=511
▁Bavaria
="2818
="2208
="1517
▁Bert
▁Kurt
badan
–0
▁EC
▁deklarasi
▁menghuni
▁pengerjaan
▁perkantoran
▁morfologi
=2265
=2865
=1209
=2208
▁Doa
=578
Kaisar
nei
▁kubik
="2263
="2240
▁satwa
="2223
="2865
="2265
="1209
▁Sciences
▁Dani
▁Tepi
="578
manusia
ggi
ubi
ological
▁BUMN
▁Persekutuan
▁disaksikan
=2252
=2263
=1265
▁Alumni
=1244
▁Acmaeodera
="511
▁Golongan
rami
="2188
ondo
="2280
="1344
▁Siliwangi
lad
="1248
Danau
="2207
hap
duct
▁Mart
ovo
▁mak
▁kotoran
▁magnetik
▁Sekadau
▁merintis
=2188
=2240
="2321
="2323
=1248
▁Virus
▁Pembinaan
kuti
▁Koloni
="2287
="2248
="1247
▁sejuk
▁tam
▁Maryland
▁Skadron
▁Linda
yle
ranger
krama
=2321
=2323
=2287
=2824
="2329
=2223
=2248
=2280
=1247
=1024
▁lantaran
="2233
▁Hasanuddin
="1329
="2824
▁Rizal
–16
▁Mit
▁kasta
="1319
="1024
="554
▁Child
▁Mangun
visi
gali
▁1946.
roni
▁kaitannya
▁mengharapkan
=1329
=2233
=1344
=2207
▁Gadang
▁1959.
▁Gray
="2251
="2283
raw
="2294
="1202
suri
▁Graham
▁DS
▁Duke
PE
▁humor
▁memi
▁eksemplar
▁serentak
▁tertinggal
=2251
=2283
="2261
=2294
=2811
=1202
=566
="2255
="2246
det
▁ditanya
="1325
="1223
="2811
▁gizi
=481
▁Eko
="1251
="1240
Ros
▁1.8
gla
tiva
="95
Neo
▁lin
sport
▁Plu
=2261
=2329
=2255
=1325
=2246
=2823
=1251
▁Armstrong
="2197
="1323
▁Penang
="2823
▁Khmer
="1333
="1258
▁Nuh
▁Koperasi
▁Independen
=2197
▁country
=1323
=2275
="2303
=1240
=1333
="2318
=1258
=558
▁teras
="2234
▁1956,
="2238
="2275
="2215
▁bulanan
IF
▁beraliran
▁Cita
mae
="566
▁89
▁Bot
wall
="1025
rock
▁Gö
▁dinamika
▁Djo
stream
=2303
=2318
▁mempertanyakan
▁DA
▁Tidore
=1223
=2234
=2238
="2327
=2215
=2282
▁pendahulu
dunia
lalu
="2232
10)
▁laras
="2282
▁genom
▁Rote
ruddin
▁mutasi
▁Ajaran
=2327
▁bergengsi
▁fleksibel
▁pengucapan
▁terpasang
=2232
=2421
▁Capital
=1025
="2224
=923
▁sukabumi
="2421
="2262
="2267
="558
▁Grey
Vol
▁1)
arki
▁Dru
▁kian
▁pengoperasian
=2224
=2423
="2301
=2262
=2267
="481
▁Fukuoka
="2423
="2230
▁back
▁Senapan
lix
=1319
="2273
SB
▁akustik
ière
kers
▁Graf
tawa
Mes
=2301
▁khalayak
=2425
="2317
=2273
="2325
="2320
=577
Lissodendoryx
▁Jas
="2425
▁Hidangan
="2247
="1263
="2274
nnya
▁Kum
▁korea
▁Tiap
ün
=2317
=2320
▁Conference
▁Kekuasaan
="2331
=1263
=2230
=2247
=2274
▁kamus
▁tempatnya
▁terumbu
▁Nominasi
="577
="1334
▁Schi
scope
Cap
▁muridnya
▁KBS
=496
=2331
="2307
=1334
=924
▁Jia
erasi
="1332
="2254
="2250
="2195
▁Kuro
▁kepemimpinannya
▁lebah
="565
▁rugi
▁Amy
="509
saudaranya
=2307
=2325
=1332
=2195
=2254
▁diabadikan
=916
▁paparan
=565
=509
="2211
="2235
▁Dairi
="1539
="2285
="1542
▁rapper
="1249
Qa
▁Aba
▁selat
▁Darius
▁prosesi
▁intra
▁Yani
▁NS
jawab
▁menamatkan
=1539
=2211
=2235
=2285
▁WWE
="2332
=1542
=1249
=564
▁Xiang
="2243
="496
="2242
▁kultur
▁Costa
▁(0
▁tengkorak
=2332
=2242
=2243
▁Administratif
▁keliru
craft
▁Nephro
▁Gunawan
="1341
▁hetero
▁bergantian
opo
=1341
▁Bedagai
▁Purwodadi
▁bertani
▁kekasihnya
▁MAN
▁pemancar
▁sewa
▁2.5
Blue
▁Noor
▁berurutan
="1243
-50
▁Elang
▁Salomo
▁dinikmati
=2250
=1243
ground
▁bonus
Pandemi
="2236
▁GE
="2281
="2288
="2245
="923
▁Mena
daun
mungkin
="564
▁Astra
Sm
cipta
corn
▁Chal
▁Kelahiran
kta
zha
=2236
=2288
=2245
▁Mos
▁Oise
Angkatan
▁meli
▁Het
video
▁ultra
▁Watson
TH
="512
etes
▁Gita
▁diberitahu
oris
OK
jab
anjur
="563
▁Keesokan
▁berpangkat
=567
▁3000
="2229
▁aero
="916
▁Cham
Anti
▁Kastilia
=2229
=2281
=512
=563
tep
="1335
="2198
="924
Mang
60)
brium
kub
▁Rana
▁Saba
emen
▁kaset
="567
=1335
=2198
▁dikisahkan
=925
="2270
="1515
▁art
▁Goryeo
="2293
yek
▁Aditya
▁berlalu
▁Tell
▁front
▁Karyanya
▁Trenggalek
=1515
=2270
=2293
kerto
▁pengadaan
▁Boris
="1222
="2216
="1221
urung
▁Organ
="2286
="2272
▁Jokowi
sup
UP
rta
▁XIV
hut
▁Louise
▁agenda
mekar
▁terbilang
=1222
=2216
="2296
=2272
=2286
PH
="1331
▁novelis
lindung
lk
="2241
▁diusung
▁(29
="2202
▁Dallas
▁Ata
ider
▁1:
▁Stage
=2296
▁McLaren
▁anugerah
▁membicarakan
=1331
▁kesebelas
="2304
="2305
="2319
▁Curah
="2269
▁Roberts
▁Kramat
="2284
="490
="1241
gama
▁Know
1000
▁Budha
=2304
=2305
=2319
▁Clinton
=1221
=2269
=1241
=2284
▁Singkil
=149
▁penyediaan
▁Mekanisme
="2278
="2271
▁Syafi
▁Class
pogon
▁Yunus
cept
▁taksi
▁sil
▁Oto
ò
▁Bolesław
▁madrasah
=2241
=2278
="2309
=2202
=2271
▁antibiotik
▁sekeliling
="2830
=2830
▁Yoon
="1516
Pop
▁Peny
▁ditentang
▁Jai
▁pilih
=2309
="2308
=1516
▁Kema
▁Siang
▁bujur
▁Monako
=490
lev
rez
vier
sau
▁Visi
▁buaya
▁Depo
=2308
▁protagonis
▁penempatan
="2300
▁imigrasi
▁Mou
▁sekumpulan
▁berhala
▁HMS
bug
="149
hra
gues
▁Klan
▁berbalik
=2300
▁klinik
▁tumpang
▁menyala
ofil
="2187
="2196
cule
▁Fajar
udara
meri
Persero
▁2)
▁Chau
▁Hunt
="1028
tradisi
▁Studies
undur
▁penggantian
CM
▁Kecelakaan
wangsa
="925
="501
▁tasikmalaya
=2187
=2196
=1028
▁Jamaika
="2218
▁Doge
TT
="513
▁2017"
▁Didi
ال
ujung
Ini
▁Palm
▁Fang
▁Situbondo
=2218
=513
▁Ariel
ternal
▁pompa
▁pewarna
▁gon
▁sekian
pping
▁Kwa
="2279
111
▁Elisabeth
▁salam
▁Biaya
nun
▁Sula
▁“"
▁test
▁Philipp
▁mg
▁peresmian
=2279
=583
▁tru
▁bercampur
puro
▁Plato
▁RE
▁Walker
beg
▁terorisme
▁macro
▁rak
jatuhi
▁Aek
sty
▁Rudy
▁Singkat
▁Bengkalis
▁sebentar
▁sanggup
=517
=928
=501
▁parsial
="583
="2213
▁pendukungnya
▁Bek
aha
Pasar
▁paha
vert
▁MT
▁tragedi
=2213
▁Kaukasus
▁dimungkinkan
▁gading
=936
▁mangsa
▁Adel
Sh
="517
▁bisnisnya
▁penyutradaraan
▁diakuisisi
ats
▁Bao
▁Wy
▁memantau
=3294
▁Kehakiman
=2808
▁dibongkar
▁kemakmuran
CL
merekomendasikan
oksi
▁kronis
="3294
▁absolut
="2808
="1022
="1019
▁Cine
▁Đ
▁Palang
bos
ender
▁Bird
▁Pringsewu
=2827
=1022
=932
▁Petani
="2193
="2199
▁mengo
="2192
Oh
="2827
yd
kak
bian
nick
▁Anu
ASI
▁diperuntukkan
=2193
=2199
=2192
▁diabaikan
▁fluida
▁mengolah
="2210
="2185
leri
dala
▁Bit
2).
▁Otonomi
▁Lloyd
▁diperingati
▁mengkhususkan
=2185
▁pengabdian
▁Malinau
▁jaksa
▁Kil
▁NGC
▁Francesco
▁Pom
="486
praktik
▁berkekuatan
▁Sinode
ggio
esis
Ren
iden
=2210
▁Kongregasi
=807
▁gun
▁Next
Yunani
=486
▁Belum
="2204
▁Sant
▁induknya
▁Jamal
▁didengar
▁Berbatasan
="2299
=2204
=1019
=562
▁Hang
▁parameter
▁Karna
pass
="562
="2189
ushi
="2237
boyo
▁embrio
="2190
="928
="807
bik
tingkat
anom
▁life
=2299
▁berdampingan
▁penasehat
=2189
=2237
gs
=922
▁Berat
="2191
▁Pasha
▁Nina
table
bius
="510
▁Gregorian
▁Sejahtera
=2191
=2190
▁mencatatkan
="936
tisme
▁bersahabat
▁JA
pasukan
▁mandat
▁1848
▁ilir
▁pengisian
▁disebelah
Surat
▁bijih
▁merumuskan
▁1957,
▁menghimpun
=510
Lamiaceae
▁pence
▁fauna
=478
▁(2005)
▁kaku
25)
pela
▁Kuru
ARA
▁Rumpun
▁LI
▁Leopold
▁dilapisi
=937
▁Juri
=917
▁didanai
="2194
="2266
="2205
▁Sumur
phon
▁katak
▁Minh
="2003
="932
▁1879
▁seper
appa
▁Tanzania
▁birokrasi
=2194
=2266
=2205
sasi
Big
Cal
▁Kartago
▁Koch
▁orkestra
karang
="479
="478
▁KP
▁pelat
▁Quan
130
▁Cin
▁kepunahan
Lamiales
=935
ector
ions
="2289
Din
gran
▁diingat
▁diajak
dokumen
="2209
Kom
18)
▁Race
▁Untung
baca
▁Bach
=2289
=2209
▁diculik
▁Tawang
kusumo
=921
=561
fikasi
▁Ves
="1023
▁syukur
▁bersuara
▁1872
▁Again
▁Kanon
=499
▁Polda
▁Hermann
allah
▁altar
▁penyisihan
▁pertolongan
▁Pengalaman
▁Singingi
▁ketergantungan
=1023
=929
=549
="2206
▁Bencana
mund
jasa
=479
train
▁Isaac
=2206
=2422
tics
▁Gregory
=926
eba
="2422
▁terkaya
="1537
isch
burn
="922
=491
_6
vik
▁Gondang
unjung
Land
="2298
=1537
="561
▁terputus
eff
bidang
="549
▁Tabu
spek
pert
▁point
="491
▁Esa
=2298
="2302
▁Kiss
14)
▁Snow
ndri
▁Ark
▁Merapi
▁katalis
="2203
="499
dosa
="917
20)
fusi
TB
▁Ardi
Bon
=2302
▁Adaptasi
▁mengorbankan
=2203
="2315
▁magelang
iru
="2212
Nan
▁Australian
▁kura
boro
="937
sawa
▁sosialisme
GO
▁Kosta
▁Galang
▁Pembangkit
▁voli
▁NO
▁Île
=2315
▁Mountain
▁puasa
▁isolasi
▁season
=560
Kal
="2201
▁Suma
▁bermusik
="935
▁Services
2016
cea
▁Low
▁Pendapatan
="560
klin
▁USD
manis
▁lanskap
=2417
▁day
▁mari
▁musyawarah
▁gulungan
="2417
▁difilmkan
▁Rhe
▁Kolonial
lator
adalah
▁bad
▁Mandi
="2297
=2212
=515
▁Oda
RM
▁mengantar
pole
="515
▁penerjemah
azi
=2297
▁diberhentikan
=2201
▁dinosaurus
▁Terlepas
▁pembom
cup
LC
▁katalog
▁Fun
▁Hin
▁jasad
mobil
bou
▁pemutaran
="921
▁Mann
▁Happy
▁kadipaten
▁ksatria
▁perceraian
="2295
▁Protokol
▁94
▁melacak
▁KPK
sula
▁Katingan
="929
yad
="926
jiang
▁membu
▁40%
minal
=2295
▁Peluncuran
▁aborsi
▁Instrumen
=2418
padu
="2418
▁arteri
▁PDB
flu
▁Putera
iventris
▁kebijaksanaan
▁Koridor
▁spiral
▁indra
=934
▁ABRI
▁ros
doro
▁Ting
▁berkala
▁Fab
▁Bruno
▁Hok
▁matanya
▁labu
▁berbau
▁Just
▁Colorado
=915
▁Rafael
bula
▁informal
▁berkeliling
55)
▁Nickelodeon
▁~
▁Himpunan
▁Emp
▁SEA
UL
▁Tj
Wal
DO
="2306
▁Babakan
▁tugu
Sd
▁rival
▁Lia
▁dimilikinya
salam
rati
Mur
▁Feli
▁Tambang
trak
▁Jami
=2306
▁Firaun
▁spontan
=1018
mour
=931
▁Collins
=938
kuni
▁(1999)
hidup
▁Habibie
▁menginjak
▁antropologi
▁Sato
="2181
▁1947.
=493
▁Kedutaan
▁Rep
▁Kebebasan
=2181
▁praja
▁Karangasem
▁meraup
▁Telaga
▁oli
Life
▁Three
HS
Maria
="1020
="1018
▁Nana
▁1952,
▁series
▁dipekerjakan
▁jejaring
▁Five
cl
▁denda
-28
mbatan
pilot
▁Children
="493
▁menyangkal
aci
▁Kill
▁pelepasan
▁tarekat
=930
="579
▁Schumi
▁Tawarikh
▁jamak
▁Kodim
dhar
▁Days
▁Meu
▁CE
▁Rich
anisme
▁Second
▁penyajian
oge
▁surah
situ
Plasmodium
▁SR
▁Sofia
▁Panembahan
▁Parma
▁Rani
▁Ut
2008
erson
▁diharuskan
=3348
=1020
=579
▁Penjaga
="931
="3348
▁cilik
▁lang
satelit
="1547
Pantai
="934
▁(2005).
HK
▁1939,
▁penganiayaan
=1547
▁tenun
▁alga
▁spec
▁Buk
="1021
wisata
="915
▁Pengelolaan
▁bali
▁resi
▁eksis
dition
▁Makau
▁Nat
upaya
▁fisi
▁Sepa
▁streaming
▁Card
▁Brawijaya
sangat
▁duri
acea
Halichondria
Lagu
antha
▁109
▁Dec
▁berdasar
▁Dokumen
soo
▁Energy
▁menafsirkan
▁kekerabatan
=1021
burung
▁mele
="556
▁impian
Maha
▁beradaptasi
="2179
ener
iflora
▁Dick
▁Frans
▁rapi
otik
0,0
▁Lainnya
ə
▁Hussein
▁bertuliskan
=2179
jul
▁Zul
=556
▁Cika
="2180
▁pemikir
Institut
▁Pai
="938
ppy
Harry
▁Alexandria
▁Fisher
ratu
hip
Bang
▁Surah
kung
▁albi
="930
▁Karel
▁Topografi
▁klaten
▁mengutus
=485
="572
▁#1
▁asa
▁cent
▁Etiopia
▁percepatan
▁Alliance
=2180
▁Alonso
▁filosofis
=572
▁dilepas
▁Tera
fish
▁Mé
▁1876
="483
▁Serta
erti
▁Hut
▁Terbang
▁Psikologi
▁Yos
IG
▁1861
▁finish
▁UTC
Die
▁molekuler
="485
▁Rossi
=919
▁Mohamad
ej
Mus
▁Kaba
▁Py
Rock
▁Oman
kampung
▁Antarktika
▁Ilmiah
▁nirkabel
▁pembiayaan
▁nirlaba
sima
=920
opeza
▁Rangga
..."
=497
▁1873
minggu
▁Jennifer
▁30%
110
Bre
dori
▁Pier
=914
▁Kolese
bincang
▁Hoo
▁Agustinus
▁Tou
▁30.000
▁XX
riz
school
="1548
▁Lambert
▁kri
ege
tae
▁Finn
▁halamannya
▁Isabel
▁Flo
▁Bart
▁Moldova
▁Paraguay
=1548
yadi
▁Bour
agh
▁Gent
▁Maurice
▁pecahnya
▁Sasak
▁Arief
rer
▁Volkswagen
▁Robot
="580
▁Anis
=184
Germain
▁mematuhi
=941
dapil
▁Seminari
▁Karen
▁Padma
▁law
▁far
▁sahamnya
▁diteliti
=1427
=584
=918
▁kelihatan
="497
=483
="919
▁Forest
▁Induk
▁pendingin
="1427
="941
▁Helm
▁Situ
="584
nada
▁Mino
dawa
▁Edi
▁Katsu
ğ
▁Lawe
-200
Mr
▁menurutnya
▁dar
Ye
pita
="914
eck
anensis
geni
▁1.500
Putri
▁india
LU
chal
▁Roll
▁CH
▁neg
▁jujur
Kor
▁helium
swa
▁Die
▁2015"
="1508
▁sebaiknya
eter
▁toleransi
▁Meh
▁franc
▁Perekonomian
▁bersikeras
=3347
=1508
▁mempermudah
="3347
angkatan
grade
▁urut
hanya
jaga
▁Haz
▁mudanya
▁memberikannya
Ai
▁aparat
komunikasi
▁Sinema
Sim
▁kemunduran
▁mengesahkan
=580
▁μ
▁Mitsu
ddle
onim
="920
▁Lep
▁don
ulo
▁Ngu
SN
▁Hyundai
▁swa
▁Nyai
__
VE
▁komentator
▁mengekspresikan
▁Ralph
▁predikat
▁cianjur
="2186
▁terdepan
▁penobatan
vokal
▁Shun
Angel
▁Evans
osoma
vey
ě
=2186
▁Suriname
▁Nasionalis
▁Eury
jelas
▁kupu
▁Him
▁petir
HD
▁1955,
▁(2000)
}
▁diperdagangkan
▁Organization
▁Mengenai
▁diperlakukan
=913
▁longsor
▁flora
="1536
igh
Potentilla
kanlah
aco
▁Viktor
▁2016"
▁sarung
▁Arktik
water
▁Borobudur
▁Instagram
▁dipelihara
▁bermuara
=1536
▁eksplorasi
▁Jah
Cer
▁bebek
▁Kue
BN
▁MBC
evi
▁Tapin
▁Code
▁fondasi
▁terisolasi
="918
▁Martapura
▁tablet
▁Aula
▁koperasi
=254
▁Anjing
Malaysia
▁Siau
▁diagram
▁selir
owski
▁"“
▁Jeong
pher
▁Aircraft
▁Lit
▁penerusnya
▁Bujur
resolusi
MU
feng
rash
▁Never
chem
▁penerangan
biasa
▁OSIS
Kur
▁Erwin
▁penataan
▁gli
▁iv
120
▁Engine
▁dukun
▁Lockheed
Amaryllidaceae
▁Awan
illah
▁hakikat
▁Tojo
▁Iz
elan
▁Kura
▁bersa
▁Fir
ân
essa
▁menembakkan
▁Renaisans
▁federasi
▁perwujudan
▁Engineering
liga
▁Kela
▁Sik
▁hel
quet
zal
▁Motion
="254
perangkat
▁Atlanta
▁bertekad
▁hidroksida
nee
▁Craig
mita
▁Wis
cki
▁Mangku
▁Holdings
uen
▁Edinburgh
▁Bundesliga
▁didaftarkan
▁milisi
="1541
27)
▁Rejang
▁radial
▁mendalami
▁Joy
▁1956.
▁KPU
▁Wit
▁Terkadang
amida
▁Hendra
="913
▁Yapen
▁persidangan
=1541
▁podium
▁seimbang
▁gaib
purna
▁Josh
▁What
▁Cep
▁Bhakti
▁perburuan
▁momentum
Del
▁ragu
▁Yue
kayu
▁kenegaraan
▁Leeds
▁Nico
askan
zur
▁Halaman
▁Hendrik
standar
▁Mohamed
▁Colo
▁Library
▁Tomatoes
FE
="1545
=484
▁Sed
lva
▁jasanya
▁komedian
▁Oslo
=1545
▁memecah
▁pengiring
▁teknisi
tank
▁(30
▁sab
konsep
Pla
▁this
="1510
▁Leiden
="484
16)
teki
="940
▁Tujuannya
▁Morris
hud
▁kerajaannya
▁kontras
▁Brigadir
▁kesuburan
=2820
=940
▁Pencipta
▁Lempeng
semi
="2820
▁religi
▁jaga
▁Kok
atha
het
Inter
=1510
▁kemudahan
▁gilirannya
▁1868
▁Mind
▁pengangkutan
thea
▁Amanda
▁Hye
50.000
▁Ptolemaios
▁Stro
▁berlabuh
Char
=498
21)
▁Jaga
▁melempar
▁melihatnya
-16,
irah
▁moderat
▁Iron
▁Biologi
Arc
ury
▁sw
▁Bourgogne
▁Zimbabwe
▁mendahului
▁dikerahkan
▁kesatria
=585
▁Hello
▁praktisi
Sum
vina
▁nigri
▁Din
▁berakibat
alm
▁Mika
="585
friend
▁ogan
▁layang
▁mempelai
▁Jusuf
iceps
▁Kebangsaan
=571
▁Beast
▁panti
urang
mpai
="571
ragi
cina
▁bru
▁pacarnya
▁kutukan
OT
▁memprediksi
▁Koalisi
▁Shield
▁keunikan
▁Husein
▁dihargai
▁mengenyam
nunggal
▁Liber
MR
▁Mister
▁Bada
ioides
▁Artist
▁360
▁Gelombang
="498
▁roll
▁tabrakan
sos
work
BT
▁pakan
υ
▁asetat
ddin
▁mdpl
▁keilmuan
▁yatim
▁berwujud
="2178
▁ingat
▁Bolshevik
▁Kimi
▁Zan
Good
dahan
▁Hee
hah
15)
oca
="575
▁Widya
▁Abadi
fitur
▁Shakespeare
▁diilustrasikan
▁dijatuhkan
=2178
▁pingsan
▁Edmund
=939
=575
▁tangkai
▁Southern
teria
▁Ommatius
▁1955.
▁heran
7.000
▁Julu
▁Kato
Mata
▁District
▁menjelajahi
▁slot
rec
51)
Der
=2861
▁mengungkap
Mah
–17
▁radioaktif
▁Sapi
▁sabun
▁Pendapat
="2861
▁Mariah
▁rawan
▁bone
▁permata
Marie
▁Belle
torium
▁airnya
▁Pendeta
▁dilambangkan
▁kemerahan
▁pic
▁Tennis
olong
▁1867
mandi
tali
=487
▁Kamu
▁Konstantin
▁Basilika
▁penca
gina
buka
="487
53)
=576
▁PSIS
▁Glen
▁galeri
="2291
pla
kki
sawah
▁Vancouver
▁sat
lept
▁punk
▁Omar
ampu
▁Sele
▁CI
maculatus
▁Akuntansi
▁pegulat
=3292
=2291
BD
▁dipicu
▁1957.
="3292
▁FIA
2009
▁ikat
▁Noto
▁Demo
▁Fuku
="576
Tang
kula
egan
Tam
▁50.000
▁penghancuran
▁Dekan
▁Senior
▁dicetuskan
▁nusantara
manni
▁Owen
▁Hippo
▁Yao
seong
TRA
▁penarikan
endam
▁penembak
eme
▁Lurah
▁Penetapan
▁kemasyarakatan
▁kilogram
н
▁1875
▁Yudha
▁Hyang
ould
modern
Mark
▁Dul
ISI
rekannya
▁tera
▁3.0
ibi
▁kokoh
ocerus
=581
="939
scher
▁Labuhan
▁María
ardo
▁koma
▁homo
ntung
wie
▁run
Camp
▁memperbolehkan
▁samurai
="581
indu
satuan
enza
arm
▁Demonax
▁Dahlan
▁Glenn
OP
peti
lakukan
IX
▁petinju
pti
▁Scha
nabi
▁Murray
▁ritel
▁Reli
OM
ography
▁Romo
What
gulung
▁angkut
▁Arca
filia
▁genera
von
▁Susu
Operasi
▁pembahasan
▁sirkulasi
▁2:
▁resimen
▁2018"
▁Iwa
▁Core
▁Lithuania
▁Berau
▁CM
▁bebatuan
▁Ketinggian
▁membesarkan
▁mengha
▁Fly
▁dalang
▁bingung
▁menje
▁Marine
dho
▁Sharma
13)
unjuk
klusi
nig
▁kebingungan
ANA
▁Hidayatullah
▁turis
▁Basil
▁merger
▁laun
▁Ying
DF
▁Picture
▁Pelaksanaan
cini
▁pelestarian
▁sia
▁bawa
marga
jol
▁seringkali
$1
▁Claude
▁sebaran
▁Yamaha
gana
jut
▁Lagi
type
yum
▁Holmes
unu
▁Michelle
▁Rahmat
nard
semen
lukisan
▁seba
tumbuhan
▁hard
▁Kehadiran
▁TUHAN
▁diabetes
Tor
▁Waru
▁Queensland
▁(1993)
▁akuntansi
▁Patih
IB
cross
▁dam
Tidak
ddha
▁instan
▁Franc
▁Kanselir
▁Distribusi
▁Gadjah
=927
=519
▁piring
jani
="519
mela
BL
▁militernya
▁Ontario
▁dsb
▁Penasihat
laus
=557
▁Laskar
wangan
▁Nir
FS
Ratu
▁Stu
▁Hyo
▁Koro
▁Tag
▁Eyang
iu
▁sayangnya
="557
▁1.7
▁Peperangan
▁adonan
▁bolak
▁Eurasia
▁karirnya
▁Unicode
▁jajak
sut
▁camp
▁Princess
▁tinta
▁Cent
▁Deng
▁(1997)
▁Rah
▁temurun
gelar
▁mandailing
gian
▁terduga
▁Kak
▁Edwin
ilis
▁deras
kup
▁berlapis
Lan
▁mahir
▁IN
▁Harrison
▁Mustafa
born
mban
▁pensiunan
▁kapuas
▁toilet
▁lombok
▁pinggang
▁Sophia
gap
truk
▁ronde
▁Kana
caya
▁arondisemen
▁direnovasi
▁tingkah
▁Hamzah
▁1954,
bey
Sil
▁Panicum
▁regu
▁·
vesti
istan
▁Deb
Bintang
▁Kasi
▁kulon
▁1859
▁2019-2024
▁Peninggalan
▁pemrosesan
▁vegetasi
=568
▁Konrad
▁Zero
▁Formasi
▁Guna
▁berakar
▁Catur
▁Mpu
beberapa
▁sekte
▁UNI
kep
graph
bid
hold
▁mah
▁Ost
vice
▁alabama
▁Brooklyn
▁semester
▁kedekatan
asri
▁fermentasi
▁Gugus
yoso
kaya
▁Siri
▁3,5
▁kadal
▁kebanggaan
▁kekosongan
θ
▁keberatan
▁Falcon
="927
="568
ales
▁Lucy
▁senator
▁Corp
deg
▁Orbit
▁Jeruk
▁Kakak
gae
▁Division
bass
Presiden
▁pedas
bbi
Sat
▁Flor
▁Break
▁Eddy
▁dipersiapkan
05)
▁Sina
▁betapa
boh
▁Madya
lation
▁Alt
▁jalannya
▁(21
▁keter
oper
▁Binjai
▁Senegal
▁dianjurkan
▁memperlakukan
▁Menggunakan
▁(1998)
manah
▁Food
▁gil
▁Domini
▁peternak
▁pendidik
belah
▁Russia
▁Step
ṣ
▁membenarkan
▁pengorbanan
▁bermunculan
langgar
tiplex
ophy
▁ambisi
▁How
▁Nissan
yt
▁terburuk
▁polusi
▁keyboard
▁Teh
agan
vant
neri
tase
▁mad
xis
KR
▁Pengawas
▁Sd
▁Pit
▁Friends
▁Korintus
▁aspirasi
Abd
=477
▁Lat
▁Marxis
▁108
▁Hugh
▁Fon
Kep
▁homoseksual
▁Prajurit
▁pekalongan
▁pengangguran
▁Campbell
▁Sig
▁dipandu
▁multinasional
▁jurnalisme
▁Menurutnya
▁profesionalnya
="2182
▁mesti
▁Vor
warta
DR
40)
▁Karta
▁1940.
▁didalamnya
▁bengkulu
▁presentasi
=3293
=2182
▁trauma
▁martir
="3293
Mat
peta
▁berdaya
="477
▁Makna
▁piringan
▁mantel
▁pengrajin
▁diragukan
▁Justice
=550
▁Paramount
henti
▁Minor
Far
▁Blood
▁por
▁Kari
agar
naya
Tur
Jack
▁Angkola
▁ditemani
▁kebesaran
▁sandi
▁pengangkut
uq
="550
▁Tonga
CB
▁CB
ा
▁Kashmir
▁bermuatan
▁jambu
plak
bukit
Nga
wich
▁runtuhnya
sera
▁Ele
dulu
▁ditekan
▁Hon
▁Pertamina
▁Promosi
ambil
yuh
▁waduk
▁bakau
▁dos
▁UGM
▁Bron
▁UUD
56)
▁KAI
▁kemas
tunjuk
▁Sekjen
sii
▁penyusun
▁may
agne
▁susah
▁terlarang
▁Murung
idin
·
ان
▁Donau
inah
▁NPSN
▁menyertai
▁milenium
eran
ène
▁menyalahkan
▁Kanjeng
isse
▁Comics
▁70%
▁Mamasa
▁Alue
▁Rein
="586
▁mis
ock
▁Tetap
▁penyembuhan
bakan
ikatan
▁Too
punctata
="1521
nald
▁parti
rant
▁Lai
▁vital
▁Aw
dine
▁Committee
▁Firenze
▁sidoarjo
▁IKIP
=1521
hand
opoda
▁Adik
▁Proklamasi
spect
eer
▁ali
▁Perawan
▁Ekspres
▁Cak
▁Niko
▁Sham
▁keragaman
▁dirintis
donia
=586
▁Gala
zil
▁Kendari
▁Seru
▁lebak
▁sesudahnya
▁Leonard
Menteri
45)
–4
hitam
▁Gunungsitoli
▁surabaya
▁nafsu
大
▁Survei
▁Command
▁Yen
Abu
▁ibundanya
UK
▁Yar
▁della
Tre
harja
▁Andri
▁2.2
▁Pengakuan
="522
-17,
Play
▁Karan
▁aula
▁firma
dig
2020
wafat
▁cintanya
Mem
▁Maatschappij
▁kreativitas
▁pepohonan
▁Gundam
▁berkonsentrasi
▁simbolis
▁Ultra
▁Lebong
▁Siantar
Tari
ating
zir
amen
▁exp
▁Coast
▁Lubis
etsu
▁disekitar
▁satupun
=522
▁Manajer
▁Sukarno
▁Baekje
judul
kuil
▁Jambu
▁Khalid
▁Bungo
▁kong
meny
▁Prabowo
▁Mengingat
loe
▁Kis
▁Ori
▁poster
▁Ame
▁Link
awu
hoff
▁Europe
▁Satellite
▁Kejuruan
isir
▁terhormat
wala
▁disamakan
▁Pembantaian
▁will
▁→
▁1,2
▁Nanga
manga
▁1863
▁Sahabat
▁Kansas
=582
=503
▁Slo
Music
="582
yx
Indo
politik
▁Edition
▁103
▁DR
▁qua
rion
▁rufi
generasi
▁indramayu
▁simpati
▁penyebutan
="(35
▁ranjau
illes
▁Lennon
▁megah
▁subsidi
▁enak
▁Pernah
▁Asuransi
▁Pod
apu
ør
▁ir
59)
Quran
▁Kesejahteraan
▁tertunda
▁Variasi
▁pemasok
▁Sheikh
▁paspor
post
▁Sevilla
▁wafatnya
vana
▁Salman
▁Indiana
permainan
kuasa
diningrat
▁glukosa
taman
▁Perlu
▁tinju
▁wajar
chat
ambang
="503
▁Rumus
Sei
Tiongkok
▁Ambar
ferensi
▁colspan
~
ntoro
▁Aichi
▁terbaiknya
▁Pidana
rp
Roman
▁Wonosari
▁dikontrak
▁ujungnya
▁Stock
Mei
mato
▁melemparkan
▁berawak
Poli
Im
jauh
▁bawaan
Game
ù
▁Exchange
▁bojonegoro
▁sketsa
▁selisih
=2812
=574
fried
▁Nagasaki
="2812
▁Pieter
="801
tenberg
▁Saul
ف
Joseph
▁60%
▁Tea
▁pelarian
mangu
▁HKBP
▁Talaud
▁Abbasiyah
▁pelengkap
▁memesan
bayan
▁Irene
upan
="1239
meninggal
Thomas
2),
▁Ib
tial
▁Rib
park
▁Dono
nahan
▁penunjang
▁Kegunaan
=1239
▁Most
="574
▁104
rencana
▁Try
▁Farm
▁Xia
▁atribut
▁Maja
wanita
roma
▁Maju
round
▁Nevada
▁pelacur
=801
Bro
Padang
xe
kyo
▁TO
▁call
▁α
▁pusatnya
Gun
pring
ל
▁antagonis
▁kelinci
▁banyumas
▁proklamasi
▁Mura
tham
és
▁state
30)
▁fosfat
▁pembesar
▁albumnya
▁Perilaku
▁Persija
▁peluncur
▁mendanai
▁Georges
bé
▁Village
▁Six
▁Umm
▁Lorenzo
▁free
▁List
66)
▁Budapest
▁Peternakan
▁mengemudi
▁generator
▁menc
▁melayang
▁Demang
Top
▁Stars
shita
57)
ekonomi
pemerintah
▁1840
▁Fiji
▁definitif
▁wawasan
▁gresik
plus
▁suaka
KPD
▁janin
▁monopoli
▁Motors
▁kandungnya
35)
▁Grim
▁Marsh
▁Sering
▁operasinya
tions
▁AH
г
▁Transformers
▁Artileri
=545
▁rekonstruksi
="1530
▁Oberea
="545
▁112
gumi
▁alkali
▁Prem
▁Wayne
▁Imp
▁1941.
PKI
ochi
▁102
▁memadukan
▁memfokuskan
▁Kepercayaan
tenaga
▁After
adu
▁kapitalisme
="1520
▁Setan
▁konsul
▁termo
tingan
▁Dimana
evolusi
colo
▁Mimo
▁Adanya
▁Duo
▁mewajibkan
▁dinaikkan
▁kosmetik
=1530
=2866
▁komplikasi
▁pabrikan
▁Itulah
▁diadili
▁membalap
▁Gatot
▁Biji
▁Oxyopes
▁Normandia
="2866
lemen
41)
sou
luas
stant
▁Imperial
▁Kemen
▁Kontrak
West
=1520
▁bijaksana
bungan
▁But
ulia
▁Rogers
▁Fase
▁LRT
▁rasanya
▁TB
350
Richard
ified
oise
▁Kadir
▁sperma
bru
lamin
▁Neil
▁terluas
▁Zhen
bers
roll
dj
▁anggapan
▁Clu
▁didapati
sutradara
▁bilah
▁beregu
iris
ambon
Port
▁rahim
▁Sangihe
▁Slam
simil
▁Alm
▁Sutra
▁Paman
▁Aqua
wave
lantik
yuk
▁gri
Win
▁persilangan
▁Austronesia
▁airlines
▁dimahkotai
▁pengasuh
▁Binatang
▁kanton
▁Kaur
▁antologi
▁Cipta
▁Felix
kuning
▁patut
=177
elin
–10
▁Bambu
▁KB
Call
Mun
▁(3)
namo
lex
▁Name
▁spa
▁pr
▁iblis
▁Latihan
▁Animasi
▁Josef
▁aktual
kulon
▁endapan
jor
▁Tumbang
phil
▁(2018)
▁Smp
Afrika
▁Kobe
▁Lokal
="177
▁Buck
Cat
▁Wie
▁PON
▁1869
▁Berkeley
nant
▁Roberto
▁Christina
▁menempatkannya
▁Winter
▁simetri
pani
▁emp
teknologi
▁1953,
▁Akreditasi
▁Penjelasan
▁menumbuhkan
▁payudara
▁meditasi
▁Cimahi
▁bilateral
verse
▁Eunidia
▁Sera
Mil
▁balok
▁Lane
="2001
hama
uth
disi
ngke
▁berpura
▁Birmingham
▁Yakobus
▁penyiksaan
▁Intelijen
▁dipopulerkan
xing
▁Tsar
▁best
▁produktivitas
▁melayu
jon
▁jubah
58)
▁Iso
gini
▁Samar
inum
▁nominal
▁Winston
▁Rico
▁memintanya
▁Rahma
▁portal
א
▁terampil
▁teguh
game
▁kenangan
Mel
▁Zainal
nensis
▁Sudah
▁konfederasi
▁seksi
▁Lok
usta
host
obat
▁Minami
mate
Soe
17)
Pre
▁Miya
▁disimpulkan
kie
▁Wonder
ás
tov
▁PU
▁Nicolas
▁István
▁STI
▁Pok
▁Poh
chard
=42
EX
▁rupanya
GE
▁sing
kuler
Fre
▁Rights
encer
YA
▁Sikka
vus
tindakan
▁Pembe
▁hand
▁stroke
▁menginvasi
▁diperiksa
▁penandatanganan
▁Fortune
▁Lasem
▁keramat
oux
▁solid
▁Bantar
▁mang
▁Pagu
▁komunisme
stat
penuh
▁Penjualan
▁Quebec
▁iTunes
▁kelulusan
▁disertakan
▁konspirasi
▁Gandhi
Wono
▁ranting
▁permen
▁kunjung
prov
▁Manis
▁Cad
imah
▁Mulyo
Italia
▁Bendahara
▁Hudson
elu
ungu
▁Herodes
▁2020"
▁suri
▁xix
▁magn
▁Geologi
-16.
▁karbonat
isma
36)
thus
▁med
▁Sahara
▁Carey
▁tersingkir
▁genosida
nong
▁Lestari
word
▁digali
▁kesal
▁wajahnya
Hor
-18,
▁tr
▁Kant
9.000
▁1877
▁Kesuksesan
▁kepergian
▁permusuhan
▁Siklus
▁mendesain
▁Short
kab
▁cek
ient
▁neneknya
▁pelan
cken
point
pendek
▁Gaon
▁heli
SH
▁laris
▁menekuni
▁ekstensif
▁Ritual
▁Io
▁1954.
▁Babi
▁Vokal
▁Tina
▁Dome
nobu
ogaster
="520
▁Awa
Latin
▁Sweet
▁1952.
▁Airlangga
▁nuansa
▁Eagle
Golden
▁Seberang
▁Viking
Pseudo
▁nikel
amma
enembak
▁Sikap
▁Dep
▁Bible
yevich
▁pemotongan
▁Torino
umbang
▁DE
ön
Hukum
▁Row
China
▁Silsilah
▁Gujarat
▁Montreal
▁Penulisan
Gal
▁analis
▁musi
okrat
Den
etus
22)
Frank
tone
▁komprehensif
▁olimpiade
=520
hito
=518
▁Work
▁plus
44)
▁Atau
patung
clo
▁Arabia
▁Tentu
berry
="518
đ
▁Septuaginta
▁anorganik
▁meresmikan
▁cam
="1544
ebo
-31
="808
▁samaran
▁bla
▁Novi
▁Korupsi
▁hibrida
▁samosir
=1544
▁Terpadu
▁alamiah
▁curam
▁harmoni
=290
stand
12)
pei
▁Kurang
▁Kyo
▁Jenazah
▁mengesankan
▁Medical
▁Chong
▁Kain
=570
=196
▁Hook
▁kendala
gunakan
identifikasikan
poh
▁Melaka
▁Ricky
▁Marin
="290
▁Dil
26)
▁1943.
Dam
▁Kama
Smp
▁epik
=808
▁Africa
▁ring
▁lute
▁jaring
guard
▁Rick
Est
teli
="570
nese
="196
▁Ghe
doa
▁Sino
▁UM
▁Kingdom
rekan
vator
▁majalengka
▁memasarkan
▁indragiri
▁Aaron
▁were
potongan
▁Prosopocera
▁Sue
ngkut
▁fin
78)
▁Alpen
rill
▁Nicola
▁Ard
▁beriman
▁(23
rā
▁Koran
rikan
23)
▁Arema
How
ω
▁Enterprise
▁Connecticut
▁menyisakan
▁channel
▁Hawk
="1551
▁iOS
▁HP
▁plot
▁lava
BK
"&
▁Tampa
▁Banjir
▁Mina
▁Momo
▁Nin
́
▁tangguh
▁ombak
▁keluhan
=1551
▁Tetangga
▁cuma
bagai
ospongia
▁etnik
▁apel
▁Larry
▁pemiliknya
oxy
lawi
▁106
▁bercabang
▁Galia
▁tukar
rig
telli
▁antusias
▁dipulihkan
▁memamerkan
▁menculik
▁Penerangan
▁kedelai
380
▁Fakta
▁Basis
▁Terry
▁gang
▁Meranti
▁Saturnus
▁sentuhan
▁Sawit
▁CR
▁Humbang
tanggung
▁penelitiannya
proses
▁menantu
24)
▁Arondisemen
▁Economic
▁dibudidayakan
▁Topeng
ikal
ffen
Muara
▁pemusik
warno
▁Watch
▁Word
07)
▁Satria
▁Guang
chor
wenang
▁takluk
▁Meninggal
▁digulingkan
▁majemuk
▁diagnosis
▁diferensial
▁Shell
▁Murphy
stol
▁Raider
High
▁mobile
Ari
▁mobilnya
54)
rancang
▁head
▁Arian
▁kecap
▁Tala
▁diandalkan
ה
▁Nyonya
▁Koptik
▁Malayalam
▁Swe
▁diplomasi
▁cuti
▁penahanan
▁Tempo
50)
▁Syl
RD
auer
sada
ffin
▁win
▁kuku
pasar
sous
▁cangkang
awiyah
▁siswi
bantu
▁cou
▁sagu
▁pur
lene
▁Selangor
▁115
▁Arkeologi
▁lukis
Benz
▁kemiri
▁HBO
19)
▁Permata
▁Empire
▁star
wira
▁Simeulue
▁inovatif
▁Xinjiang
▁Purnama
▁Genova
▁SMS
▁Teu
▁Pesan
▁Machine
▁mengurusi
▁parv
▁Konsul
▁Beth
▁under
Myrmarachne
▁aransemen
▁kepengurusan
▁penomoran
▁inframerah
▁Apalagi
▁lutut
▁mengecam
=507
▁Pengobatan
▁Selayar
▁Rendah
▁Saud
▁Chile
▁Ayub
▁komet
▁1874
uensis
scape
ulum
sentris
TAN
▁Nuklir
▁komuter
Ia
▁Florence
▁bermasalah
▁Gunungkidul
igera
▁Nash
▁XP
▁Heavy
▁subang
▁Ulang
▁tag
Eumic
▁gelas
▁menj
▁perkemahan
▁Kecepatan
▁diurutkan
▁Shaw
▁Cour
▁SMU
="507
▁land
vian
curi
erra
▁Purwo
▁pallid
Pterolophia
▁sambungan
▁Mochtar
▁pertikaian
▁which
ï
▁Ima
▁Melati
2000
▁las
suit
▁jurnalistik
▁Teorema
▁Daratan
▁Krueng
▁Ach
▁gembira
Departemen
né
▁Dali
▁iPhone
▁diwujudkan
▁SN
▁stu
▁Hyp
▁Martha
▁(1996)
▁Ladang
▁leuco
▁Rena
ragu
▁و
shū
▁Meunasah
▁kapel
▁Amanat
▁Community
▁Singkawang
▁kegelapan
▁pandeglang
▁ponorogo
▁MacArthur
yū
eren
▁Palangka
▁kW
elemen
bour
iling
▁Belu
▁Sambi
▁Market
▁anggap
cular
▁berkuda
▁200.000
▁Ura
▁Basa
patih
▁Pia
▁Vita
▁Penerapan
▁primitif
▁Kedatangan
▁Bintan
▁Basel
▁Rita
▁(1995)
urat
62)
▁Baha
▁Wulan
är
ych
▁Bed
▁berk
▁kontinu
▁Puskesmas
▁Rotterdam
▁memprotes
▁pencalonan
▁dikombinasikan
Day
▁Bomb
▁berdamai
audi
rc
▁city
▁pengalamannya
▁beranggapan
▁Sena
▁piagam
▁jombang
▁meminum
tii
▁Jura
▁Aset
▁Gale
gny
▁silam
▁tuna
▁resor
▁residen
▁Kawi
kumpul
▁los
▁bias
▁Eugene
Kristen
Mari
▁Software
▁Pangandaran
▁Churchill
you
RU
▁melan
yard
▁Nancy
Zo
▁rumor
▁Boss
▁Pablo
▁penata
▁Expo
▁RB
▁oval
▁gong
▁Autobots
▁berteriak
▁terjangkau
=3289
="2333
▁Federation
▁MK
Satu
▁Wald
="3289
Ray
▁]
bangun
Bun
▁kart
▁pemberi
Chan
ques
▁strip
suma
posi
▁warganya
▁Indi
siswa
Untuk
maya
gedung
▁dituntut
▁taksonomi
▁Pakaian
base
jay
▁dibalik
▁Rasyid
▁pahit
▁institut
dukung
BO
▁Bear
▁batubara
▁urin
▁Pete
▁Kebo
▁transparan
49)
Academy
Kepulauan
=2333
▁Nopember
▁distributor
▁memusatkan
▁keracunan
▁digerakkan
▁pendorong
▁Dirjen
▁dokumentasi
▁Vil
▁santa
▁juli
▁arm
▁virid
▁BI
maha
▁Engel
▁mengulangi
natus
▁Moor
metil
▁balon
▁(28
▁ukur
▁Manik
-32
▁Primer
▁kesetimbangan
▁meloloskan
▁ditafsirkan
▁digoreng
▁kancah
▁Bulungan
▁Alfa
="2290
riff
▁Pelita
▁praktiknya
▁Alamat
▁Elvis
▁memo
▁magang
▁Youth
▁Want
▁Manchuria
▁Zam
▁penunjukan
xu
bourg
▁Keberhasilan
▁Pulitzer
▁mengiringi
▁ibunda
▁hen
▁2014-2019
▁Uma
jia
camp
makam
▁Rec
STA
▁proyeksi
▁Bakti
▁Progo
▁menugaskan
=2290
▁Commission
▁Guangzhou
42)
▁Santoso
▁Sasuke
▁Suami
▁450
▁Yes
▁pemakan
▁Utsmani
▁Pere
▁Konservatif
▁subtropis
=2870
▁Cornelis
phor
="2870
skop
▁Sandra
▁TI
CP
njungan
▁fulv
Hangul
sino
▁Miz
ouw
▁Pembunuhan
▁cast
molekul
▁dicantumkan
▁bertukar
▁latin
▁Campania
▁sopir
ggin
▁rangkap
nggeng
▁1862
▁Hetero
Apa
▁Gama
tou
▁gemar
▁pucuk
syid
▁1935.
▁mengonsumsi
▁mikroorganisme
▁menghapuskan
▁Tercatat
shar
Bali
▁feri
▁2006)
▁Civil
▁mengga
▁Palace
▁1918,
dry
▁Raffles
grid
▁Explorer
▁pestisida
=547
▁Revolusioner
▁diwarnai
▁cucunya
▁2010)
▁Rangers
▁sukarelawan
sini
▁Blanc
amah
onde
▁Daging
ongo
oya
▁Sega
▁Padi
▁1951,
CN
▁Milik
-17.
▁karantina
▁kuantitas
▁Mineral
▁Caroline
▁dolok
amina
▁Cohen
▁Pung
dusun
▁Pratama
▁memer
UT
91)
cheon
▁25%
▁center
▁konsili
detik
▁Jake
sejak
oke
="547
Alex
▁feminis
▁style
sintesis
ragam
▁chan
putar
▁Bid
▁Newcastle
▁Westminster
▁dekorasi
▁kelangsungan
▁suplai
▁bersamanya
▁durian
▁Aires
gonal
osin
▁Panggung
▁rubr
▁pengha
▁Pangan
mot
jad
▁pagan
yet
="1201
▁list
▁Adelaide
▁penyesuaian
▁alergi
▁Yesuit
hashi
▁Emily
▁entah
guin
▁Pek
▁MB
▁petinggi
▁Songs
="1549
▁rembang
yanti
▁135
▁jernih
alla
▁Sabat
tania
▁mojokerto
=1201
▁Harvey
▁kari
06)
▁Tree
Turki
320
▁Batur
lika
guer
eaux
▁2.1
penye
▁drive
▁Jaka
jalur
Istana
▁proporsi
▁bergeser
Tahun
▁melemah
▁Merek
▁Weda
▁Ishak
▁Angela
ampar
▁Stre
▁Mawar
Buku
tsuki
▁khatulistiwa
=1549
▁fusi
▁Cipinang
▁Yaitu
▁Mukim
JA
▁GA
▁menggu
▁Conan
ates
Tha
▁"...
▁Leng
▁Player
▁Soyuz
penden
ube
makan
Lang
mudi
yati
Jembatan
wok
▁Yudea
▁Talk
vati
▁penggunanya
▁Bass
▁potong
imbangan
▁2016)
▁Jatinegara
Tiga
▁$3
001
▁Nation
▁Ska
▁Doc
dug
wulan
anjung
▁atraksi
ά
▁kapita
▁gerhana
▁bay
▁Future
haji
▁Hughes
asam
▁2010"
▁BPS
▁globalisasi
▁Roland
▁1865
\
▁peredaran
raz
▁dikhususkan
▁Menyusul
▁pianis
brand
▁Janeiro
▁Vit
litz
▁Yam
▁Ramadan
▁bolaang
▁Baptis
realis
▁sinilah
63)
▁disengaja
=2756
ehan
▁konsesi
▁Husain
▁Middle
dinata
stop
="2756
79)
Bumi
95)
hawk
reh
▁metrik
Ram
▁Wor
-80
pasi
lawat
lux
▁Ina
▁Keselamatan
▁penundaan
▁ciamis
▁unggas
▁Tomohon
▁Neolophonotus
▁Yazid
=794
Luc
▁bung
="794
▁PAN
▁Fujian
rance
lena
-18.
berger
▁pemukim
▁Yat
▁Kyushu
▁dikemas
▁Sora
▁Selepas
▁Computer
▁datangnya
dora
▁tampan
engkol
▁Władysław
▁Stuart
=942
▁Barong
bud
1996
Pusat
▁Domain
▁tab
kim
▁mengawal
32)
idium
▁semu
idion
khususnya
nath
soma
anza
Dinasti
▁mendasari
▁didatangkan
▁spekulasi
▁lamongan
▁Rais
▁Rapat
▁bri
1995
illus
Flo
belakang
▁Lost
ش
▁Skandinavia
▁Guadalkanal
▁Imperium
▁Māori
▁syariah
▁Transport
▁Navy
▁pengikat
▁Independent
styl
▁perancangan
180
Bir
▁filter
▁pir
▁Chair
▁Rush
="942
rame
▁Sandy
▁Mitchell
=2617
▁batalyon
▁ambang
larut
▁tepian
="2617
rada
▁Meg
▁Sepuh
urban
▁peranti
Daniel
ame
▁sakramen
▁Saksi
▁__
▁2022
43)
▁polos
cuk
▁giat
celli
Asosiasi
▁bentang
▁kelopak
▁pascasarjana
▁service
▁fri
▁Samoa
▁Dennis
▁Chase
last
rahkan
▁128
▁hub
aldo
ely
="341
▁TE
▁Deutsche
jid
▁dollar
▁silikon
▁jamaah
▁menyuarakan
▁Feb
▁Taliban
37)
lubang
kaku
▁kejutan
ML
karta
▁melintas
="203
▁Kuwu
▁Tip
▁Sidempuan
▁dianugerahkan
▁meragukan
▁Rihanna
▁Mughal
=341
▁Telekomunikasi
▁Yeremia
dita
umpang
inti
orbit
tl
1.0
▁Bakrie
▁Mia
70)
emban
="1552
nomor
assi
öl
▁Leonardo
tulis
▁brand
▁Antoine
▁fra
dowo
▁Cloud
▁nas
disiplin
▁Gelora
morf
NP
▁TN
▁Lantai
budak
▁Mate
stru
=1552
▁BC
Des
▁tunai
▁kekal
▁input
▁harmonis
▁Vic
show
▁Dao
▁Gamb
▁bicolor
Loire
▁(1992)
▁Gir
▁Rudi
▁Kirk
SV
berita
▁PPP
▁diproses
SMAN
▁melupakan
▁menyalurkan
▁dongeng
▁demografi
▁1600
▁bekasi
▁Advent
▁Shao
▁Toshi
▁ut
group
▁sekelas
="1543
▁Gou
▁golf
arakan
zie
▁4.000
▁bl
▁terdeteksi
=1543
▁didakwa
▁ekonomis
Av
▁Teman
▁rh
Boy
▁Kop
▁len
▁berlian
door
▁Dipati
jau
▁son
hoo
tanpa
▁Kavaleri
▁bersemangat
watan
47)
EG
▁terbangun
shiro
darma
likasi
▁membelah
▁Jeremy
▁polinomial
▁berkenalan
▁berdiameter
▁Rangkaian
▁reptil
▁Alberto
▁Brahma
▁Teritorial
ische
▁Doctor
Mala
▁Zar
tujuh
▁ritus
quest
▁keluarnya
xian
wani
jika
label
▁Tennessee
▁kognitif
▁jenuh
▁ME
pek
zol
▁MW
▁pegangan
▁Fah
▁sepakbola
▁Kwan
▁fun
▁Bry
besi
▁Kuma
Ly
▁Klemens
▁Cameron
▁pembuatannya
allo
▁gamb
Ves
thos
▁Pendudukan
101
▁Our
▁ye
▁Bengal
Sub
bahkan
▁Bug
Jika
▁Jorge
member
▁Tamb
▁Rif
sesuai
▁kesedihan
▁mempertemukan
▁lesbian
=639
▁menyembah
▁2007)
▁Xbox
▁Gat
asem
▁Singles
▁pemuka
▁menyesal
▁Lorraine
▁IPM
▁CP
▁Mohammed
bunuh
52)
▁CN
alli
▁Chae
▁PE
▁apostolik
▁keberuntungan
▁kenyamanan
▁observasi
▁inflasi
Rus
▁Galaksi
▁berlebih
▁2013"
▁sampingan
▁Tomas
Tro
▁Gogh
▁fusc
="639
▁Speed
▁Giuseppe
▁Apakah
▁ratio
▁Keith
▁Missouri
▁perhelatan
▁Siregar
▁diutus
▁interaktif
Bendera
▁terjatuh
▁Pong
▁4.0
▁−
HC
▁2015)
inensis
hwan
▁Spring
▁Pengendalian
▁berlindung
2021
lob
▁Sanders
JS
▁into
schap
▁Yesaya
▁Lingkar
▁(1994)
="1546
▁leng
Ash
▁Dibangun
▁Komp
▁Lyn
▁karbohidrat
▁Buenos
=1546
▁Lapisan
▁Kannada
▁Guardian
▁BS
▁Mass
toon
ebu
bebas
tex
▁dipecah
▁berbukit
▁Penerbit
▁Bebek
▁tambah
▁Inspektur
▁Kepemimpinan
▁bull
▁sandera
▁2014"
▁Bakteri
09)
▁indikasi
▁Ilahi
▁Tlogo
▁masif
▁(32
▁Nikolai
▁handal
08)
▁Som
▁kembalinya
Christ
▁Klein
tribusi
recht
▁Lé
▁Aid
Una
▁kontraktor
▁Sophronica
▁Helsinki
▁kelelawar
▁periklanan
▁substrat
▁Dukungan
▁kristen
▁rahang
▁Ibn
▁Fr
GS
nologi
terapi
leman
▁lelah
▁align
Phil
Dalam
▁indie
▁mener
=3295
▁vertebrata
▁Crystal
▁dicintai
eger
="3295
▁gan
terus
▁kedudukannya
Hum
ifah
seki
▁magma
orong
▁Kuri
▁XV
▁Kie
chae
cela
militer
▁Lun
fun
mila
▁didirikannya
▁Jangan
▁Wahab
tinus
=3290
▁Tyr
δ
▁kendal
="3290
ów
▁tertawa
iak
▁Director
ר
▁Catalunya
▁sintetis
▁wahyu
▁Kelautan
Kun
LT
balan
zard
▁1.9
28)
▁panggang
38)
Ahmad
thro
▁Akar
sosial
iringan
▁Acc
▁1933,
46)
▁Kit
▁Komedi
▁Boe
izer
▁Bonn
▁jingga
▁Calli
▁cekungan
▁difungsikan
▁Alma
▁karawang
▁2.4
ned
="1428
▁simpul
▁Lala
▁127
▁Dre
▁Mount
65)
shot
ophylla
67)
NAS
nori
dica
Oliv
▁regnum
=2621
fold
="2621
▁arc
▁Peace
▁Pino
▁Atlas
▁terluar
▁Manchu
FT
▁Perda
▁(27
SDN
▁Cilegon
▁Rong
▁1951.
juta
û
=1428
=2869
▁Pascasarjana
▁empiris
="588
=588
▁mengeluh
▁Teknis
▁Kapur
uo
▁Perum
▁disebarkan
="2869
▁Toyo
▁PLN
▁Dikenal
Laut
ngu
▁puri
▁Riko
140
Candi
tahap
bahagia
▁Niigata
▁Antariksa
▁sembari
pori
▁serapan
ject
▁litium
▁pembatas
86)
▁tanahnya
akti
layan
▁kemudi
▁1933.
pana
▁Nada
▁Ava
DN
▁selera
IPA
ombak
▁Mail
▁Bintuni
▁samudera
▁kronik
▁Orange
▁penghalang
▁GK
▁ID
biara
kantor
ofa
▁bertumbuh
dler
▁mengenalkan
=203
ulur
▁Sawahlunto
▁Tajikistan
▁afiliasi
▁apresiasi
▁menguraikan
▁moneter
lensis
gigi
▁henti
▁lingkar
▁miniatur
▁berambut
▁Berawal
▁175
▁Korawa
aspis
▁Nadu
▁Kertas
▁Jabung
31)
wata
▁Hili
▁Leptogaster
▁Acalolepta
▁membuahkan
▁terobosan
▁konvoi
▁kelelahan
▁Ryukyu
▁kompensasi
Munisipalitas
Tionghoa
="480
arif
▁gugusan
Sab
cture
01)
tisisme
▁Sabu
warni
▁Report
Pun
▁Tmesisternus
▁menyinggung
▁Perkiraan
▁feodal
▁Lev
▁(2019)
Sos
UNG
▁interval
▁lat
▁sopan
▁Seseorang
dic
▁Crow
▁From
izen
▁Jamie
▁AIDS
▁Shri
▁obscur
▁2–1
▁Speedway
▁Hop
lumba
▁terlarut
Saxon
▁perusahaannya
▁melamar
▁perancis
▁Darah
▁panik
="1519
aktivitas
▁MU
▁1938,
▁Athletic
▁garnisun
▁terbenam
▁beraneka
=1519
▁Utrecht
text
▁biokimia
▁privat
enbach
▁pole
92)
Anna
▁Arie
▁Rudal
partikel
tary
▁Guillaume
▁mangga
Dari
rico
=480
▁diterbangkan
▁eksploitasi
▁mengunggah
▁zaitun
▁bersebelahan
▁Colin
ussalam
▁simetris
aduk
objek
▁Cord
▁Curtis
▁Madu
▁have
▁putar
▁mual
▁badannya
gadis
▁mall
normal
lemba
ffy
▁Dulu
▁bibit
kurang
▁dal
▁Nim
buah
child
▁suffragan
▁diedarkan
▁HA
▁Guangdong
▁diawasi
temurun
▁Sanggau
▁kaidah
▁BO
suci
kuat
▁saleh
▁cra
▁Ice
▁Bungku
lae
▁Matang
▁radi
▁Cassi
▁Type
▁rotan
▁Mangga
▁Ramon
gori
▁Sedikit
▁diasosiasikan
▁Cile
▁pinyin
rabi
▁melintang
▁amonia
▁pecinta
EST
roe
▁bangka
rika
Neu
▁Tanaka
▁Antiokhos
▁Minnesota
▁bengkel
▁Petra
=871
▁Pluto
▁1953.
▁Warung
▁Lotus
▁Pain
pakan
▁menguatkan
▁their
▁Sit
▁107
rahim
▁Poros
▁patungan
▁Wisconsin
▁kesusastraan
▁menaklukan
▁brebes
▁menggarap
▁manuver
▁intens
▁Papirus
Kas
▁Tetra
▁Tech
▁genap
apo
34)
Radio
=500
▁relawan
="543
▁badak
▁Dipa
▁Rakai
Pont
▁Perkawinan
▁mencukupi
▁sumedang
▁terpapar
▁bertolak
▁dijangkau
=2626
▁berkenaan
▁Persetujuan
▁simulasi
=543
▁1939.
moral
▁Dju
▁Hyper
="871
▁Badung
="2626
▁Louisiana
▁berkurangnya
▁subgrup
▁Kreta
▁tempe
bird
75)
pina
sted
▁Sanggar
bble
▁penegakan
otti
Gui
▁García
▁penghujung
▁penginapan
▁Dada
▁Pergerakan
mmy
▁Bian
▁Kauman
▁bangkai
▁Basque
arak
inder
koku
▁sasis
Ven
▁membedakannya
▁YG
ạ
▁Baudouin
▁cengkih
▁Gomez
▁neraka
▁Pemberian
▁Taba
▁Trop
▁Natuna
▁Tiba
Catatan
▁BWF
▁Hwang
ompo
▁AV
Hiro
hidrat
mmel
▁40.000
▁Manokwari
▁bangkrut
▁mengaktifkan
▁perkelahian
▁peziarah
=2592
▁ziarah
▁Kredit
▁teror
▁Belajar
Spanyol
▁Damar
="2592
▁Travel
ngkan
pedia
▁Seksi
▁Larangan
bone
fia
▁Telur
▁Bryan
hot
▁Musta
▁Hawa
▁penampakan
▁terpadat
▁kejuruan
▁(1991)
71)
League
simo
▁rohaniwan
▁Terjadi
▁Chai
balang
▁15.000
mission
▁Kanal
▁Valle
▁Garam
▁Ilyas
Pang
▁pembela
▁penipuan
May
drome
▁beribadah
▁Fokker
▁kultus
▁wetan
="500
="3288
mukan
▁Tradisional
▁Week
▁1200
▁Dee
▁sentra
▁kimiawi
▁Tangan
thel
▁220
▁Dagang
Wang
▁timor
bhu
▁Pembina
▁Pengambilan
▁membolehkan
▁tenggorokan
▁Bologna
▁pemangsa
=2416
▁1866
▁Sae
▁dikenang
udu
▁Wesley
▁XL
▁memu
▁sajak
▁Hae
logo
▁ty
▁Medang
="2416
vitas
noid
nema
chon
▁Kings
▁Burn
02)
=3288
▁Pemukiman
▁ceramah
▁pigmen
King
▁Tricho
AV
▁Ding
▁Pé
ATA
▁Eye
▁kompi
▁Face
▁Ville
▁kedai
▁Miles
▁Mack
▁persebaran
▁Himalaya
▁dipanaskan
▁Silesia
=795
Kin
God
scens
▁Meli
▁sensasi
▁Room
105
▁Labuan
oj
euil
▁ditemukannya
sworth
position
▁suspensi
=2821
▁konsultasi
▁Syu
▁DPP
Mycetophila
kresi
▁gir
▁Base
▁Dang
="2821
▁Babad
pend
="795
Net
mbangkan
cation
max
▁Liberia
▁diperhitungkan
▁antibodi
▁pemandian
▁direbus
▁codice
▁wasiat
04)
▁Tanggamus
▁Cyrus
aktivasi
▁Jab
huri
="354
▁Kemiri
▁searah
otte
ël
▁team
▁trofi
750
lebar
▁1857
lineata
▁year
▁spora
thu
▁kaus
rapat
▁perkuliahan
=2444
▁Hideyoshi
▁Helenistik
▁2005)
=354
mbuh
▁Yale
▁getah
Romawi
▁Pendek
▁seakan
▁Castle
▁WHO
="2444
▁kaitan
▁Shimo
stitusi
esthes
anggap
tempel
Park
stock
▁Pane
▁Olivia
▁Nenek
▁dirujuk
▁kepiting
▁Darurat
▁Elektronik
▁multimedia
▁Pase
Jenderal
▁PKS
▁Guyana
▁6–3
▁Terowongan
▁Anggun
▁Sac
▁Wati
▁Here
▁dibilang
imbing
▁Gerard
▁Pilot
0.0
▁Horn
▁Semb
Babak
▁1920,
▁Department
▁Nugroho
▁lonceng
▁martabat
▁Sophie
▁Brandenburg
Cam
▁Diamond
▁Tir
▁zamannya
▁Taruna
huang
culus
▁Fath
KD
▁Sign
▁Arashi
kron
▁sto
cles
▁Heaven
Berkas
▁pembangunannya
urun
▁kemerdekaannya
▁pemerkosaan
▁Malaikat
▁pele
▁vampir
Wali
▁Felipe
GR
break
otus
▁Copri
▁petak
▁Balangan
ujud
▁haruslah
▁Abel
▁Uta
▁Arc
▁Laphria
▁komika
▁tenda
▁migran
ی
▁Mercury
▁Sapporo
▁Syeikh
▁magnesium
▁penyalahgunaan
▁Yahoo
▁tekstual
▁duka
▁pemecahan
▁Hara
▁Sex
▁park
eureu
bih
enger
▁Béla
▁penculikan
▁berbanding
▁Putu
issima
▁kiprahnya
▁dermaga
▁Frederik
▁diunggah
▁dipanggang
=933
▁menolaknya
mental
ntungan
toides
tric
▁Ferry
illard
Beau
artis
▁tambak
▁modernisasi
—20
place
▁fan
▁Pakubuwana
▁kolektor
▁menargetkan
▁diprediksi
▁Fashion
=3291
▁Persebaya
kait
="3291
▁RO
VIII
▁Foster
ments
escu
load
▁wakilnya
▁Europa
▁Masters
bijian
pé
▁Identitas
▁Mentawai
▁berpasir
▁didahului
▁SG
▁afrika
isto
▁MO
mune
omy
▁girl
▁blora
▁refleksi
▁pencakar
krit
▁berhati
▁jamu
▁Bahar
в
▁Forbes
▁1937,
än
▁Patri
▁ekstensi
▁kerumunan
▁fiskal
▁pengajian
zak
Bois
▁MHz
▁spesialisasi
▁Mnet
ayam
▁Resmi
▁pres
▁Aviv
99)
▁terkendali
▁Effendi
▁Peralatan
▁kebersihan
▁digantung
▁Harbor
▁5%
▁DIY
▁Present
Villa
||
menurut
▁Panga
WS
benua
▁semut
▁Gian
Shu
fei
▁Olga
Bahn
Kedung
rekomendasikan
▁meru
▁konduktor
▁dirumuskan
▁birokrat
=516
▁Referendum
maka
Kementerian
kebijakan
▁Panzer
▁Kare
▁injil
prak
▁Pata
▁Banjarsari
▁Financial
▁Christie
?)
▁Ranca
yeo
menang
loy
City
rangan
▁melek
puri
pica
▁HM
▁ganjil
▁mendiskusikan
▁ditransfer
▁part
fasciatus
▁terkonsentrasi
ible
▁Paga
▁Gianyar
▁Haris
bili
HT
89)
eather
▁beruntung
▁Abidin
Ibu
▁kro
▁Cs
="516
senang
▁mencuci
▁katup
َّ
▁Tabalong
jara
▁Bolango
▁Luke
rendah
arta
▁macan
▁Suryo
▁Observatorium
▁radius
▁hibah
▁audit
▁1930,
▁Chester
▁Hits
▁house
sendiri
▁mekar
▁masehi
cephal
▁Perairan
▁Tutu
▁Huda
▁sila
County
Fort
▁Kedah
toli
▁Path
▁Wara
39)
="1509
cock
Mekar
▁Plant
▁Sarang
fak
bee
▁BlackBerry
▁Oklahoma
▁diperlihatkan
=1509
▁Sindrom
▁kuta
▁penyandang
▁Alexandr
▁berbulu
▁Lembata
▁Teguh
▁hayatnya
▁hemat
▁Case
▁Kerala
arthr
▁2.3
ptera
▁olahan
▁Scho
▁LO
▁matematis
▁Memasuki
▁Geron
▁merambah
▁kenapa
▁Tada
▁selang
Gempa
▁berdiam
▁Este
tland
spin
="933
▁gelang
▁pencurian
▁Annie
▁visa
▁berbatu
agno
▁misa
▁Mason
▁barulah
▁Aurel
▁harganya
85)
▁Hayat
▁Sint
▁penghitungan
=2441
▁wonogiri
▁ditawan
mall
fobia
▁Style
▁Kandang
="2441
Bay
▁2017)
▁GS
▁pari
Maritime
Philip
▁Kabul
▁Tren
▁Siaran
zano
▁Sikh
▁ketebalan
▁Pemilik
▁cin
▁mengeksplorasi
yna
▁Laras
▁alfa
▁parlementer
▁produknya
script
▁kerinci
▁Romeo
▁Lubang
▁Bath
Mars
▁Drum
style
-34
▁Rt
▁orde
▁Murni
▁administrator
▁berprestasi
▁mengaitkan
gren
▁Macan
▁bocah
▁Christine
PER
liter
tage
tiv
▁pangsa
▁Nao
▁Cepu
▁Sunday
90)
▁Suryani
▁fit
uwa
▁Youtube
▁Kanak
▁Cure
vez
▁Generalísimo
▁Knesset
▁restorasi
б
▁cilacap
▁pemetaan
▁kekuningan
▁Mesjid
▁tinjauan
▁menjemput
food
Ama
senjata
▁1938.
▁kabut
mpong
▁Palla
▁Teen
▁Make
▁Ful
duduk
▁Timnas
_7
▁Dimas
sui
▁Karimun
ص
▁Kenneth
▁perpisahan
KRI
Pus
▁Schlt
tator
▁Pant
▁peluruhan
timur
▁Smart
ador
▁Yoko
▁antarkota
jaringan
▁pembe
▁retro
Santa
▁Swan
nur
kabu
atul
▁penentu
▁menerbangkan
▁penjumlahan
▁mentega
74)
▁who
▁wacana
▁1815
▁Selamat
▁Khas
hakim
±
city
▁tesis
▁Noer
Eng
▁Leone
Comp
skt
▁Muse
▁Cran
▁pertunjukkan
▁dikonversi
=508
▁terlatih
▁Alba
▁Chiba
="176
=176
Paris
="1535
mere
▁luhur
▁kimiawan
walk
Pala
▁menyimpang
29)
▁syn
▁Pahang
▁Ip
wig
▁lab
ningrat
▁baron
ę
▁Schumacher
▁Trinidad
▁bernuansa
=1535
▁Vosges
teisme
▁Oregon
▁disiksa
▁Mayjen
▁Clara
▁Nasr
volu
▁Soep
▁EA
▁nikah
▁chip
▁lawannya
chai
jeong
▁tenui
sand
▁teologis
▁petisi
▁Nagano
▁basi
tje
cep
=3139
▁Spencer
▁kelautan
▁menjarah
▁If
▁record
="3139
FM
▁logis
TL
="793
Files
].
▁NH
▁Sav
Tuhan
saya
hing
mpok
▁tolak
▁dipersenjatai
▁menenangkan
▁menaungi
▁pemberitaan
▁tiongkok
▁Hikayat
▁Temple
▁getaran
▁Urutan
▁Terusan
▁Gho
▁Storm
▁Arus
onomi
▁SJ
▁Mano
▁gali
="508
LL
[[
▁Penaklukan
wek
▁Ampel
Imam
▁gre
toro
▁mengajari
▁1930.
warman
▁software
▁Lily
▁rasial
▁unta
▁Rid
1990
▁Oseania
▁Produser
▁Tadmur
▁diminati
▁platinum
▁diekspor
▁didasari
▁argent
chet
▁Dakota
praja
▁Aj
▁Nobu
pemeran
hadiah
▁Font
▁moda
Jangan
▁temanggung
▁Pendaftaran
▁katolik
▁obligasi
▁serdadu
ografer
▁Genoa
=552
▁Investasi
▁Tyler
▁Julie
Holstein
▁fur
perubahan
▁tawon
▁Dekat
▁karakternya
thor
="1538
▁Djoko
▁Original
▁sunda
▁AI
éli
▁kritikan
▁3.5
▁pasuruan
▁Kejaksaan
▁Kopenhagen
▁penyerapan
▁Vettel
▁Capitol
=1538
▁tumpukan
ná
▁output
▁Thomson
▁negarawan
=793
▁About
▁piston
▁menjauh
chev
▁meminjam
Wakil
▁Rambut
waki
ramai
▁0,5
▁Filmografi
BAN
▁kang
ditulis
▁Daha
▁Pseud
▁antigen
Um
▁Bersamaan
late
▁Shinto
▁Eusebius
▁Olympic
ー
=2616
▁remake
▁cost
▁Zin
▁italia
endorf
struc
="2616
▁Fatimah
▁Alexandra
Meta
▁Hope
▁ayahanda
pasan
▁Kaca
▁747
▁Memang
lemah
▁angust
▁Form
▁{
=2310
="2310
▁flores
▁khotbah
▁flo
▁Hul
▁high
▁Pah
zhen
▁katakan
mbuhan
▁control
▁Cilik
▁Pitt
▁cup
oensis
▁dibacakan
▁bercita
▁Randy
▁NE
▁Fro
▁Pencegahan
▁keruntuhan
▁keterkaitan
▁mongondow
▁Riyadh
▁Pelalawan
▁Stanford
▁Vernonia
gging
▁timbulnya
▁Pakis
▁Reagan
yub
Persatuan
▁sulfur
Live
▁kotawaringin
▁Azhar
▁"[[
▁CV
▁2-1
▁Jawi
torial
▁Care
▁dihabiskan
▁dimengerti
▁evakuasi
▁Mamuju
chun
▁2018)
▁Kencana
Kara
quer
▁Tori
▁Cari
Bin
Buddha
qual
Kra
derma
▁2014)
timbang
▁Trio
386
▁Tale
▁rubi
▁UP
▁liriknya
▁Beni
▁Bé
▁Ibtidaiyah
▁Kandidat
▁hp
▁konsensus
▁banggai
stasiun
-47
▁bercocok
▁serbuk
▁kacamata
Mis
gila
oidea
="552
▁Sumi
▁Tirto
hisa
▁Lebar
▁Ellen
Bulu
lomba
Sir
▁statis
jambe
▁Tottenham
▁ketertiban
▁rintangan
▁Pembalap
andung
hood
▁buyut
AYA
▁sesekali
▁akurasi
ccio
buri
Allah
▁Chinese
Kisah
▁Karaeng
▁Julukan
330
▁Toto
▁Rand
neng
▁500.000
kloro
seusai
▁Baek
machi
watu
inci
▁pertentangan
▁Helena
▁Ericsson
puisi
topo
="129
▁Mom
▁trio
emas
▁jago
▁Beng
▁Sani
tujuan
▁Inu
▁Strategis
▁Homer
kurangnya
▁vagina
▁Joshua
▁hengkang
▁berkecepatan
▁Asmara
Tricho
▁reporter
▁berbayar
world
▁coll
Gerakan
▁Profesional
▁Rolling
mosa
▁Karto
▁León
5°
▁İ
▁Kerusuhan
94)
▁debit
▁blues
nett
selatan
▁Wiro
▁menenggelamkan
▁lenyap
▁Brigjen
▁Claire
98)
ibidion
▁Alih
Out
Cyr
▁DESA
▁2012"
▁ledak
▁pad
▁Lore
▁beratnya
▁prosa
klik
▁Dale
mberg
▁pantun
loc
NK
▁tikungan
Pres
▁Lauren
=637
=606
▁xi
▁selamanya
dev
▁Teresa
▁True
enus
="427
▁Ira
▁KS
▁Edge
▁Mare
otan
▁rep
▁Ong
muridnya
holm
Nas
doyo
▁Philo
▁Qo
Aspergillus
▁Hogwarts
▁memancarkan
▁sentimeter
▁Pajajaran
▁erosi
=2960
▁Klungkung
serangan
▁kehutanan
▁semikonduktor
▁Fukushima
▁Freedom
▁sepi
=427
▁pengunjuk
▁Semuanya
▁Vista
▁Sada
gl
="2960
▁AA
▁app
▁induksi
tulus
▁merepresentasi
ý
▁Joo
▁Track
▁etimologi
▁kampar
▁terdegradasi
Sargassum
▁Situasi
▁Dili
▁polar
▁membeku
▁Kolo
▁Ujian
▁Senayan
urea
▁irisan
rizal
▁750
Eparki
▁pengamanan
="637
nggong
▁Milo
▁Sedang
▁delta
▁Arma
maki
▁Kasim
▁RRT
▁Sami
▁umbi
▁1918.
▁Jogja
▁Ambarawa
sab
▁Tarekat
▁Enim
▁Seren
hyang
mpangan
▁Pante
▁Sdn
▁Atma
▁Izin
▁Banu
="606
soft
basi
96)
▁diprakarsai
▁ditelusuri
▁persaudaraan
▁Kandungan
▁musibah
Will
▁Muncul
▁Pietro
▁Polinesia
▁magister
shing
▁Gambaran
▁Pine
▁Kush
night
koro
qah
▁santan
▁Buaya
▁Chow
▁Weekly
clad
fly
liki
▁merokok
▁tembikar
▁percabangan
=2551
▁wol
▁mengidap
▁seperempat
=589
▁RC
daftar
▁mendiang
▁selepas
kaki
▁Champ
▁berurusan
="2551
Kecamatan
▁Kostrad
▁Gondo
▁pasangannya
sop
▁Atap
dzi
▁Sargassum
▁insan
▁katai
▁kompak
▁Rail
▁Mozambik
=551
ocephala
▁Basket
▁Pengeboman
▁apo
▁Perunggu
hidro
▁Clay
Muslim
▁penambangan
cella
▁Produce
▁Ricardo
▁milyar
▁Zionis
eron
="589
▁menyelam
▁juni
beth
▁Pembukaan
▁berkomitmen
▁berpenghuni
▁simalungun
▁Fenomena
=3138
▁Asiria
▁Megatron
efek
▁memihak
▁korps
▁Hubei
▁Keluarganya
="3138
▁berbaris
▁Boven
▁Menge
▁Pisau
▁kreasi
order
stitut
Michel
▁bangga
▁Jermanik
nida
▁helm
otes
gading
▁Gibb
▁oral
▁Monica
="551
berang
▁Via
dice
▁Higashi
Jin
Kata
▁Have
▁fonem
idus
▁Mandat
ally
▁Pengisi
▁Insan
itia
▁Tsa
▁Kerto
▁rum
maker
▁Tahunan
USA
▁linier
etika
▁berpihak
▁Flash
▁substansi
▁zu
▁kisi
▁melemahkan
▁Flower
awas
я
▁Nielsen
▁digarap
▁Blambangan
spot
▁Tatsu
▁Megawati
morph
▁Magnus
▁Ngada
▁jelajah
▁Kou
aspek
▁Kayan
33)
▁luc
960
▁Acanthochaetet
▁Mengikuti
▁Harahap
▁Pring
▁Theresia
▁selektif
▁riil
sertifikasi
sambi
▁Filipus
▁Ito
▁Adnan
▁misal
▁kuliahnya
▁bertiga
phra
trium
kawasan
▁Akta
▁kate
Kel
ARI
uza
▁berlangganan
▁dikeringkan
▁prediksi
▁Nobunaga
▁Industry
▁Spin
▁Harta
▁Beauty
▁banteng
=129
▁av
-300
▁Manager
▁granul
Yahudi
▁tutur
▁Garda
▁Roda
▁ft
Ul
fiksi
▁Phillips
▁Runner
=2623
▁Torymus
Naga
▁Seringkali
▁boyband
▁tekad
▁pengintai
▁right
▁Sichuan
▁Busan
▁Fokus
Mega
="2623
▁Idola
▁Action
nita
▁Building
majalah
▁Banua
▁Sanga
,”
▁MTs
cetak
▁wing
thar
kola
▁atletik
gius
▁alien
=476
▁instrumental
▁abdi
′
▁kesenangan
▁Yamagata
▁mistis
▁curiga
▁Guntur
▁terbiasa
▁Ruben
▁fashion
akar
zhong
sheim
sidi
▁Geng
▁IPA
▁Calcarea
▁Mississippi
▁memanjat
▁Yosua
=638
=542
▁Vera
cole
▁trilogi
▁fl
="476
▁tom
▁Silat
umbul
▁abang
▁GAM
▁Bitung
nanti
ember
qing
▁berpegang
▁mempersatukan
▁tersibuk
▁kekeringan
▁Pie
▁disabilitas
=607
3).
▁π
▁Quint
▁memuncaki
▁Seminar
Tedania
▁SL
▁Tirta
▁Nordik
xx
▁Soko
▁Pulang
="638
Adam
Solo
▁anarkis
▁perserikatan
▁Sinjai
▁wellsi
▁Yamamoto
VO
=872
▁There
rinci
▁Gaz
▁Chopra
▁berselang
▁Cool
▁tai
west
Victor
CCC
▁populasinya
▁Punjab
tunggal
▁limit
▁Chlorophorus
cine
tiang
▁membacakan
▁Hasundutan
▁Keahlian
▁Prabumulih
201
▁Concert
▁Terkait
lberg
–12
▁Haf
▁parigi
▁Utsman
▁Landak
83)
▁6–4
kelurahan
PNS
▁senar
="2000
▁Utah
▁lontar
▁Labu
▁cukai
tatif
▁Provence
▁1858
▁Magdalena
▁Ekaristi
=2712
▁1936.
▁dihadapkan
▁ramalan
="542
▁terpopuler
▁nurani
▁kencang
▁René
▁Bersaudara
▁Islamic
cium
="2712
industri
="872
▁Papan
▁Vision
▁Fund
ór
Spe
▁segel
▁sebabnya
▁Aliyah
▁Tikus
tela
wong
5.5
Adi
▁Olympia
▁Keuntungan
=2813
=1017
▁Ajax
▁Sayap
kyō
Kol
▁hasrat
▁Aris
="1017
▁Kadi
▁mara
quil
sema
▁Cikarang
▁Ketujuh
thidium
▁Fauzi
="2813
tuber
▁Frei
▁Editor
▁pejalan
ardjo
▁Bowl
Musim
,6%
▁Atlantic
▁Professor
▁morowali
Van
▁belok
Ville
▁Bahá
▁Dosen
0.8
▁terjaga
▁cru
ongkok
▁Pusaka
Lembaga
Nur
ranjang
="607
▁klad
▁Ditulis
64)
epi
▁Watt
▁cari
▁Mauri
▁Berisi
▁Permusyawaratan
▁kelembaban
▁teaser
▁Pemasaran
▁petenis
toshi
arrow
anggul
duri
▁Banjarbaru
▁Malin
▁Zoo
▁wangi
▁Gerald
▁SquarePants
▁Seusai
PAN
▁skuadron
▁Right
▁Yeon
▁Pengganti
▁peka
▁Queens
▁1849
▁Orion
▁taktis
damai
ties
▁hara
-33
▁penta
▁terjadilah
wungu
▁5000
mando
▁Flora
NR
▁Oil
tosa
plast
RN
88)
▁lelucon
▁Aerospace
▁bingkai
▁str
Franc
▁selebar
sori
▁Jackie
Azhar
▁bertambahnya
▁lainya
▁Simpson
▁Amr
▁berlangsungnya
▁1935,
trix
▁Vijay
▁Twin
liner
▁mentor
▁Doktrin
▁Honduras
▁Infrastruktur
▁Mempawah
▁Perbandingan
▁segenap
▁Turkmenistan
▁Hergé
KL
▁mengg
=292
▁African
Kris
▁mikrob
tren
▁Paolo
gnat
lateral
▁OK
▁berkelompok
▁Nature
Bill
hū
sesi
katsu
▁Kej
▁Pengenalan
▁Schmidt
▁PGRI
=641
▁Aurora
laras
▁BAN
arjo
lies
▁Hujan
▁Anta
▁award
▁ujar
▁Gad
▁Merak
pembe
▁saji
batang
▁Spesifikasi
▁estetika
▁pemberdayaan
▁mengkaji
▁Eritrea
▁Bristol
▁digubah
▁Thalib
nggahan
▁samar
▁menukar
▁ec
▁ozon
single
6.5
▁(34
▁membaik
▁Nguyễn
▁Trust
ancang
68)
▁Test
▁Candra
▁Peni
▁15%
▁Carpenter
▁Vaksin
▁Peti
lintas
▁sesepuh
-2004
where
▁pembentuk
▁Marxisme
Cy
▁155
="641
,00
opolis
zona
ento
▁Camat
▁dikontrol
▁pelosok
gemeente
▁dahsyat
▁kontributor
▁mutiara
▁kesenjangan
▁Kendati
▁Administration
▁Monroe
rakat
▁Galilea
▁Kadu
▁Classic
="292
▁Tambun
▁Kembar
▁Rachman
hav
▁Skala
▁Penyelenggaraan
▁Murid
imam
▁Kepresidenan
▁Orleans
▁Pengertian
▁dilestarikan
▁menakjubkan
=2829
▁kendati
▁mangkuk
▁RRI
▁memecat
▁sentimen
vira
▁Pangdam
ndakan
▁Pisang
▁melantik
vani
▁jen
="2829
bertanggungjawab
angsur
Euro
▁radang
▁mark
street
kuma
mbok
▁nunukan
▁Pemakaian
▁Security
▁Toulouse
▁berlimpah
▁memperbarui
▁membe
="42
▁mencium
▁Teddy
▁Wahana
▁instruktur
▁SAW
rose
▁Ulum
Gro
▁113
▁Shige
▁pembentukannya
▁0.7
seksual
▁firaun
▁kolonel
lá
tamin
▁Callyspongia
▁national
jou
▁ensiklopedia
▁Mikhael
▁Otonom
ί
▁Betty
entang
merus
▁1928.
▁Note
▁Namibia
▁akreditasi
▁deteksi
Myxilla
▁berantai
▁database
▁ny
▁Mahakam
▁pengkhianatan
pool
Akademi
▁118
▁granat
▁gembala
parti
▁Simp
▁Gebang
▁Meyer
▁Bey
tansi
▁Putin
▁metana
▁Nori
φ
▁Quraisy
▁kebajikan
▁ketiadaan
▁tektonik
▁pornografi
=2614
▁transgender
▁engine
▁menginap
kebun
▁sesat
▁banjarnegara
ograph
arung
▁tho
▁0,1
▁antik
1,5
="2614
fosfat
lisensi
▁berisiko
lug
▁Hantu
▁Von
▁1846
▁Pasundan
▁ibadat
▁Protein
▁hidrokarbon
▁nubuat
▁Stern
▁Maladewa
▁berkerabat
▁saudarinya
uche
▁Sagi
Cina
▁membagikan
▁CNN
▁Rie
ification
▁Segala
▁Challenge
▁Horse
▁Mother
Metro
▁TR
▁basal
ṭ
▁Circuit
▁berpacaran
▁peribadatan
▁Pande
▁SLTP
▁kelayakan
▁Modal
▁Sumeria
▁Jeanne
igne
Meng
▁reaktif
▁Barack
▁bertemakan
▁pandan
▁Tik
▁Norte
▁Til
Dunia
Nor
▁haluan
sby
Kai
▁astronaut
▁bertunangan
▁menumpas
▁disertasi
▁efektivitas
▁Maine
▁László
crypt
▁depo
▁Lukman
Dragon
Britania
▁maria
▁NET
▁arkeologis
HO
▁haram
sebelum
VII
-2000
▁Banteng
▁Decepticons
▁pembaharuan
▁pencemaran
▁pencitraan
69)
abuan
Bak
▁Borg
▁Pasaman
▁menetas
▁Uranus
▁Spec
▁Sigi
▁Works
▁Valeri
▁Maeda
Temp
▁Syarat
▁Baju
assa
▁fusco
▁Bari
▁β
▁June
Aksara
kow
▁dikuburkan
Nama
▁Walikota
▁Brussels
▁Djam
▁Siro
▁Quran
▁nam
▁Cena
▁fosfor
▁Nav
▁Yamato
sejarah
OD
▁Nacional
▁Perlawanan
▁menyusuri
mengintegrasikan
▁mengadaptasi
▁Dinding
Dai
▁Aztek
▁rawas
▁Sheng
▁111
▁patri
▁212
▁pub
▁kalung
▁Taro
▁President
home
▁sekutunya
flo
▁Glasgow
▁desktop
rupanea
▁bocor
▁mencampur
="3351
▁char
Bor
▁kacau
▁Bontang
First
▁Rut
densis
▁Hem
ogenesis
sepuluh
untai
gou
▁Reno
▁Irwan
▁Macro
▁Musyawarah
▁Propinsi
▁penularan
▁Index
▁Pisa
▁jember
▁verifikasi
▁diare
▁flavi
weg
▁red
▁donor
siap
▁Luk
Purwo
▁1937.
▁spe
▁Jules
▁KU
▁Farrel
ević
▁Plat
=2552
▁Faisal
▁termodinamika
ystropus
front
=340
1.5
="2552
anjing
▁pengatur
oles
▁Lü
▁Comm
▁Sinai
▁link
keras
▁Nak
▁telapak
=3256
▁memandu
▁bisbol
="514
▁Double
▁Rahasia
="3256
▁Soli
▁Histori
▁tre
▁kaget
▁lb
▁Aq
▁Koko
▁Casa
ophila
185
▁lindung
80)
Homo
-2013
▁Promachus
Lem
▁Mona
▁Ef
Pyrénées
▁Authority
▁Soedirman
▁alumnus
▁Nang
=2443
▁Bae
=514
▁balistik
lase
▁Trey
▁Toh
▁HB
▁Sv
▁Akita
▁Peu
definisi
Glenea
="2443
cakap
bubu
▁Torres
malam
▁Esp
▁dikukuhkan
▁Lhokseumawe
▁adopsi
Dewa
▁kemenangannya
▁Michi
▁satir
▁6.000
lish
▁email
▁muntah
▁disangka
="1426
▁Beautiful
▁Scan
latus
Henry
isca
▁TT
Indonesian
▁Transit
RL
▁nur
▁Meridian
▁CJ
TER
▁Sawa
dinding
▁CT
▁Tarbiyah
▁difokuskan
▁keseharian
▁Yangtze
▁dihindari
=2618
▁kuantan
=1426
=2825
▁belerang
▁berkelana
▁kebalikan
hide
▁disuruh
▁Ngurah
▁partner
▁Kalla
="340
makmur
masyarakat
villa
Hel
▁Yosefus
pom
▁Today
terangan
ggle
="2618
▁porsi
▁Buol
="2825
Rh
Wilayah
keturunan
super
▁Elemen
▁Material
137
▁hoki
zuka
=3351
▁pertiga
waka
▁Suhar
▁ditumbuhi
▁influenza
▁terorganisir
▁tindih
▁Dikarenakan
▁diaktifkan
▁Bacaan
▁Chat
▁secepat
▁karunia
▁design
Glee
▁sate
tila
▁rabi
▁TS
1994
76)
▁Ionia
▁aspal
▁Barb
HR
▁dibagikan
acantha
▁diunduh
▁1-0
†
▁mempraktikkan
=2615
▁Thunder
▁Walk
6.0
joyo
▁Moravia
▁bergambar
lirik
▁pendiriannya
="2615
igma
▁Keke
▁tangkapan
elektrik
-2008
ayun
▁gy
▁stok
2,5
▁meninggalnya
▁Jesse
swara
▁didalam
▁fungi
▁Money
▁Disini
▁grobogan
=2848
▁Cekungan
▁Liechtenstein
▁Peradaban
▁kepedulian
▁pagelaran
▁Gibson
="2848
Lar
matan
▁terbesarnya
▁Communications
2019
▁Isabella
▁fifa
▁Rina
▁disapa
raksa
opter
▁Universit
▁Adil
▁villa
Bou
oru
▁also
gura
▁Natural
Albert
्
▁menyeberang
ز
▁Henderson
▁mengakomodasi
▁Setidaknya
▁meninjau
mium
▁Pig
▁merk
▁direksi
centr
▁bintik
00)
▁Astronomi
kakak
▁skt
▁Dato
KE
–9
tner
▁gorontalo
▁Kependudukan
Étienne
▁Pagaruyung
▁kesayangan
▁kedamaian
Home
▁Patti
▁Ridwan
▁sekurang
▁remix
Mau
▁Keda
▁dipenjarakan
▁Log
Mycale
.2010
▁Zat
▁betul
2.0
▁Devil
▁Motif
▁Samo
▁sedan
▁2.6
▁Kiki
▁kaligrafi
▁Panther
▁pemenuhan
▁professional
=2627
▁McDonald
matic
="2627
▁Memori
▁black
6,5
zine
▁dahulunya
▁Castel
nand
uju
▁Nasir
then
▁Sudi
adegan
rb
Ant
▁Fay
▁Ramayana
▁bertekanan
▁dinonaktifkan
▁mengantisipasi
▁digemari
▁Marseille
▁João
81)
ulung
http
▁demak
▁untai
▁bener
▁Tambahan
▁mengangkatnya
▁Emb
="426
▁mengadu
▁Sukar
Little
ggy
▁upayanya
▁mobilitas
▁Iowa
cit
Cur
ROM
+1
MAN
▁Setiawan
▁Raz
▁lipatan
▁Griffith
▁kekejaman
Pterela
▁pengundian
▁meridian
▁Benggala
▁keraguan
▁BK
▁Winners
▁Minuman
▁Homo
▁Cell
fest
▁teka
Colo
CV
Wu
hini
▁Mush
▁Sekali
▁isteri
rá
▁penyi
▁naturalis
grave
▁Siapa
Württemberg
▁Pemegang
▁Miko
Bla
▁menumpang
▁1.200
=426
lamat
▁Xue
Pil
arko
ores
▁Radi
▁lahirlah
modal
▁penis
Take
▁Sym
▁bantalan
▁base
▁Evan
rze
ized
owa
▁165
▁episkopal
▁Madonna
▁bersinar
▁kosmologi
nikov
▁dicurigai
▁kelembagaan
fang
▁Rocket
84)
poda
▁Turbo
tensis
tour
arno
Region
putera
1985
▁Sandi
umba
▁tulungagung
▁berperilaku
Spongia
nberg
▁dijalani
▁nonaktif
1993
iaceae
himpunan
▁Maritim
limp
▁lift
▁kompresi
adem
LD
▁210
▁baro
▁nge
LM
zac
8.0
NET
shim
ytarsus
п
▁Watanabe
▁wonosobo
="(31
▁NIIS
▁assist
▁Oak
▁Roth
▁menyalakan
studi
▁gaun
▁Pokok
Animal
▁4,5
▁Penata
▁2012)
▁tetua
tilla
▁Putaran
▁Syari
▁beradu
▁Georgi
▁Viz
ought
Max
▁mc
east
MK
▁lib
▁Edwards
▁poso
▁Adventure
▁Gab
▁transkripsi
▁dipertanyakan
▁menghantam
▁monitor
▁Lek
▁kerabatnya
▁Kung
▁var
▁Paket
firm
▁Togo
▁terapan
▁Gifu
boi
▁Xing
▁rubah
ên
▁inginkan
73)
▁Bryant
jae
enjamin
▁pendinginan
▁Istrinya
▁tin
▁Atlético
▁Shinkansen
▁Inovasi
▁kemurnian
▁Layar
▁dicirikan
▁1%
North
▁Fiksi
▁Pakpak
cocok
▁Lego
▁berikan
bbe
kosa
’’
▁terbarukan
▁tamb
▁Profesi
▁Aus
▁toba
phanes
rava
Epi
esse
Ç
▁disempurnakan
▁memburu
▁Shadow
olit
Royal
neg
▁EN
mulai
print
▁Duren
-38
dokumentasikan
▁qui
Araneus
▁Championships
▁patriark
kondisi
▁Menye
▁STT
▁terawal
▁pipi
▁Marcell
phro
kredit
Tegal
▁Paralimpiade
▁berselisih
▁Ksatria
▁sinonim
▁memanggilnya
quel
▁Perkumpulan
▁Mb
▁penerjemahan
▁menghina
▁Ion
▁Sebutan
▁kuota
▁Komik
▁Palmer
▁STIE
mantan
▁LG
▁Deddy
ová
▁Raha
▁Pec
▁Sharon
▁Kepangeranan
▁Giant
▁Raw
Que
▁CONCACAF
stella
zier
Op
▁partainya
sekutu
▁rajin
="1425
Carl
▁luwu
▁Abdi
▁Legi
▁Brussel
▁NY
▁berdosa
komputer
namun
▁Kariernya
▁Duri
▁Graha
▁nilainya
▁Buana
▁Block
▁doktoral
FK
bium
▁Pakta
ngkeng
▁Driver
dalem
▁rehabilitasi
=1425
▁pelarangan
▁menyamakan
=2557
▁dikejar
82)
▁Keluaran
▁kantung
="1512
▁qa
depan
▁Logan
▁bot
tract
edu
metrik
="2557
97)
▁Teru
5,5
▁Cempaka
▁Kapolri
▁Müller
▁pembatalan
=1512
hoon
▁Kepadatan
▁Harimau
Mul
fol
▁Seragam
▁mengabdikan
▁memberitakan
▁geometris
alasan
70.000
▁Industrial
▁glu
mix
▁Gambir
▁perlunya
▁Verona
Master
▁dukungannya
▁Talaga
▁nisan
▁mematahkan
▁pemberhentian
▁pengampunan
▁bodoh
▁first
▁Kelebihan
▁madiun
=2624
▁Hopkins
▁Takahashi
▁Beda
TD
=541
▁temukan
=648
▁Aisyah
7.5
ifolius
▁mendaki
="2624
Los
▁Liao
▁Telecom
▁FBI
▁Kedu
▁Berry
▁Bagaimana
▁dor
JK
▁punct
=2622
▁edukasi
▁jepara
▁biarawati
="2622
▁2.7
oria
▁Dub
▁Adji
_8
bisa
▁IM
tsuka
crat
asal
▁Agro
Free
▁tarikh
utama
▁tadinya
▁Abdur
="648
fiks
▁perhatiannya
▁Troy
▁Pita
▁nm
▁dipercayai
▁kekhalifahan
▁metodologi
▁Mirza
Tai
▁SKE
▁Emmanuel
▁seminari
joo
▁Danu
▁berpendidikan
▁genting
protein
Celeb
transformasi
▁Flight
omorpha
▁أ
rho
Dichotomius
▁Sibolga
▁berkiprah
▁pengesahan
▁sejawat
▁rahmat
=2631
▁menerangkan
winangun
▁komering
▁ع
bawah
▁sulungnya
▁Gramedia
▁kejang
▁malaria
xiang
▁ب
acci
="2631
▁peraga
▁Mato
▁Dumai
▁Table
▁Steam
Kualifikasi
basis
▁Payung
▁Shou
cino
▁Eisenhower
▁Stuttgart
▁kompatibel
▁original
▁traktat
▁kesibukan
▁Indianapolis
▁Platform
="541
▁Idul
▁gambut
▁Kenny
▁Badar
87)
force
labor
▁Roe
galang
phia
▁Rotten
▁sejahtera
putus
brang
rü
▁Theodore
▁Rabbi
▁syariat
▁TM
▁Calcio
▁SARS
▁panca
▁Mahayana
▁Luigi
pena
Mir
▁Campuran
▁kipas
▁fasih
▁Eg
ifolium
▁pendakian
▁meninggalkannya
phant
▁Kyu
▁dibentuklah
perempuan
▁Invest
ART
Kuta
muda
▁Tawa
▁paul
▁Vina
aktris
▁Yudistira
▁Lopez
▁Palermo
▁malaysia
▁dikomposisikan
▁Dikatakan
=805
▁Monaco
▁Fine
sexual
▁Publikasi
lope
▁Telepon
▁Phone
vard
hami
hibi
▁1–0
61)
level
cornis
▁Wave
▁ditanami
▁Mandela
▁sendi
▁daunnya
_9
▁Kreatif
▁jan
▁Blues
▁cen
▁Ode
▁Mic
▁Guard
FB
▁Niger
psilon
▁Coco
▁Kwee
▁alokasi
▁pemantauan
▁its
▁Priok
▁Sanjaya
LR
▁memaksanya
▁rokan
93)
▁menjauhkan
▁McCartney
=2562
▁Pérez
▁Digoel
▁Mauritius
▁sorotan
▁proporsional
▁@
mou
ways
▁kapsul
▁pawai
stabil
="2562
STI
gagasan
▁dicuri
General
▁Fish
▁Gedong
▁Potentilla
▁menanamkan
1992
heart
▁dikarang
komunis
Nepenthes
▁Koordinasi
▁fiktif
▁mengkonsumsi
▁Permukaan
▁pencerahan
▁banyuwangi
▁prakarsa
▁hamparan
pria
▁membesar
▁Institusi
icans
▁114
▁Kaltim
state
▁wono
▁Ketidak
▁vel
▁lelang
Pasir
kabupaten
Pondok
▁Ante
▁jurus
logam
ṇ
▁Orchestra
▁Pemanfaatan
▁Schleswig
▁boyolali
▁membayangkan
▁praktek
▁Iblis
=489
▁anonim
gnac
▁tereliminasi
▁Amphi
Dengan
▁Stur
▁sederajat
▁Hilton
▁rambutnya
ôme
▁bijak
kumar
▁Frances
▁Ghost
▁kodrat
▁berbadan
▁Trek
β
▁Mrs
▁lateral
Melayu
▁prae
▁Books
▁3.1
quist
▁Kekhalifahan
▁Kuomintang
▁Serpong
▁Todd
tano
chno
ujuk
▁jurang
▁lorong
pf
▁kehabisan
Daerah
Alexander
▁Orient
mereka
lambang
shio
▁Gara
▁yen
chroma
djojo
AMA
03)
riyah
206
enteng
▁1837
▁Skuadron
▁Penilaian
▁Kumi
72)
▁zebra
▁memuja
▁UC
EU
umbi
▁kod
▁Patah
Arti
Thi
▁Zeni
▁Jain
▁Tini
▁Gate
="805
jarak
▁116
pabrik
▁konstituen
langi
▁pembalasan
▁Trinity
urrahman
▁menghindar
Yamato
▁Gangguan
▁seketika
wor
calon
foot
▁Adhi
▁APG
Tour
▁Sento
Song
nye
▁Aspek
herang
▁Eusta
ANT
▁pengendara
▁Perindustrian
▁Kebakaran
▁dikepung
▁dipraktikkan
XXX
MAS
▁Ole
▁Search
▁warnanya
▁Tidung
▁pinus
background
▁Ś
▁BTS
▁Steno
trick
ceps
▁him
lender
▁Cost
jö
▁Cleveland
▁Kepahiang
▁Kaya
▁pneumonia
▁swadaya
134
▁Etnis
▁risalah
Jun
ον
▁Eyes
▁Banks
▁duniawi
7.0
▁meluncur
batan
▁NTT
Az
▁DAS
▁Jag
▁pasta
▁Away
▁tunggu
Heart
fari
▁Nov
▁Bungur
▁lip
▁lingkungannya
▁Bretagne
▁Wimbledon
▁berkepanjangan
▁terpenuhi
▁Kelantan
▁kelengkapan
▁penyimpangan
▁MNCTV
news
harap
laq
sier
▁Mora
yok
▁Puspa
▁gro
smith
▁batuk
▁Penuh
▁dibentuknya
▁122
▁takdir
hardjo
tance
sbury
▁Ref
▁Nadi
▁Years
▁Performance
▁nyamuk
▁langkat
kaze
▁anion
▁Champion
▁Pelangi
▁Meet
▁Luhur
Pak
▁Vivi
lant
▁Lazio
ов
▁Born
▁Stevens
▁Hed
▁Akademik
upacara
▁rusia
▁marmer
▁keterlibatannya
▁Akira
▁Campo
▁Stell
▁Miki
Kir
▁Doro
▁Disana
gay
王
▁Ringkasan
▁pekarangan
▁Letusan
▁pendahuluan
▁Penari
▁klor
▁diktator
darat
indra
Dewi
works
▁kalimantan
▁Hoe
▁ball
universitas
Oscar
▁Sept
Ketua
▁Inn
="489
▁cyan
▁Sō
▁Other
menjadi
Garonne
▁Kabu
▁sufragan
▁pelbagai
▁Jeffrey
▁Mazhab
▁Touch
▁Akpol
▁Tempe
lengan
▁diimpor
▁Gill
▁menghiasi
▁organo
asso
▁other
iola
enny
▁retak
▁mapan
mouth
▁Raga
▁sisinya
▁kanannya
▁Koda
▁Prost
ى
▁kabisat
▁sebetulnya
=2711
=2661
▁supernova
sembunyi
▁Bombay
▁heksa
mā
▁melangkah
istis
="2711
▁aksioma
▁menanggung
="2661
▁penyerbuan
idius
▁Hamas
▁Strike
oeng
▁2004)
▁terlama
▁glob
▁2009)
▁dipesan
▁Thorn
politikus
▁Information
▁lumayan
▁runcing
▁Bishop
▁mengevaluasi
Peri
▁Kras
▁Bekas
▁disc
hayu
▁Pembaca
lino
▁bekal
strict
▁Flying
Comm
▁keputusannya
2.5
▁Dibawah
Sai
Not
▁Heath
▁Shira
▁Denny
Royce
▁Hamka
▁Klu
pila
▁Nay
▁akronim
▁memadamkan
=2553
▁pilkada
="2553
▁Mekah
▁skrip
▁Nebula
77)
▁Liberty
▁mengubahnya
hedral
▁mohon
cluster
▁Kartika
▁reduksi
▁Kuni
▁pertanda
hiz
▁240
▁Ustad
rano
eign
▁Canadian
rij
romo
hampir
▁Samaria
▁1854
▁Crown
▁pionir
▁sakral
▁ditargetkan
=3258
▁Fos
▁berhalu
▁fasa
▁Belo
dialek
mbut
▁Actors
ggs
▁RSS
Divisi
garde
ingham
DL
="3258
hura
▁Utomo
inho
="611
▁SDM
▁sambal
loides
▁Mud
This
gaku
▁Banding
▁AFF
▁Wibowo
▁penuntut
▁terlestarikan
▁terhindar
▁KNIL
setiap
▁kernel
▁Shizuoka
▁relativitas
▁rahib
energi
▁Gwang
▁Penjara
▁Seka
▁Kutu
▁123
Var
▁PAS
▁kubur
▁club
▁Creek
▁Aro
▁naskahnya
▁Irama
▁magis
7°
metal
▁Return
▁barb
polo
▁Peckham
▁demonstran
▁pewayangan
udge
▁Aston
=611
▁pelaporan
▁esensial
ου
▁Natsu
▁Cebu
▁Zak
onensis
NH
▁Eugen
▁mulus
▁Tebo
okan
▁bertabrakan
▁penyampaian
▁dibungkus
▁magetan
=2630
▁rebus
▁dilintasi
▁Kontra
Bah
=806
vida
▁Yū
estes
="2630
ndez
▁Vikariat
▁Alwi
psy
▁French
kemungkinan
▁pict
ál
▁kontribusinya
ń
▁Bengkayang
▁komisaris
=2613
▁makassar
▁kolega
▁hipertensi
▁pandangannya
▁tragis
▁brutal
▁mertuanya
▁Pagelaran
▁dipercayakan
bandar
▁penegak
="2613
▁Jangka
pendidikan
dhan
▁Ribu
▁03"
▁elektrode
romastix
▁Veteran
▁sekelilingnya
Nes
ikut
▁Eden
=802
cé
▁galangan
="3140
▁KTT
▁Joon
kekuatan
="806
▁Dora
▁dipasangkan
▁seksualitas
▁Č
▁USB
▁kiper
khar
▁Rolls
Leon
▁Pajang
▁Publishing
▁perkeretaapian
▁rpm
=2556
▁Jefferson
Stra
▁berjangka
=506
AND
▁LD
▁KL
jual
▁GPS
Stat
▁Elliott
Batalyon
▁memp
▁Benin
▁kontraknya
▁Burton
-2007
▁lahat
▁Dacus
Champ
▁mengepalai
=3140
ovsky
dov
="2177
="802
▁rose
5,000
▁ortodoks
▁Nagan
▁Corps
ubung
▁Drag
▁Tran
▁Bonaparte
▁keberagaman
▁mukjizat
=2177
▁sumatra
▁dihidupkan
▁menyita
▁Bourbon
file
▁Maharani
▁aksen
▁Sergei
▁substansial
▁Weber
▁metil
▁Bene
edge
lement
lett
Negeri
▁Door
▁niatnya
atrix
="506
▁Kapel
▁Albrecht
▁Prambanan
▁Zagreb
▁mengonfirmasi
▁papirus
▁terhambat
▁Perilisan
▁pengembara
▁komposit
▁penghujan
=643
▁berargumen
ieri
▁terlaksana
diq
Persi
pemerintahan
▁NI
tangga
="2556
▁karat
pesan
▁Jama
▁Golf
▁tabi
▁Badak
inkarnasi
thio
ř
▁berkuliah
▁memanipulasi
▁Kumpulan
=3011
=2582
▁Benyamin
▁Antartika
=636
▁1841
="3011
▁Janda
▁Praja
▁API
lingen
▁hitungan
▁Brun
bicara
Dua
sef
="2582
▁kodeks
▁"[
▁Well
▁annul
▁Hind
▁psikolog
▁Penta
penguasa
▁make
schaft
▁Igor
▁Andra
▁sulfida
Chris
▁gracilis
▁Lombard
▁forensik
=3023
mega
peda
▁residu
throp
lund
▁pound
▁HK
East
baling
▁Wells
▁Padu
▁diapit
▁Terra
450
▁bidan
▁230
▁lipid
mutasi
="3023
racun
▁Commuter
▁Voldemort
▁Prasarana
▁oranye
▁jasmani
▁menanjak
biotik
▁dkk
▁setimnya
▁sent
Cher
▁Hung
▁Berdiri
Cre
arca
▁Lac
▁DM
▁puing
▁Krom
▁HI
▁Syria
cumi
▁Kamus
▁Novo
inten
▁Dutt
▁Hardy
▁Baldwin
Xi
="636
▁SB
▁Marzuki
▁1,3
▁Liem
▁Dawn
▁kedepan
vig
▁Pager
▁132
▁taraf
="643
▁keempatnya
ryū
DOS
▁Iris
coret
sani
wur
▁Kraton
cepat
▁2013)
▁probolinggo
▁Columbus
▁Detasemen
▁cemerlang
▁pemberitahuan
▁Pentakosta
▁liputan
▁premium
▁Derma
chester
▁bermitra
▁Logam
big
chari
▁Menteng
▁Meri
▁Suharto
▁Sainte
▁rakit
Jaya
▁1820
barkan
▁MH
▁redaktur
▁Kemasyarakatan
▁ambigu
4.8
▁119
▁Tampil
kret
▁Yuni
▁dirasa
cilla
▁Semit
▁145
▁Colle
▁ambisius
▁300.000
▁Clement
profit
Program
▁117
999
geng
=2980
▁Leicester
▁bergegas
=3015
="2980
▁disadari
▁Jakob
▁Puru
▁menusuk
▁Anas
▁sezaman
▁Salak
▁jaraknya
="3015
▁Ravi
stedt
▁Zain
▁Gross
topik
sastra
▁met
▁item
▁Petang
▁tribun
siswi
Cambridge
Space
▁auri
citra
6.6
Banyu
=2526
▁López
▁cemburu
▁mustahil
▁terakreditasi
▁tiruan
▁Muslimin
="2526
▁mempergunakan
▁Nine
▁Dag
-2005
code
▁kodok
▁Haram
131
▁penjelajahan
▁Ship
▁torsi
shen
▁Roket
▁Unggulan
▁Nice
Phytomyza
madu
Dom
▁Flam
▁Palma
▁mix
▁mengeksekusi
▁Keshogunan
▁menghemat
▁Andorra
sbach
▁moncong
▁Geodia
▁karanganyar
▁ditukar
▁gl
▁terkumpul
FR
toe
▁Techni
Media
minum
▁jahe
kaisar
▁Kemp
huta
▁Kiyo
▁Factor
pikir
▁Fatah
▁Aristo
▁Rau
otot
▁RD
ʻ
▁András
▁Wembley
▁kuantitatif
▁memusnahkan
▁Krakatau
▁transistor
=2523
▁Horizon
▁Bonjol
▁Stella
▁Kapasitas
▁Pyr
▁Kotak
▁berdinas
▁126
▁bertakhta
▁hawa
="2523
zō
▁Yeh
plane
Acuti
▁Fres
dharma
▁telak
▁Fried
biologi
jel
▁gulat
▁Katherine
▁Kebiasaan
=2798
=2828
▁britania
▁dibersihkan
の
thra
▁dibenarkan
▁Lulusan
▁Maxwell
▁kit
▁Isu
▁invers
Anton
▁PhD
="2798
="2828
”)
▁serbuan
“
▁ES
▁1855
gregasi
▁Letter
tasan
saluran
▁Paleo
umbu
zina
▁1851
maju
▁biar
▁dakwaan
▁merangsang
▁numerik
▁Maksud
▁perabot
▁separatis
ères
▁Bradley
▁Eastern
▁Chrys
ckle
Sol
▁Trail
▁marak
▁Ace
▁2008)
vara
suki
rí
▁Nau
▁supra
▁batal
▁mengembang
gola
-2006
ADA
Coll
▁Bakat
▁pemula
LAN
▁replika
▁cadang
▁Naval
ő
▁Canterbury
▁Khatulistiwa
html
▁direvisi
=671
▁Target
▁mengarang
opterus
ennes
hler
▁Batanghari
valen
Zu
▁mendekat
fic
shad
▁memangsa
luhur
merta
▁deretan
goda
dula
▁virg
▁Individu
▁Prosedur
▁melumpuhkan
▁suporter
▁ketahui
▁Mangkubumi
▁Mardi
▁STS
▁Spesial
▁(1990)
▁Dimensi
▁Durian
bao
ан
▁alor
▁kinetik
▁Å
▁kandangnya
▁dorong
▁Jamur
▁Chou
▁Pemeriksaan
▁pulsa
▁down
▁Muka
▁mawar
▁Hidro
ENG
▁UB
HAN
▁Dede
▁Pertambangan
=2522
▁Basketball
▁Makhluk
▁Properti
▁Beirut
▁kanonik
▁tokusatsu
▁Sidney
cque
="2522
▁singkong
▁asy
▁Khe
▁Luka
1989
▁melebar
="671
▁Disc
tolo
ours
Suko
oud
▁mengasingkan
▁penghinaan
▁Permasalahan
▁dituangkan
=2519
▁kestabilan
▁Gerindra
▁Nakamura
▁mogok
▁Dji
▁Rho
Ob
online
Fly
TF
rawi
="2519
KOM
spira
▁Mansur
▁Discovery
▁sumbawa
lintang
British
▁arang
▁ditinjau
▁Sudar
▁bentrokan
sumi
fé
▁Salo
▁Baltimore
▁Soppeng
▁pengalihan
▁persembunyian
▁Pembelajaran
opleurus
▁Nixon
▁Mile
▁VV
▁Transjakarta
berat
▁Miranda
▁121
▁lead
source
▁Audio
loo
cious
▁bertubuh
▁Ananda
▁Price
▁Lah
▁Modul
Kau
▁Operation
▁2-0
▁Oz
▁Ora
▁Nie
cycle
▁Toro
▁Tita
▁Nikaragua
▁disumbangkan
jali
emer
▁DD
▁jang
SAT
▁bermimpi
▁sukar
▁LU
▁Rajawali
▁Anand
▁Skep
▁Rafi
PSI
▁full
20.000
▁blitar
▁futsal
▁puskesmas
▁ketinggalan
=2847
▁teladan
▁cuplikan
turun
▁Tamba
Bunga
=596
▁Common
▁Bayan
▁pembedahan
Eks
▁tercermin
▁Pengusaha
▁john
▁Hunan
olahraga
="2847
artikel
▁longgar
FO
Cas
▁bersayap
Kla
▁berangsur
_11
▁Bernhard
▁Lewat
▁jung
Son
▁prim
▁Yamada
▁bodi
riot
▁Bram
Kri
▁suster
Jen
▁Parang
▁Duryodana
▁Malcolm
▁konglomerat
▁penyeberangan
▁Kemajuan
▁berdatangan
▁menyusut
meta
kg
▁Mamluk
=597
▁Matsumoto
▁rampung
parwa
yaki
lance
="1185
▁Khair
drop
wyn
▁menggantung
▁Kuasa
paku
▁inangnya
="596
▁pencak
chenko
▁Bagan
Soviet
kesempatan
▁Lembang
▁akta
ITA
▁Jala
▁Kementrian
▁registrasi
▁Floyd
▁diurus
▁Dorothy
▁Fals
▁integritas
▁clav
=1185
▁Blake
ivora
▁Sejauh
▁Brachy
region
="1568
▁santai
sugih
andri
▁kanji
nggak
▁Yellow
▁1814
pare
▁agresi
▁koto
▁Laboratory
▁dipuja
▁koboi
▁Nduga
▁lumut
cies
patri
▁Pengawal
▁homogen
="597
▁Berada
4.7
▁berguru
▁ngawi
pengaruh
▁Crazy
road
=1568
▁Mercy
fid
▁ganja
GT
▁kle
▁CG
▁LC
▁Yoga
cyclo
duga
ungga
▁Kentucky
▁menyempurnakan
▁membimbing
Saône
▁kin
▁Kalijaga
▁Sz
▁Tunggul
▁lengkungan
Gem
▁dekret
screen
mbro
▁pimpin
▁Every
="1097
▁Henan
▁Asep
▁Thebes
sudut
▁Dumbledore
▁[...]
▁kepuasan
=3257
▁Loh
=1097
▁mengabarkan
▁Ledakan
▁Sahu
▁Ploso
▁telaga
rilis
▁lemari
▁Beringin
vitt
phorus
="3257
▁Ekologi
▁Bayang
▁1,8
corp
▁anal
ckey
▁Solar
▁Ghi
DT
redo
▁Sava
8.5
warga
▁Komodo
peny
opati
▁harafiah
▁ketidakpastian
▁pergaulan
▁pemasukan
▁menipu
▁deputi
▁Zab
▁digagas
▁Penumpang
▁Kaf
▁Disebut
▁Sukorejo
cant
▁aromatik
▁Hub
▁bassis
▁kedung
body
▁Cali
rew
rakyat
▁card
-2009
comp
▁honor
▁aren
▁Kamera
▁chu
velle
▁Pemberdayaan
▁Pythagoras
▁ketidakmampuan
▁menundukkan
▁disematkan
▁diaplikasikan
=3073
▁Miyazaki
menga
bron
▁pemukul
Christian
▁Roche
▁seberat
"("
=800
▁dengar
▁Pap
plin
Chen
ongsong
▁Niaga
="3073
▁Xeno
tisipasi
▁Parade
▁Siria
▁Pick
▁25.000
ło
▁Bizantin
▁Jeneponto
▁kemacetan
=2625
DJ
sangka
▁Karnataka
ís
=647
ambul
▁Nino
▁kafir
▁Chief
hika
Vienne
▁Cincin
▁Jawatan
▁Laurent
linda
▁Dylan
runner
="2625
Bactrocera
komponen
▁rus
▁1856
▁Pretty
▁Brisbane
▁Pyotr
▁advokat
=2817
▁diuraikan
▁Mangkurat
▁Dyah
▁deposit
jack
▁Temu
▁Tiang
czy
▁selaras
▁kilat
="2817
▁maluku
candi
▁margin
▁1852
▁Direction
▁Gli
▁Any
xie
bakar
▁Regina
▁Turin
1.2
DD
▁Loa
र
ы
▁Moscow
▁terestrial
▁Orlando
▁diisolasi
▁your
=601
▁190
▁Vos
="(5
Psych
▁Kolam
▁Wisma
▁Salat
▁Lars
▁perampokan
budi
▁sejarahwan
cm
=2757
▁Pengundian
="2757
cey
▁piatu
▁Kualitas
Cot
▁TF
heng
▁nitid
▁PH
▁Dalton
▁Ellis
dungan
▁Rano
▁Wheel
▁Verde
▁jeda
nelli
ckett
RB
▁SW
▁Arung
▁sabit
etilena
▁panggungnya
lach
▁Aleppo
▁Guevara
▁menopang
=2535
▁Sergio
×
▁balet
▁penghulu
=339
▁stop
▁Adegan
qin
▁penguatan
▁Gangga
▁firman
▁monta
ć
▁Jesus
zone
odium
▁Urdu
="2535
care
▁berkelahi
▁Komplek
▁Irawan
▁Adit
Cou
▁atro
▁Kemang
White
bakti
Green
ordo
Juni
="647
Kita
▁Chevrolet
▁Kebutuhan
▁Restorasi
▁family
▁moutong
▁solidaritas
▁anggrek
=2558
▁SLTA
lopo
▁Butler
▁perakitan
▁Palopo
aliran
▁Kacang
▁Cindy
▁XVII
▁Obi
bore
Open
▁disewa
▁ende
▁menawan
▁Puy
▁senat
cion
London
Sek
="339
▁Holocaust
▁Versailles
▁kecemasan
▁terdakwa
▁purbalingga
▁trailer
▁Ditambah
=2581
erremans
▁Whitney
▁Messi
▁Mehmed
▁anyaman
▁Anita
▁Kenyatta
▁human
▁2.500
▁Dhabi
▁tindakannya
▁Mine
▁Rhoma
▁pastoral
▁penemuannya
▁berikatan
urusan
="2581
▁Setya
="2558
▁Stade
▁flor
▁Assam
stika
="601
子
▁Language
▁Bantimurung
▁Pemekaran
▁Talmud
▁Samba
4.9
uberites
=594
▁Landasan
▁siku
▁sri
▁Karate
–11
▁terbarunya
▁Stru
▁work
▁kronologi
▁Tapa
Arm
▁Mangkunegara
▁Wide
▁TU
="1567
rinus
4.6
shev
▁pendengaran
▁Lucky
▁merpati
▁(1988)
▁Amelia
▁kirinya
▁Celtic
▁BPK
empang
▁Chamber
Bandung
▁Cornell
▁Coll
bashi
betul
rice
Book
Ferr
belang
▁Stenopogon
Where
▁pembeda
▁beruntun
▁Build
=1567
juku
▁kation
web
▁beraturan
▁Toru
▁Shop
ת
▁Mussolini
▁Optimus
▁Theravada
▁probabilitas
า
▁menjunjung
asse
▁penyembahan
▁york
▁Progress
omatia
▁voting
royo
dibaca
950
▁τ
▁Madras
▁SAR
Bag
▁Nicole
▁Springs
ijs
▁Bona
▁Nederlandsch
▁code
signata
▁infra
Prasasti
Calais
chō
pion
▁Tuk
▁América
▁sayembara
▁comedy
Saturday
Titanic
▁Barumun
Blang
▁intinya
▁papua
▁Rahayu
340
▁terbawa
tulang
▁Bureau
="594
▁Penyerang
▁prestasinya
hek
gondo
▁Kasa
▁intan
▁water
▁kelola
sepsi
brak
▁Rach
pejabat
April
Prince
rawan
=3222
▁Herakles
▁keprihatinan
▁Benevento
="3222
▁kesaktian
insula
▁AMI
Teori
▁diukir
cess
▁pembelahan
▁Beg
▁asma
▁lakon
▁Keenam
="800
Hasan
appe
▁1997)
▁Islamiyah
uwe
mbungan
HP
▁Pack
▁muasal
▁khan
▁Purwosari
Hatta
lawa
▁GR
buana
XI
▁Kunci
▁pakis
▁Wates
▁Mk
pinang
▁Malo
ulla
▁Saturn
trip
Agromyza
integrasi
olitik
European
Surabaya
▁Normal
▁Joel
中
▁disunting
▁(1989)
▁Koin
▁Jana
▁Boot
ality
vill
▁terpisahkan
▁fasis
RAN
▁Penyelenggara
▁martin
▁Rimba
▁Rapid
episode
▁mistik
▁Yeong
▁Abdel
▁Thra
▁Seleukia
▁saudagar
▁Percobaan
▁Jō
▁majikan
▁bedagai
▁diusahakan
=650
NZ
▁sebidang
rö
▁Maryam
nagari
▁Ado
="650
8.8
▁Mukti
▁kutu
politan
fisika
▁bening
▁Flag
GL
▁Loire
▁gelembung
▁Singer
▁Mukomuko
▁persinyalan
▁inskripsi
▁Daytona
=2961
▁rufo
▁penasaran
▁Boom
1.1
▁stereo
▁Mischa
▁Rajo
="2961
▁Arga
▁Mayang
Lau
▁atri
1.6
▁bima
▁Ghaz
▁Orth
9.0
tahu
fron
▁kapak
▁Only
utusan
kejadian
▁sufi
▁(4)
▁Cau
▁melingkupi
▁spanduk
▁kemuliaan
▁BAFTA
▁optimis
▁pengulangan
▁Talent
teau
▁gagah
▁Hakka
▁BRI
quire
▁Wad
▁Pengawasan
▁Kepada
▁Lynn
build
kreasi
▁Hannah
nanda
▁Event
▁Aden
▁murka
▁Eve
astro
His
▁1-2
▁González
▁mengukuhkan
▁menyepakati
▁network
▁بن
▁Bpk
mento
▁beladiri
▁ramping
▁Chrisye
▁masker
▁Cosmo
▁DAN
="1421
▁75%
▁Norma
Taka
▁Hud
ants
▁pelaksanaannya
percaya
▁Vy
▁Yeo
▁Machimus
Hil
pont
kategori
▁side
▁menata
▁pengabdiannya
▁Ignatius
▁Pertimbangan
▁konfrontasi
▁mewarnai
=1421
▁Yamaguchi
▁Transmigrasi
▁Bachchan
▁133
▁diasuh
▁Berbasis
▁Farmasi
brunn
▁iparnya
="195
▁Yulia
▁Princeton
lepis
skrip
▁Supri
▁Dame
▁holo
▁Menu
zab
ffle
▁Nazar
dingin
fred
▁ipar
▁IUCN
▁injeksi
▁kartanegara
▁pembuktian
▁menyunting
▁maskot
▁Mendengar
▁Paper
layar
▁Seljuk
▁3.2
▁Terutama
▁Fritz
▁Phra
shun
AMP
▁Salu
letak
▁Elena
Tru
▁segalanya
hamba
▁Anyar
▁Andaman
▁belang
▁Sunny
lembu
August
bella
▁tiup
▁semisal
▁Meme
sisik
XII
К
▁Compagnie
▁Persahabatan
▁membongkar
▁Keanggotaan
▁bernaung
▁Fujiwara
▁Tekanan
▁pebisnis
=672
▁Mich
▁Hongkong
▁Hemi
▁fluor
▁suko
▁Seleksi
▁natural
▁bendahara
▁Gela
orient
▁AMD
▁Bobo
▁nomina
▁log
▁Pole
▁Santi
ulatus
▁Heng
hair
memerintah
מ
▁labuhanbatu
▁memodifikasi
▁Permukiman
▁striker
name
▁ramuan
▁parodi
=598
▁Tamu
=642
▁kultural
▁Kemu
▁silika
▁Ground
▁2.8
▁kasino
Maj
▁gui
▁1853
▁sapu
▁baling
▁blo
tanggal
Agama
▁kotabaru
▁Soedar
▁Nani
▁Terapi
▁Mythic
▁PKB
gari
Dream
▁Ambal
▁Penting
▁aristokrat
▁menampakkan
▁sulawesi
▁rekening
senbatsu
▁popular
▁Lesmana
ternak
▁class
Mc
▁Psy
▁Kelu
="1453
bersih
Band
KPI
▁Sherman
Lim
▁FFI
▁Marcos
▁Renang
▁Lampu
6.8
▁Zah
▁bahari
canus
▁Nunsiatur
▁Boni
evaluasi
▁Ré
▁ε
high
▁Dharmasraya
▁Hipotesis
▁Ibadah
=1453
▁Polewali
▁realistis
▁transmigrasi
▁grise
jiro
▁Yorkshire
Marga
▁Eduard
▁Hubert
▁Portland
▁andil
▁Rocky
▁bh
▁PSM
bisnis
▁school
▁Koh
Gua
motor
▁bawahannya
second
lick
▁Corona
▁Sampul
Luftwaffe
»
خ
▁Chemical
▁dibiayai
▁mengorganisir
▁pengusiran
▁Alquran
▁Matilda
▁Tragedi
▁berduet
▁Countdown
▁Antarklub
▁Rainbow
=357
1980
▁Tepat
Chu
girl
▁Supra
▁Farah
▁Ninja
▁Freud
▁LE
gé
tetapi
haram
="642
▁Depan
ability
▁Alexandre
wol
▁Delegasi
▁Dakwah
▁Ieyasu
▁menerobos
▁Oswald
▁abdul
▁Phillip
dikasi
="672
murni
tisasi
Balai
▁Yudas
▁Mons
▁dikeluarkannya
schen
setara
hung
paham
Gor
="598
▁Kawan
taru
▁Isma
▁Chuck
singa
▁temp
gunan
▁Skor
▁kepastian
=2534
▁Berger
▁kebaktian
▁kehitaman
="2534
▁Label
▁1,6
▁Garcia
▁pipih
▁brasil
▁BL
desain
▁penentang
▁Andara
TIK
▁Indische
EE
▁akumulasi
chino
=3259
▁Kesatria
▁Penambahan
▁Brigif
▁Suster
tapi
▁korosi
▁Proton
▁Huan
▁Sale
Bl
="3259
lobus
bekas
peira
▁kaleng
="357
Denis
▁Marwan
▁ash
▁Wadi
ollywood
diperankan
Wikipedia
rath
Japan
Edward
Poly
▁Penn
▁Sjahrir
▁memaparkan
▁mitokondria
▁orisinal
=2477
▁diasumsikan
▁Perahu
▁Full
▁privasi
▁Collection
▁Access
▁kelabu
censis
kristal
▁Number
▁Khi
=394
fire
▁ateis
manda
▁tertuang
▁kuah
▁Mele
▁mid
ovski
="2477
▁pemalang
▁1999)
▁perantau
shiki
▁lele
tivis
ketika
ún
▁Inka
▁Jabodetabek
▁Keguruan
▁Kirgizstan
vittatus
▁Hir
=348
▁Merangin
▁tonggak
▁Gautama
relli
▁knot
▁Nagara
elektron
ribu
nina
▁Tanu
sville
▁Atta
Musik
Mé
1983
qub
Transjakarta
▁Botswana
▁Erasmus
=2504
▁soe
▁peminat
▁jelata
=337
▁Kanda
▁Gates
▁Morrison
▁1,4
▁Silo
▁Jetis
daging
▁Lub
▁kapitalis
▁sosialisasi
▁1835
lift
▁260
="2504
▁Peluru
▁disita
▁RAF
▁Ching
ŋ
▁Wakatobi
▁Zhejiang
▁diperbaharui
▁merendahkan
▁parfum
▁penghentian
▁Jeddah
▁Kekerasan
▁Kedudukan
embel
▁Jatuh
="348
kera
–14
ieux
gejala
▁Eure
="1550
ianisme
▁elegan
dict
tabilitas
▁menanti
▁Coca
▁kasihan
▁Mili
▁Patton
▁Cay
▁diminum
▁pematang
carpa
▁Janji
Great
makanan
▁Kebayoran
▁Mahathir
▁keistimewaan
▁ditawari
▁Chronicle
sebagian
▁Tito
▁editorial
▁Penayangan
▁Pengunjung
lette
▁1845
hye
▁kasim
lein
▁Yehezkiel
Sainte
▁1812
▁Ester
▁berbulan
RNA
chuk
3.9
="337
▁dipecahkan
bum
▁terperangkap
▁Sekembalinya
▁suplemen
▁maut
▁Support
=356
=651
▁Adobe
▁Roch
▁terjalin
▁death
▁Assa
ozoa
▁Look
=1550
NY
tree
▁Djaja
▁Kav
koloni
▁Xylotrechus
▁siam
stigma
lewat
▁Sufi
berdasarkan
▁Tail
="394
▁Salzburg
▁dipancarkan
▁pengembalian
χ
▁Bulukumba
▁Futsal
▁Defense
▁berlandas
▁Fuad
=291
▁angsa
▁korup
▁UIN
▁belaka
weng
dhya
hurst
Barat
mobile
▁orientalis
▁Bayer
▁kilo
1966
▁Seth
▁Tripoli
▁Kraków
▁Millidge
▁affinis
Perse
▁Infeksi
▁380
▁viral
="199
mulus
▁Leang
▁Sensor
urip
▁Much
▁Pengamatan
▁light
▁Amba
▁Yash
▁Zaid
▁Oxy
▁Honey
▁pencuri
langu
boat
▁Ruby
="356
▁dideritanya
▁Wij
érie
▁Cold
Jet
▁Castell
▁Teritori
ː
▁Konghucu
▁Maximilian
▁Populer
▁Teungku
▁sanitasi
=2629
▁Piramida
=1302
▁SUCI
▁Kalinyamat
Hai
▁Cantik
▁diseluruh
▁harum
▁Shandong
▁Tantangan
free
="1302
sław
Simpang
RAM
▁Mello
▁Kemal
cilia
▁Pachy
▁dianalisis
▁Police
▁Alessandro
▁Dje
="2629
bahn
▁Allan
▁FE
▁Maga
▁sewaan
rudin
▁gletser
▁Timothy
▁dialokasikan
天
=2863
▁Kontrol
▁sebagi
▁1847
▁Parthia
▁$4
baris
="1529
▁Kasad
▁Button
="2514
="2863
▁129
▁Cyrt
="291
▁Led
▁Rag
Rhin
▁Lokasinya
▁australia
artinya
="1303
▁Brig
▁pengintaian
Kode
▁GmbH
▁Maharashtra
▁bertengkar
▁kebocoran
▁milimeter
▁Eleanor
=1529
▁dicegah
▁elips
=1303
1986
▁perkusi
▁menginfeksi
▁Amuntai
▁kecintaan
▁Kirana
▁Motorsport
▁laskar
yeh
▁memperdalam
osom
▁perawan
blas
▁Luo
plasma
▁order
Young
▁CL
="651
greg
▁Bibi
▁Kidung
▁Level
▁asmara
▁ester
▁124
▁Nano
cidon
Hong
▁HTML
▁belukar
▁didiagnosis
▁diperebutkan
▁pencahayaan
▁pendarahan
▁Peresmian
=2514
▁WS
▁sekuens
▁Notaris
▁Monarki
▁Mesias
▁144
▁Petualangan
▁Sheila
▁tubercul
leigh
mitsu
▁tawa
▁GNU
▁Euler
▁Cron
▁perampok
▁IL
▁Salem
▁1842
▁raksa
arso
▁Obereopsis
yot
▁Isis
Arg
@
Keluarga
▁menguap
▁ijazah
▁kanselir
▁EXO
▁Bisma
1.9
Cola
▁memperbesar
kö
▁sabar
▁Gudang
▁Lombardia
▁balada
heli
▁PJ
▁Afro
▁Karma
="1304
NL
▁Plasmodium
▁0.06
▁2-3
▁Trip
Federasi
Komando
=1304
="3000
▁Pangkat
=640
▁RSUD
=608
▁BR
▁pahatan
ković
▁Senen
▁undian
▁Hof
▁lac
▁Sidik
▁Rasio
▁McCo
▁Pencak
▁dayung
▁Pembela
▁RU
1.8
rzy
▁mengklasifikasi
▁Puji
yori
▁bercak
jutsu
▁EL
▁Corb
IKA
ienne
dder
▁Pemberantasan
▁menjuluki
▁wiracarita
▁Perawatan
▁berterima
=2521
▁perseorangan
=2822
▁dijanjikan
▁Ilmuwan
="2521
▁Panti
utara
▁Luca
Show
Phineas
wijk
▁lawak
▁Reaktor
▁Sukses
="2822
elet
▁bubur
▁Exechia
▁jum
four
▁2020)
1988
▁Panel
▁Ingin
="640
José
▁Sehari
Seuneubok
▁Jembrana
▁kebangkrutan
▁menghendaki
=3000
▁Multimedia
▁kerapatan
▁Musical
▁Sendai
When
formis
▁Hajar
▁Jur
▁cina
▁12.000
ró
▁Endang
▁Angelo
▁Clarke
▁Willy
_10
▁Government
▁Karesidenan
▁Mieszko
Buprestis
▁menjabarkan
▁ekstrim
=2578
▁Fighter
▁Rizky
▁Hoffman
▁Percy
cukup
▁Saitama
▁Anjou
▁prospek
▁134
▁gamma
▁Doel
▁Zambia
▁Lippo
▁Need
=195
="2578
1.4
ezer
▁partisi
▁public
ovna
▁Zone
▁Juta
▁Hearts
▁Basri
▁aksesoris
▁ligan
blad
logy
ppel
PPI
▁Efesus
▁Panasonic
▁menelusuri
▁Yehuwa
=2593
▁Rhine
▁tamiang
▁temui
▁Musume
▁mertua
▁Perkasa
▁Hugues
▁Bayi
hyuk
Strange
▁koordinator
="2593
gunting
empur
▁Lewi
▁Murad
ppu
▁pengarah
▁gor
▁Kerk
▁Wangi
Album
▁berkeinginan
▁berspekulasi
▁binomial
▁konsorsium
▁tertidur
▁kokpit
=3119
=2662
▁Jurnalis
▁Perth
īn
=646
▁Interaksi
="3119
▁melano
▁Berber
▁Arsip
▁Limo
chironom
tinjau
▁Pama
▁gemuk
marine
▁Mangkunegaran
▁Lock
vation
="2662
▁siklon
geon
▁Audisi
▁fisiologi
▁Korean
iyya
▁Serat
▁koresponden
▁kios
▁baptis
▁Personal
▁Kazimierz
▁Favorit
▁Persyaratan
▁dihidangkan
▁Zealand
▁mangrove
▁siluman
▁konkret
XL
▁Sambil
▁Nadia
▁copy
dhe
▁Seluma
▁Heru
▁capit
▁1844
▁tuban
▁modus
▁Mimpi
▁Derek
▁1839
▁favoritnya
▁Electronic
stall
comune
▁TPI
▁sumba
▁Hour
▁Spark
="190
seluler
ש
▁Jazirah
▁ditaklukan
▁palawija
▁Sukhoi
▁Semangat
▁Platinum
=2560
▁Lencana
▁Beatrice
▁Pascal
▁2019)
▁DK
▁Fantasi
▁Sabang
="961
▁Sukma
spirit
="2560
▁Hwa
▁Onder
▁Kalimat
▁Lara
▁pass
="1431
indikasi
▁Chia
▁watak
▁Dilihat
▁games
individu
▁Uighur
▁Xavier
▁Aomori
▁supranatural
=2563
="2184
=1431
▁memperlambat
Pilbup
▁teliti
▁Madison
▁Patricia
1987
▁bell
▁Bangsawan
▁tembang
▁berlomba
2.9
="2563
embun
buntu
bayar
▁Kp
▁Sayur
flex
▁Sten
▁Doo
="608
=2184
▁Pematangsiantar
▁Andalusia
▁uefa
▁ritme
=2530
iferum
▁ditinggal
=632
▁mul
grand
=338
▁GSM
=652
▁STM
omba
▁sinus
▁Lucius
lengkung
▁Esc
▁mangan
▁Reform
▁Fit
▁foton
="2530
▁2–0
angkap
▁Alai
-1998
▁vasal
="1301
▁siar
Pon
blat
lambat
▁orto
▁Analis
▁disingkirkan
▁imajinasi
▁seantero
=2628
=1301
▁1825
▁Toei
=599
▁biseksual
culi
▁Nevi
4.4
micro
▁lempengan
▁semalam
▁terbelah
▁Bhi
hayati
▁SIM
▁dub
="1518
ALA
▁Atmo
▁makamnya
gadung
laporan
POL
="2628
alap
▁turbo
="646
▁Kazan
▁muna
Arya
▁Pakuan
▁klorin
▁DB
▁Info
▁OM
▁Peradilan
▁Pesawaran
▁pedukuhan
cano
=1518
▁Greenwich
metode
▁Sumpah
▁Ropica
ité
▁tutul
▁penunjuk
▁Mitologi
tubuh
lith
▁UV
▁Andalas
▁Rowo
▁Abram
▁Arta
▁Artha
▁kupang
="599
▁Hilang
Dor
Persia
▁Kompetensi
▁Permintaan
▁bercorak
=2488
=2738
=532
▁Jor
Fontaine
▁jorong
Serangan
="2488
▁Bangli
▁Semula
▁Cate
TY
▁mendi
5.8
▁ole
="2738
▁menakutkan
phen
▁barbar
▁karir
▁Burns
janto
8,5
▁Oro
▁Tk
winata
wind
="1569
Hara
="632
▁Valentin
▁arak
▁Taksonomi
▁dievakuasi
▁bermusuhan
▁Paradise
▁menyamai
▁Windsor
▁Guide
▁menjauhi
▁Excel
▁asri
▁meliput
radio
urutan
▁Ashley
▁MV
▁1996)
▁MIT
▁Pavel
▁1700
clar
▁ganas
▁must
=1569
▁Koresh
="652
="338
▁Dini
LN
▁Hiper
▁Naya
▁primata
▁Ferguson
▁kecoklatan
▁panorama
ン
▁Keseluruhan
▁berlantai
▁Sakramen
▁berminat
▁diganggu
▁memudar
ippo
Tele
="532
▁shalat
▁Famili
▁View
▁dagangan
▁Eduardo
▁pemutar
▁Jari
▁two
▁Exo
▁Ó
▁Mix
▁Colon
▁grafit
▁Jorong
▁Conti
▁Kawah
▁PV
▁Thing
▁kejayaannya
▁Nikita
singkatan
ential
1.3
komunitas
▁pertunangan
▁gerombolan
=3143
▁mama
=796
erator
Duta
fleksi
="3143
Benteng
▁Pancur
▁Pukul
▁shu
quart
▁Emilia
на
▁pembelaan
clus
ploid
otto
="2743
▁korporasi
▁Asem
▁Version
▁pendekar
▁Leia
▁Takeda
▁Photo
Tin
▁alba
ό
Ō
▁disalurkan
▁januari
▁kecanduan
▁electro
=2739
▁elastis
▁Sidomulyo
▁terpelajar
Front
▁Gear
▁memikat
▁Judith
tique
▁Marion
▁terserang
▁fasci
▁2003)
="2739
▁Factory
▁cau
▁lurah
Moselle
▁ringkas
▁epidemi
▁Somme
αι
▁seruan
▁meso
ndre
tempo
ovic
shaw
1978
tografi
▁brunne
▁Frey
▁Wool
zhu
bilah
gium
▁Stop
▁Hercules
▁koreografi
▁penyempurnaan
▁supremasi
▁utilitas
▁tertanam
▁Penutup
▁Lhok
=2743
Nephro
▁ciner
▁Pengaturan
▁Meny
▁Hori
▁tajuk
Cour
▁Bloom
▁Kuto
ã
▁geser
blak
▁FL
contohnya
▁650
▁Susi
coli
Cast
▁lun
▁6–2
minta
▁eri
▁kompleksitas
▁Taji
▁Fol
KAR
polar
="796
imple
▁Sheffield
amesa
=2501
=531
▁Cartoon
▁Kobayashi
▁sinode
▁Vale
▁itik
▁Rashid
▁Lengkong
vé
quan
arekat
▁etis
▁Bendo
Mary
2.8
▁sound
arrett
▁Friend
▁folk
▁olah
▁Beno
telur
mination
="2501
1982
▁elektronika
▁tipu
duran
▁RF
kolo
▁neuron
9.9
▁Kesepakatan
▁peristirahatan
▁Schwarz
▁hunian
▁Pembaptis
Sea
witz
▁Janet
weh
▁Asahi
▁«
▁Ø
sekusi
▁cermat
▁more
poor
▁elegans
gugur
▁leluhurnya
▁resin
▁Komoro
loba
▁helai
ESA
PAS
▁Lolo
▁Kotamobagu
▁amendemen
=3287
="2311
Sumatra
▁memetakan
Yesus
▁Fenisia
▁Brin
▁Yunnan
▁Imlek
▁Martir
▁Brooke
▁rob
gyo
▁BPD
arsip
▁jus
awn
▁Vihara
Qui
Bala
▁Dela
="3287
▁1843
="531
umpu
▁Heat
▁string
odont
▁Singo
▁Nyak
▁diatasi
jasanya
▁Budiman
▁Vega
▁banyuasin
=2311
transjakarta
ǎ
М
▁Insurance
▁dideteksi
▁memperhitungkan
▁perhentian
▁dipelopori
▁kebangsawanan
=2489
Pokémon
=3001
▁fluorida
6°
▁Rara
Lihat
▁vaksinasi
▁Vene
Abdullah
▁Valentine
▁Armand
▁mengubur
="2489
▁mandar
klamasi
menteri
Baby
menge
▁Text
4.5
▁bernegosiasi
▁Glass
▁bag
=2620
▁Sosiologi
▁mengagumi
Arondisemen
Paroki
▁dipanen
▁social
▁Selir
▁pidie
▁motto
▁1300
yaku
▁Operator
sembilan
="2620
Sybra
puing
▁Milton
▁1838
▁1998)
▁blue
seok
="3001
▁kilang
shek
sinkron
▁Ere
RIS
sudah
▁MGM
▁2000)
Kronik
ط
▁eparki
▁kesalahpahaman
▁maskulin
▁Bieber
▁didatangi
width
▁Grogol
▁Beu
▁kemih
▁Wajah
Power
▁Werner
▁jatah
7.7
Malabar
▁Poin
hormat
▁Sersan
▁Tuo
teur
▁agro
▁Nero
▁similis
trof
▁Terbatas
▁Karet
▁Pedoman
▁Balige
▁kolonialisme
▁Dé
▁Indie
putranya
tzen
tumbuk
▁Kombinasi
▁menobatkan
▁terdampak
▁Liturgi
▁Disutradarai
intimidasi
=1501
▁Alfabet
="1501
▁hot
▁$5
hijau
▁Genesis
▁tana
=190
▁Lund
▁terisi
Christophe
▁Ahn
1984
▁Bahru
▁Candy
▁Maut
▁Saras
poly
▁File
▁Begin
▁Cong
▁Mengetahui
▁lumpuh
▁Ezra
▁Geographic
SpongeBob
▁Wolfgang
▁tulus
▁Lydia
▁Onitis
▁Sonic
Komisi
▁Krajan
▁Jalil
Marc
▁perekaman
▁Lex
▁porno
▁Zor
pasal
▁Recording
▁berbuah
▁manu
▁Datang
apia
▁Prov
sphaer
▁perasaannya
▁Sci
▁Advanced
▁Perfect
Poaceae
▁Truk
7.8
Typ
▁giliran
▁Bordeaux
▁berdomisili
▁kolesterol
▁peleburan
▁Tolitoli
▁Leyte
▁Savoia
▁Trent
▁Pengukuran
▁jerami
Tokyo
▁presisi
▁royong
▁Havana
nitz
kowski
▁Haifa
▁mengering
unggul
mologi
▁pantang
▁minus
▁ceria
▁Valve
▁Tiara
▁perantauan
Team
▁ditata
▁Admiral
▁Geoffrey
▁Kerusakan
▁beralkohol
▁menganugerahkan
▁mengartikan
▁Cardiff
▁infantri
▁company
▁kekeluargaan
▁tertekan
▁prostitusi
Beyond
▁Sidorejo
=670
▁ninja
="135
▁Operasional
▁Mito
▁asahan
▁keranjang
ranji
rowo
▁sekira
OW
▁senja
▁mesir
▁memutus
▁strata
▁LSM
▁4000
radja
gō
▁berinvestasi
▁berjumpa
▁otentik
▁sekarat
▁Vulgata
=2590
▁dirusak
▁Enrique
▁cameo
=534
space
▁Alauddin
klasik
▁Kronologi
▁bagasi
▁Ridge
▁Wake
▁kidung
quez
clav
onjong
▁Disebutkan
▁kencan
▁Nawa
▁raga
▁Sumo
▁Chika
Timur
▁Fran
▁Executive
▁Pittsburgh
▁sumatera
▁teatrikal
▁Kejahatan
=2492
▁mph
▁Anders
▁granit
Seni
▁Bahari
Gla
kabar
▁Iwate
Hyp
▁case
▁ampl
Hot
="2492
="2590
▁Andes
▁Journey
▁jumpa
▁menghormatinya
▁urat
▁Osman
▁LED
▁Kadar
2+
▁Fidel
rosa
▁Levant
▁Hieronimus
▁perbekalan
▁singingi
=3118
▁Raksasa
▁diaspora
▁Wellington
▁dicalonkan
▁dibicarakan
=1505
▁Depresi
▁Rahwana
▁kebersamaan
▁dipajang
▁Quinn
▁Morotai
▁cakar
▁enkripsi
▁Puja
illac
▁Wafat
▁conf
="3118
ül
▁1808
▁frame
▁stasi
▁Beli
▁Buta
ongkol
="670
owitz
▁Gia
▁penyerbu
▁Cecil
▁Awang
="534
="1505
="127
▁sarat
UE
PMI
="1450
▁1,7
▁untung
▁Intelligence
▁Pedagang
▁Perjamuan
▁membingungkan
▁Kekurangan
▁Siemens
▁semboyan
▁tunjangan
▁Octavia
▁Terpilih
Ann
103
migran
▁Dokumenter
=2373
="2373
▁Hé
▁Wendy
="136
▁Cruise
liana
="525
4–6
▁Bremen
▁Tiket
▁angkatnya
▁gigitan
▁1810
abrik
▁karate
ţ
▁2009-2014
▁Fernández
▁ekuivalen
▁terminologi
▁kurban
=548
rä
tilis
▁homoseksualitas
▁Indosat
▁Fiction
=135
costa
sterna
ists
▁Gü
▁penggemarnya
▁terdalam
tesis
huma
▁137
norma
▁karam
klas
lolo
culatus
selama
▁Mariana
pedi
▁Cycl
▁khu
▁comeback
▁Dortmund
▁aneksasi
▁dipertandingkan
▁merambat
▁Kinerja
▁Tondano
▁berlibur
▁sragen
▁peramban
▁Artemis
▁kesempurnaan
=1450
▁dipadukan
▁memproses
Assassin
▁Tanjungpinang
▁pengairan
=613
▁Gloria
▁Bho
▁gesekan
▁Eight
▁Mitos
beat
3.5
▁kolera
WSK
9.5
susu
ubun
▁rotor
▁Kahar
▁talk
akses
ryu
1.7
Santo
▁ventilasi
▁Kekayaan
▁Pelantikan
▁pesiar
▁JYP
▁Engkau
▁menyambung
▁Memper
=623
▁tunas
▁major
sultan
▁Phu
moko
▁wana
▁kim
▁Zach
▁penyebabnya
▁Medis
▁Rex
▁Epicypta
Last
▁restrukturisasi
kopi
▁Rusa
▁datanglah
analisis
▁Asri
reich
▁Boulevard
▁Investigasi
▁berseberangan
▁numfor
▁terperinci
=2740
▁Survey
▁penggembala
bold
=525
▁Damon
▁gagak
▁Cry
▁Frea
="2740
▁Berasal
▁Mizu
▁lembu
▁berkendara
Voyager
Bell
▁Yasin
▁Aldo
▁Beh
▁Locke
toksin
▁Klaus
▁Nanda
▁tersenyum
=2513
ร
▁kontrasepsi
▁kemauan
▁Mazda
=587
▁panji
=593
▁gerilyawan
="623
="613
▁Ronaldo
="2513
▁Perancang
shed
3,5
▁Peneliti
▁1831
mimpi
▁Donal
="548
▁penghambat
▁Loka
auto
call
Script
▁Haruka
="336
▁leleh
5.6
9.8
▁Aquitaine
▁Pencapaian
▁ketidakpuasan
▁menunaikan
▁mutakhir
▁purnawirawan
▁Melody
▁Serba
▁merampas
▁asterisme
▁mengimpor
=3120
=2606
▁PLTA
▁Hangzhou
▁Launch
▁Leslie
=610
Amb
nation
▁bergelombang
Sesungguhnya
cinus
▁UFO
▁Everton
="3120
manggis
▁NHK
pilih
0.9
▁rasisme
champ
▁Centro
ATI
=2375
▁obor
▁cakap
LX
zzy
="2375
roides
▁tuhan
▁Musk
▁fajar
▁Mohd
▁kawanan
▁Reynolds
▁Squidward
▁melewatkan
▁nominee
▁Lisbon
▁Gironde
▁menimba
▁60.000
=569
hancur
golongan
▁yuris
▁rapuh
▁bersambung
▁Conrad
▁Beji
▁Wayan
umbai
▁Colors
="1498
="587
▁Sesampai
="2606
▁peroksida
▁rias
▁Pepper
▁Mila
▁Iwata
▁Gilles
▁Ruangan
▁Canal
▁pekon
brook
spinosa
=127
▁Barri
latarbelakangi
ב
▁Abkhazia
▁Bantaeng
▁Culture
▁Montgomery
▁Pyongyang
▁agustus
▁spanyol
▁berjualan
▁Buntu
▁mahluk
▁Harbour
▁Woods
▁Lemah
▁Letjen
▁elongat
=653
▁katingan
▁Kursus
aib
▁Andrews
▁Jiangsu
=1498
▁Savi
DPRD
Gil
▁sosio
▁IATA
▁Elsa
▁penentangan
▁Worth
="593
▁Saus
▁Ario
▁Palau
▁manifestasi
▁mencela
kumpulan
й
▁bereksperimen
=3338
tivisme
▁penyelam
Mela
Huta
=336
▁Randu
▁tertera
▁mancur
▁Taoisme
▁Brahmi
ograf
neura
="3338
▁Penyelidikan
▁mesiu
kenal
▁Lille
▁205
="610
▁minut
▁Camb
▁kris
▁Ampat
8.9
▁Tad
▁Yap
avtshenk
▁Memphis
▁Technologies
▁memaksimalkan
▁penguburan
▁Cikampek
=2814
▁nyawanya
▁Creative
▁Ishaq
omerus
iflorum
lü
TNI
ongurio
▁landak
nomiya
▁Materi
▁terhingga
xon
▁Mekong
=2378
▁2.9
affe
="2378
pelan
="2814
▁Wings
ogenik
▁objektif
▁Mimi
125
formal
▁pidatonya
▁mewariskan
celup
▁berkencan
=2611
▁Domingo
▁abnormal
▁1806
▁Pengajaran
▁Pedang
cris
▁jaket
▁buntu
="2611
nagar
Roma
▁ف
="569
▁Sonny
=2379
="2379
▁pengirim
dance
▁shin
▁Sore
▁niaga
▁pall
▁Mayer
▁Tanjungsari
▁tiran
▁Navarra
▁Shimizu
▁Carnegie
▁pujangga
▁kontingen
▁bertahta
▁Giorgio
▁kesucian
▁Molekul
▁Trisakti
=136
▁dogma
Kekaisaran
="653
▁beringin
Rolling
▁diberitakan
Sunda
àn
empo
▁Guer
delapan
▁Cucu
tape
▁Denver
▁Kurnia
▁Ngan
▁gendang
Saksi
zé
▁ulat
▁kompromi
ș
▁Tetsu
▁Jie
dactyl
Kala
ė
▁Emanuel
▁Rodríguez
▁Beverly
▁Tochigi
▁ICAO
▁yunani
=2591
▁sukoharjo
penyakit
▁Henryk
▁Uttar
▁genteng
▁telegraf
punctatus
▁1993)
ulen
▁dedikasi
▁270
injak
▁ragi
▁Astana
▁Messier
="2591
poem
▁Prodi
tà
Ketika
=494
▁Feder
▁Small
▁penyelamat
Sdn
▁maksudnya
▁Kapu
з
▁kekecewaan
▁Barru
▁simplex
▁divonis
▁cuci
▁Sepeninggal
▁Wiki
▁Jatim
▁Hartono
▁acut
▁kagum
▁sombong
▁Spy
▁Dominic
▁Latif
Kucing
▁meledakkan
opod
▁Suite
▁Investment
dress
▁Vul
Menara
▁Laguna
onica
iculata
▁Agni
▁1834
▁Bahama
▁Maud
▁perdata
▁Antho
-1999
▁zoologi
ISA
▁Kapas
▁dahi
▁2002)
▁merefleksikan
▁tersukses
=2555
▁legiun
▁Dresden
="2555
=2586
▁Anastasia
▁dijamin
▁Asma
▁Tarif
saurus
Sekarang
="494
▁Muaro
culata
anggaran
Abad
=600
▁reorganisasi
▁146
170
▁Oba
▁Pusdik
makna
▁Masjidil
▁Harjo
▁Shiva
="2586
▁Kirch
▁mendokumentasi
Heteralonia
▁manipulasi
▁Arsyad
▁Pencarian
▁abelian
=2576
▁Misalkan
▁Diantaranya
=2596
▁serbaguna
▁preferensi
▁Kurniawan
▁Muawiyah
▁Arfak
▁Seong
▁(2020)
Tokoh
Kerta
▁(1978)
▁Keynes
thur
Revolusi
▁menikahkan
▁Mendes
="2576
▁later
waringin
koleksi
catus
Dur
▁beat
klaim
▁bilik
tikal
▁Sejalan
▁Theory
▁koki
="2596
▁Sati
ukuran
Get
Koninklijk
▁pembekuan
▁Sundance
▁Fischer
▁Lambung
▁pembajakan
▁Monkey
ofon
▁Slank
▁Bombana
▁Keramat
=835
▁Jabar
penga
▁BBM
▁Titus
▁berair
▁Pesa
▁Kyle
▁ketela
▁Vinci
WC
ichiro
▁Nurdin
eliminasi
▁Tesla
chter
▁1836
▁138
▁www
▁ionik
Who
sonii
▁brigade
▁narapidana
▁berbelok
▁setebal
=2561
▁3–1
=2498
kawannya
▁Charente
▁Gempol
▁tanggul
pecah
▁Sisters
▁Kunjungan
▁menyapu
▁ilusi
="2561
▁jenazahnya
▁Thur
="2498
▁news
Pha
genus
tropik
▁LAN
▁7.000
juru
sayap
america
Alun
▁butiran
syari
▁Comic
hub
▁Helikopter
▁kecurigaan
▁selebritas
▁nomaden
▁Parepare
▁beranjak
▁survey
▁Foreign
▁Bengawan
▁Kubah
=505
▁there
▁Solusi
▁Kambing
▁gim
utz
▁iringan
▁Batman
▁Gombong
▁hampa
etty
Queen
▁1826
loop
▁Loki
▁dikubur
▁Sciophila
olata
zali
▁KFC
ˈ
▁Ikhtisar
▁diperkenankan
▁seremonial
▁Perhitungan
▁Thamrin
=3141
▁disederhanakan
2,6
▁bergaul
=2512
▁Richmond
=1096
▁Monmouth
▁evolusioner
▁brachy
▁Balong
marah
▁Forever
▁Northern
=590
="3141
=664
title
Joe
▁gigih
▁Coba
▁(1987)
AIDS
▁race
▁Pamona
▁arsen
▁Sinyal
▁Medici
▁Vig
="1096
▁Dukun
sund
▁WC
="355
▁hirt
▁petang
="2512
Gala
▁Carrie
2°
▁Alberta
▁Fast
▁perangkap
aï
▁pelapis
▁Atol
▁dideklarasikan
▁mendedikasikan
strangalia
▁Actress
jpg
=2442
▁melejit
▁Islands
▁playoff
ritus
▁verbal
2.4
▁Gabon
▁1811
Andalus
▁Gim
▁1995)
▁Hammer
kereta
lepas
▁driver
▁Leuwi
▁memaksakan
="2442
="1026
▁Ceng
6.9
▁Tate
="590
▁Musikal
▁know
komposisi
▁Hamengkubuwana
▁Pertanyaan
▁browser
▁perumusan
▁pemicu
▁Galileo
▁Kemunculan
▁Brabant
▁bernapas
▁Phantom
▁selebihnya
=2480
=2494
=1026
▁Princip
▁kecabangan
▁fotosintesis
Dir
=343
▁Bulak
▁Javier
▁Tora
piro
Windows
▁YP
Kamen
SAR
▁Tual
Gedung
▁Balik
▁Ilham
▁Roes
-1)
="2480
sole
▁Sharp
="2494
3.0
▁Malawi
open
ceae
fici
▁Lepto
▁Etika
▁diploma
▁Alternatif
▁Microcionidae
▁Purnawirawan
▁Tanjungbalai
▁hepatitis
▁menjelma
▁tituler
▁perompak
▁Jaguar
▁Belarusia
▁komplemen
▁mencair
Bata
ssac
▁tungku
="3122
▁Alif
Petrosia
="835
▁siber
wujud
▁Highway
▁139
-1945
▁1,1
iksa
▁Bess
ckel
▁Narayan
8.4
pangeran
="664
▁substitusi
▁serbu
▁Jago
INA
Ü
▁sandwich
▁dedaunan
▁Protocol
▁Spider
▁purbakala
▁asupan
▁Nasib
=355
=2547
=961
Diskografi
▁Dewasa
Empis
▁Rosi
▁Strip
▁Seniman
▁Yer
▁Ekor
histori
▁rumusan
7.6
="343
▁tower
px
▁Salt
▁Metz
139
elius
▁2001)
▁Aron
fact
▁advokasi
▁koreografer
▁menggagalkan
=3122
▁Chechnya
▁serambi
▁Sanghyang
▁Duncan
▁Jatibarang
="2547
Seine
▁Irfan
▁lobi
▁Ngo
Len
▁reuni
Pertuan
▁intro
▁Eros
▁Augustin
▁Parung
▁spek
▁fall
▁Angke
dorong
▁berkonsultasi
▁dikebumikan
▁pengajuan
▁paradigma
▁kerdil
▁Hektar
etnis
▁java
▁purnama
▁support
▁Aren
Pesta
▁Resep
▁Naomi
▁Vila
wheel
▁dilukis
="1525
▁space
▁murung
5.9
▁Tanggung
▁Blair
Inf
▁Farid
ningsih
KAN
▁Keling
krom
▁Basu
▁Amangkurat
▁Nottingham
▁terkontaminasi
▁sumenep
=1525
=2517
=3077
▁Tanimbar
=621
▁Nassau
▁ciptaannya
▁Tonight
▁Patriot
▁Takalar
▁berkampanye
seluruh
Meunasah
▁Jobs
parent
Mereka
▁Lawa
▁1992)
▁Krayan
arsa
▁Hanna
vine
enheim
▁Penerbitan
▁Hime
▁gadang
▁Direct
keduanya
1965
mitra
="2517
▁soul
▁konsolidasi
="3077
▁Depati
gajah
▁lumajang
▁Hermione
▁Konsentrasi
▁Penurunan
▁oktober
▁Elektor
▁bagaikan
▁Holy
▁membelot
▁Grabag
▁Hachi
▁gandar
▁julu
▁Persik
▁menggalang
divisi
▁disintesis
▁Xun
▁curv
bacter
▁Dahl
▁330
▁Hadits
▁Quar
▁Adventures
▁Living
kacangan
5.0
yā
▁Gerak
wedana
▁paser
▁demokrat
▁Mahi
▁vena
▁Ketentuan
▁Stamford
▁Starbucks
▁disegani
▁menganugerahi
▁resistensi
▁perkakas
▁menyayangi
▁peradangan
Millennium
=2515
=2612
▁Tasmania
▁Richardson
▁Joey
▁Penghulu
▁Misteri
▁lajur
PAD
▁Kunti
masih
▁Buya
▁Jac
Gubernur
walaupun
▁Kodeks
▁(“
▁geologis
▁Stephan
▁Reed
galuh
▁Electronics
8.6
▁siput
intel
ák
▁Hanoi
multi
▁Superman
▁serum
="2515
="2612
▁color
▁pengawet
="505
essen
-2016
CoV
▁Color
▁kuartal
▁Pengolahan
▁Komisioner
▁tunangan
lulus
أ
disertai
▁Bakal
▁Iklan
cq
▁Ore
▁Jambo
▁1990)
aliri
lapis
new
=2939
▁palem
="2939
−1
="621
▁Judy
▁Sate
Pela
▁Brother
▁Leonid
▁Konfusianisme
▁Sihanouk
▁tertembak
=2663
▁penetrasi
▁Agresi
=625
ša
▁Pupuk
Journal
makhluk
melalui
▁Château
="2663
▁Punjabi
Dja
▁Chor
▁Congress
▁Still
▁Wabah
zione
▁Grin
▁Gauss
▁0.07
▁Dhani
▁1832
▁penambang
▁Scar
▁Tawar
▁Menanggapi
▁akomodasi
▁laksamana
▁mengisolasi
▁perjamuan
▁Canberra
▁Nyoman
=2536
▁Andhra
▁mengitari
zaman
▁Pelu
figur
▁king
Kelurahan
▁muson
Happy
tell
▁surau
▁voor
2,8
▁Bundes
▁Rhodes
yasu
▁1833
▁jambi
Ujung
▁rawat
="2536
musisi
▁misil
Mengapa
Pasifik
106
="625
▁1789
▁Actor
▁Susukan
▁Balo
Pekan
▁bibi
▁Augsburg
▁Solidaritas
▁berbohong
▁merosot
▁pemurnian
▁Pelayaran
▁dikreditkan
=3022
▁Klasemen
▁Kriteria
▁batalion
=649
▁Fiat
Cloud
▁pikirannya
blanc
▁Powell
▁sepihak
former
gupta
ecta
▁Urb
1%)
Karl
▁0,2
▁Debat
="3022
▁Dhar
▁Powiat
Platy
▁1824
▁ISBN
▁Lud
▁Barbados
▁Professional
▁Terengganu
▁berkecimpung
이
▁mengimbangi
▁fikih
=2589
=2531
▁kemiliteran
▁Taufik
▁kesemuanya
▁Abbey
ayangan
▁project
▁Riley
▁Buyut
▁(1986)
Organisasi
Pengadilan
▁Crew
omorf
▁mengambang
rī
="2589
LAM
▁Lues
komandan
="2531
▁book
▁Trento
kram
▁Origin
há
payung
tambang
▁berganda
▁night
▁terhalang
▁CW
ATAN
▁made
8.7
▁С
▁Ketungau
▁Marguerite
▁Zürich
▁mengkoordinasi
▁penangkaran
▁portofolio
▁desimal
▁belantara
▁sepengetahuan
▁Hiu
=504
▁(1981)
▁Nel
▁Lingkaran
▁Kaimana
▁Mish
▁gotong
Global
▁berjaya
▁Tribun
umumnya
sayuran
▁comte
▁Mong
enfeld
oskop
endang
▁Faroe
▁just
▁manusiawi
1950
Euophrys
▁simpanan
▁Shinta
=199
="1566
[...]
