#version: 0.2 - Trained by `huggingface/tokenizers`
င ်
ိ ု
ေ ာ
သ ည
သည ်</w>
န ်
ာ း
က ်
င် း
စ ်
င ်</w>
ပ ြ
မ ျ
ရ ွ
မ ြ
ည ်
ရ ှ
က ြ
ဖ ြ
ပ ်
ေ း
တ ွ
င ့
တ ်
ို ့
က ျ
ို င်
န ှ
မ ှ
န် း
ု ံ
ိ ု</w>
ာ း</w>
ော င်
ခ ျ
တွ င်</w>
ီ း
ေ ါ
င့ ်</w>
မျ ား
ဖြ စ်
မ ်
ဲ ့
ု ပ်
က ို</w>
ယ ်</w>
u r
i d</w>
d o
ယ ်
= "</w>
do c</w>
ော က်
ရွ ာ</w>
န ေ
ို း
ရှ ိ
မြ ို့
က ်</w>
ော ်
န ယ်</w>
ခ ဲ့
ရ ာ
ခ ြ
ရွ ာ
သ ေ
မ် း
စ ု
င် း</w>
ို င်း
မြို့ နယ်</w>
သေ ာ</w>
ော င်း
ီ း</w>
ဦ း
န ိုင်
င့ ်
့ ်
ပ ါ
ပ ေါ
က ု
နှ င့်</w>
ုံ း
t i
ဖြစ် သည်</w>
မှ ာ</w>
ို ့</w>
အ ုပ်
l e</w>
ti t
c ur
= "
tit le</w>
" ></w>
< /</w>
ur l</w>
cur id</w>
=" ?</w>
တ စ်
ခ ု
စ ်</w>
တ ည်
မျ ား</w>
ကျ ေး
စ ာ
လ ူ
လ ည်
ို က်
န ်</w>
ရ ေး
ူ း
ကျေး ရွာ
က ို
ဦ း</w>
က ွ
ကျေးရွာ အုပ်
ကြ ီး
တ ို့
ခ ေါ
တ ော်
လ ာ
ရ ေ
ရှိ သည်</w>
၂ ၀
လ ျ
ခဲ့ သည်</w>
နိုင် င
မ ှ</w>
ပြ ည်
နှ စ်
သ ူ
့ ်</w>
လ ွ
ို င်</w>
လ ေ
သ ာ
ဖြ င့်</w>
တ ော
ခ ရ
မှ ု
ဖ ွ
ပြ ီး</w>
သ ွ
လ ုပ်
မ ာ
သ ော
၁ ၉
တ ်</w>
ည် း
ထ ား
လ က်
နေ ရာ
ဒ ေ
ု တ်
စ ွ
လည် း</w>
စ ု</w>
အ သ
သည ်
မျ ိုး
ော က်</w>
ဆ ို
ပြ ု
သည ့်</w>
ဘ ာ
မ ိ
အ တွ
ထ ို
အ စ
ရ င်း
လ ှ
တည် ရှိသည်</w>
ပ ွ
နိုင်င ံ
ကြ ီး</w>
ေ ့
န ့်
( )</w>
သ ို့</w>
သ ား
ခရ ိုင်</w>
ောင် း</w>
ခ ွ
ဝ င်
တ ာ
၂၀ ၁
ကု တ်
အ န
ရ ာ</w>
ပေါ င်း</w>
ကျေးရွာအုပ် စု</w>
ဉ ်
ရွာ နေရာ
ကုတ် မှာ</w>
ရွာနေရာ ကုတ်မှာ</w>
ဂ ျ
ခြ င်း
န် း</w>
များ ကို</w>
ထ ိုင်
ခ ံ
အ ရ</w>
စ စ်
ပ င်
တ ိ
အ ထ
တ ောင်
သ န်း
နေ ထိုင်
တ ိုင်း
သ မ
သ ိ
က ္
သ ို့
ု ရ
လျ ှ
ဆ ောင်
ဒေ သ
ခြ င်း</w>
ပ ျ
ပ ေး
မ င်း
န ္
လူ ဦး
ရ ိ
လ ေး
ခေါ င်
စာ ရင်း
က ာ
ဖြ စ်</w>
ပ ်</w>
အ ား
မြ န်
စု စု
တ ို့</w>
ရ ေ</w>
တ ္
ထ ွ
စုစု ပေါင်း</w>
န ာ
စု တွင်</w>
၂၀၁ ၄</w>
အ မ
ရှ ိ</w>
သန်း ခေါင်
င် ္
သန်းခေါင် စာရင်း
စ ေ
ပ ု
နေထိုင် သည်</w>
ကြ သည်</w>
ကျေးရွာအုပ် စုတွင်</w>
တ င်
သန်းခေါင်စာရင်း အရ</w>
စ ား
ကျ ား</w>
လူဦး ရေ</w>
ယ ူ
ဲ ့</w>
၏ ။</w>
အ ခ
မ ္
ဝ ါ
ဘ ုရ
ည ့်
ယ ာ
နှ င့်
ဟ ု</w>
ရ က်
) ၊</w>
နှ စ်</w>
အ ချ
ဖွ ဲ့
သွ ား
ကု န်း
တ ရ
ိ တ်
အ ား</w>
ော င်</w>
ရ န်</w>
မြန် မာ
ခု နှစ်
ရ ပ်
ပ ည
ို လ
ပြည် နယ်</w>
ကြ ော
မ ဟ
ရ ောက်
အ ိ
ပ ုံ
ည ်</w>
ပေါ ်
ဦး နေထိုင်သည်</w>
အ ာ
က ာ</w>
တ ီ
1 5
ရ န်
ဆ ုံး
ပြ ီး
ိ န်
မ ွ
တွ င်
လေ သည်</w>
ရှ င်
န ယ်
ရွ ှ
လ ို
1 7
ုံ း</w>
ကျ ွ
ိုင် း</w>
အ ခြ
ဝ န်
ရေ း</w>
ိ ပ်
ဆ က်
ချ ုပ်
လ ုံး
တ ပ်
မှ တ်
တိုင်း ဒေသ
ပည ာ
ပ ေ
အ ကြ
1 9
က္ က
မ ူ
တော ်</w>
တ ိုက်
ဒ ီ
စ ္
1 8
တိုင်းဒေသ ကြီး</w>
၁ ၈
ပြ န်
သ ီ
1 6
ခု နှစ်</w>
ပြ င်
ရ သည်</w>
အ ဖြစ်</w>
နိုင်င ံ</w>
သည ့်
သ ုံး
သ ူ</w>
ကြော င့်</w>
တ ာ</w>
အတွ က်</w>
0 0
က ား
သ စ်
စ ီ
ပ င်</w>
ရှ မ်း
လျှ င်</w>
စ ည်း
ထ ုတ်
ပ ိုင်း
ဆ ိုင်
အ ရှ
ကို ယ်
ရွှ ေ
ွ ေ
ပ န်
ကျ ောင်း
မ် း</w>
ကျ ောက်
ရ ီ
ော ့
ချ က်
အ လ
က ောင်း
စ ီး
ကြ ား
a n
ဇ ာ
ို း</w>
a r
မ ိုင်း
ါ း
ထ ောင်
သ ာ</w>
အ မျိုး
မှ ု</w>
တွ ေ့
က န်
လွ ှ
သ က်
ဌ ာ
နေ ့
ဆ င်
လည် း
ပွ ဲ
i n
အ တ
ု တ်</w>
အ ောက်
ဆ ွ
အ ောင်
ခုနှစ် တွင်</w>
မ ည်
ကု န်
လ ိုက်
လ မ်း
အ ဖွဲ့
အ င်
များ သည်</w>
အသ ုံး
ရ ုပ်
မြ ေ
ရ ော
ိုလ ်
ခေါ ်
န ီ
န ောက်
တ က်
အ ဆ
စွ ာ
န ည်း
တစ် ခု
သ ံ
က မ္
ခ ု</w>
မြ ောက်
ပါ ဝင်
ရှမ်း ပြည်နယ်</w>
တ န်း
ဘ ူ
ဘ ော
ဆ ရာ
ခ င်
မြ ို့</w>
တ္ တ
င်္ ဂ
ရှ ား
စ က်
ခ ေ
တရ ား
သ ော်
ပါ သည်</w>
တ ူ
၁ ၇
ု န်း
ဘုရ ား
1 4
အခ ါ</w>
ဖ ော်
ပ န်း
လွ န်
မြ င်
များ တွင်</w>
ိ န်း
ရွ က်
ဘ က်
e r
ပေါ င်း
ချ ောင်း
ဓ ာ
ဏ ်
တ ို
ပါ း
အ ရ
ံ ့
l t</w>
ပေါ က်
ဒ ေါ
န ား
ထွ က်
သ ဖြင့်</w>
င ယ်
လ ီ
ဘာ သာ
g t</w>
ကုန်း ရွာ</w>
စ ဉ်
ဘ ွ
စွ ာ</w>
ရ က်</w>
မ ီ
ပ ိုင်
ကျ ော်
ဟ ု
မ ့်
ယ င်း
ပွ ား
လေ ့
ပ တ်
o n
က ောင်း</w>
မြ စ်
သ တ်
ဆ ေး
ကမ္ ဘာ
ည ီ
လုပ် င
သ င်
ပ ါ</w>
ခွ င့်
မ ိုး
က ား</w>
တို့ သည်</w>
လ င်း
အ ပြ
ဲ ခ
န ောက်</w>
န စ်
န ွ
မ န်
မြ ောက်</w>
M M
န္ ဒ
MM R
ဓ ိ
t h
ရ င်
1 0
လ ိ
ဥ ပ
ဒ ါ
e n
ကြ ောင်း</w>
ပ ထ
ဖ ျ
ကွ ယ်
သော် လည်း</w>
၁ ၆
ခ န့်
ု ပ်</w>
စ တ
ထ ို့
ဝ ေ
ချ င်း
အိ မ်
ရ ိုး
တ ံ
က္ ခ
အစ ိုး
စ ိတ်
များ နှင့်</w>
သ ား</w>
တို့ ကို</w>
င ြ
ပ ူ
ပြ ောင်း
မ ်</w>
စ ံ
အခြ ေ
ဟ ို
န္ တ
အသုံး ပြု
မြ တ်
တ ယ်</w>
အ ကျ
သော ်</w>
ဒ ္
ပ ေ</w>
o r
ဒ ု
ခေါ င်း
ဆ ုံး</w>
တွ င်း
ကျွ န်း
လည်း ကောင်း</w>
န တ်
က ိုင်း
ရ ရှိ
0 1
တော င်</w>
မ ီး
မ ရှိ
န ိ
လ ယ်
ဂ ္
လုပ်င န်း
အုပ် ချုပ်
ေ ့</w>
ကြ ာ
က ဲ့
တ ိုး
တ တ်
အ ောင်</w>
မဟ ုတ်</w>
အတွ င်း</w>
တ င်း
o n</w>
ပ ္
စ ကား
အမ ည်
၂၀ ၀
မျ ှ
ပြ ော
ခဲ့ ပြီး</w>
ီး ယ
ကွ န်
စ ိ
တ္ ထ
ခေ တ်
အ ပ်
မ ော်
အ ဓိ
န ောင်
ခြ ား
u n
ဖ က်
စ ပ်
ရ ဲ
မ ည်</w>
အတွ င်း
က လေး
ဖြစ် ပြီး</w>
န န်း
အ များ
ဆ ာ
၁ ၂
သ ီး
မှ ာ
ထ င်
ပြု လုပ်
မြ င့်
ဝ င်</w>
သ ု
မျ က်
အ ို
ည ောင်
ပထ မ
တ န်
ဆ ီ
ဂ ါ
အ င်္ဂ
က ော
က ိုင်
ဏ ္
ရာ ဇ
အထ ိ</w>
လ ဲ
အား ဖြင့်</w>
အ ဖြစ်
အမ ေ
၁ ၀
တ ိုင်
က ူ
က ူး
မ ူ</w>
ေ း</w>
ပ ဲခ
အခြ ား
မ ို
ဇာ တ်
ခွ ဲ
ဆောင် ရွက်
ည ွ
ဉ ်</w>
ဂ္ ဂ
သိ မ်း
ဖြ ူ
ပြ ည့်
ထ ဲ
တစ် ခု</w>
နိုင် သည်</w>
ထား သည်</w>
ဓာ တ်
ဋ ္
င ွေ
ပဲခ ူး
င ါး
အမေ ရိ
2 0
က ော်
အ နေ
ွ န်
၁ ၃
ပ ို
အရှ ေ့
ေ ာ</w>
လ ော
ရက် နေ့
မ န္တ
လ ား
ခ ိုင်
က ောင်
အချ ိန်
လ င်
အ ရေး
လ ုံ
အ င်း
မဟ ာ
အ မှ
ကြ ောင်း
မျ ိုး</w>
ော ်</w>
န က်
တ က္က
ပ စ္
ရ ဟ
ဖြ င့်
သ င်္
ဆ ောက်
တ ီး
စ ိုက်
သ ေး
သည် ဟု</w>
စ တင်
ဖြ တ်
ဘ ီ
လူ မျိုး
ရ ုံ
t a
အစိုး ရ
ဟ ူ
တက္က သ
သို့ မဟုတ်</w>
စ ည်
မွ ေး
တိ ယ
ဗ ိုလ်
အရှ ေ့</w>
ကျ င်း
ဆိုင် ရာ</w>
များ မှာ</w>
ဟ ာ
ဉ် း
အ ီ
ရှ ေး
စ ော
t e
ဗ ြ
က ောက်
၁ ၅
ထ က်
ဒ ်
ခြ ေ
လွ တ်
ဌာ န
ရ ည်
ဝ ိ
i n</w>
အ ရာ
ရ ို
မ ံ
တော် မူ
ကျ င်
ရှိ သော</w>
ဘူ တာ</w>
လ ိပ်
ိ မ်း
က ိုး
စ ုံ
ု ဒ္
7 0
မ ောင်
ဗ ျ
အကြ ောင်း
ရေး သား
ဖြစ် သော</w>
လ ်
မြ ှ
န ့်</w>
1 3
a n</w>
ချ ီ
ဆ ိပ်
လွှ တ်
အန ောက်
ထား သော</w>
r o
ရာ တွင်</w>
တွ ေ
ဟ ူ</w>
စစ် ကိုင်း
မန္တ လေး
စ င်
ဆ င်း
၁ ၄
သမ ္
င ှ
ပ္ ပ
လ ာ</w>
ကို လည်း</w>
က ိ
ရ ု
တ ုံ
သူ ့
a l
ထ ူး
မ ဲ
ိ မ်
န မ့်
ဂျ ပန်
မ ု
မ ာ</w>
အ ဝ
လ န်
r e
မ ေ
တစ် ဦး
တ ီ</w>
အ က်
မွ န်
ခဲ့ သော</w>
တည် း
တည် ရှိ
ထ မ်း
တ မ်း
ဖွဲ့ စည်း
လ ပ်
ထ ပ်
ူ း</w>
၁၉ ၅
ရွ ေး
၁၉ ၄
ကွ ေး
အထ ူး
၁၉ ၆
ဒေ သ</w>
သော အခါ</w>
တော ့
ထ က်</w>
ယ ောက်
ဖော် ပြ
က မ်း
ဘ ဲ</w>
ရ ိုက်
တာ ဝန်
ခ ဲ့</w>
ရပ် ကွ
သ တင်း
သ ဘော
၁၉ ၉
ထ ောက်
ထ ိုး
ချ ိန်
ဥပ ဒေ
ရက်နေ့ တွင်</w>
ရ ီ</w>
တ ု
ကဲ့ သို့</w>
ပ ိုင်း</w>
အ လုပ်
ရ ုံး
တ ဲ့</w>
စွ ဲ
တ ောင်း
ပ ို့
ပြ ိုင်
ခဲ့ ကြသည်</w>
3 0
ကြ ည်
ပြ ား
ဏ ာ
မြန်မာ နိုင်ငံ
က ြ</w>
ဖ န်
၀ ၀</w>
သမ ီး
က စား
များ က</w>
2 5
ရှ င်</w>
ဖြစ် လာ
အချ ို့
ဒေါ ်
ပျ က်
ရ ောင်
ကွ ဲ
T h
ပေ သည်</w>
အခ ါ
မ တ်
ဝ မ်
ဘာ လ</w>
ရှ င်း
ရွ ယ်
ဆ ယ်
ဝ န်း
ပြ ီ</w>
ခ ိုက်
စ ေ</w>
ဗ ုဒ္
ကြ ွ
န ို
လျ က်
စ ဉ်</w>
ပါ တယ်</w>
ပြီး နောက်</w>
မ ကွေး
ကွ င်း
မိ မိ
လ ုံး</w>
မှ န်
တရ ုတ်
ချ ိ
ခ ါ
ဘွ ဲ့
ဝန် ကြီး
ရဟ န်း
သွ ယ်
ကြ ိုး
ဒု တိယ
အထ က်
သတ် မှတ်
ည ့်</w>
ကု န်း</w>
ပစ္ စည်း
က င်း
ဘုရ င်
ဂ ီ
ထ ိ
i s
ရှ ည်
e r</w>
ရှ ာ
ချ င်
သည် မှာ</w>
th e</w>
ဝ တီ
မ္ မ
ပြည် ထောင်
သ တ္တ
ကြ ည့်
သ ျ
၁၉ ၈
ပြ င်</w>
မ ား
ခ ံ</w>
လွ ယ်
ရန် ကုန်
ခ န်း
မျ ှ</w>
ထွ န်း
ပ ီ
; /</w>
စ္ စ
၁၉ ၇
ပဲခူး တိုင်းဒေသကြီး</w>
ပု ံ</w>
a m
သွ င်း
သို့ သော်</w>
ချ ုပ်</w>
စ ီ</w>
သာ ယာ
မဟ ုတ်
2 8
စီး ပွား
ar d</w>
ပါ း</w>
န ီး
တ ိုင်း</w>
ဂျ ာ
ခံ ရ
e s
ဗုဒ္ ဓ
ကာ လ
ကျ မ်း
ရပ်ကွ က်</w>
သမ္ မ
ထ ိန်း
ကျင်း ပ
အစ ည်း
သမ ိုင်း
ယ ခု
လေ း</w>
စု ရွာ</w>
ကျ ိုင်း
i c
2 6
စစ်ကိုင်း တိုင်းဒေသကြီး</w>
ဂ ု
ထင် ရှား
ည် း</w>
န ံ
ဘ ဝ
အစ ား
သော ကြောင့်</w>
စ နစ်
လ ောက်
အ ိုင်
အ လွန်
ပြ ု</w>
သာ သ
သမ ား
ယ ာ</w>
စာ ပေ
လျ က်</w>
ဆ န်
ပြည် နယ်
ဖွ ဲ့</w>
2 7
2 4
စွ မ်း
ပ စ်
အလ ယ်
2 9
ချ မ်း
၁ ၂</w>
3 6
ဗ ေ
အမှ တ်</w>
ညွ ှ
3 9
အ ေ
အိ န္ဒ
ဆ ု
a l</w>
မြ င်း
5 0
ီးယ ား
၁ ၀</w>
ဖွ ား
ောက် အ
ဗ ီ
ဆ ီး
3 4
ိုလ ်</w>
အ ဆို
မြတ် စွာ
ပေါ ်</w>
in g</w>
မှ ူး
ဆွ ဲ
တော ့</w>
အမေရိ ကန်
3 8
o w
မ င်း</w>
ပါ တီ
ဂ ေါ
o f</w>
t r
များ ကို
ခေါ ်</w>
ိ ယ
အန ောက်</w>
လ ောင်း
ရော ဂါ
မျက် နှ
ဝါ း
ကြီး ရွာ</w>
က ီ
ဗြ ိ
ပေါ် တွင်</w>
တွေ့ ရှိ
အပြ င်</w>
ဘုရ ား</w>
လေ့ လာ
ဝ တ္ထ
ဝ ေါ
အ မြ
ဗြိ တိ
တည် ဆောက်
အချ က်
ခဲ့ ကြ
ကြီး မြို့နယ်</w>
ဘ ာ</w>
အဆ င့်
ရ စ်
a s
ပွ ဲ</w>
ဖ ူး
သွ ေး
မြို့ တွင်</w>
ခ ဲ
ကျ ယ်
3 7
က ံ
ဝ ိုင်း
မ က်
a c
ည ှ
ပြီး လျှင်</w>
င ါ
ပျ ိုး
ဇ င်
ဝ က်
ချ ောင်း</w>
ခ ါး
ဏ္ ဍ
က န်</w>
လူဦး ရေ
အမျိုး သား
ပ ိ
ချောင်း ရွာ</w>
မြ ူ
အ ကြီး
ကိုယ် ပိုင်
e s</w>
ချ ေ</w>
o m
ပြ ီ
စ ိုး
က ော့
3 5
ကျ န်း
မှု ကို</w>
စေ တီ
ဆ ောင်</w>
ရ င်း</w>
၂ ၀</w>
ဖွ င့်
ကြ ေး
သျ ှ
ပြန် လည်
i t
သ င့်
MMR 01
န ာ</w>
ဝ တ်
တွ ဲ
သာသ နာ
များ အား</w>
အ ေး
15 0
လွ ိုင်
စာ အုပ်
အောင် မြင်
က ရင်
မိ တ်
များ စွာ
က ပ်
တ န်း</w>
ဝါ ရီ
အ မှတ်
လှ ုပ်
ယ ဉ်
န ေ</w>
ဘ ို
န ဲ့</w>
က ယ်
တိုက် ခိုက်
အတွ က်
မြို့ နယ်
၁ ၁</w>
ယ ား
စ သည်
ချ က်</w>
W ard</w>
တိ မ်
ငှ က်
၁ ၅</w>
ခရ ီး
ပြောင်း လဲ
ည ာ
လ စ်
ဝ ယ်
တိုး တက်
ကာ ကွယ်
ထ ု
ဂ ို
အ ရှင်
၂ ၂
ကျ န်
ကျ ောင်း</w>
စ ား</w>
ကျ ော်</w>
သည် ကို</w>
သူ သည်</w>
e l
4 0
သ ရက်
အသ က်
ကျိုင်း တုံ
အ ဖွဲ့</w>
စ မ်း
မ ယ်
a t
စီ မံ
ခ ို
အသ င်း
တက္ကသ ိုလ်
မန္တလေး တိုင်းဒေသကြီး</w>
မ ော
a r</w>
သ ဲ
နေ သော</w>
လွတ် လပ်
a ti
စ ာ</w>
ယာ ဉ်
တို့ က</w>
သ ခင်
ခွင့် ရ
ပိုင်း တွင်</w>
တို့ တွင်</w>
အတ ူ</w>
တပ် မ
တ ား
ပ ူး
ခဲ့ လေသည်</w>
ကျ င့်
အခြေ ခံ
u s
တ ိုင်</w>
ဖ ာ
ဖ ေ
အာ ဏာ
ထုတ် လုပ်
o r</w>
ချ စ်
မျက်နှ ာ
က န့်
o l
ပင် လယ်
ထ ား</w>
ခဲ့ ရသည်</w>
မြန်မာ နိုင်ငံ</w>
ဆ ံ
i l
ရှ ေ့
ပြ ည်</w>
များ မှ</w>
ကု န်</w>
ဒ ်</w>
ဟ ောင်း
ဖ ိုး
က ေ
ဆ ောင်း
လာ သည်</w>
မှု များ</w>
ကြော င့်
ယ ျ
မကွေး တိုင်းဒေသကြီး</w>
ဘ က်</w>
တည် ထောင်
စိုက် ပျိုး
နှ ုန်း
၁ ၄</w>
an d</w>
4 5
၁၉ ၃
၁ ၆</w>
တို က်</w>
လင်း မြို့နယ်</w>
ဋ္ ဌ
န်း မြို့နယ်</w>
ထ ည့်
လ ောင်
အ မှု
ထ ီး
နေ ့</w>
ပ ိတ်
ဖြ ေ
ခြင်း ကို</w>
ရိ ယာ
ချ င်း</w>
ချ ို
အ ယ်
ဌာ န</w>
တ န
ဟူ သော</w>
စ ိန်
တ ေ
ဝ မ်း
မ ိုင်
၁ ၈</w>
သင် ကြား
စော င့်
များ ဖြင့်</w>
ဘ ိ
ရ ောင်း
MMR 00
အတ ိုင်း</w>
၁ ၃</w>
ရုပ် ရှင်
အိန္ဒ ိယ
ရ ံ
ပ ိုး
င ွ
MMR 0
လ ိုင်
ပု ဂ္ဂ
လ တွင်</w>
လှ န်
ဝါ ဒ
ကော် မ
လ ေ</w>
အ ဲ
ဗ ာ
လ ို</w>
ဖြစ် စေ</w>
န စ်</w>
အန ည်း
ကိုယ်ပိုင် အုပ်ချုပ်
ခြ ောက်
ပါ က</w>
ဖြစ် ပေါ်
ယ ုံ
အင်္ဂ လိပ်
ဘ ူး
ရှ ု
ပွ င့်
န် န
ရှိ ပြီး</w>
မ္ ပ
အဓိ က
လို က်</w>
အ ရပ်
နိုင်ငံ ရေး
ခ တ်
အသ ံ
ဝတ္ထ ု
သ က္က
ow n</w>
ပါဝင် သည်</w>
4 9
တက္ကသ ိုလ်</w>
ဆ ူ
အကျ ိုး
ပ ဲ</w>
ခဲ့ ရ
ဆ ိုး
ကမ္ဘာ ့
ဘ ယ်
ကွ ာ
သည် လည်း</w>
ရ မည်</w>
ခွ န်
စေ ရန်</w>
ဝင် ရောက်
ခေ တ်</w>
ဟ ော
ဝ ှ
၁ ၉</w>
ပည ာ</w>
ရွာ သည်</w>
e d</w>
သမ္မ တ
ခဲ့ သည့်</w>
ကွ က်
ဖျ က်
ဉ ာ
ခ န့်</w>
ပ ယ်
ဘ ား
၁ ၇</w>
ယ ှ
ဆ န်း
ဟ န်
ကျွ န်
ဟ ာ</w>
မ ရ
လျှ ပ်
ဝ ဝ</w>
ကိုယ်ပိုင်အုပ်ချုပ် ခွင့်ရ
တွင် လည်း</w>
a un
ပုံ စံ
ဝ ဲ
သ ဘာ
ဂု ဏ်
လုပ် ကိုင်
ခ င်</w>
ဆ ည်
T own</w>
မ ောက်
ဆိုင် ရာ
လျှ ောက်
ဟ ိ
ယ ွ
ဖ ိ
ယဉ် ကျေး
4 8
အ ရွယ်
ပါ အ
ရာ သီ
ပြ ေ
ဝ င်း
C h
က ဗျ
ဖွ ေ
မ္ပ ဏ
ကု မ္ပဏ
ခြ ံ
ဥ က္က
ငြ ိမ်း
ထုတ် ဝေ
မိ န့်
တည် း</w>
သီ ချင်း
၂ ၁</w>
ထ ံ
ဘူ တာ
ရ မ
ဂီ တ
က ချင်
ပြ င်း
ယ က်
မှ စ</w>
မ ေး
အ ိုး
အန ု
ခေါင်း ဆောင်
ရောက် ရှိ
ဂျ င်
တ ယ်
ဂျ ီ
လှုပ် ရှား
ဆ င့်</w>
ဝ ီ
ဆရာ တော်
ဆ ုံ
ထ ေ
န ု
6 8
7 9
ဗ ဟို
ဥ ရော
အ ံ
ဘ ေး
ဝါရီ လ</w>
ကြ ေ
၂ ၅
ကဲ့ သို့
ထား သည့်</w>
ဆ ိ
ထို့ နောက်</w>
သ စ်</w>
ဆ ရာ</w>
လ ု
တိမ် ကော
ပ ဲ
1 2
စ ကား</w>
န ိုင်</w>
မ ီ</w>
ော င့်
သူ များ</w>
ဆ ို</w>
ဂျပန် နိုင်ငံ</w>
၂ ၅</w>
ဆက် သွယ်
၃ ၀</w>
က င်
ဆို သည်</w>
ခရ ိုင်
ဓ မ္မ
သူ များ
ခ ိုး
န ီ</w>
ဖ တ်
လှ ူ
အသ ီး
တည်ရှိ သည့်</w>
လာ ခဲ့သည်</w>
ပြည်ထောင် စု
တ ေး
င ူ
ကြ ယ်
ကြ ံ
ပညာ ရှင်
အ ုတ်
အဆ ောက်အ
ိ မ်</w>
ဗ မာ
ကိုယ် စား
အ က
ထ ူ
e c
တ ူး
သ န
) "></w>
ဇ ူ
ို ဟ
လို အပ်
ဈ ေး
န် မြို့နယ်</w>
17 0
က ိန်း
ဖြ ိုး
6 9
တ က
လ ို့</w>
၂ ၆
အောက် တို
ရ ောက်</w>
သ ရုပ်
မြှ င့်
ဖြစ် သည့်</w>
တိမ်ကော သွား
ဇ ွန်
သိ ပ္ပ
ရ သော</w>
ရှ ိုး
4 4
ခရ စ်
ချ ီး
ပျ ံ
မြန် မာ</w>
စက် တင်
ပ ိုက်
ရိ တ်
္ စ
အစ ဉ်
နှင့် အတူ</w>
ရာဇ ်</w>
ပု ဒ်
ခဲ့ ရာ</w>
ဒီ ဇင်
၂ ၄</w>
a t</w>
ဂ ူ
ခ မ်း
ကြ ိမ်
ခြင်း ဖြစ်သည်</w>
နေ သည်</w>
5 9
စီးပွား ရေး
အစ ီ
ဇ န်န
အ လျ
အန က်</w>
ချ ယ်
ဤ ရွာသည်</w>
ရှာ ဖွေ
မှု များ
လက် နက်
ပျ ော်
ကွယ် လွန်
ဖ မ်း
င်္ သာ
စာ ရေး
ဗေ ဒ
" )</w>
2 00
တော ရွာ</w>
အနေ ဖြင့်</w>
လုပ် ဆောင်
ရ တ
ဩ ဂ
6 0
ဘ ိုး
တော် လှန်
မ ောင်း
5 8
ထို့ ကြောင့်</w>
ထေ ရ
နေ ရာ</w>
မြန်မာ ့
နွ ေး
သင်္ ဘော
တွ ေ</w>
ဒ ဏ်
ပြည် သူ့
ယ ော
ယ ူ</w>
သ ောက်
6 7
လား ရှိုး
၃ ၀
လွ င်
ြ ိုဟ
၂ ၂</w>
ဝ န်</w>
ဘ ော်
ကြ က်
ရွာ သစ်
၂ ၄
၂ ၇
2 2
a g
တ င်</w>
u t
အဖွဲ့ အစည်း
ပါ တီ</w>
တ ဲ့
ဖြစ် ပွား
ယုံ ကြည်
နိုင်ငံ တော်
ဘက် တွင်</w>
ဒ ို
နှ ံ
၏ ၊</w>
ည ို
ဦး စီး
ဝ ေး
ဘ ု
၃ ၅
လ မ်း</w>
ဇ ီ
ပြ န့်
မြ ိုင်
ဟု ခေါ်
ဆ ဲ
သာ မ
အ ပူ
က္က ူ
ပြည် သူ
c h
မီ တာ</w>
မြတ်စွာ ဘုရား
နို ဝင်
4 7
ဆ န်း</w>
နှ ိပ်
ဂ ွ
သ င်း
ကျန်း မာ
ဖ ို
၂ ၇</w>
အ ယူ
ီးယ ား</w>
အား လုံး
၍ ၊</w>
ပျ ဉ်း
အ ပိုင်း
ကဗျ ာ
ဖ ောက်
ခ ုံ
င ယ်</w>
ယ ို
၂ ၃</w>
ကိ စ္စ
ဖွ ံ့
အန ီး
d e
ယ ု
ဖြစ် ကြသည်</w>
တွ င်း</w>
ဇ ီး
ကျ ုံ
မ ိ</w>
ရာ စု
လက် ထက်
ကချင် ပြည်နယ်</w>
3 3
ထ ိုင်း
ထ ုံး
အား ကစား
တ ောက်
စ္ ဆာ
သ ောင်း
တူ ညီ
en t</w>
ဖ ု
အသ က်</w>
ဆို သည်မှာ</w>
1 1
ထ န်
ဖ ေါ
ထ ိပ်
နိုင် သော</w>
ဗြိတိ သျှ
ကွန် မြူ
သာယာ ဝတီ
ကွ င်း</w>
ဋ္ ဌာ
အ ပါအ
အစိုး ရ</w>
လွှတ် တော်
9 9
တ မ
တိမ်ကောသွား ပြီ</w>
လူဦးရေ စုစုပေါင်း</w>
အ ပင်
ထမ်း ဆောင်
Th e</w>
တောင် ငူ
နွ ယ်
ကု သ
၂ ၆</w>
ရ ပ်</w>
ပြ ေး
ဖွံ့ ဖြိုး
ထ န်း
လူ မျိုး</w>
s i
ဘာသာ စကား
6 5
က လည်း</w>
a d
မူ လ
ဖွ ယ်
လှ ည့်
လွှ မ်း
၂ ၈</w>
ပြင် သစ်
ပင် ရွာ</w>
မြို့ တော်
ဇ ော်
ရွေး ကောက်
ဖြစ် ပါသည်</w>
လာ သော</w>
လော က
လ ်</w>
ဇ ္
တို့ မှာ</w>
လိ ပ်</w>
သေး သည်</w>
ဂ ံ
လ ံ
န က်</w>
အ ခွင့်
ချိ န်</w>
အမျိုး မျိုး
များ စွာ</w>
ထွ င်
ရ ဲ့</w>
ခြင်း နှင့်</w>
ပေါ် ပေါက်
မ ိုင်</w>
စေ သည်</w>
ကီ လို
ဥရော ပ
လျှပ် စစ်
ကျ ူး
သိပ္ပ ံ
ပြော ဆို
ပ ို</w>
န်း ရွာ</w>
သ န်
ဂ ြိုဟ
ဆွ ေး
ဖ ုရ
လ ည်</w>
ဦး မြို့နယ်</w>
လွိုင် လင်
၂ ၉
အန က်
တတ် သည်</w>
ရ ထား
တ န့်
မ င်
ရှိ နေ
l e
ကြီး သည်</w>
r i
တစ် မျိုး
ဒီ မို
သ က်</w>
ပ ံ
သာ ရွာ</w>
ထဲ တွင်</w>
ကြ ို
ဆရာ တော်</w>
လက် ခံ
သဘာ ဝ
7 8
ထိန်း သိမ်း
ကြ ား</w>
၂ ၃
လ က်</w>
ဖျ ား
သူ တို့</w>
ယ ောက်</w>
၂ ၉</w>
ဘ ဲ
အာ ရှ
အဝ ေး
ရေး နှင့်</w>
ဒီမို က
လုပ်င န်း</w>
မှ န်း
၁၈ ၈
နာ မည်
ယူ ဆ
ယှ ဉ်
ရန် အတွက်</w>
aun g</w>
ရှ စ်
ဇ င်း
ရ င်</w>
ဆ တ်
ကုမ္ပဏ ီ
ပ ရိ
ရ ခိုင်
ပို မို
ပုဂ္ဂ ိုလ်
ဘာ သာ</w>
ဆိ ပ်</w>
အသ ား
တို့ အား</w>
ရ ူ
၂ ၈
တ ော</w>
2 3
ပ လ
မ ဂ္ဂ
ချ ာ
ယ ့်
ဘ ုန်း
ဘူတာ တစ်ခု</w>
အ ောက်</w>
မိ န်း
ခွ င့်</w>
နောက် ဆုံး
မ ည့်</w>
ယ ံ
သ ပ်
မ ုံ
သုံး စွဲ
လှ ယ်
မ ကြာ
သမ ီး</w>
တစ် ဦး</w>
တပ်မ တော်
ဆ င့်
တ ဲ
အ ဲခ
အာ ဖ
ပျ ူ
အမျိုး သမီး
ဆ န္ဒ
ကွ မ်း
ပေး ခဲ့သည်</w>
သိ န်း
များ အတွက်</w>
မှ ူး</w>
ခြ ုံ
ဘုရ င်</w>
အခြေ အနေ
တ မ်း</w>
e n</w>
ရက် တွင်</w>
ရ ယ်
သက္က ရာဇ်</w>
မင်း သား
ပေ း</w>
အဲခ ိ</w>
ခ င်း
u l
ဧ ပြီ
န ည်း</w>
ပ ိုင်</w>
တွ န်း
တို့ နှင့်</w>
သ န့်
ဆ ိုင်း
ခဲ့ ပါသည်</w>
t o</w>
ကိုး ကွယ်
လ ဲ</w>
ကြ မ်း
ဝ ါ</w>
သု တေ
ခြင်း ဖြင့်</w>
ဗိုလ် ချုပ်
စ သော</w>
၄ ၀</w>
၁၈ ၉
မြ စ်</w>
ရွှ ေ့
တ ူ</w>
ပ ံ့
ဂ ါ</w>
ညွှ န်
မှတ် တမ်း
ဗ ္
မ ကျ
7 7
ကျောင်း သား
ဒ ီ</w>
အသ ိ
န် ရွာ</w>
ဆ က်</w>
ဆက် လက်
ယျ ာ
ဖွင့် လှ
ရွေး ချယ်
စီ ရင်
ဆ န့်
စ စ်</w>
ပျ ောက်
လျှ င်
မတ် လ</w>
မွေး ဖွား
မ န်း
ကျွ န်း</w>
ရှိ သည့်</w>
8 8
အ စာ
m o
နွ ား
တော် ကို</w>
ကျွ မ်း
ကြ လေသည်</w>
ရရှိ ခဲ့သည်</w>
t er
ခြင်း သည်</w>
တွေ့ ရ
စတ ုရ
မိ ဖုရ
သိ မ်
1 0</w>
a p
ရာ ထူး
၃ ၆
ဏ ်</w>
ကျောက် မဲ
ရု ံ</w>
ဖြ န့်
အထ ိ
၅ ၀</w>
အ မြင့်
ဩဂ ုတ်
I n
မ ပြု
တန င်္သာ
ရေး အတွက်</w>
များ နှင့်
ဆုံး ဖြတ်
9 0
a y</w>
လျ င်
မ ဲ့
ို က်</w>
က လ
နိုင် ရန်</w>
သမ ား</w>
ဒေါ က်
ယ ခင်
၀ ၀၀</w>
အ ပေါ်</w>
တစ် နှစ်
အမေရိ ကန်</w>
ပ္ပ ာ
လူ း
ဉာ ဏ်
တို့ မှ</w>
စည် း</w>
ဖြစ် သူ</w>
a u
6 6
က ပင်</w>
ကွန်မြူ နစ်
ကိုယ်ပိုင်အုပ်ချုပ်ခွင့်ရ ဒေသ</w>
အ ော်
ဇ ု
ပေါ င်
ယ န်းမြို့နယ်</w>
ဘား အံ
ီ လာ
ဏ္ဍ ာ
ခွ ဲ</w>
ဂ ါး
တစ် ယောက်
က လေး</w>
ပြု ပြင်
တ္ တိ
ပု ဂံ
လ ိုင်း
ပြန် သည်</w>
လူ ့
စစ် ဆေး
အရ ည်
လျက် ရှိသည်</w>
5 5
1 00
ဒ ြ
အဓိ ပ္ပာ
ယ ောင်
ဖြစ် လေသည်</w>
ပျက် စီး
ဘော လုံး
i k
စတ င်</w>
ရ ်
ဘ ဝ</w>
ဖေ ဖော်
တိ ရ
ရှ ား</w>
ပြိုင် ပွဲ
တ ုန်း
u m</w>
တိုင်း ရင်း
ကျွ ဲ
တွေ့ ရသည်</w>
ဆ ား
ပြ စ်
i c</w>
နိုင် ခဲ့သည်</w>
လှ ိုင်း
စဉ် က</w>
မြ ောင်း
၃ ၁</w>
တော် မူ</w>
ပြ ာ
သွား သည်</w>
စ ခန်း
သည် း
အန ္
o p
ချ ဲ့
အမျိုး အစား
ရှ ောက်
ဖွင့်လှ စ်
f or
ဟ ောင်း</w>
တနင်္သာ ရီ
ပ ခု
မြ ေ</w>
ရှ ယ်
က ဲ
a s</w>
၃ ၈
ကျ ား
i r
အ ပေါ်
မိ တ္ထ
သ ကဲ့သို့</w>
ပြ န်</w>
ဇူ လိုင်
m e
70 150
N G
8 0
ပန်း ချီ
စွ န့်
ဒ ေ</w>
အန ား
လေ့ ရှိသည်</w>
ဂ ရ
အလ င်း
မည် ဟု</w>
အင် အား
K y
သေ ဆုံး
ပထမ ဆုံး
ဗ န်း
က ျ</w>
အိ မ်</w>
အ လက်
2 0</w>
အဖွဲ့ ဝင်
ကြ သော</w>
ရှိ ကြသည်</w>
ညွှ န်း
တ န်</w>
မ င်္ဂ
ခံ ရသည်</w>
ဖေါ ်
တ ရာ
ရတ နာ
ပြု စု
ရ ောင်</w>
အ မိန့်
ခ ်
နယ် မြေ
ပြည်ထောင် စု</w>
a v
i g
1 1</w>
ရာ မှ</w>
ဂြိုဟ ်
ဖ က်</w>
စတုရ န်း
သ ဏ္
ထို အခါ</w>
ကျိုင်းတုံ မြို့နယ်</w>
ဆွေး နွေး
အာဖ ရိ
အ ုန်း
ပြည့် နှစ်
ရွှေ ဘို
ဗ ိ
ကျိုင်းတုံ ခရိုင်</w>
များ ကိုလည်း</w>
4 6
ထ ာ
က္ခ ာ
NG C</w>
ဖ ို့</w>
လူ မှု
၃ ၄
မြတ်စွာ ဘုရား</w>
တ ပ်</w>
နိုင်ငံ ခြား
အပါအ ဝင်</w>
လိုက် သည်</w>
မှာ လည်း</w>
o s
ပထမ ဆုံး</w>
ဥ ယျာ
တံ ဆိပ်
သီ ပေါ
လိ မ့်
ကြီး မား
လေ ယာဉ်
ဦး ဆောင်
၁၉ ၀
အုပ်ချုပ် ရေး
သွ ား</w>
အစ ော
မိတ္ထ ီလာ
အစ ား</w>
မ တူ
နိုင်ငံ တွင်</w>
a w</w>
1 2</w>
ကန် ရွာ</w>
ကြီး ကို</w>
ရာ ခိုင်
အ ုံ
တိ ယ</w>
သီ ရိ
ထွ က်</w>
အ လို
e t</w>
ပခု က္ကူ
ဆ စ်
2 1</w>
သို့ ရာတွင်</w>
၃ ၇</w>
လ င်္
ဖြစ် စေ
on e</w>
ဆက် ဆံ
လ ား</w>
ငွ ေ့
ဥပ ဒေ</w>
ထို အချိန်
အရ ောင်
များ လည်း</w>
ဂို ဏ်
မိ သား
သတ္တ ု
တိရ စ္ဆာ
ဒ ိ
a w
ဟ င်း
ခံ စား
ဖန် တီး
ဖ ယ်
နိုင်ငံ တ
၁၈ ၇
an g
ဉ ့်
တ ုံး
ကုန်း ကျေးရွာအုပ်စု</w>
အနည်း ငယ်
c on
သည့် အခါ</w>
ကြ ပြီး</w>
ငြ င်း
ည ီ</w>
စက် မှု
ဗီ ယက်
ရွာသစ် ရွာ</w>
န ွေ
သဏ္ ဌာ
ချ ေ
လ ုပ်</w>
M y
ချ ွ
နာ ရီ
ခွဲ ခြား
o c
N o</w>
ပြ သ
4 3
တီ ထွင်
စ္ စာ
a b
၁၈ ၆
ထ ုံ
ရေ နံ
te r</w>
လ က္ခ
သိ ရှိ
d i
တောင် ရွာ</w>
ရော ဂါ</w>
က တ်
အိ ပ်
အ ရေ
ကြီး များ</w>
မေ လ</w>
ယ ေ
ပါ ယ်
ပြင် ဆင်
ဘ ုံ
ကရင် ပြည်နယ်</w>
ယ နေ့
ခ မ်း</w>
စ ံ</w>
နှ ံ့
ခဲ့ သော်လည်း</w>
လှ ေ
တို့ ဖြင့်</w>
ကျော် ကြား
သတင်း စာ
ဆန့် ကျင်
ဝန်း ကျင်
မိုင်း ပျဉ်း
ဋ ိ
S h
ဇာတ် လမ်း
ကြ ပ်
ဆောက် လုပ်
အ ုပ်</w>
သတ္တ ဝါ
ဒ ွ
ခ န္
သ န်း</w>
7 5
တ က်</w>
အုပ် စု
လက် ပံ
ဖ ို့
၃ ၉
၄ ၅
အကြ ံ
န ဲ
ဒ န်
ဋ္ဌာ န်း
လွ န်</w>
အစ ိတ်
၃ ၅</w>
ခွ ာ
အမျိုး သား</w>
အ ူ
ကု လား
ဆ ွေ
ဝ ်
ရည် ရွယ်
မိုင်းပျဉ်း မြို့နယ်</w>
အ ရင်း
ဝ ံ
မိုင်း ဆတ်
1 5</w>
ဋ္ ဌ</w>
1 4</w>
ati on</w>
ဖြ ူ</w>
အသ စ်
ပါဝင် သော</w>
တံ တား
၃ ၇
ပေါ က်</w>
လက် မ
နှ ီး
ကွဲ ပြား
လျ ား
ခ က်
2 5</w>
ထို သို့</w>
ဘ ောင်
ဆ ည်း
18 0
ဒီမိုက ရေ
ရေး ကို</w>
သ ို
မောက် မြို့နယ်</w>
၁၈ ၅
1 6</w>
မှု များကို</w>
တန်း ရွာ</w>
၃ ၂</w>
e m
i s</w>
1 3</w>
ခြ ား</w>
ယခု အခါ</w>
ရ ီးယား
တက် ရောက်
အချ င်း
အဓိ က</w>
တွ က်
ဝ မြို့နယ်</w>
ထေရ ်</w>
အခြ ား</w>
19 9
မူ ဆယ်
အ န်
တ ိ</w>
ကွ တ်
လေ ့</w>
ယ ူး
တ္ တာ
တရ ား</w>
ဓ မ္
၃ ၆</w>
ပတ် သက်
တ တိယ
2 4</w>
အသ င်း</w>
မွ ှ
ကော်မ တီ
သ ဘ
ta l</w>
တင် ပြ
1 9</w>
အတ ူ
a y
ဂျ စ်
သ ီး</w>
တွ ဲ</w>
သည် ဟု
19 0
စ သည့်</w>
မ ဖြစ်
မ ရှိ</w>
ဤ သို့
ပေး သည်</w>
19 8
ဉ် း</w>
ရက် နေ့</w>
စီးပွား ရေး</w>
အနု ပညာ
ဝါ ရီ</w>
လွိုင်လင် ခရိုင်</w>
နှစ် ခု
ညောင် ပင်
ဆွ တ်
တံ ခါး
လ ီ</w>
စ နစ်</w>
1 7</w>
ူး မြို့နယ်</w>
2 3</w>
2 2</w>
o u
ယဉ်ကျေး မှု
အ ကောင်း
သူ တို့
မှု ကြောင့်</w>
2 7</w>
န င်း
၃ ၃</w>
ထား ပြီး</w>
ဘူ း</w>
ဖြစ် ကြောင်း</w>
1 8</w>
ဇ ွ
လ ှ</w>
စွ န်း
စစ် ပွဲ
ဧပြီ လ</w>
သ ပြေ
ရေး ဆွဲ
2 9</w>
e t
2 8</w>
ထ ိ</w>
ပြ ဿ
သ ုံး</w>
သရုပ် ဆောင်
မိ မိ</w>
သူ မ
အစ ္စ
ဇ ေ
ရ လေသည်</w>
2 01
ထည့် သွင်း
တော့ သည်</w>
အ စ်
ဩဂုတ် လ</w>
လက် အောက်
ခွင့် ပြု
အများ စု
စ ေ့
ဇွန် လ</w>
စ ော်
၄ ၉</w>
ကာ လ</w>
2 6</w>
ပ င်း
၄ ၉
မြို့ သည်</w>
ရောင်း ချ
၄ ၅</w>
ဆ ု</w>
အောက် ပါ
သာယာဝတီ ခရိုင်</w>
ရွ ေ့
တောင် ကြီး
စိ တ်</w>
i b
ဘ တ်
၄ ၆
ု န်း</w>
အမ တ်
ဧ က
ထို့ ပြင်</w>
ပ က်
တိုင်း ပြည်
ကိုင် မြို့နယ်</w>
ခန့် အပ်
ထ ံ</w>
သိမ်း ပိုက်
သ တိ
သ ရ
မည် သည့်
i t</w>
သ ယ်
အန္ တရာ
အကျ ယ်
အရာ ရှိ
လွှ င့်
ဖ ုံး
မ ောင်</w>
၄ ၀
o o
ပ ြ</w>
များ သို့</w>
ဗေ ဒ</w>
ကြ ိမ်</w>
ဝန် ဆောင်
ညွ တ်
အများ အပြ
ဂျာ မ
ဒ ိုး
လွှမ်း မိုး
လှ ိုင်
မြှ ောက်
တစ် ရပ်
အထ ောက်အ
အချက် အလက်
ရှ ုံး
အထူး သဖြင့်</w>
ဟာ ရ
အကြ ောင်း</w>
ဆ င်</w>
ကွန် ပျူ
ပူး ပေါင်း
မိဖုရ ား
ရှိ ကာ</w>
v e</w>
ti on</w>
ဏ္ ဏ
လ ိတ်
ဒါ န်း
ဧ ရာ
နှ ုတ်
ငြိမ်း ချမ်း
ချ ော
ကွင်း ရွာ</w>
ဂ ရိ
မော် လ
က န်း
ဖြစ်လာ သည်</w>
၃ ၉</w>
ဘ ်
ပြ ဋ္ဌာန်း
17 9
ဇန်န ဝါရီလ</w>
နည်း ပညာ
ယ န်
ငြ ာ
မ ရွာ</w>
န္ တာ
ငွ ေ</w>
ခ န်း</w>
အ ဆုံး
ကြိုး ပ
c om
ဖြစ် နေ
၈ ၀</w>
18 8
မြ င့်</w>
c e</w>
လွှ ာ
ဖ ား
en t
သွား ရောက်
အင် တာ
ဖြစ် ခဲ့သည်</w>
မင်း ကြီး
ခြင်း မရှိ
လွှတ် တော်</w>
မှ တ်</w>
17 8
တောင် ကြီးမြို့နယ်</w>
၃ ၈</w>
ဗ ား
ယ ံ</w>
အစီ အစဉ်
၇ ၅</w>
လျ ော့
တိုက် ပွဲ
ပြ တ်
န ော်
နှ င်း
အခါ တွင်</w>
7 6
m ent</w>
လူ ထု
ပြည့် စုံ
15 9
a m</w>
အ တိုင်း
ပြည် တွင်း
ထို သို့
အ စု
ရွ က်</w>
အင်္ဂ လန်
အ ဆက်
၄ ၂</w>
ကူ ညီ
နောက် ပိုင်းတွင်</w>
5 6
တီး ဝိုင်း
ခံ ယူ
ခေါ် သည်</w>
16 8
သံ ဃ
တစ်ခု ဖြစ်သည်</w>
စိ မ်း
တ ို</w>
န္ ဓ
အထူး ဒေသ</w>
သ လို</w>
ချိန် တွင်</w>
ခြင်း ကြောင့်</w>
i d
ရိုက် ကူး
လ တ်
ဖြ ည်း
ကောင်း မွန်
ဒု တိယ</w>
ခ ျ</w>
ဥက္က ဋ္ဌ</w>
ထ ို</w>
မ ည့်
ပ လက်
ဆ ော့
ု ံ</w>
အရှေ့ တောင်
မီ တာ
၁ ဝ</w>
ဇူလိုင် လ</w>
သွား လာ
ရန် ကုန်</w>
ဒ ီး
သမ္မ တ</w>
ကို င်</w>
အရေး ပါ
ပါ ဠ
တ တ်</w>
စက်တင် ဘာလ</w>
၂ ၁
သိ က္ခာ
a k
၇ ၀</w>
မြစ် ကြီး
ရှ ောင်
ကုန်း ကျေးရွာအုပ်စုတွင်</w>
၃ ၄</w>
ကျ မ်း</w>
အောက်တို ဘာလ</w>
ဝေါ ်
၈ ၅</w>
ဗုဒ္ဓ ဘာသာ
နိုင် သည့်</w>
in g
ကောင် စီ
ဂိုဏ် း
) .</w>
ကြေ ညာ
အန ာ
သမ ိုင်း</w>
ဖ ီ
၅ ၅</w>
ဆ ေး</w>
လက် ထက်</w>
ကျ ိုက်
ချီး မြှင့်
o un
ကိုယ်စား လှယ်
အ လေး
စစ် တပ်
လျ ော်
လွှ ဲ
န ပ်
နေ ကြ
နှ ိုင်း
ပ မာ
၈ ၈</w>
အဓိ ပ္
ဝ ဝဝ</w>
အ ပြင်
ချ န်
ဥက္က ဋ္ဌ
တစ် စ
ညှ င်း
မြ ဲ
ကို သာ</w>
တိရစ္ဆာ န်
ဒ ါ</w>
တစ် ပါး
3 0</w>
လားရှိုး ခရိုင်</w>
ပ ဋိ
အင်္ဂ လိပ်</w>
သ ထုံ
အမှ န်
15 8
ဂ ုံ
သွ င်
ပိုင် ဆိုင်
ကွတ် ခိုင်
ခန္ ဓာ
လက်ထက် တွင်</w>
တာ ချီ
ပြန် လည်</w>
p ar
ပို့ ဆောင်
l i
လ ူ</w>
လ ော့
တောင် တန်း
ဒီဇင် ဘာလ</w>
ဒြ ပ်
ရ ုံး</w>
ဇာတ် ကား
ထ ည်
for m
ဆ ာ</w>
လ ို့
အ ကူ
မှု နှင့်</w>
16 9
၁၇ ၆
သာမ က</w>
တွင် မူ</w>
တ ည်</w>
လက် ရာ
လွ န်း
ဟ ွ
သင် တန်း
၄ ၄</w>
ကီလို မီတာ</w>
ထူး ခြား
ခ ိ
မ ကြီး
၄ ၈</w>
တော်လှန် ရေး
အထ ွေ
မင်္ဂ လာ
ကြ ို့
အမြ ဲ
ဥယျာ ဉ်
ကျောက် ဆည်
မှ ီ
သား များ</w>
ဆ ိုက်
ကြိုးပ မ်း
တာချီ လိတ်
အကြ ိမ်
၁၇ ၉
ကဲ့သို့ သော</w>
ခုနှစ် မှ</w>
စောင့် ရှောက်
ထဲ မှ</w>
ပ ိန်
ဩ စတ
ဘ ီး
ဝါ ဒ</w>
ဘွ ား
န မ်
ရိ ပ်
အင် ဂျင်
နိုဝင် ဘာလ</w>
လင်္ ကာ
ကွတ်ခိုင် မြို့နယ်</w>
ရှိ ခဲ့သည်</w>
၇ ၇</w>
ခန့် မှန်း
ပ ရို
အထက် တန်း
က ောင်</w>
လ င်း</w>
သုတေ သန
ဗ ော
က္ခ ရာ
3 7</w>
က တည်း
အ လှ
သည့် အတွက်</w>
ကျန်းမာ ရေး
၈ ၃</w>
ရွေးကောက် ပွဲ
၄ ၃</w>
တစ်ခု ကို</w>
ရဲ ဘော်
ဟ ္
နေရာ တွင်</w>
18 9
b r</w>
ချ ွန်
မင်း လှ
တောင်း မြို့နယ်</w>
ထ ောင်</w>
အခ န်း
၅ ၆
မှု သည်</w>
3 1</w>
လာ ပြီး</w>
ထုတ် ပြန်
ရာဇ ်
တပ်မ တော်</w>
ဒ ေး
ဖ န်</w>
မျှ ော်
ချမ်း သာ
ရ ယူ
ကြ ိုက်
စာ ချုပ်
ဘွ ဲ့</w>
မ ိုက်
ကျ ိုး
လူ သိ
ထ ောင့်
၅ ၀
ဖြစ်လာ ခဲ့သည်</w>
မိသား စု
ရ မ်း
u s</w>
တစ် ခါ
ထောက် ပံ့
ရာသီ ဥ
ညွှန် ကြား
ဖွား မြင်
၇ ၂</w>
ကျ ပ်
စွ ယ်
ပေး အပ်
ပတ် သက်</w>
၄ ၆</w>
ကျ က်
သ ုတ်
3 4</w>
ထ ုတ်</w>
အ တော်
၈ ၄</w>
ကွ ပ်
လှူ ဒါန်း
3 3</w>
အကြ ား</w>
ro c
တွေ ကို</w>
အထွေ ထွ
ဆ ော်
ဘာသာ စကား</w>
ဂ ်</w>
န ယူး
ရ င့်
အထ က်</w>
ကြိုး စား
အာ ရုံ
အ ညီ
ဖြစ် သည်ဟု</w>
3 2</w>
မ ဏ
နေ ရ
နိုင်ငံ တော်</w>
အ တည်
ခွ ေး
နှ ုန်း</w>
လူ ငယ်
မင်း ဘူး
ဆ ပ်
တ ခု
၈ ၂</w>
အ နိုင်
လ ောက်</w>
အလ ောင်း
ဒါ ယ
န န်
တစ် ပါး</w>
3 5</w>
နိုင်ငံ ရေး</w>
စ ပါး
ဖ ခင်
ပ န်</w>
န ဲ့
ရ ိုး</w>
အ ဘိ
5 7
ောင် ရွာ</w>
သက် ရောက်
န ား</w>
အား ပေး
တော် တွင်</w>
ပညာ ရှင်</w>
ဂ ်
ဆ ူး
နောက် တွင်</w>
4 0</w>
အစိတ် အပိုင်း
ဖွ ယ်</w>
ရော မ
တ္တ ရာ
တော် ကြီး
စေ ခဲ့သည်</w>
၁၈ ၀
ဖျ ော်
3 6</w>
3 8</w>
ပ အို
ယ ား</w>
အကြ ိမ်</w>
အကြီး ဆုံး
ပု ဒ်</w>
ကမ္ဘာ စစ်
မင်း ကြီး</w>
အာ ကာ
၄ ၇</w>
စာ ပေ</w>
သူ က</w>
လက် ရှိ
လက္ခ ဏာ
ဇ ူး
l y</w>
ပညာ ရေး
၇ ၄</w>
ပင် မြို့နယ်</w>
လ င်</w>
င်း တို့</w>
3 9</w>
အဆ င့်</w>
ပြည့် နှစ်</w>
အင်း ဝ
ခရစ် ယာ
4 7</w>
ti m
အာဖရိ က
ရ ိုင်း
ချင်း ပြည်နယ်</w>
ဟို ပန်
အ ခေါ်
e l</w>
ယ င်း</w>
4 8</w>
ဖြစ် ကာ</w>
4 6</w>
နိ မ့်
ပအို ဝ်
ပြည် ခရိုင်</w>
er n
စု ံ</w>
၂၀၁ ၀</w>
16 0
ဒေါ် လာ</w>
ပ တ်</w>
အ ပြည်
ကွ န်း
မု န်
ဗ ွ
တို့ ကို
လုံ ခြုံ
လ န်</w>
မင်း တုန်း
in e</w>
ငြ ိမ်
သ ီ</w>
ပုံ နှိပ်
ဒ ိုင်
စ ရာ
ထား ခြင်း</w>
အဖွဲ့ ဝင်</w>
စ ူး
ကြီး ကျေးရွာအုပ်စု</w>
မြင်း ခြံ
ချ မှတ်
င်း သည်</w>
မိ ဘ
ရာခိုင် နှုန်း
တာဝန် ထမ်းဆောင်
မုံ ရွာ
အာ ရ
ခေါ် ဆို
ဒ ူး
am e</w>
4 4</w>
4 3</w>
မ သိ
၇ ၆</w>
ခံ ခဲ့ရသည်</w>
အကျ ဉ်း
i m
ဗိုလ် မှူး
ကြ ုံ
များ သော
အ မြောက်
မြ ား
သစ် တော
ထို့ အပြင်</w>
ရှ ည်</w>
စ ဉ့်
လွ ဲ
ပု န်
ထောက် ခံ
လျက် ရှိ
၁၆ ၆
စီမံ ကိန်း
ဝ င်း</w>
စာ တမ်း
န ိုး
မျ ဉ်း
အခွင့် အရေး
မ ုန်း
ချက် ကို</w>
မြို့ ကို</w>
နှင့် အ
တန့် ယန်းမြို့နယ်</w>
မွ တ်
ဝန်ကြီး ဌာန</w>
ခဲ့ ပေ</w>
ဇ င်း</w>
4 5</w>
ပ ရာ
ခဲ့ ခြင်း</w>
ဆက် လက်</w>
၄ ၁</w>
4 2</w>
လာ ကြသည်</w>
အတွင်း ရှိ</w>
ဟ ွေ
တ ပ
၅ ၉</w>
te d</w>
ယှဉ် ပြိုင်
4 1</w>
ထ ဲ</w>
လေး ရွာ</w>
လိုက် နာ
စတ ု
သာ လျှင်</w>
ထွန်း ကား
ကော့ က
u n</w>
၈ ၁</w>
မြောက် ပိုင်း
တက ွ</w>
ဇ ာ</w>
ဟ ံ
ရန်ကုန် မြို့</w>
ထင်ရှား သော</w>
အ က္ခရာ
ရင်း နှီး
လုံး ကို</w>
အပြည် ပြည်
ခ ေး
ကျွမ်း ကျင်
က ည
ပန်း တောင်းမြို့နယ်</w>
မင်း သား</w>
ရ ည်</w>
အပြ စ်
ရှေး ဟောင်း
ဘီ စီ</w>
ဆို လို
ရှင်း လင်း
မြစ်ကြီး နား
အများ ဆုံး
မ ယ်</w>
က ိုက်
န န္ဒ
မြို့ သို့</w>
ပေး ရန်</w>
ထူ ထောင်
၅ ၂</w>
တောင်ငူ ခရိုင်</w>
ပင် လောင်း
လားရှိုး မြို့နယ်</w>
မော်လ မြိုင်
4 9</w>
အ ရွက်
တံ ခွန်
နေ သည့်</w>
ကျယ် ပြန့်
၆ ၀</w>
ဓာ တု
၉ ၃</w>
ကျ ော
တ ု</w>
အထ ည်
အမ ွ
ချက် များ</w>
လွတ်လပ် ရေး
အ ကွာ
ဆင်း ရဲ
ကျ င်</w>
၈ ၆</w>
ပြဿ နာ
စ ပ်</w>
မြ ိတ်
ဝ ပ်
၇ ၃</w>
ဖြစ် ပေသည်</w>
ပြင်း ထန်
အဓိပ္ ပါယ်
မ ူး
ရ ီး
လာ ရောက်
ခု နစ်
တစ် ဖက်
စ က
အကြ ား
ပထ မ</w>
များ ပြား
၁၇ ၀
ပြောင်း ရွှေ့
ဘ ဏ်
စပ် လျ
အန္တရာ ယ်
ဉ ္စ
ဆင်း သက်
ပါဠ ိ
လူ သား
ဆ ီ</w>
အမည် ဖြင့်</w>
ဝေ ဖန်
ဖ ိတ်
သိ ပ်
ိ န်</w>
အိမ် ထောင်
လယ် ယာ
ပတ် ဝန်းကျင်
ပြော ကြား
ဒီမိုကရေ စီ
ရှ င်း</w>
တောင်ကြီး ခရိုင်</w>
သ ဒ္
ရိ ယာ</w>
MMR01 00
ကု လ
အခြား သော</w>
ပဲခူး ခရိုင်</w>
ဓ ား
s h
၅ ၄</w>
ဒီ ဂ
အတွင်း တွင်</w>
သီပေါ မြို့နယ်</w>
မ လေး
သ စ္စာ
နှစ် သက်
စ ီး</w>
၈ ၇</w>
ဒ ဏ္ဍာ
ယ ောင်း
များ တွင်
ဆက် စပ်
မွန် ပြည်နယ်</w>
ဝ ရွာ</w>
ကြ ောင်
မှ ား
ဦး ဘ
ပူ ဇော်
မိုင်းဆတ် မြို့နယ်</w>
စွ ပ်
ချ ား
14 0
န ို့
သ ံ</w>
လှ မ်း
ရ မည်
ငါ ့
19 7
ဧရာ ဝတီ
ဘ န်
တောင် ပိုင်း
ကိ ရိယာ
၂၀၁ ၅</w>
မျိုး ကို</w>
အတ တ်
ဂ္ ဂ</w>
၉ ၈</w>
ထား ဝယ်
ကိုယ်ပိုင်အုပ်ချုပ်ခွင့်ရ တိုင်း</w>
ပင်လောင်း မြို့နယ်</w>
n g</w>
၅ ၃</w>
၈ ၉</w>
တိုင်းရင်း သား
p h
။ )</w>
သူ ငယ်
အိမ် ခြေ
ကုန် သွယ်
န ဂါး
y i</w>
ရ သည့်</w>
အမှု ထမ်း
u m
ပညာ ရပ်
အ ဘယ်
အလုပ် သမား
နိုင်ငံ သည်</w>
ခေါ် ဝေါ်
ကိုး ကား</w>
an d
၅ ၆</w>
ညီ ညွတ်
အလျ ောက်</w>
ဩစတ ြ
ဩ ဇာ
ဂေါ တမ
ပ ုံး
၅ ၈</w>
MMR01 30
17 7
ဗြ ဟ္
ပုံ စံ</w>
ရမ ည်း
၇ ၈</w>
ပြင် ရွာ</w>
ပေါင်း စပ်
ုဒ္ ဒ
၉ ၂</w>
ဝန် ကြီး</w>
an g</w>
မ တ်</w>
p o
သင် ယူ
ဂျာ မန်
က နေ
အ မ်
ဒါ ရိုက်
ပစ္ စည်း</w>
၆ ၉</w>
ရွ ယ်</w>
မင်း တရား
စက် ရုံ
နိ မိတ်
ပင် ဖြစ်သည်</w>
ဝန် ထမ်း
အ ေ</w>
ခေတ် တွင်</w>
၉ ၅</w>
စီ စဉ်
နေ့ တွင်</w>
လုပ်ငန်း များ</w>
အများ ဆုံး</w>
တန် ဖိုး
ခေါင်း ဆောင်</w>
ကျ ို
မြန်မာ ပြည်
သဏ္ဌာ န်
စစ် ဆင်
ကြ ရသည်</w>
မြို့ မှ</w>
ပေါ် ရှိ</w>
အတွင်း ရေး
၅ ၁</w>
၅ ၇</w>
သော် လည်းကောင်း</w>
ဗန်း မော်
ဆ ိတ်
ဧ ရိယာ
သမ ုဒ္ဒ
ယဉ်ကျေး မှု</w>
ကိုယ် တိုင်
ဒေါက် တာ
နှစ် ဦး
၇ ၉</w>
ရပ် စ
မ တိုင်
နှစ် ပေါင်း</w>
15 5
အ ီး
အ မြင်
အမျိုး မျိုး</w>
ဖ ောင်း
ဖ ်
လ ယ်</w>
အ လိုက်</w>
) ။</w>
ခ ိုင်း
လ ိုလ
အဆောက်အ အုံ
ညောင် ရွှေ
၆ ၇</w>
သစ် ပင်
ကန့် ဘ
၉ ၀</w>
ကျ ီး
ဘာ လတွင်</w>
19 5
ယ မ်</w>
17 5
န ျ
တပ် ဖွဲ့
ပျ ံ့
u c
ပုံ ကို</w>
နည်း လမ်း
ဟု လည်း</w>
၂၀၁ ၆</w>
ပူ ရ
ဖမ်း ဆီး
သို့ သော်လည်း</w>
ထ ိုက်
န ုတ်
ဆေး ရုံ
တော် သည်</w>
အင်္ဂ ါ
ဝိ ဇ္
ရ ော့
ကည င်
၈ ၀
ကျောက်မဲ ခရိုင်</w>
ပြ ား</w>
ချ ို့
အကြောင်း ကို</w>
မိန်း မ
တရ ုတ်</w>
သီ တင်း
အီ တ
အ ရာ</w>
ချ ိုး
လက် ထ
ကြ ာ</w>
လက် မှတ်
စ န္ဒ
ဟ ဲ
ချ ီ</w>
ရမည်း သင်း
၇ ၁</w>
ထဲ သို့</w>
ချ ပ်
ောက် မြို့နယ်</w>
ခြ ေ</w>
၉ ၉</w>
ဝန်ကြီး ဌာန
ထိန်း ချုပ်
me tal</w>
ပေါ ့
ကျေး ဇူး
ကိုယ် တိုင်</w>
စမ်း သပ်
ကြ ော်
မိ ခင်
မ ခံ
ိ မ့်
တော် များ</w>
အခြေ ခံ</w>
မွေး မြူ
o g
ဘွ မ်
ပြင် ဦး
မဂ္ဂ ဇင်း
တစ် ဆင့်</w>
လျှ ောက်</w>
တာဝန် ယူ
ဒ ိုင်း
များ ကြောင့်</w>
18 5
ဤ သို့</w>
ခဲ့ ကာ</w>
ဟ ီ
မြန်မာနိုင်ငံ တွင်</w>
9 7
စ ောင်း
တိ တ်
အခါ က</w>
ဖြူ မြို့နယ်</w>
ရိုး ရာ
ကုန်း မြို့နယ်</w>
လွတ် မြောက်
e v
သေ း</w>
ဆို ရှယ်
16 5
စ က်</w>
ယင်း မာ
ထံ မှ</w>
ိ ယ</w>
နှ လုံး
ကောင် စီ</w>
လ ော်
အမ ွေ
ညီ လာ
၆ ၅</w>
ကာကွယ် ရေး
မျက်နှာ ပြင်
18 7
ဆောင်ရွက် ခဲ့သည်</w>
လူမျိုး များ</w>
သံဃ ာ
p ro
တ င့်
တာ အို
ဒေသ တွင်</w>
ကတည်း က</w>
ဟံ သာ
ဝ အထူးဒေသ</w>
အား ထုတ်
တနင်္သာရီ တိုင်းဒေသကြီး</w>
လေ ကြောင်း
အချိန် တွင်</w>
အဓိပ္ပာ ယ်
များ ဖြစ်
ထွ ေး
19 6
အကူ အညီ
ကော့က ရိတ်
အ ံ့
တရား ရုံး
၂၀၀ ၈</w>
ညှ ိ
၉ ၆</w>
တ ြ
နေ ပြည်
သ မျှ
ကွန်ပျူ တာ
ဖ ိုင်
ပညာ ရေး</w>
အစည်း အဝေး
ထ ိန်
ရ ံ</w>
မြို့ တော်</w>
ရာ ဇာ
၂၀၁ ၁</w>
အခ မ်း
ထား သော
ခြင်း မှာ</w>
ရွှေ တောင်
ဝှ က်
ခ ပ်
ta m
တော်မူ သည်</w>
က တော့</w>
ရ ဲ့
တပ် ဆင်
လေ့ ရှိ
ဇီ ဝ
ကန့်ဘ လူ
ပါ ဝင်</w>
သ ုတ်</w>
က က်
ဝ ိုင်း</w>
ငွေ ကြေး
ဘားအံ မြို့နယ်</w>
ယ ခု</w>
x t</w>
ယ ိုး
အလ ံ
ဆောင်း ပါး
n i
ဝ ိုင်
သ ပိတ်
ဒ ါး
16 7
သမိုင်း ကြောင်း</w>
ပု လဲ
ထပ် မံ
၆ ၈</w>
၇ ၀
ati on
18 6
သက် တမ်း
မြောက် ဘက်
လေ့ ကျင့်
ကို လို
သမ ဂ္ဂ</w>
ဂ န်
ဆ ယ့်
ခေါ က်
အမေရိ က
အ ကောင်
A n
ဒ င်
ထိ ခိုက်
၉ ၇</w>
ခု တွင်</w>
ဝေ း</w>
၁၀ ၀</w>
သ ခင်</w>
15 6
သဘော တူညီ
မ ဲ့</w>
ရိ ယ
အ ို</w>
အ ပြီး
ဖြ ည့်
တောင်း ဆို
ထ ီ
ဗျ ူ
ပ ိန်း
ခု တ်
အိမ်ခြေ ပေါင်း</w>
ပ ိုလ
အစိုးရ က</w>
စ ပိန်
ယ မ်
ယ င်
8 9
ပူ တာအို
ရေးသား ခဲ့သည်</w>
ဒ ုံ
စား သောက်
လည် ပတ်
အသီး သီး
စ တာ
ဘ ုတ်
က သာ
ကျောက် စာ
တွေ့ ဆုံ
ဥပ မာ</w>
လုံ ရွာ</w>
ရု ရှား
ကော လိပ်
န ု</w>
it y</w>
ဟ င်
လွိုင် ကော်
မိမိ တို့</w>
ဖြစ် ပါတယ်</w>
ပေး ခြင်း</w>
အသိ အမှတ်
၂ ၁၄
ကြောင်း ကို</w>
မြှ ုပ်
တ ဆင့်</w>
ချ ည်
ရှိ လေသည်</w>
ပါ လီ
de l</w>
အသ ေး
တပ ည့်
t h</w>
များ ဖြစ်သည်</w>
ထွ န်း</w>
စား သုံး
များ အရ</w>
၉ ၄</w>
ဒီ ယို
ပန် ဆန်း</w>
သ င်္ဂ
ကြ ောက်
အမ ည်</w>
အချ ိန်</w>
15 7
လိမ့် မည်</w>
ပလက် ဝမြို့နယ်</w>
သည့် အပြင်</w>
tr ib
ယခင် က</w>
ရွှေဘို ခရိုင်</w>
တ မန်
ချ ိတ်
ဂွ ေး
ဖျော် ဖြေ
ဝ ယ်</w>
ပါ ရ
ပြ ောင်
ဆွ မ်
ပြင်ဦး လွင်
s t
၂ ဝ</w>
ဖြစ် သော်လည်း</w>
ဗ္ ဗာ
ပြည့်နှစ် တွင်</w>
နိုင် ပါသည်</w>
တောင် ဘက်
အကြောင်း အရာ
ဖာ ပွ
A l
အ ွ
17 6
ချက် အရ</w>
လင်း ခေး
တ စ်</w>
အောင် ဆန်း
ကြွ ယ်
n s</w>
မြ တ်</w>
အသုံး ချ
နား လည်
၉ ၁</w>
ပြ ို
ဘွ ယ်
သေ ့
မကွေး ခရိုင်</w>
ပ ုတ်
၆ ၁</w>
လာ ကြ
အင် ဂျ
ရုပ် ရှင်</w>
ခ ူး
န က္ခ
ပိ ဋ
ဝင် စား
တွင်း မြို့နယ်</w>
ကူး စက်
e d
န ီးယား
အဖြစ် ဖြင့်</w>
လ န်း
၆ ၃</w>
ဂ ဏ
မ ေ</w>
အ မြစ်
e g
ရှ ီ
ရာဇ ဝင်
roc k</w>
ရ ူး
အင် န်
လက် ထပ်
ဟ ူး
ပန် ခမ်း</w>
ဒ ိန်
ရှ ီး
o d
ော ့</w>
နီ မြို့နယ်</w>
te xt</w>
၆ ၂</w>
ခဲ့ သူ
မ ည်း
အယ် လ်
ဒ ူ
မ ကောင်း
မော် တော်
အထ ွ
ကြာ အင်း
သျ ှ</w>
ခြ ည်
တော် ကြီး</w>
သာ စည်
အား ဖြင့်
မှာ ပင်</w>
ကျင့် သုံး
ဝှ မ်း
ကျယ် ဝန်း
အဓိပ္ပာ ယ်</w>
အင်ဂျင် နီ
ပအိုဝ် း</w>
w ik
ဖြ တ်</w>
များသော အားဖြင့်</w>
er s</w>
ကျေး သီး
ခုနှစ် အထိ</w>
မန္တ လေး</w>
ဂ ိုး
မြို့ ရှိ</w>
တရား ဝင်
မာ န်
အိန္ဒ ိယ</w>
မြ က်
ညွ န့်
နိုင်ငံတ ကာ
ဖြန့် ချိ
အင် ဒို
ပိုင် ခွင့်
ခန့် ခွဲ
နေ စဉ်</w>
ဟ ိုက်
ထို ကြောင့်</w>
၂ ၁၀
ပထမ ဦး
ကော်မ တီ</w>
လွယ် ကူ
ဇ နီး
အီ ဂျစ်
က ောက်</w>
ဆ ုတ်
ထ ပ်</w>
အ ပေါင်း
အာရ ှ</w>
၆ ၄</w>
၂၀၁ ၂</w>
မ ား</w>
ဟ န်</w>
၆ ၀
အဆို ပါ
ညောင်ရွှေ မြို့နယ်</w>
နိုင်ငံ မှ</w>
ချက် များကို</w>
ပခုက္ကူ ခရိုင်</w>
စ င်</w>
ဟ ား
ပုံ မှန်
ဆင် ဖြူ
ဗြိတိ သျှ</w>
ဟော ကြား
တ ဦး
ခရစ်ယာ န်
q u
မ ော့
ရ စ်</w>
ခဲ့ သည်ဟု</w>
ဝ တီ</w>
အများအပြ ား
ဆ န်</w>
ရွ တ်
ရှိ န်
ရာ စု</w>
အစ ည်း</w>
ရုပ် ပွား
re s
16 6
များ မှ
ဂျ က်
သီး ခြား
ပစ္စည်း များ</w>
အဆို ပါ</w>
ပုဒ် မ</w>
၉ ၀
စတ န်
ကျေးသီး မြို့နယ်</w>
p l
ရှိ ရာ</w>
တို့ ဖြစ်သည်</w>
တတ် သော</w>
mo del</w>
မွ န်း
ဆရာ ကြီး</w>
u b
သောင်း ကျန်း
၂ ၁၃
နိုင်ငံ များ</w>
အဝ တ်
ပါ မော
ဒု က္ခ
o v
form at</w>
အ နှစ်
လော မြို့နယ်</w>
ကုမ္ပဏ ီ</w>
သ င်</w>
စွမ်း အင်
ကြေ ငြာ
ထ မ်း</w>
ထို နောက်</w>
trib ut
3 00
t s</w>
ထ ု</w>
န ိုက်
မည် သို့
၆ ၆</w>
ကျ ူ
တာ ရှည်
ဆ ိုင်</w>
မြ င်</w>
သက် ဆိုင်
စိ န်</w>
ဌ ေး
တ ုတ်
မ စ်
ဖျက် ဆီး
con tribut
tam p</w>
စီး ဆင်း
ယွ င်း
tim es
ခြ မ်း
contribut or</w>
times tamp</w>
ဖ ောင်
ဟ ော်
အန ွ
ဟုခေါ် သည်</w>
မ ပါ
သ တ်</w>
နှ ောင်း
၂၀၁ ၇</w>
စဉ် း
u d
ဏ ာ</w>
အစ္စ လာ
အာကာ သ
ကိ န်း</w>
အမ ရ
နိ ဗ္ဗာ
ဘားအံ ခရိုင်</w>
ရန် နှင့်</w>
a z
ကွ ေ့
အတည် ပြု
ကြီး ကျေးရွာအုပ်စုတွင်</w>
M on
ဆုံး သော</w>
ကျွန်း ရွာ</w>
က ယား
ဗ က်
စာ အုပ်</w>
စီမံ ခန့်ခွဲ
ရှာဖွေ တွေ့ရှိ
အ ိုလ
မြင့် မား
ပ ဉ္စ
ပု န်း
ဗ္ ဗ
စပ်လျ ဉ်း</w>
ဝ ိန်း
ကြီး များ
တောင် တွင်း
မူဆယ် ခရိုင်</w>
၂ ၁၅
အောက်တို ဘာ</w>
က ဏ္ဍ
ရပ်ကွ က်
25 0
ဂျ ိ
ပု သိမ်
မီ ဒီ
သက် သေ
o b
မင်း သည်</w>
မှတ် ပုံ
ဓာ တ်</w>
တိုင် အောင်</w>
မကြာ ခ
သူ ကို</w>
ထို း</w>
ဘာသာ ရပ်
စော် ဘွား
i a</w>
ဆို ကြသည်</w>
စ ောင်
လ င့်
ပါဝင် ခဲ့သည်</w>
p er
သွ န်း
ပေး နိုင်
ရာစု နှစ်
ပြည် ပ
သွ င်း</w>
လက် ဆီ
တစ် ယောက်</w>
ပညာ သင်ကြား
အတွင်း သို့</w>
ကြည့် ရှု
ဘုရ င့်
စ လင်းမြို့နယ်</w>
နန်း တော်
အီ ရန်
ဂ ယ်
ဒေါ င်း
လန် ဒန်
လှိုင်း ဘွဲ့
၂ ၁၂
ဆက် ခံ
ပေါက် ရောက်
ပြ ဇာတ်
အောက် တွင်</w>
လမ်း ကြောင်း
က ီး
5 0</w>
လှ ည်း
မျက် စိ
နမ့် စ
ကျောက်မဲ မြို့နယ်</w>
န်း ယ
ဂျာမ နီ
ပြိုင် ပွဲ</w>
ဦး ကျော်
စာ ရင်း</w>
၂၀၀ ၉</w>
ကေ အင်န်
လာ သည့်</w>
နိုင်ငံ များ
ခြင်း ခံရ
ဒီ ဇ
မင်းလှ မြို့နယ်</w>
အကြ မ်း
မေ တ္တာ
ကြို့ ပင်
တ ဖြည်း
သူ တို့သည်</w>
ခွ က်
တုံ မြို့နယ်</w>
ကုသ ိုလ်
ခဲ့ ဖူး
သာ မန်
စွ န်
ဂ ေ
ern ame</w>
ယ ို</w>
အသုံး ပြု</w>
ဥပ မာ
မိမိ တို့
မြတ်စွာဘုရား သည်</w>
ပေ မည်</w>
us ername</w>
င်း ကို</w>
အချို့ သော</w>
8 7
ပ င့်
ဆိပ် ရွာ</w>
လု ံ</w>
ဗ ်
သီ ဟ
မတူ ပီ
ကမ္ဘာ ပေါ်တွင်</w>
ဈ ာ
သင်္ ချာ
ရူ ပ
ရွာ မရွာ</w>
၂၀၁ ၃</w>
မိုး ညှင်း
လော က</w>
မဏ ိ
စ ူ
ခဲ့ သူ</w>
သူ များသည်</w>
ဘာသာ ဖြင့်</w>
ရည် ညွှန်း
i on</w>
ဟ ေ
ရေး ထိုး
သွား ခဲ့သည်</w>
သီ လ
လည်း ဖြစ်သည်</w>
လိ င်
ရေ ာ</w>
အယ် ဒီ
ခ ါ</w>
ကျွန် ုပ်
မှ ောက်
ဝေါ ဟာရ
ဒဏ္ဍာ ရီ
ဝယ် ယူ
အက် စ်
စသည် ဖြင့်</w>
par ent
စ ို
ရှိ ပါသည်</w>
ဇ ်
ယ န်း
ခြင်း များ</w>
အထ င်
သူ ရဲ
သို့ ရောက်
တစ်ခါ တစ်
ဒေါ င့်
အ မြတ်
parent id</w>
ဆွ မ်း
၂၀၀ ၇</w>
လှိုင်းဘွဲ့ မြို့နယ်</w>
သူ များကို</w>
ဆို ရိုး
9 6
အခ န်း</w>
ကျောင်း တွင်</w>
ဝ ဝ
၂၀၀ ၀</w>
ခရီး သွား
ဇ ော
လ ိုင်</w>
များ အဖြစ်</w>
ဘက် မှ</w>
ဖိ လစ်
ဆို သော</w>
g e</w>
အင် အား</w>
ကမ်း ရိုး
A r
ခု န်
အချ ို့</w>
ဒီဇင် ဘာ</w>
ဗော ဓိ
ဖ ုန်း
သမ ဂ္ဂ
သိက္ခာ ပုဒ်</w>
အ သွင်
အား လုံး</w>
မကျ ီး
၁ ၁
တင် မြှောက်
မီး ရထား
) ၏</w>
မှတ် တမ်း</w>
ဖ ူ
14 6
ဝန်ကြီး ချုပ်
သ တ္တိ
14 5
အစည်း အရ
မိတ္ထီလာ ခရိုင်</w>
ဖ လမ်း
လျ င်</w>
ဂျ ွန်
မင်း သမီး
ဟူ သော
ကိုလို နီ
ရွှေ ကျင်
က ရ
ရ ီးယား</w>
တော င့်
န ောင်</w>
ဝ ေ</w>
မှာ မူ</w>
ယောက် ျ
ပါဝင် သည့်</w>
ဟ ော့
နာ ရီ</w>
ရွှ င်
စာရေး ဆရာ</w>
နှ င်
မဂ္ဂ ဇင်း</w>
MMR00 50
လျှောက် ထား
c l
အရွယ် တွင်</w>
စက်တင် ဘာ</w>
နာ ဂ
မု န့်
C om
ရာသီဥ တု
စ ရာ</w>
ယ မ်း
ဟု မ္မ
အပြည်ပြည် ဆိုင်ရာ</w>
၂ ၁၆
စည်း ရုံး
ဆီ ဆိုင်
ယွ န်း
စ ိုင်း
အသိအမှတ် ပြု
. .
ချ ို</w>
ထို စဉ်က</w>
အထ ိမ်း
ပမာ ဏ
w e
စေ တီ</w>
စေတီ တော်</w>
အီတ လီ
ဖ ဲ
မင်း တပ်
ယာ မ
နတ် တ
un k</w>
အနေ နှင့်</w>
ခ ်</w>
မ ံ</w>
သရက် ခရိုင်</w>
ဂ န့်
အ လာ
တို့ ကြောင့်</w>
ကလေး များ</w>
အရေး ကြီး
န ီး</w>
လ ပြည့်
ဖြစ် ရာ</w>
အဖွဲ့ အစည်း</w>
နှစ် မျိုး
ခရ စ်</w>
ဌာန ချုပ်</w>
လ စ်</w>
္ လာ
လေ ာ</w>
8 6
8 0</w>
ခ ိုင်</w>
တံ ဆိပ်</w>
စနစ် ကို</w>
မှတ်ပုံ တင်
စ ိုက်</w>
က္ ခရ
အေ ဒီ</w>
စေ လွှတ်
14 7
အန ေ</w>
မ န်</w>
သ ောင်
ပရာ ဘွမ်
N e
၁၉၉ ၀</w>
ဇန်န ဝါရီ</w>
စာရေး ဆရာ
အခမ်း အနား
ဟ စ်
အရ ိုး
ter n
င လျင်
မ ော</w>
ဟ ယ်
ကျောင်း သား</w>
မ ို</w>
မွ န်</w>
ခြား နား
သတင်း စာ</w>
မြစ်ကြီးနား ခရိုင်</w>
ပ ူ</w>
အ ိုက်
MMR0 15
ဓမ္ မာ
ကီလို မီတာ
မှ ော်
အခ က်
ဖြေ ရှင်း
o f
ရ ုတ်
အမည် မှာ</w>
ဆုံး ရှုံး
လာ သောအခါ</w>
ပေါက် မြို့နယ်</w>
အင်ဂျ န်းယ
လှ ပ
အီ လက်ထ
ရောင်း ဝယ်
အက ယ်</w>
နောက် ပိုင်း
5 2</w>
ထ ော
ကျောက် တံခါး
နံ ပါ
အထွေထွ ေ
အင်ဂျန်းယ န်မြို့နယ်</w>
a h
သ ရေ
ကို ပင်</w>
ခ န္တ
ရ ခြင်း</w>
ခဲ့ ပါတယ်</w>
ရေး သား</w>
ဒ စ်
ဘ ဏ္ဍာ
ဖေဖော် ဝါရီလ</w>
K h
င်း တို့
တန် ခိုး
အနောက် ဘက်
တူး ဖော်
ပျော် ဘွယ်
ပ တ္တ
တင် သွင်း
ဘီ လူး
at e</w>
ဆို လျှင်</w>
f or</w>
မှ န်</w>
ဒ ုံး
ခွ ေ
5 3</w>
က ပ်</w>
ဒ ဿ
လုံး ဝ
ကူ း</w>
မဟာ မိတ်
န င်
အ ထား
အ ရေး</w>
နိုင်ငံ နှင့်</w>
ယာ ဉ်</w>
ဆွမ် ပရာဘွမ်
ဖ ဆ
ရ ဲ</w>
စကား လုံး
5 1</w>
ဆ ော
အလယ် ပိုင်း
ဗ စ်
ရ ပါသည်</w>
လက် မြို့နယ်</w>
လှ ုံ
၂၀၁ ၈</w>
အန ီး</w>
အ ခွန်
လျှပ်စစ် ဓာတ်
အင်ဒို နီး
ပ တိ
ယ ့်</w>
အတ န်း
ရို က်</w>
ပြ ည့်</w>
ပ န်း</w>
တွေ့ မြင်
ဆွမ်ပရာဘွမ် မြို့နယ်</w>
သ မာ
ရ ော်
တ င်း</w>
ကြ သည့်</w>
ကျ ရောက်
on g</w>
သျှ င်
က မူ</w>
က ထေရ်</w>
စစ် ရေး
မှတ် သား
ပွ တ်
သီ ဆို
ဖြတ် သန်း
ပြ ောင်း</w>
သုံး သပ်
ဖွဲ့စည်း ခဲ့သည်</w>
နိုဝင် ဘာ</w>
လ ိုင်း</w>
စတု တ္ထ
ခွ န်း
လုပ်ငန်း များကို</w>
တွ ယ်
အမေရိကန် ပြည်ထောင်စု</w>
သ ိုး
ကွ ဲ</w>
ဂျ ူ
c or
ဂ ိ
ရ ယ်</w>
တွ ေး
မိတ္ထီလာ မြို့နယ်</w>
ဟ ိုင်း
အ ွန်
5 5</w>
အ ရွယ်</w>
ဩစတြ ေး
လက် ဝဲ
ဆို ဗီယက်
တာ ဝန်</w>
နယ် ပယ်
ဓာတ် ငွေ့
အကျ င့်
aun g
မ ့်</w>
ခဲ့ ပြီး
ကို ရီးယား
ဖော်ပြ ထား
ကွပ် ကဲ
a i
မ ော်</w>
အ ဆောင်
အရှေ့ ဘက်
မှ သာ</w>
ခဲ့ သော
5 9</w>
သ ်
အတွ ေး
မွ မ်း
စုံ စမ်း
o t
အသုံးပြု ကြသည်</w>
a d</w>
a ing</w>
အ ေး</w>
ကျွ ေး
နန်း တက်
5 4</w>
ခဲ့ ကြ</w>
ကာ တွန်း
ဖေဖော် ဝါရီ</w>
အ လှူ
ပြ တိုက်
ဝန်ကြီး ချုပ်</w>
ဗ က
ဗမာ ပြည်
ကျ ဆင်း
ဖြစ်ပေါ် လာ
ဖွံ့ဖြိုး တိုးတက်
မ က္က
ဌာန ချုပ်
5 8</w>
ည ို</w>
လ ောင်း</w>
ရွ န်
v er
စု ဆောင်း
န တ်</w>
တန် ဆာ
သူ မ</w>
ကြ ည်</w>
ချ ေး
ချက် မှာ</w>
နျ ူ
စ င်း
သ မျှ</w>
နှ ော
နား ရွာ</w>
တိုး ချဲ့
ဖြ ာ
သည် အထိ</w>
လက် မ</w>
ပျ ို
ဟို ပုံး
ရ ပြီး</w>
ခံ ခဲ့ရ
ဆိုရိုး စကား</w>
စသည် တို့ကို</w>
ဟုမ္မ လင်းမြို့နယ်</w>
နတ်တ လင်းမြို့နယ်</w>
တိုက် ရိုက်
ထုတ် လွှင့်
သံ တောင်ကြီးမြို့နယ်</w>
ပေါ်ပေါက် လာ
ခဲ့ သဖြင့်</w>
ဝတ္ထ ု</w>
S e
ဖွဲ့စည်း ပုံ
အကြီး ဆုံး</w>
လုံး တွင်</w>
ဟ ိန်း
နိုင်ငံ ရှိ</w>
နည်း ပါး
မှတ်တမ်း တင်
လူမျိုး တို့</w>
သွ ေး</w>
အမျိုး အစား</w>
au k</w>
ခွ ံ
အနက် အဓိပ္ပာယ်</w>
မင်းဘူး ခရိုင်</w>
ဘ ီ</w>
တစ် မျိုး</w>
ခဲ့ ပြီးနောက်</w>
ရေ တာရှည်
သွ န်
S t
အလ ား
ပေါင်း များစွာ
ပထ ဝီ
5 7</w>
လျှ ို့
ကမ်း ခြေ
ဒုတိယ ကမ္ဘာစစ်
နမ့်စ န်မြို့နယ်</w>
ခြ င်
သတ် ဖြတ်
စိတ် ဝင်စား
ပျံ သန်း
ဦး ခေါင်း
ကို လည်းကောင်း</w>
လေ ရာ</w>
နိုင်ငံ သို့</w>
ရဟန်း တို့</w>
ဂေါ ်
တိ ကျ
ရပ် တည်
မှန် ကန်
ဆ ူ</w>
အ ဖြူ
ပွဲ တော်
စင် ကာ
ခန္တ ီး
နှင့် တကွ</w>
၂၀၀ ၆</w>
က င်း</w>
ဓ လေ့
သ ေ</w>
အ လွန်</w>
သင်္ ကေ
ည ံ့
လျှ ော့
ပေး သော</w>
ကျောက် ပန်းတောင်းမြို့နယ်</w>
မိုင်း ကိုင်မြို့နယ်</w>
က ုံး
ထုတ်ဝေ ခဲ့သည်</w>
န ိုင်း
ဖြ ူးမြို့နယ်</w>
တစ်ခု တည်း
ကလေး ရွာ</w>
အစော ပိုင်း
တော် မြို့နယ်</w>
ညီလာ ခံ
လေ ဆိပ်
မိုင်း ယန်းမြို့နယ်</w>
အ နှံ့
စာ မေး
ar y</w>
သေး ငယ်
၁၉၄ ၇</w>
ကျန် ရစ်
သန ပ်
ရ ား
ပြ ုတ်
ကွ က်</w>
က္ ခ</w>
မြန်မာ ဆိုရိုးစကား</w>
အဖြစ် သို့</w>
ဟိုပုံး မြို့နယ်</w>
ထွက် ခွာ
ဖျ ား</w>
5 6</w>
[ [</w>
ပါ ရှိသည်</w>
ခေါ င်း</w>
၁၉၄ ၈</w>
ဖေါ် ပြ
a th
ဆ ဲ</w>
ယ ီ
ဖော် ထုတ်
န ံ</w>
ရှည် လျား
ဇူ လိုင်</w>
ဖြစ် နိုင်
လွတ်လပ် ရေး</w>
ဆီဆိုင် မြို့နယ်</w>
p unk</w>
များ အနက်</w>
နောင် ချို
နိုင်ငံတ ကာ</w>
အမရ ပူရ
ခုနှစ် တွင်
အကြ ာ
တည်ထောင် ခဲ့သည်</w>
မြ န်း
ဒီ ပ
လမ်း စဉ်
ချို င့်
ခု ခံ
ဘုရား ရှင်
အခြေခံ ဥပဒေ
မှု မှာ</w>
စာ ဆို
ထား ရှိ
ဆန္ဒ ပြ
တိုင်း တာ
အ င်း</w>
သူ မှာ</w>
ပွဲ ကို</w>
လျှ က်
ဝါ သ
သမ္မတ နိုင်ငံ</w>
ည စ်
များ ဖြစ်သော</w>
သိ သာ
တည်ရှိ ပြီး</w>
ဇ ရပ်
ဟ င်္သာ
မှု ဖြင့်</w>
ဖွ ား</w>
နောက် ဆုံး</w>
ရုပ် သံ
ဘာ လ
သိ ရသည်</w>
အိန္ဒိယ နိုင်ငံ</w>
ဝိဇ္ ဇာ
မြှုပ် နှံ
g r
ဟ ုတ်
သည် နှင့်</w>
ဗြိတိ န်
င ံ
ဇာ တိ
အပြ ည့်
ကျောက်တံခါး မြို့နယ်</w>
နွ ှ
အက် တ
တည်း မဟုတ်</w>
ချီ တက်
K one</w>
ယ ုတ်
ရာ သီ</w>
ဖေ ဖေါ်
မြိုင် မြို့နယ်</w>
ပျံ့ နှံ့
သူ ကြီး
ကျွန်း စု
ရေတာရှည် မြို့နယ်</w>
ရှိ သော
သား တော်</w>
ီးယ န်း
ဖ ်</w>
ဘ ေ
မြို့ သစ်
တော် ဝင်
လက် ရှိ</w>
အင်တာ နက်
6 0</w>
P h
က တိ
ဘ ော</w>
ဖြစ် သဖြင့်</w>
၁၉၄ ၅</w>
အကောင်း ဆုံး
မျက်နှ ာ</w>
ဗ ုံး
ပြ က္ခ
ဝေ ဒ
မံ စီ
အုတ် ဖို
သယ် ယူ
အ စ</w>
အ တိ
ကျ ီ
ဖြစ် ရပ်
သေ နတ်
၂၀ ၉
ပညာ သင်
ပစ္ စ
ဟိ ဂ
သို့ တည်းမဟုတ်</w>
ထွက် လာ
ဘာသာ ရေး
တော်လှန် ရေး</w>
w e</w>
လျ ာ
e y</w>
အ ဋ္ဌ
သန့် ရှင်း
အမွ ှ
မ တ္တရာ
အသုံးပြု သည်</w>
ဝတ် ဆင်
ထ ောက်</w>
ီး ရွာ</w>
ခဲ့ ကြောင်း</w>
အဖွဲ့ သည်</w>
၁၉၆ ၂</w>
တ ည့်
တစ် လျှောက်
သား တော်
စည်း ကမ်း
ဒ္ ဓ
ဆိပ် ကမ်း
အိုလ ံ
ငှ က်</w>
ကွန်မြူနစ် ပါတီ
o t</w>
မျိုး နွယ်
ဝန်း ကျင်</w>
ကာလ တွင်</w>
မိ တ်</w>
အန ီ
ပြီး စီး
မိုင်း ယောင်း
နောက် ပိုင်း</w>
ဝ ဂ်</w>
သ ိ</w>
အ ိတ်
တည် ထား
ဒေသ များတွင်</w>
သဲ ကုန်းမြို့နယ်</w>
က လောင်
ဧ ပြီ</w>
နှ ိမ်
စု စည်း
ပေါင်း များစွာ</w>
ဖော်ပြ ထားသည်</w>
ထ ူး</w>
အ ပြန်
ပု ဏ္ဏ
က န
တော်မူ ခဲ့သည်</w>
မူဆယ် မြို့နယ်</w>
စ က္ကူ
ျ ှ
ကွ မ်
ဘာသာ ပြန်
ရ တ်
အ ဖ
သီ အို
ခို က်</w>
ဈေး ကွက်
ခွ န်</w>
com ment</w>
သ န</w>
၃ ဝ</w>
ပညာ ကို</w>
တ ိုး</w>
ရေ စ
ဂျ ွ
အလ ယ်</w>
" ၊</w>
P y
ရ ိ</w>
မှု မရှိ
အ ဘ
ယိုး ဒ
s p
မ နေ
အ ုံး
နယ် စပ်
အခြေ အနေ</w>
ဟံသာ ဝတီ
သိ မ်း</w>
အနေ အထား
ပါလီ မန်
ဖြ ူး
ခဲ့ ခြင်းဖြစ်သည်</w>
မိုင်းယောင်း မြို့နယ်</w>
6 1</w>
9 8
မိ နစ်
ဥရော ပ</w>
င ူ</w>
ရ ို</w>
လျှ က်</w>
အ မိ
အ ပ်</w>
အလုပ် လုပ်
ခဲ့ သည့်
ပေး ပို့
ကြယ် စု
ဒေါက် တာ</w>
န ော
ခရ ု
m g</w>
ဒ ိုက်
တော ကျေးရွာအုပ်စု</w>
အဖြစ် လည်းကောင်း</w>
မဟုတ် ဘဲ</w>
မီ လီ
y s
ထွ ား
ပြင် သစ်</w>
70 15
လ န့်
မှ ည့်
အုပ် စိုး
၂၀ ၈
ခွ င်
ပစ္စည်း များကို</w>
အာဏာ ပိုင်
အကျယ် အဝ
အမျိုး သမီး</w>
နွ ဲ့
6 3</w>
6 4</w>
သ ိုက်
များ သော</w>
17 00
ကိုယ်စား ပြု
တာချီလိတ် မြို့နယ်</w>
မံစီ မြို့နယ်</w>
နိုင် ပြီး</w>
လွ င်</w>
သွ ယ်</w>
ဂျ ီ</w>
6 2</w>
စ ကို
တပ် ရင်း</w>
အရေ အတွက်
ပုံ ပြင်
၂၀၀ ၅</w>
ကျွန် တော်
အတွ ေ့
တွင် ပင်</w>
မိုင်း မော
လုံ ကျေးရွာအုပ်စု</w>
အ ဖိုး
ချ ောင်
ကြီး ကြပ်
မှု တွင်</w>
နိုင်ငံ များတွင်</w>
14 8
အရ ပ်</w>
လော ့</w>
E n
မျှ သာ</w>
စိုး ရိ
အယူ အဆ
ဂဏ န်း
ကြ ွေ
ဆို မြို့နယ်</w>
မြောက် ပိုင်း</w>
ရ လ
ကမ္ မ
မိုး မောက်မြို့နယ်</w>
၁၆ ၇
လှ သော</w>
ar e</w>
ထေရ ်
ဂရ မ်
လက်ပံ တန်း
အ ပိုင်း</w>
ရုံး စိုက်
ကြာအင်း ဆိပ်
6 5</w>
ယ က်</w>
၁၉၈ ၈</w>
သဏ္ဌာ န်</w>
ကို ယ့်
၁၆ ၈
v is
ရ ရှိသည်</w>
တစ် နေ့
နိုင်ငံ ကို</w>
အဆ ိပ်
ig h
မီဒီ ယာ
6 6</w>
ရှ ူး
ကြ ရာ</w>
လွိုင်လင် မြို့နယ်</w>
စ ေး
မ ေ့
ဖြ ည်း</w>
ထူး ချွန်
o th
သိ န္
ပျ က်</w>
ဆည်း ပူး
ကန့်ဘလူ မြို့နယ်</w>
ရှ န်
ကျ ေ
ဂျ ပန်</w>
ပေါက် ကွဲ
စ ိုး</w>
လူ တို့</w>
၂၀ ၆
၂၀ ၀</w>
စိတ် ကူး
၂၀ ၇
ဆို သော်</w>
ကျွန်း ဆွ
အိုင် ရွာ</w>
ဒီဂ ရီ</w>
တစ်ဦး ဖြစ်သည်</w>
၁၉၈ ၀</w>
အယူ ဝါဒ
ဘ င်္ဂ
စေတီ တော်
ဂ န္
ဗ ဟ
ထား လေသည်</w>
မ္ မာ
6 8</w>
များ သည်
7 0</w>
ခု ကို</w>
သိ န်း</w>
18 4
ပုန် ကန်
7 2</w>
စ သည့်
ကို မူ</w>
မြေ ပြင်
နိ ဂ
သာသနာ တော်တွင်</w>
ကယား ပြည်နယ်</w>
စ ကြာ
အုပ်ချုပ် ရေး</w>
ငှ ာ</w>
အက ဲ
ဖာပွ န်မြို့နယ်</w>
6 7</w>
D e
M e
လ ဆန်း</w>
အ ပျက်
စာ ကြည့်
ပွ င့်</w>
ဆိုရှယ် လစ်
တ ီး</w>
it h</w>
7 5</w>
ချ ်
စ ရိတ်
မ က</w>
ပွ န်း
အသ ျှ
အစ ေ့
ဉာ ဏ်</w>
အားလုံး ကို</w>
ရှ ူ
မှ တစ်ဆင့်</w>
ဗုဒ္ဓ ဘာသာ</w>
ဦးစီး ဌာန
သီတင်း သုံး
က္ခရ ာ</w>
P ro
တူ ရိယာ
ခေတ် က</w>
ဗီယက် နမ်
စဉ်း စား
U ni
ထ ာ</w>
ဟ ်
အ ဆင်
7 1</w>
c h</w>
ဇ ံ
အ မြန်
ဧ ည့်
ဖေဖေါ် ဝါရီလ</w>
ဒ ယ်
ဂီ တ</w>
6 9</w>
မင်း ဆက်
သံ သ
MMR01 200
ation al</w>
2 10
နိုင် ပေသည်</w>
စစ် သား
ကျောင်း တော်
မြစ် ဝ
လုပ်ငန်း ကို</w>
ပျော်ဘွယ် မြို့နယ်</w>
M ar
ကြ ပါသည်</w>
အပ် သော</w>
မွှ ေး
ပူတာအို ခရိုင်</w>
7 7</w>
သူ ဌေး
သဘော တရား
ရှိ ခိုး
မရှိ ပေ</w>
ဟာ ရ</w>
၁၇ ၅
အမည် ကို</w>
အများ အားဖြင့်</w>
ထီး နန်း
b um</w>
တို့ အတွက်</w>
ထား ခြင်း
မြောက် ဘက်</w>
မက် မန်း
သဘ င်
တစ် ဖန်</w>
သွား သော</w>
17 4
ဗ ိုင်း
ဆို သည့်</w>
ကုန်း ဘောင်
နယ် နိမိတ်
တူး မြောင်း
၂၀ ၅
တောင် ပိုင်း</w>
ပုံ သဏ္ဌာန်
16 4
ရောင် ခြည်
7 3</w>
န ရ
တိုး မြှင့်
ကျန်းမာ ရေး</w>
သမုဒ္ဒ ရာ
မြို့ နှင့်</w>
ရေး ရာ
ရေ တွင်း
နှစ် စဉ်</w>
နယ် ချဲ့
လက်ပံတန်း မြို့နယ်</w>
b y</w>
သက် သာ
ထံ သို့</w>
ဘုန်း ကြီး
မတ္တရာ မြို့နယ်</w>
ဉ ္
တ ား</w>
အ လုံး
၀ ၁</w>
မဟ ာ</w>
ပြီး မှ</w>
ရွှ ေ</w>
အ များ</w>
လှ ောင်
တား မြစ်
အ ငြင်း
သူ အား</w>
မိုင်း ခတ်
ဆွ ေ</w>
အောင် လံ
၂၀၀ ၄</w>
အေ မာ
အနွ ယ်
ကြာအင်းဆိပ် ကြီးမြို့နယ်</w>
ဇွ န်</w>
ကျောက်ဆည် ခရိုင်</w>
ပွဲ တွင်</w>
il l
ယောက်ျ ား
လျှို့ ဝှက်
၄ ၈
ကို ယ်</w>
လှ ရွာ</w>
ဦးစီး ဌာန</w>
မျ ောက်
ပို မို</w>
သိပ် သည်း
နှ ာ
လှ ယ်</w>
လိ မ်
အစိုး ရသည်</w>
c i
ဖျက် သိမ်း
သူ ဖြစ်သည်</w>
တရား ဝင်</w>
ဒ္ ဒ
သဘော တူ
ကြ ရ
လက် တွေ့
ဝင် ရောက်</w>
ပေး ရသည်</w>
အခ ဲ
အရှ ည်
မိုင်း ရှ
ငှက် ပျ
သီရိ လင်္ကာ
က မ်း</w>
နှစ် တွင်</w>
သော ကြောင့်
ဒေသ များ</w>
သီ ချင်း</w>
နှစ် ပါး
ဗန်းမော် ခရိုင်</w>
မ ဆို</w>
ဝ ိုက်
အ စွဲ
လုပ် ကြံ
အမည် ရှိ</w>
တာချီလိတ် ခရိုင်</w>
ဂန့် ဂေါ
7 9</w>
အ ိုင်</w>
ဂုဏ် ထူး
ဆရာတော် သည်</w>
G yi</w>
ဒ တ်
အနည်း ငယ်</w>
အနီး တွင်</w>
ယေ ဘု
ကျ ဆုံး
လူမျိုး စု
ရှေး ဦး
ကျင်းပ သော</w>
au k
ထိုအချိန် တွင်</w>
7 8</w>
a i</w>
m in
ဒေ ဝ
စိုးရိ မ်
အင် ပါ
တိုင် ရွာ</w>
ကြွ ေး
အပူ ချိန်
လ မ</w>
ရှိ သည်
အစီ ရင်
ရွှေတောင် မြို့နယ်</w>
7 4</w>
ဗ န်
ပို့ ချ
ပုဂ္ဂ လိ
မက်မန်း ခရိုင်</w>
ဖ န်း
ိ မ်း</w>
သူ နှင့်</w>
ဓာတ် ပုံ
အက် ဥပဒေ
အဆောက်အ ဦး
ဒါရိုက် တာ</w>
၀ ၀
တင် ပို့
ကောင်း ကင်
အပါအ ဝင်
မွေးဖွား ခဲ့သည်</w>
အ ု
ကျ သော</w>
ချက် ဖြင့်</w>
ဘီ လီ
7 6</w>
ရှိ သည်ဟု</w>
တု န်
MMR0 170
တောင်တွင်း ကြီးမြို့နယ်</w>
ရာ မ
စာ လုံး
အဖွဲ့ ချုပ်</w>
အထောက်အ ထား
ဟိုပန် မြို့နယ်</w>
မိုင်းခတ် မြို့နယ်</w>
စ က္က
နေရာ မှ</w>
အချ ုပ်
နိဗ္ဗာ န်
နိုင် ခြင်း</w>
ကြီး က</w>
MMR00 8
သန်းခေါင်စာရင်း အရ
စိုက်ပျိုး ရေး
ပိဋ ကတ်
ကျမ်း စာ
ကျေး လက်
န္ တာ</w>
ရိုး ရွာ</w>
သင်္ ကန်း
တန့် ဆည်
ဆ ယ်</w>
ကဲ့သို့ ပင်</w>
မြင်းခြံ ခရိုင်</w>
နိုင်ငံ သား
ဂျ ူး
ပျ ော့
ကန် ကျေးရွာအုပ်စု</w>
အိမ် ရှေ့
ကန့် သတ်
) ,</w>
စ ည်</w>
ချ င်</w>
မှု ကို
ထင်ရှား သည်</w>
အ ဂ္ဂ
လူ ကြိုက်
မည် ဖြစ်သည်</w>
နည်း ဖြင့်</w>
တက္ကသိုလ် မှ</w>
9 6</w>
ပဲခူး မြို့နယ်</w>
အင်း ရွာ</w>
ကျင်း ရွာ</w>
ကျင်းပ ခဲ့သည်</w>
ခ ဲ</w>
လိုက် ပါ
နီး ပါး
o ur
w h
ခါ း</w>
tr y</w>
ပရိ သတ်
မိုင်း မော</w>
အံ ့</w>
န ံ့
ဖ ော်</w>
ဟ ောင်
တိုက် တွင်</w>
ag e</w>
အင်ဂျင်နီ ယာ
တစ် နိုင်ငံ
အမြင့် ဆုံး
အကောင်း ဆုံး</w>
မ ပေး
မွ ေ့
ကိုင်း ရွာ</w>
ဆက်သွယ် ရေး</w>
လျ ံ
နယ် မြေ</w>
၁၆ ၅
ဗြဟ္ မာ
8 6</w>
b l
e x
ဆို ရ
အဖွဲ့ ကို</w>
ဒဏ် ရာ
စ ခန်း</w>
ဘဝ တွင်</w>
it e</w>
တောင် သာ
ကာ မ
ဓ န
ရေ ခဲ
ဒီမိုက ရက်
စ္ စ</w>
ဠ ာ
သေ ချာ
ဦး အောင်
ပြု လုပ်</w>
မီး လောင်
စတင် ခဲ့သည်</w>
၁၉၆ ၃</w>
ထိုင်း နိုင်ငံ</w>
ကျူး လွန်
ဗိ သု
တန့်ဆည် မြို့နယ်</w>
က ပြ
ယူ နီ
ကဗျ ာ</w>
၂၀ ၂၀</w>
o k
မ ပြ
ဆေး ဝါး
စည် ပင်
သမိုင်း တွင်</w>
ကြို့ပင် ကောက်
အသျှ င်
ယ န်</w>
အများအပြ ား</w>
အ ကယ်
ကြီး တွင်</w>
ထုတ် ယူ
၂၀၀ ၃</w>
B l
မ စ္စ
ကုန်း ကြမ်း
ယင်းမာ ပင်
န ဝ
ရ ခဲ့သည်</w>
မှ တဆင့်</w>
ပေါ် သို့</w>
er v
u p
မွ ေ
ခေါ် ကြသည်</w>
ယင်း သို့</w>
ရေစ ကြို
အ က္ခရာ</w>
မှု အတွက်</w>
8 5</w>
ဂျာ နယ်
ခက် ခဲ
မြို့ ပြ
မိုး ကုတ်
ကော လိပ်</w>
ဂ ရု
ရှိ သော်လည်း</w>
ခဲ့ ခြင်း
ကွ ာ</w>
ပျ မ်း
အတ ု
အချင်း ချင်း</w>
သာစည် မြို့နယ်</w>
မင်း ဆက်</w>
အောက်ပါ အတိုင်း</w>
သန်းခေါင်စာရင်းအရ နောင်
လွ မ်း
န ူး
တုံ ့
ဝိုင်း မော်
ac h
ကမ်းရိုး တန်း
နောင်ချို မြို့နယ်</w>
ည ား
ိ ပ်</w>
ပါ က
ထား ကြသည်</w>
ကြွ က်
ထံ တွင်</w>
8 7</w>
ဖြင့် လည်း</w>
al bum</w>
es e</w>
စသည် တို့
မ ကြီး</w>
ပင် လည်
ပါဝင် ပြီး</w>
သမ္ မာ
ကျယ်ဝန်း သည်</w>
ပြီး သော</w>
စည်း မျဉ်း
မြောက် ဘက်တွင်</w>
၁၇ ၈
ထွက် ပြေး
ရင် ဆိုင်
လှ သည်</w>
၂၀၁ ၉</w>
မိုင် ရွာ</w>
ပခုက္ကူ မြို့နယ်</w>
ထ ုပ်
မြ ွေ
မြို့ မ
သီ ဟို
ပေါင်း တည်
ရရှိ သော</w>
8 2</w>
စွ ဲ</w>
အမ ူ
ကျောင်း တော်</w>
စသည် တို့</w>
အဲ ဒီ
မ တော်
သ င့်</w>
မိုး မိတ်
ဘူး မြို့နယ်</w>
ဩဂ ုတ်</w>
ကြ ူ
ရှိ သည့်
အာ ရပ်
ကြာ မြင့်
အစီရင် ခံ
8 9</w>
မြှင့် တင်
စွပ် စွဲ
နေရာ ကို</w>
အစား ထိုး
တစ်နှစ် တာ</w>
ငှက်ပျ ော
သား သမီး
၄ ၇
ပေါက် ခေါင်း
ကော့ကရိတ် မြို့နယ်</w>
L e
က ံ</w>
အ ော့
ဦး ရွာ</w>
ပည တ်
ရန် သူ
ချောင်း မြို့နယ်</w>
သိမ်း ယူ
] ]</w>
s ta
န ီးယား</w>
ယ ခင်</w>
15 4
8 8</w>
ဂျ ော့
တောင် ဘက်</w>
ပျ ဉ်
သစ် သား
တ္ထ ု
ကော်မ ရှင်
ပဋိ ပ
တဖြည်း ဖြည်း</w>
9 0</w>
အ ပေါ်တွင်</w>
ပွ ား</w>
ar d
၁၉၆ ၈</w>
ဟော ပြော
ရမ ည့်</w>
ဆက်သွယ် ရေး
ပင်လည် ဘူးမြို့နယ်</w>
w as</w>
က ိုင်း</w>
က လောမြို့နယ်</w>
အုပ် စု</w>
ပြင်ဦးလွင် ခရိုင်</w>
စာ သင်
မိုင်း ရယ်
သာမ ဏ
ခန္ဓာ ကိုယ်
ဝိုင်းမော် မြို့နယ်</w>
သ န္ဓ
။ "</w>
မြ ုပ်
တူ သည်</w>
ကော လင်း
လဲ ချား
ဆ စ်</w>
ဘ င်
အ တ္တ
နေ ပြီး</w>
ညောင် ဦး
ကုလ သမဂ္ဂ</w>
e m</w>
ချ ုံ
အဖွဲ့ က</w>
ရပ်စ ောက်မြို့နယ်</w>
အထိမ်း အမှတ်
ဝ က်</w>
ပု ပ္
မည် သည့်</w>
ရ ထာ
အကျ ယ်</w>
၁၉၇ ၂</w>
ကျူး ကျော်
9 7</w>
ဖြစ် သောကြောင့်</w>
တိ မ်း
es t</w>
f f
m a
ပင် ကျေးရွာအုပ်စု</w>
ပင် လယ်</w>
မြစ် သား
ရွှေ့ ပြောင်း
ကြို့ပင်ကောက် မြို့နယ်</w>
n e
သီဟို ဠ
9 2</w>
ဂ တ်
စေ တ
ဒီ ပဲ
မိုး ကောင်း
သု တ္တ
MMR00 7
B ur
ထ မင်း
ဝ ု
တွေ က</w>
နံ ရံ
ac k</w>
ဆ ို့
အငြင်း ပွား
ကြ သော်လည်း</w>
ကျွ တ်
တွဲ ဖက်
ပလ ္
ဝန်ဆောင် မှု
9 4</w>
ခ မည်း
န မ္မ
မ လှိုင်
နေ သော
နတ် ဘုရား
ဂုဏ် ပြု
လှုပ်ရှား မှု
အကောင် အထည်
ရောက် လာ
စ္ ဆ
9 8</w>
တည် ရှိသော</w>
မှု တ်
ငယ် စဉ်
လေ့ ရှိကြသည်</w>
9 5</w>
r an
တ လန်
ဟ က်
ကျ ာ
ပြည် မြို့နယ်</w>
ခုနှစ် မှစ</w>
ပျဉ်း မ
တွက် ချက်
ကြော် ငြာ
9 9</w>
လူ နာ
ယှ က်
တစ်ခါတစ် ရံ</w>
အ င်</w>
ပြီး ဆုံး
မီ က</w>
ဖ ေ</w>
ခရ ို
8 1</w>
R e
မ ဝင်
တွ ေ့</w>
၂၀၀ ၂</w>
တရုတ် ပြည်
ပါအ တိုင်း
သုတေ သန</w>
နှင့်အ ညီ</w>
9 3</w>
ည င်း
ရှိ သဖြင့်</w>
သူ များက</w>
သွား လေသည်</w>
တက ျ</w>
ရာခိုင် နှုန်း</w>
ပြက္ခ ဒိန်
ဒ င်္ဂ
ဗ င်
ပါ သော</w>
ကွ ယ်</w>
ကုန် ဆုံး
ကမ္ ဘော
သဘာ ဝ</w>
ဟိ န္ဒ
အတွင်းရေး မှူး
M a</w>
ဂ ူ</w>
ပ ဿ
ပြင် ပ
ခန့် တွင်</w>
ကွန်မြူနစ် ပါတီ</w>
စစ်ဆင် ရေး
5 00
ပေါက် ရွာ</w>
ဒီဇ ိုင်း
အ ဖ</w>
အ ငြိမ်း
ခေါ် တွင်
ပတ် လည်
စတုရန်း ကီလိုမီတာ</w>
r a
သ ိုင်း
ံ ့</w>
မ် ရွာ</w>
အတ ို
ကမ္ ဘာ</w>
သရုပ် ဆောင်</w>
ပ ုရ
ကောင်း စွာ
8 4</w>
ခေါ င်</w>
တင် ဆက်
အာ သ
လျင် မြန်
8 3</w>
အ လွယ်
ရေး ရာ</w>
၂၀၀ ၁</w>
မိဖုရ ား</w>
လိုလ ား
ကြွယ် ဝ
ကျ ပ်</w>
အသက် မွေး
မရ မ်း
အရည် အ
9 1</w>
မ အူ
ရ သေ့
တွင် လည်းကောင်း</w>
ပွဲ များ</w>
နေ ကြသည်</w>
ပေ မ
ဇာ တ်</w>
ဆု ကို</w>
သာသနာ တော်
တောင်သာ မြို့နယ်</w>
ပြ ွန်
မြန်မာ ပြည်</w>
အရေးပါ သော</w>
ဝ ဏ္ဏ
အ ညီ</w>
i r</w>
စစ် ပွဲ</w>
ရဟ န်း</w>
၁၉၉ ၉</w>
တောင်ငူ မြို့နယ်</w>
မိုင်းရယ် မြို့နယ်</w>
အ ရက်
သော အခါ
ကောင်း သော</w>
ကုန် သည်
အ ဝေး</w>
၁၉၄ ၆</w>
ဝါ း</w>
သာယာဝတီ မြို့နယ်</w>
ရမည်းသင်း မြို့နယ်</w>
အောင်လံ မြို့နယ်</w>
A m
ကြီး နှင့်</w>
သက် ရှိ
ဆွ ဲ</w>
ငါး မျိုး
မိုင်းရှ ူးမြို့နယ်</w>
u p</w>
မြ ောင်
ခဲ့ ပေသည်</w>
တစ် လုံး
ကျေး ရွာ</w>
လွ ဲ</w>
ငြိမ်းချမ်း ရေး
ရေစကြို မြို့နယ်</w>
အ ရှိန်
ရေ တပ်
ယု န်
ဝ ရ
ကြ ံ့
တွ န်
နိုင် အောင်</w>
နေထိုင် ကြသည်</w>
သာ ကျေးရွာအုပ်စု</w>
ထွ င်း
အမ ိ</w>
အောက် ပါအတိုင်း
ယင်း တို့</w>
မန္တလေး မြို့</w>
၁၉၆ ၄</w>
စီမံ ကိန်း</w>
န ော့
ရှ ်
တပ် များ</w>
သင်္ ချ
ဗမာ ့
ကနေ ဒါ
ဆောင် ရွက်</w>
အသုံး ဝင်
ဆရာ ဝန်
or y</w>
အမြ င့်</w>
တယ် လီ
ထန်း တ
ရွှေကျင် မြို့နယ်</w>
က လပ်
ဖြစ် စဉ်
နှစ် စဉ်
မျှ င်
ကုန်းကြမ်း မြို့နယ်</w>
ပေါက်ခေါင်း မြို့နယ်</w>
m a</w>
နိုင် လေသည်</w>
ဘက် သို့</w>
as t</w>
များ အတွင်း</w>
ti c
တစ် စုံ
နှင့် ပတ်သက်
အရာ ဝတ္ထု
ကိုယ်စား လှယ်</w>
ဟ တ်
ခဲ့ သည်
ပ ိုး</w>
အ ော
အား နည်း
ယေဘု ယျ
ယင်းမာပင် ခရိုင်</w>
i v
ချ ောင်</w>
ကန့် ကွက်
ဟုခေါ် သော</w>
လှည့် လည်
i z
အ ောင်း
အဖွဲ့ ချုပ်
၁၉၅ ၃</w>
လင်းခေး ခရိုင်</w>
မကြာခ ဏ</w>
vis ion</w>
ဆ င်း</w>
ရွာ တွင်</w>
ရိ ယ</w>
on s</w>
၁၉၅ ၈</w>
ဂ ရက်
ဗ ေး
လာ ခြင်း</w>
ပေး သည့်</w>
ပြစ် မှု
မိုင်းဆတ် ခရိုင်</w>
မြစ်သား မြို့နယ်</w>
ဥ စ္စာ
များ ရှိ</w>
လက် ဖက်
အပြ ား
၁၉၆ ၀</w>
သထုံ ခရိုင်</w>
အကြား တွင်</w>
နေ အိမ်
သာ ရ
တ္ တ</w>
တတ် ကြသည်</w>
သဘော ထား
အမေရိကန် ပြည်ထောင်စု
မြို့နယ် တွင်</w>
ကြို တင်
မ ယား
ထို အ
သဘ ော</w>
အင်တာ နက်</w>
ပျ ား
ရှမ်း ပြည်နယ်
နေ့ စဉ်
မီး သွေး
ထိ ရောက်
( ;</w>
s t</w>
ထ ရို
နိုင် သော
မင်း သမီး</w>
ဖက် တွင်</w>
မလှိုင် မြို့နယ်</w>
b o
ထ င်း
တော် ရွာ</w>
စကား ကို</w>
၁ ၁၂
အသုံး အ
ကြီးမား သော</w>
လဲချား မြို့နယ်</w>
တ ံ</w>
ပ စ်</w>
ချ ောက်
ကျောက် ကြီးမြို့နယ်</w>
အရာ ရှိ</w>
ဘွဲ့ ကို</w>
ကြံ စည်
ဆိုလို သည်</w>
ကသာ ခရိုင်</w>
ချိတ် ဆက်
ဝါသ နာ
မြို့ ဟောင်း
ပါ ဘူး</w>
တစ်ခု ဖြစ်ပြီး</w>
ငှ ား
ဇေ ယျ
S ta
လုံ လောက်
ကာလ အတွင်း</w>
ဝက် လက်မြို့နယ်</w>
ခ လ
ခ ူ
ကို ပါ</w>
လေး စား
ခဲ့ကြ ပြီး</w>
မိုင်းမော မြို့နယ်</w>
အ ဝါ
အစ ဉ်</w>
တာ ကို</w>
ခုနှစ် က</w>
ဖြူ ရွာ</w>
ကို လံ
ကောင်း စွာ</w>
လက်နက် ကိုင်
ပေါင်းတည် မြို့နယ်</w>
ဒီပဲ ယင်း
ထ င်</w>
ထား ခဲ့သည်</w>
မျိုး စိတ်
ခြင်း မှ</w>
er e</w>
ဖျ ာ
ပူး ပေါင်း</w>
အယ်ဒီ တာ
အုတ်ဖို မြို့နယ်</w>
မှု ရှိ
ဖြစ် လျှင်</w>
ပုံ မှာ</w>
လျက် ရှိသော</w>
ပါမော က္ခ
သိန္ နီမြို့နယ်</w>
များ တွင်လည်း</w>
တစ် ကြိမ်</w>
န္ န
လွှ ာ</w>
စိ မ်
အယ် လ
ကိစ္စ ရပ်
S o
တစ် ကြိမ်
ရေ ကန်
ဒီမိုကရေ စီ</w>
တ ောင်း</w>
များ ရှိသည်</w>
၁၉၅ ၆</w>
အစ္စလာ မ်
မ ိုး</w>
၁ ၁၉
ချ ်</w>
ထား သည့်
ထွက် သည်</w>
ဖိလစ် ပိုင်
ဖ လား
အ သေ
ရှ မ်း</w>
အတွင်း က</w>
၁၉၉ ၇</w>
ဖောက် လုပ်
လက် ပန်
မူ ကား</w>
ဟု ဆို
၁၉၅ ၄</w>
ခါး ရွာ</w>
အဘိ ဓာ
ရလ ဒ်
N y
l a</w>
မျိုး ရိုး
ညောင် ဦးမြို့နယ်</w>
ကူး သန်း
al l</w>
ဇု န်</w>
သူမ သည်</w>
လူသိ များ
h e
p or
ဒ က်
အဖွဲ့ တွင်</w>
နတ် မောက်မြို့နယ်</w>
လယ် သမား
un g</w>
ကာ ဗ
နည်း ပညာ</w>
u t</w>
န ို</w>
ဗ ဟု
ရှ ုပ်
စစ် မှု
သွား ပြီး</w>
ရ ်</w>
မရှိ ဘဲ</w>
၁၉၇ ၀</w>
ဒြပ် စင်
ရှာဖွေတွေ့ရှိ ခဲ့သည်</w>
ပ ုပ်
ယင်း သည်</w>
w ith</w>
ရ ိုင်
နောက် ခံ
ကျောက်ဆည် မြို့နယ်</w>
မြိတ် ခရိုင်</w>
အေမာ မ်
တ ကယ်
ဧ က</w>
၁ ဝ
ur e</w>
ပေါ င်</w>
သား များ
၁၉၅ ၉</w>
မဟုတ် ပေ</w>
လွှဲ ပြောင်း
ကောလင်း ခရိုင်</w>
မ ရောက်
နေရာ သို့</w>
စေ ခြင်း</w>
ကြား တွင်</w>
ဖွဲ့စည်း ပုံ</w>
ဘီး လင်းမြို့နယ်</w>
က စား</w>
ရေ ဒီယို
ပေါ် တွင်
မျှ တ
သာသနာ ပြု
အတွင်းရေး မှူး</w>
၃ ၃
တို့ ကိုလည်း</w>
ကာ ယ
မုံရွာ ခရိုင်</w>
ဇ လီ
၀ ၂</w>
တိုင်း တွင်</w>
အနည်း ဆုံး</w>
မေး မြန်း
ပေါ် လာ
အင်ဒိုနီး ရှား
ဟိဂ ရှိ</w>
4 00
C on
o h
t y</w>
၄ ၄
ရှ ု</w>
အဖွဲ့ မှ</w>
ခရီး စဉ်
တစ်ခု တွင်</w>
ပတ် ဝန်းကျင်</w>
သင်္ ဘော</w>
ပင်လယ် ရေ
In tern
အမြောက် အမြ
မ ဒ
အ လေ့
နေရာ များ</w>
စ္ စတန်
en ce</w>
ဝိ ညာ
ဖွင့်လှစ် ခဲ့သည်</w>
ပ ု</w>
အ ငယ်
နှ ောင့်
en d
၁၉၆ ၁</w>
အာဖရိ က</w>
အကြံ ပေး
ချ ောင်ရွာ</w>
ရက် မြောက်</w>
an t</w>
အရေး အသား
ရွေးကောက်ပွဲ တွင်</w>
ကေအင်န် ယူ
စံ နစ်
အခြေ စိုက်
ဖြင့် သာ</w>
ရု ရှ
၁၉၅ ၂</w>
ဗိုင်း ရပ်
က နေ</w>
ထ ိမ်း
ထို နှစ်
ထိုင် း</w>
ယူ နိုက်
သိပ္ပ ံ</w>
အထွေထွ ေ</w>
အိုလံ ပစ်
တစ် လျှောက်</w>
ကြီး ထွား
14 00
ရာဇ ဝတ်
တွေ့ရှိ ရသည်</w>
ဖယ် ခုံ
ဗ တ်
မ လို
ခြင်း အားဖြင့်</w>
စိတ် ဓာတ်
စကား ပြော
ပြုလုပ် ခဲ့သည်</w>
ic e</w>
ပုဂ္ဂ ိုလ်</w>
ညွှန်ကြား ရေး
အရပ် ရပ်
ကြ ေး</w>
တို့ လည်း</w>
ချက် များ
အဝ ိုင်း
အကွာ တွင်</w>
ယ ော</w>
ကြ သဖြင့်</w>
ချ ောက်မြို့နယ်</w>
စေ သော</w>
သွား ရောက်</w>
ပေါ် တူ
တစ်ခု မှာ</w>
တရုတ် နိုင်ငံ</w>
ခမ်း ရွာ</w>
ချ ူး
တောင် ကုန်း
ရု က္ခ
အချို့ က</w>
မ ြ</w>
တိုး ပွား
အစား အစာ
အုတ် တွင်းမြို့နယ်</w>
ရင်းနှီး မြှုပ်နှံ
က ရာ
မြ ိုင်</w>
မြို့ မှာ</w>
အန ိ
အချ ိုး
ဝန်း သို
အကြာ တွင်</w>
မြို့ ကြီး
ရေး အဖွဲ့</w>
မြန်မာ ့</w>
ကျောင်း များ</w>
အကျယ်အဝ န်း
3 2
ပြု ခဲ့သည်</w>
ပင် သည်</w>
စတုရန်း မိုင်</w>
မက္က ဆီ
၁၉၇ ၅</w>
င ါ</w>
ဘ တ်</w>
ဝ ူ
၁ ၁၆
အစ ရှိသော</w>
လျှ ံ
ကန် ကျေးရွာအုပ်စုတွင်</w>
စည် သူ
၁၉၆ ၅</w>
ဧက ရာဇ်
ယိုးဒ ယား
ဒ ို</w>
ပ ယ်</w>
ဆို ခဲ့သည်</w>
၁၉၆ ၇</w>
နေပြည် တော်
ပ ီ</w>
ရ မ်
အ စွမ်း
ဟူ သည်</w>
ဥယျာ ဉ်</w>
ိ တ်</w>
ဖြ ောင့်
စစ် သည်
က္ ခု
ရောက် သောအခါ</w>
တိုင်းရင်း သား</w>
ကွန်ပျူ တာ</w>
ဒ ဏ်</w>
အ ိုင်း
၂ ၁၇
နှ ောက်
ဖြစ် ရ
ရာဇ ာ</w>
၁၉၉ ၂</w>
ဘု တ
ဗန်း မောက်မြို့နယ်</w>
ဘင်္ဂ လား
ထ ည့်</w>
ဖ ူး</w>
လ တ်</w>
ထား ပါသည်</w>
တောင် ဘက်တွင်</w>
ခေါင် လန်
ကျက် စား
H p
ထ ောင်း
ဟ ိုး
အသ င့်
ကြယ်စု တန်း
ပ ီး
ဂျ ို
မောင် မောင်
ရောက်ရှိ လာ
ဘိုး တော်
d e</w>
မ ီး</w>
အရ သာ
မရှိ သော</w>
ခေတ် သစ်
၁၉၉ ၃</w>
လူဦးရေ သည်</w>
ကွာ ဝေး
စူး စမ်း
မှ လည်း</w>
အန ော်
ခြင်း မပြု
တပ် ရင်း
မိုင်း ဖြတ်
ဖက် ဆစ်
စစ်ကိုင်း မြို့နယ်</w>
ဖွံ့ဖြိုး ရေး
အခွင့် အရေး</w>
ဧ ရိယာ</w>
၁၉၇ ၄</w>
Ky auk
ဧရာဝတီ မြစ်
W e
ယ ျ</w>
များ ထက်</w>
လူ ထု</w>
အသုံးပြု သော</w>
သေး သော</w>
ro s
ပြီ ဖြစ်သည်</w>
MMR0 1700
မုန် တိုင်း
ဒါရိုက် တာ
စ ိုင်
မ မြင်
သ ကြား
တော ကျေးရွာအုပ်စုတွင်</w>
ဂြိုဟ ်</w>
တုံ့ ပြန်
ခေါင်လန် ဖူး
နှင့် ပတ်သက်</w>
ကား လမ်း
တူ ရ
သီး သန့်
၁၉၄ ၉</w>
ညှိ နှိုင်း
သန္ဓ ေ
g h
ဖ ရန်
ကျ ုံး
မိ န်
လုံ ကျေးရွာအုပ်စုတွင်</w>
ic al</w>
ခဲ့ကြ လေသည်</w>
ဟိုပန် ခရိုင်</w>
အပြီး တွင်</w>
.. .</w>
သင်္ကေ တ
ကျ ည်
ဖြစ် ထွန်း
နာ ယ
စ သော
ကြ ကုန်</w>
လက် မှု
တွင် မှ</w>
လှုပ်ရှား မှု</w>
wik i</w>
က ပ္ပ
ဘ န့်
သူ ကြီး</w>
သည် ကား</w>
ကုန် ကျ
ညောင် လေး
အကယ် ဒ
သီဟိုဠ ်
s e
ဖ ခင်</w>
ဆို တာ</w>
ဥရောပ တိုက်
လေ ဆိပ်</w>
ရန် ပုံ
ခေါင်း စဉ်
စိ န့်
၁၉၉ ၆</w>
၁၉၉ ၅</w>
ရာသီဥ တု</w>
ခေါင်လန်ဖူး မြို့နယ်</w>
အ ပွင့်
ှ ာ
၅ ဝ</w>
နှစ် ဖက်
နာ မ်
အကြ ွ
ကိုယ် တော်
တော်မူ သော</w>
၁၉၉ ၁</w>
ဝမ်း တွင်းမြို့နယ်</w>
သယ်ယူ ပို့ဆောင်
ဂ ရီ
အ ဖို့</w>
ချ ဉ်
တ္ တရ
ထပ် မံ</w>
၁၉၈ ၉</w>
တနင်္သာရီ မြို့နယ်</w>
t on</w>
ခြင်း ခံရသည်</w>
တွင် ရှိသော</w>
ဘုရား ကြီး
ac e</w>
ဖု ခု
အမွှ ေး
u e</w>
တော် များကို</w>
ထဲ မှာ</w>
အမြ ီး
ဖယ် ရှား
ကမ္ဘော ဒ
1 29
ရေ င
အသ င်
ပိုင် ခွင့်</w>
အတွင်း မှ</w>
မင်းတပ် မြို့နယ်</w>
s e</w>
စ ကော့
ဋ ်
တွင် သာ</w>
ဂါး ရွာ</w>
i p
ဒ ရို
ဆက် နွယ်
တွင်း သို့</w>
၁၉၆ ၉</w>
မကွေး မြို့နယ်</w>
ထူ ထပ်
အခေါ် မှာ</w>
i es</w>
ယ ပ်
လွ တ်</w>
မော်လမြိုင် ခရိုင်</w>
နုတ် ထွက်
P ar
က ရင်</w>
ပုံ ရွာ</w>
ပြန့် ပွား
စ လုံး
ထ ိုင်</w>
ရ ုပ်</w>
ချ ိ</w>
မြို့ ဖြစ်သည်</w>
စက် ရုံ</w>
အရေး တော်
မောက် မယ်
ဇ္ ဈ
စဉ့် ကူး
မ ရော
တစ် ရပ်</w>
ဒေသ ခံ
ရ ခိုင်</w>
ကြ မ်း</w>
များ ရှိ
မော် ရွာ</w>
လူမျိုး တို့သည်</w>
ခရစ် နှစ်</w>
w or
ထ ည်</w>
ပူး တွဲ
ပြစ် ဒဏ်
အတိုင်း အ
နမ္မ တူ
က မာ
ဒ ဲ
ဘ ိုင်
ဘ ိုင်း
အ ကာ
၀ ၄</w>
တွေ့ ရ</w>
တက် ကြွ
မန် တုံမြို့နယ်</w>
မြန်မာနိုင်ငံ ရှိ</w>
အဆောက်အ ဦ
စင်ကာ ပူ
ရေ ဦးမြို့နယ်</w>
စွ မ်း</w>
ယာ ယီ
ရုပ် တု
စိ မ့်
အရှေ့ ဘက်တွင်</w>
ဒေါ် ခင်
ပိတ် ဆို့
0 4</w>
အ တိုက်
ခရ မ်း
ထို ပြင်</w>
အစ ိမ်း
ခိုင် မာ
အလုပ် သမား</w>
၁၉၇ ၃</w>
အလျ ား
လုံခြုံ ရေး
မြစ်ဝ ကျွန်း
ဖယ်ခုံ မြို့နယ်</w>
ဘ ိန်း
ခဲ့ ရ</w>
ခြ ယ်
ဆို း</w>
ဇု န်
သယ် ဆောင်
မလေး ရှား
M ic
ဆ ီး</w>
အ န်း
ငြ ား
ကွန် ယက်
ရဟ န္တာ</w>
မဲ ဆန္ဒ
နမ့် ခမ်း
es s</w>
များကို သာ</w>
ဇန်န ဝါရီ
အစ် ကို
ဗက ပ
၅ ၀၀</w>
ရေ ကျော်
မျိုး စုံ
ပု ထိုး
လိုက် သော</w>
နည်း တူ</w>
လောက် အောင်</w>
o m</w>
ခ ဝ
၁ ၁၈
ကြ င်
လေး ပါး
တက္ကသိုလ် တွင်</w>
အများစု မှာ</w>
( "</w>
ကြ ိုး</w>
များ ဖြစ်သည့်</w>
ti c</w>
ခံ တပ်
ဆင် ခြင်
re vision</w>
ရွေးကောက် ပွဲ</w>
ဇ္ ဇ
W or
၀ ၅</w>
ကော လင်းမြို့နယ်</w>
မု ဆိုး
မိမိ ကိုယ်
ရာသီ တွင်</w>
t e</w>
စု ပေါင်း
တိုက် ပွဲ</w>
ဘူ မိ
ဆော့ ဖ်
ပုဏ္ဏ ား
အ ုံ</w>
ရွ ေး</w>
ကြ ည့်</w>
အောင် ဆန်း</w>
လိုက် လေသည်</w>
နွား ထိုး
ချွ တ်
ရွေ့ လျား
ဒီပဲယင်း မြို့နယ်</w>
H e
l o
ဦး တည်
ဂျ ာ</w>
အထ ား</w>
ဖြင့် လည်းကောင်း</w>
၁၉၉ ၈</w>
ys te
စ န်း
နှစ် ယောက်
ခြင်း ကို
အမ ဲ
ဆရာ ကြီး
th at</w>
အေး ချမ်း
ရောက်ရှိ ခဲ့သည်</w>
နှ ေး
ဝိ ပဿ
ရှေ့ နေ
လိုအပ် သော</w>
ဘုတ လင်
စွ က်
မိုး နဲ
တတ် မြောက်
အများ ပြည်သူ
များစွာ သော</w>
Ch in
လူမှု ရေး
အရှေ့တောင် အာရှ
S p
စာရင်း တွင်</w>
ထင် ရှား</w>
မိသား စု</w>
က န့်</w>
နိုင် စွမ်း
70 250
၁၉၄ ၂</w>
ဗုဒ္ ဓ</w>
အသီး သီး</w>
wik i
အဋ္ဌ က
ဘ ို</w>
ဟ ီး
အသ ား</w>
17 3
18 3
မိုး ညို
ကွန်မြူ နစ်</w>
အတွေ့ အကြ
wiki text</w>
2 13
ဇ ်</w>
မ ဲ</w>
မ က်</w>
ပြ ော</w>
ကြ ဲ
ကျ ောက်</w>
ခြ ံ</w>
စေ ပြီး</w>
ပြည်သူ ့</w>
ပလ ောင်</w>
မိုင်းဖြတ် မြို့နယ်</w>
များ ထဲတွင်</w>
ဂျ င်း
နောက်ဆုံး တွင်</w>
ဘ ဏ်</w>
သွ ေ့
ပင် ကျေးရွာအုပ်စုတွင်</w>
ဆီ သို့</w>
ဒီဂ ရီ
ဝါ ယ
ဌာ ပ
မည် သူ
ရိုး မ
ချန် ပီ
အ တ္ထု
မြ ေး
အရ ောင်း
ညွ န့်</w>
နှိုင်း ယှဉ်
ဂ ဲ
ဋ ီ
ti ng</w>
တည် ငြိမ်
ဂ ံ</w>
လူ ကြီး
စေ ရန်
ယူ ခဲ့သည်</w>
ရှင် သန်
တော်မူ ခဲ့သည့်</w>
တော့ ပေ</w>
မ လုပ်
ိ တ
နှစ် ခု</w>
ဖွဲ့ စည်း</w>
ပညာ ရှိ
ပို ဒ်
ရဟန်း သည်</w>
တား ဆီး
င ို
အတ န်
0 5</w>
ပ စိ
ဘ ်</w>
ပြ ောက်
အလ ို့
ရ သော
ရွ ား
ဖြစ် အောင်</w>
မူ ဝါဒ
တ္တ မ
သ လောက်</w>
အာ ဏာ</w>
လို ဏ်
ကွန် ဟိန်း
ဗဟို ကော်မတီ
နွှ ဲ
ဝ န်း</w>
စု တ်
ပြန် လာ
16 3
an m
in d
ငွေ ့</w>
၁၉၉ ၄</w>
တိုးတက် လာ
များ သည်လည်း</w>
တ္ တာ</w>
ဒေါ် လာ
၁၉၈ ၅</w>
လွိုင်ကော် ခရိုင်</w>
မောက်မယ် မြို့နယ်</w>
ဏ ီ
၀ ၈</w>
ချ ဉ်း
မြို့ စား
သို့ သော်
အမ တ်</w>
သီး နှံ
ဇီး ဖြူ
အာသ ဝေါ
C l
ပ ဒေသ
သ ဖန်း
သူ တော်
19 3
ဆွ န်
ခင် မောင်
ကမ္ဘာ လုံး
ဖွင့် ဆို
ဝတ္ထု တို
အနု ပညာ</w>
မ င်</w>
လ ပ်</w>
သ ဖွယ်</w>
နိုင် ကြ
တိုင်း ပြည်</w>
မင်း ကင်း
ဘုန်း တော်ကြီး
ဧရိယာ သည်</w>
ပုလဲ မြို့နယ်</w>
ဂယ် လက်ဆီ
ဇ ို
များ ထဲမှ</w>
ဝင် ငွေ
နိဂ ုံး</w>
MMR008 00
နှ ဲ
ဦး ဘိုး
စာ သား
ဂျ ော်
ပျ ောက်</w>
15 3
တိုက် တွန်း
သည့် အတိုင်း</w>
တရား ကို</w>
အနောက် ဘက်တွင်</w>
ပွင့် ဖြူမြို့နယ်</w>
ဆဲ လ်
g l
က နီမြို့နယ်</w>
ချ ထား
မှာ တော့</w>
အဖြစ် အပျက်
te s</w>
အပူ ပိုင်း
အဆုံး သတ်
မတူပီ ခရိုင်</w>
ဗဟ ို</w>
မှ ိုင်း
ကု က္
စွ တ်
တောင် သူ
သက် ဆိုင်ရာ</w>
သိမ်း ဆည်း
တော့ ဘဲ</w>
လောက် ကိုင်မြို့နယ်</w>
ဖွားမြင် သည်</w>
i al</w>
l d</w>
လ မ်
ဦး ရွှေ
အနု ပညာရှင်
ဒ န်</w>
သ ောင်း</w>
အ ပြီး</w>
လူ း</w>
ရိ တ်</w>
ရက် ပေါင်း</w>
10 5
အနောက် ဘက်</w>
ရမည်းသင်း ခရိုင်</w>
သ နား
ပေါ ့</w>
ရှား ပါး
အရှေ့ ဘက်</w>
ဘုရင် သည်</w>
as h
ဒီး မော့
မုံရွာ မြို့နယ်</w>
ဝေဒ နာ
r is
၁ ၁၄
၂ ဝ
တို့ သည်လည်း</w>
စုစု ပေါင်း
ယူ ဆောင်
ပေါ် ထွက်
အလျ ား</w>
ဗိသု ကာ
ဝ ဲ</w>
၂ ၁၈
ရေ နွေး
တို ကျို
ကော် ပို
ရည် မှန်း
လောက တွင်</w>
စွယ် စုံ
ခ င်း</w>
အ စွန်း
နီ ရွာ</w>
ဆု တောင်း
အကြမ်း ဖက်
အက်တ မ်
ပြု သည်</w>
လျှ ော်
မင်း လက်ထက်</w>
၁၉၅ ၅</w>
ဘ ဒ္ဒ
ခဲ့ တဲ့</w>
သို့ ဖြင့်</w>
အစိုးရ မှ</w>
စ္စ ာ</w>
ဒိုက် ဦးမြို့နယ်</w>
w in</w>
နည်း ကို</w>
သံ လိုက်
မဟုတ် သော</w>
အကြီး အကဲ
နှိမ် နင်း
တည် ရှိ</w>
လူ တန်း
သူ များအား</w>
မျိုး ရင်း
က္ ကာ
16 00
ခွဲ ထွက်
ဥပဒေ အရ</w>
စွမ်း ဆောင်
မိုးညို မြို့နယ်</w>
ဖ ော
ဦး ထွန်း
am p</w>
ဂေါ ့
cor e</w>
သာမဏ ေ
4 2
y a</w>
တ ျ
ဖ ာ</w>
အ ဖျား
မြ ဝတီ
ရှိ ကြောင်း</w>
အမွေ အနှစ်
နမ့်ခမ်း မြို့နယ်</w>
w s</w>
ခ ို</w>
ိုင် ရွာ</w>
သား ရေ
နာ မ
ယင်း တို့
မော် လိုက်
n e</w>
ဘ န်း
အ အေး
ရှိ သေးသည်</w>
စာ ကို</w>
သည် ကို
မျိုး ဖြစ်သည်</w>
အာ နန္ဒ
နွ ယ်</w>
အခြေ ချ
ကြောင့် ဆိုသော်</w>
ညောင်ဦး ခရိုင်</w>
1 10
1 27
A c
i um</w>
ဂ လက်ဆီ
ဖ ော့
များ သာ</w>
သက် ဆိုင်ရာ
၁၉၄ ၁</w>
အတော် များ
အစွဲ ပြု</w>
န ူ
န ောင်း
၄ ဝ</w>
ဖြစ် ခြင်း</w>
ရေ တွက်
လက် တင်
အစ ုံ
ပေါ် ထွန်း
ကမ္ဘာ မြေ
အသုံးပြု ခဲ့သည်</w>
၁၉၇ ၁</w>
ခုံ ရွာ</w>
အလေး ချိန်
ရေ ကြောင်း
မင်း ကြီးသည်</w>
ခ တ်</w>
ကျ ယ်</w>
နေ စဉ်
အပြ ောင်း
ခန့် က</w>
ဗျ ာ
သင့် လျော်
န န်း</w>
သို့ မဟုတ်
သုံး ပါး
သူရဲ ကောင်း
အခက် အခဲ
ကျာ ်
က ူ</w>
ခ ုံး
ဂ ိမ်း
န မ်</w>
ခြ ောက်</w>
ရှေး အခါက</w>
ပြောကြား ခဲ့သည်</w>
ဖောင်း ပြင်
ဟင် န
လင်းခေး မြို့နယ်</w>
ပ ရ
ကျ ဉ်း
ပြည် သို့</w>
ကာ မူ</w>
ပြန် ဆို
သံ လွင်
Ch aung</w>
တီး ခတ်
ဖော်ပြ ခဲ့သည်</w>
သခင် သန်း
ကွမ်း လုံ
ဖလမ်း မြို့နယ်</w>
ဟော့ ကိုင်း
ဖြစ် တော်မူ</w>
မျိုး ဆက်
အလ ္လာ
တစ်ခု အဖြစ်</w>
ဖေဖော် ဝါရီ
F or
O r
i f
ရှ ော
မြို့ တစ်
ဂျ ုံ
ခြင်း တို့ကို</w>
ဖက် ဒ
စောင့် ထိန်း
ပဉ္စ မ
အ နှစ်</w>
များ လည်း
အသ တ်
မူ တည်</w>
နတ် ရွာ
ထန်း ပင်
အစည်းအရ ုံး
င င်
ကြ ကုန်
နိုင် ပေ</w>
ပွ န်
ဝင် ရိုး
တွေ ဟာ</w>
ကယ် လီ
ရမ ည့်
ပင်း တ
ကွ န်း</w>
အထ ူး</w>
နှင့် လည်း</w>
၁၆ ၉
အမည် တွင်
ကလေး မြို့နယ်</w>
- -
လူ တို့
မျိုး တွင်</w>
ခြင်း တို့</w>
စိုး စံ
အထက်တန်း ကျောင်း</w>
လပြည့် ကျော်</w>
i an</w>
တွ န်း</w>
ဆို ရင်</w>
အထ ဲ
တောင် တန်း</w>
ပျ ိုး</w>
လမ်း ညွှန်
တည်ဆောက် ခဲ့သည်</w>
မက် မ
လွင် ပြင်
တံ တား</w>
စိ စစ်
un d
သုတ္တ န်
နွားထိုး ကြီးမြို့နယ်</w>
ဘုတလင် မြို့နယ်</w>
ရ ီးယန်း
လွ ေ
ပတ် လုံး</w>
မွတ် စ
အစည်းအရ ုံး</w>
မင်းကင်း မြို့နယ်</w>
စာ တမ်း</w>
သော က်</w>
အိ ဝ
ပြီး သည့်
မြစ် သည်</w>
မရှိ ချေ</w>
သူ့ အား</w>
သထုံ မြို့နယ်</w>
ကုလ သမဂ္ဂ
ဟ ုန်း
စေ ာ</w>
ညီ မျှ
ol l
မြင်းခြံ မြို့နယ်</w>
လက်မှတ် ရေးထိုး
ကော့ကရိတ် ခရိုင်</w>
0 8</w>
c oun
ဒ ိုး</w>
၁ ၁၅
စ် သည်</w>
တစ် ဆူ
MMR015 00
၁ ၁၇
တစ် ကောင်
အန ံ့
မြေ အောက်
ရှား တော
ရိုး ရာ</w>
အစီ အစဉ်</w>
ဖျား ရွာ</w>
ဂေါတမ မြတ်စွာဘုရား</w>
ဗျူ ဟာ
မှတ် ယူ
၁၉၆ ၆</w>
အဆင့် အတန်း
အမှု ဆောင်
ဤသို့ ဖြင့်</w>
ကွန်ဟိန်း မြို့နယ်</w>
က ဿ
အန ိမ့်
ရုပ် မြင်
လင်း ရွာ</w>
ta l
၁၉၅ ၀</w>
လုပ်ကိုင် ခဲ့သည်</w>
ဟိန္ဒ ူ
ရ သဖြင့်</w>
သ န့်</w>
မူ ရင်း
စွမ်း အား
စာအုပ် ကို</w>
အဆက် အ
ဂေါတမ မြတ်စွာဘုရား
ကာဗ ွန်
တ ုပ်
ရွာ သစ်</w>
ro m</w>
နံ နက်</w>
ဒီးမော့ ဆိုမြို့နယ်</w>
0 9</w>
စ င်္
ဇ နီး</w>
အ ပင်</w>
များ အပြင်</w>
တစ် ရာ
ဂျ ေ
ပင် ကို</w>
ဂျာ နယ်</w>
ပုဒ် မ
ဆွေ မျိုး
မွမ်း မံ
နမ္မတူ မြို့နယ်</w>
စ သည်</w>
၀ ၃</w>
ရေ တံခွန်
သာ ဓ
လှ ိုင်</w>
လွှ ား
စံ တော်
ရှေး ခေတ်
အမရပူရ မြို့နယ်</w>
အတ္ထု ပ္ပ
င ရဲ
ဒ ဂု
မှ ောင်
ပြု ကာ</w>
ကာ တာ
မွ ေး</w>
19 4
သု ခ
ဆောင်ရွက် သည်</w>
ဝိ သေ
၁၉၈ ၃</w>
ခရိုင် တွင်</w>
ရွှေဘို မြို့နယ်</w>
နံပါ တ်</w>
ဒင်္ဂ ါး
ထ ော်
ရ အောင်</w>
အ ိုး</w>
မိ နစ်</w>
ဆုံး မ
an ce</w>
ဘွ ား</w>
ဘုရင် မင်း
၁၉၇ ၉</w>
သင့် သည်</w>
MMR01 300
ကာကွယ် ရေး</w>
သက္က ယ်
ပေမ ယ့်</w>
အနော် ရထာ
န မူ
သမ င်
အာ မခံ
မြင့် တက်
အလုပ် အ
ပစ် ခတ်
အလယ် ပိုင်း</w>
ဆု ံ</w>
ဧက ရာဇ်</w>
ဩစတြေး လျ
P e
သ ်</w>
ကြီး များကို</w>
သာသ နာ</w>
com p
နယူး ယောက်
po em</w>
ဥပမာ အားဖြင့်</w>
စာကြည့် တိုက်
ဝန်းသို မြို့နယ်</w>
တ ကျ
ထ ရီ
ဗ ယ်
၁ ၁၃
လာ လေသည်</w>
လေ ထု
စ္ စတ
ငါ း</w>
အရှင် မြတ်
မှုများ ကြောင့်</w>
မကြာ မီ</w>
ရုပ်မြင် သံ
ရေး သည်</w>
ဒီ ယို</w>
နား ဖ
သတ် မှတ်</w>
အဖြစ် လည်း</w>
အိုင် အေ
လူဦးရေ မှာ</w>
i o</w>
ဠ ု
မှု န့်
မိုင်း လား
al l
အောင်မြင် ခဲ့သည်</w>
မိတ် ဆွေ
) )</w>
ဒ ိန်း
အ ာ</w>
မြ ောင်း</w>
ခြ င်္
လာ ဘ်
ပိုင်း ခြား
ကျောင်း မှ</w>
မိုင်း တုံမြို့နယ်</w>
ကမ္ဘာ စစ်</w>
ကစား သမား
၁၉၈ ၁</w>
ကျမ်း ဂန်
ပိတ် ပင်
ပလ္ လင်
မက်မ န်းမြို့နယ်</w>
ည ဉ့်
ရှ ာ</w>
ကြ ိတ်
တိုင်းဒေသ ကြီး
သတင်း အချက်အလက်
အချို့ ကို</w>
ငါ န်း
အသံ ထွက်
K an</w>
စ တီ
၀ ၆</w>
ချ ူ
ဒေါ င်
စတင် တည်ထောင်
အဆို တော်</w>
လောင် စာ
လွိုင်ကော် မြို့နယ်</w>
ပဋိပ က္ခ
m e</w>
ဘ ို့
၁ ၂၀
ခဲ့ တယ်</w>
ပြည် တွင်း</w>
တစ်ဦး ဖြစ်ပြီး</w>
ဘဝ ဇာတ်
ဖောင်းပြင် မြို့နယ်</w>
မ ုတ်
အ ကုန်
မျိုး သည်</w>
စီး ဝင်
ပွဲ တော်</w>
ပြောင်း လဲ</w>
ကောင် ရွာ</w>
ကွယ်လွန် ခဲ့သည်</w>
ပုဂ္ဂလိ က
ကော်ပို ရေး
t a</w>
ပ ဏ္ဍ
ဖ င်
ပါ ရှိ
တို့ ဖြစ်ကြသည်</w>
မှု န်း
အသ ံ</w>
an n
ခေ တ္တ
၁၉၅ ၇</w>
ကြွ င်း
ကယ် ဆယ်
ဖိ အား
စတုရန်း ကီလိုမီတာ
မင်းတုန်း မြို့နယ်</w>
s on</w>
ဇ ယား
ည ာ</w>
ဖ တ်</w>
များ နှင့်အတူ</w>
မြို့ ရိုး
တ္ တီ
မ္ ဗ
ဆွ ီ
နွ မ်း
အချို့ မှာ</w>
ကျွန်းဆွ ယ်
ကြီး ကျယ်
ဘုရား ရှိခိုး
ဆာ ရွာ</w>
ကာကွယ် ဆေး
ဆား လင်း
သည်ဟု ဆိုသည်</w>
6 00
စာ ချုပ်</w>
ကံ မ
အနီး ရှိ</w>
ထုံး စံ
အရင်း အမြစ်
ဈာ န်
ဗ ီး
အ ငြ
ဆို ဒ်
ကိ စ္စ</w>
၁၉၈ ၆</w>
ပိ တ်</w>
တာဝန်ထမ်းဆောင် ခဲ့သည်</w>
0 1</w>
ယ န်ရွာ</w>
အ ပြု
၃ ၀၀</w>
ကျောင်း ရွာ</w>
ပေါင်း စည်း
စာအုပ် များ</w>
MMR0 150
မွေးဖွား သည်</w>
ပ လ</w>
ခြ ိမ်း
ထုတ် ဖော်
on g
ထဲ က</w>
ဘုရင် ခံ
as s
အရှေ့တောင် အာရှ</w>
M a
T aw</w>
ရှ န်း
များ က
များ ကဲ့သို့</w>
နိုင် သဖြင့်</w>
ထား ခြင်းဖြစ်သည်</w>
အခ င်း
ခေါ် သော</w>
တ္တ ိ</w>
မိတ် ဆက်
မိုင်းလား မြို့နယ်</w>
အ ခံ
မှ ို
ထောင် ရွာ</w>
ဆေး ရုံ</w>
အပ် နှင်း
ရဟ န္တာ
ဗိုလ် ချုပ်</w>
နီး စပ်
ကျိုက် မရော
i k</w>
i p</w>
o p</w>
မ က
ဖြ ုတ်
ရေ ကို</w>
မင်း က</w>
မူလ တန်း
တ ပေါင်း
၍ ၎</w>
တစ် စိတ်
ပေး ပြီး</w>
ဟူ သည်မှာ</w>
စည် ကား
သူ့ ကို</w>
re e</w>
အစဉ် အလာ
ဖု န်း</w>
စေတ နာ
E x
န ိ</w>
မ ဝ
အ ပ</w>
အ မာ
လွှ တ်</w>
အရှေ့ ပိုင်း
ဝန်း ရံ
၁၉၇ ၆</w>
as s</w>
တ ုံး</w>
န န့်
များ အတွက်
ခု ံ</w>
ကူး ပြောင်း
ရဟန်း တစ်ပါး</w>
သတ္တ ဝါ</w>
အဖွဲ့အစည်း များ</w>
ပထမဦး ဆုံး</w>
ဗဟု သု
ဗ မာ</w>
ရ ရှိ</w>
အာ ဆီ
မြတ် သော</w>
အာဏာ သိမ်း
ကွယ်လွန် သည်</w>
မောင်း နှင်
မကျ ေ
ဖဆ ပလ
MMR007 00
ဇ က်
သ ဖြင့်
ရွ ံ့
အသ ီး</w>
ထိုင် ဝမ်
ဝါ ဒီ
ပိုင်း ဆိုင်ရာ</w>
စံ ချိန်
Th ar</w>
ol og
မြို့သစ် မြို့နယ်</w>
နားဖ န်းမြို့နယ်</w>
ရ ထား</w>
သ တင်း</w>
ဲ ရွာ</w>
သူ ပုန်
ပင် လျှင်</w>
ထိ တွေ့
el l</w>
၁၉၃ ၉</w>
MMR0 1400
ရှုပ် ထွေး
ပ ဲ့
သ တိုး
လူ နေ
ဆေး ပညာ
စိ မ်း</w>
ကျိုင်း ရွာ</w>
က ဝမြို့နယ်</w>
ခ န်
ဆ ောက်</w>
ဖြစ် ကြ</w>
အဖြစ် မှ</w>
ကြည် ညို
ပြည်နယ် တွင်</w>
အရွယ် အစား
တံတား ဦးမြို့နယ်</w>
ဇ ိ
ရှ ိုင်း
သစ် သီး
မော် ကွန်း
၁၉၅ ၁</w>
တောက် ပ
ဒါယ ကထေရ်</w>
နံပါ တ်
ဖြ ို
ဒေသ အခေါ်မှာ</w>
ထွ န်
ဆင် နွှဲ
အို ခ
ယူဆ ကြသည်</w>
တဲ ရွာ</w>
ငြိမ်းချမ်း ရေး</w>
က န္တာ
စ ောက်
အ နှံ
မှု န်
ရင်း မှာ</w>
ယင်းမာ ပင်မြို့နယ်</w>
ဝ တ္တ
၀ ၉</w>
ဦး နု
သား တို့</w>
အဆ ီ
ဒေါ ့
ပြော ပြ
မဟုတ် ပါ</w>
အထောက်အ ပံ့
ဖဆ ပလ</w>
ပျမ်း မျှ
A p
က လာ
တ ခါ
သူ များနှင့်</w>
လောက် တွင်</w>
အမှတ် အသား
ခြောက် သွေ့
ပြုပြင် ပြောင်းလဲ
က ဲ</w>
ဒ င်</w>
ဖြစ် နိုင်သည်</w>
နိုင် ခဲ့
ိန် ရွာ</w>
အမည် ပေး
နောင် ရွာ</w>
မိန်း မ</w>
ဆ ောင်း</w>
မ ထေရ်
အ ရွက်</w>
ကျ စ်
ထား ကာ</w>
လှ ော်
ပင် မ
သိ မြင်
ကောင်း ရွာ</w>
ခေါင်း လောင်း
လေယာဉ် ပျံ
တိရစ္ဆာ န်</w>
ရှ ေ့</w>
ကလေး များကို</w>
အက် စ်</w>
မတ် လ
၁၉၈ ၄</w>
ဗမာ ပြည်</w>
သန ည်း</w>
ကွမ်းလုံ မြို့နယ်</w>
0 6</w>
က ယ်</w>
မ တူညီ
ဦး တင်
သူ များမှာ</w>
ဂျ င်</w>
ခံ ရ</w>
ဆိုင် သော</w>
အဆ င်း
ဟူ သည့်</w>
1 13
b e
နေ ခဲ့သည်</w>
ကို ရီးယား</w>
ပျ ံ</w>
ယင်း ကို</w>
ခံရ ပြီး</w>
ဘု ံ</w>
မျှော် လင့်
W in
စ ရိုက်
လေ ပြီ</w>
နေရာ များတွင်</w>
လို သော</w>
ကလေး ခရိုင်</w>
ut h</w>
ထမ်းဆောင် ခဲ့သည်</w>
မင်းတရား ကြီး</w>
လှုံ ့
နျူ ကလ
ဂျွ န်</w>
မိုးနဲ မြို့နယ်</w>
အာသဝေါ ကုန်
တိ န်
ဥပဒေ ကို</w>
ဇာတ်လမ်း တွဲ
ပြို ကွဲ
s tr
မ လာ
မ သွား
လက် ယာ
ထို ဒေသ
မည် မျှ
ရိုး ရိုး
အောင်မြင် မှု
id e</w>
G r
ဂ ို</w>
တို့ နှင့်အတူ</w>
မျိုး ချစ်
ထွ ေ
ပြုလုပ် သော</w>
ကြောင့် လည်း</w>
B o
မ န့်
မြို့ နေ
လက် နက်</w>
တောင် ပေါ်
အချ စ်
မြန်မာ သက္ကရာဇ်</w>
ထင် မြင်
el l
ပါရ ဂူ
ယေဘုယျ အားဖြင့်</w>
K a</w>
f r
ထ ုံး</w>
ပါ တ်
၁၉ ဝ
ဝန် ထမ်း</w>
စဉ့် ကိုင်မြို့နယ်</w>
ဟား ခါး
m an</w>
ကော့ သောင်း
ဗိ မာန်
သိပ်သည်း ဆ
အကောင်အထည် ဖော်
i l</w>
စာ ရွက်
တော က်</w>
ထို ကဲ့သို့</w>
ပြန် ကြား
အောက် ပါ</w>
အပြ င်း
အရေ အတွက်</w>
d is
y n
တ ချို့
ဖ ရ
မျ ော
လူ အများ
သူ ရ
ဝါ ဆို
သံ ဖြူ
ကမ္ဘာ ့</w>
ဟောင်း ရွာ</w>
ဆက်ဆံ ရေး
ကြ ံ</w>
ကျ ိုး</w>
တွေ့ နိုင်သည်</w>
အောက် ဆီ
တွင်း ရှိ</w>
ကောက် ယူ
၁၉၇ ၈</w>
ဖွယ် ရာ</w>
ပြိုင်ပွဲ တွင်</w>
က ီ</w>
ပ လာ
ဖ ီး
သူ တစ်ဦး
ရင်း မြစ်
သို့ ဖြစ်</w>
ပါး စပ်
ပိုင် ရှင်
လိ မ်း
နန်း ယွ
/ &</w>
ဗ လ
ဆို တာ
si on</w>
အတွေး အခေါ်
ဘဝဇာတ် ကြောင်း</w>
တ ဲ</w>
ကျ င်း</w>
ထို အခါ
ဂျ န်
မြန်မာ စကား
အိ ချိ
ဘော ်</w>
စွမ်း ရည်
e b
ဆို တဲ့</w>
လှ ံ
ဟု န်
အပြ ား</w>
ရှေး ဟောင်း</w>
သာယာ ရွာ</w>
ပျံ လွန်
ပါမော က္ခ</w>
ကျိုက်မရော မြို့နယ်</w>
i ti
ပ ရော
ဗ ိုလ်</w>
သ တည်း</w>
၂ ဝဝ
ရေး မြို့နယ်</w>
တော် များ
ပြီး နောက်တွင်</w>
အခြ ာ
၁၉၈ ၂</w>
အမွ ေး
သာသနာတော် ရှိ</w>
f rom</w>
ခုနှစ် အတွင်း</w>
လွန် စွာ
ကူး ရွာ</w>
ခြေ ထောက်
0 0</w>
က ထိ
ဗ ညား
မြ ီး
များ ပေါ်တွင်</w>
ati ve</w>
တန င်္ဂ
ကင် ဆာ
မွှ ား
အရည်အ သွေး
စ ောင်</w>
မ အောင်မြင်
ယ စ်
။ &</w>
နေ ဝင်း
ဗျ ည်း
ခရီး သည်
ပရို ဂရမ်
နန်းယွ န်းမြို့နယ်</w>
u g
ဂ စ်
ဖ လား</w>
မြ ွ
မြို့ စား</w>
ကွ ေ
ပေး လိုက်
အခ ိုင်
ဘွဲ့ တံဆိပ်
ပတ္တ မြား
စစ်မှု ထမ်း
0 7</w>
N or
ဗ ာ</w>
အ ဖြေ
ကု လား</w>
17 2
ငြ ိမ်း</w>
နောင် တွင်</w>
နောက်ဆုံး ဘဝတွင်</w>
မကြာ မီ
aw ng</w>
ပမာ ဏ</w>
ဗွ ီ
တ တိယ</w>
ပ ို့</w>
မှ ီ</w>
မြန်မာ စာ
အရှ င်</w>
တရား စီရင်
အရာ တော်မြို့နယ်</w>
ဒုတိယ မြောက်</w>
ငါန်း ဇွန်
အာသဝေါကုန် ခမ်း</w>
P in</w>
t w
စ ထ
တ ယောက်
ဘ ော့
မ ထား
အ ကွာ</w>
နေ သည်ကို</w>
သော က
စစ် ဘက်
ကျောင်း စုရွာ</w>
ခေါ် ယူ
10 3
အောက်ပါအတိုင်း ဖြစ်သည်</w>
P l
ဓ ါ
မ ပြော
အ ညာ
ပါ ရှိသော</w>
ဂျ ိမ်း
တိ န်း
ပုံ သဏ္ဌာန်</w>
အလ က်</w>
အကျိုး သက်ရောက်
အန္တရာ ယ်</w>
သမုဒ္ဒ ရာ</w>
1 28
ထ ီး</w>
ယ ောင်</w>
ဟ ပ်
ဖြစ် ကြောင်း
ရွှေ ပြည်
မြန်မာနိုင်ငံ တော်</w>
အစော ပိုင်း</w>
ရုံးစိုက် ရာ
အတွေ့အကြ ုံ
ကုက္ ကို
0 2</w>
အ ရုပ်
နှစ် အရွယ်တွင်</w>
တောင် ကျေးရွာအုပ်စု</w>
ပျ ို့
၁၉၇ ၇</w>
ကြေး နန်း
M in
စ နေ
တစ် စု
19 2
ပညာရှင် များ</w>
ဂိုဏ် း</w>
အေမာမ် ဟို
ခ မိ
စ ပါး</w>
ရှိ ခြင်း</w>
တစ် ချိန်
မိုး ရေ
လူမျိုး များ
ရန်ကုန် မြို့
es s
ဗိုလ်ချုပ် အောင်ဆန်း
မီးရထား လမ်း
ဆားလင်း ကြီးမြို့နယ်</w>
0 3</w>
a e</w>
သ ခွ
ဖြစ် သွား
အရ ံ
ပန်းချီ ကား
နေပြည် တော်</w>
သီအို ရီ
ဌာပ နာ
အ ရှိ
အ ပေါက်
တစ် နည်း
မာ န်</w>
ဂျ ီး
ကော် ရွာ</w>
အစိုးရ အဖွဲ့</w>
အဆို ပြု
များကို ပါ</w>
1 24
ရ ခြင်း
တို့ သည်
အသ ိုက်
ဆို သူက</w>
16 2
အလ င်း</w>
စွာ ဖြင့်</w>
မီး ရှ
အရေး ယူ
သေး ပေ</w>
ec t</w>
ထိုင်း နိုင်ငံ
လျ ား</w>
သည့် ပြင်</w>
ဘီ ယာ
သင့် တော်
အဓိက အားဖြင့်</w>
ဝင်ရောက် ယှဉ်ပြိုင်
အရွယ် ရောက်
နှိပ် စက်
ver s
ဗ န္ဓ
၀ ၇</w>
ခဲ့ သည်မှာ</w>
ပို က်</w>
ကင် မ
လင်္ ကာ</w>
ခဲ့ ရာမှ</w>
အသ စ်</w>
ပန်း ချီ</w>
ကလေး များ
တန် ဆောင်
တောင်း ရွာ</w>
သာယာ ကုန်းရွာ</w>
တွဲ ဖက်</w>
လွတ်လပ် စွာ</w>
အရည် အချင်း
ရည်ရွယ် ချက်
က တ္တ
င န်း
လ ္
အ င်္
ပြ ွ
မှု များသည်</w>
သက် သက်
တူ း</w>
တံ ခွန်</w>
ထက် ထက်</w>
ခံရ သော</w>
အဆောက်အ အုံ</w>
ဝံ သ</w>
ရပ်စ ဲ
ဒီမိုကရက် တစ်
ပင်းတ ယ
ပြ တိုက်</w>
ကြီး မှာ</w>
တို့ နှင့်
ချုပ် ဆို
ဆင် ပေါင်
ရုပ် ပုံ
ဗြ ဲ
ကိုး ကန့်</w>
၁၉၈ ၇</w>
ow er</w>
MMR01 100
ရှီး မား
ရူပ ဗေဒ
ဖ ိုး</w>
မြ ဲ</w>
တိုက် ခိုက်</w>
ဥပဒေ ပြု
os t</w>
နှင့်အ မျှ</w>
လျှော့ ချ
အင်ပါ ယာ
ငါန်းဇွန် မြို့နယ်</w>
တ ဦး</w>
ပ ရိတ်
ကြ င်း
ရွာ သာ
တစ် ပုဒ်
ဒေ တာ
အချို့ သော
အမေရိကန် ဒေါ်လာ</w>
လောင်း ရွာ</w>
b er</w>
စ ကို</w>
တ ပင်
တ ေး</w>
ဒ သ
ဩ ဝါဒ
အလ ုပ်</w>
ပေါင် မြို့နယ်</w>
လယ်ယာ မြေ
ဩစတြေး လ
i e</w>
s erv
အ သည်း
နိုင် ရန်အတွက်</w>
မင်္ဂ လာ</w>
ခဲ့ဖူး သည်</w>
) ၌</w>
C ar
ရှ ်</w>
ကြ ပါ
နှ ောင်
လျ ော
ပင် စည်
15 2
14 9
ခွဲ စိတ်
ငါး ပါး
ပီ တာ
၁၉၃ ၅</w>
ပညာရှင် များက</w>
တက ူ</w>
ကွမ်း ခြံ
ပျောက် ကွယ်
ခန္တီး ခရိုင်</w>
ရန်ပုံ ငွေ
ဂေါတမမြတ်စွာဘုရား ထက်ထက်</w>
a ted</w>
e th
အ ပို
တွ ဒ်</w>
မှ သည်</w>
စပ် ဆို
ဘို ရွာ</w>
ရတ နာ</w>
ရာစု နှစ်</w>
ဖွယ် ရာ
ဗိုလ်ချုပ် ကြီး</w>
ပံ့ ပိုး
N g
စေ ့</w>
ကျောက် တုံး
ဘာသာ ရေး</w>
အုပ်ချုပ် မှု
ချီ ဖွေ
အိုင် ယာ
MMR00 500
ခဲ့ရ လေသည်</w>
အားကစား ပြိုင်ပွဲ</w>
အင်ဂျင်နီ ယာ</w>
မကြာခ ဏ
T r
ဆ ည်</w>
မ ပြတ်
လ ္လာ
ရာ သို့</w>
စာ စောင်
တို့ ပါဝင်သည်</w>
ဂျ ော
ပေး ခြင်း
ပေး ထားသည်</w>
ရက် လုပ်
ဇာ တ
သတ်မှတ် ခဲ့သည်</w>
is t</w>
တွေ့ရှိ ရ
၁၉၃ ၆</w>
ပူးပေါင်း ဆောင်ရွက်
ပါရ မီ
ဂန္ ထ
စ ကြ
လူ သတ်
လေ တော့သည်</w>
ခရ ီး</w>
ရန် အတွက်
စည်း လုံး
သံ မဏိ
တရား သူကြီး
နိ မိတ်</w>
စင် တီ
စိုး မိုး
လျှင် လည်း</w>
L o
w ay</w>
ရှ က်
မှ နေ</w>
လာ အို
လုပ် သား
ပင် စုရွာ</w>
န္ ဒ</w>
နောက် ဆက်
နောက် ထပ်
မြစ် ဝှမ်း
အလယ် တန်း
အဆင့် ဆင့်</w>
ငါ သည်</w>
သရက် မြို့နယ်</w>
အပြည်ပြည် ဆိုင်ရာ
ကံမ မြို့နယ်</w>
ဆင်ပေါင် ဝဲ
ဖြစ် သည်
ဦး နှောက်
ကို က်</w>
မှု များနှင့်</w>
မာ လာ
ဂျ ိုး
ပု လောမြို့နယ်</w>
မိုင်း ပန်
အခြား သော
နမ့် ဆန်
စွန့် ပစ်
av e</w>
ဂြိုဟ် ရံ
အစော ပိုင်းတွင်</w>
လက်မ ခံ
လက်အောက် တွင်</w>
အသ ိုင်း
ညောင် ကုန်းရွာ</w>
ဆင်း တု
သာသနာ ့
သခင် စိုး
ဆက်ဆံ ရေး</w>
ဓာတု ဗေဒ
Com p
u k
မ ဆို
တွင် ကား</w>
၁၀ ၀၀</w>
ကွာ ခြား
စေ့ စပ်
ထားဝယ် ခရိုင်</w>
yste m</w>
ငှ ါ</w>
လိုင် စင်
အများစု သည်</w>
Mon g
တစ်စိတ် တစ်
စေ ကာမူ</w>
ရော နှော
အင်း တော်မြို့နယ်</w>
ဝါး ရုံ
စောင့် ကြည့်
ဆင်းသက် လာ
အောင်ဆန်း စု
ပုသိမ် ကြီးမြို့နယ်</w>
ဆို သူ
နိုင်ငံ သား</w>
သိ ကြား
မြင့် သည်</w>
ထောက် လှမ်း
စနစ် တကျ</w>
အဆင့် ဆင့်
အရေ ပြား
Ne w</w>
ထား တဲ့</w>
ကိ ရိယာ</w>
at h</w>
ဘိ က္ခု
ဖိ နှိပ်
ဗိုလ်ချုပ် ကြီး
အစ္စ ရေး
မိုးညှင်း မြို့နယ်</w>
က ေ</w>
သ င်း</w>
အ သွား
အ မျက်
၂၀ ၂၁</w>
လျ ူ
သွ တ်
မြတ် နိုး
ဆိုး ရွား
T aung</w>
e p
ခ ိုး</w>
၁ ဝဝ</w>
ပြ ာ</w>
များ ဖြစ်ကြသည်</w>
သာ ဝ
မူ တည်
လေ့ လာ</w>
မျက် မှောက်
S ch
t ro
များ ဖြင့်
စာ နယ်
ဆို ပါက</w>
ရုပ် သိမ်း
ဘော ဂ
ယင်း သို့
ic h</w>
ဘဝ နိဂုံး</w>
မတူပီ မြို့နယ်</w>
ကျွန်းစု မြို့နယ်</w>
ဘီလီ ယံ
ရ လျှင်</w>
တစ် ဝက်
တစ် စတုရန်းကီလိုမီတာ
ဘုရား ရှင်</w>
ကိုင် တွယ်
လူမျိုး များသည်</w>
၁၉၃ ၈</w>
သရုပ် ဖော်
ထိုအချိန် က</w>
မင်းဘူး မြို့နယ်</w>
ရာဇာ ဓိ
စကြာ ဝ
b e</w>
ဥ ပါ
၂ ၂၀
လျှ ို
ငယ် ဘဝ</w>
ရန်ကုန် တက္ကသိုလ်</w>
နီး ပါး</w>
မေး ခွန်း
သင်္ဂ ြိုဟ
တူရ ကီ
anm ar</w>
J oh
အ ရောက်
နိုင် သော်လည်း</w>
ပါ ပဲ</w>
ကြီး ပွား
နှစ် နှစ်
သော အခါတွင်</w>
စေ တု
လုံး ရွာ</w>
ပေ လိမ့်မည်</w>
ကောင်း မှု
မည် ကို</w>
မြေ ပုံ
ဘုရား ကျောင်း
ရာဇ ဝင်</w>
ဝေါ မြို့နယ်</w>
ချီး ကျူး
ကြိမ် မြောက်</w>
ငြင်း ပယ်
ညောင်လေး ပင်မြို့နယ်</w>
လှုံ့ ဆော်
) (</w>
ဗ ို
ခဲ့ ချေ</w>
လိုက် စား
ခင် ဦးမြို့နယ်</w>
ထွက် သော</w>
ထို့ နောက်တွင်</w>
အဆင့် မြင့်
များစွာ ကို</w>
တစ်မျိုး ဖြစ်သည်</w>
ဒိ ဋ္ဌ
oc k</w>
ကွဲပြား ခြားနား
အသုံးအ နှုန်း
နမူ နာ
အ ပတ်
ိ တ</w>
ပြ ိန်း
ရွ န်း
နိုင် ကြောင်း</w>
ထား ရသည်</w>
မင်း ရဲ
an a</w>
လွန် ခဲ့သော</w>
တယ် လို့</w>
ချီဖွေ မြို့နယ်</w>
1 26
တော် မြတ်
လာ ရောက်</w>
ပြည် တွင်</w>
လက် ဆောင်
လက် ထောက်
စွ န်း</w>
နယ် တွင်</w>
တစ်ခု ခု
ဏ် း
10 6
တိုင် တိုင်</w>
တွေ မှာ</w>
ကြေး နီ
ဓမ္ မ</w>
ကယ်လီ ဖိုး
A d
တ ဖန်</w>
ဆင် တူ
14 4
လူဦးရေ သိပ်သည်းဆ
il l</w>
ကိုက် ညီ
သ ဗ္ဗ
များ အပေါ်</w>
လွ င့်
ဘုရား သခင်
နံ နက်
ဘဝ ကို</w>
အဆို အရ</w>
အလျ င်
3 50
5 01
ဘ ေး</w>
မ ရရှိ
သ ုံ
အ ခေါ်</w>
မ်း ရွာ</w>
တော် နှင့်</w>
ဘုရား ကြီး</w>
အခြေ စိုက်</w>
ic a</w>
အချက် အလက်</w>
as e</w>
အာဏာ ကို</w>
D i
က ချင်</w>
ပ တိ</w>
ခဲ့ သောကြောင့်</w>
လျ ံ</w>
သား သမီး</w>
ပေါ် မှ</w>
ဆွ စ်
ခေါ် ဆောင်
ကလေး သူငယ်
အစိုးရ အဖွဲ့
မောင် နှ
ဒုတိယ အကြိမ်</w>
ကြည့် လျှင်</w>
ဖွားမြင် ခဲ့သည်</w>
ပ ဒ
၆ ဝ</w>
တပ် ဖွဲ့</w>
ကုန် သော</w>
ထွက် ရှိ
ခေတ် မီ
20 8
ကသာ မြို့နယ်</w>
ကွပ်ကဲ မှု
igh t</w>
ရေး ဖွဲ့
သူ အဖြစ်</w>
ဂျ ား
ငယ် များ</w>
တောင်း ပန်
ကျမ်း ကို</w>
ထည့် သွင်း</w>
ဗိုလ်မှူး ကြီး</w>
ဖြစ် သွားသည်</w>
လျှ ာ
ရက် မှ</w>
အာ ရေ
တွေ နဲ့</w>
အသံ လွှင့်
B r
I S
M us
i ta
t or</w>
ဂ ရိတ်
မ ဏ္ဍ
ရ တု
ဒေသ ကို</w>
သည့် အခါ
ရွှေ တိ
မှူး မတ်
ac k
ကြက် သွန်
ကျောင်းသား များ</w>
အယ်ဒီ တာ</w>
မပြ တ်</w>
အ ကောက်
လွ ယ်</w>
လှ ည့်</w>
ထုတ် ပေး
en g
ခန့် ရှိသည်</w>
or d
လုပ်ငန်း စဉ်
အစိုးရ နှင့်</w>
တော့ ချေ</w>
နီး ကပ်
အေ ဂျင်
ရပ်ကွက် တွင်</w>
အပြောင်း အလ
ဆ ုရ
တ ေ</w>
ဝ ပ်</w>
င်း ရွာ</w>
ရွ န်</w>
ဆုံ ရွာ</w>
170 150
လျော် စွာ</w>
နက္ခ တ်
A h</w>
y u</w>
ဂ ေး
စ ကာ</w>
ဘ ရာဇ
မ ဂ်
ရ ပါ
ဟ ိုင်
၁ ၁၀
ကြ ချေ</w>
ခဲ့ သေးသည်</w>
မိ ခင်</w>
en er
မဲ ဇလီ
အကြီး မား
တစ်နှစ် လျှင်</w>
အလင်း နှစ်</w>
ဆိုရှယ် လစ်</w>
အာကာသ ယာဉ်
စည်ပင် သာယာ
B e
က စ်
ဗ ိုက်
ခွ ဲခ
နောက် ထပ်</w>
သန့် စင်
ရေနံ ချောင်းမြို့နယ်</w>
လက္ခ ဏာ</w>
m on
မ ပေါ်
ဖြစ် ခဲ့</w>
လူ တို့သည်</w>
ဝင် များ</w>
သမ ုတ်
ထိ စပ်
ရွာသစ် ကုန်းရွာ</w>
ဆော့ လော်
အယ်လ် ဘ
စကြ ဝ
မြန်မာ တို့</w>
နေ့ စဉ်</w>
တိုင် ပင်
မူလ က</w>
အလင်း ရောင်
ကြေညာ ခဲ့သည်</w>
ကန့်ဘလူ ခရိုင်</w>
အလို့ ငှာ</w>
ဖ ုတ်
မ ရ</w>
သ လို
ရာ တွင်
ခြင်း နှင့်
ရွှေ ကူ
အတ တ်</w>
တစ်ခု သည်</w>
ခင် ပွန်း
or e</w>
ဌာန ခွဲ</w>
လျှပ် စစ်</w>
ပြည်သူ့ လွှတ်တော်</w>
သောက် သုံး
ဆော့ဖ် ဝဲ
ပ ဒု
မ ဘူတာ</w>
သုံး နှစ်
တိုး တက်</w>
ဆောင်ရွက် ရန်</w>
ဆယ် စု
စွမ်း အင်</w>
ဂရီ ဂေါ
တ ခြား
မြ ို
ကျ ည်း
သုံး ခု
နန်း တော်</w>
am p
ဥက္ကဋ္ဌ အဖြစ်</w>
ဖွဲ့စည်းပုံ အခြေခံဥပဒေ
မြို့နေ လူဦးရေသည်</w>
တစ်စတုရန်းကီလိုမီတာ လျှင်</w>
f i
ဂ န်</w>
တ ပါး
ဗ ူး
အ ရိပ်
ချ ဲ့</w>
တွင်း ရွာ</w>
ရောဂါ ပိုး
ကော်မ ရှင်</w>
ခေါင်းဆောင် သော</w>
စီးပွားရေး လုပ်ငန်း
စ မ်း</w>
င်း တို့သည်</w>
နေ ဝင်း</w>
တိုင်း စစ်
မင်း နှင့်</w>
စွာ သော</w>
ယင်း တို့ကို</w>
အီ ရန်</w>
ကောက် ခံ
တာဝန် များကို</w>
ပရိ ယ
အင်အား စု
My anmar</w>
လျော့ နည်း
အမေရိက တိုက်
အငြိမ်း စား
o e</w>
ဘ ရ
ဆို ပြီး</w>
စစ် တ
အဆ ုတ်
ဇာတ် ကား</w>
ကောက် ရွာ</w>
မတ် လတွင်</w>
ဖတ် ရှု
ဦးဆောင် သော</w>
တြ ိ
လူကြိုက် များ
T e
m ar
တ ခု</w>
ခဲ့ ပြန်သည်</w>
ငယ် စဉ်က</w>
အိမ် ရှင်
တီး ဝိုင်း</w>
ဆုံးဖြတ် ချက်
ဆင်ပေါင်ဝဲ မြို့နယ်</w>
လူဦးရေသိပ်သည်းဆ သည်</w>
ဆော့လော် မြို့နယ်</w>
န င်း</w>
င်း တို့မှာ</w>
မှ န်း</w>
ဘာ တွင်</w>
ပု ဇွန်
ပုံ ဖော်
ခေတ် စား
လဲ ရွာ</w>
ကွဲ လွဲ
အရပ် တွင်</w>
သဒ္ ဒါ
အဘယ် ကြောင့်ဆိုသော်</w>
ပေါ်တူ ဂီ
လာ ကာ</w>
ဆို သည့်
လမ်း မ
ကမ္ဘာ ပေါ်ရှိ</w>
ဏ္ ဍ</w>
ဇာတ် ကောင်
တု ံ</w>
ချစ် ခင်
လှည့် ပတ်
နက္ခ တ္တ
မိုးကုတ် မြို့နယ်</w>
S c
a il
w ar</w>
က ေး
က လို
ကြ န်
များ ဖြစ်</w>
တစ် ဆူ</w>
မာ ့
ဒေ ့
ထို မှ
တောင် ထိပ်
ဆင် ယင်
ဝေ လ
အမှ ား
အကြောင်း အရာ</w>
မဟုတ် ချေ</w>
အမှု န်
ခရစ်ယာ န်</w>
ချန်ပီ ယံ
I n</w>
တ ဏ
မ သေ
ရာ ကို</w>
နိုင် ချေ</w>
လာ သဖြင့်</w>
အစ စ်
စစ် တွေ
သမ ဝါယ
ရိ က္ခာ
ရှမ်း ပြည်
ကုန် သည်</w>
10 0</w>
အရှေ့ မြောက်
အကြောင်း မှာ</w>
ချိ ဘူတာ</w>
ကယ် တင်
70150 1</w>
ကြေငြာ ခဲ့သည်</w>
နတ်ရွာ စံ
' ၊</w>
က ဆု
ရှိ ပေသည်</w>
ကို း</w>
ကန် ပက်
အစည်း အဝေး</w>
သမား များ</w>
အကြီး အကျယ်</w>
မြို့နယ် သည်</w>
ec tr
အခြေအနေ ကို</w>
l l
s c
မ န်း</w>
ဝ တ်</w>
ပြ ိုင်</w>
များ ကလည်း</w>
နေ ရသည်</w>
ဟု လည်း
ကမ္ဘာ တစ်
ဆိပ် ဖြူမြို့နယ်</w>
သမိုင်း ကြောင်း
70150 2</w>
ဆုတ် ခွာ
ပစိ ဖိတ်
ခြင်္ သေ့
ဗ ်</w>
လ ဟာ
ချ ယ်</w>
တစ် ပြိုင်
ရပ် ကို</w>
နယ် သာ
နန်း တွင်း
20 0</w>
အေး ရွာ</w>
မိုင် ခန့်
လွှမ်း ခြုံ
ရထား လမ်း
ဖလမ်း ခရိုင်</w>
r y</w>
အ ီး</w>
ကြ ပေ</w>
ဖြစ် တယ်</w>
နှင့် အတူ
ကျွန်း လှ
ကြာ ရှည်
မွေး ဖွား</w>
လွတ်လပ် သော</w>
မျက်နှာ ပြင်</w>
စိုက်ပျိုး ရေး</w>
မိုက် ခရို
ပုဒ်မ ခွဲ</w>
H ar
e ar
ရှိ ပါတယ်</w>
ပြည် သူ</w>
ဒေသ ရှိ</w>
မူ ပိုင်ခွင့်
အောက် ခြေ
တီး တိ
ဒေါ် အောင်ဆန်းစု
အောင်မြင် စွာ</w>
oo k</w>
စိုင်း န်</w>
m an
လ ံ</w>
မြ ူး
ချ စ်</w>
လေ ယာဉ်</w>
မိ ယ
ပင် များ</w>
န္ နဲ
သု ဒ္ဓ
ရက်နေ့ မှ</w>
မယ် တော်
ဖိ နပ်
မိုးမိတ် မြို့နယ်</w>
ဗ ဲ
မ ချမ်း
မ သန်
ရ မည်ဟု</w>
သိ မ်</w>
အီ ရတ်
ဝှ ေ့
ဂ မ်
ဇ န
လ တ္တ
ဖြစ် နေသည်</w>
နေ သည့်
ပေး ထား
အဖွဲ့ နှင့်</w>
တရား ရုံး</w>
စင် ကြယ်
is h
ရှည် ရွာ</w>
၁၉၃ ၇</w>
မိုင် ပေါင်း</w>
ဗြိတိသျှ တို့</w>
အကာ အ
Wor ld</w>
ပင်းတယ မြို့နယ်</w>
ဒ မ်
န ဂို
ရ သ
ဝ ိုး
၄ ၀၀</w>
ခဲ့ လျှင်</w>
al ly</w>
ဆိ တ်</w>
အားကစား ပြိုင်ပွဲ
ကူးသန်း ရောင်းဝယ်
ပြ န့်</w>
ဦး ရေ
ဦး စီး</w>
ထို ခေတ်
ခြင်း များကို</w>
ချက် ချင်း
ဇာ န
မြေ ကြီး
နောင် အခါ</w>
ဗီယက် နမ်</w>
ဝိပဿ နာ
s s
စ ုပ်
ဆ ဋ္ဌ
ခြ ည်</w>
လာ ရာ</w>
ပန် ဝိုင်
နေ့ ရက်</w>
ထွက် ပေါ်
ag on</w>
မြိတ် မြို့နယ်</w>
အတတ် ပညာ
အတိုင်းအ တာ
မိုင်းပန် မြို့နယ်</w>
w a</w>
y p
တ ံ့
အ မျိုး</w>
ရွာ ငံ
ဦး ဆောင်</w>
လာ သည်
၂၀ ဝ
အထ ပ်
ရက် ထပ်
စည်း စိမ်
th e
ဒ္ ဓိ
ဝိဇ္ ဇာ</w>
Intern ational</w>
ချဉ်း ကပ်
1 25
ဂ န္ဓ
အ ခွံ
ကြီး ပြင်း
လက် ရာ</w>
လက် မှတ်</w>
ဆို သူ</w>
မျက် လုံး
အမေရိ က</w>
သတ်မှတ် ထားသော</w>
တင့် တယ်
တနင်္ဂ နွေ
င ုတ်
မ တွေ့ရ
သ ရ</w>
ကုန် စည်
အလယ် တွင်</w>
လိုအပ် သည်</w>
ထော င့်</w>
ညစ် ည
ခြိမ်း ခြောက်
င ု
ပြ သည်</w>
စာ မျက်နှာ</w>
ဒေသ မှ</w>
အဆ ို</w>
အကျ ဉ်း</w>
မျှ သာ
၁၉၄ ၄</w>
il li
ဖု န်
အံ့ ဩ
ပိုလ ီ
က င်</w>
ဂ ုရ
ဗ င်း
ဘ ကြီး
လ ိန်
သ မိန်
ဦး ရေ</w>
လာ ရွာ</w>
အစ ာ</w>
ပျ ို့</w>
ကိုယ် ပိုင်</w>
အင် ကြင်း
ညီ နောင်
ချစ် ကြည်
ရာထူး ကို</w>
သို လှောင်
ထား ရှိသည်</w>
စဉ် တွင်</w>
ကွယ် လွန်</w>
လျက် ရှိ</w>
စွန့် စား
y un</w>
လ တ္တီ
ပေါ များ
ကွ ေ့</w>
လာ ခဲ့ပြီး</w>
ပြည် ထဲ
တောင် ခြေ
သင်္ ဃ
ဆွဲ ဆောင်
ဇွ ဲ
အထောက်အ ကူ
Com m
အဘိဓာ န်
ရှိ သူ</w>
ရာ စုတွင်</w>
နှစ် ဦး</w>
သာ ကျေးရွာအုပ်စုတွင်</w>
ပြု ခြင်း</w>
အတ င်း
ပြုလုပ် ရန်</w>
20 9
စက်တင် ဘာလတွင်</w>
မှား ယွင်း
J av
b er
စ ကော
ရာ ထူး</w>
ပု ဂံ</w>
ဝါ ရှင်
en c
စစ်ကိုင်း ခရိုင်</w>
မတိုင် မီ</w>
of t</w>
ကြယ်စုတန်း မှ</w>
နှ မ်း
ကု ဋ
နာ မည်</w>
20 5
စိုက် ပျိုး</w>
အနောက် ပိုင်း
ဗေဒ င်
အမြင့် ဆုံး</w>
အနိုင် ရ
သက်ဆိုင် သော</w>
C ol
အ ပ
ကြ ယ်</w>
ဦး သည်</w>
စာ မျက်နှာ
သူ ရိယ
ထား ရာ</w>
နှင့် တူ
အာ ဟာရ
မူ လ</w>
ကိုယ် ခန္ဓာ
ယခု အခါတွင်</w>
ထု လုပ်
အာရှ တိုက်
အစိတ် အပိုင်း</w>
g ro
k s</w>
ဖြစ် ကြ
ဖြစ် လာ</w>
ကွ ေး</w>
ဂျ စ်</w>
ပေး နိုင်သည်</w>
သွား ကြသည်</w>
ပြီး သော်</w>
တပ် မြို့
အကြောင်း ပြု</w>
အပူ ချိန်</w>
နာမည် ကျော်</w>
ညောင်ပင် သာရွာ</w>
မတိုင် မီ
ation s</w>
စဉ့်ကူး မြို့နယ်</w>
. .</w>
d uc
ကြ ဉ်
ခွ ေ</w>
အန ား</w>
ထုတ် ကုန်
ချင်း တွင်း
အက် ဆစ်
ဝါဒ ကို</w>
ရတနာ ပုံ
ညီလာ ခံ</w>
ကက် သ
ဘဏ္ဍာ ရေး
Uni vers
ပြက္ခဒိန် အရ</w>
မြစ်ဝကျွန်း ပေါ်
Mic ros
ဂရီဂေါ ရီးယန်း
အ ရွေး
နေ သဖြင့်</w>
အား လျော်စွာ</w>
ရန် ဖြစ်သည်</w>
နောက် မှ</w>
က္ခ ာ</w>
20 6
ပြည်သူ့ လွှတ်တော်
နေ ထိုင်</w>
သော ကြာ
ရင်း မြစ်</w>
ပင် ပန်း
တပ် မဟာ</w>
အကြ ာ</w>
ငယ် ရွယ်
စွန့် လွှတ်
တီးတိ န်မြို့နယ်</w>
o u</w>
ဈ ေး</w>
လ ီး
ပြ ေ</w>
စေ နိုင်သည်</w>
ပေါက် ဖွား
တရုတ် ပြည်</w>
ညှ ာ
အသက် ရှူ
လူမှု ရေး</w>
ဖုံး လွှမ်း
ဆောင်းပါး များ</w>
ကမ္ဘောဒ ီးယား
ဖ ိုလ်
ကြ ရန်</w>
လေ တပ်
သင် တန်း</w>
ပြောင်း ရွေ့
မြင့် သော</w>
ရေးသား သော</w>
ပိ န္နဲ
ပြီ ဟု</w>
ပြည်သူ လူထု
ရှယ် ယာ
မျိုးနွယ် စု
နမ့်ဆန် မြို့နယ်</w>
င ေါ
မြို့ ဟောင်း</w>
ရာ သည်</w>
တစ် ဆင့်
ရင်း ရွာ</w>
on al</w>
တံ တိုင်း
အင်္ဂ လန်</w>
အစိုးရ ကို</w>
မွေး စား
it s</w>
ထီး ချိုင့်
ခဲ့ရ ပြီး</w>
ယော ကျာ်
အနီး အနား
ထုံး တမ်း
အမျိုးမျိုး ကို</w>
ကွမ်း သီး
အချင်း ချင်း
ဝန်ဆောင် မှု</w>
စုံစမ်း စစ်ဆေး
လူတန်း စား
G re
O k
စ တာ</w>
မ ယူ
၅ ၈
နိုင် သည့်
လူ စု
တိ တ်</w>
သို့ လည်း</w>
လေး အိမ်
ရက် စက်
ကျောင်း ကို</w>
ပြုလုပ် ထားသော</w>
အိပ် မက်
ဆွတ် ခူး
ပုံမှန် အားဖြင့်</w>
သင်္ဂြိုဟ ်
က န်း</w>
ဂ ရက်</w>
ဇ န်
ဗ ဒုံ
ရ သည့်
အ ကိုင်း
သော ့
တာ ရွာ</w>
တောင် ကြား
လိုက် သောအခါ</w>
ညောင် ရမ်း
ရှာ ဖွ
ဝေါ ဟာရ</w>
ပထမဆုံး သော</w>
ပြဿ နာ</w>
အကွာ အဝေး
Win do
သ န္တာ
စာ များ</w>
ရေး တွင်</w>
ထား သည်ကို</w>
မိုင်း ပေါက်</w>
အရာ ကို</w>
အိန္ဒိယ နိုင်ငံ
ထုတ်ဝေ သော</w>
ချဲ့ ထွင်
အကူအညီ ဖြင့်</w>
ဆ ုပ်
အ ကွက်
ချ ိုင်း
လမ်း ကြောင်း</w>
စိတ် ချ
ီးယ န်း</w>
လက်နက် ချ
ဂရ မ်</w>
နွေ ရာသီ
တဖြည်း ဖြည်း
ရှေးဦး စွာ</w>
ဝ ီ</w>
ဖြစ် သည့်
လူ ငယ်</w>
စေ သည့်</w>
လုံး ဝ</w>
တပ် ပေါင်း
ချောင်း ကျေးရွာအုပ်စု</w>
မြစ် နှင့်</w>
ီးယ ပ်
Th e
အသက် ရှင်
ရုပ်ရှင် ကား
သမ္မတ နိုင်ငံ
C o
မ မှန်
အ တိတ်
နေရာ မှာ</w>
ဖွဲ့ ဆို
ရရှိ ခဲ့ပြီး</w>
လုပ်ငန်း သည်</w>
စာအုပ် တွင်</w>
အတွက် ကြောင့်</w>
အထွ တ်
လျင်မြန် စွာ</w>
ည က်
မ ကျေးရွာအုပ်စု</w>
၄ ၃
နိုင် ခဲ့ပြီး</w>
စာ ဖတ်
လူ များ</w>
တိုက် ဖျက်
မြေ ဩဇာ
စိတ် ကို</w>
ဝန်ကြီး အဖြစ်</w>
ပိ န်</w>
70150 3</w>
နိုင်ငံခြား ရေး
စာမေး ပွဲ
A si
ဤ ကဲ့သို့</w>
များ ပင်</w>
ရှိ ဘူတာ</w>
လို သည်</w>
ဆင် ခြေ
တစ်ခု လုံး
တို ရွာ</w>
ယော း
ဇီး ကုန်းမြို့နယ်</w>
အမြဲ တမ်း
မှည့် ခေါ်
G u
a le</w>
အ ဝင်
စာ ရေး</w>
နှစ် သား
မာ ရီ
နည်း ပြ
ဘာသာ ပြန်</w>
စင် စစ်</w>
တာဝန် ကို</w>
ဘောလုံး အသင်း
ပထမဦး ဆုံး
မွတ်စ လင်
T V</w>
န ေး
ဘ စ်
မ တင်
ဝ ကျေးရွာအုပ်စု</w>
မာ ရ်
လှ ပေသည်</w>
တွေ့ ရသော</w>
လမ်း ပန်း
မြေ ထဲ
အိမ် နီး
ဘွဲ့ ခံ</w>
ကျွန် မ
ခမည်း တော်</w>
မီးရှ ို့
s l
င ုံ
ဆ ိုင်း</w>
ထ န်</w>
ဗ ော်
ကြ ရ</w>
မြို့ မ</w>
တစ် ဝိုက်
အစ ောင့်
တရုတ် နိုင်ငံ
အားလုံး သည်</w>
di a</w>
ပအိုဝ် း
မိုးညှင်း ခရိုင်</w>
ဧည့် သည်
ယူနိုက် တက်
ရုက္ခ ဗေဒ
ကျွန်းလှ မြို့နယ်</w>
န ယူ
ဖ ရူ
ဖ လှယ်
ကြီး ကုန်းရွာ</w>
စစ် ပြီး
သုံး နှုန်း
စံ ပြ
ကလေး ဝမြို့နယ်</w>
ခွဲ ဝေ
ဝိ နည်း
မုံ ရွာ</w>
ချေ မှုန်း
0 x
W h
ခ ဏ
အ ခု
ဿ ာ
င်း ရွာသည်</w>
သွ င်</w>
နိုင်ငံ ခြား</w>
န့် ရွာ</w>
သစ် ရွာ</w>
မြေ ဆီ
ရော စပ်
အရ ောင်</w>
ဒေါ င့်</w>
မေ လတွင်</w>
ကျမ်း များ</w>
oc i
ဂျာမ နီ</w>
ဒဏ္ဍာ ရီ</w>
ဟံသာ ဝတီ</w>
တစ်လျှောက် တွင်</w>
ဗိုင်းရပ် စ်
အရေးတော် ပုံ
M an</w>
r a</w>
က ဏ္ဍ</w>
ဒ င်း
ဖ ှ
မ စား
ဦး ဖိုး
သာ ယာ</w>
ဌာန တွင်</w>
အနောက် တိုင်း
ဖော်ပြ ပါ</w>
ပစ္စည်း များ
တစ်စ င်း
ဘန် ကောက်
သင်္ဂ ါ
အနီ ရောင်
မက္ကဆီ ကို
9 5
တ လိုင်း
န ပ်</w>
၁၉ ၂၀</w>
ကျောက် မီးသွေး
မိုင်း ပေါက်မြို့နယ်</w>
အပြ ာ
စင် စစ်
ပျော် ရွှင်
မဂ္ဂဇင်း တွင်</w>
ပူတာအို မြို့နယ်</w>
အလွယ် တကူ</w>
ဇ င်</w>
ဓ နု
မ ို့</w>
တစ် ကိုယ်
တို့ ဗမာ
တရ ပ်
သီ လ</w>
ပြင် ဆင်</w>
မု နိ
တစ်ဦး က</w>
သမီး တော်</w>
အနိ စ္စ
1 15
o w</w>
ဂ ိုး</w>
ဇ မ္ဗ
ရေ ဖြူမြို့နယ်</w>
အချ င်း</w>
ရွှေ ့</w>
မဲ ပေး
re c
တည်း ဖြတ်
ထင်ရှား သည့်</w>
ဦးစီး ချုပ်
ဖား ကန့်
ဖောင် ဒေး
န ဂ
ရှ ို
သူ တစ်ပါး
လုပ် ပိုင်ခွင့်
အရ င်
ထွက် ကုန်
10 4
ရက်နေ့ အထိ</w>
မြှ င့်</w>
မေ လ
အခြေခံ ဥပဒေ</w>
ဝှ မ်း</w>
ယနေ့ ခေတ်</w>
ဖာပွ န်
ရွာငံ မြို့နယ်</w>
1 14
စ ဝ်
တ လျှောက်
ဖ ို</w>
နိုင် စေရန်</w>
ရေး နှင့်
တောင် ယာ
00 0</w>
in t</w>
en ti
၁၅ ၀</w>
So uth</w>
U n
ဘ ရူ
မ ဇ္ဈ
သ ပ်</w>
မှ ပင်</w>
လူ များ
တို့ က
နှစ် အရွယ်</w>
အချ က်</w>
အိ ဘ်
ကိုယ် ဝန်
ထင်ရှား သော
ဝိုင်း ရွာ</w>
ent s</w>
ဟိုက် ဒရို
က စ</w>
ဆ လင်
ဓ ာ</w>
ကြ ိ
ဦး ကို</w>
မှု ဆိုင်ရာ</w>
မာ ရ
နေရာ သည်</w>
တိ ရိ
ယူ နက်
လိ မ္
ဂါ ဝါ
ထက် ပို</w>
၁၉၄ ၀</w>
၁၉၄ ၃</w>
အဆို တော်
အယူ ခံ
သေးငယ် သော</w>
မ စ်</w>
ပြ ုံး
ဆို နိုင်သည်</w>
သော် လည်း
ဘုရား သခင်</w>
ယခု ခေတ်</w>
ဗီ ဒီယို
သူများ အတွက်</w>
အချက်အလက် များကို</w>
ရှာဖွ ေ</w>
o l</w>
ဖြစ် သော
သွား ရာ</w>
ဘုရား သည်</w>
ခွဲ ခြား</w>
ဘီ စီ
am m
ဗီ တာ
အနား ယူ
ou r</w>
G ro
တ ရာ</w>
တ မံ
အ လှန်
နေ ခြင်း</w>
ခြ မ်း</w>
ကွ ီ
ကြီး အား</w>
သာ လွန်
ဒေသ သည်</w>
အမ ်</w>
ပုံ နှင့်</w>
ထုတ် လွှတ်
ချက် နှင့်</w>
မြစ် ကမ်း
ဌာန ခွဲ
မိန့် တော်မူ</w>
ကျော်ကြား သော</w>
အကြံ ပြု
တစ်စ ောင်
ညွှန်ကြားရေး မှူး
coun try</w>
ထီးချိုင့် မြို့နယ်</w>
i le</w>
တ လုပ်
တ ကာ
ဖ ောက်</w>
အ တောင်
ပြ ေး</w>
တည် တံ့
ခြင်း ကြောင့်
အား ကို</w>
ဒါ န
လယ် ရွာ</w>
အောက်တို ဘာလတွင်</w>
အလံ နီ
Windo ws</w>
သင်္ဂါ ယ
ကို ဖြစ်စေ</w>
ရေ စီး
ထို စဉ်
နှင့် မ
ကျောင်း တိုက်
အချို့ သည်</w>
ဆံ ပင်
ဝတ္ထု ကို</w>
ယုံကြည် ကြသည်</w>
အမျိုးသမီး များ</w>
သမာ ဓိ
ok e</w>
အတ္တ လ
i e
တ မာ
ဗ စ်</w>
ရ ပေသည်</w>
နေ ဆဲ
တစ် လ
ဆို လေသည်</w>
ထွ င်</w>
တွင် ကျယ်
အလ ိုက်
သင် ကြား</w>
မော် စကို
ဖွဲ့စည်း ထားသည်</w>
ဖော်ပြ သည်</w>
မိန်း ကလေး
s k
က လိ
ခ ီးရွာ</w>
ရွာ မ</w>
ကြီး သော</w>
သာ ရ</w>
နေထိုင် ကြ
လေ့ ရှိသော</w>
ဖျ ောက်
လင် ရွာ</w>
စတင် ကာ</w>
အဆောက်အ ဦး</w>
ရခိုင် ပြည်နယ်</w>
ir e</w>
po p</w>
ကျွန်ုပ် တို့</w>
ဆွီ ဒင်
Micros oft</w>
P er
မ ို့
ဟ ်</w>
ဖြစ် ခဲ့ပြီး</w>
သို့ ပြန်
ပူ ရ</w>
ဟို တယ်
လော ကီ
အထက် ပါ</w>
ပြောင်းလဲ ခဲ့သည်</w>
သူငယ် ချင်း
ပိဋ က
ဗန္ဓ ု
က ော</w>
တ လ
အ ဖမ်း
ဖြ ေ</w>
နေထိုင် ရာ</w>
အား ကစား</w>
ပိုင် ရှင်</w>
မီး တောင်
တစ်ဦး တည်း
ဖြေ ဆို
ဉာ ဏ
အက ျ</w>
ပြင်သစ် နိုင်ငံ</w>
oo l</w>
အနာ ဂတ်
သမျှ ကို</w>
အင်ဒိုနီး ရှား</w>
အဆက်အ သွယ်
မ ပါဝင်
သား ကို</w>
မွ ဲ
ဘွ ေး
is m</w>
ဘုတ် ပြင်း
ထိမ်း မြား
ထ ူ</w>
ယ ွန်
မြ ည်
ကျ န်</w>
စု ပေါင်း</w>
ကို လည်း
17 01
နား မ
ဖျ င်း
စကား လုံး</w>
ထက် သန်
ပယ် ဖျက်
စင်ကာ ပူ</w>
သံသ ယ
ထန်းတ ပင်မြို့နယ်</w>
အေမာမ်ဟို စိုင်းန်</w>
D agon</w>
T a</w>
အ ပျော်
နိုင် သည်ဟု</w>
မြေ ပြန့်
ဒေါ သ
ကော ်</w>
ရှေး အကျ
ခဲ့ကြ သော</w>
သင်ကြား ပေး
တက်ရောက် ခဲ့သည်</w>
ပြည့်စုံ သော</w>
ပြင်ဦးလွင် မြို့နယ်</w>
မည်သို့ ပင်
9 00
E ast</w>
f l
တ ည့်</w>
ခေါ က်</w>
လာ ခဲ့ကြသည်</w>
နား ထောင်
အတွင်း ဝန်
အို ဆာ
ဂါ ထာ
အနေ အထား</w>
အကြောင်း ပြ
ိယ ထေရ်</w>
အာဏာ ရှင်
My oth
ဝံ သ
ကျိုက် ထို
ပုပ္ ဖ
နာယ က
2 28
စ လင်း
ရ သည်
ရေ ကြည်
မင်း လက်ထက်တွင်</w>
နယ် နိမိတ်</w>
ကျောင်း နှင့်</w>
ရီ သည်</w>
ခန့် ထား
တီး မှုတ်
မြန်မာနိုင်ငံ သို့</w>
ကျန် သေးသည်</w>
သဲ ကန္တာ
လိမ့် မည်ဟု</w>
ပတ်သက် သော</w>
စော် ဘွား</w>
ဖုံး အုပ်
ပါဠ ိ</w>
ရုပ်ပွား တော်
တစ်ခါတစ် ရံ
ဋီ ကာ
စေတု တ္ထ
Myoth it</w>
မ နော
ရ သူ</w>
နှ ံ</w>
ရှိ ကြ
ti ve</w>
ရွှ ံ့
လီ ရွာ</w>
ကူ ကီး
ရှည် သည်</w>
အမှတ် တံဆိပ်
၁၉၃ ၀</w>
ဆော မြို့နယ်</w>
ဗမာပြည် ကွန်မြူနစ်ပါတီ
ပါက စ္စတန်
အောက်ဆီ ဂျင်
ကဆု န်
တိရိ စ္ဆာ
ဒ ပ်
ယ ိမ်း
နေ တဲ့</w>
တစ် ထောင်
ရိ န်း
အလ ာ</w>
အင် ပိုင်
တက် ရွာ</w>
လန် နိုင်ငံ</w>
စက်မှု လက်မှု
အကယ်ဒ မီ
အာဆီ ယံ
ဂရီဂေါရီးယန်း ပြက္ခဒိန်အရ</w>
စေတုတ္ထ ရာ
စ ပြီး</w>
ည ု
များ ဟု</w>
သာ ဖြစ်သည်</w>
န္ တရ
နယ် ခြား
မီး ခိုး
ပိ တောက်
ကုန်ဆုံး ရန်</w>
S te
f t</w>
င တ်
တ ပို့
မ နု
လ ဟယ်
ဟ ော</w>
အ ်
မြ ို</w>
ဖြစ် တဲ့</w>
တစ် ပင်
သူ သည်
သူ နာ
လှ ဲ
အောက် သို့</w>
ယင်း တစ်နှစ်တာ</w>
ပထမ အကြိမ်</w>
Th a</w>
သာသနာ တော်</w>
ချော း</w>
ရမည် ဖြစ်သည်</w>
ပါလီ မန်</w>
မော်တော် ယာဉ်
စေတုတ္ထရာ မြို့နယ်</w>
တ ပါး</w>
ဗ ု
လ ခဲ
အ ညို
ဣ န္ဒ
မြို့ ပေါ်ရှိ</w>
ပါ ပြီ</w>
ရေး လုပ်ငန်း
ကျောင်း ကုန်းရွာ</w>
သံ တမန်
ယင်း အား</w>
မရှိ ပါ</w>
တာဝန် ယူ</w>
ဖြန့် ဝေ
ချိုး ဖောက်
ဂန့်ဂေါ မြို့နယ်</w>
သ ဟာ
ဦး စိန်
တော ရ
စစ် တပ်</w>
အတ န်း</w>
တစ်ခု လည်း</w>
ကျော် စွာ
နိ ဿ
သင်ကြား ခဲ့သည်</w>
ဗိုလ်ချုပ် အောင်ဆန်း</w>
ou s</w>
od e</w>
အနှံ့ အပြား
ခရု ပတ်
သင်္ချ ာ</w>
I A
M an
s o</w>
ဒ ု</w>
၂ ဝဝ</w>
ပါ ယ်</w>
မိ စ္ဆာ
ခွ ာ</w>
လျှ ော
မွ န်းရွာ</w>
တိုက် ခတ်
အဆ ုံး</w>
ချောင်း ဝရွာ</w>
အကျ ိုး</w>
အမှ ူး
ဆောက် တည်
ta b
အနောက် မြောက်
ဖြစ်ပွား ခဲ့သည်</w>
အမျိုးမျိုး သော</w>
ဘောလုံး အသင်း</w>
လူသိ များသည်</w>
သုတ် သင်
မလေး ရှား</w>
အဖြူ ရောင်
S u
y l
မ နာ
ဟ ေး
ချ ပ်</w>
အသ ုံး</w>
နှင့် တစ်
နှင့် စပ်လျဉ်း</w>
ကျောင်း သို့</w>
ကျောင်း တိုက်</w>
ပန်း ပု
ဟု ဆိုသည်</w>
အထက် ပါ
ကြမ်း တမ်း
နာဂ ကိုယ်ပိုင်အုပ်ချုပ်ခွင့်ရဒေသ</w>
အကြွ င်း
နိုင် ပါတယ်</w>
၁၉ ၁၈</w>
နေထိုင် ခဲ့သည်</w>
ဒေသ နှင့်</w>
အရေး ပေါ်
ရည် ရွယ်</w>
တည်း ဟူသော</w>
အမှု ဆောင်</w>
အာကာ သ</w>
ဖရူ ဆိုမြို့နယ်</w>
k h
ဂ ိတ်
ပြည် တော်
အစ ရှိသည့်</w>
ခွ င်</w>
မင်း တို့</w>
နယ် မှ</w>
ကိုယ် ရေး
ပန် ရွာ</w>
မြောက် မြား
အလုပ် ကို</w>
ထိ ပ်</w>
ညှ ပ်
အင်ပါ ယာ</w>
P r
Y ar</w>
p le</w>
ထ ကြွ
သ လောက်
သ စ္စာ</w>
ရှ ဲ
ကျ နော်
လျ ောက်
ရပ် ဆိုင်း
ကျောက် စာ</w>
ပြုလုပ် ကြသည်</w>
13 8
is h</w>
ပြည်နယ် နှင့်</w>
သီချင်း များ</w>
မောင်း ထောင်း
av y</w>
အာဖရိက တိုက်
အထင် ရှား
ကျွန်းဆွ ယ်</w>
မချမ်း ဘော
ညစ်ည မ်း
R o
မ တတ်
လ မု
ရွာ သွန်း
ရွာ ဟောင်းရွာ</w>
သော အားဖြင့်</w>
၁၉ ၂၃</w>
သည် ဖြစ်</w>
တရ က်</w>
ကိုယ် စား</w>
ဘာသာ ရပ်</w>
ခွင့် ကို</w>
နစ် နာ
ပူ ဇ
ရို သေ
တော်မူ ခြင်း</w>
ထမ်း ရွက်
ဆံ တော်
နိုင်ငံရေး သမား
မသိ ရ
1 12
3 01
k ing</w>
စ လုံး</w>
ဖ စ်
အ ပန်း
ပုံ ရိပ်
ပြီး သောအခါ</w>
ချက် သည်</w>
ပတ် လည်</w>
ဗီ ဇ
us e</w>
အမှု ထမ်း</w>
ဖြန့် ဖြူး
လက်အောက် ခံ</w>
ရှင်းလင်း ချက်</w>
မူး ယစ်
အတိုက် အခံ
နျူကလ ီးယား
ကန်ပက် လက်မြို့နယ်</w>
ရှ ပ်
မှု အား</w>
ထို နှစ်</w>
နိုင်ငံ များနှင့်</w>
သက် တမ်း</w>
မည် သော</w>
un g
မန္တလေး ခရိုင်</w>
ဟန် ဂေ
မြတ်စွာဘုရား အား</w>
သတိ ပြု
တစ်ရပ် ကို</w>
စစ်ဆင် ရေး</w>
ခဲ့သူ ဖြစ်သည်</w>
ခ ီ
စ န်
ဒ ဂုံ
ဓ ိ</w>
ဖ န့်
အ လွှာ
တ် ရွာ</w>
ပါ စေ</w>
တစ် ချို့
တည် နေရာ</w>
ထွ ေး</w>
မှတ် ချက်</w>
သက် ဝင်
ဖျ က်</w>
ဓာတ် ငွေ့</w>
ခိုင် မြဲ
အမျိုးသား ဒီမိုကရေစီ
၁၉၃ ၂</w>
ဇွန် လတွင်</w>
ဝေး ကွာ
ခိ ဘူတာ</w>
လိုက်နာ စောင့်ထိန်း
စပ်လျ ဉ်း
လျှက် ရှိသည်</w>
အမြောက်အမြ ား</w>
အတ္တလ န္
F l
စ ဲ
ဇ န္ဒ
န ဂါ
သ န်</w>
၊ ၊</w>
လူ တိုင်း
ကုန်း မြေ
ပေ ါ</w>
၁၉၃ ၁</w>
အလှ န်</w>
လေကြောင်း လိုင်း</w>
ဖြန့်ချိ ခဲ့သည်</w>
ဦးကျော် လှ</w>
ကေအင်န် ဒီ
အပြန် အလှန်
ဘင်္ဂလား ဒေ့
နှ က်
ရာ တွင်လည်း</w>
တစ် နေရာ
စေ ရန်အတွက်</w>
တပ် သား
ပြန် လေသည်</w>
ချက် ပြုတ်
တစ်ခု နှင့်</w>
ခေတ် သစ်</w>
အမှ ီ
တည်ရှိ နေ
ay s</w>
အကြိမ် ကြိမ်</w>
ub l
အလုံး စုံ
ဖားကန့် မြို့နယ်</w>
i th
ဂ ဠု
ဆ မ်
ဇ ောင်း
လ န်း</w>
။ (</w>
မှ ောက်</w>
ထား သဖြင့်</w>
တရား လွှတ်တော်
ဖော် ပြ</w>
အင်း စိန်
တစ်ဦး အဖြစ်</w>
လောင်း လုံး
ဟွ န်း
အခန်း ကဏ္ဍ
ဗိုလ်မှူး ကြီး
စီမံခန့်ခွဲ မှု
ဒဿ န
အကျယ်အဝန်း မှာ</w>
အငြ ိမ့်
စာနယ် ဇင်း
ရွှေတိ ဂုံ
ဝ ံ့
ကျ သည်</w>
ဦး စံ
ရေး ဆိုင်ရာ</w>
လုပ် ကိုင်</w>
ဒေ ဝီ
သို့ လည်းကောင်း</w>
ချက် ကို
စနစ် ဖြင့်</w>
ခို ရွာ</w>
70150 4</w>
အထွ က်
သနပ် ပင်မြို့နယ်</w>
Bur ma</w>
အိဘ် နေ
တ ကူ
ယ နေ့</w>
ရ ုန်း
ဝ မ်</w>
ကြ ွ</w>
ရွာ ကို</w>
တည် မြဲ
စာ မူ
သူ တို့ကို</w>
ပြု သော</w>
ပေး ရန်
ဆက် သ
ပွဲ တော်ကို</w>
ထို့ ကြောင့်
အင်္ဂ ါ</w>
သင်္ ခါ
သမီး တော်
မြင်း မူ
ပါတီ သည်</w>
အမြ စ်</w>
အချက် အချ
အတွက် လည်း</w>
ပိုး မွှား
ဆန်း ရွာ</w>
My o</w>
ဖြည့် စွက်
အနှံ့ အပြား</w>
ဂန့်ဂေါ ခရိုင်</w>
ခလ ုတ်
ဂ ီ</w>
ရ င့်</w>
do n</w>
သည် ဟူ</w>
တောင် ကိုရီးယား
တင် သည်</w>
အဆ ီး
သု ဝဏ္ဏ
လုံ ့
ရည် ကို</w>
ကမ်း လှမ်း
ဩဂုတ် လတွင်</w>
" ,</w>
C or
E l
အ က်</w>
အ ငွေ့
၈ ခုနှစ်</w>
မြ င်း</w>
ရှိ နေသည်</w>
ဦး မောင်
ခြင်း တို့ကြောင့်</w>
နေထိုင် သော</w>
ပျ စ်
ရပ် တန့်
18 00
စီး ရီး
အဖွဲ့ များ</w>
နီ လာ
တရား စွဲ
လုပ်ငန်း နှင့်</w>
ရေးသား ပြုစု
ဧပြီ လ
ဆန့်ကျင် ရေး</w>
ငါ့ သျှင်
လဟယ် မြို့နယ်</w>
စ တစ်
ဒ ိတ်
သ က
။ .</w>
များ အကြား</w>
ဖြစ် စဉ်</w>
ဦး ပု
ဦး ချစ်
နိုင် မည့်</w>
ပြည် လုံး
သာ ဒ်
နိုင်ငံ ပေါင်း</w>
ရောက် သည်</w>
သုံး မျိုး
သစ် ကို</w>
အတ က်
လေ့ ရှိ</w>
အရှေ့ ပိုင်း</w>
စော င့်</w>
ရှင်း ပြ
ဗီ ယက်</w>
ဆောင်း ပါး</w>
အဲ ဘူတာ</w>
ဒီဇင် ဘာလတွင်</w>
စီရင် စု</w>
mo d
နွေ း</w>
သတိ ပေး
မှီ ခို
တစ်ခုတည်း သော</w>
အပြန် အလှန်</w>
မိမိကိုယ် ကို</w>
တ ုတ်</w>
ဥ မင်
ထို နည်း
ယူ နန်
အာ ဇာန
မြစ် ကို</w>
အိမ် ခြေ</w>
နိ ကာ
တရုတ် ပြည်သူ့
တွန်း ဇံ
လူ့ အခွင့်အရေး
အီလက်ထ ရွန်
အဋ္ဌက ထာ
1 16
3 10
A w
y an</w>
က သာ</w>
ခ ိယ
န ဲ</w>
မ ရွေး</w>
ဟ န်း
ခြ စ်
ဦး စား
သုံး ပုံ
ရရှိ ရန်</w>
အမည် သည်</w>
လင် ဟော်
တွေ ရဲ့</w>
သတ္တ မ
စမ်း ရွာ</w>
ဒွ ါ
လက်ရှိ တွင်</w>
min or</w>
စ္စတ န်</w>
a o</w>
င ဲ့
စ ောင်း</w>
ဏ ု
ဝ မ်း</w>
အ ိ</w>
များ အား
လေ သာ
လက် ဝါး
ဝန် ခံ
တပ် များကို</w>
ဆွ ယ်
တရား မ
ခန်း မ
အမြ င်</w>
om e</w>
လုပ်ကိုင် ကြသည်</w>
မချမ်းဘော မြို့နယ်</w>
C oun
ည ံ
ဝ ီး
အ ခေါက်
ကျ ရွာ</w>
လူ ပေါင်း</w>
ဘာ ့
အလ ုံ
လဲ လှယ်
အကြောင်း ရင်း
ဖမ်း ယူ
အနက် မှ</w>
ကနေ ဒါ</w>
w ere</w>
မ ပြုလုပ်
နိုင် ကြသည်</w>
တို့ ကား</w>
ရေ ပန်း
မာ လ
၁၉ ၂၄</w>
အာ ပတ်
ချက် တွင်</w>
တစ်ခု နှင့်
ပေါင်း ရွာ</w>
ဝေ သာ
အမည် ရင်းမှာ</w>
ကိုး ကား
သတ်မှတ် သည်</w>
စနစ် သည်</w>
လောင် ဂျီ
အတူ တူ
ရှုံး နိမ့်
သင်ယူ ခဲ့သည်</w>
ကျေ နပ်
ဒ ီး</w>
ဒ ွန်
နှ ိပ်</w>
နိုင် မည်</w>
တည် ထောင်</w>
စာ ဖြူ
အစ ပြု</w>
ဒေသ နာ
ပြီး တော့</w>
ကျောင်း အုပ်
အောင် မြင်</w>
ချောင်း ဖျားရွာ</w>
ဘီ အေ</w>
ဋ္ဌာ န်
ဂရ ိ</w>
မော်လ မြိုင်</w>
oun d</w>
တော်လှန်ရေး ကောင်စီ
သင်္ကေ တ</w>
Jav a</w>
ဂ င်
ဘ ောင်</w>
ကျ ဲ
ချ ာ</w>
ကို မ
ကြီး မှ</w>
ပြည် မှ</w>
နှစ် အရွယ်
အစ ီး
တာ ရာ
စား ပွဲ
ပြီး ဖြစ်သည်</w>
လိုက် လံ
တရား ဟော
မိုး လေ
ဖန် ဆင်း
MMR00 600
ရုပ်ရှင် ဇာတ်ကား
နံ့ သာ
Univers ity</w>
ပ ိ</w>
အ ဲ</w>
များ ပါဝင်သည်</w>
ဆို ကာ</w>
အမ ိုး
တင် ရွာ</w>
အကြ င်
တစ်ခု လုံး</w>
အရ ဟ
မန် နေ
အသုံးပြု ရန်</w>
၁၂ ၀</w>
ဟာ သ
အကြောင်း ကြား
re am</w>
at a</w>
ဘား မား
သံဖြူ ဇရပ်
A ung</w>
p e
မ ထွက်
ပြု ကြသည်</w>
ဆင် သည်</w>
ရရှိ သည့်</w>
တွေ့ရှိ ခဲ့သည်</w>
လိုင် ရွာ</w>
ဘေး အန္တရာယ်
အလို အလျောက်</w>
အလား တူ
ဟင်္သာ တ
အမြောက်အမြ ား
လင်ဟော် မြို့နယ်</w>
g u
o d</w>
က ရု
ဆ ွ</w>
တ မျိုး
ဖြစ် သူ
နေ မျိုး
တစ် ဆယ့်
ဆို ဗီယက်</w>
မိ တ္တ
၁၈ ၄
ကန် သည်</w>
ဆရာ မ</w>
အသုံးပြု နိုင်သည်</w>
ဓာတ် တော်
မု န်း</w>
သရုပ်ဆောင် ခဲ့သည်</w>
ကြုံ တွေ့
ဘီလီ ယံ</w>
ဝတ္တ ု
လောင်းလုံး မြို့နယ်</w>
t or
ခ ိ</w>
ါ း</w>
ဦး နှင့်</w>
သည် ဖြစ်စေ</w>
တိုက် ရွာ</w>
ကြား ခံ
နီ သည်</w>
၁၇ ၄
ကျော် ကို</w>
နိ ယ
သု ဉ်း
ရဟန်း တို့သည်</w>
ဆူ ပူ
de n</w>
အားကစား ကွင်း
ရုတ် တရက်</w>
အပါအဝင် ဖြစ်သည်</w>
ပညတ် တော်မူခဲ့သည့်</w>
အသက်မွေး ဝမ်း
အပြင်း အထ
ဆွစ် ဇာ
အကာအ ကွယ်
လိုက်နာစောင့်ထိန်း ရန်</w>
က တိုး
ဒ ုတ်
ခဲ့ ပါ</w>
ရွာ တစ်
သေ နာ
ထား သော်လည်း</w>
လက် ရွေး
ရွှေ နန်း
ကောင်း သည်</w>
တစ်ခု ဖြစ်သော</w>
မု ခ်
ကျင်းပ သည့်</w>
ခဲ့ကြ ရာ</w>
ခို လှုံ
ဇွန် လ
ရွေးကောက် တင်မြှောက်
ပြသ ခဲ့သည်</w>
ဂျာမ န်</w>
အထိမ်း အမှတ်</w>
ခန္တီး မြို့နယ်</w>
bo ard</w>
ဩစတြေးလ ျ</w>
1 20
E ur
တ ကွ
ချ ော်
ရေ တံခွန်</w>
အသ ောက်
အထ ည်</w>
စေ ရမည်</w>
ယာ မ</w>
အာ နိ
ပြီး နောက်
အချိန် ကာလ
သေး ချေ</w>
မွေး ချင်း</w>
ခြေ မြန်
ပါတီ ကို</w>
ဖူး သည်</w>
170 15
ad e</w>
ပျောက် ကင်း
မင်းတပ် ခရိုင်</w>
MMR015 01
ခရုပတ် ပုံစံ</w>
စ စ္စ
ထ ယ်
ဒ လ
ခဲ့ ဘူး
ရွာ မှ</w>
ခြင်း ပင်</w>
မင်း ခေါင်
ဒါ း</w>
အနေ နဲ့</w>
ထက် မ
သက္က ရာဇ်
မိန့် ခွန်း
တိမ်ကောသွား သည်</w>
သဘ င်</w>
oo d</w>
အသေး စိတ်
အဖိုး တန်
D is
j ect</w>
s ec
u r</w>
ဘ ရာ
အ အိ
၌ ၎</w>
ချ ည်း
ပါ ရွာ</w>
တို့ ကလည်း</w>
ဘာ ဝ
ပင် များကို</w>
သွား သောအခါ</w>
အများ စု</w>
ဝီ လီ
တေး ဂီတ
နွေ ရာသီ</w>
အီတ လီ</w>
ပင့် ဆောင်
အရေးကြီး သော</w>
အလား တူ</w>
သခင်သန်း ထွန်း
လှ သဖြင့်</w>
ဂျ ပ်
ဂျ ယ်
ပုံ တစ်ခု</w>
ပိုင်း ကို</w>
ဖက် မှ</w>
စာပေ များ</w>
ကန့် လန့်
ဧပြီ လတွင်</w>
တောင့် တင်း
မစ္စ တာ
Chin a</w>
T im
t i</w>
အ မ်း
င်း တို့ကို</w>
ကြီး များသည်</w>
ရေ အား
ရေ ကျော်</w>
၂၀ ၄
မှု မှ</w>
ခံ နိုင်
စာရင်း အရ</w>
an c
ဆင် ဆာ
10 9
တန် ဖိုး</w>
ဗျ ိုင်း
ချိန် မှာ</w>
မြို့နယ် ရှိ</w>
ယနေ့ တိုင်</w>
အဆုံး အ
ဗဟုသု တ
ရွှေကူ မြို့နယ်</w>
B ro
က ထောင်ရွာ</w>
ထ နောင်း
မ ောင်း</w>
အ ယောင်
ကျ ော့
ဖြစ် ပျက်
ရှိ န်</w>
ကို လိုက်</w>
အကြ ေး
ဆိုင် ရွာ</w>
အလ တ်
ကျော် ထင်
လင်း ကျေးရွာအုပ်စု</w>
သတ်မှတ် ထားသည်</w>
ဘဝ နှင့်</w>
ဝင်ရောက် ခဲ့သည်</w>
လေကြောင်း လိုင်း
အတို ကောက်</w>
ဘုတ်ပြင်း မြို့နယ်</w>
B ud
t ur
y in</w>
စ မတ်
န ိုး</w>
မ သည်</w>
၂ ၁၉
၆ ၀၀</w>
၏ )။</w>
မြို့ ရွာ
ဦး လှ
ရေ ယာဉ်
လက် ဝှေ့
ပြု ပြီး</w>
တိုက် ရိုက်</w>
သုံး သည်</w>
သုံး ဆယ်
ကျောက် တန်း
အောင် သည်</w>
အောင် ပွဲ
ခေါင်း ရွာ</w>
နမ့် ဟူး
အထက် တန်း</w>
ခံရ ခြင်း</w>
လောက သို့</w>
ထိန်းသိမ်း စောင့်ရှောက်
အစ် ကို</w>
နရ ပတိ
Am er
စ င်း</w>
ည နေ
ကြ ရလေသည်</w>
ကျ ိန်
ပြု မူ
ယူ ကာ</w>
ခုနှစ် များတွင်</w>
ရန် သူ</w>
တပ် များသည်</w>
18 2
ကျောက် ဖြူ
လုပ်ငန်း များတွင်</w>
စိ တ္တ
ကွဲ ရွာ</w>
ကိုယ်စား ပြု</w>
ဈေး နှုန်း
ဇေ ယျ</w>
ပြည်တွင်း စစ်
h y
ဂ ရင်း
များ မှာလည်း</w>
ပြု ပြင်</w>
လေး ပါး</w>
အရ သာ</w>
စည် သူ</w>
သိပ္ပံ ပညာ
၁၈၈ ၅</w>
တုန်း က</w>
ထိုအချိန် မှစ</w>
အဘိ ဓမ္မာ
ချိုင့် ဝှမ်း
ရုပ်မြင်သံ ကြား
အပြု အမူ
အင်္ ကျီ
ဗ ီးယား
မှ ိန်
တစ် ဖန်
လူ ဝီ
နှစ် များတွင်</w>
ဖွ င့်</w>
ပင် ဖြစ်</w>
နောက် လိုက်
ယင်း တို့သည်</w>
ဆီ မီး
ပြည့် ဝ
ငါး ရာ
20 7
ဝီ လျံ
သိပ္ပံ ပညာရှင်
လက်အောက် ခံ
ဗား ရှင်း
ဟီ ရို
အချုပ် အခြာ
Ny aung</w>
olog y</w>
မောင်းထောင်း ဦးကျော်လှ</w>
" (</w>
C en
ဇ ိုင်း
ကျ ိပ်
ဦး တွင်</w>
ဦး သိန်း
လာ အောင်</w>
နိုင်ငံ ့
မင်း ကို</w>
ကာ ရ
ခုနှစ် မှာ</w>
တပ် ရွာ</w>
an y</w>
ပြောင်း ရွှေ့</w>
မှူး အဖြစ်</w>
ခေါင်းဆောင် များ</w>
ထေရ ဝါဒ
နာမည် ကြီး
and s</w>
သပိတ် မှောက်
ဖော်ပြထား ပါသည်</w>
ဝိသေ သ
ဒသ မ</w>
B ar
င ္
ဓ နု</w>
ယ ု</w>
ရ ကား</w>
ပြ ောင်</w>
စစ် ရေး</w>
မီ နီ
ဟု ခေါ်</w>
သင် ပုန်း
စတ ိုး
ကွန် ဂရက်
ဇာတ် လမ်း</w>
ဆောင်ရွက် ပေး
သဘော ကို</w>
50 0</w>
သဒ္ ဓါ
ဒုက္ခ သည်
ပေါက်ရောက် သည်</w>
အစီရင်ခံ စာ
ကွာဝေး သည်</w>
မဇ္ဈ ိ
O S</w>
R ec
S A</w>
d h
l es</w>
၁၉ ၂၂</w>
တိ ဗက်
အိ ရှိ
အရှ ုံး
နွ ား</w>
မရှိ ခဲ့ပေ</w>
သတ္တ ု</w>
ယု ဒ
ဒေါင့် ရွာ</w>
G e
လ ဲ့
ဟ န့်
ရှိ သော်</w>
တစ် ပတ်
အောင် မြေ
လိုက် ပြီး</w>
ဘွ တ်
ပထမ ကမ္ဘာစစ်
ဖြတ် တောက်
ရုံ မျှ
ဘုရင် များ</w>
ပြည်ထောင် စုတွင်</w>
ရောဂါ ကို</w>
ခဲ ယ
ဂွ န်း
လက်ထက် က</w>
ဥရောပ တိုက်</w>
အဖွဲ့ဝင် အဖြစ်</w>
အင်္ဂလန် နိုင်ငံ</w>
အာဖရိက တိုက်</w>
သက်သေ ခံ
ရှားတော မြို့နယ်</w>
Joh n</w>
က မ်
ကြ ပါတယ်</w>
ရေ ဒီယို</w>
သော င်</w>
အတွ ဲ</w>
သွား သည့်</w>
ရပ် နား
ချက် များအရ</w>
သက် တော်</w>
လမ်း ရွာ</w>
နည်း စနစ်
လူမျိုး စု</w>
တောင်း ခံ
ကြွ ယ်</w>
ကင်း ဒ
ဘိ သိ
ဟိ မဝ
ဇီး ပင်
ဒြ ဗ်
ဗိ မာန်</w>
ဇွ န်း
နှောင်း ပိုင်း
ကွေ့ ရွာ</w>
ဘန့် ဘွေး
J ap
a te
၏ ”</w>
ပြ ူ
ပြ ဇာတ်</w>
ရာ နေရာ
သေ ့</w>
ခု မြောက်</w>
လူ တစ်ဦး
သား များသည်</w>
နည်း မှာ</w>
ဘာသာ ကို</w>
လေ့ ရှိပြီး</w>
ထို့ နောက်
ကမ်း ပါး
ဆီး ချို
နိုဝင် ဘာလတွင်</w>
ထန် တလန်
ဘောလုံး သမား</w>
ou t</w>
ကုန်သွယ် ရေး
res s</w>
ဘရာဇ ီး
B ri
a f
စ တော့
မ ပျက်
ကြ ည်း
ခြင်း အတွက်</w>
ဇာ တိ</w>
နိ သ
ပြုလုပ် ခြင်း</w>
စိုက် ထူ
ကြည် လင်
အမေရိကန် နိုင်ငံ</w>
ထိပ် တန်း
ကုမ္ပဏီ မှ</w>
ab le</w>
ထားဝယ် မြို့နယ်</w>
အမိ န့်</w>
ဒေဝ ီ</w>
မိုးကောင်း မြို့နယ်</w>
အလ္လာ ဟ်
ဖာပွန် ခရိုင်</w>
တွန်းဇံ မြို့နယ်</w>
ထ ိတ်
မ ထင်
အ ပါ
အ ဖို
ကြ ောင်</w>
ခဲ့ သည်ကို</w>
ဦး သာ
စစ် တရားရုံး
နာ ဇီ
နယ် ကို</w>
ကောင်း သော
အောင် နိုင်
မည် ဖြစ်ကြောင်း</w>
အသုံး အဆောင်
အပြ ိုင်
ချင်း စီ
၁၉၆ ဝ</w>
ရောဂါ များ</w>
အနည်း ဆုံး
ပျောက် ဆုံး
ညီညွတ် ရေး
ကြောက် ရွံ့
K aw
ပြည် ကို</w>
၁၉ ၂၇</w>
၁၉ ၂၈</w>
ထွ တ်
အသုံး မပြု
အသုံးပြု ခြင်း</w>
ရဲ တပ်ဖွဲ့
ငွေ ကြေး</w>
မဟာ ဓမ္မ
ကြောင်း နှင့်</w>
လက်နက် ကိုင်</w>
ပုဂံ ခေတ်
ဇာတ်လမ်း တွဲ</w>
ည နေ</w>
သ ပြု
၌ ၊</w>
မြ ား</w>
ရေ ချို
သည် တွင်</w>
ပု တီး
ယူ ဇ
သည့် အခါတွင်</w>
မြစ် ဖျား
အပြ ော
မရှိ တော့
ရဲ ဘော်</w>
တော်မူ လေသည်</w>
တာဝန် များ</w>
သရက် ကုန်းရွာ</w>
ကဗျာ ကို</w>
မကြာ သေး
ရုပ်ပွား တော်</w>
ဂျာမနီ နိုင်ငံ</w>
မီလီ ယံ
ရေနွေး ငွေ့
ဖက်ဒ ရယ်
တ လျှောက်</w>
ရ ပါတယ်</w>
အ ပျို
နိုင်ငံ များသို့</w>
တောင် ကျေးရွာအုပ်စုတွင်</w>
န္ တ</w>
အား ကိုး
ရက် စွဲ
သွား ကာ</w>
ကိုယ် ထည်
ဘော လခဲ
ဗြ ာ
နို ဘူတာ</w>
ဗြိတိ န်</w>
အရင်း ရှင်
အစ္စလာ မ်</w>
ဖိလစ် ပိုင်</w>
သီအို ရီ</w>
အနှံ ့</w>
စ ိ</w>
တ ဒ
ပ မာ</w>
အ ဆ</w>
နေ ကြောင်း</w>
နိုင် ပါ</w>
စစ် ကိုင်း</w>
ar t</w>
ပန်း ရွာ</w>
နိ က
သီး ခြား</w>
မို ဟာ
မဟာ ယာ
ဗျ ား
သတင်း ထောက်
ကျမ်း တွင်</w>
ပြည်နယ် သည်</w>
ခဲ့ကြ ရသည်</w>
ဝက် ဘ်
ကေ အိုင်အေ
ယွ န်း</w>
ဋ္ဌာ န်း</w>
ရာထူး မှ</w>
ရေင ုပ်
Q u
စ ပ
မ လိုက်
သ လင်း
ရှိ လာ
ပါ စိတ်
ကြီး စိုး
နိုင်ငံ အတွင်း</w>
ပေး ကာ</w>
ကုန်း ပြင်
ချောင်း ဆုံ
ကိုး ကန့်
ရွေး ချယ်</w>
ခဲ့ရ သော</w>
သီချင်း ကို</w>
ခမ်း နား
များနှင့် အညီ</w>
တခါ တရ
သမဝါယ မ
m y</w>
မြို့ များ</w>
လွ န်း</w>
တော ခို
ဂျ ်
အတ ိုင်
20 3</w>
အဝ ေါ
25 0</w>
ကျင်းပ သည်</w>
ညွှ န်း</w>
ပိုး သတ်
မင်းသား သည်</w>
အဝတ် အစား
အွန် လိုင်း
တ ဘူတာ</w>
သ ပ
၈ ဝ</w>
၁၉ ၁၉</w>
လက် ပ
ခွ က်</w>
တွင်း ထွက်
ကလေး သည်</w>
သိမ်း သွင်း
တစ်မျိုး ကို</w>
ငြား အံ့</w>
တိရိစ္ဆာ န်
ဝ တ္
ကြ ော</w>
ရာ မှာ</w>
နိုင် ရန်
ဖွ ဲ
သိ ဒ္ဓ
အရှ ည်</w>
ဆရာ အဖြစ်</w>
မီး သတ်
ဆာ လ
မို ဘိုင်း
အချိန် ဇုန်</w>
စာပေ နှင့်</w>
ဝတ် ပြု
မြို့နယ် နှင့်</w>
MMR0 1600
ပွင့် လင်း
လုပ်ဆောင် ခဲ့သည်</w>
ကလ ပ်</w>
ချွ န်</w>
နှုတ် သီး
သွင် ပြင်
ပြင်းထန် သော</w>
ဗြဟ္ မ
ဗမာပြည် ကွန်မြူနစ်ပါတီ</w>
အသိုင်း အဝိုင်း
ဇမ္ဗ ူ
2 30
N ational</w>
ခ ွ</w>
ဂ ြ
ဆ ံ</w>
ဖ ုံ
ယ န်း</w>
ဤ အက်ဥပဒေ
၅ ၉
များ ပါ</w>
စု ဝေး
နှစ် ကြာ
ထို သူ
ကုန်း ကြီးရွာ</w>
အဆ ိုး
ဘုရား ကျောင်း</w>
အပ် နှံ
ကျင်း ပ</w>
စင် တာ
အက် ဒွ
ဘွဲ့ ဖြင့်</w>
ကင်း လွတ်
စေတီ တော်ကို</w>
၁၉၃ ၄</w>
ရံ ဖန်
le y</w>
ကောင်းမွန် သော</w>
လက္ခဏာ များ</w>
အမေရိက တိုက်</w>
we b</w>
အငြိမ်း စား</w>
m s</w>
စ ယ်
ဝ ိုက်</w>
အ လှည့်
ပါ ရာ
ကု တ်</w>
လူ နည်း
နှစ် ပေါင်း
မှု များတွင်</w>
သား များကို</w>
ဝင် သည်</w>
ယူ ပြီး</w>
တရ ုပ်
ပေ မဲ့</w>
တတ် သည့်</w>
ဆောင်ရွက် ခြင်း</w>
us tr
ထီး လင်းမြို့နယ်</w>
ဝမ်း မြောက်
လက်ခံ ကျင်းပ
ရတနာ ပုံ</w>
ထူးခြား သော</w>
အာရုံ စိုက်
စံတော် ချိန်</w>
2 70
ဟ ောက်
အ က</w>
၇ ၀၀</w>
မြ ီ
မြ ော်
မည် မှာ</w>
လိုက် ကြသည်</w>
စက် ဝိုင်း
ဆေး တက္ကသိုလ်</w>
စကား ရပ်
ထက် မြက်
မွန် ဂို
ရဟန်း တော်များ</w>
လောက် ကိုင်</w>
အကြီး အကျယ်
ကျန် စစ်သား
ဖိ တ်</w>
တွေ့ရ လေသည်</w>
မိဖုရား ခေါင်
စာချုပ် ကို</w>
အဆင် ပြေ
အေးချမ်း သာယာ
သင်္ဃ န်း
ရံဖန် ရံ
a in</w>
m p
စ သဖြင့်</w>
ဆ ေ
ဌ ေး</w>
ဒ န်း
မ ေး</w>
ကြ ုတ်
ရှိ တဲ့</w>
၁၉ ၁၁</w>
ပုံ များ</w>
ချက် များနှင့်</w>
လိုက် ရသည်</w>
လီ ယို
တန် ရွာ</w>
ရောင် ခြည်</w>
MMR01 201
ခရီး သည်</w>
ငူ ရွာ</w>
ထန် ရွာ</w>
ဘာသာစကား ကို</w>
လက်အောက် ရှိ</w>
နိဗ္ဗာ န်</w>
ထီးနန်း ကို</w>
သီရိလင်္ကာ နိုင်ငံ</w>
D ev
T C</w>
လ န်းရွာ</w>
ဝ ံ</w>
ဟ မ္မ
ကျ န
နိုင်ငံ တို့</w>
အထ ောက်
သိ င်္
ပုံ များကို</w>
တက် ရောက်</w>
မြတ် သော
ပြည်နယ် ရှိ</w>
များကို မူ</w>
MMR00 400
လှေ ကား
စန္ဒ ာ
ကြွေး ကြော်
မစ္စ တာ</w>
အပြောင်းအလ ဲ
န န်</w>
မ ဘ
မ ကျေးရွာအုပ်စုတွင်</w>
အ ဝ</w>
အ ဏု
။ ၎</w>
ti n
တော် စပ်
မျိုး မှာ</w>
ထို ခေတ်က</w>
လေး သည်</w>
လမ်း တွင်</w>
ဆရာ များ</w>
ဖော် ဆောင်
မှာ ပဲ</w>
ပါတီ မှ</w>
ဝမ်း နည်း
ဇူလိုင် လတွင်</w>
ဒဂု န်
မိုးလေ ဝ
A ss
N at
ဖြစ် စေသည်</w>
နေ ာ</w>
နေ လေသည်</w>
နေ ရှင်
တစ် ရာ</w>
၁၉ ၂၅</w>
ထား သည်မှာ</w>
ပု ရာ
ပေါ် ထွက်လာ
ကန် တော့
ဆရာ ဝန်</w>
စိတ် မ
လုပ်ငန်း တွင်</w>
ပြော ဆို</w>
ထူး ဆန်း
ရှု မြင်
ခရိုင် ရှိ</w>
ချီး မွမ်း
ang u
ရိပ် သာ
ဆင်ဖြူ ရှင်
ဝိန်း ကောင်</w>
ပင်လယ်ရေ မျက်နှာပြင်
အရောင်း အဝ
ဟော့ကိုင်း ဒိုး
စာရွက် စာတမ်း
) "</w>
ဒ ူး</w>
မ တွေ့
အ ညစ်
မျ ဉ်း</w>
ရှိ သူ
မျိုး စိတ်</w>
အစ ရှိသည်
တာ ပါ</w>
စစ် တမ်း
အချ မ်း
မှတ် ချက်
သုံး ကြိမ်
ရွှေ ထီး
ပွဲ ဦး
တစ်ခု မှ</w>
အကျ ပ်
တာဝန် ခံ
30 0</w>
စာပေ များကို</w>
ခဲ့ကြ ပါသည်</w>
အင်္ဂလိပ် ဘာသာဖြင့်</w>
သတ္တဝါ များ</w>
တတိယ မြောက်</w>
မြင့်မား သော</w>
ဒစ် ဂျစ်
F ran
စ ိပ်
စ ပါယ်
တ ဖက်
ယ ော့
ရှိ နေသော</w>
နိုင် ရေးအတွက်</w>
မှု ပြု
၁၉ ၂၁</w>
မျိုး စေ့
နိုင်ငံ များမှ</w>
သစ် များ</w>
ပိုင်း ဆိုင်ရာ
အသုံးပြု သည့်</w>
ရှေး က</w>
တောင်း ကျေးရွာအုပ်စု</w>
အချက် ကို</w>
ငါ တို့
ဝက် ဝံ
သရက် ချောင်းမြို့နယ်</w>
ခမ်း ကျေးရွာအုပ်စု</w>
ညွှန် ပြ
ဂုံ မင်း
လုံခြုံ ရေး</w>
ဖိတ် ခေါ်
ဘုရင့် နောင်
အိုင်ယာ လန်
ရွ ေ့</w>
၁၉ ၂၉</w>
မျိုး ဖြစ်</w>
ပန်း ကန်
အတွင်း ဝန်</w>
ကလေး ကို</w>
ပြုလုပ် ရာ</w>
စော ဒ
မု တ္တမ
အထက် တွင်</w>
ယခု ခေတ်
ဝတ် စုံ
ကမ္ဘာ့ အမွေအနှစ်
ဝီ ကီ
အမျိုးမျိုး ဖြင့်</w>
လျှင် မြန်
ပုဂံ ခေတ်</w>
ဓမ္ မာ</w>
သည်ဟု လည်း</w>
ရှေးဟောင်း သုတေသန
တမန် တော်
ရုံးစိုက်ရာ မြို့မှာ</w>
ယောကျာ် း
H ta
ဘ ောင်း
ဟ ွန်
ဥ ပု
၅ ၅
နေ ကြသော</w>
ရှိ ပါ
သေ ဒဏ်
ရေး စပ်
လာ လျှင်</w>
သွ ပ်
အခ မဲ့
သွား ခြင်း</w>
သစ် ပင်</w>
အောက် ပိုင်း
အချက်အလက် များ</w>
ငြိမ် သက်
မော်တော် ကား
wh ich</w>
ငယ်စဉ် ကပင်</w>
တောင်သူ လယ်သမား
c om</w>
s y
ဘ ိ</w>
ဤ ဥပဒေ
၆ ၆
မြ ောင်ရွာ</w>
မှ သာလျှင်</w>
ချ ခဲ့သည်</w>
များ ဖြစ်ပြီး</w>
၁၉ ၁၄</w>
လက် တက်
သို့ ရောက်ရှိ
ပေး ခြင်းဖြင့်</w>
စေ ခြင်း
မြန်မာ စာ</w>
ပေါ် လွင်
နီ စီ
အင်း ဝ</w>
ခါ ဝါ
ဘုရင် မ</w>
လောင် ရွာ</w>
သင်္ဘော များ</w>
ဂုံ ညင်း
ဓာတု ဗေဒ</w>
အဂ္ဂ မဟာ
ဝိညာ ဉ်
ရက်ထပ် နှစ်
နိသ ျ</w>
g an
င လျင်</w>
သ ို</w>
နိုင် သောကြောင့်</w>
ရေ ပူ
နှစ် လုံး
ဆို က်</w>
ဒေသ ခံ</w>
ကာ ရွာ</w>
စေ ရ</w>
အဖြစ် နှင့်</w>
မဟာ ဝိ
ဌာန မှ</w>
မောင် သည်</w>
ကြေး ငွေ
နှုတ် ခမ်း
ချို့ တဲ့
မြန်မာစကား ပုံတစ်ခု</w>
Gro up</w>
c re
ဂ မုန်း
တ ခ
တ ယော
ိ က
ချ ည်</w>
တော ကြီး</w>
နိုင်ငံ ဖြစ်သည်</w>
မြန်မာ မင်း
လယ် တီ
တာဝန် ပေးအပ်
ရမ ယ်</w>
အပင် များ</w>
ထိန်းသိမ်း ရေး
သံဖြူဇရပ် မြို့နယ်</w>
- -</w>
က လော
စ ပိန်</w>
တည် ဆောက်</w>
စာ များကို</w>
ရေ လက်
အသ ု
သည် ထက်</w>
ဒေသ သို့</w>
အား လည်း</w>
ရှင် မဟာ
ကွန် ရက်
ခိုင် လုံ
သင်္ ကြန်
ချမ်း သာ</w>
ခြံ ရွာ</w>
ရှောင် ကြဉ်
တည်ထား ကိုးကွယ်
ဖေဖော်ဝါရီ လတွင်</w>
ခ မောင်း
ဗ လီ
မ တရား
မ တန်
နှ ိုး
၁၉ ၁၇</w>
ခံ ့
ပေး ရ
ပေါ် လ
အလ ီ
ဆင် စွယ်
လိ ဂ်
တန် ချိန်</w>
အက် ဖ်
ထုတ်လုပ် မှု</w>
MMR0 140
အခွင့် အလ
စစ်ပွဲ တွင်</w>
အဓိပ္ ပါယ်</w>
ထုတ်ပြန် ခဲ့သည်</w>
ဟစ် တ
ရေကျော် ရွာ</w>
လိမ္ မော်
A b
I I</w>
ခ မာ
မ သင့်
အ တော
ဩ ဇာ</w>
ဖြစ် ခဲ့
ကြီး များတွင်</w>
လျ စ်
မှု တို့ကို</w>
ထို မှ</w>
လှ န်</w>
တင် စား
နယ် သည်</w>
ချောင်း ကျေးရွာအုပ်စုတွင်</w>
ကျွန်း စု</w>
ရှေး ခေတ်</w>
သမ္ ပ
ရု ရှား</w>
တုံ ရွာ</w>
ထိန်း သိမ်း</w>
ဝတ္ထု တို</w>
အထက်တန်း ကျောင်း
ပုတ် ရွာ</w>
လိင် ဆက်ဆံ
မကျေ နပ်
ကယ်လီဖိုး နီးယား
1 18
d er</w>
က ရိယာ
င ဖဲ
ဝ ိတ်
ဖြစ် စေရန်</w>
နှစ် ကြိမ်
လမ်း မကြီး
သံ အမတ်
ထက် ပို
ဘုရင် က</w>
ဘုရင် ခံ</w>
ရန်ကုန် မြို့တွင်</w>
အစား အသောက်
ဇေ တ
အခေါ် အဝေါ
အတိ အကျ</w>
ဇန်နဝါရီ လတွင်</w>
စကြာဝ ဠာ
Asi a</w>
အပန်း ဖြေ
P a</w>
Y war</w>
a h</w>
e e</w>
ည ောင်း
ဖ လ
မ ဂ
တစ် လုံး</w>
ရေး ခဲ့သည်</w>
ယူ သည်</w>
သုံး ဦး
လမ်း စဉ်</w>
တရား မဝင်
ငယ် ရွာ</w>
ကျော် ရွာ</w>
ကမ္ဘာ တွင်</w>
ဖောက် ပြန်
သိက္ခာ ပုဒ်
နူး ညံ့
အဘိဓာ န်</w>
တပို့ တွဲ
1 17
I V</w>
က ုပ်
က ဝိ
ရ ီး</w>
ရှိ တ်
နိုင် မှု</w>
သွ ာ
အောက် စ
ထို့ အတူ</w>
အက် ဥပဒေ</w>
၁၉၇ ဝ</w>
သွေး ကြော
ကိစ္စ ကို</w>
လိုလ ို
ပုဂ္ဂလိ က</w>
ဆိုရ ပေမည်</w>
ရှိသည့် အနက်</w>
ဂန္ထ ဝင်
ငါ့သျှင် တို့</w>
r e</w>
င ရုတ်
တ ပြိုင်
ဗ တ်</w>
ရှ ယ်</w>
မြို့ တည်
မိ ကျောင်း
၂၀၁ ၀
အထ ီး
လုံး ဆိုင်ရာ</w>
လည်း ရှိသည်</w>
ဆွ ာ
လိုက် လျှင်</w>
th er
တွင်း မှ</w>
13 0
ဒုတိယ ကမ္ဘာစစ်</w>
သတ္တ ုရ
ထု ထည်
ကျင့် ကြံ
ဘယ် လ်
ပုံစံ ကို</w>
ဒဏ် ကို</w>
ut e</w>
ပုဂ္ဂိုလ် များ</w>
မြောင်း မြ
နယူး ဇီ
ကိရိယာ များ</w>
အသေး စား
အာနန္ဒ ာ</w>
သင်္ဂါယ နာ
ထန်တလန် မြို့နယ်</w>
t le</w>
ဝ ကျေးရွာအုပ်စုတွင်</w>
အ ပွင့်</w>
များ ကား</w>
ရှိ တတ်သည်</w>
ပါ ဏ
ပြည် ပ</w>
မှု နှင့်
လက် ကိုင်
ခြင်း တို့
အထ က</w>
နေထိုင် ကြသော</w>
နာ ကျင်
ဒါ န်း</w>
ထို့ ပြင်
01 2</w>
ပျော် ဝင်
သရ ဏ
ai k</w>
ဝါရှင် တန်
M ag
M ah
N ar
a in
m us
ا ل
က နောင်
တ စိတ်
မ တည်
ယ ိုင်
ရ ပြီးနောက်</w>
ကြ သည်
ဦး ဝင်း
ti s
တစ် နိုင်ငံ</w>
ဝင် လာ
စစ် တောင်း
နည်း သည်</w>
သံ ကို</w>
ပြော သည်</w>
ကလေး များသည်</w>
ရေးသား ခဲ့သော</w>
as h</w>
အေး မြ
ir st</w>
ဗန်းမော် မြို့နယ်</w>
ယူနိုက် တက်</w>
M in</w>
တ ကား</w>
ဟ မ်
အ ရိ
မှ လွဲ</w>
တော ရိုင်း
ပြန် ရောက်
သုံး ဆောင်
စီး နင်း
နီ ပေါ
ပန်း ပွင့်
ချောင်း ဦးမြို့နယ်</w>
ဖြတ် ကျော်
ခြေ ရာ
ရိုက် နှိပ်
ကြည် း</w>
မြန်မာနိုင်ငံ သား</w>
ရောဂါ ဖြင့်</w>
ကာကွယ် ရန်</w>
ရည်ရွယ် ချက်</w>
ကိုယ်စားလှယ် အဖြစ်</w>
အဓိပ္ပာယ် ရသည်</w>
တိမ်း ရှောင်
ခမည်း တော်
ပြောက် ကျား
ဗြာ ဟ္
အချမ်း သာ
က ု</w>
ဆ ား</w>
အ ကုသိုလ်
မှ ေး
ေ့ စ်
ဆုံး နှင့်</w>
ကျောက် မျက်
၁၇ ၃
ချောင်း ကြီး</w>
Th it</w>
ကံ ရွာ</w>
စိုက်ပျိုး ကြသည်</w>
အယူ ဝါဒ</w>
တွန်း လှန်
ရူပ ဗေဒ</w>
အမဲ လိုက်
ကလာ ပ်
တန်ဆောင် မုန်း
ကေအင်န်ဒီ အို
ဂ န်း
ဖ လံ
အ လွတ်
ပြ ဒါး
နေ တတ်သည်</w>
ဦး အုန်း
မှု န့်</w>
ခွ ရွာ</w>
ဝင် ္
ရိ ပု
၁၈ ၃
ပြန် ရာ</w>
မိုင်း ဖျ
ပေါင်း စုံ
on ic</w>
ကြာ သပ
အင်း ကျေးရွာအုပ်စု</w>
ဖြင့် ပင်</w>
ဖြစ်လာ လေသည်</w>
သတ်မှတ် ခြင်း</w>
ဆု တံဆိပ်
el op
ထုတ်လုပ် သော</w>
နိုင်ငံရေး ပါတီ
အသံ ထွက်</w>
70150 5</w>
ဒိုး ရွာ</w>
လှူဒါန်း ခဲ့သည်</w>
ဒါယ က</w>
ငြိမ် ဝပ်
C an
H l
h ard
y u
ယ ော်
သ လော</w>
ာ လ်
သည ာ
စု န်
ရေ ကူး
မိ ချောင်း
ကာ တွန်း</w>
နှင့် ပင်</w>
အခြ ောက်
ဒီ လို
မြေ နီ
ကျွန်း တွင်</w>
ကလေး ငယ်
အချိန် အထိ</w>
ထုတ်လုပ် မှု
ကျွန် တော်</w>
သာမ န်</w>
ဇော် ဂျီ
ဆိုင်း ရွာ</w>
ပညာသင်ကြား ခဲ့သည်</w>
ပြီးသည့် နောက်</w>
Nor th</w>
အယ်လ်ဘ မ်
ကျိုက်ထို မြို့နယ်</w>
3 13
t o
န ယုန်
မ မြ
ဠ ာ</w>
ာ က်
နိုင် ခြင်းမရှိ
နှစ် ပေါင်းများစွာ</w>
လက် ဆီ</w>
ခြင်း ဖြစ်</w>
မင်း တရား</w>
ကာ လီ
ဆက် တိုက်
အတ ား
အောက် ရွာ</w>
ထက် တွင်</w>
လိပ် ပြာ
မြန်မာနိုင်ငံ သည်</w>
သတ်မှတ် ထားသည့်</w>
ကာလ က</w>
ချမ်း သာရွာ</w>
လောင် ကျွမ်း
နည်းပညာ တက္ကသိုလ်</w>
အလေး ချိန်</w>
ပြင်းထန် စွာ</w>
ကြံ့ ခိုင်
K an
ဂ တိ
သ ောင်ရွာ</w>
ရှိ သောကြောင့်</w>
စု န်း
ပါ လ
ရေ မ
သွား ကြ
တပ် မှူး
နည်း ဥပဒေ
ကျော် လွန်
အသုံးပြု ခဲ့ကြသည်</w>
ပဲခူး ရိုးမ
အီ ဂျစ်</w>
13 9
၁၉၅ ဝ</w>
အင်္ဂလိပ် ဘာသာ
အမြဲ တမ်း</w>
အစိတ်အပိုင်း များ</w>
စို စွတ်
မော်လိုက် ခရိုင်</w>
မြို့တစ် မြို့</w>
P ol
u al</w>
စ ကာ
ရ သူ
ဧ တဒ
ဖြ ာ</w>
ချ ော</w>
တစ် ပုံ
ခု နှင့်</w>
ရေ ပြင်
သိ သိသာ
သွား ရန်</w>
မြင် သာ
10 8
အိမ် တွင်း
01 3</w>
ဇာတ် ညွှန်း
ရဟ တ်
ဗိုလ် မှူး</w>
တစ်ဦး သည်</w>
ခံရ သည့်</w>
ပိ ပြား
ငှက် ဖျား
ဦးစီး ချုပ်</w>
တပ်မတော် မှ</w>
အရင်း အ
oo g
အဓိပ္ပါယ် ရသည်</w>
ကုန်သွယ် ရေး</w>
ငှား ရမ်း
M o
ဓ ု
ရ ဘူတာ</w>
အ ော်</w>
ပါ ဒ
တစ်ခု စီ
ပါဝင် ကြသည်</w>
01 1</w>
လယ် သမား</w>
အနောက် တိုင်း</w>
ဘဝ မှ</w>
စနစ် တကျ
ပြောဆို ခဲ့သည်</w>
ပံ ့</w>
ထိန်းသိမ်း ရေး</w>
ပထဝီ ဝင်</w>
ပဒေသ ရာဇ်
မြင်းမူ မြို့နယ်</w>
1 19
ဆ ုတ်</w>
ပ တ
မ သိ</w>
ရ ဋ္ဌ
နှ င်</w>
ချ ိုး</w>
သေ တ္တာ
လာ ကြ</w>
ရေ ကြီး
စစ် သည်</w>
ပညာ သည်</w>
မန် ကျည်း
en g</w>
အိုင် အေ</w>
ဆန် စပါး
အသင်း ကို</w>
ဆိ မ့်
အက ဲ</w>
ဟုခေါ် သည့်</w>
အလို အရ</w>
အတူ တကွ</w>
မင်းတုန်း မင်း</w>
ခေါ်ဝေါ် ကြသည်</w>
ပိုလ န်
ကော်ပိုရေး ရှင်း</w>
ပန်ဝိုင် မြို့နယ်</w>
ရက်ထပ်နှစ် ဖြစ်လျှင်</w>
d s</w>
u ter</w>
ပ လီ
ဖ ီ</w>
ရ ခြင်းမှာ</w>
လ စာ
ဖြစ် ပါ
နိုင် ခဲ့</w>
ပါ ရှိ</w>
နှစ် အတွင်း</w>
လက် စွပ်
ခံ ထား
တောင် ပေါ်</w>
ရော မ</w>
ပွား များ
ကဲ့ ရဲ့
ရေးသား ထားသည်</w>
13 7
ကာလ များတွင်</w>
ဂုဏ် သတ္တိ
တစ်မျိုး မှာ</w>
ဂြိုဟ် တု
ဆွေးနွေး ပွဲ
ဟင်း လျာ
ခန့်အပ် ခဲ့သည်</w>
တိရစ္ဆာန် များ</w>
အဆောက်အအုံ များ</w>
ပထဝီ ဝင်
အကယ်ဒ မီ</w>
ဟော့ကိုင်း ဒိုး</w>
ဝေသာ လီ
အတိုင် ပင်
3 70
ခ က်</w>
စ ို့
ဇ မ်
ဇ ယ်
ဓ ဇ
အ လည်
ရှ ုတ်
ရှိ တယ်</w>
ယာ သည်</w>
လို ချင်
ပညာ ရပ်</w>
ကိုယ် ကျင့်
ကိုယ် ဝန်ဆောင်
ကျောက် တိုင်
ယင်း တို့မှာ</w>
ညီ အစ်ကို
ကွန် ယက်</w>
မှာ ကား</w>
ငါး ပါး</w>
အရှင် မြတ်</w>
ကွယ်လွန် ချိန်တွင်</w>
အာဖ ဂ
အမျိုးအစား ဖြစ်သည်</w>
တာဝန်ယူ ခဲ့သည်</w>
ဟောင် ကောင်
A fr
S tr
စု ကျေးရွာအုပ်စု</w>
မျိုး ပွား
မျိုး ကွဲ
ထို မျှ
ပွ ေး
ခွ ေး</w>
ခြင်း ခံခဲ့ရသည်</w>
နာ ရ
ကုန်း မြင့်
စက် များ</w>
ပေါင်း သင်း
ဒါ ကြောင့်</w>
အသုံးပြု ပြီး</w>
နတ် သမီး
ကိုင်း ကျေးရွာအုပ်စု</w>
ရက်နေ့ တွင်
တီး ရွာ</w>
ယခု အခါ
MMR00 501
သမ္မတ အဖြစ်</w>
ec h
ကဗျာ များ</w>
နာရီ တွင်</w>
ယိုးဒ ယား</w>
he avy</w>
6 4
C r
N A</w>
စ ရိတ်</w>
ဗ ီ</w>
၅ ဝဝ</w>
ကု ဒ်
သည် လည်းကောင်း</w>
လှ ေ</w>
ပေး လေသည်</w>
ရက် ကန်း
အိ န်
ပုံ မှန်</w>
ဘုရား ဖူး
ညီ ညာ
01 9</w>
ရေးသား ထားသော</w>
ic s</w>
မြင်း က
ညှ ဉ်း
ဘယ် လို
သီတင်း ကျွတ်
အခမ်း အနား</w>
အထဲ တွင်</w>
အာရေ ဗျ
S u</w>
T an</w>
T aung
t an
u le</w>
ရ တယ်</w>
မျ ို
ပါ လာ
ပါ သည့်</w>
၂၀ ၃
သူ ကောင်း
ထို နေ့
အမ ည်း
လမ်း ကို</w>
နောက် တစ်
အဆ က်</w>
ပါဝင် သော
တန် ခူး
အီ သီ
မြန်မာနိုင်ငံ ကို</w>
ကာလ ကတ္တ
တက ယ်</w>
အမိန့် တော်
သတ္တု တွင်း
tim e</w>
စာမေး ပွဲ</w>
နှာ ခေါင်း
ဒီမိုကရက် တစ်</w>
အိုဆာ ကာ
ဋ ်</w>
မ ရိုး
ကျ ို</w>
ပါ တ်</w>
သား ကောင်
ပေး ထားသော</w>
စေ လို
စက် မှု</w>
ခန့် ကို</w>
အချိန် က</w>
ပျက် ပြား
အဆင့် အတန်း</w>
လှုပ် ခတ်
မယ် တော်</w>
အသင်း သည်</w>
ခန္ဓာ ကိုယ်</w>
အကူ အညီ</w>
မြုပ် နှံ
ma in
M aw
p er</w>
ပ ကတိ
အ ရိယာ
၅ ၇
နိုင် ခဲ့လေသည်</w>
သာ ရိပု
ထွ ာ
ပု လွေ
သည့် နေ့
အလ ီ</w>
10 7
01 6</w>
01 8</w>
တ္ထ ိ
ဖက် သို့</w>
တည်ရှိ ရာ</w>
သတ်မှတ် ချက်
ရန်ကုန် သို့</w>
ဆန်း သစ်
အရွယ် အစား</w>
တမ န်</w>
သုတေ သီ
ရွေးချယ် တင်မြှောက်
ယောက်ျ ား</w>
မ န
အ အို
ဖြစ် ပြီး
နေ အိမ်</w>
ti ons</w>
ဆို သော်လည်း</w>
အတွ ဲ
သား ဖြစ်သူ</w>
ခြင်း များ
15 0</w>
တပ် ကို</w>
ကျောင်း စု</w>
ပန်း ခြံ
ဖျ ော့
ခန့် ရှိ</w>
ကူး တို့
အီ ကွေ
ထိုး စစ်
စာပေ ဆု</w>
တန င်္
le v
ဘဲ ဥ
ကြီးမား သည့်</w>
အဋ္ဌက ထာ</w>
အေဂျင် စီ
W est</w>
s ystem</w>
ပြ ပွဲ
မြ ူ</w>
ကွ န်</w>
နှစ် ထပ်
မိ သည်</w>
သား သည်</w>
နှင့် ဆိုင်သော</w>
လိုက် ရာ</w>
မြောက် လတ္တီ
01 5</w>
01 0</w>
ပျက် ကွက်
သတ်မှတ် ကြသည်</w>
ယခု တိုင်</w>
ရှေ့ တွင်</w>
တေး ရေး
ခန္ ဓာ</w>
ဆည်း ကပ်
သဒ္ ဒ
sh ip</w>
မင်းတရား ကြီး
အကြောင်းအရာ များကို</w>
နှင့်ပတ်သက် ပြီး</w>
ကုန်ကျ စရိတ်
လိုဏ် ဂူ
ဒိဋ္ဌ ိ
S an</w>
n a</w>
ပ ရိယာ
ရ တ်</w>
အ ူး
အ ဘိုး
၇ ဝ</w>
ရွ ေ
ကြ ခြင်း</w>
ဖြစ် ပါက</w>
ရှိ ခဲ့ပြီး</w>
ခွ ါ
ဒေသ တွင်း</w>
ဝန် အဖြစ်</w>
ချုပ် အဖြစ်</w>
01 7</w>
မီး ယား
ဆီ ကို</w>
ပဲခ ူး</w>
ထဲ သို့
သခင် ဗ
ဖာ ရင်
ရုပ်ရှင် သရုပ်ဆောင်</w>
ul ar</w>
ak e</w>
ကမ်းရိုး တန်း</w>
အိုက် ချ
ရှည်လျား သော</w>
ပျမ်း မျှ</w>
မတော် တ
ကထိ က</w>
S k
d r
i tal</w>
။ ”</w>
မျ ာ
ကြ ကာ</w>
ရှိ ခဲ့
ဦး စွာ</w>
နှစ် ယောက်</w>
ဆို ဒ်</w>
သား ဖြစ်သည်</w>
အင် ဒ
တန်း ကို</w>
ခန့် သည်</w>
01 4</w>
ဓာတ် အား
ငါး ဖမ်း
လန် ဒန်</w>
ဖော်ပြ ပါ
ချွ ေး
ဟင်န ရီ
အတ္ထုပ္ပ တ္တိ</w>
ပ သ
ဖြစ် နေသော</w>
ဦး နု</w>
တစ် ဖက်</w>
ခြင်း တွင်</w>
ဆောင် ဖ
ပေး ခဲ့ပြီး</w>
ရန် လည်း</w>
19 00
သံ ပုရာ
တရား မျှတ
လွန် စွာ</w>
al a</w>
သဘော တူ</w>
သမိုင်း ဝင်
ic h
အမျိုးသား ရေး
စေတီ ပုထိုး
၁၈၈ ၆</w>
ဟင်း သီး
အမှန် တကယ်
ဩစတ ေး
မီဒီ ယာ</w>
လန်ဒန် မြို့</w>
စာကြည့် တိုက်</w>
အတ္ထုပ္ပ တ္တိ
တဏ ှာ
P u</w>
s ite</w>
ရ ား</w>
သ လဲ
ဟ ိ</w>
ကြ ပ်</w>
တွ န်</w>
ရှိ သေး
ကို သာ
နှစ် မှ</w>
သူ တို့က</w>
၁၉ ၁၂</w>
ဆက် သွယ်</w>
ချုပ် ကိုင်
an s</w>
တက် လာ
တရား ဥပဒေ
သင် ရိုး
ပြုလုပ် သည်</w>
ဖြစ်လာ ပြီး</w>
လျက် ရှိပြီး</w>
အချက် မှာ</w>
လိုအပ် သည့်</w>
အရောင် မှာ</w>
em ent</w>
ကိုယ်စားလှယ် များ</w>
မတိုင် မီက</w>
မြောင် မြို့နယ်</w>
မဒ ည
ခဲယ ဉ်း
ဇ တ်
ထ ရန်
ရ သော်လည်း</w>
လ ိ</w>
သ တို့
ကျ ိ
မှ ထွက်
နေ ပါသည်</w>
နေ ပူ
တို့ တွင်
ရေ သည်</w>
စစ် သား</w>
သမ ု
ကုန် ပစ္စည်း
ခေ တ္တရာ
လီ နင်
တတ် သော
ဓာတ် ပြား
မေ တ္တာ</w>
ဖွဲ့စည်း ထားသော</w>
သီချင်း များကို</w>
ပလ တ်
အလို အားဖြင့်</w>
ပတ်သက် ပြီး</w>
ထွန်းကား ခဲ့သည်</w>
ဒုံး ပျံ
ဟုန်း ရွာ</w>
ကော်ပိုရေး ရှင်း
ဒေါ်အောင်ဆန်းစု ကြည်
B ot</w>
e an</w>
t ure</w>
ဇ လုပ်
ဓ ူ
ပ န
ရ ပေမည်</w>
ပြ ဆို
ကြ ပေသည်</w>
ချ မ်း</w>
နေ ပြီ</w>
ထို ရဟန်း
ရွှေ ရောင်
တူ ရိယာ</w>
ဆေး ပညာ</w>
စံ ပယ်
ပြုလုပ် ရာတွင်</w>
is e</w>
28 0
29 0
တိုက်ခိုက် ရန်</w>
el ectr
တူညီ သော</w>
ကြို က်</w>
အဆက် ဆက်
ဇာတ်ကား တွင်</w>
မျှော် စင်
သပိတ် ကျင်း
ဒတ် ချ်
ဆိုသူ မှ</w>
Eur op
မဇ္ဈိ မ
c o
ဗ က်</w>
ံ ဖြိုး
နေ သည်ဟု</w>
တစ် နာရီ
ပု လင်း
ဆုံး ဖြစ်သည်</w>
ကျော် သည်</w>
ရရှိ နိုင်သည်</w>
ဝိ တို
al so</w>
ဒေါ် မြ
အလယ် ရွာ</w>
အနာ ဂ
တြ ာ
သဘောတူညီ ချက်
အသေး စိတ်</w>
ကုန်းဘောင် ခေတ်</w>
စကော့ တလန်
ဂျော း
ငြိမ်ဝပ် ပိပြား
အိုက်ချ န်မြို့နယ်</w>
H k
t en
ဂ ွန်
တ ဝိုက်
န ယ
ပ လေး
ဦး က</w>
နိုင် တော့
တစ် သက်
လုပ် သည်</w>
ပညာ ရှိ</w>
ကြား ဖြတ်
ကျော် စော
တံ ခါး</w>
၂၀၀ ၀
အရေး အခင်း
ရုံ မက</w>
ကင်း ဝန်
ခန်း မ</w>
ic an</w>
သဲ ဖြူ</w>
ကွဲပြား သော</w>
အတိုင်း ပင်</w>
ကြယ်စု တန်း</w>
တစိတ် တ
2 29
H o
a k</w>
မ ဆ
ရ ပြန်သည်</w>
အ ဲ့
သွား သဖြင့်</w>
တွင် ရှိသည်</w>
ဆရာ မ
ပေါက် ကုန်းရွာ</w>
အနေ ဖြင့်
မု ဒုံ
လေ့လာ ခဲ့သည်</w>
အကြီး အကဲ</w>
MMR0 1701
ဖြစ်ပေါ် စေ
ဝင်ရောက် လာ
ဘေး မဲ့
တဲ့ အတွက်</w>
အပိုင်း အခြား
ကုလား ရွာ</w>
သံဃာ တော်
ဝေါဟာရ ကို</w>
အကျယ်အဝ န်း</w>
ဗျာ ဒိတ်
အရောက် တွင်</w>
ဟော့ကိုင်းဒိုး ခရိုင်</w>
ဆောင်ဖ မြို့နယ်</w>
ဆ န်းမြို့နယ်</w>
ဟ မ်း
ဖြစ် ကြသော</w>
လာ စေရန်</w>
ရှင် များ</w>
ရွှေ ပန်း
တရား အားထုတ်
ta in
ခြေ လျင်
မန္တလေး မြို့
မိုင် ခန့်</w>
အကျိုး ကို</w>
၂၅ ၀</w>
ဒီဇင် ဘာလ
တိုက်ပွဲ ဝင်
ကျယ်ပြန့် စွာ</w>
ဂုဏ်ထူး ဆောင်
အာပတ် တစ်ခု</w>
ငဖဲ မြို့နယ်</w>
ဇ ူး</w>
ဇ ယား</w>
န မိ
ရှိ သည်ကို</w>
အုပ် ရှစ်
ရေး အဖွဲ့
တောင် ကိုရီးယား</w>
ပေး ရမည်</w>
ခေါင် ရွာ</w>
ကျောင်း များတွင်</w>
ဘော လုံး</w>
မော် ဒယ်
un d</w>
မွန် ရွာ</w>
အဲ လ်
ပုံစံ ဖြင့်</w>
သိပ္ပံ နှင့်</w>
စက်မှု လုပ်ငန်း
ဒြပ် ပေါင်း
ကွပ် မျက်
ဒိုင် အောက်
မြက် ခင်း
တန်ဆာ ဆင်
4 50
ဇ က်</w>
ဇ ော်</w>
ထ ုပ်</w>
ပ ဌ
ဗ ို့
သ ဖွယ်
အ ပါး
နှ ီး</w>
မှ ိုင်း</w>
မှ စတင်</w>
ဖြစ် ရန်</w>
ခဲ့ လေ</w>
ကြီး အဖြစ်</w>
ထား ရန်</w>
ဒေသ ဆိုင်ရာ
အိ ဇု
အာ ရုံ</w>
သည့် အလျောက်</w>
ar a</w>
ခင် ခင်
ပေါက် သည်</w>
အိမ် တွင်</w>
အိမ် တော်
စိတ် ဓာတ်</w>
မီး ဖို
ဆန် သော</w>
ပါတီ ဝင်
ကြေး နီ</w>
သရက် ပင်
၁၉၃ ၃</w>
ဖြစ်ပေါ် လာသော</w>
ကင် ညာ
တူး မြောင်း</w>
ယို ယွင်း
ay a</w>
နှစ်ခု ကို</w>
စန္ဒ ရား
ပြို ကျ
ဒီပ လို
ဒိန်း မတ်
2 20
G l
M is
ဂ က်
တ ကောင်း
ပ လပ်
မ ောက်</w>
မှ အပ</w>
ti v
စာ ရိ
သူ ရိယ</w>
၁၉ ၁၆</w>
အစ ည်
သား တို့သည်</w>
သွား ရသည်</w>
ရုပ် လုံး
ပါဝင် လေသည်</w>
တ္တ ရာ</w>
ခွင့် ရှိသည်</w>
လိ ယ
ကော် ကျေးရွာအုပ်စု</w>
ဂျပန် တို့</w>
တု န်း</w>
ကျယ် ကျယ်ပြန့်
သခင် စိုး</w>
လုပ်ကိုင် သည်</w>
ကင် မွန်း
ရတ ု</w>
တပ်မတော် သည်</w>
ခေါ်ဆို ကြသည်</w>
ဖိတ် ကြား
အခမ်းအနား ကို</w>
တိုင်းစစ် ဌာနချုပ်</w>
ပရိယ တ္တိ
ဂဠု န်
ထ စ်
ယ ယ်
ရ ူး</w>
လ ု</w>
ဝ ဘ်
ျ ာ
ရှ ုရ
တွ ား
နေ ကြ</w>
ုံး ရွာ</w>
နှစ် ရပ်
လက် ရုံး
လက် ခံ</w>
မျိုး ခွဲ
မိ န်</w>
တ္ ထ</w>
ရုပ် သေး
သံ တူ
မြစ် ချောင်း
ကောင် မင်
ရှေး က
ခါ နီး
ကရင် နီ
လှုပ်ရှား မှုများ</w>
ကဲ့သို့ သော
မြို့တော် မှာ</w>
အာရှ တိုက်</w>
စီရင် စု
ap h
သိရှိ ရသည်</w>
တံခွန် တိုင်
စက ုပ်
Bl ack</w>
သင်္ချ ိုင်း
အိမ်နီး ချင်း
ဥပု သ်
3 39
S A
တ ယောက်</w>
ထ ရစ်
ပ ဓာ
ဘ ုတ်</w>
စ် က</w>
ရှ ော်
ကြ တယ်</w>
လူ အများ</w>
ကို မျှ</w>
နှစ် ပါး</w>
လုပ် ရပ်
မျိုး စုံ</w>
ရန် မှာ</w>
လုံး ချင်း
တပ် များက</w>
ထုတ် ပစ်
မည် သူမ
နီ ယမ်</w>
ဘုရား ကို</w>
နွ ဲ
ကျွန်း သည်</w>
မွေး ချင်း
အဝ န်း
ထိုး ဖောက်
ဘုရင် မ
ရစ် ချ
at ur
ဆိုး ကျိုး
တီးဝိုင်း များသည်</w>
လက်ရာ များ</w>
သီဟ သူ
အ မှု</w>
ကြ ပြန်သည်</w>
နေ ရသော</w>
လူ ကြီး</w>
လူ များသည်</w>
တွင် တည်ရှိသည်</w>
ဝန် ထောက်
အသုံး များ
ညီ မ
အစိုးရ အား</w>
မေ ရီ
ရောင် စုံ
ရန်ကုန် တိုင်းဒေသကြီး</w>
il ly</w>
ထုတ်ဝေ သည်</w>
ကျော်ကြား သည်</w>
သတင်းစာ တွင်</w>
ရဲဘော် သုံး
ဆပ် ပြာ
MMR0100 0
အလုပ်သမား များ</w>
Py in</w>
ကုန်းဘောင် ခေတ်
ဘိသိ က်
ကောင်မင် ဆန်းမြို့နယ်</w>
s tit
ဇ ောက်
အ ကြော
ဥ သျှ
စ် ကို</w>
ဖြ ိုး</w>
နိုင် ဘဲ</w>
ပါ ရီ
ကို ကား</w>
တာ က</w>
တောင် သည်</w>
အချ ို
ပေါ် မှာ</w>
18 0</w>
တွေ့ ကြုံ
လမ်း လျှောက်
ခန့် သာ</w>
ပူ း</w>
အကျ ုံး
အမည် နှင့်</w>
ကော သ
ကစား နည်း
တည်ဆောက် ရန်</w>
ချို ရွာ</w>
ဈေး ကွက်</w>
လွယ်ကူ စွာ</w>
ဓန သဟာ
နာယ က</w>
ရေပန်း စား
2 26
3 38
l and</w>
ဂ ဝ
ပ န့်
ဘ ွေ
သ ိုး</w>
အ သာ
ပြ င်း</w>
ရှိ ကြ</w>
လုပ် နည်း
လက် ခ
လှ ိုင်း</w>
တီ ထွင်</w>
သစ် တော</w>
အမည် ပြောင်း
နက် နဲ
စုံ လင်
တစ်ဦး ဖြစ်သူ</w>
သမိုင်း ဝင်</w>
အစား အစာ</w>
ရောဂါ ဖြစ်ပွား
ငါ တို့</w>
အောင်မြင် မှု</w>
မော င့်
အယ် လ်</w>
ဟိ ရ
ယခင် က
ခန့်မှန်း ခြေ</w>
အနိုင် ရရှိ
ကျော ရိုး
စည်းရုံး ရေး
တြိ ဂံ
% )</w>
L ay</w>
c ar
f ic
o o</w>
p re
တ င့်</w>
ဘ ု</w>
အ သွေး
ချ န်</w>
မြို့ ကို
ရွာ သို့</w>
တစ် ဖွဲ့
တစ် ကြောင်း</w>
ထို က်</w>
ခြင်း အား</w>
ပုံ ပြင်</w>
ပေ ပြီ</w>
သီ ကုံး
ဒေါ ်</w>
ဓာတ် ခွဲခ
ငါး နှစ်
ထက် ဝက်
နို ဘယ်
ပစ္စည်း ကို</w>
26 0
ဆု ပေး
တေး သံ
ပရိ နိဗ္ဗာန်
ရည်ရွယ် ချက်မှာ</w>
အစု အဝေး
အာနန္ဒ ာ
ဟန်ဂေ ရီ
ဟင်းသီး ဟင်း
3 26
D S</w>
l l</w>
n ot</w>
က လျာ
စ ို့</w>
န ိတ်
လ ုတ်
ကျ သည့်</w>
တို့ တွင်လည်း</w>
လာ သော
လျ ောင်း
နှစ် သစ်
သူ များတွင်</w>
လက် တွေ့</w>
သည် း</w>
ဂျ မ်း
အား ထား
သုံး ယောက်
ထုတ် ဝေ</w>
ကြား သိ
in e
ပါဝင် ခဲ့ပြီး</w>
အဖြစ် ကို</w>
20 21</w>
တစ်ဦး တစ်ယောက်
လှုပ် ရှား</w>
40 0</w>
တယ် ပင်
သိမ် မွေ့
ပထမဆုံး အကြိမ်</w>
Sh we</w>
တိုက်ပွဲ တွင်</w>
ဖြာ ထွက်
We b</w>
လုံ့ လ
တစ်ခုနှင့် တစ်ခု</w>
အောက်စ ဖို့
မိုင်းဖျ န်မြို့နယ်</w>
S erv
f er
က ရိ
ဒ ရာ
ဝ ရ</w>
ဥ တု
မျ က်</w>
အုပ် ချုပ်</w>
တို့ ကဲ့သို့</w>
ရေ ကန်</w>
၁၉ ၂၆</w>
ခြင်း ဟု</w>
ခြင်း ဖြစ်ပြီး</w>
ရိ ဘူတာ</w>
ရှမ်း စုရွာ</w>
မည် သို့</w>
တစ်ခု ခု</w>
နတ် စင်
ငွေ ကို</w>
ငွေ ရေး
မြှ ောက်</w>
မြန်မာနိုင်ငံ တော်
ဆန် သည်</w>
သာသနာ ပြု</w>
ဝှ က်</w>
ဆည် မြောင်း
ဆရာတော် ကြီး</w>
ပရိ သတ်</w>
201 0</w>
နမ် ခမ်း
ပျဉ်းမ နား
ထင်း ရှူး
အဝါ ရောင်
မော်လိုက် မြို့နယ်</w>
ပဏ္ဍ ိတ</w>
ကော့သောင်း မြို့နယ်</w>
လတ္တ ံ့</w>
ကုဋ ေ
h t
ဃ ော
၀ ဝ</w>
ကျ င့်</w>
ရေ လယ်
နှစ် ဘက်
သူ လည်း</w>
ဂျ ေ</w>
စေ ကာ</w>
အင် ဒီ
မြောက် ပိုင်းတွင်</w>
င်္ဂ ါ
ဘုရား လောင်း
ပေါင်း စပ်</w>
တို သည်</w>
က္ခ ိ
မီး ရထား</w>
ငွေ စက္ကူ
တီး ရီးယား
သဘော ထား</w>
is t
စာအုပ် များကို</w>
ကရင် အမျိုးသား
ပင်လယ် ကွေ့
ဖြေ ကြား
အကျိုး ဆက်
ဆန်း စစ်
ယွ န်</w>
နိုင်ငံတော် သမ္မတ
၃၅ ၀</w>
ul a
လက်အောက် သို့</w>
ပင်း ယ
လူသား တို့</w>
ဇော တိ
tern ative</w>
အီလက်ထ ရော
သနပ် ခါး
အတိ အကျ
နမ်ခမ်း ဝ
4 36
m y
ဇ ဉ်
န ခ
အ ကန့်
ကြ ိုင်
do m</w>
နေ သူ</w>
နေ ပြီ
ရှိ မ
ရေး ဝန်ကြီးဌာန</w>
ကို ကို
တော် မှ</w>
ထို နေရာ
ပေး ဆောင်
စေ း</w>
အခ ဲ</w>
ပုံ တူ
မှတ် မိ
ပေ ပင်
မြေ နိမ့်
တစ်ခု လုံးကို</w>
ဆေး ဘက်
မီး သွေး</w>
ဓာတ် ပြု
ကော် ကျေးရွာအုပ်စုတွင်</w>
ရှေး ရိုး
လန် ရွာ</w>
ကင်း ရှင်း
ဗာ ရာ
မိန့် ကြား
ဂီတ ကို</w>
ဂွ မ်း
နာမည် ကျော်
ပြာ သာဒ်
oc al</w>
ရိုက်ကူး ခဲ့သည်</w>
ဗွ ီ</w>
ကျယ်ပြန့် သော</w>
por t</w>
gh t</w>
ဂြိုဟ်ရံ လ</w>
ဖောင်ဒေး ရှင်း
ပုပ္ဖ ိယထေရ်</w>
2 27
R es
စ ိုင်း</w>
ဇ ယ
ပ လူ
၈ ၈
များ တွင်မူ</w>
လှ သည့်</w>
တာ ဝ
လေး ခု
ပေါ် ရွာ</w>
နယ် ပယ်</w>
တစ်ခု ဖြစ်</w>
အခြေ ပြု</w>
ဒု က္ခ</w>
ဘီ ယာ</w>
25 1</w>
ပျက် စီး</w>
ညွှ တ်
ဂေါ တ
ခရီး ထွက်
ပြေး ဆွဲ
os e</w>
ခံစား ရ
ခြင်းမရှိ ဘဲ</w>
ဆူး လေ
ပစ္စ ယော</w>
ကမ္ဘောဒ ီးယား</w>
ပရိတ် သတ်
3 24
4 26
4 48
G ener
U N
s te
z h
ခ ရာ
ခ စား
ဇ ိုး
ပ ရမ
ဖ လော်
ကျ ုပ်
ကု ရ်
တစ် ချောင်း
ုရ င်
အား ကောင်း
အား လပ်
ပါး သော</w>
ကျော် စွာ</w>
နွ ံ
ရင် ဖန့်
အုပ်ချုပ် သည်</w>
25 3</w>
ဂု ံ</w>
လွတ်လပ် စွာ
ati ng</w>
ဖား ဆောင်း
ပြတ် သား
အီလက်ထ ရွန်း
ချောင်းဆုံ မြို့နယ်</w>
d es
ဂ င်း
ပ ရဟ
ဘ ရောက်
မျ ူ
မှ င်
နိုင် း</w>
စာ တိုက်
ဖွ ံဖြိုး
သော တာ
ပိုင်း ရွာ</w>
ထောင် ဒဏ်
ဘက် က</w>
သီး သန့်</w>
ပြည့် ရှင်</w>
ထဲ တွင်
စတင် ခဲ့ပြီး</w>
တော်မူ ရာ</w>
ကျင် လည်
13 6
တာဝန် ခံ</w>
အဆင့် မြင့်</w>
ol d</w>
တည်ထောင် ခဲ့ပြီး</w>
ကွာ ရှင်း
လျှပ် စီး
သန် လျင်
မင် တန်
သဘာဝ ပတ်ဝန်းကျင်
ကလ ောင်</w>
အုန်း ပင်
လှပ သော</w>
အရှင်မြတ် သည်</w>
ဟိမဝ န္တာ
ပိုးသတ် ဆေး
B u
T w
a ter</w>
စ တူ
ဖ ုံး</w>
ဗ ား</w>
ရ န်း
လ ောင်</w>
ဤ တွင်</w>
ရှိ လျှင်</w>
ခြ ုံ</w>
သေ န
ဦး သန်း
တို့ အကြား</w>
ပြည် သူများ</w>
နှစ် ဆယ်
လေ ရှီး
မှု ရှိသည်</w>
မျိုး ဆက်</w>
ပြု စု</w>
နိုင်ငံ က</w>
ဂျ က်</w>
ဒေသ ဆိုင်ရာ</w>
ကာ တာ</w>
သည့် အချိန်
ပတ် လမ်း
မျှ ဝေ
ကွန် ရက်</w>
ရက်နေ့ က</w>
၁၉၆ ၀
ခဲ့ကြ သော်လည်း</w>
နှုန်း မှာ</w>
ပွင့် သည်</w>
လိမ့် မယ်</w>
ဇေ ယျာ
မဏ ိ</w>
သရေ ခေတ္တရာ
သာဝ က
ငွေရေး ကြေး
S S</w>
u l</w>
မ လေး</w>
၈ ၀၀</w>
တစ် ချက်
သာ ဝတ္ထ
တိုင်း သည်</w>
တိုင်း ကို</w>
မင်း အား</w>
လေး ထောင့်
ခေါ် ဆိုသည်</w>
ကမ္ဘာ မှ</w>
န္ဒ ာ
ရက်နေ့ မှစ</w>
အနောက် တောင်
အနောက် ဖက်
ရဟန်း ပြု
ကြိုး ကြာ
သရက် တောရွာ</w>
အမြင့် ပေ</w>
သေဆုံး ခဲ့သည်</w>
ဦးဆောင် သည့်</w>
ညီညွတ် ရေး</w>
နှောင်း ပိုင်းတွင်</w>
ယာမ ဘူတာ</w>
စက္က န့်
အလွယ် တကူ
Chin ese</w>
သဲကန္တာ ရ
နမ်ခမ်းဝ ူးမြို့နယ်</w>
ရင်ဖန့် မြို့နယ်</w>
B C</w>
L i
p y
က ုံ
တ ဘက်
မ ဖြစ်</w>
လ သည်</w>
သ ဟ
သ ပိတ်</w>
၅ ၄
၆ ၇
ချ ို့</w>
ဖြစ် တတ်သည်</w>
ဦး စိုး
နိုင် စွမ်း</w>
တစ် ရက်
လူ နာ</w>
သူ ဖြစ်</w>
ထား သည်
ဒေ း</w>
တိုင်း သူ
တင် ခဲ့သည်</w>
ပြီး သည့်</w>
17 9</w>
လည်း ဖြစ်</w>
အဆ စ်
ခန့် အထိ</w>
ခွဲ ခြမ်း
20 6</w>
အရေး အသား</w>
ရောင် ခြင်း</w>
ဂီ တာ
ကြည့် မှန်
လွယ် ရွာ</w>
လေ့လာ မှု
ပင်လယ် အော်
22 5</w>
pro gr
အများအပြား ကို</w>
we b
ကိုလံ ဘို
သယ်ယူပို့ဆောင် ရေး</w>
စင်္ ကာ
4 49
S al
V i
တ ဆင့်
တ ခြား</w>
သ ိုက်</w>
အ ီ</w>
အ န်</w>
အ ဖေ
အ နှောင့်
ဖြစ် မြောက်
စု စည်း</w>
ဦး ချို
သော သူ</w>
ဂျ ုံ</w>
လေး များ</w>
18 1</w>
18 2</w>
18 8</w>
ရွှေ ဘုံ
ကျောင်း တော်ကို</w>
သက် ကြီး
လိုက် လျော
ိန်း ရွာ</w>
သု ည
အင်း ကျေးရွာအုပ်စုတွင်</w>
ol k</w>
Ch ris
ကိစ္စ များကို</w>
လွှတ်တော် တွင်</w>
ri s</w>
အများစု ကို</w>
com m
မြစ်ကြီးနား မြို့နယ်</w>
နို့ တိုက်
နျ ူး
ဒဿ နိက
Uni ted</w>
MMR007 01
3 28
ပ င်း</w>
ဗ လာ
မ သုံး
ယ ီ</w>
၂ ခုနှစ်</w>
မှ စကာ</w>
နိုင် မည်
စာ စောင်</w>
၂၀ ၂၀
သူ ့</w>
သူ တို့အား</w>
လက် ရေး
သည် ပင်</w>
အန န္တ
ပေး ကြသည်</w>
19 2</w>
ဆင် မ
အောက် မေ့
ရုပ် နာမ်
သံ တွဲ
ဘာသာ ဝင်
စကား သည်</w>
ညွ န်
ထဲ ရှိ</w>
နက် ဗျူ
တစ်ဦး နှင့်</w>
သတ္တ ိ</w>
ချီး မြှောက်
၃၀ ၀၀</w>
ဘုန်း တော်ကြီး</w>
ter s</w>
ဩဂုတ် လ
အဖွဲ့ဝင် များ</w>
ig n</w>
ဒိ န်</w>
ဆန့်ကျင် ရေး
လူငယ် များ</w>
အလောင်း စည်သူ
ခံခဲ့ရ ပြီး</w>
တစ်နိုင်ငံ လုံး
ဘရူ နိုင်း
angu age</w>
A t
O p
b in</w>
f e
p ost</w>
က ဒူး
ဗ လ</w>
၃ ဝဝ</w>
ပြ ိ
ပါ မည်</w>
တစ် စီး
တော် မှာ</w>
မိ ဿ
ခံ ကာ</w>
အထ ိန်း
သိ က္ခာ</w>
စေ ဘဲ</w>
အာ သံ
15 2</w>
17 7</w>
ပညာ နှင့်</w>
18 4</w>
ကြား နေ
အောင် ချမ်းသာရွာ</w>
သံ ချို</w>
ပါး ကို</w>
အုပ်ချုပ် သော</w>
ရေးသား ခြင်း</w>
မြန်မာနိုင်ငံ မှ</w>
မဟုတ် ပဲ</w>
အလယ် ပိုင်းတွင်</w>
36 5</w>
ဥက္က လာ
အလျ ောက်
၃၀ ၈</w>
ဘာသာစကား ဖြင့်</w>
လှည့် လည်</w>
ဂဏ န်း</w>
စူ ဠ
ဝေဒ နာ</w>
ဝင်ရိုး စွန်း
မြေထဲ ပင်လယ်
ubl ic</w>
ဝတ္ တရား
4 24
c r
i m</w>
l ine</w>
င ရ
မ နက်
မ လိုအပ်
ရ မ်</w>
အ ကြီး</w>
အ ဓမ္မ
ဦး မြင့်
တစ် စ</w>
လည် ပင်း
ကြီး ဖြစ်သည်</w>
တပ် မ</w>
တစ်ခု ဖြစ်သည့်</w>
ဘွ န်
ရိုး ရှင်း
ကျွန်း များ</w>
၂၀၀ ၉
မျှ ား
မော် လီ
ပြုလုပ် ထားသည်</w>
20 8</w>
အချို့ တွင်</w>
၁၉၈ ၀
34 0</w>
အချက် များ</w>
အကျိုး ခံစား
ယုံကြည် မှု</w>
ဘာသာစကား များ</w>
ကုမ္ပဏီ သည်</w>
70150 6</w>
လျော့ ကျ
ing s</w>
လွှဲ အပ်
ပဋိ သန္ဓေ
ပါဠိ တော်</w>
တွေး ခေါ်
နောက်ဆက် တွဲ
အနိစ္စ ရောက်
Bud dh
oog le</w>
သံတူ ကြောင်း
2 14
4 34
p res
န ဖူး
ဘ ရစ်
မ ချိ</w>
အ ညံ့
များ အနေဖြင့်</w>
ခြင်း ငှါ</w>
15 00
ဆက် တိုက်</w>
ကန် တော်
လမ်း ခရီး
စက် ကို</w>
မြင် တွေ့
ဏ် း</w>
ညီ တော်</w>
လိ မ့်</w>
တန် ဆာ</w>
13 5
re d</w>
မေ တြ
am a</w>
ညှ စ်
ညှ ိုး
ပူး တွဲ</w>
အဓိက ရု
ဘား မား</w>
တိမ်ကောသွား ခဲ့သည်</w>
ဇင်း မယ်
ဖွင့်လှ စ်</w>
တစ်ယောက် သည်</w>
အမိန့် ကြော်ငြာ
form ula
ခန့်မှန်း ခြေ
အိမ်ထောင် စု</w>
ဧရာဝတီ မြစ်</w>
MMR008 01
ကြာသပ တေး
formula _
- ၊</w>
D es
E m
k a</w>
ဇ ီ</w>
ဒ ဘူတာ</w>
မ ယား</w>
ယ န္
အ သွင်</w>
ပြ က်
ရာ ရွာ</w>
ခြ င်</w>
စု ကျေးရွာအုပ်စုတွင်</w>
ကြီး များနှင့်</w>
တော ကြီးရွာ</w>
ထား ကြောင်း</w>
တောင် တက်
အိ ပ်</w>
အာ ယ
အောင် ပင်</w>
မည် ဆိုပါက</w>
ပိုင် နက်
ဖျ င်
ပြုလုပ် သည့်</w>
မျက် စိ</w>
20 7</w>
ဘီ အေ
မွေး သည်</w>
30 3</w>
am y
အလွန် အ
Ch ar
တဲ့ အခါ</w>
အယူ အဆ</w>
11 0</w>
ဆွေး နွေး</w>
လူ့ အဖွဲ့အစည်း
ချော း
လျက်ရှိ ရာ</w>
ဓား ပြ
ov er</w>
စွယ်စုံ ကျမ်း</w>
သွတ် သွင်း
သူနာ ပြု
] ]
e a</w>
န နွ
ဘ ို့</w>
သ ိုလ
ခဲ့ ပြီ</w>
တစ် နှစ်</w>
လုပ် ပိုင်ခွင့်</w>
ယူ နစ်
လို ရာ
19 0</w>
တိုက် မှ</w>
16 0</w>
ပြင် ကျေးရွာအုပ်စု</w>
သစ် ဆိမ့်
နေ့ ကို</w>
နောက် ကျ
th a</w>
ငြ ီး
မြင့် မြတ်
ဆိပ် ကမ်း</w>
27 0</w>
အခြေခံ ပညာ
စိန် ခေါ်
အသံ ကို</w>
ဘေး တွင်</w>
စက်တင် ဘာလ
ပြည်သူ တို့</w>
ဘုန်း တော်
အနည်းငယ် သာ</w>
မွှ ေး</w>
အကျဉ်း ထောင်
အဖြူ ရောင်</w>
စက္က ူ</w>
မြဝတီ မြို့နယ်</w>
အထောက် အထား</w>
မိုးလေဝ သ
A T
ဗ ူ
အ ပစ်
ကြ က်</w>
ကြ သေးသည်</w>
တွ က်</w>
လာ ပြီးနောက်</w>
လုပ် ထုံး
စစ် ကြောင်း
တောင် အာဖရိက
ကုန်း တွင်း
15 1</w>
ပြီး မြောက်
17 6</w>
or d</w>
သေး ပါ</w>
ဖွဲ့စည်း အုပ်ချုပ်
25 7</w>
ရဟန်း တော်
ထိ န်း</w>
စနစ် တွင်</w>
ီးယား နိုင်ငံ</w>
အမြ ဲ</w>
သင့် ကြောင်း</w>
မြို့နယ် အတွင်း</w>
ယုံ ကြည်</w>
12 6</w>
အောက်တို ဘာလ
ဖြစ်ပွား သော</w>
ad a</w>
သစ်တော များ</w>
များဖြစ် ကြသော</w>
ရွတ် ဆို
အထင် အရှ
မီလီ ယံ</w>
Kyauk p
ဂယ်လက်ဆီ ဖြစ်ပြီး</w>
ဂျော် ဂျီ
ဆဋ္ဌ မ
ရွာတစ် ရွာ</w>
သံတူကြောင်း ကွဲ</w>
2 24
3 29
C al
H s
K ar
L in
b ur
မှ ီး
မြို့ တွင်
ကြီး လေး
သွ ေ
လက် ဖြင့်</w>
ထို အပင်
ပုံ သေ
သုံး သော</w>
ကိုယ် ခံ
ပန် ခ
ညီ တော်
လား ဟူ</w>
ဟာ ရသည်</w>
ကြွ ရောက်
လောက် က</w>
များကို ပင်</w>
များကို လည်းကောင်း</w>
တိုက်ခိုက် ခဲ့သည်</w>
us ter</w>
ဖု ံ</w>
11 7</w>
ချွ န်း
စီမံကိန်း ကို</w>
Kyauk ta
အသင် တို့သည်</w>
ရှီးမား ခရိုင်</w>
ဆယ်စု နှစ်
ခိယ သိက္ခာပုဒ်</w>
C O
I D</w>
က သည်း
ဇ ား
န ပိုလီ
မ တော်</w>
မ ပါ</w>
အ ယ
တစ် မြို့
လာ ခဲ့</w>
ရေ အိုင်
လျ ာ</w>
လျ ို
သာ ရှိသည်</w>
လုပ် ရန်</w>
ထို အချိန်</w>
တောင် ငူ</w>
တိုင်း ရွာ</w>
ဒေသ များကို</w>
လေး နှစ်
ပွဲ များကို</w>
ပွဲ စဉ်
နည်း သော</w>
ပြော ခဲ့သည်</w>
တန် ဆောင်း
ရိုက် ခတ်
ခံရ လေသည်</w>
အေ ဝမ်း
မြင်း စီး
us t</w>
အာဏာ ပိုင်</w>
သင်ကြား ပို့ချ
Ch an</w>
ဇ္ ဈာ
ဖြစ်စေ သော</w>
ငြင်း ဆို
ဒွ န်း
ဧရိယာ မှာ</w>
သဘောတူညီ ချက်</w>
သက်သေ ပြ
လက်ဖက် ရည်
အစိမ်း ရောင်
hard core</w>
4 29
4 39
d ro
o s</w>
ဇ ော</w>
ဏ ီ</w>
မ ကင်း
မ အဲဘူတာ</w>
အ ခြင်း
၁ ၁၃</w>
များ သို့
ဦး စွာ
ကု ပ်</w>
တစ် ဘက်
၁၉ ၁၅</w>
ဘာ လင်
သား နှင့်</w>
ပျ င်း
ရက် သတ္တ
19 1</w>
အလ င်္
မန် ချူး
20 5</w>
အရှေ့ လောင်ဂျီ
ဌာန များ</w>
စင် တာ</w>
am es</w>
24 0
ရှေ့ တန်း
ut o</w>
ဖု ဂျိ
le t</w>
ထိုသို့ သော</w>
အဘယ် ကြောင့်</w>
ပုပ် ရဟန်း
အချက်အချ ာ
အာဇာန ည်
သာဝတ္ထ ိ
U TC</w>
f ac
s ol
သ န္
အ ပေါင်း</w>
၆ ၈
နေ သောကြောင့်</w>
တစ် ရွာ
၁၉ ၀၀</w>
လက် ဆက်
လှ ကျေးရွာအုပ်စု</w>
တာ နှင့်</w>
တာ ပဲ</w>
၂၀၁ ၆
အန ာ</w>
ပေး ခဲ့</w>
ပေး ခဲ့ခြင်း</w>
ပေါ် ပေါက်</w>
အကြ ည်
19 3</w>
16 3</w>
10 9</w>
၁၆ ၀</w>
or s</w>
တတ် ပြီး</w>
ထင် ပေါ်
မြင့် မြင့်
ညွ န်း
မဟာ မိတ်</w>
အနောက် ပိုင်း</w>
မု ံ</w>
အလုပ် ရုံ
ပြား ရွာ</w>
တွေ့ရှိ ရပါသည်</w>
အဓိက ထား</w>
ခရစ် တော်
ယု န်</w>
ဇူလိုင် လ
သတ္တဝါ တို့</w>
သရ ဖူ
ဧရာ ဝတီ</w>
ခြင်းမရှိ ပေ</w>
ဗုဒ္ဓဘာသာ ဝင်
ဖီ ဂျီ
သင်တန်း များ</w>
အဓိပ္ပါယ် မှာ</w>
အဘ ယ့်
ဘိက္ခု နီ
မြေဆီ လွှာ
Afr ica</w>
3 34
B i
P al
c o</w>
p ower</w>
က မှ</w>
ဇ ုံ
ဓ ဓ
ဘ ယ်</w>
မ တက်
သ လား</w>
နိုင် ပါ
ပါ လက်
မျိုး နှင့်</w>
ဆို သလို</w>
ပြု ရန်</w>
လှ ချေ</w>
မြန်မာ စာပေ
လွှ ား</w>
သက် သက်</w>
ခင် ရွာ</w>
လိ မ္မာ
en d</w>
မြတ် စွာ</w>
မို က်</w>
ပြည့် စုံ</w>
အရာ ရောက်
25 5</w>
ဆန် ရွာ</w>
ဝေါ ့
စေတီ တော်သည်</w>
လစ် ဘ
အမှု န့်
12 0</w>
ဖမ်း ဆီး</w>
22 9</w>
မြိုင် ရွာ</w>
ထိပ် ဆုံး
ဖွံ့ဖြိုး ရေး</w>
op h
ဒိုင် ယာ
လက်ထ ောက်</w>
သာစည် ရွာ</w>
ဒေါင့် ကြီး</w>
ဗုံး ကြဲ
o x
က ရို
ဂ တ
ပ ဏာ
ဟ ိုလ
ကြ ပြီးလျှင်</w>
ခဲ့ ရာတွင်</w>
ကျေးရွာအုပ် စု
လာ သည်ကို</w>
ဘာ လူ
သိ န်
15 4</w>
ထွက် သွား
ကျွန်း နှင့်</w>
နတ် ဘုရား</w>
ရဲ တိုက်
20 9</w>
20 2</w>
ဝိ နိ
ဂု ဏ်</w>
ဘဝ က</w>
35 1</w>
တိုးတက် မှု
ဝတ္ထု များ</w>
အကျိုး အမြတ်
ဘူတာ ရုံ
ဖေါ က်
ik e</w>
အစော ဆုံး
ပတ်သက် သည့်</w>
ယန် ကျေးရွာအုပ်စု</w>
oun d
ထိုက် သော</w>
ခပ် သိမ်း
ဆယ့် နှစ်
မဏိ ပူရ
ဗက ပ</w>
ကျောင်းတော် တစ်ခု</w>
ဟင်န ရီ</w>
Sch ool</w>
ယူနက် စကို</w>
သပိတ်ကျင်း မြို့နယ်</w>
ကုရ် အာ
F i
ခ ုံး</w>
ဒ ရယ်
ဟ ိတ်
င်း တွင်</w>
မြ စိမ်း
ီး ကျေးရွာအုပ်စု</w>
များ မှာ
ဖြစ် သည်ဟု
ရာ မ</w>
ထို ကဲ့သို့သော</w>
ဝါ ရွာ</w>
အာ ဂျင်
15 9</w>
17 0</w>
16 9</w>
မြေ ကို</w>
မြေ ယာ
မြင် ကွင်း
အရ င်း</w>
အင်္ဂ တေ
ကျင်း ကျေးရွာအုပ်စု</w>
30 2</w>
25 2</w>
24 2</w>
အဆင့် တွင်</w>
ပြေ ငြိမ်း
ကြက် ခြေ
မြတ်စွာဘုရား ဟောကြား
ခွင့်ပြု ချက်
အဆက် အနွယ်
သခွ တ်
ယူနိုက်တက် ကင်းဒ
0x 100
ပါစိတ် အာပတ်တစ်ခု</w>
3 37
P ang
က ဏ
ဇ ဝ
ဇ ံ</w>
တ ပည
ဖ ရုံ
မ ပြေ
ယ မ
သ ကဲ့သို့
၇ ၅
သား များက</w>
ဝင် ခဲ့သည်</w>
မြန်မာ ဘာသာ
15 8</w>
17 1</w>
18 5</w>
16 5</w>
16 8</w>
အရ ိုက်
ကမ္ဘာ တ
မို ရ်
အရှေ့ တိုင်း
အချိန် မှာ</w>
ကိ န္န
ကင်း ရွာ</w>
ထွန်း သည်</w>
အလယ် စုရွာ</w>
36 7</w>
39 8</w>
အေ သင်
35 5</w>
ဝတ် စား
အင်္ဂလိပ် တို့</w>
11 5</w>
ဆုံးဖြတ် ချက်</w>
အမျိုးအစား များ</w>
ကနေဒါ နိုင်ငံ</w>
Maw l
တိုင်းသူ ပြည်
E 1</w>
ဘ လော့
ရ မ်း</w>
ကြ ပါ</w>
တွ ံ
မြို့ ဝန်
တစ် ခါ</w>
ဆို ပါသည်</w>
တောင် သို့</w>
လေး မျက်နှာ
ယူ ရေး
15 99
17 26
17 49
17 59
17 99
17 88
19 58
19 88
18 7</w>
18 26
16 68
16 69
သစ် စေး
an s
အောက် ရှိ</w>
လမ်း နှင့်</w>
မြေ မျက်နှာ
en n
အခြေ ပြု
ရာဇ ဂြိုဟ်
ဖြင့် ဖြစ်စေ</w>
25 4</w>
ကင်း မဲ့
ရန်ကုန် တက္ကသိုလ်
27 3</w>
36 6</w>
38 8</w>
အဆင့် သို့</w>
35 0</w>
စေတီ ကို</w>
ကယ် လ
ကြောင့် ပင်</w>
တန ိုင်း
ဆရာတော် ကို</w>
စီးပွားရေး နှင့်</w>
ငြင်း ဆန်
အင်္ဂလန် ပြည်</w>
ဒါယ ကာ
စာမေး ပွဲကို</w>
သူတော် ကောင်း
ကဿ ပ
အလုပ်အ ကိုင်
မဘ ိမ်း
အခွင့်အလ မ်း
လေရှီး မြို့နယ်</w>
တပည ့်</w>
4 38
H er
တ ရက်
တ ပင်ရွာ</w>
ထ ရွ
ဒ င်း</w>
ဘ ီး</w>
ယ ဇ်
၆ ၉
ရွာ တန်း
တို့ အပြင်</w>
နေရာ နှင့်</w>
သည် က</w>
စစ် ထုတ်
ပေး ပါ</w>
15 13
17 4</w>
17 79
18 28
ထောင် ဒဏ်</w>
ပါဝင် ဆောင်ရွက်
ယင်း နောက်</w>
ဆေး လိပ်
ခိုင် ခံ့
ထက် ပင်</w>
27 9</w>
ဖြစ်ပေါ် လာသည်</w>
မှုများ အတွက်</w>
နိုင်ငံတော် သမ္မတ</w>
ပြည်သူ လူထု</w>
ဖုရ ား
ရေးဆွဲ ခဲ့သည်</w>
ရိုက်ကူး သော</w>
လတ် တ
လူသိ များသော</w>
ဖခင် မှာ</w>
ဟိုင်း ရွာ</w>
အရေးတော် ပုံ</w>
စုပ် ယူ
စာဖြူ စုရွာ</w>
ဝီလီ ယံ</w>
ဘာလူ စကို
M r
M at
မ မူ
၂ ဝဝဝ</w>
၃ ၁
ဖြစ် ကြပြီး</w>
မြို့ သို့
ပေး သနား
ကာ ကွယ်</w>
ပု လိပ်
ပုံ ပန်း
15 29
17 8</w>
17 24
17 58
19 8</w>
19 34
18 39
18 48
16 1</w>
16 7</w>
16 39
16 49
16 59
16 78
အရ ည်</w>
10 3</w>
ဆီ လီ
မဟာ ဗောဓိ
စင် ရွာ</w>
သဘော ကျ
ပြိုင် ဘက်
ဒုတိယ မြောက်
ပျိုး ထောင်
အဲ ဒီ</w>
အရပ် သို့</w>
အကျိုး ရှိ
11 3</w>
ဆိုက် ရောက်
ကတည်း ကပင်</w>
ဒါယ ကာ</w>
အတွေး အခေါ်</w>
ဟားခါး မြို့နယ်</w>
ဗီတာ မင်
ဇေတ ဝန်
3 36
4 13
P ri
R ock</w>
a j
ရ ိုင်း</w>
ဝ ်</w>
အ ဟောင်း
ရှ ေ
ဆို တော့</w>
စစ် မက်
အာ သာ
15 88
တပ် ဦး
18 49
16 2</w>
သုံး ပါး</w>
ကိုယ် ကို</w>
ပွဲ များတွင်</w>
14 6</w>
ဟု လည်းကောင်း</w>
နွ န်
25 6</w>
25 9</w>
ပြန်လည် ထူထောင်
11 9</w>
si ve</w>
ကြို ဆို
စတုရ န်း</w>
ig h</w>
ပြဋ္ဌာန်း ချက်
လွတ်မြောက် ရေး
ကြောက် မက်
ov ern
သမာ ဓိ</w>
bl ack</w>
ဗိသု ကာ</w>
နှောင့် ယှက်
တျ ာ
မသန် စွမ်း
4 45
Y ae</w>
d er
u es</w>
ရ ရန်</w>
အ ပိုင်
င်း မှာ</w>
ရှ န်း</w>
နှ ော</w>
နေ သော်လည်း</w>
သား ငယ်
ခံ နေရ
မင်း ကွန်း
17 29
17 48
17 78
ကျွ တ်</w>
19 39
19 79
18 34
18 68
18 79
18 99
18 88
16 6</w>
16 79
16 99
ပိုင်း သည်</w>
20 4</w>
70 0</w>
28 4</w>
အကျိုး ကျေးဇူး
12 4</w>
11 6</w>
si s</w>
ချေ ရွာ</w>
ယနေ့ ခေတ်
အမှုထမ်း ခဲ့သည်</w>
လိုလ ို</w>
တင်ပို့ ရောင်းချ
မိုးမိတ် ခရိုင်</w>
ပုပ္ ပါး
စ္ဆ ေ
နှင့်ပတ်သက် သော</w>
wor k</w>
Mus ic</w>
s ing
က ရက်
တ ဖန်
ယ တန
၇ ၉
ခု ရှိသည်</w>
လူ သား</w>
လူ ပျို
ရေ လဲ
လေ ကြောင်း</w>
၁၉ ၃</w>
နိုင်ငံ များသည်</w>
စစ် မှန်
တိ ဘက်
သန်း ပေါင်း</w>
17 5</w>
19 7</w>
19 68
16 4</w>
16 48
နည်း ဥပဒေ</w>
14 5</w>
14 7</w>
ငယ် မည်မှာ</w>
အုပ်ချုပ် ခဲ့သည်</w>
ဘီ လျံ
ဘီ လူး</w>
စွဲ လမ်း
25 8</w>
ကြည့် ပါ</w>
24 8</w>
36 0</w>
ရောဂါ သည်</w>
သာသနာ ပိုင်
ကာကွယ် ဆေး</w>
ကြောင့် ဖြစ်သည်</w>
အင်္ဂလိပ် စာ
ဇီး ကုန်းရွာ</w>
11 4</w>
ထိန်းသိမ်း ထား
လူ့ အခွင့်အရေး</w>
မဖြစ် နိုင်
အစီအစဉ် ကို</w>
လျော့ ချ
မပါ ဘဲ</w>
သွန် သင်
ဟိဂ ရှိ
သုတ္တန် တစ်ခု</w>
သာဓ က
ရုပ်မြင်သံ ကြား</w>
serv er</w>
အာဖဂ န်န
အနှောင့် အ
အာဂျင် တီး
B ill
P re
W ar</w>
Z ay</w>
b r
v i
ခ န
ဘ င်</w>
ယ ိ
လ တာ
သ ကြား</w>
အ ဖွင့်
ှ ာ</w>
မြ ေ့
ဖြစ် ရမည်</w>
ခဲ့ သည့်အတွက်</w>
ဖွ ေး
မျိုး ဖြင့်</w>
ပြု န်း
စေ မည့်</w>
ပု တ်</w>
15 34
15 59
17 34
18 3</w>
18 38
18 59
16 38
နေ့ ရက်
ရုပ် ကြွင်း
14 2</w>
လီ မိ
ဟု ပင်</w>
ကမ္ဘာ ကျော်</w>
စတ ိုင်
နန်း စံ
သီး သည်</w>
ခွဲ ထုတ်
ငါး ဆယ်
အချိန် ကာလ</w>
အမှ ိုက်
တော့ မည်</w>
ဘွဲ့ နှင့်</w>
28 0</w>
24 0</w>
29 7</w>
အောင်မြင် သည်</w>
ကျွန် တော
တမ ူးမြို့နယ်</w>
၁၈၈ ၄</w>
သွားရောက် ခဲ့သည်</w>
လတ် သော်</w>
သက်ရောက် မှု</w>
ဗြဟ္ မာ</w>
ဒေါက်တာ ဘ
အစည်းအဝေး တွင်</w>
ကျွေး မွေး
ကျေးလက် ကျန်းမာရေး
ကျဉ်း မြောင်း
ဘုရင်မင်း မြတ်
အလုပ်အ ကိုင်</w>
ပေါ်လ စီ
ဧတဒ ဂ်
ရွ ဲ
သည် များ</w>
အန ံ</w>
စစ် ချီ
တိ ဿ
အခ ံ</w>
15 3</w>
15 68
17 3</w>
လုံး သည်</w>
ပညာ တော်
19 38
19 48
19 99
16 88
ဆွ န်း
ဆေး ကုသ
နွ ဲ့</w>
အတွင်း မှာ</w>
20 1</w>
အီ တာ
30 6</w>
ငှက် သည်</w>
တက္ကသိုလ် ဝင်
နှုန်း ဖြင့်</w>
ခမ်း ကျေးရွာအုပ်စုတွင်</w>
ယူဆ ရသည်</w>
အလို ရှိ
ဖြစ်စေ ခဲ့သည်</w>
ခူး ရွာ</w>
ဖူ လုံ
oth er</w>
စိတ်ကူး ယဉ်
အခြေချ နေထိုင်
ဂြိုဟ်ရံ လ
မည်သူမ ဆို</w>
P an</w>
စ က</w>
ဖ ါ
ဗ ျ</w>
နှစ် ခြ
အမ ာ</w>
ခုနှစ် နှင့်</w>
ပုံ ကျေးရွာအုပ်စု</w>
15 5</w>
15 36
15 39
15 58
17 68
တပ် များ
19 4</w>
19 36
18 36
18 58
ဥပ စာ
ဟို နမ့်
လုပ်ငန်း မှာ</w>
ဘီ လ်
ထက် တိုင်</w>
ုဒ္ ဓ
ဂျပန် နိုင်ငံ
26 4</w>
35 4</w>
35 9</w>
ယှ ဉ်</w>
ပြည်ထောင်စု လွှတ်တော်
33 4</w>
11 2</w>
အစာ အိမ်
ယဉ်ကျေးမှု နှင့်</w>
၄၉ ၄</w>
ဒေး ဗစ်
ဂွေး တောက်
sta tion</w>
သုံ ့
လက်ခ ုပ်
B er
N L
P o
ယ ဟူ
ရ သောအခါ</w>
ဥ စ္စာ</w>
နှ လုံး</w>
ဖြစ် ပြီးလျှင်</w>
စု ကို</w>
ပြည် သူများ
လက် မှု</w>
ရောက် ရှိ</w>
17 13
ကျောက် ကပ်
မည် မျှ</w>
ပါဝင် သရုပ်ဆောင်
14 0</w>
ဘွ န်း
10 6</w>
10 1</w>
စတ ီး
နိ မ့်</w>
တတ် လေသည်</w>
ကွန် ဆာ
စတင် ဖွဲ့စည်း
ဟာ ရှယ်
re cor
26 8</w>
27 2</w>
မြို့နယ် ရုံးစိုက်ရာမြို့မှာ</w>
ရှု မ
12 2</w>
အားကစား သမား
နှင်း ဆီ
မုန် တိုင်း</w>
ပုံနှိပ် ထုတ်ဝေ
လက်ထပ် ခဲ့သည်</w>
သက်ဆိုင် သည့်</w>
နိဂ ုံး
သံသ ရာ
အင်ဒိုနီးရှား နိုင်ငံ</w>
ဂလက်ဆီ ဖြစ်ပြီး</w>
လူနေ မှု
လာသည် နှင့်အမျှ</w>
ဒစ်ဂျစ် တယ်
တနင်္ လာ
4 28
K e
က သို
ဖ ရက်
ရ ထာ</w>
၄ ခုနှစ်</w>
ရှ ဉ့်
ကျ ူး</w>
ကျ ကျ</w>
သေ ရွာ</w>
ိုင်း ရွာ</w>
တစ် ကောင်</w>
တော် ကီး
ဖွ တ်
နေရာ များကို</w>
၂၀၁ ၅
တောင် ပို့
17 2</w>
17 28
အခြ ေ</w>
19 9</w>
19 13
19 24
ကျောက် ဖျာ
အလ ို</w>
14 8</w>
ကျော် မျှ</w>
10 4</w>
ညွ တ်</w>
ငါး ပိ
ဆောက် လုပ်</w>
ဟူ မူ</w>
ဆိပ် ကျေးရွာအုပ်စု</w>
အထူး ပြု
ကမ်း ခြေ</w>
30 7</w>
26 6</w>
26 3</w>
လောက် ရွာ</w>
အိုင် ကျေးရွာအုပ်စု</w>
27 1</w>
29 2</w>
ဘိ ဝံသ</w>
12 7</w>
60 0</w>
23 4</w>
23 8</w>
ခ် ျ
ဒွ ေး
ဝံ သာ
st ream</w>
ai l</w>
ဓလေ့ ထုံးစံ
နွဲ့ ရွာ</w>
ကမ္မ ဋ္ဌာန်း
ဉ္ စ</w>
ရံဖန်ရံ ခါ</w>
G oogle</w>
O n</w>
a ik
e f
h as</w>
ဓ လေ့</w>
ပ ပျောက်
လ တန်
ရွ ပ်
ရှိ ပြီး
အုပ် ရွာ</w>
တော တောင်
လုပ် ခဲ့သည်</w>
ဆို ဒီ
လှ စွာသော</w>
ခြင်း သို့</w>
ခံ သည်</w>
သို့ နှင့်</w>
ပု သိမ်</w>
19 6</w>
19 28
19 29
19 59
16 58
ဆင် တူသည်</w>
တရား သူကြီး</w>
ထို့ အတွက်ကြောင့်</w>
ညောင် ပင်ရွာ</w>
လူမျိုး ရေး
ဖော်ပြ ကြသည်</w>
30 5</w>
ကြိုး စား</w>
26 9</w>
24 7</w>
ac h</w>
ဇင် ရွာ</w>
သျှ င်</w>
အသင်း ကြီး</w>
သက္က တ
ဆန်း ကြယ်
ဝီ လျံ</w>
ပြည်ထောင်စု လွှတ်တော်</w>
ပြောဆို ကြသည်</w>
23 2</w>
ul d</w>
ဗိုလ်ချုပ် မှူး
ပေးအပ် ခဲ့သည်</w>
အကြီးဆုံး သော</w>
၈၀ ၄</w>
လွတ်မြောက် ရေး</w>
ညွန့် ပေါင်း
အပို ဒ်</w>
M or
e ar</w>
k g</w>
s ub
ဓ ား</w>
သ ္
ဟ ယေား
၃ ၃၉
ရှ ော့
ပါ ဟု</w>
ပါ ရှိသည့်</w>
တစ် အုပ်
တို့ ထက်</w>
တို့ ထံမှ</w>
၂၀ ၁၉
တိ ံ
ပျ ို</w>
ယူ ခြင်း</w>
ဝါ ့
ပညာ သင်ယူ
19 78
18 6</w>
16 36
ပိုင်း ရှိ</w>
အောင် ရွာ</w>
စဉ် ဆက်
ဝေ ါ</w>
တင်း မာ
အများ က</w>
သင်္ ကန်း</w>
သဘော ပေါက်
30 8</w>
စာပေ ဗိမာန်
24 3</w>
အချက် များကို</w>
ဖူး မြော်
အသင်း တွင်</w>
ယှ က်</w>
ဂျီ ဩ
ညို ရွာ</w>
ပေါ်ပေါက် ခဲ့သည်</w>
23 6</w>
၁၈၉ ၆</w>
ဤသို့ သော</w>
နော် ရထာ
သမျှ သော</w>
ဟောကြား တော်မူခဲ့သည်</w>
သူရဲ ကောင်း</w>
ဝန်ကြီးချုပ် အဖြစ်</w>
ပတ်လည် တွင်</w>
အလေ့ အထ
ဘိုးတော် ဘုရား</w>
နှေး ကွေး
လမ်းပန်း ဆက်သွယ်ရေး</w>
သတ္တုရ ိုင်း
မဘိမ်း မြို့နယ်</w>
4 37
D ay</w>
N am
ခ ယ်
သ တိရ
အ ဇ
ဤ နည်း
ကျ သော
ဖြစ် သည်ကို</w>
နှစ် နိုင်ငံ
စေ ခိုင်း
တင် တင်
ယူ ဂို
သွား လျှင်</w>
19 5</w>
သစ် ရွက်
လည်း ကောင်း
in ter
ကုန် ထုတ်
တရား တို့ကို</w>
လီ သည်</w>
ပူ ပြင်း
ကျွန်း ကျေးရွာအုပ်စု</w>
ဓာတ် ကို</w>
ရုံ တင်
70 1</w>
ရေးသား သည်</w>
ကျင်းပ ခဲ့သော</w>
27 6</w>
အလယ် ဗဟို
34 2</w>
35 7</w>
ယား ရွာ</w>
ဖြစ်ပေါ် စေသည်</w>
ကြံ ခင်း
23 0</w>
တပ်မတော် ကာကွယ်ရေး
ကြမ်း ကြုတ်
ဗိ ဿ
၄၉ ၆</w>
ရှောင် ရှား
ဖီ ဖာ</w>
အမှန် တကယ်</w>
အကြိမ် ကြိမ်
ကြိုက် နှစ်သက်
သဒ္ ဓမ္မ
မအူ ပင်
ပေါ်တူ ဂီ</w>
ဖြုတ် ချ
တစ်ပြိုင် နက်</w>
အပြင်းအထ န်</w>
ပန်ခ မ့်
ဘာလူစကို နီ</w>
E ar
မ တန်</w>
မ ဆွတ်
ယ ေး
အ ကို
၆ ၄
မှ ော်</w>
ခဲ့ သော်</w>
တစ် သောင်း
မှု များမှာ</w>
ခြင်း ဆိုင်ရာ</w>
ပျ ော်</w>
အာ ရပ်</w>
နယ် န
ပေ သေးသည်</w>
19 69
18 29
18 69
ချက် ချင်း</w>
ကြား နာ
14 9</w>
ဘာသာ တရား
သင် ခန်း
en e</w>
ဟို က်</w>
၂၀၀ ၇
၁၃ ၀</w>
34 6</w>
အမျိုးသား ဥယျာဉ်</w>
MMR01 20
ဗဟို ကော်မတီ</w>
12 5</w>
လက်နက် များ</w>
11 1</w>
ကျောင်းသား များ
သီပေါ မင်း</w>
၄၅ ၃</w>
အာရုံ ကြော
ရှီး မား</w>
ကိုယ်စားပြု သည်</w>
အကြီးမား ဆုံး</w>
လူနည်း စု
2 39
F r
P aing</w>
S w
u b</w>
ဇ န်း
တ ရ</w>
ဖ ါး
ဖ ယောင်း
အ ပါယ်
ဥ က္ကာ
နေ ရောင်ခြည်
တစ် ပုဒ်</w>
ကြီး မှူး
အထ ိပ်
ပေး ထားခြင်း</w>
မွ တ်</w>
ရှင် စော
လို လျှင်</w>
19 49
16 29
10 7</w>
ပူ နွေး
သု ခ</w>
၁၃ ၅</w>
နက် ရှိုင်း
70 3</w>
အက် ဆစ်</w>
30 9</w>
28 5</w>
ဆွဲ အား
ဝေါ ဟာရသည်</w>
တည်ဆောက် ထားသည်</w>
အမျိုးသား လွှတ်တော်</w>
35 2</w>
စာအုပ် သည်</w>
ကာကွယ် စောင့်ရှောက်
ကျန် ရှိနေ
သီချင်း သည်</w>
12 1</w>
ကိန်း ဂဏန်း
ထေရ ဝါဒ</w>
ဖို ရွာ</w>
33 1</w>
မြို့တော် ကို</w>
ကျွဲ ခြံ
သရ ော်
ဗုဒ္ဓဘာသာ ကို</w>
အီတလီ နိုင်ငံ</w>
သောကြောင့် ဖြစ်သည်</w>
တစ်ခါတစ်ရံ တွင်</w>
D av
E d
R ob
b ro
d ing</w>
e k
ပ ရပ်
ဘ ယ
အ တ်
ြ ေ
ရှ ောက်</w>
ချ ိုင်ရွာ</w>
လာ ပြီးလျှင်</w>
လာ ခဲ့ရာ</w>
နှစ် သက်</w>
နှစ် ပေါင်းများစွာ
၁၉ ၁၃</w>
သည် ဆို
ပြု တ်</w>
တောင် ပံ
ဒေသ များသို့</w>
သွား ပြီးနောက်</w>
ကြော ်</w>
19 26
18 78
16 13
သည့် အနေဖြင့်</w>
အလ ံ</w>
ဆွ တ်</w>
မည် ဟု
တစ်ခု ခုကို</w>
သံ စဉ်
ဆရာ ကြီးသည်</w>
လင်း ကျေးရွာအုပ်စုတွင်</w>
ရင် ပြင်
၂၀၀ ၆
အမှ ောင်
ရုံ သာမက</w>
ကိ လေသာ
သူ့ ကို
တစ်ဦး လည်း</w>
30 1</w>
ဘုရင် နှင့်</w>
27 4</w>
27 8</w>
24 5</w>
ဂေါ က်
သာသနာ ရေး
MMR00 90
ဝါဒ ီ</w>
နု ်
လု လင်
22 6</w>
22 8</w>
23 1</w>
ထာ ဝရ
အစော ဆုံး</w>
ယေ ရှု
အဆက် ဆက်</w>
တီးဝိုင်း သည်</w>
of tw
အပြည့် အဝ</w>
iz ation</w>
ပရော ဖက်
အခိုင် အမာ
နယ်သာ လန်
တို့ဗမာ အစည်းအရုံး
ပန်ခမ့် မြို့နယ်</w>
" "</w>
L el</w>
S i
y e</w>
က ဝ
ခ မိ</w>
န ဘဲ
ဘ ောက်
သ စ္စ
နိုင် လောက်အောင်</w>
စာ တွင်</w>
၁၉ ၂ဝ</w>
လှ မ်း</w>
တာ ရာ</w>
တောင် ကြီး</w>
တောင် ဘို့
အခ မဲ့</w>
မူ း</w>
သံ တော်
ပါဝင် ယှဉ်ပြိုင်
14 4</w>
လွန် ခဲ့သော
ပေါင်း စုံ</w>
သင် သည်</w>
အမည် ရှိသော</w>
al s</w>
၁၉၅ ၀
ခါ နာ
စနစ် များ</w>
27 5</w>
29 0</w>
လေ့လာ ရေး
37 5</w>
35 6</w>
35 3</w>
22 0</w>
အရေးပါ သည့်</w>
မွေးမြူ ရေး</w>
အိုလံ ပစ်</w>
ဇန်နဝါရီ လ
ဖရ န့်
ကြိ ယာ
ထိတ် လန့်
င ျ
စ လေ
ပ က
မ သာ
မ ဖြစ်စေ
မ လိုလား
ရ သောကြောင့်</w>
ဝ စ်
ဖြစ် တည်
မြို့ ကြီး</w>
လူ သုံး
ရေ ပေါ်
ရေ ရှည်
အထ ူ
ဒေသ ဖြစ်သည်</w>
ယူ အေ
ဝါ ခေါင်
ပညာ ဆည်းပူး
16 34
အဆ ွေ
ခင် မင်
on d</w>
နစ် မြုပ်
တတ် ကျွမ်း
ဆောင်ရွက် လျက်ရှိသည်</w>
ဗိုလ် ရန်
ရန်ကုန် တိုင်း</w>
ရန်ကုန် မြို့သို့</w>
37 4</w>
el d</w>
နိုဝင် ဘာလ
33 0</w>
33 9</w>
နာမည် ကို</w>
23 9</w>
op er
နွေ ရာသီတွင်</w>
အွ မ်
အပြည့် အစုံ
ပြီးစီး ခဲ့သည်</w>
ကန ဦး
တုန် လှုပ်
ဘင်္ဂလားဒေ့ ရှ်
အညစ် အကြေး
ကာလကတ္တ ား
ဖားဆောင်း မြို့နယ်</w>
oftw are</w>
L ar</w>
l ab
ခ န်ရွာ</w>
ဂ ရပ်
စ ပီ
န မ်း
ပ ဒေ
အ များကို</w>
အ မျှ</w>
ု း
ကြ ူး
မှ တစ်ပါး</w>
ခု မှ</w>
ကို တော့</w>
လာ အို</w>
ရေ ချိုး
လေ လေ</w>
နှင့် သာ</w>
မြောက် ဦး
ပေါင်း ချုပ်</w>
ဆေး များ</w>
10 8</w>
အိမ် သို့</w>
တံ ငါ
ဒု စရိုက်
ရရှိ ပြီး</w>
အမည် ရင်း</w>
နန်း ရွာ</w>
ထင် မှတ်
သတ်မှတ် ထား
28 8</w>
29 6</w>
38 7</w>
ခဲ့ကြ သည့်</w>
တိုးတက် ရေး
12 8</w>
22 2</w>
ဘု န်း</w>
ဆဲ ဖြစ်သည်</w>
23 5</w>
၁၈၉ ၄</w>
လက်မ မှ</w>
စစ်ပွဲ များ</w>
မင်းကြီး က</w>
တမန် တော်</w>
မီးရထား လမ်း</w>
ပုံပြင် များ</w>
စွက် ဖက်
ဝတ္ထုတို များ</w>
yp e</w>
" '</w>
I P
V al
h ad</w>
မ ခံရ
မ သိရှိ
သ ဲ</w>
ခဲ့ သလို</w>
ရေ နှင့်</w>
လက် အောက်</w>
ထို သူ</w>
စစ် ဆေး</w>
သိ ကြသည်</w>
လျှ ား
လေး လံ
တင် ဆောင်
ကုန်း ကြီး</w>
15 7</w>
နယ် နှင့်</w>
နယ် စပ်</w>
17 39
17 38
17 69
သီ တာ
စီ ရွာ</w>
ရွှေ တံဆိပ်
လွှ င့်</w>
သက် တော်
အောက် ပိုင်း</w>
ထွက် ပေါ်လာ
လိ ဂ်</w>
မို က္က
မို တို
ဘွဲ့ ရ
သမိုင်း ကို</w>
26 1</w>
26 7</w>
24 6</w>
24 9</w>
36 9</w>
50 3</w>
အမေရိကန် ပြည်ထောင်စုတွင်</w>
37 1</w>
ထုတ်လုပ် သည့်</w>
ပင်လယ် ပြင်
33 6</w>
တီထွင် ခဲ့သည်</w>
ဖခင် ဖြစ်သူ</w>
ဗွ ိုင်
ကျွမ်းကျင် သော</w>
ချို့ ယွင်း
တည့် တည့်
သတိုး မင်း
အခေါ်အဝေါ ်
ဂျီဩ မေတြ
4 40
8 5
D C</w>
I sl
p ol
က န္
ဆ ဲ့
ဆ ပ်</w>
ယ ဉ်</w>
ဝ ိုင်</w>
အ စွန်
အ ဟုန်
ချ ိုင်
ချ ား</w>
များ အဖြစ်
များ မှာမူ</w>
တစ် နေ့</w>
သူ က
လုပ် ခြင်း</w>
သား မွေး
ခြင်း မရှိ</w>
တောင် နှင့်</w>
ပု ရွာ</w>
သွား နိုင်သည်</w>
18 9</w>
အတ ီး
ညောင် ဝိုင်း</w>
လ် သည်</w>
နမ့် မော်
re g
သတင်း မီဒီယာ
ဒုတိယ အကြိမ်
စာပေ ဗိမာန်</w>
27 7</w>
36 4</w>
38 4</w>
အမှတ် စဉ်</w>
ထုတ်လုပ် ခဲ့သည်</w>
ဆောင်း ရာသီ
12 3</w>
ခရစ် ယန်
ဂွ မ်
11 8</w>
ကုသ ိုလ်</w>
တိုင်းရင်း သားများ</w>
aw b
oc k
အမတ် ကြီး</w>
ချီးမြှင့် ခဲ့သည်</w>
ဒြပ် စင်</w>
မှီ ဝဲ
ပတ်ဝန်းကျင် တွင်</w>
မြန်မာပြည် တွင်</w>
ဖြည့် ဆည်း
ရုရှား နိုင်ငံ</w>
.. .
ဓမ္မာ စ
ရှည်လျား သည်</w>
စီးဝင် သည်</w>
ကော့သောင်း ခရိုင်</w>
က လီ
တ လုံး
န ုံး
ဗ င်</w>
ဗ ုံ
ဗ ီးယား</w>
လ ပွ
ဥ ဇ
၉ ၀၀</w>
ရှ ူး</w>
ဖြ န်
တွ န့်
ချ ော့
နေ ရွာ</w>
ခဲ့ ပါ
ခဲ့ စဉ်က</w>
ပါ ့
စာ ဆို</w>
လှ ျ
တောင် ပိုင်းတွင်</w>
ဖွဲ့ နွဲ့
15 69
တွင် သည်</w>
17 75
19 90
18 13
ပြန် တမ်း
ငြ ိ
အသုံးပြု ထားသည်</w>
နတ် တော်
သီး ကို</w>
၁၃ ၄</w>
ဗိုလ် လု
စုံ ရွာ</w>
မု တ္တ
ရှည် သော</w>
ကြည့် မြင်
ထင်ရှား ကျော်ကြား
34 1</w>
34 8</w>
အသက် အရွယ်
12 9</w>
22 1</w>
ဘု မ္မ
33 5</w>
23 7</w>
70150 7</w>
သွင် ပြင်</w>
ပို့ဆောင် ရေး</w>
ပြဿနာ များ</w>
စက်ရုံ များ</w>
အပေါင်း တို့</w>
အထွေထွေ အတွင်းရေးမှူး
နွှ ယ်
အရည်အ သွေး</w>
ငြား လည်း</w>
စကြဝ တေး
ail y</w>
အဆုံးအ ဖြတ်
ht t
) &</w>
N et
n er</w>
ဇ ု</w>
ဖ ရင့်
ရ က္ခ
ရ သေး
သ ယံ
အ ဖို့
၁ ခုနှစ်</w>
ကြ န့်
ုံ ့
ဖြစ် သည့်အပြင်</w>
ရွာ ဟောင်း</w>
တို့ သို့</w>
အစ ေ့</w>
ဒေသ မှာ</w>
မင်း ရွာ</w>
ကျွ နု်
စ္ ဆာ</w>
သုံး လ
ကောင်း ကျိုး
အတ ိုး
လမ်း များ</w>
14 68
ဘက် ရှိ</w>
ဆေး ကြော
မိုး ကြိုး
10 5</w>
စတ ြ
ကျွန်း တော
70 4</w>
70 7</w>
28 6</w>
ဗုဒ္ဓ ဟူး
24 4</w>
29 4</w>
36 2</w>
50 1</w>
34 3</w>
38 0</w>
ခဲ ယမ်း
37 0</w>
ကျင့် ဝတ်
ဝင်း ရွာ</w>
ဉာဏ် တော်</w>
အင်အား ကြီး
ဝံ ပုလွေ
အသစ် ကို</w>
လော့ ရွာ</w>
ဆိုလို သည်မှာ</w>
နန္ဒ ာ
အက်တ မ်</w>
တိုကျို ခရိုင်</w>
မျိုးရင်း တွင်</w>
မနု ဿ
နဂါ း</w>
မြတ်စွာဘုရားဟောကြား တော်မူခဲ့သည့်</w>
( ,</w>
I C
a x
တ နည်း
ထ ရွာ</w>
ရ ီးယ
အ စု</w>
အ ဘူ
အ ခွေ
ကြ သည်ကို</w>
မှ ား</w>
စု ရုံး
ti an</w>
နှစ် မျိုး</w>
လက် တွဲ
နေရာ ယူ
ထို စဉ်</w>
ဝင် ငွေ</w>
တာ ့
ပင် လုံ
အား ပေး</w>
နာ ဝီး
အမ ္
15 6</w>
ရှင် သည်</w>
ကျွ ဲ</w>
ဝန် ထောက်</w>
16 24
00 7</w>
ထုတ် လုပ်</w>
ကျောက် စ
ကျောက် တန်းရွာ</w>
မည် ထင်
မြေ လပ်
ခေါ် သည့်</w>
နည်း လမ်း</w>
14 1</w>
10 59
ငြ မ်း
အကျ င့်</w>
ရရှိ သော
မရှိ ခြင်း</w>
တိုး ချဲ့</w>
ကိုင် ဆောင်
တည်း တွင်</w>
သဘော တရား</w>
၁၉၉ ၀
30 4</w>
28 7</w>
ကျမ်း များကို</w>
29 9</w>
29 8</w>
34 9</w>
အမြ န်</w>
37 2</w>
ပြန်လည် တည်ဆောက်
လွတ်လပ် သော
ရှေ့ ဆောင်
22 4</w>
ယုံကြည် မှု
အားကစား ကွင်း</w>
ဖေါ င်
သိပ္ပံ နည်း
နာမည် ကြီး</w>
ရှစ် သောင်း
23 3</w>
In stit
စစ်ဆေး ခြင်း</w>
ဝေဖန် ရေး
qu e</w>
En gl
တစ်နေ့ လျှင်</w>
မက္ကဆီ ကို</w>
အိုခ ခရိုင်</w>
tw o</w>
သေနာ ပတိ
K win</w>
စ က္ခု
ဘ ဲ့
လ င့်</w>
ကြ မ္မာ
ကျ န်း</w>
ရေ တပ်</w>
သည် သာ</w>
ထို နေရာတွင်</w>
နိုင်ငံ မှာ</w>
၂၀၁ ၇
တောင် မှ</w>
ပေး သော
လေး ဆယ်
သွား ရ
မူ ပိုင်ခွင့်</w>
ကျောင်း တော်သည်</w>
ကြား ရှိ</w>
အရ ိုင်း
10 2</w>
စပ် သော</w>
လော ရွာ</w>
တည်ရှိ ကာ</w>
ဝမ် မိုင်ရွာ</w>
ထိ ပါး
အိုင် ဖုန်း</w>
ပါတီ နှင့်</w>
37 7</w>
ရှု ခင်း
ကွာ လာ
သဘာ ပတိ
de v
မင်းသား ကြီး</w>
အော် ပ
op le</w>
တခု ခု
မြောက်ပိုင်း ရှိ</w>
မွေးမြူ ရေး
ဝိန်း ရွာ</w>
ညီလာခံ တွင်</w>
ကမ္ဘာ့အမွေအနှစ် နေရာ</w>
ဓာတ်ခွဲခ န်း
Bill board</w>
S ystem</w>
d ays</w>
ဒ ယ်</w>
ရ ို့
ကြ သည်ဟု</w>
နှ ိမ့်
များ အထိ</w>
နေ လျှင်</w>
ဦး အား</w>
တော အုပ်
အစ ေး
နယ် သို့</w>
17 36
18 45
16 26
သည့် တိုင်အောင်</w>
သစ် ခွ
ကျောက် ဆောင်
ဆင် ရွာ</w>
အဆ ောင်</w>
လွန် ကဲ
ဖက် ရှင်
၁၂ ၅</w>
ဓာတ် ဆီ
70 8</w>
မောင် မောင်</w>
ကျင်းပ ရာ</w>
29 3</w>
38 6</w>
38 3</w>
38 9</w>
ခရီး စဉ်</w>
အသင်း များ</w>
တက္ကသိုလ် သည်</w>
စီးပွားရေး အရ</w>
ကိစ္စ များ</w>
အရည် ပျော်
သတ္တု တွင်း</w>
လျော် ကြေး
လျက်ရှိ ပါသည်</w>
ဟယ် ရီ
လမ်းစဉ် ကို</w>
အကဲ ဖြတ်
tic al</w>
မည်သူ မျှ</w>
အိုခ ဘူတာ</w>
ကွန်ဆာ ဗေး
5 3
G a</w>
p s</w>
z one</w>
စ မှတ်
တ နှစ်
မ ခင်
အ ကျော်ကြား
ရှ ေး</w>
ပါ ဝါ
ရေ နံ</w>
ဖွ န်
၁၉ ၁၀</w>
နိုင်ငံ အား</w>
ထိုင် ဝမ်</w>
တောင် ကို</w>
လေး လုံး
ကုန်း ကြမ်း</w>
ပညာ ပေး
စည်း ကမ်း</w>
အင် ဆူ
14 3</w>
ရဲ ရွာ</w>
ကောက် ပဲ
အရာ များကို</w>
ယောက် အနက်</w>
ဥပဒေ များကို</w>
ic k
ထင်ရှား စွာ</w>
အိုင် အို
စွမ်း အား</w>
36 8</w>
39 5</w>
34 0
34 5</w>
အမှတ် အသား</w>
ထု ံ</w>
ထုတ်လုပ် ရေး
နိုင်ငံရေး သမား</w>
ဆိုး ဝါး
22 3</w>
တစ်မျိုး ဖြစ်ပြီး</w>
ဘောလုံး သမား
တုံး ရွာ</w>
ချေ သည်</w>
လွှမ်းမိုး မှု
ကောင်းမွန် စွာ</w>
အဆောင် အယောင်
စာဆို တော်
ငါးမျိုး တို့
ita r</w>
တစ်ဝိုက် တွင်</w>
Amer ican</w>
ဝိနိ စ္ဆ
တနိုင်း မြို့နယ်</w>
I t</w>
W al
က ဒ်
တ လဲ
အ ယ်</w>
ကြ သည်မှာ</w>
ချ ဉ်</w>
ချ ည်း</w>
ဖြစ် သူမှာ</w>
နေ တတ်
ရွာ ကြီး</w>
နှစ် များ</w>
ဆို သော
ထွ ဋ်
စေ ပါသည်</w>
ကုန်း ရပ်ကွက်</w>
ကုန်း ဆာရွာ</w>
00 5</w>
လိုက် ပါ</w>
နား တွင်</w>
၁၂ ၃</w>
အင်း လေး
70 9</w>
တာဝန် ပေး
26 5</w>
26 0</w>
26 2</w>
24 1</w>
အလယ် ခေတ်
29 1</w>
as tr
37 6</w>
37 3</w>
37 9</w>
37 8</w>
သခင် တင်
အကျိုး ပြု
အုတ် မြစ်
ယော ဂ
ပြစ် တင်
အလက် ဇန္ဒ
ဝန်းကျင် တွင်</w>
ရည်ရွယ် ချက်ဖြင့်</w>
ပက် သက်
တိုက်ပွဲ များ</w>
ဇီဝ ဗေဒ
ပြောင် မြောက်
မော်တော် ကား</w>
ဟိုက် ဒ
သောင်းကျန်း သူ
အငယ် ဆုံး
အပတ် စဉ်</w>
အတ္တလန္ တိတ်
တရုတ်ပြည်သူ့ သမ္မတနိုင်ငံ</w>
Aw ard</w>
A g
P a
ခ ူး</w>
ဂ ိုလ
စ ူး</w>
ပ န္
ဖ ဝါး
မ လှ
လ ဆုတ်</w>
၉ ဝ</w>
ပြ ဋ္ဌာန်း</w>
မြ န်း</w>
ရှ ီ</w>
များ ထံမှ</w>
တစ် ပိုင်း
တစ် ကမ္ဘာ
မှု ခင်း
ပွ က်
သို့ ဖြစ်ရာ</w>
ကြော ့
ပုံ ဆောင်
၁၈ ၁၉</w>
an ese</w>
၂၀၀ ၈
ကူး ယူ
မို ဟမ္မ
ထဲ မှ
တည်း သော</w>
ဖြစ်လာ မည့်</w>
28 9</w>
39 4</w>
အမြ တ်</w>
န်န ီ</w>
အိုး ရွာ</w>
22 7</w>
In d
မိုက် ကယ်
လွတ်လပ်ရေး ရ
လေ့ကျင့် ရေး
ဘုရားရှိခိုး ကျောင်း
ဂုရ ု</w>
ထက်မ ပို
ဗြာဟ္ မဏ
မှေး မှိန်
မုဒုံ မြို့နယ်</w>
A N
L a</w>
M ir</w>
a tes</w>
u tion</w>
စ တွင်</w>
စ မစ်
ဓ နိ
မ ိုင်း</w>
မ တူ</w>
သ ဇင်
အ ဖော်
ပြ ူး
တစ် သိန်း
ကို ရို
အသ င့်</w>
နိုင်ငံ တို့တွင်</w>
ကာ ရံ
ပု စွန်
တပ် ဦး</w>
ပေ ရာ</w>
19 45
ကျောက် စိမ်း
တွေ့ ဆုံ</w>
မြေ မျက်နှာပြင်
ကမ္ ပ
14 69
မန် ပြိန်း
မီး ဖွား
လုပ်ငန်း များ
မော် ကွန်း</w>
အို င့်
လော ကု
70 6</w>
မောင် နှံ
13 0</w>
ဂီ ရိ
am b
သာယာ ကုန်း</w>
28 3</w>
28 2</w>
ကာလ ကို</w>
ပစ် မှတ်
39 9</w>
အဆို ရှိသည်</w>
38 5</w>
ဝိုင်း ရံ
မော ့</w>
ပင်လယ် ကွေ့</w>
သိန်း ဖေ
အခြေအနေ တွင်</w>
ဆန့် ကျင်</w>
သုတေသန ပြု
ဗိုလ်မှူး ချုပ်</w>
ဟုတ် ရွာ</w>
ard s</w>
ဘကြီး တော်
နာဝီး မြို့နယ်</w>
2 25
n o
န ော့</w>
ဖ ရီး
ရ ှ</w>
၆ ၅
ကျ ခတ်
ဖြစ် ပေါ်</w>
မြို့ ဖြစ်</w>
ရေး မှတ်
နှစ် အောက်</w>
စွ န်</w>
မင်း များ</w>
စေ ရာ</w>
စေ ရန်နှင့်</w>
အခ င်း</w>
မဟ ော
တွင် ပါဝင်
အောက် တွင်
လိုက် သည့်</w>
မြေ အောက်</w>
မြေ ရိုင်း
စက် ရုပ်
မိုး မ
နောင် မွ
သိမ်း ပိုက်</w>
စိုက် ခင်း
သေး တယ်</w>
70 5</w>
ဖော်ပြ ထားသော</w>
တာဝန် ရှိ
ကြည့် ရှု</w>
မဟုတ် သည့်</w>
28 1</w>
ဗုဒ္ဓ သာသနာ
29 5</w>
34 4</w>
ပြောင်းလဲ သွား
ဖာ ရွာ</w>
ဆောင်း ရာသီ</w>
ဂျီ စီ
ခရစ် တော်</w>
ပိုက် ဆံ
တပ်မတော် က</w>
ang e</w>
လယ်ယာ စိုက်ပျိုး
စတာ လင်
ရှီ အာ
ခဲ့သူ မှာ</w>
မကျီး ကုန်းရွာ</w>
cl ud
အလား အလာ
သာမဏ ေ</w>
ဒင်္ဂ ါး</w>
ပုရ ပိုက်
ဝါသနာ ပါ
ညွှန်ကြားရေး မှူး</w>
ဝူ ဟန်
ရည်မှန်း ချက်
ဘဒ္ဒ န္တ
အလ္လာ ဟ်</w>
ကာဗွန် ဒိုင်အောက်
မကြာမီ ပင်</w>
ကက်သ လစ်
L u
M u
R us
ထ ရွန်
ဒ ရယ်</w>
ဖ လင်
ဘ လွန်း
ယ ယ်</w>
ရ န့်
ရ နိုင်သည်</w>
အ ဇာတ
၃ ၂
မြို့ ဟု</w>
ပြည် ပြေး
မာ ကျော
မျိုး တို့</w>
လှ ပေ</w>
ခြင်း ဖြင့်
နေထိုင် သူ</w>
ပျ ောင်း
မူ ဝါဒ</w>
ပြန် ပေး
00 1</w>
ွေ း</w>
မည် း</w>
အင် ပင်
တစ်ခု သို့</w>
14 49
အရ ောက်</w>
မန် ချက်
10 36
en tal</w>
အိမ် တန်းရွာ</w>
၂၀၀ ၅
ကွန် ဂို
ဏ္ ဏာ
20 20</w>
မြှ ောင်
တစ်ဦး ကို</w>
ဥပဒေ များ</w>
ကျင်းပ ကြသည်</w>
ဘဝ သို့</w>
34 7</w>
35 8</w>
မျက်နှာ ဖုံး
တည်ထောင် သူ</w>
ရှု ထောင့်
33 3</w>
ပေါ်ပေါက် လာခဲ့သည်</w>
စွန့် ခွာ
နိုင်ငံခြား သား</w>
ဆန့်ကျင် ဘက်
et y</w>
စော် ကား
စာချုပ် အရ</w>
ဩစတြ ီးယား
ဝန်ထမ်း များ</w>
ဂန္ ဓာ
Mawl amy
M ed
N ar</w>
a ir
f olk</w>
n o</w>
p r
န င်</w>
သ ရော
အ ပိုလ
၁ ၁၀</w>
ကြ ရာတွင်</w>
များ များ
ဖြစ် ကုန်</w>
ရာ ဟု
ti n</w>
တစ် ပြည်
တစ် နေရာသို့</w>
ထို ရွာသည်</w>
လှ ာ
အန ံ
ကျောက် ခေတ်
in ce</w>
ခေါ် ရွာ</w>
နောက် ခံ</w>
ပန်း ဘဲ
ဒေါ င်း</w>
ကျွန်း ကို</w>
ကော် ဇော
မဲ ခေါင်
ထမ်း ဆောင်</w>
ထောက် ပြ
ကွင်း ကျေးရွာအုပ်စု</w>
မဟုတ် ကြောင်း</w>
39 1</w>
အမှတ် တရ
မယ် ဇလီ
သဲ ဖြူ
ဝီ ရိယ
၁၈၉ ၅</w>
အသိ ဉာဏ်
အစာ ကို</w>
မွှ ေ
တစ်ရပ် ရပ်
ဆော့ ဝဲ
အနာ ဂါ
ဆော် ဒီ
အလောင်း ကို</w>
ဗျူ ဟာ</w>
တွေ့ဆုံ ဆွေးနွေး
ထော ပတ်
ဂေါ် ရ
အရဟ တ္တ
အရောင်းအဝ ယ်
ဘယ်လ် ဂျီ
a u</w>
d ay</w>
မ ုရ
မ ကြား
အ ကျွန်ုပ်
၏ )</w>
ပြ တ်</w>
နှ ိုင်း</w>
ဖြစ် လေ</w>
နေ ခြင်း
မြို့ အနီး</w>
နိုင် တဲ့</w>
စာ ပို့
သာ ကီ
လုပ် သော</w>
ခွ ံ</w>
ခံ တပ်</w>
ထွ ေ</w>
စား ခြင်း</w>
အချ ဉ်
ပိုင်း နှင့်</w>
ချက် များသည်</w>
in s</w>
အတ န်</w>
အင် ဒရို
တစ်ခု ကို
ကျော် ထင်</w>
ညီ နောင်</w>
စံ နှုန်း
ကျွန်း သို့</w>
၁၀ ၁</w>
ကော် ဖီ
ta tion</w>
သတင်း ကို</w>
ic k</w>
များစွာ သော
ပြောင်းလဲ ခြင်း</w>
ပိုး ကောင်
၂၄ ၀</w>
အနက် ရောင်
ri p
ပြာ သိုလ
ငြင်း ခုံ
သတိ ထား
သံဃ ာ</w>
လက်ရာ များကို</w>
နဂါး ငွေ့
ဖျော်ဖြေ တင်ဆက်
မာ့ ခ်
အရင်းအ နှီး
နနွ င်း
" .</w>
4 25
M e</w>
S an
က ပိ
ဆ ော့</w>
ပ ီး</w>
ဗ ိုင်
ဟ န
အ ုန်း</w>
ချ ိန်း
ဖြစ် နေ</w>
နိုင် လျှင်</w>
လက် သို့</w>
သည် လည်း
ထို အကြောင်းကို</w>
ပွ န်း</w>
ပေး ရ</w>
ပေး နိုင်ခဲ့သည်</w>
ဒီ လို</w>
ပြင် ကျေးရွာအုပ်စုတွင်</w>
00 2</w>
မြေ လွတ်</w>
မျှ ော
မျှ သော</w>
ကော ့</w>
13 6</w>
ရှာ သည်</w>
လောက် သော</w>
36 3</w>
50 9</w>
တက္ကသိုလ် များ</w>
အရပ် ရပ်</w>
ဟန် တူသည်</w>
ပုံစံ များ</w>
ဂီတ သည်</w>
အိုး ဘို
47 0</w>
33 7</w>
ad aung</w>
၃၈ ၉</w>
အလင်း ရောင်</w>
ang on</w>
အကြံ အစည်
၁၈၅ ၂</w>
ပေါ့ ပါး
ev er</w>
တောင်တွင်း ကြီး
အပြည့် အဝ
တစ်နိုင်ငံ လုံး</w>
အဆက်အ သွယ်</w>
ဗဟုသု တ</w>
တရားစွဲ ဆို
မိတ္တ ူ
တခါတရ ံ</w>
ရေလက် ကြား
tis h</w>
နှစ်ခြ ိုက်
နောင်မွ န်းမြို့နယ်</w>
B D</w>
s ch
စ ပျစ်
ယ င်</w>
ရ တဲ့</w>
အ မ</w>
ဖြစ် သကဲ့သို့</w>
do c
သေ နတ်</w>
တို့ မှ
ထား ပါတယ်</w>
သည် ရှိသော်</w>
ခွ င်း
နာ မ်</w>
ယူ ရန်</w>
ခုနှစ် ကတည်းက</w>
ရပ် ဝန်း
ရောက် အောင်</w>
18 70
သီ ရိ</w>
16 40
00 4</w>
ထုတ် ပယ်
ကျောက် မီးသွေး</w>
တက် သည်</w>
လီ လီ
စဉ် လာ
နိ ပါတ်
လုပ်ငန်း ဆောင်
စကား ပြေ
လွှတ် တင်
စင် တော
ချိ ဘ
ကျင်းပ ရန်</w>
အစား ထိုး</w>
စာပေ ကို</w>
ဆီး ရီးယား
ခဲ သည်</w>
သင့် သော</w>
ကပ် ရွာ</w>
နိုင်ငံရေး အရ</w>
ကမ္ဘာ့ ဖလား
ဟိ န်း</w>
အဆောက်အ ဦ</w>
၃၅ ၉</w>
ကဗျာ ဆရာ</w>
သပြေ ကုန်းရွာ</w>
အရေးပါ သော
ကျက် သရေ
ကုန်သွယ် မှု
သံဃာ ့
ဆုတ် ယုတ်
စူ ပါ
အကြွ ေး
ထူထပ် သော</w>
သခင်သန်း ထွန်း</w>
အင်ပိုင် ယာ
မဟာယာ န
sy ch
M al
v ir
က တော်</w>
ဂ ုံး
ဒ ီးယား
ဖ ား</w>
ရ မိ
အ ကျော်
ဤ သုတ္တန်
ဩ ဘာ
ရှ ော</w>
ချ င့်
နေ ဆဲ</w>
မြို့ များတွင်</w>
တစ် ဆက်
လေ ရွာ</w>
သာ သာ
သိ မ့်
အိ ဘူတာ</w>
ဆက် ကပ်
စီ မံ</w>
in j
လမ်း ခွဲ
တရား နှင့်</w>
မရှိ ဟု</w>
၁၂ ၁</w>
ပထမ အကြိမ်
ဆီ ဆုံ
ဆောင်ရွက် ရမည်</w>
သေး ငယ်</w>
ဘွဲ့ ရ</w>
ခံရ သူ</w>
စနစ် နှင့်</w>
36 1</w>
ငှက် ကြီး
ခရီး သွားလာ
တက္ကသိုလ် သို့</w>
ဋ္ဌ ိ
အရပ် သား
ကမ္ဘာ့ ဖလား</w>
33 2</w>
33 8</w>
ထန် ကျေးရွာအုပ်စု</w>
ဖွံ့ဖြိုး ဆဲ
အုန်း ပင်စုရွာ</w>
အုပ်ချုပ်ရေး ကို</w>
အစ် မ
ခြင်းခံရ သော</w>
တောင့် တ
စစ်ဆင်ရေး ကွပ်ကဲမှု
နောက်ဆက် တွဲ</w>
ဟိုက်ဒရို ဂျင်
ပဓာ န
F re
W a</w>
b ut</w>
ထ ရာ
ရ ကာ</w>
အ သောက
ဣ သရေ
ကြ ိတ်</w>
ဖြစ် ကြောင်းကို</w>
နေ ချိန်တွင်</w>
တစ် ကမ္ဘာလုံး
လာ ခဲ့လေသည်</w>
၂၀ ၈</w>
ဆို သည်
ပု ဆိုး
15 48
နယ် စား
ဒီ ရေ
ခေါ် ပြီး</w>
သံ ချပ်
အရ ု
ပေါက် တောရွာ</w>
မရှိ သဖြင့်</w>
စိ မ်</w>
မဟာ သု
70 2</w>
၁၄ ၀</w>
al ternative</w>
၁၉၄ ၉
၁၉၄ ဝ</w>
ရုံး သုံး
လျက် ရှိကြသည်</w>
ဘွဲ့ ထူး
39 2</w>
38 2</w>
အမှတ် မှာ</w>
ခရီး သွား</w>
ကျင့် စဉ်
us ed</w>
ကျွန် ုပ်</w>
ကဗျာ လင်္ကာ
de ath</w>
ကြို တင်</w>
ကုမ္ပဏီ များ</w>
မွေးဖွား ခဲ့ပြီး</w>
ပြိုင်ပွဲ ကို</w>
201 2</w>
အစီအစဉ် များ</w>
များတွင် သာ</w>
စွမ်းအင် ကို</w>
ဖောင် တော်
ကျန်ရစ် ခဲ့သည်</w>
အသင့် အတ
မောင်နှ မ</w>
နေရှင် နယ်
Nar uto</w>
ဝိတို ရိယ
ခွဲခြမ်း စိတ်
ကျွနု် ပ်
4 10
4 27
4 35
C ap
s ur
စ လို
ဇ န္န
ဖ ရို
၄ ၀၀၀</w>
ရှ ောင်</w>
ကျ ိပ်</w>
ဦး နှ
၂၀ ၉</w>
ဂျ ုံး
နေထိုင် ရာ
ိုလ ို
ပြီး လျှင်
လို သော
17 60
18 35
ပြင် ပ</w>
စီး ပွား</w>
ဇာ စ်
မည် ဆိုလျှင်</w>
မြောက် အမေရိက
14 24
er t</w>
ကျော် နှင့်</w>
မန် တွ
အသုံးပြု ကာ</w>
အုပ်ချုပ် မှု</w>
အများ စုတွင်</w>
၁၀ ၅</w>
လော ဟု</w>
စတင် တည်ထောင်ခဲ့သည်</w>
re l
39 6</w>
ညှ င်း</w>
မြူ နီစီ
တိုးတက် မှု</w>
အသင်း တော်
သဲ ကုန်းရွာ</w>
ထုတ်လုပ် ရေး</w>
MMR00 900
ပုဒ် ကို</w>
သင်္ဘော ဆိပ်
65 0</w>
တောင်တန်း များ</w>
တံခွန် တိုင်ရွာ</w>
ပြဿနာ များကို</w>
မင်းတရား ကြီးသည်</w>
အတည်ပြု ခဲ့သည်</w>
ရာစုနှစ် တွင်</w>
ပမာဏ ကို</w>
အလှူ ခံ
ကာမ ဂုဏ်
ဂရု စိုက်
ra ft</w>
ဗိုင်းရပ် စ်</w>
lo w</w>
ပေါ်ထွက် လာခဲ့သည်</w>
ဥသျှ စ်
အရှေ့လောင်ဂျီ တွဒ်</w>
အင်ဒရို မီ
3 27
: /
H y
U K</w>
Y e</w>
f irst</w>
n ing</w>
o le</w>
က တော့
ဂ င်္ဂါ
ဒ ိုင်း</w>
အ ဖြူ</w>
င်း သည်
များ သာမက</w>
ရှိ ပြီးလျှင်</w>
ရေး သော</w>
ကို မဆို</w>
ကြီး မား</w>
လက် မောင်း
နေရာ ချထား
ဆို ထားသည်</w>
ထို နောက်
ေ့ ရွာ</w>
ဝင် ခွင့်
ခြင်း လည်း</w>
15 10
15 37
17 10
17 27
17 37
17 35
17 45
19 25
19 27
19 37
18 10
18 25
16 25
16 37
16 35
16 67
ဆိုင် ကျေးရွာအုပ်စု</w>
ထောင် စု
အတ ောက်
ရုပ် တု</w>
နည်း ဟု</w>
ပါဝင် ကာ</w>
စက် ဖြင့်</w>
တရား လွှတ်တော်</w>
ဘုရား ကုန်းရွာ</w>
14 59
ချောင်း ဆိုး
ကမ္ဘာ လှည့်
ဥပ ဒေသ
ဖျ ံ
နိ ယာမ
၁၂ ၈</w>
ပြုလုပ် နိုင်သည်</w>
ကူ ညီ</w>
အချိန် မှစ</w>
ကစား ခဲ့သည်</w>
ကစား နည်း</w>
ကြွ ပ်
39 7</w>
ဝယ် ယူ</w>
ရှေ့ နေ</w>
ရမ ီ</w>
ဆရာတော် ဦး
အုတ် ဂူ
ကျွဲ နွား
ကြီးမား သော
အုံ ကြွ
ဂရိ တ်</w>
ကြို့ ကုန်းရွာ</w>
သောင်းကျန်း သူ</w>
ဂေ ဟ
လျှပ်စစ်ဓာတ် အား</w>
ဟောင် ကောင်</w>
Bur m
ကိုလံ ဘီယာ
ကပ္ပ လီ
အပြာ ရောင်
တာဝ တိံ
ရ သေ့</w>
သ ကျ
အ လွဲ
ဥ များကို</w>
ဥ တ္တမ
မြ န်</w>
ကျ ်
များ အပါအဝင်</w>
မြို့ အဖြစ်</w>
ခု တ်</w>
စာ နာ
စာ လုံး</w>
လူ ကို</w>
လူ တစ်ယောက်
လေ ဘာ
ဆို စေ</w>
မိ ဘူတာ</w>
စား နပ်
အခ ု</w>
15 80
ချုပ် ချယ်
19 80
18 27
သစ် ပုတ်
စည်း မျဉ်း</w>
လွန် ခဲ့သည့်</w>
မြစ် ကြောင်း
စတ န်</w>
ဌာန ကို</w>
ic ation</w>
ပြည်နယ် မှ</w>
50 5</w>
50 7</w>
ရောဂါ ကူးစက်
တည်ထောင် ခဲ့သော</w>
ဘိ လပ်
အဲ ဒါ
၁၈၈ ၂</w>
အသိ အမှတ်</w>
ap p
လူ့ ဘောင်
ပန်းချီ ဆရာ</w>
ထည့်သွင်း ခဲ့သည်</w>
ဝန်ကြီးဌာန မှ</w>
ပစ္စ ယာ
နှင့်တူ သော</w>
main stream</w>
A S
K ing</w>
W illi
n um
က ီး</w>
တ ည
ဓ ဇ</w>
န ို့</w>
န ုရ
န ော်</w>
ဖ ယ်</w>
မ များ
မ ခံ</w>
ဝ ဏ်
ကျ တီ
မြို့ လယ်
ဦး ဖေ
နိုင် မှု
လာ သောကြောင့်</w>
လာ သည့်အခါ</w>
သူ တစ်ဦး</w>
မှု အရ</w>
လေး နက်
တင် ပြ</w>
ရောက် လျှင်</w>
အာ ရ်
17 47
ဆက် မြောက်</w>
19 35
19 60
မူ ရင်း</w>
18 37
18 40
18 67
18 47
16 10
16 27
16 45
ဒါ ပေမယ့်</w>
ခန့် မှန်း</w>
ဝေ ဿ
ပြုလုပ် ပြီး</w>
၁၀ ၀
တော်မူ ပြီး</w>
13 8</w>
တရုတ် တို့</w>
39 0</w>
50 8</w>
ဖွား မြင်</w>
အမှတ် လက္ခဏာ
မြို့နယ် တစ်ခု</w>
ဘိုး ဘေး
ad y</w>
လက်ခံ ရရှိ
လိုင်း ရွာ</w>
သည်း ခံ
နယ်မြေ များ</w>
စတုရန်း မိုင်
ယနေ့ အထိ</w>
ပိုင်ဆိုင် သည်</w>
စူး စိုက်
ပညာရပ် များကို</w>
သင်္ဂ ဟ
တောင်ဘက် သို့</w>
သီဟ သူ</w>
သိုး မွေး
ထိရောက် စွာ</w>
မလေးရှား နိုင်ငံ</w>
the ir</w>
တလျှောက် တွင်</w>
ဗန္ဓု လ
အာနိ သင်</w>
ရှုတ် ချ
မိုက္က ရို
ဤသုတ္တန် တွင်</w>
" '
2 12</w>
2 15</w>
2 17</w>
P ang</w>
R ed</w>
ထ ျ
မ ပြီး
မ လွန်
မ ယ့်</w>
တွ ယ်</w>
ဖြစ် ကြလေသည်</w>
နိုင် ခဲ့ကြသည်</w>
ပါ လို့</w>
သူ တွေ
ရင်း တိုက်
နိုင်ငံ အဖြစ်</w>
တိ တိကျ
ပေး ကမ်း
စာရင်း ကို</w>
15 90
00 8</w>
ထုတ် ပြန်</w>
ကောင်း မွန်</w>
an ta
တွေ့ ရှိ</w>
လွှ ဲ</w>
အသုံး ချ</w>
တန်း ကျေးရွာအုပ်စု</w>
ခင် က</w>
သော် ကား</w>
er y</w>
en s</w>
ရိုး သား
ငြ ား</w>
နတ် ပြည်
ကိုင်း ကျေးရွာအုပ်စုတွင်</w>
ရရှိ ခဲ့</w>
ညောင် ကုန်း</w>
ဏ္ ဏ</w>
သေး ဘဲ</w>
စတင် ပြီး</w>
ဖြတ် သန်း</w>
ရုံး တွင်</w>
စွဲ ကပ်
အိုင် ဒီ
ပြည်နယ် ကို</w>
39 3</w>
ဆု များ</w>
တွေ့ရှိ နိုင်သည်</w>
အကျိုး စီးပွား
ဟိ ရို
သာမ က
တမ ံ</w>
မှန်း ဆ
ခြုံ ရွာ</w>
အထိ ပင်</w>
အများစု က</w>
လွှမ်းမိုး ခဲ့သည်</w>
အထောက်အ ပံ့</w>
ဒေး ဗစ်</w>
တံခွန် တိုင်</w>
ဘုတ် ရွာ</w>
သောင်းကျန်း သူများ</w>
ဂျိ ဘူတာ</w>
ဖူ ကူ
ယာမ ခရိုင်</w>
ဘဏ္ဍာ ရေး</w>
ပြစ်မှု ထင်ရှား
ဖျာ ပုံ
သင့်လျော် သော</w>
မှောင် ခို
str uc
mus ic</w>
:/ /</w>
9 4
D r</w>
I m
O ff
b u
က မ
က ပင်
ခ န်</w>
ဇ စ်
ဇ ရစ်
မ ရပ်
မ လွယ်ကူ
မ နီလာ
ဝ င့်
အ ငူ
အ မျှင်
ဧ ကန်
ကျ ု</w>
ဖြစ် ခဲ့ရသည်</w>
လေ ကို</w>
နေရာ တွင်
ထို အခါက</w>
စစ် ဌာနချုပ်</w>
မင်း ခေါင်</w>
မ္ မာ</w>
ရောက် သွား
ပုံ နှိပ်</w>
15 35
17 25
ကျွ န်</w>
19 10
16 70
16 90
သုံး ခွ
00 3</w>
ကျောင်း သူ</w>
ကျောက် ခဲ
in es</w>
အောက် မှ</w>
နီ ယမ်
er g
ချောင်း ဖျား</w>
ပြောင်း ပြန်
မရှိ သော်လည်း</w>
တတ် သဖြင့်</w>
ကွန် ဂရက်</w>
ခေတ် ပြိုင်
အဓိ ဋ္ဌာန်
နောင် တော်
13 2</w>
တစ်ဦး နှင့်
သတင်း အချက်အလက်</w>
ဝန်း ရွာ</w>
ကျမ်း သည်</w>
သာသ န
50 6</w>
50 4</w>
50 2</w>
ဆွဲ ငင်
38 1</w>
အဆင့် မြှင့်တင်
မော ဂ္ဂ
ထည့် ကာ</w>
ကမ္ဘာ့ ကျန်းမာရေး
ပြေ လည်
ဆရာတော် က</w>
ကင် ဆာ</w>
လိုအပ် သော
67 8</w>
ဖောက် ဖျက်
၂၉ ၇</w>
တပ်မတော် တွင်</w>
ဆင့် ကဲ
ခွဲခြား ထားသည်</w>
အစ္စ ရေး</w>
roc k
စာတမ်း ကို</w>
ကုန်သွယ် မှု</w>
ဝိုင် အမ်
သွန်း လုပ်
En ter
ငှက်ပျော တောရွာ</w>
စောက် ရွာ</w>
Rec ord
Ass oci
ပင်လယ်ရေမျက်နှာပြင် အထက်</w>
ကျွန်တော ့်
C E
H T
S am
c en
c ol
h ave</w>
က ခုန်
ဖ ေး
ဖ ရာ
လ ဟာ</w>
ဝ ဝဝဝ</w>
သ လိပ်
ဤ ကဗျာ
စ် နှင့်</w>
ရှိ ခဲ့</w>
နိုင် သေးသည်</w>
တည် ခဲ့သည်</w>
လာ ခဲ့
ထား ပြီးလျှင်</w>
ဒေ လီ
ခြင်း ထက်</w>
သွား မည်</w>
နယ် ချဲ့</w>
17 90
ပေ တည်း</w>
မူ ကွဲ
ထုတ် ခဲ့သည်</w>
ဆိုင် များ</w>
ကောင်း ကင်</w>
မြေ ဒူး
အပြ ုံ
ဟို တောင်းမြို့နယ်</w>
ရရှိ ခဲ့သော</w>
ကလေး ကျေးရွာအုပ်စု</w>
အို စီ
ဒ် သည်</w>
စုံ တွဲ
13 7</w>
တစ်ဦး ဖြစ်</w>
တည်ရှိ ခဲ့သည်</w>
အလုပ် အမှုဆောင်
ပစ္စည်း များနှင့်</w>
တည်ဆောက် ရေး
ကပ် လှူ
အိန္ဒိယ နှင့်</w>
လျှောက် ထား</w>
ကင် ပွန်း
ဖွယ် ကောင်း
အခြေအနေ မှာ</w>
Ky auk</w>
သီရိ လင်္ကာ</w>
၁၈၇ ၈</w>
ခန့်အပ် ခြင်း</w>
မိသားစု ဝင်
ရင်းနှီး မြုပ်နှံ
ကွန်ပျူတာ တက္ကသိုလ်</w>
ကိုလိုနီ ခေတ်
En g
ဘုန်းကြီး ကျောင်း</w>
ဘိုးတော် ဘုရား
အမွှေး အကြ
အတိုင်းအ တာ</w>
ချန်ပီ ယံ</w>
ရေငုပ် သင်္ဘော
ကုန်းပြင် မြင့်
3 20
စ ရိုက်</w>
တ မ်
ဟ ျ
ဤ မျှ
၅ ၀၀၀</w>
န် သည်</w>
ကြ ိုင်ရွာ</w>
ကျေးရွာ တွင်</w>
ထား လျှင်</w>
နာ သည်</w>
ရပ် ရွာ
15 28
ရှင် သာမဏေ
သီ ဝ
ကုန် ကူး
လမ်း ပြ
ထွက် ခဲ့သည်</w>
အသုံးပြု နိုင်သည့်</w>
ရရှိ လေသည်</w>
လယ် ယာ</w>
ကွန် ဖရင့်
၁၀ ၃</w>
တိုင် ပင်</w>
ငွေ ချေး
ta c
ta in</w>
ဗိုလ် သက်
ရှေး ကျသော</w>
ထွန်း ကား</w>
ပီ တာ</w>
တည်ဆောက် ခဲ့ပြီး</w>
အချက် ပြ
ကံ ကြီး
ပြီ ဖြစ်</w>
ငှက် များ</w>
၂၂ ၂</w>
el s</w>
အသက် ကို</w>
မရ မ်း</w>
ဆည် ရွာ</w>
ဗဟို ဌာနချုပ်
ခရိုင် အတွင်း</w>
ဝေး သော</w>
ယု တ္တိ
သိပ္ပံ ပညာ</w>
၁၈၉ ၂</w>
201 1</w>
ဝန်ဆောင် မှုများ</w>
ပြောင်းရွှေ့ ခဲ့သည်</w>
ပိန်း ရွာ</w>
ခရစ်ယာန် ဘာသာ
ဈာ ပန
မှတ်တမ်းတင် ခဲ့သည်</w>
ကျန်ရစ် သည်</w>
ရုက္ခ ဗေဒ</w>
ဋီ ကာ</w>
တစ်နည်း အားဖြင့်</w>
အစောင့် အရှ
မိုဟာ မက်</w>
2 14</w>
3 25
I P</w>
w n</w>
က ို့
ည ား</w>
ယ ုတ်</w>
။ ။</w>
ကြ ို</w>
ဖြစ် သူက</w>
နေ ရောင်
ဦး ထုပ်
ဦး ခင်မောင်
ရေး သူ</w>
တော် သလင်း
လာ သည်ဟု</w>
လုပ် သား</w>
အစ ပိုင်းတွင်</w>
လှ ကျေးရွာအုပ်စုတွင်</w>
ခြင်း ပင်ဖြစ်သည်</w>
စစ် ကြီး
မင်း လက်ထက်
စာရင်း သွင်း
ဆုံး သော
မွ န်း</w>
လို သည့်</w>
တပ် ခွဲ
ကား များ</w>
နီ လာ</w>
တစ်ခု အနေဖြင့်</w>
စတ ေ
အိမ် စောင့်
အခြေ ချ</w>
အသုံးပြု သူ</w>
အသုံးပြု ပုံ</w>
နောင် တော်</w>
ဗိုလ် တ
မု နိ</w>
is s
ဂေါ င်း
တည်ဆောက် ရေး</w>
၁၉၃ ဝ</w>
ခရိုင် နှင့်</w>
65 4</w>
ကုမ္ပဏီ က</w>
တွေ့ရ တတ်သည်</w>
70150 8</w>
201 9</w>
ရွေ့ ပြောင်း
ဒီး ဒုတ်
ပုံနှိပ် တိုက်
အထည် အလ
ရုတ် တရက်
လျှပ်စစ်ဓာတ် အား
ပါက စ္စတန်</w>
အသုံးအ နှုန်း</w>
ဖြောင့် မတ်
ဘူမိ ဗေဒ
ချစ်ကြည် ရေး
ရှေးအကျ ဆုံး</w>
mod ule</w>
အတိုင်ပင် ခံ
ယဟူ ဒီ
7 10
9 68
S in</w>
T el
g h</w>
p end
က ရစ်
ဂ ုတ်
င င်း
ဒ ျ
ပ ေ့
ပ ရက်
ရ သော်</w>
အ ကွဲ
၂ ၂၀</w>
ချ ေး</w>
များ ပေါ်</w>
ဦး ဖြင့်</w>
လျ ောက်</w>
သား ပေါက်
ယူ ရို
ခုနှစ် အတွက်</w>
အိ န
တပ် သား</w>
00 9</w>
in clud
အဖွဲ့ သို့</w>
မြောက် ဖက်
14 60
ငယ် သည်</w>
မိုး ရွာ
ရင် တော့</w>
အိမ် သာ
ရဲ ရင့်
၁၂ ၉</w>
ဇာတ် ဆောင်
ဆောင်ရွက် ရာတွင်</w>
ဂ္ဂ ဟ
အရှေ့ ဖက်
အမှ န်</w>
မြှ ပ်
အက် ဒ
ကွင်း ကျေးရွာအုပ်စုတွင်</w>
ဘွဲ့ များ</w>
ခန်း တွင်</w>
38 0
မက် ထရို
40 4</w>
အသင်း ဝင်
သူများ လည်း</w>
69 6</w>
69 7</w>
မြန်မာ့ ဆိုရှယ်လစ်
ဒဏ် ရာ</w>
အားလုံး တွင်</w>
ဥရောပ တိုက်တွင်</w>
မှတ်တမ်း များ</w>
ဆုံးဖြတ် ခဲ့သည်</w>
ဉာဏ် တော်
နိုင်ငံခြား သား
ဘတ် စ်
ကြေညာ သည်</w>
စွယ် တော်
အကောင် အထည်</w>
ဗျူ ရို
ပထမဦး စွာ</w>
အီဂျစ် နိုင်ငံ</w>
ခြမ်း တွင်</w>
ဒီပ ီ</w>
သူဌေး ကုန်းရွာ</w>
နဝ မ
မဲဆန္ဒ နယ်</w>
ယင်းတို့ အနက်</w>
တုပ် ကွေး
ခြောက်သွေ့ သော</w>
ကင်မ ရာ
gu itar</w>
ပလတ် စတစ်
Burm ese</w>
" ။</w>
2 10</w>
D r
P i
e i</w>
စ န်းရွာ</w>
ဓ ည
ဖ မ်း</w>
မ သတ်
ရ သည်ဟု</w>
သ န္တ
အ ူ</w>
အ ပါး</w>
ဥ ရု
၇ ၈၁</w>
စု သည်</w>
လည် ချောင်း
တို့ အား
၂၀ ၆</w>
၂၀ ၂၁
နှစ် ဖက်</w>
သူ များမှ</w>
သူ ငယ်</w>
၁၉ ၅</w>
လှ ီး
သန်း ကျော်</w>
နာ ခံ
ပေါ် မူတည်</w>
လို ကြောင်း</w>
မြေ ဩဇာ</w>
ငယ် လေး
ဆေး ရေး
အိမ် ကို</w>
ဟို နားရွာ</w>
ပ္ ပ</w>
စကား ဖြင့်</w>
သု ဓမ္မ
လူမျိုး နှင့်</w>
ရို မန်
13 4</w>
တွေ ကို
၁၄ ၄</w>
ရွေး ကောက်</w>
ကွင်း ကြီး</w>
သာယာ ဝတီ</w>
သမိုင်း နှင့်</w>
ဆန် ဖရန်
လောင်း ကစား
om ic</w>
ဝင်ရောက် တိုက်ခိုက်
48 5</w>
ပြင်း ပြင်းထန်
69 9</w>
ဖမ်း မိ
67 7</w>
ကြက် တူ
ပျောက် ကင်း</w>
46 2</w>
ယေ န</w>
အကြံ ပေး</w>
ကွဲပြား သည်</w>
ပူးပေါင်း ကာ</w>
ဟွ န်း</w>
ပရို တက်
အစိတ်အပိုင်း များကို</w>
မိဘ နှစ်ပါး
ဆေးရုံ ကြီး</w>
မကောင်း သော</w>
နယ်ပယ် တွင်</w>
ကလောင် ဖာ
လူတန်း စား</w>
မန်နေ ဂျာ
လက်ရွေး စင်
ဩစတေး လျ
ကျယ်ကျယ်ပြန့် ပြန့်</w>
ကွာလာ လမ်
3 30
D P</w>
T em
h k
y s</w>
ရ ကြောင်း</w>
အ ပိုင်းတွင်</w>
ချ ိပ်
များ စာရင်း</w>
ဦး ခေါင်း</w>
တစ် ထောင်</w>
ရေး ဌာန</w>
လာ ခဲ့သော</w>
ပြည် ကြီး
မာ န
ထား ဝယ်</w>
သည် ဟူသော</w>
နိုင်ငံ တွင်း</w>
ခြင်း ပြု
တောင် ဖက်
ကာ သ
15 70
17 40
17 67
ပညာ ဖြင့်</w>
00 6</w>
ပန်း ပင်
မြစ် လက်တက်
စိတ် သည်</w>
te c
te m
၁၅ ၀၀</w>
အက် ဖ်</w>
ဖွဲ့စည်း ခဲ့ပြီး</w>
ချိန် အထိ</w>
စ္စ တို
ဆန် စပါး</w>
အဆင့် ရှိ</w>
el f</w>
ati c</w>
မျက်နှာ ချင်း
45 4</w>
ဂုဏ် ရည်
မှုများ လည်း</w>
ဘိုး ဘွား
47 2</w>
65 7</w>
သိပ္ပံ ပညာရှင်</w>
၁၈၉ ၈</w>
em a</w>
မိဖုရား ကြီး</w>
တန်ခိုး ကြီး
ရေတွင်း ကုန်းရွာ</w>
ကဿ ပ</w>
စင်တီ မီတာ</w>
သဗ္ဗ ညု
Tim e</w>
Dev elop
သုံ့ ပန်း
2 13</w>
K N
O b
Y or
Y ou</w>
ပ ခန်း
ဖ ရဲ
မ ည
မ ပျက်</w>
ဤ သည်မှာ</w>
ကျ မှ</w>
နေ ဝင်
ိုး ရွာ</w>
လူ ရွှင်
ရေး ဆွဲ</w>
တို့ ထံ</w>
သွ က်
အစ က်
အစ ပြု
ပေး ချေ
စေ သော
19 70
၁၈ ၆</w>
16 80
ar i
နီ ကို
ပါး ရွာ</w>
စံ ရွာ</w>
မြတ် သည်</w>
or t</w>
ကျွန်း ကျေးရွာအုပ်စုတွင်</w>
un e</w>
မျက် ရည်
၁၀ ၈</w>
သေး သည့်</w>
ဆင်း ရဲ</w>
ကျမ်း စာ</w>
36 0
လွတ်လပ် ရေးကို</w>
နှုန်း သည်</w>
45 0</w>
ဝမ်း သာ
အရပ် ကို</w>
ခဲ့ရ သည့်</w>
ခေါင်းဆောင် အဖြစ်</w>
လု ယက်
ကုမ္ပဏီ ကို</w>
၃၆ ၅</w>
ပေါင် ရွာ</w>
ပြိုင်ပွဲ များ</w>
ပန်းချီ ဆရာ
ဖန်တီး ခဲ့သည်</w>
ခွဲခြား နိုင်သည်</w>
အရာရှိ များ</w>
ကြိုးပ မ်း</w>
ဟွ ာ
အတည် ပြု</w>
တို့ကို လည်းကောင်း</w>
ဗိုလ်မှူး ချုပ်
ကိုလို နီ</w>
မော်တော် ကားလမ်း
မှန်ကန် သော</w>
ကရာ တေး
အသု ဘ
ဇ္ဈာ ယ်
မြစိမ်း ရောင်
2 18</w>
3 35
M er
O ne</w>
P in
h a
က တ်</w>
ဂ ရစ်
ဆ တ်</w>
တ လန်</w>
ဗ ွေ
ဘ ား</w>
အ မြောက်</w>
ဥ တ္တရ
ီ ရွာ</w>
၁ ဝဝဝ</w>
၈ ၄၂</w>
င်း အား</w>
ရှိ သေး</w>
ဦး ရီး
လူ ပုဂ္ဂိုလ်
ထား ပြီး
လက် ကို</w>
ထို သူသည်</w>
တာ သည်</w>
သမ န်း
ပေး သွင်း
အမ ေး
စေ တတ်သော</w>
ပု စ္ဆာ
ယူ ကြသည်</w>
ပုံ ကျေးရွာအုပ်စုတွင်</w>
15 24
15 40
ပေ မှ</w>
14 78
ပေါင်း ထည့်
ပေါက် ပင်
ဆေး ဖက်
10 34
တန် ပြန်
သတင်း ထောက်</w>
သတ်မှတ် ချက်</w>
ရန်ကုန် မြို့ရှိ</w>
ကျမ်း ပြု
လေ့လာ ရန်</w>
ထုတ်လုပ် ခြင်း</w>
ရှေ့ ပြေး
45 8</w>
49 0</w>
ခွန် အား
မောက် ရွာ</w>
ပြန့် နှံ့
le ge</w>
တိုင်းပြည် ကို</w>
လို့ ခေါ်
သက်ရောက် မှုများ</w>
ပြဿနာ ကို</w>
သီဟ ပတ
ကျွန်တော် တို့</w>
Ny aung
ဖေဖော်ဝါရီ လ
ချူ ပ်
enc y</w>
ပိဋက တ်</w>
ထိုနည်း တူ
ဗာရာ ဏ
မန်တွ န်းမြို့နယ်</w>
ကလောင်ဖာ မြို့နယ်</w>
L ab
L ong</w>
S a</w>
S ou
y c
က တ္တရာ
တ စုံ
ထ မ်
ဒ စ်</w>
ယ ဲ
သ ကာ
ကျ ိန်း
များ သာ
ခဲ့ ခြင်းကြောင့်</w>
လူ ဝင်
၂၀ ၅</w>
နှစ် ပိုင်း
သည် မှ</w>
ခွ န်း</w>
18 60
ကျောက် ဂူ
ar s</w>
မြေ တိုင်း
မိုး ဗြဲ
ဒါ န</w>
စတ ဲ့</w>
မီး ရွာ</w>
မရှိ ကြောင်း</w>
ကလေး ကျေးရွာအုပ်စုတွင်</w>
ညောင် ရွာ</w>
ရေးသား ဖော်ပြထားပါသည်</w>
13 3</w>
13 9</w>
တောင်း ကျေးရွာအုပ်စုတွင်</w>
ရှည် လျား</w>
ပြည်နယ် များ</w>
တည်ဆောက် ထားသော</w>
စသည် တို့ဖြင့်</w>
၂၂ ၆</w>
စမ်း သပ်</w>
ခြောက် လ
အင်္ဂလိပ် စာ</w>
ဝတ္ထု ရှည်
ပြည်ထောင်စု သမ္မတ
တူး ရွာ</w>
၃၅ ၅</w>
ကဗျာ အမျိုးအစားဖြစ်သည်</w>
ပေါ်ပေါက် လာသည်</w>
ပရိ ဘောဂ
ရှယ် ယာ</w>
ခ် ျ</w>
46 1</w>
ရေနံ ချောင်း
သတင်းစာ ကို</w>
အမတ် အဖြစ်</w>
အလှ အပ
မျှော် မှန်း
ဂွေး ပင်
အသွင် အပြင်
Kh a</w>
ပြက္ခ ဒိန်</w>
သေချာ စွာ</w>
So yu
ပစိ ဖိတ်</w>
ဟားခါး ခရိုင်</w>
ကထိ က
အမျက် ထွက်
အေဂျင် စီ</w>
မိုက်ခရို ဆော့
အပစ် အခ
အလင်္ ကာ
"' ()</w>
2 11</w>
5 29
F C</w>
L et</w>
M I
R ev
S oci
W ak
က န်းရွာ</w>
ခ ဘူတာ</w>
ဂ လက်ဆီ</w>
ဇ လ
တ နေ့
မ ပြည့်
အ ရန်
ဤ ကား</w>
ပြ ိုင်း
ဖြ ား
နိုင် သမျှ</w>
တည် ရာ</w>
လူ ဖြူ
တို့ အနက်</w>
တော် လှန်</w>
ရေ အောက်
သူ ရဲ</w>
မှု ကြောင့်
မှု အပေါ်</w>
ထား သည်ဟု</w>
ထို မှတစ်ဆင့်</w>
သိ ဒ္ဓိ
စေ ခြင်းဖြင့်</w>
အခ ိုက်
15 60
ရန် ကို</w>
ဆက် နွှယ်
ချုပ် ငြိမ်း
16 47
ကိုယ် လုံး
ကောင်း ကောင်း
မိုင်း လင်း</w>
တစ်ခု ချင်းစီ
တို တောင်း
ကမ္ဘာ ဦး
ရိုး မ</w>
ရိုး ကျေးရွာအုပ်စု</w>
စံ ကား
အသုံးပြု ကြ</w>
အရာ များ</w>
အရာ ဝတ္ထု</w>
တည်း ခို
သတင်း ပို့
ရုံး ချုပ်
ကစား သမား</w>
ဒေါ် စိန်
ဆယ် ကျော်
es si
အဆင့် ဖြင့်</w>
as ed</w>
ဖူး ရွာ</w>
45 5</w>
အရပ် မှ</w>
79 9</w>
၂၅ ၆</w>
ပဲ ရစ်
67 4</w>
ဖြစ်ပွား ခဲ့သော</w>
65 8</w>
မြို့တော် ဝန်
ဥရောပ တွင်</w>
ပိုမို များပြား
ပြုပြင် မွမ်းမံ
201 5</w>
အင်တာ ဗျ
နော် မန်
ပရို တို
မော်လမြိုင် မြို့</w>
လာရောက် လည်ပတ်
ဧရာဝတီ တိုင်းဒေသကြီး</w>
အင်ဂျ င်</w>
Se ik</w>
ခေါင်းစဉ် သည်</w>
အနီးအနား ရှိ</w>
အမျိုးသားဒီမိုကရေစီ အဖွဲ့ချုပ်</w>
ဟင်းသီးဟင်း ရွက်
Soyu z</w>
2 16</w>
6 3
B M</w>
K u</w>
S en
g res
n ey</w>
p os
စ လုံးကို</w>
ဒ လ</w>
ရ ောင်း</w>
၄ ဝဝ</w>
ရှ စ်</w>
စု ဆောင်း</w>
ti on
တည် နေ
ရေ ကြောင်း</w>
မှု တို့</w>
မှု များကို
မာ ကျူ
နေရာ ဖြစ်သည်</w>
ပင် စည်</w>
နေထိုင် သည့်</w>
ပေး ရာ</w>
ပေး လှူ
စေ လေသည်</w>
အိ တ်</w>
ပုံ သည်</w>
ရန် ကင်း
တိုက် စား
သစ် သား</w>
စက် ဘီး
တရား တော်ကို</w>
14 47
ပေါက် သော</w>
ရင် ဂျီ
ပထမ တွင်</w>
အဖြစ် သာ</w>
၁၃ ၉</w>
တော်မူ ပြီးနောက်</w>
ဖန် ရွာ</w>
၁၉၈ ဝ</w>
သမား ရိုး
သာသနာ နှစ်</w>
အခြေခံ ပညာ</w>
စိုက်ပျိုး လုပ်ကိုင်
45 3</w>
ယွ မ်
48 3</w>
လိုအပ် သလို</w>
ဆဲ လ်</w>
ကျန်းမာ ရေးနှင့်</w>
ရထား လမ်း</w>
၁၈၉ ၁</w>
၃၆ ၂</w>
လိမ့် မည်
ယေ ဘူ
ယနေ့ ခေတ်တွင်</w>
ညောင်ပင် သာ</w>
အနိုင် ရရှိခဲ့သည်</w>
တင့် တယ်</w>
အစီရင်ခံ စာ</w>
Hp a</w>
စူးစမ်း ရှာဖွေ
သင့်တော် မည်ထင်
ရာဇာဓိ ရာဇ်
တပ်ပေါင်း စု</w>
ယူဇ နာ
မြောက်လတ္တီ တွဒ်</w>
ပရိယာ ယ်
4 20
R E
U S</w>
b es</w>
က သည်</w>
ဆ န္ဒ</w>
အ လွှာ</w>
၃ ၂၅</w>
မြ ိုက်
မှ လည်းကောင်း</w>
သေ ကြေ
ဦး စော
နိုင် အောင်
ပါ ရန်</w>
ကု ဒ်</w>
ကြီး ကုန်း</w>
အသ င်္
ရိ ပ်</w>
စေ လွှတ်</w>
15 47
တပ် ဆင်</w>
တိုက် ဆိုင်
သုံး ဆင့်
ကိုယ် ကျိုး
ကြား မှ</w>
အောက် ခံ
လမ်း မကြီး</w>
အဆ န်း
တရား တော်
မြစ် ဝှမ်း</w>
ညီ အစ်ကို</w>
ကြာ အောင်</w>
ခေတ် ပေါ်
၁၃ ၆</w>
ကောင် ကျေးရွာအုပ်စု</w>
ပစ္ စု
မောင် တင်
အဝ ါ</w>
ရှင်း လင်း</w>
အထက် ပိုင်း</w>
ခန်း များ</w>
မဟုတ် ဘူး</w>
ပါတီ က</w>
49 9</w>
ပုံစံ သည်</w>
79 5</w>
တေး သီချင်း
၁၈၈ ၉</w>
ရှစ် ပါး
In n</w>
များနှင့် လည်း</w>
အပေါ် ယံ
ပထမဆုံး အကြိမ်
46 9</w>
တင်ပြ ခဲ့သည်</w>
ငြိမ်းချမ်း သာ
တစ်စ တစ်စ</w>
ဒါယ ိ
စက ီး
သို့ရောက် သောအခါ</w>
cl uster</w>
မှော် ဘီ
တွေ့မြင် နိုင်သည်</w>
ရုပ်သံ လိုင်း
ne w</w>
မပေါ် မီ</w>
ီးယပ် စ်</w>
Ge or
ဖာရင် ဟိုက်</w>
Gener al</w>
လုပ်ထုံး လုပ်နည်း
S ing
T ran
ပ ခုံး
မ လ
မ နှစ်သက်
ဝ ဂ္ဂ
သ လဲ</w>
ဟ ိုင်း</w>
အ ံ</w>
ကျ က်</w>
ချ ခြင်း</w>
ပါ ရမီ</w>
တို့ ရဲ့</w>
နှစ် သား</w>
နှစ် တိုင်း</w>
သူ ဟု</w>
စွ န့်</w>
ခြင်း က</w>
စစ် ပြေငြိမ်း
15 67
တွင် ဖြစ်စေ</w>
အကြ ို
19 67
19 47
က္က ူ</w>
သည့် နောက်</w>
သစ် များကို</w>
စည်း ခုံ
ပိုင်း ခြား</w>
နောက် ရွာ</w>
တရား တို့</w>
တရား ငါးမျိုး
ပေါက် ပွား
ဒေါ သ</w>
ကမ္ဘာ အရပ်ရပ်
မီး ပုံး
စကား လုံးကို</w>
၁၂ ၆</w>
၁၃ ၈</w>
လူမျိုး များနှင့်</w>
ဌာန က</w>
အနောက် စု</w>
တစ်ဦး ချင်း
ဖွဲ့စည်း ရန်</w>
ကွင်း ကို</w>
ပိ ရမ
အကြီး စား
om e
တိုက်ခိုက် ရေး
၂၂ ၅</w>
ထီး တော်
ဆူ ညံ
48 9</w>
ခေါင်းဆောင် ကြီး</w>
ဆရာတော် အား</w>
79 7</w>
ဗမာ ့</w>
200 0
ရာစု မှ</w>
65 1</w>
ဆန္ဒ ခံယူ
ကျွဲ တ
et s</w>
စိမ်း လန်း
ချီးမြှင့် သော</w>
အလှ ဆင်
အကြား ရှိ</w>
သဒ္ ဒါ</w>
ထိုက် တန်
ရော့ ခ်
az i</w>
ကျေ ညာ
ပလ္ လင်</w>
တပင် ရွှေထီး
ဒေါ်အောင်ဆန်းစု ကြည်</w>
Jap an</w>
ထရန် စ
ကျောက်စ ရစ်
ဣသရေ လ
2 19</w>
M y</w>
N o
t op</w>
ခ ိုင်း</w>
တ ညီ
ဓ ော
အ ပ္ပ
ို င့်
န် ကျေးရွာအုပ်စု</w>
မြ က်</w>
ချ ကာ</w>
များ ကမူ</w>
ရွာ ကြီးရွာ</w>
သူ တွေ</w>
ခွ မ်
ခံ လိုက်
စစ် သူကြီး</w>
သို့ ပင်</w>
ခုနှစ် များ</w>
17 70
17 50
17 80
အကြ ပ်
18 80
er al</w>
ချောင်း ကို</w>
ကျော် က</w>
ဟု သာ</w>
ခွင့် မပြု
10 39
ခန့် မျှ</w>
ဒု ံ</w>
မရှိ ပဲ</w>
နိ ပါတ်</w>
ကြာ သောအခါ</w>
တတ် သူ</w>
အမည် ပေးခဲ့သည်</w>
အချိန် ထိ</w>
အရေး ပါ</w>
ဟာ ့
te n</w>
၁၅ ဝ</w>
မြှ ေး
နမ့် ဖိုင်
ဖန် ခါး
ရောဂါ နှင့်</w>
တွေ့ရှိ ရ</w>
အသင်း နှင့်</w>
အခြေခံ သော</w>
us h
48 7</w>
လှုပ်ရှား မှုကို</w>
79 3</w>
79 8</w>
သန် စွမ်း
၁၈၈ ၃</w>
ရွေးချယ် ခဲ့သည်</w>
သည်း ခြေ
46 0</w>
နွေ ဦး
di e</w>
ဘုံ သို့</w>
နော် ဝေး
An g
ရွတ် ဖတ်
သာမန် အားဖြင့်</w>
အနီ ရောင်</w>
Py ay</w>
ဒဏ်ရာ ရ
အကောင်အထည် ဖော်</w>
ဖြစ်ရ ကား</w>
အတိုက် အခံ</w>
Comp any</w>
အင်ပိုင် ယာ</w>
တရားမ ဝင်</w>
လျစ် လျူ
ကောသ လ
ယန္ တရား
Engl ish</w>
အဇာတ သတ်
မြစိမ်းရောင် ကျေးရွာ
သင့်တော်မည်ထင် သော</w>
" -</w>
3 20</w>
4 30
K al
M S</w>
P an
b le</w>
y m
ထ ိမ်
ပ ဉ္
ဖ ိုလ်</w>
ဖ ှာ
မ ဒီ
လ မိုင်း
အ ုရ
ကြ ခတ်
ကျ ီ</w>
ဦး မှာ</w>
နိုင် နင်း
စာ တည်း
ရေ ထွက်
စွ ယ်</w>
သည် မဟုတ်</w>
တာ ကြောင့်</w>
ဂျ င်း</w>
ခြင်း ကိုလည်း</w>
တိ န်း</w>
သိ င်္ဂ
ဒေသ အလိုက်</w>
ယူ ကေ
ရက် အတွင်း</w>
သွား အောင်</w>
15 30
19 55
၁၈ ၅</w>
၁၈ ၂၄</w>
သုံး စွဲ</w>
သံ ယော
မြောက် ရွာ</w>
ပါဝင် ပတ်သက်
တူ သော</w>
တို ကျို</w>
စဉ် အတွင်း</w>
on t</w>
ဆေး ကို</w>
၁၆ ၃</w>
စိတ် အား
အတွင်း မှာပင်</w>
သီး နှံ</w>
မှာ ပါ</w>
ကော ဇာ
မဟုတ် ဟု</w>
သမား များသည်</w>
39 0
tr al</w>
ဝတ် လုံ
40 1</w>
မယ် လို့</w>
at or</w>
45 7</w>
ဝါဒ ဖြန့်
48 0</w>
68 8</w>
79 4</w>
ဘေး မှ</w>
လုပ်ဆောင် ချက်
မောင်း ထောင်
၂၇ ၅</w>
ပြင်သစ် နိုင်ငံ
စူး ရှ
အခွင့်အရေး ကို</w>
ရိုးရာ ဓလေ့
ရည်ညွှန်း သည်</w>
sp ac
Intern et</w>
နေစဉ် အတွင်း</w>
အာဆီ ယံ</w>
အထောက်အကူ ပြု
တပ်မြို့ စည်ပင်သာယာ
မတော်တ ဆ
ဂေါတ မ</w>
ဤကဗျာ ခေါင်းစဉ်သည်</w>
M i
d re
k n
r ad
က ုံး</w>
ဒ က္ခိ
အ အောင်မြင်
” ၊</w>
ရွ ံ
များ ထံ</w>
တည် ကြည်
လူ တိုင်း</w>
တော် တို့</w>
လာ ရသည်</w>
ပြည် မြို့</w>
သာ လျှင်
စွ န်းရွာ</w>
သည် များကို</w>
မျိုး ရင်း</w>
အစ င်း
သန်း ခန့်</w>
နာ ကို</w>
ရက် တွင်
15 55
ဆုံး ဖြတ်</w>
17 30
17 55
19 50
18 50
18 55
ရွှေ တိုက်
ဖော် စပ်
ပေါက် တော
th r
ဒါ န်
စတ ား
နန်း တွင်း</w>
ဆီ ယမ်</w>
ပြည့် လွန်
ငါး ဖယ်
လား ရွာ</w>
မု ဒ
တည်ရှိ ပါသည်</w>
ပြိုင် ဆိုင်
ခံရ ပြီးနောက်</w>
ac c
45 9</w>
အယ် လက်
49 3</w>
ဥက္က ံ
ကွယ်လွန် သွား
67 2</w>
ယု တ္တ
ကျုံ ့
65 2</w>
ပြင်သစ် နှင့်</w>
လောက ကို</w>
အော် ရွာ</w>
ဖွင့်လှစ် ပေးခဲ့သည်</w>
46 7</w>
43 8</w>
ကောင်စီ က</w>
ချီးမြှင့် ခြင်း</w>
ပိုင်ဆိုင် သော</w>
အခွင့်အရေး များကို</w>
ချား လ်
အင်္ဂါ ရပ်
တပ်ဆင် ထားသည်</w>
မြောက်ဘက် ရှိ</w>
အနွ ယ်</w>
Mon g</w>
စော်ဘွား ကြီး</w>
အီရန် နိုင်ငံ</w>
အက်စ် အက်စ်
စေလွှတ် ခဲ့သည်</w>
ခဲ့ပြီး ဖြစ်သည်</w>
ဖွံ့ဖြိုးတိုးတက် ရေး
ဘေ ဘီ
ဂုဏ်ထူး ဆောင်</w>
သာဓ ု
ဖင် လန်
ပြွ န်</w>
ဦးရေ မှာ</w>
အတ္တလန္ တိတ်</w>
ဝင်္ က
သိသိသာ သာ</w>
3 19</w>
3 17</w>
F e
N am</w>
b et
c ap
t u</w>
t re
င ံ့
ဇ ေး
အ ဘွား
ဥ တ္တ
ဧ ချင်း
၉ ၇
ခဲ့ ကြောင်း
နိုင် ကြ</w>
စာ ချ
ရေ ငွေ့
၂၀ ၇</w>
နှစ် ဆ
နှစ် ခန့်</w>
ဒေ ရွာ</w>
ဂျ ိ</w>
ဂျ ိန်း
စစ် မျက်နှာ
တိ န်</w>
စေ နိုင်
လို သဖြင့်</w>
တပ် သည်</w>
၁၈ ၀</w>
16 30
ရွှေ စာ
ကျောက် ဖြစ်
an e</w>
ပွဲ စား
နည်း ဗျူဟာ
တူ ရွာ</w>
on y</w>
မရှိ သည့်</w>
အရှေ့ စု</w>
၁၅ ၄</w>
နမ့် တစ်
ကမ်း တွင်</w>
ဖြစ်လာ ခဲ့ပြီး</w>
လျက် ရှိသည့်</w>
အထက် ရွာ</w>
ဝိုင်း ဝန်း
40 8</w>
အယ် လစ်
ဘူတာ ရုံ</w>
၂၆ ၈</w>
၂၆ ၃</w>
44 0</w>
67 9</w>
si d
65 3</w>
၂၈ ၀</w>
၁၉၀ ၅</w>
43 9</w>
အရင်း အမြစ်</w>
လက်မ ခန့်</w>
လွှမ်းမိုး မှု</w>
စာတမ်း များ</w>
စက ီး</w>
တောင်ပိုင်း ရှိ</w>
ဖျော်ဖြေ ရေး
စတုတ္ထ မြောက်</w>
ဘုရားရှင် သည်</w>
ပစ္စ ယေန</w>
ခဲ့သည့် အတိုင်း</w>
ကြွက် သား
tic s</w>
ဖက်ဒ ရယ်</w>
ဂျီး ရီးယား
ဗဒုံ မင်း</w>
အကန့် အသတ်
I r
k yi</w>
u di
ဂ လို
တ စိုက်</w>
ဒ ိုင်</w>
မ ငြိမ်
ရ န္တ
ရ သည်မှာ</w>
သ တဲ့</w>
အ ဂ</w>
အ အိချိ
ပြ ောက်</w>
များ ရရှိ
များ အကြောင်း</w>
ရာ မှ
ပါ ရစ်
တို့ ဖြင့်
တို့ အပေါ်</w>
ရေ သွင်း
ပြည် မ
သူ ဌေး</w>
ထား ကြ
ထို ပုဂ္ဂိုလ်
အစ ေ
ရန် မ
ရန် လိုအပ်
17 77
18 30
18 77
16 28
16 50
ရွှေ ထီး</w>
လိုက် သဖြင့်</w>
ဆေး ဝါး</w>
ဖက် ဆစ်</w>
ဆောင်ရွက် နိုင်
ပြည့် တန်ဆာ
ဟူ း</w>
သူ့ အား
ရုံး များ</w>
တရုတ် နှင့်</w>
ပစ် လွှတ်
ရောဂါ လက္ခဏာ
ခါး ကျေးရွာအုပ်စု</w>
40 3</w>
သဲ ရွာ</w>
ထုတ်လုပ် သည်</w>
စိန် သည်</w>
အဲ ချိ
အုတ် တွင်း
ကိန်း ဝပ်
69 5</w>
44 8</w>
60 1</w>
ပြည်သူ ပြည်
လျှပ်စစ် သံလိုက်
တဲ ကျေးရွာအုပ်စု</w>
ter n</w>
46 6</w>
၁၈၇ ၂</w>
အမတ် ကြီး
မည်သည့် အခါ
ချော မွေ့
သွားရောက် ကာ</w>
ပြည်တွင်း စစ်</w>
အာရုံ ခံ
ဆင်းရဲ သား
ရမည် ကို</w>
အမရ ပူရ</w>
per i
ညံ့ ဖျင်း
ဝိဇ္ဇာ ဘွဲ့</w>
မိနစ် တွင်</w>
ထန်းတ ပင်</w>
ဝိညာ ဏ
စံတော် ချိန်
ကယ်လီဖိုး နီးယား</w>
ဦးစား ပေး
ရေအား လျှပ်စစ်
အေးချမ်းသာယာ ရေးနှင့်</w>
ဒီပလို မာ
တွံ တေး
M as
T ech
b it</w>
y o</w>
က ထိန်
စ ပါ
စ ောက်</w>
ဉ ့်</w>
ဒ သမ
ပ ီးယား
ဘ ေ့စ်
မ လ္လာ
ဝ ဇီ
အ တွင်</w>
အ ဖန်
ဖြစ် ခဲ့လေသည်</w>
ရှိ ဇု
ခဲ့ သည့်အပြင်</w>
ဦး လေး
ပါ ကျေးရွာအုပ်စု</w>
စာ အမှတ်</w>
ကို မို
ဒေ ါ</w>
ခြင်း ငှာ</w>
စစ် ကို</w>
ပေး လိုက်သည်</w>
ဝါ တ</w>
15 50
17 20
အခြ ာ</w>
တပ် စွဲ
အကြ ိုက်
19 20
ချက် လုပ်
ကန် တစ်ခု</w>
အင် မတန်
စတ ိုင်း</w>
မရှိ လျှင်</w>
တိုး မြှင့်</w>
ပြုလုပ် ခဲ့ကြသည်</w>
ဆီ ယမ်
ကော င့်
အဖြစ် သတ်မှတ်
ဖြူ ကျေးရွာအုပ်စု</w>
၁၃ ၀၀</w>
ကောက် ညှင်း
13 5</w>
ဥပဒေ ကြမ်း
မှန် ဘီလူး
ကာလ ပတ်လုံး</w>
အမျိုးသား လွှတ်တော်
ယွ င်း</w>
ထုတ်ဝေ သည့်</w>
79 1</w>
69 4</w>
69 8</w>
၂၆ ၂</w>
ချီး မြှင့်</w>
လုပ်ဆောင် သည်</w>
67 6</w>
47 7</w>
၁၈၈ ၇</w>
ကိုးကွယ် ကြသည်</w>
၁၈၉ ၉</w>
မကျ န်</w>
46 3</w>
46 5</w>
၁၉၀ ၁</w>
၁၈၅ ၇</w>
အစီအစဉ် များကို</w>
ဥက္ကဋ္ဌ နှင့်</w>
ထောက်ပံ့ ပေး
ကျို တို
လေ့ရှိ ကြ</w>
တွေး တော
ဆည်းပူး ခဲ့သည်</w>
ကြာမြင့် စွာ</w>
အတို ကောက်
တယ်လီ ဖုန်း
ထရို ဂျန်
ဂစ် တာ
ထောက်လှမ်း ရေး
ကျနော် တို့</w>
Bri tish</w>
K ing
M aw</w>
O c
w w
စ ွ</w>
စ တိုင်း
တ စု
မ စ
လ စဉ်
၃ တွင်</w>
ကြ သောကြောင့်</w>
ကျ ိတ်
နှ ိုက်
ဦး ဗ
ဦး မြတ်
ပါ ရာဇ
ပါ တကား</w>
လျ န်
လေ ထု</w>
ထား သောကြောင့်</w>
ထား ရှိခဲ့သည်</w>
ထို မှတဆင့်</w>
အန ည်
ပင် တိုင်
ပင် တည်း</w>
ဒေသ တွင်း
မင်း ညီ
ကာ ရာ
စား သည်</w>
ကုန်း စုရွာ</w>
ကုန်း သာရွာ</w>
ရပ် စ်</w>
15 20
ဆက် စပ်</w>
၁၈ ၃၇</w>
စီ တပ်</w>
စည်း ဝေး
လိုက် ပါသည်</w>
တစ်ခု က</w>
၁၇ ၀</w>
ဘက် တီးရီးယား
အကျ န်
ဂ္ ဂါ
တန် သည်</w>
တိုင် ကြား
ta b</w>
ဖော်ပြ သော</w>
သဘော ဖြင့်</w>
မိမိ အား</w>
ရှည် ကြာ
ကာလ များ</w>
လောင်း ကျေးရွာအုပ်စု</w>
တွေ့ရှိ ရသော</w>
ကျန် ရှိ
အသင်း မှ</w>
48 1</w>
48 2</w>
68 7</w>
79 2</w>
ခရိုင် ခွဲ</w>
ပညာရှင် များသည်</w>
60 3</w>
၂၄ ၂</w>
တူညီ သော
ခင်း ကျင်း
လူး ရွာ</w>
ညွှန်း ဆို
ဗိ မ္
ကတ် ရွာ</w>
ဆွတ် ဘူတာ</w>
အစု ံ</w>
တော်လှန်ရေး ကောင်စီ</w>
နိုး ကြား
မော်လမြိုင် မြို့နယ်</w>
မြန်မာပြည် သို့</w>
uc h</w>
ဆေးရုံ တွင်</w>
ခုတ် ရွာ</w>
အသီးသီး တွင်</w>
စာရေးဆရာ မ</w>
အီလက်ထ ရွန်</w>
ပတ္တ မြား</w>
မြစ်ဝကျွန်း ပေါ်</w>
ဒီမိုကရက်တစ် ပါတီ</w>
illi on</w>
နှစ်သား အရွယ်တွင်</w>
အကျုံး ဝင်
နယ်န မိတ်
ကပိ လ
ပြစ်မှုထင်ရှား စီရင်
နမ့်ဖိုင် မြို့နယ်</w>
အအိချိ ခရိုင်</w>
2 12
M ing
V ir
စ ကျင်
ဇ ိုင်
ဖ ီလာ
မ လိ
ဦး ပေါ်
တည် ဆဲ
တို့ ဖြစ်</w>
တော် ကျေးရွာအုပ်စု</w>
နှစ် များ
လွ မ်
လေ အောင်</w>
မာ လာ</w>
သည် ကိုလည်း</w>
ဂျ ော့</w>
မင်း တို့
ထွ ဋ်</w>
15 78
တွင် ပါဝင်သော</w>
လုံး နှင့်</w>
စည်း ကြပ်
ကိုယ် လက်
ရော ့</w>
နည်း များ</w>
er ing</w>
စိတ် ဖြင့်</w>
အများ ပြည်သူ</w>
ပြုလုပ် ထားသည့်</w>
ကိုင် ရွာ</w>
ကူ မင်တန်
ရှေး အခါ
ဆိပ် ကျေးရွာအုပ်စုတွင်</w>
ကင်း ထောက်
အမြ ွ
အမှတ် တံဆိပ်</w>
40 7</w>
45 2</w>
စောင့် ရှောက်</w>
အင်္ဂလိပ် ဘာသာ</w>
ဆူ ပါ
79 0</w>
60 5</w>
ပြည်သူ့ ရဲဘော်
47 6</w>
ဗြိတိသျှ တို့က</w>
ကုသ မှု
ဖွံ့ဖြိုး မှု</w>
သဘာဝ ပတ်ဝန်းကျင်</w>
အရည် အချင်း</w>
ဘောလုံး ပြိုင်ပွဲ</w>
me tal
ဤသို့ လျှင်</w>
အစု လိုက်
ပါဠိ တော်
pro v
ကုံး ရွာ</w>
အပျက် အစီး
အလုံး အရင်း
ဖော့ စ
စည်းလုံး ညီညွတ်
ဆွစ်ဇာ လန်
အဓိကရု ဏ်း
ပဒေ သာ
3 16</w>
A R
P on
T ri
က ွ</w>
ဂ ယက်
စ တက်
စ ပယ်
စ ခမ်း
ဆ လို
ယ ပ်</w>
၃ ခုနှစ်</w>
ကြ ကြောင်း</w>
ချ သည်</w>
မြို့ အား</w>
မြို့ များသို့</w>
ရွာ နှင့်</w>
တည် ရာ
စာ စီ
နှစ် လ
သာ မို
လက် တင်</w>
ထို ဒေသ</w>
စာရင်း အင်း
ကာ သည်</w>
မြန် ဆန်
တရ ုပ်</w>
မြန်မာ တို့က</w>
ရောက် မှ</w>
ရန် လို
18 20
ကျောင်း သည်</w>
မိုင်း ပု
မိုင်း တွန်း</w>
ပါဝင် သည့်
th ro
ရင် ဘတ်
ငွေ များ</w>
ပို တက်
ကင်း စင်
မဟုတ် သော်လည်း</w>
ထင်ရှား ခဲ့သည်</w>
လောက် သာ</w>
ချစ် သူ
45 6</w>
အိန္ဒိယ နိုင်ငံတွင်</w>
49 4</w>
ဘေး အန္တရာယ်</w>
44 3</w>
67 3</w>
67 5</w>
ch ar
ထိပ် တွင်</w>
သိပ္ပံ ပညာရပ်
၃၆ ၈</w>
စခန်း များ</w>
Ky un</w>
အလောင်း တော်</w>
အသီးသီး မှ</w>
အကြောင်းအရာ များ</w>
az ine</w>
ကိုလိုနီ ခေတ်</w>
လိမ် လည်
ရန်ပုံ ငွေ</w>
ဘုရားရှိခိုး ကျောင်း</w>
ယူနက် စကို
အီသီ ယိုး
စာရိ တ္တ
3 21</w>
3 24</w>
3 18</w>
B S</w>
B A</w>
D ar
H op
S ci
V is
a de
f f</w>
o ut
က ထာ
ဃ ာ
ရ ုရ
၂ တွင်</w>
ပြ ိုလ
ဦး မောင်မောင်
တည် သည်</w>
ကြီး တစ်ခု</w>
လာ နိုင်
သော မတ်
ဘာ ရွာ</w>
နိုင်ငံ သားများ</w>
အန ီ</w>
တောင် ကြား</w>
နေထိုင် ရန်</w>
လေး မျိုး
ထွ င်း</w>
ယူ အက်စ်
ရန် ရွာ</w>
သစ် ဖြူ
အရှ ုပ်
ပွဲ သည်</w>
ကုန် တင်
ပါဝင် မှု</w>
၁၇ ၈</w>
ပန်း တိုင်
ပေါင်း ချုပ်
ပေါင်း ဆုံ
အရ က်</w>
ယင်း မှာ</w>
မီး ထွန်း
လုပ်ငန်း ရှင်
အမည် နာမ
ကွန် ပြူ
အတွင်း ပိုင်း</w>
သု တ
ဓာတ် အားပေး
ငါး ခု
13 1</w>
၁၄ ၈</w>
တော့ တယ်</w>
စွဲ ချက်
ရစ် ပတ်
တိုက်ခိုက် မှု</w>
ညာ ဉ်
40 9</w>
45 1</w>
စောင့် ကြပ်
အဲ လ
လျှောက် တင်
ဆရာတော် ကြီး
ec tion</w>
ကြိမ် ချောင်းကြီး</w>
60 2</w>
ယော ကျ်
ဖောက် ကား
တမ ူး
နွား နို့
အမျိုးအစား ကို</w>
တတိယ မြောက်
ပြဋ္ဌာန်း ထားသည်</w>
ဥက္ကဋ္ဌ သည်</w>
ဒေး ဒ
ကျေးဇူး ပြု
အဓိပ္ပာယ် မှာ</w>
များဖြစ် ကြ</w>
အပြီး သတ်
နိုက် ထရို
ဒီဇ ယ်
ဧည့် ခံ
သောအခါ မှ</w>
ထွင်း ထု
နေပြည်တော် သို့</w>
ချွတ် ယွင်း
တိုင်းစစ် ဌာနချုပ်
ဆင်ခြေ ဖုံး
နယူးဇီ လန်
3 13</w>
M il
S l
b i
c ode</w>
d a</w>
e k</w>
f in
g n
h ar
က ရီ
ထ ရံ
ဒ ူ</w>
ဖ ီး</w>
မ မေ့
ဟ ုတ်</w>
အ တည်း
၁ ၁၂</w>
၁ ၁၄</w>
’ ’</w>
စု ဖုရား
ကု ဗ
တစ် လုံးကို</w>
ခု နစ်</w>
လူ သူ
လူ ဆိုး
လာ ခဲ့ကြ
နှစ် ကြာ</w>
လက် မှ</w>
လက် စား
လက် ဝဲ</w>
ဆို ရာ</w>
ထို ဒေသတွင်</w>
လှ န်း
စစ် တိုက်
စစ် ကဲ
စစ် မြေပြင်
တောင် ကုန်းရွာ</w>
လေး ပုံ
ပု လဲ</w>
ဝါ ရ
ပေါ် သို့
ရှင် မ
ရှင် တော်
ကျွ ံ
19 40
19 77
16 20
16 55
ကျောင်း ရှိသည်</w>
ကျောင်း ဆောင်
ကောင်း မှု</w>
မိုင်း ကာ
မည် ဖြစ်ပြီး</w>
ကုန် ကြမ်း
အဖွဲ့ ကြီး</w>
ဆရာ သည်</w>
14 37
မြစ် ရေ
ဟို တယ်</w>
အသုံးပြု နိုင်
or n</w>
နိ င်
နန်း မတော်
၁၀ ၄</w>
ဖြူ စင်
ကောက် ချက်
တရုတ် ဖြူ
ရဟန်း မိန်းမ</w>
ကင်း ကျေးရွာအုပ်စု</w>
ခန်း ရွာ</w>
ပိ ဿ
အရှင် မင်း
ဝမ်း ဘဲ
ဝတ္ထု ရှည်</w>
48 8</w>
79 6</w>
အသီး အသီး
69 2</w>
ကွယ်လွန် ပြီးနောက်</w>
47 1</w>
ထိုင်း နိုင်ငံတွင်</w>
မူလ တန်း</w>
ရယ် လ်
ပခု က္ကူ</w>
43 3</w>
၁၈၆ ၇</w>
၁၈၅ ၉</w>
201 8</w>
မည့် သူ</w>
အတော် အတန်</w>
အစည်းအဝေး ကို</w>
ဂွေး ကုန်းရွာ</w>
အွ တ်
ed aung</w>
မွန်း ကျေးရွာအုပ်စု</w>
နှိမ် နှင်း
စလုံး သည်</w>
Or gan
Comp uter</w>
စကြာဝ ဠာ</w>
မဟာဓမ္မ ရာဇာဓိ
အက်ဒွ ပ်
တပြိုင် နက်</w>
ther n</w>
သင်္ဂါယနာ တင်
ဥက္ကလာ ပ
overn ment</w>
ကွန်ဆာဗေး တစ်
အင်ဒရိုမီ ဒါ</w>
ww w</w>
3 23</w>
5 4
n ame</w>
က က်</w>
တ ပင်</w>
ဒ ီးယား</w>
ပ လိပ်
ရ ပေ</w>
ဥ ဒ
၂ ခုနှစ်တွင်</w>
၈ တွင်</w>
ဖြစ် သည့်အတွက်</w>
ရှိ ရာ
ရှိ နိုင်သည်</w>
တို့ လူစု
နှင့် တကွ
ခုနှစ် ထိ</w>
နယ် များ</w>
နယ် ရှိ</w>
လုံး လုံး
သုံး ထပ်
သုံး ခွ</w>
ရွှေ ဝါ
ကျောက် ပန်း
ဘော ့</w>
တရား ခံ
ပေါက် ကျေးရွာအုပ်စု</w>
နား ကျေးရွာအုပ်စု</w>
ငယ် ကို</w>
ပတ် ရွာ</w>
ခွင့် နှင့်</w>
တိုး ရွာ</w>
ညောင် ကန်
ဆောင်ရွက် ခဲ့ပြီး</w>
ကောင် သည်</w>
အရေး ပေါ်</w>
လူမျိုး တို့က</w>
ဗိုလ် ကြီး
၁၄ ၉</w>
တစ်ဦး ဖြစ်သော</w>
အချက် အခြာ
ပြန်လည် ပြင်ဆင်
မော ရွာ</w>
ပင်လယ် အော်</w>
49 6</w>
ဂုဏ် ယူ
ပြေ ပြစ်
68 3</w>
ခိုး ယူ
44 2</w>
60 8</w>
ဘာသာစကား သည်</w>
me m
မတူ ဘဲ</w>
စက်မှု ဇုန်
Sh w
၃၇ ၅</w>
201 4</w>
အထက်တန်း ကျောင်းတွင်</w>
ပထမဦး ဆုံးသော</w>
နှင် ထုတ်
ပမာဏ မှာ</w>
ဒုတိယကမ္ဘာစစ် အတွင်း</w>
မီလီ မီတာ</w>
Uni on</w>
အသုံးဝင် ပုံ</w>
အဝါ ရောင်</w>
ဟုဆို ကာ</w>
ကူးသန်း သွားလာ
အနိမ့် ဆုံး
လွှမ်းခြုံ ဧရိယာ</w>
သင်္ခါ ရ
လျှင်မြန် စွာ</w>
A D</w>
A ustr
m ag
v er</w>
မ ကုန်
မ စင်
မ ထိ
သ ပြု</w>
အ တောင်</w>
အ မှုကို</w>
အ ဖုံး
နေ တယ်</w>
ဦး ကျေးရွာအုပ်စု</w>
ကု ထုံး
တော် ဝင်</w>
သူ ဖြစ်ပြီး</w>
သူ ခိုး
လေ သော်</w>
လေ တပ်</w>
တာ လီ
ဆောင် သော</w>
ပေး နိုင်သော</w>
သန်းခေါင် စာရင်း</w>
စေ ပြီးလျှင်</w>
ပု ပ္ပ
ယာ ယီ</w>
မြန်မာ တို့သည်</w>
15 38
တပ် မှ</w>
၁၈ ၄၆
16 77
သုံး ခု</w>
ချက် ကြောင့်</w>
သက် ကယ်
ရုပ် ကလာပ်
မြေ ပြင်</w>
နီ ယာ</w>
ပေါက် ရောက်</w>
ငယ် များကို</w>
ထို့ ကြောင့်လည်း</w>
နောင် ခ
အတွင်း ပိုင်း
ဂါ ထာ</w>
ငါး ဆူ
၁၃ ၇</w>
ခြေ တော်
တော်မူ သော
al in</w>
အလယ် တန်း</w>
အလယ် အလတ်
ကြေး မုံ
ပြောင်းလဲ လာ
ခို အောင်း
49 1</w>
49 7</w>
48 6</w>
68 6</w>
68 9</w>
အက ောင်</w>
60 7</w>
ဟုခေါ် ကြသည်</w>
47 5</w>
သဘာဝ ဓာတ်ငွေ့
သုံးစွဲ ကြသည်</w>
တဲ ကုန်းရွာ</w>
၁၈၉ ၃</w>
နိုင်ငံခြား ရေး</w>
ဗား က
အဆက် မပြတ်</w>
တီးဝိုင်း များ</w>
ရိပ် သာ</w>
ကျိုး ရွာ</w>
ရာခိုင်နှုန်း ကို</w>
ရာခိုင်နှုန်း မှာ</w>
မုန်း တီး
မြောက်ပိုင်း နှင့်</w>
အရွက် များ</w>
အံ့ ဖွယ်
မည်သို့ မျှ</w>
သယ်ယူပို့ဆောင် ရေး
For bes</w>
-- -</w>
ထိုအခါ မှစ</w>
ဝိုး ရွာ</w>
အထင်ရှား ဆုံး
အီလက်ထရွန်း နစ်</w>
ပဏာ မ
စကြဝတေး မင်း</w>
အရု ဏ်
3 12</w>
3 15</w>
3 29</w>
3 26</w>
L aw</w>
e ik</w>
g ener
k e</w>
s u
က ရေ
ပ လောင်
အ ုတ်</w>
အ ဖျား</w>
ဤ သည်
ဥ ဿ
၄ ၂၇</w>
မြ ုံ
ချ ဲ
ချ န်း
ပါ စေ
လူ မ
ကွ န့်
ကြီး သို့</w>
၂၀ ၄</w>
မှု ထမ်း
ထို ခေတ်</w>
တိ တိ</w>
ပေး ခဲ့သော</w>
နာ နတ်
နှင့် လည်းကောင်း</w>
ကျောင်း ကျေးရွာအုပ်စု</w>
အဖွဲ့ အနွ
ပါဝင် လာခဲ့သည်</w>
ကျော် ကြား</w>
ဆောင်ရွက် ရသည်</w>
ရက်နေ့ မှာ</w>
အချိန် ကို</w>
နက် ရွာ</w>
သေး သော်လည်း</w>
လူမျိုး များက</w>
တွေ လည်း</w>
ဖြစ်လာ သော</w>
Th an
တည်ဆောက် ခြင်း</w>
အကြီး ကျယ်
များစွာ ရှိသည်</w>
40 2</w>
အသင်း တော်</w>
တည်ထောင် သော</w>
ထီး ဖြူ
ဖြစ်ပေါ် ခဲ့သည်</w>
ရှု း
နိုင်ငံရေး နှင့်</w>
49 8</w>
68 0</w>
ကြံ ဆ
60 4</w>
67 0</w>
၃၀ ၄</w>
ခုံ ရုံး
ဖု န
ဗြိတိသျှ တို့သည်</w>
65 5</w>
၁၈၈ ၁</w>
၁၈၈ ၈</w>
ဘုန်း ကြီး</w>
ကိုးကွယ် မှု
များနှင့် တကွ</w>
66 0</w>
ig n
ထိုအချိန် ဇုန်</w>
၁၈၆ ၈</w>
ဘောင် သို့</w>
ရောင်းချ ခဲ့သည်</w>
အရှေ့တောင် ဘက်</w>
ကောင်စီ ကို</w>
တစ်စ ောင်</w>
လော့ စ်
ဗွ န်</w>
နှစ်ဦး သည်</w>
သက်တမ်း မှာ</w>
ခုတ် မောင်း
ရည်ညွှန်း အမှတ်မှာ</w>
Ar ch
ဝတ်ဆင် ကြသည်</w>
အပူချိန် မှာ</w>
ဇီးဖြူ ကုန်းရွာ</w>
အယ်လ်ဘ မ်</w>
လွှမ်းခြုံ ဧရိယာမှာ</w>
ကူးသန်းရောင်းဝယ် ရေး</w>
အနှံ့အပြား တွင်</w>
3 11</w>
B an
F in
k er</w>
t on
င ုံ</w>
မ န္
သ လင်း</w>
အ ခေါက်</w>
၉ ၇၇</w>
ရွ တ်</w>
ကြ လေ</w>
ခု န်</w>
လည် ရွာ</w>
လာ စေ
နှစ် ရှည်
သူ တစ်ပါး</w>
ဒေ ဝါ
ခံ ရွာ</w>
သန်း ကျော်
ဒေသ န္တရ
လေး ကို</w>
အခ ကြေးငွေ
ကုန်း တန်း
ပညာ များ</w>
ပေ ပေါင်း</w>
19 30
တိုက် သည်</w>
၁၈ ၄၅
စီ ရင်</w>
ခွင့် ရရှိ
စတင် ဖွင့်လှစ်
ရုံ နှင့်</w>
အဝ ိုင်း</w>
ဝန်ကြီး များ</w>
ယခု ခေတ်တွင်</w>
ဆု တံဆိပ်</w>
ဝေါ ်</w>
တိုးတက် လာခဲ့သည်</w>
ဉာ ာ
ယွ ီ
ခြံ ရံ
ထံ မှ
ဆရာတော် ဘုရားကြီး</w>
44 1</w>
44 4</w>
အစဉ် အလာ</w>
အစီ အမ
de pend
for d</w>
ဗန်း မော်</w>
ပက် သက်</w>
တစ်ရပ် ရပ်ကို</w>
ဗား ရှင်း</w>
အပြင် ဘက်
ချန် ကေ
နိမ့် ကျ
နီးယား နိုင်ငံ</w>
စီမံခန့်ခွဲ မှု</w>
ဘုရင့် နောင်</w>
လှည်း ဆိပ်</w>
အခက် အခဲ</w>
ဒုတိယကမ္ဘာစစ် ကြီး
ဒီပ နီ
အဖိုး တန်</w>
အဆောက်အဦး များ</w>
our ce</w>
မူလတန်း ကျောင်း</w>
တစ်စိတ်တစ် ပိုင်း
IS P</w>
အငြိမ်းစား ယူ
တပ်ပေါင်း စု
အထွတ် အထိပ်
IA NA</w>
မြောက်မြား စွာ</w>
ဒြဗ် စင်
သိဒ္ဓ တ္ထ
Dav id</w>
ကမ္ပ ည်း
. )</w>
3 14</w>
E S
R am
Z h
a do
င င်းရွာ</w>
လ ိုး
အ မျှ
အ ညွှန်း
ရွ ိုက်
မြ ောင်</w>
နေ ချိန်
ရာ နှင့်</w>
ဦး ခင်
နိုင် ရေး</w>
နိုင် သူ</w>
ကျေး ဇူး</w>
ကို ဖြတ်
လုပ် ဆောင်</w>
မာ ရှယ်
နိုင်ငံ များမှာ</w>
သမ က်
နာ ဂါ
ယူ က
သွား ပြီးလျှင်</w>
မြန်မာ လူမျိုး</w>
ိုလ ီ
15 77
တပ် မက်
လည်း မ
in c
ကုန် စည်</w>
လိုက် ခြင်း</w>
လမ်း မှ</w>
သံ မဏိ</w>
အရ မ်း
ယင်း ကဲ့သို့</w>
အသုံးပြု သူ
ပြော ရ
ကော ရွာ</w>
၁၃ ၂</w>
ဟူ သမျှ
စော စော
လွတ် ကင်း
ဝိ ဟာရ</w>
70 350
ဖွဲ့စည်း ပြီး</w>
ကမ်း နား
ဝမ် ရွာ</w>
ဒုတိယ ဥက္ကဋ္ဌ</w>
ဆီး ချို</w>
တည်ဆောက် ခဲ့သော</w>
ပြန်လည် ရောက်ရှိ
အောင်မြင် သော</w>
40 6</w>
ဝါဒ နှင့်</w>
ဟိ တ
69 0</w>
တဲ့ အခါ
47 3</w>
47 9</w>
65 6</w>
လှည့် စား
ရှိနေ ပြီး</w>
၁၉၀ ၆</w>
ချွ ံ
43 0</w>
43 7</w>
Sh an</w>
ရည်ရွယ် သည်</w>
တတိယ အကြိမ်</w>
အမြောက် အများ</w>
ထူထောင် ခဲ့သည်</w>
ကျေးဇူး တင်
တိတ် တ
ကြာအင်း ရွာ</w>
အင်ဒို ချိုင်း
လိင် တူ
တိကျ စွာ</w>
sp ec
min is
ပဋိပ က္ခ</w>
အတွင်းရေးမှူး အဖြစ်</w>
Sta te</w>
အငယ် ဆုံး</w>
ခြင်းမပြု ရ</w>
များလည်း ရှိသည်</w>
မွတ်စ လင်</w>
ဘိက္ခု နီ</w>
အသက်မွေးဝမ်း ကျောင်း
sing le</w>
Instit ute</w>
ပရိုတက် စတ
3 27</w>
J o
T A</w>
b ec
l anguage</w>
င ိုက်
စ တန်း
တ ချိန်
ဖ ူ</w>
ဗ န်</w>
မ ပြု</w>
ဝ ိ</w>
၅ ၈၅</w>
မြ ဝတီ</w>
နှ င်း</w>
နှ ောင်း</w>
များ ကဲ့သို့ပင်</w>
မြို့ သူ
မြို့ ရိုး</w>
စာ ဖြင့်</w>
လုပ် ကျွေး
မာ လီ
မိ ဘ</w>
ထို အထဲတွင်</w>
အန ယ်
တောင် ကုန်း</w>
သမ င်</w>
သွား သော
တိုက် ကို</w>
14 39
ဒါ ပေမဲ့</w>
နိ ဒါန်း</w>
နန်း ကျေးရွာအုပ်စု</w>
၁၀ ၇</w>
ဓာတ် တော်များကို</w>
ကောင် ကို</w>
မဲ ရွာ</w>
မု န့်</w>
စွဲ မြဲ
ပီ ပီ
ဂျာ ဗား
ယခု လက်ရှိ</w>
အလယ် ခေတ်</w>
ဗေ ဒါ
အေ ဘရာ
40 5</w>
အာဏာ ရ
il le</w>
ဖိ အားပေး
44 5</w>
59 5</w>
60 6</w>
အဖွဲ့အစည်း များနှင့်</w>
47 4</w>
ဋ္ဌာ န်</w>
ဖွံ့ဖြိုး မှု
65 9</w>
၂၉ ၉</w>
ပိုမို ကောင်းမွန်
၁၈၉ ၇</w>
တနင်္သာ ရီ</w>
၃၈ ၂</w>
အမိန့် ကို</w>
46 4</w>
46 8</w>
43 5</w>
အကြံ ဉာဏ်
အသစ် များ</w>
အရာရှိ အဖြစ်</w>
ဂိုဏ်း ဝင်
တစ်စ က္က
ကျီး ကန်း
အွ န်း
လန်း ကျေးရွာအုပ်စု</w>
ဗစ် ချ်</w>
ဖြတ်သန်း စီးဆင်း
အဋ္ဌ မ
တစ်စုံ တစ်ရာ</w>
လုံလောက် သော</w>
70250 1</w>
ဘကြီး တော်</w>
အာနိ သင်
ရုံမျှ မက</w>
ပါဏ ဗေဒ
ငြီး ငွေ့
ဗွိုင် ယေ
လုပ်ငန်းဆောင် တာ
Yor k</w>
3 25</w>
3 28</w>
H ol
J ames</w>
L in</w>
P R
က ထာ</w>
ဒ ရစ်</w>
ဗ ိုး
ဘ ဂ
ဘ န်</w>
လ ဂျီ
င်း ကို
ကျ ော</w>
နေ အဖွဲ့အစည်း
နေ ပြီဖြစ်သည်</w>
ရှိ လာသည်</w>
ရာ တွင်လည်းကောင်း</w>
တစ် ချပ်
ခု မ
စာ ရ</w>
ရေ ကို
ရေ နှင့်
ရေ ဝေ
လေ ထီး
သွ န်</w>
လက် ျာ
နိုင်ငံ ရပ်
သား အိမ်
သမ ဏ
ဒေသ အတွင်း</w>
နာ ခြင်း</w>
ယာ ရွာ</w>
18 90
ကျောက် ကြီး
နီ ဗာ
ချောင်း ကြီးရွာ</w>
စဉ် ကပင်</w>
ဆေး ရွက်
en a</w>
စိတ် ပျက်
ငြ ိမ်</w>
ခေတ် မှီ
ရဲ ရဲ
၁၀ ဝ</w>
လူမျိုး တို့
ရည် ညွန်း
မေ တ္တ
Th ay
သွင်း ယူ
tr a</w>
လေ့လာ သော</w>
စသည် တို့သည်</w>
ကျန် ရွာ</w>
သခင် ထွန်း
အာဏာ ရှင်</w>
တည်ထောင် သည်</w>
ခဲ့ရ ပါသည်</w>
69 1</w>
59 4</w>
60 9</w>
47 8</w>
မပြု ဘဲ</w>
တစ်နှစ် တွင်</w>
66 1</w>
၁၉၀ ၃</w>
အရောင် တင်
သတ္တု စပ်
Sh en
အနုပညာ လက်ရာ
ဖုံး ကွယ်
လှိုင် ရွာ</w>
အင်္ဂလန် ပြည်
ကြိုးပမ်း မှု
မိုက် ကယ်</w>
ယောင်း ရွာ</w>
ကိရိယာ များကို</w>
အမွေ ဆက်ခံ
ဇနီး ဖြစ်သူ</w>
အဝတ် အထည်
နှောင်း ပိုင်း</w>
ယန်း ကျေးရွာအုပ်စု</w>
ဆွမ်း ခံ
အွန် ရွာ</w>
လေဆိပ် သည်</w>
ပုဏ္ဏ ား</w>
သိန္ နီ
အထောက်အထား များ</w>
မကျေ မ
မတူညီ သော</w>
အပြောင်းအလ ဲ</w>
အမျိုးသားဒီမိုကရေစီ အဖွဲ့ချုပ်
Jap anese</w>
အယ ုဒ္ဓ
အပိုလ ို</w>
- )</w>
4 17</w>
H on
w et</w>
က က
ဇ န်ရွာ</w>
ဒ မ်းရွာ</w>
လ ရွာ</w>
သ ု</w>
သ တိ</w>
ဟ ောင်ရွာ</w>
ဥ ပေ
မြ ော
ချ ူး</w>
ရှိ ကြောင်း
ဦး မြ
ပါ လျှင်</w>
ပေါ ရွာ</w>
တော် တော်များ
လာ သည့်
လာ မည့်</w>
မှု အောက်တွင်</w>
ဆို သူသည်</w>
ပြု လျက်</w>
ပေး လျက်ရှိသည်</w>
အား ထုတ်</w>
ပု န်း</w>
မြန်မာ ဘုရင်
ရောက် သော်</w>
အာ ဒိ
တပ် မှူး</w>
ကား ရွာ</w>
ကျောက် ပြား
နောက် သို့</w>
သံ ရုံး
14 50
ထွက် လာသည်</w>
မန် မိုင်ရွာ</w>
10 10
10 38
၁၆ ၉</w>
ဝေ ဠု
မီး ကို</w>
လုပ်ငန်း တာဝန်
တတ် ကြ</w>
ကွန် ရွာ</w>
ဆာ ချူး
ပြုလုပ် ထား
ဓာတ် ပေါင်း
အရေး ကြီး</w>
လူမျိုး သည်</w>
တော်မူ ကာ</w>
အကြောင်း အရင်း
အနောက် သို့</w>
၁၄ ၁</w>
သတင်း များ</w>
၁၉၉ ဝ</w>
ဥပဒေ နှင့်</w>
မြန်မာနိုင်ငံ နှင့်</w>
ဆယ် ရွာ</w>
နို ဗာ
ပစ် ရန်</w>
အမေရိကန် နှင့်</w>
ခဲ့ကြ ပါတယ်</w>
ဝက် စ
တိုက်ခိုက် ရာ</w>
ပြောင်းလဲ မှု</w>
el i
il y</w>
အင်္ဂလိပ် လူမျိုး</w>
49 5</w>
58 8</w>
သင်္ဘော များကို</w>
67 1</w>
ထိပ် တန်း</w>
မန်း ဘ
လေယာဉ် ပျံ</w>
၄၅ ၇</w>
၃၇ ၈</w>
နင်း ကျေးရွာအုပ်စု</w>
201 6</w>
လျော့ ပါး
လွဲ လျှင်</w>
og r
တောင်းဆို ခဲ့သည်</w>
ချည် မျှင်
မေတ္တာ ရပ်
ညီလာခံ ကို</w>
ခူ ရွာ</w>
မိတ်ဆက် ခဲ့သည်</w>
ပြည်ထဲ ရေး
sec tion</w>
ယူဇ နာ</w>
ဓနသဟာ ယ
ဖွဲ့စည်းအုပ်ချုပ် ပုံ</w>
ကုရ်အာ န်
ခါနာ ဂါဝါ
lab el</w>
Wak ema</w>
နမ့်တစ် မြို့နယ်</w>
Tech n
2 36
3 10</w>
3 22</w>
E lev
S m
S un</w>
T DS</w>
o v</w>
p ri
s ound</w>
w s
င ုံး
န တ္ထ
န ဗီ
မ ုံး
မ ကွေး</w>
ရ နိုင်
ဝ ဋ်
အ ောင်း</w>
အ သောက်</w>
ဤ ကာကွယ်ဆေး
ှ မ်း
၁ ၁၁</w>
၅ ၅၀</w>
၅ ၈၈</w>
ပြ ယု
ကြ ေ</w>
မြို့ တွင်း
မြို့ ပြ</w>
တစ် ခေတ်
တစ် ကိုယ်တော်
ခု ဖြင့်</w>
ရေး ဆရာ</w>
ကို ကို</w>
တော စုရွာ</w>
သော သူ
ဝင် ခြင်း</w>
ပျ ော့</w>
လေး ယောက်
ဝါ ကျ
ကုန်း တန်း</w>
ရန် ကြိုးစား
ကျွ ေး</w>
ထုတ် သည်</w>
ကျောင်း သုံး
ထောင် ပေါင်းများစွာ
လမ်း ရှိ</w>
တစ်ခု သော</w>
စက် များကို</w>
မြစ် ဝ</w>
လိ န်</w>
ညောင် ချောင်းရွာ</w>
တန် ခိုး</w>
ဓာတ် ပုံ</w>
ဓာတ် သတ္တု
လော ဘ
လင် ကျေးရွာအုပ်စု</w>
အကြောင်း နှင့်</w>
တစ်ဦး အား</w>
ဝမ် နောင်
ကြိုး မဲ့
ဘုရင် အဖြစ်</w>
ရှည် ကျေးရွာအုပ်စု</w>
ရန်ကုန် တက္ကသိုလ်မှ</w>
အလွန် ပင်</w>
စာပေ နှင့်
မြင်း မိုရ်
သာသနာ ပိုင်</w>
ဆောင်း ရာသီတွင်</w>
စိုက်ပျိုး သည်</w>
49 2</w>
ဆူ နာ
ဆိုး လ်
68 4</w>
ဓမ္မ သတ်
69 3</w>
၃၀ ၃</w>
၃၅ ၆</w>
ဟုခေါ် တွင်
အပင် များကို</w>
၂၉ ၁</w>
တွေ့ရ ပြီး</w>
ဆုံးဖြတ် ချက်ကို</w>
စက်မှု လက်မှု</w>
ပြသ ထားသည်</w>
သိရှိ ရပါသည်</w>
တံတား ဦးရွာ</w>
ခွင့်ပြု ခဲ့သည်</w>
စစ်တပ် က</w>
ချမှတ် ခဲ့သည်</w>
အကျဉ်း ချ
သစ္စာ ဖောက်
အတတ် ကို</w>
ဖိုင် မှ</w>
ဟိုက် ဒြ
လင့် ကစား</w>
အီရန် သည်</w>
လိုဏ် ခေါင်း
မိုးရေ ချိန်</w>
ဒေတာ များမှ</w>
ဒေတာ ရင်းမြစ်</w>
မောင်နှ မ
ear s</w>
အရွေး ခံ
ဖောင်ဒေး ရှင်း</w>
မြောက်မြား စွာ
နိကာ ယ်
အနာဂ တ်</w>
ပရဟ ိတ
ဗိဿ နိုး
ကိုရို နာ
စစ်ဆင်ရေးကွပ်ကဲမှု ဌာနချုပ်</w>
အမှတ်လက္ခဏာ ဖြစ်သည်</w>
Record s</w>
အယ်လက် ဇန္ဒ
ရုရ ှ</w>
. [</w>
F ac
S ol
W ar
y le</w>
ဂ ရေ
ဘ ၀
ယ ဘူတာ</w>
ရ ရွာ</w>
သ ပွတ်
အ ငှား
၄ တွင်</w>
၆ ၁၀</w>
ပြ သော</w>
ပြ တင်း
ရှ ိုက်
မှ စတင်ကာ</w>
သေ ဆုံး</w>
ပါ နှင့်</w>
တစ် နေရာမှ</w>
ရေး ထိုး</w>
ကို ကျော်
ကြီး တစ်ခု
နှစ် ဆူ
ထား သူ</w>
မိ ရိုး
စစ် အစိုးရ</w>
ပင် နှင့်</w>
ကာ ရန်
ကုန်း လေးရွာ</w>
ရောက် သော</w>
မွ ာလ်
အောက် စီ
ကမ္ ဘား
ဆရာ စံ
14 55
အရ င်</w>
နား ကောင်
th is</w>
ဟို ချီ
မီး ပြတိုက်
မျက် မြင်
ကူ ဝိတ်
ခွဲ များ</w>
မဟာ ရာဇဝင်
ဗျ ည်း</w>
ထိုး သတ်
ကြွ ား
ရဟန်း သံဃာ
သွယ် တန်း
ကြိုး ကို</w>
တက္ကသိုလ် ကို</w>
နှုန်း ကို</w>
စိန် ရွာ</w>
ဘိ သကဲ့သို့</w>
အသီး အသီး</w>
လိုအပ် ချက်
44 7</w>
59 9</w>
၂၄ ၅</w>
ဂွ ေ့
ယု ံ</w>
၂၉ ၈</w>
le g
ဘဲ လ်
66 3</w>
66 8</w>
66 7</w>
70150 9</w>
၁၈၇ ၆</w>
၄၅ ၄</w>
ကုလား အုပ်
ဓမ္ မဟ
အနုပညာ ရှင်</w>
ယဉ်ကျေးမှု ဆိုင်ရာ</w>
ဇာတ်ကား ကို</w>
အတော် ပင်</w>
ညှိ နှိုင်း</w>
လှည်း ကူး
တိကျ သော</w>
ဟုတ် မှန်
ဆိုရ သော်</w>
ယူနီ ယံ
ပုရ ိ
70250 2</w>
Col lege</w>
gro und</w>
နားမ လည်
နှစ်သစ် ကူး
ဂျော်ဂျီ ယာ
ဝတ်စား ဆင်ယင်
D oc
I C</w>
l ands</w>
ဇ ိမ်
တ ဝက်
ဖ ိုက်
မ က္ကာ
လ သာ
သ ရက်</w>
ဟ မ်</w>
၏ "</w>
ကြ သောအခါ</w>
ကျ စွာ
နှ မ်း</w>
ဖြစ် သလို</w>
စု များ</w>
တစ် နေရာ</w>
ကို အသုံးပြု
ကြီး များက</w>
ရေ ငံ
သူ ကြွယ်
သော နေရာ
ထား ခဲ့</w>
ထို ရဟန်းသည်</w>
နိုင်ငံ တစ်
တိုင်း နှင့်</w>
လေး ကျေးရွာအုပ်စု</w>
ကုန်း တန်းရွာ</w>
မြန်မာ အမျိုးသမီး
ပညာ တတ်
ပေ ကုန်းရွာ</w>
သုံး ဆယ့်
ရှမ်း ပြည်</w>
ကျောင်း ဆရာတော်</w>
in t
နီ နှင့်</w>
မီ ကပင်</w>
ကမ္ဘာ ကို</w>
လိ မ်</w>
စံ နစ်</w>
ကျွန်း မှ</w>
နတ် ပြည်</w>
နတ် မောက်
မီး တောက်
မှာ ကြား
အင်္ဂ ု
ငွေ များကို</w>
အရှေ့ မြောက်ဘက်</w>
အင်း တ
ကျင်း ကျေးရွာအုပ်စုတွင်</w>
၁၅ ၆</w>
တည်ရှိ နေသည်</w>
ဖွဲ့စည်း ကာ</w>
အလုပ် အမှုဆောင်</w>
စွမ်း ရည်</w>
သွေး တိုး
မိတ် ဆွေ</w>
လျှောက် လွှာ
ဖိ စီး
48 4</w>
နု ရွာ</w>
ဗဟို ဘဏ်
၂၅ ၃</w>
သူများ ဖြစ်သည်</w>
၂၇ ၄</w>
တစ်မျိုး တည်း
မင်းသား ကို</w>
နယ်မြေ တွင်</w>
နယ်မြေ များကို</w>
စတုရန်း မိုင်ပေါင်း</w>
၁၉၀ ၄</w>
၁၉၀ ၇</w>
၁၈၆ ၄</w>
ယေ ရှု</w>
ခက် ဆစ်</w>
အန် ဒ
ကော်မတီ ကို</w>
ပတ်ဝန်းကျင် ရှိ</w>
အမှုထမ်း သည်</w>
ကျို က္က
အမွေ အနှစ်</w>
ပိုလ စ်
ကောလိပ် တွင်</w>
အတွေ့ ရ
ဂန္ ဒီ
ပေမ ယ့်
ကွမ်းခြံ ကုန်းရွာ</w>
ကရု ဏာ
အာဖဂန်န စ္စတန်
အနှောင့်အ ယှက်
ခွဲခြမ်းစိတ် ဖြာ
2 34
G ol
H m
K ay
T o
Y an</w>
က သ
က ယား</w>
ဇ ဲ
တ ဝ
ရ အောင်
ဟ ုံ
ဤ ဥပဒေအရ</w>
၅ ၄၀</w>
၇ ၈၂</w>
ကျ ဉ်
ကျ ခြင်း</w>
ကျ ေး</w>
ချ မှတ်</w>
ဖြစ် ခြင်း
နေ ချိန်</w>
ရှိ ကုန်</w>
ခဲ့ တာ
ခဲ့ ပြီးလျှင်</w>
တစ် ည
လူ သေ
ကြီး တို့</w>
၁၉ ၇</w>
မျိုး ရှိသည်</w>
အစ တွင်</w>
ဂျ မ်း</w>
တောင် များ</w>
ထွ တ်</w>
ယူ ရသည်</w>
ယာ မာ
ရက် နှင့်</w>
အချ ပ်
ရောက် ခဲ့သည်</w>
17 65
တပ် များနှင့်</w>
18 65
၁၈ ၁</w>
၁၈ ၂၆</w>
16 65
ကား ကို</w>
ရှမ်း ရွာ</w>
အရှ က်
ချက် ရွာ</w>
စီး တီး</w>
ar ch
သက် မွေး
အောက် ဖော်ပြပါ</w>
ရုပ် ပြ
တန်း အထိ</w>
ပန်း ပဲ
10 58
ခေါင်း ကိုက်
မီး ချောင်း
တတ် ပါသည်</w>
စကား များ</w>
ခေတ် ကာလ
un n
ကူ ရွာ</w>
မဟာ ဗျူဟာ
တည်း မှာပင်</w>
ဖွဲ့စည်း ခြင်း</w>
ဘုရင် ကို</w>
ကျင်းပ ခဲ့ပြီး</w>
လေ့လာ ခြင်း</w>
ခဲ့ကြ ပေ</w>
တိုးတက် ကောင်းမွန်
၂၂ ၇</w>
ကွက် တွင်</w>
44 9</w>
ဖွံ့ ဖြိုး</w>
တမ င်
အလို တော်
43 4</w>
43 2</w>
လက်အောက် မှ</w>
တစ်ရပ် ဖြစ်သည်</w>
နှုတ် ဆက်
သွားလာ နိုင်သည်</w>
နေကြ သည့်</w>
မျှော် စင်</w>
တခု ကို</w>
အခွင့်အရေး များ</w>
အကူအညီ ပေး
ဟား မား
ဆင်ဖြူ ရှင်</w>
ဆိုဗီယက် ပြည်ထောင်စု
တန်ဆာ ပလာ
ဗီယက်နမ် နိုင်ငံ</w>
ပုပ္ ဖိ
တစ်စုံ တစ်ရာ
အနော်ရထာ မင်း</w>
မသန် စွမ်း</w>
မည်သို့ပင် ဖြစ်စေ</w>
လက်ရွေး စင်</w>
ဟန့် တား
ရက်စွဲ ပါ</w>
စင်္ကာ ပူ
မြှပ် နှံ
ပြိုလ ဲ
4 16</w>
8 4
C o</w>
H om
g o</w>
o uld</w>
က သစ်
က မော့
ဆ ံ့
ရ ည်း
သ သည်</w>
အ မှာ
၆ ၅၄</w>
၉ ၆၇</w>
င်း တို့အား</w>
မှ စပြီး</w>
ဖြစ် ပွား</w>
နေ ပါတယ်</w>
ရွာ သာယာရွာ</w>
လူ သားများ</w>
ကြီး များမှာ</w>
တော် အား</w>
လာ ခြင်း
ရေ လှောင်
လက် သည်း
မိ လျှင်</w>
ပေး သည့်
ပြီး သော
လို ပါက</w>
မူ ရွာ</w>
၁၈ ဝ
သီ ဟာ
မိုင်း ပတ်</w>
နီ ယာ
ဘက် သို့
အရ ိုး</w>
ကျော် တွင်</w>
အပြ တ်
အသုံးပြု မှု</w>
နတ် သည်</w>
နတ် သမီး</w>
နတ် ကွန်း
လုပ်ငန်း ခွင်
၁၂ ၇၈</w>
ဌာန နှင့်</w>
ရေးသား သည့်</w>
ပျက် သုဉ်း
အိုင် ကျေးရွာအုပ်စုတွင်</w>
ညွှ န့်
မြင်း ဝန်
ရောဂါ များကို</w>
ဝမ်း ကွဲ
ဂီတ နှင့်</w>
68 5</w>
68 2</w>
ဘေး ထွက်
၃၀ ၅</w>
၂၄ ၈</w>
ဖေါ င်း
ad d
ရှိနေ ခဲ့သည်</w>
အဝေး ပြေး
ဆိုင်း ငံ့
စီရင် သည်</w>
၃၆ ၉</w>
100 0
၁၈၇ ၁</w>
စက်မှု လုပ်ငန်း</w>
ပို့ဆောင် ရေး
မှီ ငြမ်း
ရာခိုင်နှုန်း သည်</w>
သစ္စာ ခံ
ဟီ လီ
များဖြစ် ကြသည့်</w>
တပ်ဆင် ထားသော</w>
ဖြည့် တင်း
နက္ခ တာ
များမှ လည်း</w>
ဂေ ါ</w>
ဟေ ဂျား
ဘာသာပြန် ဆို
ထေရ် သည်</w>
သံသ ရာ</w>
အယ်ဒီတာ အဖြစ်</w>
အသေ အချ
ရင်းနှီးမြှုပ်နှံ မှု</w>
ပါရဂူ ဘွဲ့</w>
အသွား အလာ
သာဝ က</w>
ကက်သ လစ်</w>
ဘာဝ နာ
ခံနိုင် ရည်
ဂုံညင်း တန်း</w>
zh en</w>
Associ ation</w>
7 4
9 69
I A</w>
a e
e in</w>
s up
င ုပ်
စ န်</w>
စ လုံးတွင်</w>
ထ ော်</w>
ဒ ံ
ဒ မ်</w>
ပ ရီ
မ နေ</w>
မ ချိဘူတာ</w>
သ လွန်
၁ ၂၀၀</w>
ဖြ န်း
ကျ ပြီး</w>
ဖြစ် မည်ဟု</w>
စု ပုံ
ပါ ဌ
ပါ ရှန်း
စာ လျှင်</w>
ရေ တွင်</w>
ရေ သောက်
မှု က</w>
လက် တံ
အစ ပျိုး
လှ ူ</w>
စစ် တွေ</w>
စစ် ပြေး
တောင် ရိုး
ပြီး သား</w>
ဌာ န်
အောက် စု</w>
ပေါက် တော</w>
အုပ်ချုပ် သူ</w>
ကွန် ဖြူး
ဆာ ကျေးရွာအုပ်စု</w>
၁၃ ၉၂</w>
ဗြ ူ
လွတ် ငြိမ်းချမ်းသာ
ရေးသား ခဲ့ပြီး</w>
ချီ တက်</w>
ခိုက် ရွာ</w>
ရဟန်း တို့အား</w>
သတ်မှတ် ပြီး</w>
ဂု ချိဘူတာ</w>
ကျယ် သည်</w>
ကျယ် ဝန်း</w>
အတွက် သာ</w>
စသည် တို့တွင်</w>
သခင် ချစ်
ဘယ် သူ
အိုး အိမ်
68 1</w>
ဒီဇင် ဘာတွင်</w>
မောင်း မ
မောင်း ရွာ</w>
58 9</w>
၂၇ ၉</w>
ဝေး လံ
ဇီ ဝ</w>
နှိပ် ကွပ်
၂၉ ၆</w>
66 5</w>
66 9</w>
တစ်ယောက် ကို</w>
80 0</w>
အုပ်ချုပ်ရေး မှူး
အနည်းငယ် သာ
၁၈၆ ၁</w>
di um</w>
ဆောက်လုပ် ရေး</w>
၄၅ ၈</w>
li f
ဖခင် သည်</w>
တစ်ဖက် တွင်</w>
အန္တရာယ် ကို</w>
Al l</w>
မော်တော် ယာဉ်</w>
ပွတ် တိုက်
ကျွန်တော် တို့
iv er</w>
စွယ်စုံ ကျမ်း
ဒဂု န်</w>
ပရော ဂျက်
အညာ စုရွာ</w>
တစ်ချိန် က</w>
ဆယ်စု နှစ်</w>
နက္ခတ္တ ဗေဒ
ဂုရ ု
အကိုင်း အခက်
နိဿ ယ
El ectr
စောဒ က
Mis s</w>
တွား သွား
ငွေရေးကြေး ရေး
မိရိုး ဖ
H u
L an</w>
d ata</w>
e p</w>
y al</w>
ခ မောက်
ဆ လင်</w>
ပ က်</w>
ဖြစ် မည်</w>
ရှိ ရာသို့</w>
ခြ ွ
ဦး အေး
ဦး ဆံ
ပါ တဲ့</w>
တို့ သာ</w>
မှု တို့ကြောင့်</w>
ထား ရှိ</w>
မိ နမိ
ခံ ယူ</w>
နေထိုင် ခဲ့ကြသည်</w>
နေထိုင် ကြ</w>
သိ သော</w>
သို့ ဝင်
ဒေသ များ
မင်း မျိုး
စေ နိုင်သော</w>
ရက် အထိ</w>
မြန်မာ ဘာသာဖြင့်</w>
ဆုံး ပါး
ကျွ မ်း</w>
ချုပ် နှောင်
၁၈ ၀၀</w>
ရွှေ လှေ
ကောင်း များ</w>
ပွဲ လမ်း
စက် ဆန်း</w>
မြင် ရ
မြင် ကွန်း
er s
လင်း တ
နွ ေ</w>
en s
အကျ ဆုံး</w>
အမည် များ</w>
un ge</w>
ပြုလုပ် ကာ</w>
မြင့် မြတ်သော</w>
အရှေ့ အလယ်ပိုင်း
ဗိုလ် အောင်
၁၄ ၅</w>
တစ်ဦး လျှင်</w>
Th i</w>
အဆို ကို</w>
ညှ ာ</w>
အေး အေး
ယဉ် ပါး
ဘိ က္ခ
ခဲ့ရ ပေ</w>
ခေါင်းဆောင် များသည်</w>
ရိတ် သိမ်း
၂၇ ၁</w>
ဒို မီနီ
ပြည်သူ ပိုင်
ဖွယ် ကောင်းသော</w>
66 6</w>
66 2</w>
ဒြ ာ
ဆွေးနွေး ပွဲ</w>
အိပ် မက်</w>
75 0</w>
လက်ပံ တောင်း
၁၈၅ ၄</w>
ချော မော
တိရစ္ဆာန် များကို</w>
ရယူ ခဲ့သည်</w>
အလံ ကို</w>
ကျွန်ုပ် တို့
ot e</w>
သီဟိုဠ် ကျွန်း</w>
အတော်များ များ</w>
ဆွီ ဒင်</w>
အိုင်ယာ လန်</w>
ဂျား ဗား
သန္တာ န်</w>
စပ်လျဉ်း သည့်</w>
မြစ်ဖျား ခံ
အအို မို
Europ e</w>
ဗို့ အား
ကသို ဏ်း
သယံ ဇာတ
Rus si
Shen zhen</w>
C S
S ec
W es
a ut
l or
o x</w>
s oftware</w>
ခ ဏ</w>
အ ဖွား
အ ပိုင်</w>
၇ ၄
င်း အပြင်</w>
ရှ ိုး</w>
ur a</w>
နေ သူ
ကွ ိုင်
တော် ရ</w>
လက် ချောင်း
လက် ဖြင့်
န့် ကျေးရွာအုပ်စု</w>
ဂျ ူး</w>
ပင် ကိုယ်
နေထိုင် ပြီး</w>
မြန်မာ စာပေ</w>
ရပ် ရွာ</w>
15 65
သုံး သပ်</w>
ကျောင်း ဆရာ
in a</w>
စွာ ပင်</w>
မြောက် ကိုရီးယား
14 65
ခန့် ရှိပြီး</w>
အိမ် ရာ
ကျွန်း ကုန်းရွာ</w>
ဂါ ဝါ</w>
ရုံ ရွာ</w>
ဟာ လည်း</w>
ဟာ ဝိုင်
te ch
လွတ် လပ်</w>
ရည် နှင့်</w>
ဝိ ဟာရ
လိပ် စာ
ro ll</w>
ရိုက် ကူး</w>
ဖြစ်လာ ကြသည်</w>
အေ အိုင်ဒီ
သင့် တင့်
ငှက် သိုက်
တိုးတက် ရေး</w>
at ure</w>
ရှေ့ သို့</w>
အမှု တော်
အဲ လိ
ပွင့် တော်မူ
နိုင်ငံရေး ပါတီ</w>
မရ နိုင်
aun t</w>
ပုံစံ မှာ</w>
ပုံစံ များကို</w>
ရောက်ရှိ လာခဲ့သည်</w>
တူး ဖော်</w>
တက ယ့်
လက်နက် များကို</w>
လုပ်ဆောင် ရန်</w>
ဒဏ် ကြောင့်</w>
၃၅ ၇</w>
၃၅ ၂</w>
ကိစ္စ များတွင်</w>
မင်းသား နှင့်</w>
မကျ ည်း
ရာထူး ဖြင့်</w>
66 4</w>
ပျက်စီး သွား
ir c
အင်အား ကို</w>
ပြုစု ခဲ့သည်</w>
43 6</w>
ဆောက်လုပ် ရေး
ဇွ န်း</w>
ကောင်စီ သည်</w>
ဟွ မ်
ထူးခြား ချက်မှာ</w>
မိဘ များမှာ</w>
ဆင်းသက် လာသည်</w>
ဇနီး သည်</w>
ဘုရားရှင် က</w>
Sta r</w>
ထိုနှစ် တွင်ပင်</w>
တောင်သူ လယ်သမား</w>
သတင်းအချက်အလက် များကို</w>
စကြဝ ဠာ
ငတ် မွတ်
မူးယစ် ဆေးဝါး
ခြေမြန် တပ်မ
စတူ ဒီယို
အစောင့်အရှ ောက်
L on
T ar</w>
l ar
o g</w>
s u</w>
က ိ</w>
ခ ရေ
င ဲ့</w>
တ ကာ</w>
ပ ဏ္ဏာ
ဖ ု</w>
ဗ ော့
မ ဂ်</w>
ယ န
လ န့်</w>
လ ကျာ်
သ တ္တာ
သ တ္ထု
အ ရိယ
ိ မ့်</w>
၁ ၁၅</w>
၃ ၃၀</w>
ော င့်</w>
နှ မ
ချ ဒ်
များ ပါ
ur ing</w>
ယ် ရွာ</w>
နေ တော်မူ
မြို့ ဝန်</w>
တစ် ခြား
ခု မှာ</w>
တည် နေရာ
ကို အောင်
တော် သို့</w>
တော် မမူ
လျ ော့</w>
၂၀၁ ၈
တောင် အာဖရိက</w>
ဆောင် ပုဒ်
လုံး မှ</w>
တပ် ခွဲ</w>
ကား လမ်း</w>
မြေ း</w>
တစ်ခု တည်း</w>
သံ လိုက်</w>
တန်း ကျေးရွာအုပ်စုတွင်</w>
၁၇ ၈၄</w>
မိုး ခေါင်
ဒါ ဟာ</w>
၁၆ ၆</w>
ဒု က္ခရ
အတွင်း ရှိ
ပြုလုပ် ပေး
၁၃ ၃</w>
မွေး နေ့
ဝိ သု
ကိုး ကွယ်</w>
ဆိပ် သာ</w>
ထူး ကဲ
အထူး ကု
အစား အသောက်</w>
ဗီ ယင်
ဆွဲ ရွာ</w>
အမေရိကန် တွင်</w>
ခဲ့ကြ သည်ဟု</w>
အမျိုးသား များ</w>
အောင်မြင် စွာ
အမှတ် တရ</w>
၂၂ ၁</w>
အသင်း အဖွဲ့
ရောင်း အား
သဘာ ၀
ဂျီ ဒီပီ</w>
44 6</w>
ကွယ်လွန် ခြင်း</w>
ကျုံ က
ထိပ် သီး
for m</w>
၁၈၇ ၉</w>
ကော်မတီ ဝင်</w>
၄၆ ၀</w>
သတိ ပ
၄၀ ၁</w>
ent ur
မြစ်ကြီး နား</w>
စစ်တပ် ကို</w>
စစ်တပ် မှ</w>
မပါ သော</w>
Re p
အယ်ဒီတာ ချုပ်</w>
ရင်းနှီးမြှုပ်နှံ မှု
အစိမ်း ရောင်</w>
oll ow
အာရေ ဗျ</w>
တဏ ှာ</w>
အညို ရောင်
နှိုး ဆော်
မဒည တ
မော်လီ ကျူး
ထက်မပို သော</w>
Elev en</w>
4 27</w>
5 79
A le
C P
i h
m is
ဤ ဘဒ္ဒ
် ု
၂ ၁၈</w>
င်း နှင့်</w>
မျ ာ</w>
လူ များကို</w>
သူ လျှို
၁၉ ၀</w>
စစ် ကူ
တောင် တွင်</w>
တ္ တိယ
ကုန်း လမ်း
မှတ် တိုင်
၁၈ ၅၀</w>
၁၈ ၃၆</w>
သုံး ပြီး</w>
သုံး စား
သုံး ပုံ</w>
နီ ယို
တရား များကို</w>
၁၇ ၅</w>
14 40
14 79
ဘွ ယ်</w>
th ree</w>
10 88
ဒါ ့
အိမ် တော်</w>
ခေါင်း ပါး
လယ် တီ</w>
၁၂ ၄</w>
မြင့် ရွာ</w>
ညောင် ဝိုင်းရွာ</w>
ပထမ ဆင့်</w>
၁၀ ၉</w>
ပြည့် နှက်
အရှေ့ အိန္ဒိယ
လား ဟူ
မဟာ ရဋ္ဌ
ဘီ အိုင်အေ
လူမျိုး များကို</w>
ရှေး ရှု
ရေးသား ခဲ့</w>
၁၉၅ ၉
၁၉၄ ၆
ဖန် တီး</w>
အထက် သို့</w>
အထက် ပိုင်း
ကင်း ဝေး
ပီ ကင်း
ic es</w>
ဂေါ င်
ရောဂါ ပိုး</w>
ac y</w>
ပင်လယ် ကမ်းခြေ
ဟောင်း များ</w>
ကေ သ
ဆိုး ရော့
ကြေ ညာ</w>
ခရိုင် ကို</w>
59 6</w>
200 7</w>
58 1</w>
58 5</w>
ဇီး တောရွာ</w>
ဗြိတိသျှ အစိုးရ
ဘာသာစကား နှင့်</w>
တဲ စုရွာ</w>
အခြေအနေ နှင့်</w>
မှတ်တမ်း များအရ</w>
ကျွမ်း ကျင်</w>
ကျား သစ်
အုန်း သီး
၁၈၆ ၆</w>
တင်ပြ ရမည်</w>
မည့် အကြောင်း</w>
စရာ ကောင်း
မြန်မာပြည် ကို</w>
အသိအမှတ် ပြု</w>
၉၀ ၂</w>
ဒီပ နီ</w>
ခုခံ အား
ခုခံ ကာကွယ်
အက်ဥပဒေ ကို</w>
ဟက် တာ</w>
အချိုး အစား
Lo ve</w>
ကလေးသူငယ် များ</w>
လေးအိမ် တန်းရွာ</w>
ဖြစ်သည့် အလျောက်</w>
စပ်လျဉ်း သော</w>
ပလေး စတေ
အထင်အရှ ား
Kyaukp adaung</w>
မြေမျက်နှာ သွင်ပြင်</w>
ဗွိုင်ယေ ဂျာ</w>
4 19</w>
C ur
H la</w>
L ib
M em
S ur
S er
T ex
a ta
က က္ကူ
ခ ဲခ
ဆ တ္တ
ဒ ရစ်
ဘ မ်
မ ကာ
မ ယုံကြည်
မ လုံလောက်
အ သွယ်
အ ဂတိ
၂ ၁၅</w>
သည ာ</w>
ရှ န်</w>
နေ အောင်</w>
ဦး အနက်</w>
ကို ကိုး
ရေ စက်
ရေ ကာတာ
၂၀ ၂၂</w>
တော များ</w>
တော ထွက်
မှု တ်</w>
လုပ် အား
မာ သည်</w>
လှ ပ်
န့် ကျေးရွာအုပ်စုတွင်</w>
တိ ဗက်</w>
တောင် အမေရိကတိုက်
ပျ ူ</w>
မင်း ပြု
စေ ချင်
စား တော်
ဝါ သည်</w>
မဟ ေ
ရန် သူကို</w>
ပြီး နောက်ပိုင်း</w>
19 65
ပန် လောင်း</w>
ကောင်း ကျေးရွာအုပ်စု</w>
ဆင် ခြင်</w>
နောက် တ
ပါဝင် ပါသည်</w>
14 48
ဖော် ထုတ်</w>
နား ကျေးရွာအုပ်စုတွင်</w>
ဆေး ထိုး
ဥပ ဇ္ဈာယ်
၁၆ ၈</w>
ရရှိ စေရန်</w>
အမည် ကို
နန်း ရင်း
၁၂ ၂</w>
အရေး အခင်း</w>
ဝိ သာ
ဗျ င်း
ဖွဲ့စည်း သော</w>
ဖွဲ့စည်း တည်ဆောက်
ကွင်း ပြင်
am ma</w>
အမေရိကန် တို့</w>
tr ad
ကရင် စုရွာ</w>
လွတ်လပ် ရေးအတွက်</w>
ထည့် ပြီး</w>
ထံ သို့
200 8</w>
မြန်မာ့ စွယ်စုံကျမ်း</w>
သင်္ဘော ဖြင့်</w>
လွင် ပြင်</w>
၂၇ ၃</w>
အနီး စပ်
ri ght</w>
၂၃ ၆</w>
တပ်မတော် နှင့်</w>
ဂါး ကျေးရွာအုပ်စု</w>
စစ်ဆေး စီရင်
ပြိုင်ပွဲ များတွင်</w>
အန္ တာ
၁၈၆ ၃</w>
ခန့်မှန်း ရသည်</w>
ရွေးကောက်ပွဲ ကို</w>
အဘိ ဓမ္မာ</w>
ထောက်ခံ အားပေး
အဓိပ္ပါယ် ဖွင့်ဆို
ကိုယ်တိုင် က</w>
ဗြိတိန် နိုင်ငံ</w>
ဘုန်းကြီး ကျောင်း
ဝု ဏ်
ကိစ္စရပ် များကို</w>
အလေ့ အကျင့်
တူရ ကီ</w>
Par ty</w>
မြို့တစ် မြို့
be en</w>
ထင်မြင် ယူဆ
ဂမ် ဘီယာ
စကော ့</w>
ထုံးတမ်း စဉ်လာ
ဗာရာဏ သီ
နက္ခတာ ရာမှ</w>
4 15</w>
4 26</w>
; &</w>
C re
J ul
M ay
N A
N an
R ad
w ell</w>
င န်
င ေး
င ရဲ</w>
ဆ ူး</w>
ပ ဝေ
ဗ ောင်း
ဘ ေ</w>
ဘ ရီ
မ ု</w>
ရ သ</w>
ဟ ရု
အ လွမ်း
အ ဇ္ဇ
ဤ အချက်
၂ ၁၄</w>
၃ ၂၀</w>
၄ ၄၀</w>
၈ ၈၆</w>
မှ ို</w>
ရွာ မ
အုပ် ထိန်း
လူ ရွာ</w>
တော် က</w>
ရေ ရှင်
ရေ ဒီ
ရေ အိုး
တော ရ</w>
စွ ပ်</w>
ဆို တာကို</w>
ပေး ဝေ
စား ကျက်
မြန်မာ တို့
တပ် နှင့်</w>
ပေ ကျင်း
18 75
၁၈ ၄၆</w>
စီ စဉ်</w>
ရွှေ ဘို</w>
အလ ောင်း</w>
ကန် ဒီ
အောင် လုပ်
အင် ဒို</w>
နည်း နှင့်</w>
စက် ကွင်း
ဘုရား ပွဲ
14 38
ပန်း များ</w>
ဓာ တု</w>
မြစ် များ</w>
သတ် သေ
၁၆ ၁</w>
အိမ် ယာ
ရရှိ နိုင်
နိ ဒါန်း
အို ခ</w>
၁၀ ၆</w>
၁၀ ၂</w>
ထပ် တူ
ဘွဲ့ လွန်
စီးပွား ဖြစ်</w>
လေ့လာ သည်</w>
it t
သာသနာ ရေး</w>
ဘို ကုန်းရွာ</w>
တိုက်ခိုက် သည်</w>
ငှက် မျိုး
အသက် ကြီး
တေ ဇော
ဝင်း သည်</w>
ထုတ်ဝေ ခဲ့သော</w>
59 1</w>
59 2</w>
58 7</w>
ကြက် ဥ
၃၅ ၄</w>
မြတ်စွာဘုရား ကို</w>
78 7</w>
ဇင်း ရွာ</w>
အသိ ပညာ
စခန်း ချ
စခန်း သို့</w>
၃၄ ၄</w>
နိုင်ငံခြား သို့</w>
con tro
43 1</w>
မင်းကြီး အား</w>
အစီအစဉ် တွင်</w>
ပိုင်ဆိုင် မှု</w>
၅၆ ၈</w>
လူငယ် များ
ပါဠိ ဘာသာ
တရားရုံး က</w>
မွန်း ကျေးရွာအုပ်စုတွင်</w>
စီမံခန့်ခွဲ ရေး
ဂျူ ပီတာ
ဖွဲ့စည်းပုံ အခြေခံဥပဒေ</w>
မှန်ကန် စွာ</w>
ဝါသ နာ</w>
ရေဒီယို သတ္တိ
အနိ စ္စ</w>
ထန်းပင် ကုန်းရွာ</w>
တရားစီရင် ရေး
ကွမ်းခြံ ကုန်း</w>
ဗီတာ မင်</w>
ie w</w>
Coun try</w>
tain ment</w>
ရစ်ချ တ်
သာကီ ဝင်
နဂါးငွေ့ တန်း</w>
စားနပ် ရိက္ခာ
အစီအမ ံ
မြို့သူ မြို့
နားကောင် မြို့နယ်</w>
ပုပ္ဖိ ယ</w>
( )၊</w>
. ,</w>
B or
D a</w>
H or
H um
I N
M A
N a</w>
N inj
Z a</w>
d ec
g ar
v e
က စ
က ဝဂ်</w>
တ ကိုယ်
တ လင်း
ထ မင်း</w>
ဗ ွန်
ဗ ရမ်း
မ နက်</w>
သ မ်
အ ည
အ ပူ</w>
့ ရွာ</w>
၃ ဝ
၈ ၁၀</w>
၍ )</w>
ရှ ပ်</w>
ဖြစ် လျက်</w>
မြို့ တည်</w>
တည် သော</w>
ကြီး တစ်
တို့ မှာလည်း</w>
လာ ကြလေသည်</w>
ရေ ဦး
နှစ် ကြိမ်</w>
သူ တို့မှာ</w>
သာ ဒ်</w>
သာ စည်</w>
လက် ခံရ
ဆို တဲ့
ဘာ မှ</w>
ထို အကြောင်း
ထို နေရာ</w>
နိုင်ငံ ပိုင်
တောင် သမ
လေး ဆူ
ပု ထု
ပု န်းရွာ</w>
သွား လာ</w>
အာ လူး
အာ ခိ
လုံး မှာ</w>
တိုက် တိုင်း
၁၈ ၂၁</w>
စီ သည်</w>
ရွှေ ဂူ
ကျောင်း တော်တွင်</w>
ကျောက် ရွာ</w>
in ess</w>
မြေ ပြို
တန်း တွင်</w>
၁၇ ၁၇</w>
ဘုရား လောင်း</w>
14 75
အရ ို
၁၆ ၂</w>
ပူ ပန်
တွင်း ကျေးရွာအုပ်စု</w>
နတ် သား
ပစ္ စေ
စတင် ဖွင့်လှစ်ခဲ့သည်</w>
မောင် ဘ
မန္တလေး မြို့တွင်</w>
ဆယ် ပါး
ကျမ်း ဂန်</w>
မက် ဆီ
သင့် သည်ဟု</w>
အမှတ် ရ
el y</w>
MMR0 14
ဘူး သီး
ကွာ ဟ
ပြင်း ပြ
ဆက်သွယ် ထားသည်</w>
၂၆ ၁</w>
58 6</w>
မြန်မာ့ အလင်း</w>
ဥရောပ နှင့်</w>
တွေ့ရ ပေသည်</w>
တစ်နှစ် ပတ်လုံး</w>
၁၉၀ ၈</w>
၁၉၀ ၂</w>
အနည်းငယ် မျှ</w>
ou gh</w>
နင်း ကျေးရွာအုပ်စုတွင်</w>
ak h
တို့ကို ပါ</w>
ပုံနှိပ် တိုက်</w>
အတတ် သင်
um b</w>
ဝိုင် ယာ
စပိန် နိုင်ငံ</w>
ငလျင် လှုပ်
နည်းပါး သည်</w>
အရေအတွက် မှာ</w>
စေတ နာ</w>
ခလ ုတ်</w>
ကမ္ဘာလုံး ဆိုင်ရာ</w>
ဘုရင်မင်း မြတ်</w>
ဒိဋ္ဌ ိ</w>
အကောက် ခွန်
တိုက်ဖျက် ရေး</w>
နိကာ ယ်</w>
ဟီရို ရှီးမား
ate g
အီလက်ထရော နစ်
recor d</w>
G y
G od</w>
p sych
ခ ရှိ
ဒ ို့
ပ ရော်
ရ ဝ
ရ တော့သည်</w>
လ များ</w>
လ ပြည့်</w>
အ ဝင်</w>
အ ပိတ်
၂ ၁၆</w>
၇ ၇၆</w>
၇ ၆၉</w>
၉ ၃၉</w>
ကျ သွား
နှ ုံး
များ အတိုင်း</w>
များ အပေါ်
ရှိ ကြပြီး</w>
နိုင် ခွင့်</w>
လူ တွေ
ခေါ ရွာ</w>
သူ ကိုယ်တိုင်</w>
လက် ဆင့်
အစ ိုင်
တောင် နှင့်
စေ တတ်</w>
ယူ ဆ</w>
ရန် သူ့
ရွှ န်း
ပညာ ရေးနှင့်</w>
ပညာ ရေးကို</w>
တိုက် ထုတ်
၁၈ ၈</w>
ပြင် စည်
သုံး ဦး</w>
in d</w>
ရော ဘတ်</w>
၁၆ ၇၅</w>
နတ် သျှင်
နောင် အခါတွင်</w>
၁၂ ၇</w>
ဆီ ဇာ
ပို များ
ခြေ လှမ်း
ဗျ ာ</w>
၁၉၅ ၆
၁၉၄ ၅
ဖော်ပြ ထား</w>
မှန် မှန်
ပစ္စည်း ဥစ္စာ
လွယ် သော</w>
ဗုဒ္ဓ ရုပ်ပွား
ပြည်နယ် နှင့်
ဆု ရ</w>
မြင်း ဝန်</w>
ဘို ကျေးရွာအုပ်စု</w>
တိုက်ခိုက် ခြင်း</w>
အရှင် သခင်</w>
သင်ကြား ရေး
ရုပ်ရှင် ကို</w>
ခွန် ရွာ</w>
ဖျက် ဆီး</w>
ဝဲ လ်</w>
ယဉ်ကျေး မှုကို</w>
လှုပ်ရှား မှုများကို</w>
အသီး အနှံ
ဗမာ နိုင်ငံ
ဂွ ါ
တမ ော့
သဘာဝ အလျောက်</w>
ရခိုင် ပြည်
ကိုးကွယ် ယုံကြည်
၃၆ ၀</w>
၁၈၆ ၉</w>
အုပ်စု များ</w>
ဖို့ အတွက်</w>
၃၇ ၇</w>
၁၈၅ ၃</w>
အကျယ် ချုပ်
အစု ကြီး</w>
ဖြည်း ဖြည်း
ကောင်စီ မှ</w>
ပရို ဂရမ်</w>
ဝန်ကြီးဌာန က</w>
ဖိုင် ရွာ</w>
နက္ခ တ်</w>
Kh in</w>
aung d
မိနစ် နှင့်</w>
oth ic</w>
ပျော့ ပျောင်း
ဟိန္ဒ ူ</w>
နှောင့် နှေး
70250 3</w>
ကမ္ဘာမြေ မှ</w>
ပျံလွန် တော်မူခြင်း</w>
အလယ်တန်း ကျောင်း</w>
ber t</w>
ဦးပု ည
ဘောလခဲ ခရိုင်</w>
တစ်နာရီ လျှင်</w>
အာဂျင်တီး နား
ကောက်ပဲ သီးနှံ
ဝိနိစ္ဆ ယ</w>
B at
E r
P ower</w>
h o
i j
m ore</w>
u ary</w>
က ဖြစ်စေ</w>
ဘ လက်
မ မ
အ ဂ
အ ဿ
၂ ၃၀</w>
၇ ၉၇</w>
၈ ၄၉</w>
၉ ၆
ကျ ု
မှ ုံ
မှ ရသော</w>
ဖြစ် ခဲ့သော</w>
နေ ရ</w>
မြို့ တို့</w>
လူ ရိုင်း
တို့ ဗမာ</w>
ရေ မျက်နှာပြင်
လွ ေ</w>
မှု များအား</w>
မိ ဂ
ထို ကဲ့သို့
ပင် ဖြစ်လေသည်</w>
အမ ေ</w>
သုံး ဆယ်</w>
စီ ကို</w>
an o</w>
ဇာ တာ
သက် ဦးဆံ
အဆ င်း</w>
ထွက် ဆို
ခန့် ညား
စိတ် ပါဝင်
တွင်း နက်
တင်း ကျပ်
အမည် ခံ</w>
ကလေး များနှင့်</w>
ဖြူ သည်</w>
ပို ဒ်</w>
အချိန် အခါ
ရေးသား ခဲ့သည့်</w>
ဖော်ပြ ချက်</w>
ထောက် ခံ</w>
ထောက် ကြံ့
ထိုး စစ်ဆင်
အလုပ် ရှင်
ရောင် ရမ်း
ရန်ကုန် မှ</w>
စနစ် ကို
ဆီး နှင်း
ညှ ို့
ကြေး ငွေ</w>
မယ် ဆိုရင်</w>
ကေ ရွာ</w>
အရပ် ရှိ</w>
အသံ သွင်း
ဂျီ ဒီ
အစဉ် လိုက်
59 3</w>
58 4</w>
58 0</w>
၃၀ ၁</w>
နှံ ့</w>
၃၅ ၁</w>
လွှတ်တော် က</w>
မြို့တော် သို့</w>
ပုဂ္ဂိုလ် ရေး
ပျောက် ပျက်
၃၄ ၂</w>
အုပ်ချုပ်ရေး မှူး</w>
ဆောက်လုပ် လှူဒါန်း
76 7</w>
အလေး ထား
ကြိုးပမ်း မှု</w>
အနိုင် ရခဲ့သည်</w>
မိဘ များ</w>
တပ်ဖွဲ့ များ</w>
နှလုံး သွင်း
အဓိပ္ပာယ် ဖွင့်ဆို
၇၀ ၄</w>
ပိန်း နှဲ
၆၀ ၄</w>
မပါ ရှိ
ပေါက်ရောက် သော</w>
စို ထိုင်း
အမွှ ာ
ကြင် နာ
ချဉ်း ကပ်</w>
ပဏ္ဍ ိတ
ပြန်ကြား ရေး
ပျံလွန် တော်မူခဲ့သည်</w>
အခိုင် အမာ</w>
ပျောက်ကွယ် သွား
သခင်စိုး သည်</w>
Comm un
တစ်ဦးတည်း သော</w>
အချမ်းသာ ဆုံး
ရဲဘော်သုံး ကျိပ်
ပရိနိဗ္ဗာန် စံ
NL D</w>
ဦးနှ ောက်</w>
တစ်ဦးနှင့် တစ်ဦး</w>
အမွှေးအကြ ိုင်
မြန်မာ့ဆိုရှယ်လစ် လမ်းစဉ်
တညီ တ
4 23</w>
I s
L aw
M c
P auk</w>
T er
Y in</w>
e qu
l in</w>
u k</w>
က လင်
ဒ မ်း
ပ တ္တိ
မ ကို
အ နှ
အ ယုံ
အ ယူ</w>
၁ ၁၆</w>
၁ ၁၉</w>
၃ ဝဝဝ</w>
၄ ၃၈</w>
၈ ၉၆</w>
၉ ၁၈</w>
ကြ ောက်</w>
တွ တ်
ချ ိုင်</w>
ချ ွေ
များ အားလုံး
များ အကြောင်းကို</w>
များ အားလုံး</w>
ရှိ ရမည်</w>
စာ ရ
ရေ ထဲတွင်</w>
လျ ော်</w>
လုပ် ဖော်
သော က</w>
ထား ခြင်းမရှိ
မျိုး ရိုး</w>
နိုင်ငံ များကို</w>
သား များနှင့်</w>
နေထိုင် ကြပြီး</w>
မင်း ထင်
စာရင်း စစ်
နှင့် အခြား
ပုံ တို့ကို</w>
19 75
ကျောင်း သူ
ကျောင်း ဆရာ</w>
မိုင်း ကိုင်
ဆင် သေ
မည် သည်</w>
ရုပ် ကြွ
နီ ကို</w>
ဘူ တ
မြင် နိုင်သည်</w>
ငယ် နှင့်</w>
ပိုင် ရွာ</w>
ခွင့် ပေး
ခန့် နှင့်</w>
ပူ ရွာ</w>
အသုံးပြု ခဲ့သော</w>
အမည် အားဖြင့်</w>
ဆောင်ရွက် ခဲ့</w>
၁၃ ၈၁</w>
အရေး နိမ့်
အင်း ဆက်
ဝိ ဉာ
ဂျပန် နိုင်ငံတွင်</w>
ထပ် ဆင့်
အထူး ပင်</w>
ဒေါ် သန်း
ဝမ် ဟွေ
ကြည့် ရာ</w>
ကြည့် ပါက</w>
ထွန်း လင်း
ဗုဒ္ဓ အယူဝါဒ
နံ ရံ</w>
ဘဝ ဖြင့်</w>
အမေရိကန် နိုင်ငံတွင်</w>
ဝေါ လ်
ဖူး သော</w>
မြို့နယ် ကို</w>
အရှင် သု
အခြေခံ ပြီး</w>
ဝမ်း ဗိုက်
အိန္ဒိယ ပြည်</w>
ဂုဏ် ထူး</w>
မေး မြန်း</w>
၂၅ ၅</w>
ကွယ်လွန် လေသည်</w>
200 9</w>
၂၄ ၆</w>
အားလုံး သော</w>
၂၉ ၂</w>
78 2</w>
မိန်း ကလေး</w>
ap e</w>
၃၆ ၃</w>
စခန်း တွင်</w>
လေယာဉ် များ</w>
ဟင်း ခါး
ပြင်ဆင် ခြင်း</w>
မင်းကြီး စွာ
ပြတ် ရွေ့
ထူးခြား ချက်
အိမ်ထောင် ပြု
အပေါင်း ကို</w>
ကေအင်န် ယူ</w>
မရောက် မီ</w>
ip p
စေတနာ ့
မဏ္ဍ ိုင်
စံပြ ရွာ</w>
0x 0
ကိုးကန့် အထူးဒေသ</w>
ဤအက်ဥပဒေ ကို</w>
အချမ်းသာ ဆုံး</w>
ရှော် ချောင်း</w>
web site</w>
အဘယ့် ကြောင့်ဆိုသော်</w>
ပညာတော် သင်
4 21</w>
B il
R A
W il
Y angon</w>
a p</w>
b al
b eg
g en</w>
j or</w>
y ing</w>
တ ရွာ</w>
ဒ ဗ
၆ ၇၀</w>
၇ ၆
၏ ။)</w>
ဖြစ် လေရာ</w>
နေ ပေသည်</w>
ရွာ သာရွာ</w>
တစ် စု</w>
တစ် နည်း</w>
လူ မည်း
၁၉ ၉</w>
ပွ ေ
နိုင်ငံ ပိုင်</w>
နိုင်ငံ တစ်နိုင်ငံ</w>
သား များအား</w>
ဂျ ်</w>
သမ ပိုင်း
ပေး လျှင်</w>
ကာ ့
အား ရ
တင် ကာ</w>
စား ကြသည်</w>
နှင့် သူ</w>
ရန် သာ</w>
သည့် နေရာ
စီ တွင်</w>
ရှမ်း စု</w>
ရွှေ လီ
ရီ ယမ်</w>
စီး တီး
ကြား ရွာ</w>
ပွဲ ကြည့်
ရုပ် စုံ
မြေ ပဲ
14 34
ထွက် ကာ</w>
ထွက် လာသော</w>
အပြ န်</w>
ခန့် မှာ</w>
တွင်း တွင်</w>
သု တ</w>
ပဲခူး တိုင်း</w>
ကောင် ကျေးရွာအုပ်စုတွင်</w>
စတင် သည်</w>
စတင် တွေ့ရှိ
တော်မူ ပါ
လိပ် စာ</w>
မောင် မယ်
အနောက် တောင်ဘက်</w>
ကိ လေ
ဂျပန် နိုင်ငံရှိ</w>
တစ်ဦး ချင်း</w>
တည်ရှိ ကြသည်</w>
သတင်း များကို</w>
ကွဲ ပြား</w>
မား ရွာ</w>
ဂု တ္တ
ဆန် တက်
မက် ဆာချူး
ခါး ပတ်
ကြေး မုံ</w>
ပြန်လည် ပြုပြင်
စာအုပ် ဖြင့်</w>
အတွက် မူ</w>
လိုင် စင်</w>
ကချင် ပြည်နယ်
ခရိုင် သည်</w>
တေး သွား
59 7</w>
58 3</w>
58 2</w>
ညို သည်</w>
နွယ် ရွာ</w>
မြို့တော် ဖြစ်သည်</w>
78 3</w>
အခြေအနေ များ</w>
ကိုးကွယ် မှု</w>
အိပ် ပျော်
သပြေ ကုန်း</w>
ပလက် ဖောင်း
သင်တန်း ကျောင်း</w>
များတွင် လည်းကောင်း</w>
po si
တန်ဖိုး ကို</w>
ကြောက် လန့်
ဓမ္မာ နံ</w>
ai r</w>
ပေါင်းများစွာ ကို</w>
wh o</w>
ပျဉ် ထောင်
တယ်လီ စကုပ်
ကွာဝေး သော</w>
Ap ple</w>
လတ္တ ံ့
ဗန္ဓု လ</w>
အပြင်းအထ န်
Tim es</w>
မဟာယာ န</w>
အိန် ဂျယ်
ယူနိုက်တက်ကင်းဒ မ်း
လှျ င်</w>
gres sive</w>
ကောဇာ သက္ကရာဇ်</w>
ပလေးစတေ ရှင်</w>
4 25</w>
6 39
B us
M aungd
O per
g a</w>
g on</w>
l aun
u x</w>
v en
မ ကောင်း</w>
ရ တန
အ လွ
အ ဖု
၈ ၄၃</w>
၈ ၈၄</w>
င်း ဒြပ်စင်
များ မကြာမီ</w>
ဲ့ ရွာ</w>
နေ တာ
ရွာ ဟောင်း
ကု ဏ္ဍ
စာ သည်</w>
သူ တဦး
တော အတွင်း</w>
သည် နှင့်အမျှ</w>
ထို နောက်တွင်</w>
နိုင်ငံ တွင်
ဂျ ောင်
ဆောင် ယူ
ပေး ခဲ့ကြသည်</w>
ပေး ခဲ့လေသည်</w>
ပေး ဆပ်
စာရင်း ဝင်
အမ က</w>
အမ င်း</w>
ဝါ ယာ
ဖွဲ့ ကာ</w>
ရောက် လာသည်</w>
အိ ခဲ
အိ ဘရ
တီ ရွာ</w>
တီ ဘီ
ရွှေ ချ
ဌာ နေ
မည် ကဲ့သို့</w>
[...]
