<unk>	0
<s>	0
</s>	0
▁	-3.32445
၊	-3.99948
.	-4.07886
/	-4.33217
="	-4.35792
doc	-4.36921
>	-4.36975
▁<	-4.36975
)	-4.48372
▁(	-4.62348
သည်	-4.64487
"	-4.81461
d	-4.97168
တွင်	-5.00425
ကို	-5.02253
wiki	-5.05178
my	-5.05841
org	-5.06043
?	-5.06097
://	-5.06138
https	-5.06217
curi	-5.06265
▁title	-5.0627
url	-5.06272
wikipedia	-5.06273
▁id	-5.06278
ရွာ၊	-5.14769
နှင့်	-5.24357
▁ဖြစ်သည်။	-5.26928
၌	-5.37462
ကျေးရွာအုပ်စု	-5.39099
▁ဦး၊	-5.50707
၏	-5.61808
▁မ	-5.66108
▁တည်ရှိသည်။	-5.7644
က	-5.85285
▁ရွာနေရာကုတ်မှာ	-5.8552
မြို့နယ်	-5.89435
မှ	-5.95423
များ	-5.98253
▁သ	-6.03755
▁()	-6.06237
ရွာ	-6.06342
သော	-6.06658
-	-6.0952
မှာ	-6.12133
▁၂၀၁၄	-6.12554
န်းခေါင်စာရင်းအရ	-6.15911
▁ကျား	-6.16336
▁လူဦးရေ	-6.17508
▁စုစုပေါင်း	-6.19433
ကြီး	-6.25756
၍	-6.30568
(	-6.33774
▁ဦးနေထိုင်သည်။	-6.33783
ခဲ့သည်။	-6.3586
များကို	-6.36633
သည်။	-6.38134
မြို့နယ်၊	-6.56327
▁သည်	-6.59898
▁နှင့်	-6.602
ပြီး	-6.62598
;	-6.64259
အား	-6.64523
မ	-6.64909
သည့်	-6.65955
သို့	-6.66473
▁ထို	-6.66641
၁	-6.67226
ကာ	-6.68474
။	-6.71606
ဖြင့်	-6.72649
ခြင်း	-6.75738
▁အ	-6.76599
,	-6.77267
ရန်	-6.78143
ရှိ	-6.79459
▁ရှမ်းပြည်နယ်	-6.80762
ဖြစ်သည်။	-6.82798
လည်း	-6.85729
▁ခုနှစ်	-6.86538
တိုင်းဒေသကြီး၊	-6.86557
&	-6.87179
▁ဦး	-6.89457
▁ခုနှစ်တွင်	-6.89937
▁"	-6.91757
အ	-6.9714
တောင်	-6.98415
ရာ	-6.99886
ပင်	-6.99915
အဖြစ်	-7.02955
▁MMR	-7.0656
ဟု	-7.09541
▁ကို	-7.09594
တို့	-7.11707
မြောက်	-7.14533
▁-	-7.14909
lt	-7.15733
▁တွင်	-7.15976
သာ	-7.16109
gt	-7.19657
s	-7.20291
ရ	-7.21663
၂	-7.24397
မှု	-7.2731
ပါ	-7.33688
▁က	-7.37705
ရေး	-7.39791
အရှေ့	-7.41335
အတွက်	-7.4408
▁ရက်။	-7.45013
()	-7.46421
ဝ	-7.4923
တ	-7.49964
▁ရှိသည်။	-7.50078
များသည်	-7.51169
▁ဤ	-7.52927
သူ	-7.53085
လာ	-7.53197
ကြသည်။	-7.5348
မြို့	-7.53767
တော်	-7.5398
▁သို့မဟုတ်	-7.58229
တို့ကို	-7.58987
အောင်	-7.59487
▁အခြား	-7.59569
များနှင့်	-7.62897
များတွင်	-7.63429
စ	-7.63846
▁စစ်ကိုင်း	-7.65312
'	-7.65367
▁မြန်မာနိုင်ငံ	-7.65418
တို့သည်	-7.66597
ခရိုင်၊	-7.70092
၃	-7.71404
ကုန်းရွာ၊	-7.71458
▁မြန်မာ	-7.73084
တို့၏	-7.73157
▁ဟု	-7.73157
ခြင်း၊	-7.73359
၏။	-7.73554
လ	-7.74798
ဦး	-7.74882
▁&	-7.76801
▁မန္တလေး	-7.76974
တာ	-7.76999
▁ယင်း	-7.79472
လျှင်	-7.80384
▁မှ	-7.81035
ခဲ့ပြီး	-7.81486
▁the	-7.81556
”	-7.81855
▁၂	-7.81868
လေသည်။	-7.81917
ကား	-7.83424
ပုံ	-7.83623
ခ	-7.83943
▁သို့သော်	-7.84583
လေး	-7.85579
နေ	-7.85606
▁၏	-7.86045
▁ရက်နေ့တွင်	-7.86621
ပေါင်း	-7.86639
▁ရေ	-7.87412
▁ပဲခူးတိုင်းဒေသ	-7.87567
▁အဖြစ်	-7.89079
▁“	-7.89372
အနောက်	-7.89578
▁၁	-7.90715
သ	-7.90777
▁နှစ်	-7.9155
များ၊	-7.92396
ဖြစ်သော	-7.9285
၄	-7.93366
စွာ	-7.93712
နီ	-7.93976
ခဲ့ကြသည်။	-7.941
မင်း	-7.94163
သား	-7.94425
လျက်	-7.94471
▁တ	-7.95351
▁နေထိုင်သည်။	-7.96507
နိုင်သည်။	-7.97587
▁၃	-7.98584
▁of	-7.99058
သဖြင့်	-7.99809
ဆိုင်ရာ	-8.00075
အတွင်း	-8.00138
ကုန်း	-8.00571
▁အမေရိကန်	-8.00747
ချောင်း	-8.0112
▁'	-8.02426
တစ်ခု	-8.02617
▁လူ	-8.02926
၅	-8.03155
ကြောင့်	-8.0317
▁၄	-8.03573
များမှာ	-8.03706
ထက်	-8.04899
▁မကွေး	-8.05977
ရေ	-8.06202
▁ခုနှစ်၊	-8.06365
ဖြစ်	-8.06703
ရှိသည်။	-8.06855
ထားသော	-8.07007
နိုင်	-8.07213
ရသည်။	-8.08535
နာ	-8.08783
▁Ward	-8.09697
ပ	-8.09907
▁သည်။	-8.09985
ဖြစ်ပြီး	-8.10334
▁သူ၏	-8.10756
စီ	-8.12078
▁ကျိုင်းတုံ	-8.12541
အထိ	-8.13371
▁ရှိ	-8.13453
ကြောင်း	-8.13596
နိုင်ငံ	-8.13861
တိုင်း	-8.14076
း	-8.14287
▁ရွှေ	-8.14402
မျိုး	-8.15167
တဲ့	-8.1518
နှစ်	-8.15755
ခဲ့သော	-8.16397
ခေါ်	-8.16696
ကောင်း	-8.17106
▁စတင်	-8.17469
ရင်း	-8.177
▁နိုင်ငံ	-8.17874
ကန်	-8.17944
တင်	-8.18174
များ၏	-8.18387
▁အမှတ်	-8.18563
;/	-8.1868
မူ	-8.19501
▁၅	-8.19603
ပြီးနောက်	-8.19758
တစ်	-8.20011
တန်း	-8.20051
အရ	-8.21138
:	-8.21275
▁ရက်	-8.21477
လေ	-8.2202
သုံး	-8.22347
ရာတွင်	-8.22648
စ်	-8.23272
သစ်	-8.23837
သွား	-8.24314
▁အဓိက	-8.24992
▁တောင်	-8.25277
▁သော	-8.25769
ကျွန်း	-8.2615
နေသော	-8.26445
▁အသက်	-8.26742
▁ပြန်လည်	-8.27034
နဲ့	-8.27068
ထား	-8.27159
▁။	-8.27219
ထားသည်။	-8.27253
2	-8.27912
န	-8.27966
▁ဒုတိယ	-8.29028
တွေ	-8.29149
စာ	-8.29418
ဝါ	-8.29521
▁Town	-8.30088
ပေး	-8.30619
3	-8.30883
ကျော်	-8.31054
ပေါက်	-8.31123
လ်	-8.31461
မာ	-8.31684
လို	-8.31748
စား	-8.31824
လိုက်	-8.32108
ဟာ	-8.32825
တိုက်	-8.32988
ကိုလည်း	-8.33773
▁အမျိုးသား	-8.34124
တော	-8.34569
၆	-8.34578
ဂ	-8.34808
ခံ	-8.34864
ဝင်	-8.34872
တို	-8.35739
▁ဖြစ်	-8.35827
သော်လည်း	-8.36019
လုံး	-8.36297
▁အလွန်	-8.36587
▁၆	-8.36985
▁ထို့နောက်	-8.37202
▁၎င်း	-8.3793
လီ	-8.38388
၇	-8.38702
ဘဲ	-8.38821
ဟူ၍	-8.38851
့	-8.39423
ရှင်	-8.39459
4	-8.39596
ကျောင်း	-8.39772
လက်	-8.40443
1	-8.40542
ပြင်	-8.40679
▁−	-8.40754
▁မင်း	-8.40762
▁တစ်	-8.41222
ခဲ့	-8.41635
▁တည်ရှိသည့်	-8.4223
သောအခါ	-8.42456
ရီ	-8.4269
▁and	-8.42819
အားဖြင့်	-8.43186
ကျ	-8.43293
ကြ	-8.43396
▁ခု	-8.43416
ရှိသော	-8.43682
▁လ	-8.44007
▁ဤရွာ	-8.44077
e	-8.4443
သည်ဟု	-8.44515
▁အတွက်	-8.44737
ကလေး	-8.44752
တို့တွင်	-8.44753
ဖြစ်၍	-8.45282
ချက်	-8.45348
▁၁၀	-8.45586
▁လက်	-8.45635
များက	-8.45637
▁စီးပွားရေး	-8.45658
▁ပထမဆုံး	-8.45745
▁၇	-8.45793
မြို့တွင်	-8.46567
လူ	-8.46684
▁ကျောက်	-8.47337
မီ	-8.47364
မိ	-8.47425
စု	-8.47468
တက်	-8.47561
▁အစိုးရ	-8.47572
6	-8.47851
▁အိမ်	-8.47875
▁ပထမ	-8.49094
5	-8.49143
ခဲ့လေသည်။	-8.49194
ပြန်	-8.49196
ငယ်	-8.49324
▁ထို့ကြောင့်	-8.49343
▁စစ်	-8.4952
ပန်း	-8.49899
▁ဂျပန်နိုင်ငံ၊	-8.49922
စုရွာ၊	-8.50606
▁ပေ	-8.50757
များဖြင့်	-8.511
ချင်း	-8.51322
ခြင်းကို	-8.51326
▁နောက်	-8.515
ရွှေ	-8.51635
ကွင်း	-8.51685
▁နိုင်ငံရေး	-8.51801
▁ထိုသို့	-8.5232
ရက်	-8.52361
ဘ	-8.52503
ဒ	-8.52707
▁သူသည်	-8.52807
ပြီးလျှင်	-8.52891
▁ရ	-8.53159
▁ရန်ကုန်	-8.53189
မျှ	-8.53263
ဆင်	-8.53405
ကဲ့သို့	-8.53447
▁၁၅	-8.53477
တပ်	-8.53628
▁မတ်လ	-8.53674
တိုင်	-8.53678
▁ပါဝင်	-8.53808
၈	-8.53962
▁စ	-8.54086
▁အထိ	-8.54272
8	-8.54705
ဒီ	-8.55301
စစ်	-8.55372
▁ရပ်ကွက်	-8.55579
တော့	-8.55977
ယူ	-8.56108
▁တို့	-8.5621
အောက်	-8.56263
▁ရေး	-8.56336
ရင်	-8.56927
▁မိမိ	-8.56939
တန်	-8.56967
ဖြူ	-8.57207
▁ပြည်ထောင်စု	-8.57405
ပဲ	-8.57476
နည်း	-8.5763
▁ငါး	-8.57648
နယ်	-8.577
များအား	-8.58102
▁နေ	-8.58168
▁တိမ်ကောသွားပြီ	-8.58508
y	-8.58766
လှ	-8.58797
လူဦးရေစုစုပေါင်း	-8.59075
စဉ်	-8.59452
t	-8.59477
▁ကျော်	-8.59573
▁ပ	-8.5974
မှုကို	-8.60801
7	-8.60892
မြေ	-8.61049
▁ကချင်ပြည်နယ်၊	-8.612
▁၁၂	-8.61257
ဆုံး	-8.6131
0	-8.61847
▁ခေါ်	-8.62226
▁ဝ	-8.62876
လမ်း	-8.62906
▁၁၄	-8.63282
▁နေရာ	-8.63343
ရိုး	-8.6336
▁၈	-8.63687
▁ဆောင်ရွက်	-8.63829
▁အား	-8.63848
၁၈	-8.63864
သံ	-8.63898
ရပ်ကွက်	-8.63923
ခွဲ	-8.63985
▁တရုတ်	-8.6399
▁၃၀	-8.64666
▁အင်္ဂလိပ်	-8.64823
▁ဖြစ်ပြီး	-8.64866
▁=	-8.64896
ထားသည့်	-8.6514
▁အသုံးပြု	-8.65402
▁နောင်	-8.65543
9	-8.65639
ထွက်	-8.65821
စေ	-8.66143
▁၂၅	-8.66269
ပေါ်	-8.66282
▁ဘူတာတစ်ခု	-8.66437
ပြု	-8.66915
ဒါ	-8.6705
ယ	-8.67063
မှုများ	-8.6717
▁ဆရာ	-8.67613
ခန့်	-8.67636
ချောင်းရွာ	-8.68394
▁၂၄	-8.68792
▁ကျောင်း	-8.68825
ဆောင်	-8.6883
ယာ	-8.68905
ဆို	-8.68907
တီ	-8.69017
▁နိုင်ငံတော်	-8.69188
သော်	-8.69443
▁ပါဝင်သည်။	-8.69639
နား	-8.69863
▁တက္ကသိုလ်	-8.70016
ခဲ့သည့်	-8.70217
▁ကိုယ်ပိုင်	-8.70264
▁သုံး	-8.70393
▁အဲခိ	-8.7043
၁၂	-8.70531
▁ပါ	-8.70761
အဖွဲ့	-8.70928
တို့က	-8.70987
▁စာ	-8.71188
ပိုင်း	-8.71379
▁မြေ	-8.71417
ချ	-8.71466
၁၉	-8.71521
▁အာ	-8.71593
▁သို့	-8.71677
ဘုရား	-8.71894
▁ပြုလုပ်	-8.7208
၉	-8.72129
▁၁၁	-8.72396
▁ဘုရား	-8.72461
▁၉	-8.72901
▁ပန်	-8.73076
▁စိတ်	-8.7351
▁A	-8.73555
▁အချို့	-8.73857
ဒေသ	-8.73862
ခဲ့ရာ	-8.73894
သောကြောင့်	-8.73951
ပေ	-8.7402
များမှ	-8.7407
ဆာ	-8.7436
ရပ်	-8.74445
တူ	-8.74526
လုပ်	-8.74804
ပြ	-8.74816
▁ကောင်း	-8.75132
ခေတ်	-8.7534
▁ဆက်လက်	-8.75407
ရာ၌	-8.75838
▁အတွင်း	-8.7605
ing	-8.76483
ဆေး	-8.76521
)"	-8.76538
▁မဟာ	-8.76637
▁များ	-8.76665
▁The	-8.76671
ရဲ့	-8.76793
▁အထူး	-8.76801
▁ကမ္ဘာ့	-8.76802
▁in	-8.7693
▁မိုင်	-8.77097
နိုင်သော	-8.7713
လုပ်ငန်း	-8.77376
ဆန်	-8.77673
သည်လည်း	-8.77741
၁၀	-8.7779
ပွဲ	-8.78095
▁၂၃	-8.7812
in	-8.78195
ပေါ်တွင်	-8.78338
စေရန်	-8.78439
▁ဆင်	-8.78647
▁၂၂	-8.78808
▁၂၇	-8.78831
အို	-8.7887
ဘာ	-8.79271
လို့	-8.79309
▁")	-8.79395
စိတ်	-8.79622
▁ဝင်ရောက်	-8.79657
▁သူ	-8.80047
▁No	-8.80072
တတ်	-8.80098
ခုနှစ်တွင်	-8.8012
ဟောင်း	-8.80304
ဆီ	-8.80611
▁၁၆	-8.80612
▁မောင်	-8.80728
駅	-8.80775
ဆ	-8.80902
▁၂၆	-8.81326
▁နား	-8.81967
▁ခန့်	-8.81993
▁လေ	-8.82664
▁S	-8.82873
ထ	-8.82886
▁ထိုအခါ	-8.83048
ကျောက်	-8.83076
သီး	-8.8321
▁မြို့	-8.83245
ခုနှစ်	-8.83328
ကုန်	-8.83504
’	-8.83914
▁အရှင်	-8.84165
ထုတ်	-8.84217
၁၁	-8.84315
မြင့်	-8.84542
▁ငွေ	-8.84919
▁ရုပ်ရှင်	-8.84929
▁မေလ	-8.85082
သိ	-8.85159
▁သူ့	-8.85247
နေရာ	-8.85293
ဟန်	-8.85622
ခဲ့ရသည်။	-8.85869
လျက်ရှိသည်။	-8.85874
ချိန်	-8.86136
လဲ	-8.86187
ဖို့	-8.86409
မြစ်	-8.8646
▁ဂျပန်	-8.86678
▁ကရင်ပြည်နယ်	-8.87002
▁တနင်္သာရီ	-8.87053
▁နမ့်	-8.8726
▁to	-8.87261
▁သမိုင်း	-8.87407
မည့်	-8.87556
al	-8.87731
▁လုပ်ငန်း	-8.87916
ဖြစ်သည့်	-8.87992
မန်	-8.8803
၁၅	-8.88101
ဆက်	-8.88166
o	-8.88191
ချုပ်ခွင့်ရဒေသ	-8.88446
▁ရေးသား	-8.88719
▁သို့ရာတွင်	-8.88849
▁သံ	-8.88999
▁တစ်ခု	-8.89158
ပညာ	-8.89223
န်	-8.89274
နိုင်ရန်	-8.89439
▁ထို့ပြင်	-8.89477
▁အောက်	-8.89485
ဇ	-8.89553
နှင့်အတူ	-8.89682
▁ပန်း	-8.89775
ရသော	-8.9028
ခဲ့၏။	-8.90407
▁ရက်တွင်	-8.90452
er	-8.90591
ကြား	-8.90599
လင်း	-8.90664
▁ရှင်	-8.90691
▁အခြေခံ	-8.90692
▁ပညာ	-8.90749
သေ	-8.91314
တွင်း	-8.91445
များအတွက်	-8.91475
ဘူတာ	-8.91543
▁၂၈	-8.91602
▁ဧပြီလ	-8.91736
▁ဖွဲ့စည်း	-8.91829
ဖ	-8.91876
▁ဒီ	-8.91982
▁ရောက်	-8.92019
▁နတ်	-8.92145
▁ကိုယ်ပိုင်အုပ်	-8.92275
အတိုင်း	-8.92304
လောက်	-8.92325
▁a	-8.92407
ငွေ	-8.92463
ထိ	-8.92482
▁အဆိုပါ	-8.92663
n	-8.92759
▁ဗြိတိသျှ	-8.92921
ရည်	-8.92962
စက်	-8.92969
ပိုင်	-8.93186
ဟူသော	-8.93216
ခင်	-8.93238
ပန်	-8.93284
လေ့ရှိသည်။	-8.93329
အပေါ်	-8.93358
▁မိုင်းပျဉ်း	-8.93499
လူမျိုး	-8.93519
▁ဇွန်လ	-8.93801
▁မိုး	-8.93834
ရစ်	-8.93897
▁မန်	-8.93989
▁ဖြစ်၏။	-8.94124
53"	-8.94406
လုံ	-8.94454
မီး	-8.94467
ပါက	-8.94499
အနေဖြင့်	-8.94575
သူများ	-8.94592
၂၀	-8.94612
▁၂၀	-8.94631
52"	-8.94728
၁၃	-8.94739
၁၆	-8.94783
▁ပိုမို	-8.94798
▁စာပေ	-8.94895
၁၇	-8.95398
S	-8.95541
54"	-8.95632
51"	-8.95672
61"	-8.95816
62"	-8.95961
၁၄	-8.96032
63"	-8.96122
85"	-8.96159
▁ဟူ၍	-8.9616
77"	-8.96165
စေသည်။	-8.96184
ခွင့်	-8.96256
48"	-8.96266
87"	-8.96399
စနစ်	-8.9641
24"	-8.96424
▁၁၃	-8.96456
T	-8.96459
ခု	-8.96481
မည်	-8.96549
▁ဩဂုတ်လ	-8.96567
99"	-8.96826
65"	-8.96836
▁ယခုအခါ	-8.96842
46"	-8.96892
42"	-8.96947
69"	-8.96952
67"	-8.97019
71"	-8.97044
88"	-8.97102
▁သန်း	-8.97127
03"	-8.97139
59"	-8.97184
09"	-8.97229
55"	-8.97257
မောင်	-8.97285
73"	-8.97321
နန်း	-8.9736
79"	-8.9743
29"	-8.97463
36"	-8.97537
58"	-8.97543
83"	-8.97584
%	-8.97601
16"	-8.97661
94"	-8.9767
30"	-8.97672
28"	-8.97709
37"	-8.9771
19"	-8.97724
74"	-8.97785
43"	-8.97806
86"	-8.97807
12"	-8.97862
33"	-8.97897
ခြင်းနှင့်	-8.97905
10"	-8.97976
ဝန်	-8.97984
04"	-8.98006
ထိုး	-8.98044
39"	-8.98062
14"	-8.98063
72"	-8.98065
70"	-8.98068
66"	-8.9808
နောင်	-8.98102
40"	-8.98105
89"	-8.98145
78"	-8.98174
▁လေး	-8.98204
44"	-8.9822
64"	-8.9823
နို	-8.98241
68"	-8.98322
15"	-8.9833
27"	-8.98356
60"	-8.98357
47"	-8.98443
▁တော်	-8.9847
50"	-8.98474
38"	-8.98522
75"	-8.98563
ထဲတွင်	-8.98566
လာသည်။	-8.98586
97"	-8.98618
ဖြစ်၏။	-8.9862
57"	-8.98625
32"	-8.98729
49"	-8.9881
95"	-8.98817
35"	-8.98876
45"	-8.98919
23"	-8.98973
84"	-8.98985
07"	-8.98994
82"	-8.99055
▁မီး	-8.99081
▁C	-8.9912
17"	-8.99131
80"	-8.99146
41"	-8.99296
81"	-8.993
91"	-8.99323
ရောက်	-8.99324
▁ဆေး	-8.99365
▁စသည့်	-8.99374
13"	-8.99466
01"	-8.99487
31"	-8.99488
93"	-8.99493
21"	-8.99583
76"	-8.99625
02"	-8.99672
အိုင်	-8.99696
08"	-8.99739
11"	-8.99744
ပါသည်။	-8.99868
96"	-8.99915
ပြည်နယ်	-9.00008
18"	-9.00039
05"	-9.00047
90"	-9.00064
ဆု	-9.00086
92"	-9.00182
25"	-9.00238
20"	-9.00348
▁ယခု	-9.00689
▁ယဉ်ကျေးမှု	-9.00795
▁ဤသို့	-9.00926
မြန်မာ	-9.00957
▁လွိုင်လင်ခရိုင်	-9.00976
▁၁၈	-9.00988
▁အောင်	-9.01022
34"	-9.01025
98"	-9.01026
06"	-9.01083
ပါ။	-9.01122
▁အိန္ဒိယ	-9.01148
ဆိုင်	-9.01151
br	-9.01154
တည်း	-9.01176
26"	-9.01205
ed	-9.01217
▁ဟူသော	-9.01238
22"	-9.01358
c	-9.01565
ဟ	-9.01621
မိုး	-9.01653
▁ဇန်နဝါရီလ	-9.01747
ဝင်း	-9.01912
▁တိုက်ခိုက်	-9.02
၀၀၀	-9.02037
ကုန်းရွာ	-9.02158
ဇာ	-9.02254
▁သာယာဝတီခရိုင်	-9.02272
လေ့	-9.02295
56"	-9.02444
▁သမ္မတ	-9.02453
▁သား	-9.02652
▁ဝမ်	-9.0266
အင်း	-9.02808
ဆရာတော်	-9.02853
▁တော	-9.02872
▁သွား	-9.0298
x	-9.02991
အကြောင်း	-9.03077
ခန်း	-9.03212
▁ဥပဒေ	-9.03218
များစွာ	-9.03229
▁ဖြစ်ကြသည်။	-9.03484
▁ပြောင်းလဲ	-9.03542
နတ်	-9.03599
▁မြန်မာ့	-9.03609
▁ပြန်	-9.04001
ရဲ	-9.04014
ပစ်	-9.04047
00"	-9.04708
အုပ်ချုပ်ခွင့်ရ	-9.04771
ဘုရင်	-9.04783
ပြည်	-9.04865
i	-9.04914
▁အထက်	-9.0499
▁ဆို	-9.05002
တို့မှ	-9.05135
ရို	-9.05207
▁များစွာ	-9.05291
▁B	-9.05361
တရား	-9.05454
ရန်အတွက်	-9.05665
▁လုပ်	-9.05677
▁၂၉	-9.05689
အိမ်	-9.05853
ဘက်	-9.05854
နက်	-9.0595
▁ဇူလိုင်လ	-9.06052
သန်း	-9.06088
▁အောက်တိုဘာလ	-9.06142
▁၎င်း၏	-9.06244
▁စက်တင်ဘာလ	-9.06497
ခြင်းဖြင့်	-9.0655
▁ဒေသ	-9.06565
စကား	-9.06839
▁ဖေဖော်ဝါရီလ	-9.07013
▁င	-9.0708
လယ်	-9.07347
နောက်	-9.07419
▁လည်းကောင်း၊	-9.07565
ချီ	-9.07727
်	-9.07735
▁ဒီဇင်ဘာလ	-9.07783
ရမည်။	-9.07803
▁H	-9.07841
▁သိ	-9.07924
▁ပြည်နယ်	-9.07985
ကင်း	-9.08205
ကျမ်း	-9.083
▁မည်သည့်	-9.08444
ဗ	-9.08466
ရော	-9.08466
စီး	-9.08561
▁ဒေါ်	-9.08672
▁ဆိုသည်။	-9.08858
များကိုလည်း	-9.08879
▁စသော	-9.08983
ပါး	-9.09014
ဖက်	-9.09104
▁ကိုယ်	-9.0913
ဒ်	-9.09173
နိုင်ခဲ့သည်။	-9.09297
▁ဖြင့်	-9.09305
▁အချိန်	-9.09436
▁တွေ့ရသည်။	-9.09527
▁တရား	-9.09946
ဆရာ	-9.09976
▁အကြောင်း	-9.10109
▁ခ	-9.10144
▁‘	-9.10568
မဲ	-9.11023
▁ကန်	-9.11163
P	-9.11177
ရှာ	-9.11266
B	-9.11317
အာ	-9.11445
ဥ	-9.11491
ကူး	-9.11504
ခဲ	-9.11609
တွင်လည်း	-9.11625
▁အမျိုးသမီး	-9.11636
▁သက္ကရာဇ်	-9.1169
တို့မှာ	-9.11691
▁ပြု	-9.11761
▁နိုဝင်ဘာလ	-9.11764
▁အင်	-9.12348
နေသည်။	-9.12404
အထက်	-9.12419
r	-9.12439
တိုင်း၊	-9.12621
ပုံစံ	-9.12701
ဝမ်	-9.12708
A	-9.12755
▁၁၉	-9.12787
ရှည်	-9.12879
၃၀	-9.12909
ပတ်	-9.12912
▁အထူးသဖြင့်	-9.12985
▁စိုက်ပျိုး	-9.12999
▁နောက်ဆုံး	-9.13017
▁စကား	-9.1313
လွယ်	-9.13356
ရောင်	-9.13579
တို့နှင့်	-9.13814
သုတ်	-9.13834
▁ဘ	-9.14049
C	-9.14221
▁ပို၍	-9.14255
▁ရောဂါ	-9.1447
ငါး	-9.14567
တ်	-9.14675
တတ်သည်။	-9.14902
▁သွေး	-9.15002
လိုက်သည်။	-9.15261
m	-9.15262
▁မာ	-9.15326
▁ဆ	-9.15393
တို့ဖြင့်	-9.15574
တိုး	-9.15619
မွန်	-9.1563
▁P	-9.15683
▁ဆိုသည်မှာ	-9.1574
စံ	-9.15745
ဘီ	-9.1598
▁လားရှိုးခရိုင်	-9.15995
ငှက်	-9.16042
၂၅	-9.16084
▁ရှမ်း	-9.16111
▁ကွတ်ခိုင်	-9.16145
▁၃၁	-9.16149
a	-9.16191
▁ကလေး	-9.16247
မှုကြောင့်	-9.16385
▁န	-9.16413
ပါတယ်။	-9.16547
င	-9.1671
ဘာသာစကား	-9.16724
▁လမ်း	-9.16865
ခဲ့သော်လည်း	-9.16924
▁ကိုးကား	-9.16974
▁ဂီတ	-9.17088
▁မြင်း	-9.17229
ကောင်	-9.17425
▁လေ့လာ	-9.1743
ကပ်	-9.17458
အပြင်	-9.17513
တက္ကသိုလ်	-9.1763
အထူးဒေသ	-9.177
အုပ်	-9.17935
▁နိုင်ငံတကာ	-9.17968
▁တိုက်	-9.1804
▁၁၇	-9.18107
▁အမည်	-9.18296
▁ပြည်သူ့	-9.18299
လောင်း	-9.18312
▁တပ်မတော်	-9.18343
ပြား	-9.18348
ဂါ	-9.1853
▁အခြားသော	-9.18759
ပို	-9.19082
▁၁ဝ	-9.19099
တစ်ဦး	-9.191
သည့်အခါ	-9.19401
▁ဗိုလ်ချုပ်	-9.19452
▁စာအုပ်	-9.19454
▁အနောက်	-9.19515
▁ကမ္ဘာ	-9.19552
▁ယူ	-9.19697
▁မြောက်	-9.19772
id	-9.19776
မ်	-9.19789
▁ဥ	-9.19905
▁ဝါ	-9.20063
၂၄	-9.20108
အိုး	-9.20124
▁အသံ	-9.20242
ည	-9.20523
ကွဲ	-9.20678
▁ဘုရင်	-9.20709
နေ့	-9.20731
ရုံ	-9.20848
များလည်း	-9.20874
ကြ၏။	-9.2094
ာ	-9.20942
▁ခေါင်းဆောင်	-9.20954
E	-9.21013
▁ရာခိုင်နှုန်း	-9.21035
မိုင်	-9.21163
နေသည့်	-9.21164
ပစ္စည်း	-9.212
▁သတ်မှတ်	-9.21213
▁ဗိုလ်	-9.21244
▁ပြော	-9.21277
▁သခင်	-9.21558
တို့အား	-9.21674
▁ပြင်သစ်	-9.21794
ံ	-9.21813
ချုပ်	-9.21982
မဲ့	-9.22019
ကာလ	-9.22117
▁တာ	-9.22334
ဖူး	-9.22388
▁အများဆုံး	-9.22433
▁သစ်	-9.22544
▁နေထိုင်	-9.22554
ကံ	-9.22679
▁ဘဝ	-9.22695
ထောင်	-9.22714
▁ဒေါက်တာ	-9.22743
▁နန်း	-9.22776
လင်	-9.22897
ခေါင်း	-9.22938
▁ဖော်ပြ	-9.22991
▁စက်	-9.23043
အေး	-9.2315
ခို	-9.23215
ရောဂါ	-9.23276
▁သဘာဝ	-9.23427
လာခဲ့သည်။	-9.2347
ချင်	-9.23497
▁မျိုး	-9.23529
စိန်	-9.23533
ဝေ	-9.23582
▁တရားဝင်	-9.23675
တည်	-9.23905
▁ပညာရေး	-9.2397
▁လုပ်ကိုင်	-9.24134
ကလည်း	-9.24139
အစိုးရ	-9.24206
မှာလည်း	-9.2421
▁အရ	-9.24242
မှစ၍	-9.24292
▁ရန်ကုန်မြို့	-9.24333
ရှိပြီး	-9.24355
ဘဝ	-9.24438
▁Ma	-9.24485
လွန်	-9.24581
▁NGC	-9.24922
g	-9.24942
▁ကျန်	-9.24998
▁ပေါက်	-9.25075
ညို	-9.25197
▁အလုပ်	-9.25199
▁K	-9.25214
ရုံး	-9.25331
လန်	-9.25484
▁ဥက္ကဋ္ဌ	-9.25503
ပီ	-9.25518
▁လည်း	-9.25675
ကြည့်	-9.25715
ဓာတ်	-9.25823
ကြာ	-9.25929
▁မိုင်းမော	-9.26002
▁မိမိတို့	-9.26052
▁အဖွဲ့ဝင်	-9.26151
ထို	-9.26154
▁မူလ	-9.26188
▁ဟို	-9.26364
▁ကျောင်းသား	-9.2639
လည်	-9.26394
ဝါး	-9.26394
ဘာသာ	-9.26439
▁ပင်လယ်	-9.26473
▁တပ်	-9.26641
▁ပြည်	-9.26687
ထံ	-9.2682
▁D	-9.26851
▁ကရင်	-9.26907
နိုင်သည့်	-9.26973
▁ဂ	-9.26975
ပူ	-9.27429
စရာ	-9.27532
ပြည်ထောင်စု	-9.27551
တွဲ	-9.27654
▁ပါတီ	-9.27657
ခရိုင်	-9.27783
တော်မူ	-9.27792
▁ဆောင်	-9.27865
ဆောင်ရွက်	-9.2788
၂၃	-9.27986
▁ရှေး	-9.28001
k	-9.2806
၂၁	-9.28114
၄၀	-9.2813
▁ပြည့်နှစ်	-9.28189
▁ဥရောပ	-9.28306
▁ထို့အပြင်	-9.28508
▁များကို	-9.28513
▁မြစ်ကြီးနား	-9.28616
▁ရရှိခဲ့သည်။	-9.28646
▁၃၅	-9.28675
ကြလေသည်။	-9.28792
▁M	-9.28811
၂၆	-9.28942
တန့်ယန်းမြို့နယ်	-9.28983
▁တော်လှန်ရေး	-9.29198
▁ပေး	-9.29219
▁ယောက်	-9.29234
ဖြစ်စေ	-9.29314
▁လက်ရှိ	-9.29319
ဌာန	-9.29363
▁ရွေးချယ်	-9.29386
မယ်	-9.29492
မေ	-9.29665
▁တက်	-9.29851
▁အဖွဲ့	-9.29875
▁မိုင်းဆတ်	-9.30045
က်	-9.30097
▁လာ	-9.30161
မော်	-9.30223
ns	-9.30282
ပါတီ	-9.30401
▁E	-9.30414
▁ဆာ	-9.30447
▁သူတို့	-9.30462
▁အို	-9.30493
▁မော်လမြိုင်	-9.30742
▁အုပ်ချုပ်ရေး	-9.30811
▁ခေါ်သည်။	-9.31217
သတ်	-9.31279
နု	-9.31578
ပြော	-9.31634
၂၈	-9.31688
▁F	-9.31752
ရေးသား	-9.31965
▁ကာ	-9.32095
ဆိုသည်မှာ	-9.32123
တီး	-9.32209
▁၂၀၁၀	-9.3225
▁ပင်လောင်း	-9.3229
တံ	-9.32361
၂၉	-9.32447
▁အင်း	-9.32496
ဝိုင်း	-9.32502
တိ	-9.32637
▁ပုံ	-9.3266
L	-9.32679
သင်	-9.32742
|	-9.32773
▁ရှိပြီး	-9.33142
တောင်း	-9.3321
ဆွဲ	-9.33368
အပြည်ပြည်ဆိုင်ရာ	-9.33375
၂၇	-9.33502
လည်းကောင်း၊	-9.33546
▁ဗဟို	-9.33568
သကဲ့သို့	-9.33617
▁မဲ	-9.33651
▁ကျန်းမာရေး	-9.33734
▁၂၁	-9.33746
▁ပါဝင်သော	-9.33762
▁ပေါင်း	-9.33851
စာပေ	-9.33883
ကောက်	-9.33896
▁တို့ကို	-9.33945
ခါ	-9.33979
ရိ	-9.34169
▁ရရှိ	-9.342
ဂျီ	-9.34348
▁ပဲခူးခရိုင်	-9.34417
▁အမျိုးအစား	-9.34535
အဆင့်	-9.34595
၀	-9.34601
▁အပင်	-9.34636
ဖြစ်သူ	-9.34645
ရွက်	-9.34649
▁အဆင့်	-9.34763
▁ချင်းပြည်နယ်၊	-9.34778
ဆင်း	-9.34779
အမှတ်	-9.34854
▁တောင်ငူခရိုင်၊	-9.34868
ဆန်း	-9.34894
▁ဝက်	-9.3494
စပ်	-9.35165
▁ကုန်း	-9.35257
ဖွယ်	-9.35272
▁ထည့်သွင်း	-9.35286
▁လေသည်။	-9.35406
ထားပြီး	-9.35422
▁ကျွန်း	-9.3543
▁သီပေါမြို့နယ်	-9.35438
၂၂	-9.35451
K	-9.3548
စင်	-9.35487
စေခဲ့သည်။	-9.35732
များ၌	-9.36075
သက်	-9.3612
▁အောင်မြင်	-9.36121
▁ကွန်ပျူတာ	-9.36136
▁ဝါး	-9.36205
မြို့၊	-9.36287
စော	-9.3637
▁ဝင်	-9.36452
အမည်	-9.36458
ရိုက်	-9.36522
အင်	-9.36528
တောရွာ	-9.36658
]]	-9.36794
▁ဖြစ်သော	-9.36817
တောင်ကြီးခရိုင်၊	-9.36876
▁အရှေ့	-9.36958
မတ်	-9.3702
▁လက်ခံ	-9.37159
▁ဖြစ်လေသည်။	-9.37166
▁စား	-9.37211
▁ပအိုဝ်း	-9.37236
▁အမျိုးမျိုး	-9.37258
▁ခုနှစ်မှ	-9.37334
▁တင်	-9.37339
ဆိုး	-9.3738
ဘူး	-9.37477
▁မြစ်	-9.37503
▁တည်	-9.37533
ဒို	-9.37588
▁ခု၊	-9.37819
ကိုယ်	-9.37849
ပါဝင်	-9.37914
ခြင်းဖြစ်သည်။	-9.38064
ပျက်	-9.38072
▁နောက်ပိုင်းတွင်	-9.38238
ပိုး	-9.3824
▁မြို့တော်	-9.38246
▁ကျ	-9.38313
▁သတင်းစာ	-9.3836
▁အခါ	-9.38371
ရှိသည့်	-9.38477
▁ဆရာတော်	-9.38722
▁ဗုဒ္ဓဘာသာ	-9.38854
အသင်း	-9.38956
မြတ်	-9.3897
သင့်	-9.39096
▁ညောင်ရွှေ	-9.39105
▁အခန်း	-9.39159
ခြောက်	-9.39217
ခဲ့ခြင်း	-9.39242
D	-9.39305
▁သမိုင်းကြောင်း	-9.39308
ကိုသာ	-9.39383
▁တတိယ	-9.39416
ကူ	-9.39419
▁ရာစု	-9.39532
ပြည်ခရိုင်၊	-9.39534
▁သတင်း	-9.39543
ဆိပ်	-9.39561
▁ထင်ရှားသော	-9.39678
▁၃၂	-9.3972
▁လွယ်	-9.39724
လစ်	-9.39734
▁metal	-9.39923
ဖာ	-9.39955
▁အောက်ပါအတိုင်း	-9.39982
▁အိန္ဒိယနိုင်ငံ	-9.39989
အနက်	-9.40052
h	-9.40126
▁ပြည်တွင်း	-9.402
▁ငှက်	-9.40258
▁ပန်ဆန်း	-9.40449
▁ရခိုင်	-9.40655
▁သင်္ဘော	-9.40694
စခန်း	-9.40735
သီ	-9.4074
▁အချို့သော	-9.4084
F	-9.40858
စေတီ	-9.40909
ထဲသို့	-9.41066
ဘွဲ့	-9.41096
▁ကျောက်မဲခရိုင်	-9.41172
ထွန်း	-9.41237
ပ်	-9.41258
ဝယ်	-9.41312
G	-9.41317
▁ဝန်ကြီးချုပ်	-9.41458
ကော်	-9.41488
▁ထွက်	-9.41513
ခြင်းသည်	-9.41548
▁ဘာ	-9.41572
၅၀	-9.41602
တစ်မျိုး	-9.41613
H	-9.41626
▁၂၀၁၅	-9.41691
▁အပါအဝင်	-9.41694
▁ဘာသာစကား	-9.41893
M	-9.41953
ပု	-9.41956
▁မွန်	-9.41992
နိ	-9.42097
▁[[	-9.42161
▁မေ	-9.42224
ခင်း	-9.42269
it	-9.42348
သမိုင်း	-9.42418
စုံ	-9.42422
▁ဆီ	-9.42478
▁သွားရောက်	-9.42525
တွေကို	-9.42637
▁နာရီ	-9.42665
▁မှတ်တမ်း	-9.42754
▁သေ	-9.42827
ဗာ	-9.42868
▁တာဝန်	-9.43042
လား	-9.43225
time	-9.43299
▁G	-9.43303
▁တိုင်းပြည်	-9.43393
▁မှာ	-9.43478
▁လည်းကောင်း	-9.43727
စတင်	-9.43739
ဖြစ်စေ၊	-9.43781
၄၅	-9.44083
ေ	-9.44106
▁၅၀	-9.44178
▁ရှေးဟောင်း	-9.44279
▁တိုင်းရင်းသား	-9.44353
▁ပူးပေါင်း	-9.44381
▁၎င်းသည်	-9.44444
▁ထပ်မံ	-9.44519
▁ဘီစီ	-9.4464
▁မွန်ပြည်နယ်၊	-9.44646
▁တိုးတက်	-9.44699
▁ရက်နေ့	-9.44821
▁သာ	-9.44862
▁သီချင်း	-9.44889
လည်းကောင်း	-9.44941
ရာမှ	-9.44971
ရသည့်	-9.44977
▁ယခင်	-9.44997
ရက်နေ့တွင်	-9.45012
ခေါင်းဆောင်	-9.45029
ဝါဒ	-9.4519
▁၂၀၁၆	-9.45367
▁နှစ်ပေါင်း	-9.45397
ပေးခဲ့သည်။	-9.45481
▁ဆန်	-9.45491
ဖျား	-9.45557
▁ဘားအံမြို့နယ်	-9.4562
ကြီးကို	-9.45748
▁အနုပညာ	-9.45942
ရေးအတွက်	-9.46046
မရှိ	-9.46063
▁အင်တာနက်	-9.46115
▁ဗုဒ္ဓ	-9.4617
▁ကံ	-9.46218
အလယ်	-9.4634
ရုပ်	-9.4637
သမား	-9.46465
အပ်	-9.46602
▁သို့သော်လည်း	-9.4666
အသုံးပြု	-9.46734
ပြည့်	-9.46808
သွားသည်။	-9.46809
ဖတ်	-9.46893
တယ်	-9.46906
ခြင်းကြောင့်	-9.47
ရုပ်ရှင်	-9.47048
▁ခေါင်း	-9.47064
▁ထိုကြောင့်	-9.47101
မှန်	-9.47137
▁ကိုယ်စားလှယ်	-9.47144
▁သူတို့၏	-9.4718
p	-9.47206
င်	-9.47213
တစ်ခုကို	-9.47418
တို့၌	-9.47593
▁စော	-9.47594
လားရှိုးမြို့နယ်	-9.47749
▁မြင်	-9.47878
ပြုလုပ်	-9.48007
▁အက်	-9.48028
နေစဉ်	-9.48108
လော	-9.48118
ရ်	-9.48155
U	-9.48194
ပန်ခမ်း	-9.48345
၃၃	-9.48363
▁သရုပ်ဆောင်	-9.48378
▁ပုံစံ	-9.48386
▁အုပ်ချုပ်	-9.48523
▁အိမ်ခြေပေါင်း	-9.48575
မှူး	-9.48655
မို	-9.48717
ဖွဲ့	-9.48871
▁၄၀	-9.48883
▁မင်းသား	-9.48892
▁ဆက်	-9.48971
ပေသည်။	-9.49014
▁တည်ဆောက်	-9.49268
▁၃၃	-9.49307
▁ကွန်	-9.49432
format	-9.49482
၎င်း	-9.49574
▁လိုက်	-9.49594
▁အနည်းငယ်	-9.49762
တိုက်ခိုက်	-9.49788
▁တောင်ကြီး	-9.4982
၃၆	-9.49849
▁ခေတ်	-9.4986
ကြိုး	-9.49862
နမ့်	-9.50024
▁မီတာ	-9.50081
▁ပစ္စည်း	-9.50224
▁အလယ်	-9.50404
▁ကြာ	-9.50406
▁ထိုနောက်	-9.50432
တုံး	-9.5046
ထားခြင်း	-9.50488
▁တာဝန်ထမ်းဆောင်	-9.50502
▁ချောင်း	-9.50559
▁အကြီးဆုံး	-9.50589
▁သားတော်	-9.50686
▁၂၀၁၁	-9.50937
▁ထောင်	-9.5104
▁ရဟန်း	-9.51132
အမျိုးသား	-9.5114
or	-9.51153
ယား	-9.51196
▁၁။	-9.51304
▁ကား	-9.51383
မြင်	-9.51405
▁အာရှ	-9.51457
▁ရှိသော	-9.51467
တယ်။	-9.51524
text	-9.51539
၉၉	-9.51588
▁ပခုက္ကူခရိုင်	-9.51677
မြ	-9.51831
များကြောင့်	-9.51927
ဟို	-9.52023
လာကြသည်။	-9.52209
▁အင်အား	-9.52244
▁၂၀၀၈	-9.52344
▁အောက်ပါ	-9.52363
▁ပြောင်း	-9.52375
ချေ။	-9.52519
▁ကိုယ်တိုင်	-9.52527
▁တစ်ဦး	-9.52661
ခုံ	-9.52703
ပွင့်	-9.52864
▁တိုင်း	-9.52875
၈၅	-9.52881
တွေ့	-9.5294
စိုး	-9.52945
▁ပြောင်းရွှေ့	-9.52979
ရှိ၍	-9.53062
▁ရွှေဘိုခရိုင်၊	-9.53083
အလိုက်	-9.53097
▁ရွှေတောင်	-9.53125
သဘော	-9.53239
▁ထင်ရှား	-9.53285
ကိုင်	-9.53392
ခြေ	-9.5342
▁အီ	-9.53502
an	-9.53572
လတ်	-9.53581
▁ဟာ	-9.53632
ီ	-9.53679
စာအုပ်	-9.53756
သို့မဟုတ်	-9.53873
ကြီးများ	-9.53958
▁လူထု	-9.54015
ကောင်စီ	-9.54146
၃၂	-9.54151
▁ရှိကာ၊	-9.54175
ဆဲ	-9.54243
ကြရသည်။	-9.54245
၉၅	-9.54259
▁အကောင်းဆုံး	-9.54387
▁လွိုင်ကော်	-9.54509
ဆယ်	-9.54538
၃၄	-9.54566
၉၈	-9.54698
▁လွတ်လပ်ရေး	-9.54826
တောင်ရွာ၊	-9.54869
▁ကဗျာ	-9.54891
▁အရောင်	-9.54971
▁ပါး	-9.54978
ကန်ရွာ	-9.54992
ဝိ	-9.55051
▁အဓိပ္ပာယ်	-9.55074
၃၉	-9.55193
▁ယခင်က	-9.55234
မျိုးကို	-9.55253
▁သင်ကြား	-9.55309
၇၅	-9.5547
မြို့သည်	-9.55472
▁၂၀၁၇	-9.55541
model	-9.55549
▁ဘားအံခရိုင်	-9.55608
ပေးရန်	-9.55616
▁ထိန်းသိမ်း	-9.5579
▁ပြောဆို	-9.558
၅၉	-9.55924
▁ဝတ္ထု	-9.55951
▁များသောအားဖြင့်	-9.5597
▁တည်ထောင်	-9.55987
ချိန်တွင်	-9.56024
၈၆	-9.56146
▁ဥပမာ	-9.56152
ကိုင်း	-9.56215
▁ကျေးသီးမြို့နယ်	-9.56324
ခဲ့သည်	-9.56377
ကြည်	-9.56393
ချောင်	-9.56438
▁၎င်းတို့၏	-9.56438
▁ထိုင်းနိုင်ငံ	-9.56474
ဆောင်ရွက်ခဲ့သည်။	-9.56492
▁အလုပ်သမား	-9.56493
ပြောင်း	-9.56502
ကြပြီး	-9.56536
၈၈	-9.56536
ဘို	-9.56545
▁အခြေအနေ	-9.56653
ထဲ	-9.56721
မင်းသား	-9.56871
ပေ။	-9.5688
▁နည်းပညာ	-9.56914
၆၉	-9.56924
▁ကီလိုမီတာ	-9.56932
▁၂၀၁၂	-9.56959
▁မိသားစု	-9.57248
သိန်း	-9.57266
၉၆	-9.57276
▁လုံး	-9.57383
▁၂၀၂၀	-9.57503
လာသော	-9.57519
တစ်ခုဖြစ်သည်။	-9.57522
▁မိမိ၏	-9.5754
အတွင်းရှိ	-9.57545
ဿ	-9.57563
▁ရွေးကောက်ပွဲ	-9.57574
အမျိုးအစား	-9.57607
ရလေသည်။	-9.57658
▁ကာလ	-9.57745
ရွာသစ်ရွာ၊	-9.5779
▁တို့သည်	-9.5786
▁ဗ	-9.57884
▁တွေ့	-9.57908
▁အစိတ်အပိုင်း	-9.57962
▁အနက်	-9.58097
ly	-9.58194
မဟာ	-9.58202
၃၁	-9.58257
ရှင်း	-9.58344
▁L	-9.58391
▁လက်နက်	-9.58394
▁လုပ်ဆောင်	-9.58548
stamp	-9.58549
လိ	-9.58615
▁၂။	-9.58647
contributor	-9.58706
သီချင်း	-9.58713
▁လွှတ်တော်	-9.58718
▁ကုမ္ပဏီ	-9.58751
ar	-9.58767
▁ဗမာပြည်	-9.58943
▁နှစ်စဉ်	-9.58983
▁လူမျိုး	-9.58984
▁T	-9.59079
၄၂	-9.59083
▁တက်ရောက်	-9.59114
▁မကွေးခရိုင်	-9.59139
၈၉	-9.59158
▁လျှပ်စစ်	-9.59206
အုပ်စု	-9.59225
တဲ	-9.59261
▁rock	-9.59263
▁I	-9.59354
l	-9.59382
us	-9.59472
စသော	-9.59485
သွေး	-9.59493
၉၀	-9.59512
▁စီ	-9.5955
နီး	-9.59572
O	-9.59589
▁မူဆယ်ခရိုင်	-9.596
ချို	-9.5968
ကျင်း	-9.5971
၆၈	-9.5973
▁ကြိုးစား	-9.59738
▁ငါ	-9.59817
ကျေးရွာ	-9.5984
၄၆	-9.59883
ဘုံ	-9.59895
ဝတ်	-9.59927
အမျိုးမျိုး	-9.60114
၀၀	-9.60215
ကီ	-9.60228
ကဏ္ဍ	-9.60277
ဥပဒေ	-9.60319
▁ဖြစ်လာ	-9.60491
▁အဖွဲ့အစည်း	-9.60564
▁ကင်း	-9.60601
▁R	-9.60625
ထဲမှ	-9.60822
ထပ်	-9.60864
▁၃၈	-9.60895
၃၇	-9.60974
▁သမီး	-9.60988
th	-9.61001
▁လက်မ	-9.61058
▁ရှာဖွေ	-9.61129
၅၄	-9.61158
၇၄	-9.61259
▁မတ်	-9.61279
▁၃၄	-9.6129
ခိုင်	-9.61301
▁အာဏာ	-9.61335
▁တီထွင်	-9.61403
ဈေး	-9.61403
ကိုး	-9.61449
▁ကော့	-9.6153
ကွက်	-9.61531
▁စိန်	-9.61559
username	-9.61579
၄၉	-9.61579
ဂူ	-9.6161
၃၅	-9.61662
▁ယင်းသို့	-9.61705
▁စလင်းမြို့နယ်	-9.61738
▁လှိုင်းဘွဲ့	-9.61747
▁နိုင်ငံခြား	-9.61778
ပေါင်	-9.61784
ခဲ့သည်ဟု	-9.61901
▁ဒေါ်လာ	-9.61918
▁အိုင်	-9.61943
f	-9.61957
ခ်	-9.61979
ခတ်	-9.61984
စေ့	-9.61999
▁ဟ	-9.62034
၈၀	-9.62053
⁠	-9.62246
ဝက်	-9.62319
နွယ်	-9.62325
▁ချင်း	-9.62335
▁ပြင်ဦးလွင်	-9.62386
u	-9.62444
▁မြန်မာပြည်	-9.62445
၅၇	-9.62452
▁အသင်း	-9.62486
▁မိုင်း	-9.62489
▁ပြည့်နှစ်တွင်	-9.62528
ရှိ၏။	-9.62595
ဇာတ်	-9.62597
မက်	-9.62609
▁လာရောက်	-9.62617
=	-9.62702
ချစ်	-9.62772
▁ည	-9.62864
▁ဖြစ်ပွား	-9.62943
ရမည်	-9.63007
၃၈	-9.6319
၅၅	-9.6319
parent	-9.63259
▁ဆက်သွယ်	-9.63305
▁for	-9.63468
၇၃	-9.63495
မည်ဟု	-9.63527
▁သီးခြား	-9.63561
ရံ	-9.63591
ထီး	-9.63649
▁သုံးစွဲ	-9.63684
▁မင်းလှမြို့နယ်	-9.63707
▁ခရိုင်	-9.63773
▁ခြေ	-9.64003
ကြသော	-9.64043
▁ထ	-9.64071
▁အပြင်	-9.64086
▁အနက်အဓိပ္ပာယ်	-9.6411
လိပ်	-9.64177
▁မြန်မာနိုင်ငံ၏	-9.64392
၇၉	-9.64406
ဆိုင်း	-9.64415
▁ဓမ္မ	-9.64432
▁ကြက်	-9.64462
တူး	-9.64512
ရှား	-9.64579
၆၃	-9.64613
▁ကြောင့်	-9.64617
▁ပြ	-9.64624
▁ကမ္ဘာပေါ်တွင်	-9.64633
▁၁၉၉၀	-9.64646
▁ညောင်	-9.64693
▁အရှေ့တောင်အာရှ	-9.64694
သွင်း	-9.64707
▁ထိုင်း	-9.6476
၀၇	-9.65038
၉၂	-9.65155
▁သရက်ခရိုင်	-9.65199
၆၂	-9.65203
ပေါင်းများစွာ	-9.65255
၄၄	-9.6544
၆၇	-9.6545
]	-9.65469
ဖြစ်ကာ	-9.65473
ခဲ့သူ	-9.6555
၇၀	-9.65563
နံ	-9.65572
ဂီတ	-9.65624
ရယ်	-9.65655
▁အသား	-9.65675
▁ဓာတ်	-9.65677
▁ဒီမိုကရေစီ	-9.65731
▁၂၀၀၇	-9.65788
▁မိုင်းကိုင်	-9.659
▁အများအပြား	-9.65909
▁ဒုတိယကမ္ဘာစစ်	-9.65909
▁အထွေထွေ	-9.65921
၆၄	-9.65974
▁မြတ်စွာဘုရား၏	-9.6599
▁အိုး	-9.66009
▁ကာကွယ်	-9.66139
လွန်း	-9.66228
▁ခုနှစ်အထိ	-9.66263
▁ကောင်းစွာ	-9.66295
၉၃	-9.66311
▁အရွက်	-9.66401
▁တိုက်ရိုက်	-9.66446
▁ရာသီဥတု	-9.66477
▁၂၀၀၉	-9.66486
မြန်မာနိုင်ငံ	-9.66491
▁၂၀၁၃	-9.66518
၀၄	-9.66579
၄၈	-9.66631
▁မရှိ	-9.66632
ကပင်	-9.66649
▁အတူ	-9.66695
လု	-9.66766
▁မိုင်းယန်း	-9.66794
▁ရှာဖွေတွေ့ရှိ	-9.66794
▁တိရစ္ဆာန်	-9.66851
▁၂ဝ	-9.66863
▁ရေးဆွဲ	-9.66892
ကော့	-9.66958
▁ပြုပြင်	-9.67278
▁ဂျာမန်	-9.674
ထူး	-9.67425
သေး	-9.67428
▁ခြောက်	-9.67479
၇၇	-9.67505
မှတ်	-9.67512
▁မူ	-9.67683
ဤ	-9.67751
၀၉	-9.67861
▁ငွေကြေး	-9.67861
ခဲ့ကာ	-9.67882
နှစ်ခု	-9.67957
▁မိတ္ထီလာခရိုင်၊	-9.68009
၇၈	-9.68016
ဖြစ်သည်	-9.68074
၀၈	-9.68102
မှုများကို	-9.68213
et	-9.68229
လိုင်း	-9.68238
▁မိဖုရား	-9.68253
စွန်း	-9.68272
▁ဂေါတမမြတ်စွာ	-9.68276
ဖို	-9.68278
အပါအဝင်	-9.68338
ပြီ	-9.68427
▁ထိုစဉ်က	-9.68522
အားလုံး	-9.68552
▁၃။	-9.68627
သာလျှင်	-9.68654
▁မြောက်ဘက်	-9.68693
ဖော်	-9.68715
▁ဖ	-9.68741
▁ပို	-9.68825
ကျောက်ပန်းတောင်း	-9.68826
▁ရဲ	-9.68857
ဖြတ်	-9.68888
▁ဆောက်လုပ်	-9.6889
ပေးသည်။	-9.68925
၅၂	-9.68941
▁ခုတွင်	-9.68972
လုပ်ကိုင်	-9.69061
ကမ္ဘာ	-9.69135
▁နေ့	-9.69139
▁ရှိကြသည်။	-9.6916
▁တောင်ဘက်	-9.69221
▁ဖြစ်ပေါ်	-9.69227
▁ဒ	-9.69284
၉၇	-9.694
ကလေးများ	-9.69405
▁အေ	-9.6945
လေ့လာ	-9.69488
၆၆	-9.69568
▁ချစ်	-9.69598
၈၃	-9.69681
စိုက်	-9.69709
သည်ကို	-9.69718
ဂို	-9.6972
ရှ	-9.69767
▁စနစ်	-9.69834
▁အောက်တိုဘာ	-9.69844
▁ပုဂံ	-9.69854
ကယ်	-9.69872
▁N	-9.69937
လုပ်ငန်းများ	-9.69947
▁ဖန်တီး	-9.69966
၈၄	-9.69972
မန်း	-9.70002
▁မြောက်ပိုင်း	-9.70018
N	-9.70018
ဇ်	-9.70215
လွတ်	-9.70288
▁ဆား	-9.70294
▁၎င်းတို့	-9.70303
ကျန်	-9.70384
ကိန်း	-9.70404
on	-9.70567
နယ်မြေ	-9.70578
es	-9.70651
ပြန်သည်။	-9.7071
▁အင်ဂျန်းယန်	-9.70722
အချိန်	-9.7078
re	-9.70791
မော	-9.70832
▁ဒါရိုက်တာ	-9.70851
▁စသည်တို့	-9.70893
ကွန်	-9.70893
ra	-9.70939
ဝေး	-9.71091
▁ပုဒ်မ	-9.71098
၈၂	-9.71105
▁နွား	-9.71162
ဗီ	-9.71227
ရု	-9.71411
▁၃၇	-9.7142
▁ကြား	-9.71645
၅၆	-9.71646
ကြီးရွာ	-9.71682
အဖွဲ့အစည်း	-9.71744
တပ်မတော်	-9.71794
▁စာရေးဆရာ	-9.7186
▁သက်ဆိုင်ရာ	-9.7189
▁၃၆	-9.71965
လပ်	-9.71965
▁တောင်တွင်းကြီး	-9.72013
▁ကျောက်တံခါး	-9.7202
▁ဒီဇင်ဘာ	-9.72082
ပို့	-9.72146
▁လေယာဉ်	-9.72187
▁ဆိုဗီယက်	-9.72293
▁သဲ	-9.72423
ma	-9.72443
▁ဟုမ္မလင်း	-9.7247
ယဉ်ကျေးမှု	-9.72559
ဒင်	-9.72579
▁အမိ	-9.726
၅၈	-9.72622
▁ဆွမ်ပရာဘွမ်	-9.72656
▁ဝန်ကြီးဌာန	-9.7273
၇၆	-9.72739
▁၂၀၁၈	-9.72849
▁သဘော	-9.72908
အေ	-9.72918
▁ယောင်	-9.72945
▁၂၀၀၀	-9.72986
ထု	-9.73001
နှင့်တကွ	-9.73036
▁In	-9.73046
▁ကျင်းပ	-9.73063
ခဲ့၍	-9.73079
▁မျက်နှာ	-9.73079
၅၃	-9.73224
Z	-9.73256
ခေါင်	-9.73291
အိ	-9.73326
နေထိုင်	-9.73381
အတွင်း၌	-9.73388
တစ်ရပ်	-9.73442
▁ထုတ်လုပ်	-9.73451
▁ရှေ့	-9.73503
ထင်	-9.73543
el	-9.73707
▁မင်းဘူးခရိုင်	-9.73713
▁နည်း	-9.73719
တင်း	-9.73793
▁လုံးဝ	-9.73908
ဂိုဏ်း	-9.73937
၆၀	-9.74032
ရှမ်း	-9.74054
၈၇	-9.74121
မြို့တော်	-9.74227
ယောင်	-9.74326
မှုနှင့်	-9.74392
ဖန်	-9.745
ပညာရှင်	-9.74552
▁သံတောင်ကြီး	-9.74555
၀၆	-9.74674
ခဲ့ကြ	-9.747
comment	-9.7473
မှု၊	-9.7476
ပြေး	-9.74761
▁အမှုထမ်း	-9.74789
ang	-9.74922
▁တူ	-9.75133
▁မော်	-9.75138
ပိတ်	-9.75213
▁တို့၏	-9.75241
မင်းကြီး	-9.75267
▁အသီး	-9.75344
လူး	-9.75344
▁စသည်ဖြင့်	-9.75356
သဲ	-9.75372
▁တာဝန်ယူ	-9.75497
▁ယုံကြည်	-9.75661
၄၇	-9.75729
▁ဝန်ကြီး	-9.75779
▁မြ	-9.75791
▁ဆိုင်ရာ	-9.75805
▁မိခင်	-9.75809
၉၄	-9.75819
▁ရောက်ရှိ	-9.75873
ဘေး	-9.75877
တွင်မူ	-9.76085
လေ၏။	-9.7611
▁မှန်	-9.76164
နစ်	-9.76255
ညွန့်	-9.76302
▁ဆုံးဖြတ်	-9.76334
▁အုပ်စု	-9.76354
လော့	-9.7648
▁နာ	-9.76577
၄၃	-9.7671
ကေ	-9.76783
ကြီး၏	-9.76885
မင်	-9.76921
ခုနှစ်၊	-9.76941
ရမည့်	-9.76985
w	-9.77003
▁ဖြစ်ခဲ့သည်။	-9.7706
▁တွေ့ရှိ	-9.77063
မောင်း	-9.77067
ချေ	-9.77086
▁တဖြည်းဖြည်း	-9.77087
ကျောက်မဲမြို့နယ်	-9.77091
le	-9.77128
▁Ka	-9.77178
လွှတ်တော်	-9.77182
ပုံကို	-9.7727
▁ကော်	-9.77297
စာရင်း	-9.77348
▁အမြင့်	-9.77405
နတ်တလင်းမြို့နယ်	-9.7742
ကျား	-9.77429
အချို့	-9.7745
▁ကိုး	-9.77511
ကော	-9.77558
အရှင်	-9.77563
၅၁	-9.77772
စည်း	-9.77869
ဆီး	-9.77877
▁၂၀၀၆	-9.77903
▁ပတ်ဝန်းကျင်	-9.77919
▁ယူဆ	-9.77931
ဓမ္မ	-9.77935
▁၁၉၈၀	-9.77999
▁လွိုင်လင်	-9.78022
▁ဖြစ်လာသည်။	-9.78051
▁အမည်ဖြင့်	-9.78174
▁ပျော်ဘွယ်	-9.78184
▁တာချီလိတ်	-9.78307
▁စက်တင်ဘာ	-9.78354
နိုင်ငံ၏	-9.78371
မိုင်း	-9.78402
▁၄၅	-9.78407
ယို	-9.78511
▁ပေါ်	-9.78526
၀၅	-9.78547
၄၁	-9.78699
တား	-9.78776
▁ရေးသားခဲ့သည်။	-9.78793
မဟုတ်	-9.7883
ညီ	-9.78882
▁ထိ	-9.78893
▁နမ့်စန်မြို့နယ်	-9.78923
▁တရုတ်နိုင်ငံ	-9.78979
▁မြတ်စွာဘုရားသည်	-9.79079
▁ဖြူးမြို့နယ်	-9.79184
▁အသီးသီး	-9.79206
င့်	-9.79254
ဒိုး	-9.79313
▁အရှေ့ဘက်	-9.7938
၆၅	-9.79789
ဖိုး	-9.79872
ဖြစ်ကြောင်း	-9.79924
▁ဆယ်	-9.79929
ြန်မာဆိုရိုးစကား	-9.79985
▁ဟိုပုံးမြို့နယ်	-9.79988
အသစ်	-9.8007
တစ်ပါး	-9.80097
▁နယ်မြေ	-9.80105
▁အနောက်ဘက်	-9.80116
မြို့၌	-9.802
ခါး	-9.80221
▁သစ်ပင်	-9.80227
ဆူ	-9.80296
ဃ	-9.80373
၇၂	-9.80447
▁နယ်	-9.80461
ဖြစ်သည်ဟု	-9.80474
▁ပဲ	-9.80486
▁ဆီဆိုင်မြို့နယ်	-9.80489
▁U	-9.80516
များအနက်	-9.80552
ခမ်း	-9.80578
အန်	-9.80643
▁ရဟန်းတို့	-9.8066
ခြင်းများ	-9.80668
▁ဝိ	-9.80783
▁ဘာသာရေး	-9.8086
▁သိမ်းပိုက်	-9.80883
▁စိုက်ပျိုးရေး	-9.80932
သလို	-9.80953
ဝတ္ထု	-9.80995
လောင်	-9.81063
တစ်ယောက်	-9.81161
▁ရုရှား	-9.81162
▁ကျွဲ	-9.8118
▁မွေးဖွား	-9.81292
၆၁	-9.81383
▁သင်	-9.81389
ပြာ	-9.81394
ရေတာရှည်မြို့နယ်	-9.81399
▁ချက်	-9.81416
▁တောင်ပိုင်း	-9.81449
▁လှေ	-9.81562
▁၁၀၀	-9.81566
စိုက်ပျိုး	-9.81589
▁သတ္တု	-9.81589
ဂျာ	-9.81616
▁မက်	-9.81631
များသို့	-9.8166
▁ပန်းချီ	-9.81692
▁ကုလသမဂ္ဂ	-9.81824
ကဲ့သို့သော	-9.81872
ယန်	-9.81891
ကု	-9.81892
▁နောင်ချို	-9.81912
ဖွံ့ဖြိုးတိုးတက်	-9.81913
▁ရာစုနှစ်	-9.81937
ကန်ကျေးရွာအုပ်စု	-9.82007
ိ	-9.82021
▁ဌာန	-9.8205
ယင်း	-9.82059
▁ဘာသာ	-9.82094
▁ဖြစ်လာခဲ့သည်။	-9.82138
▁မြိုင်မြို့နယ်	-9.82152
စိမ်း	-9.82193
▁ဂျွန်	-9.82202
ရှေ့	-9.82263
လူမျိုးများ	-9.82275
ကျိုး	-9.8233
နာရီ	-9.82368
ဉာဏ်	-9.82373
▁ကြိုး	-9.82451
▁၁၉၄၇	-9.82525
▁ဘယ်	-9.8269
စွဲ	-9.82722
▁Kone	-9.8273
▁မကြာခဏ	-9.82768
▁၂၀၀၅	-9.82778
အက်	-9.82809
နန်	-9.82886
ဖြစ်လာသည်။	-9.82906
▁၁၉၄၅	-9.82927
W	-9.82939
▁စေတီ	-9.82958
▁စ၍	-9.83027
ထံမှ	-9.83099
▁ပွဲ	-9.83111
စေတီတော်	-9.83163
The	-9.83237
ထောက်	-9.83251
ကုမ္ပဏီ	-9.83252
အီ	-9.83272
ခွက်	-9.83312
တိုင်းဒေသကြီး	-9.83387
ဝဝဝ	-9.83391
အစ	-9.83414
▁မိန်းမ	-9.83549
▁ဇန်နဝါရီ	-9.83561
▁ပြင်ဆင်	-9.83598
လောက	-9.83617
ပင်ဖြစ်သည်။	-9.83624
▁ကျပ်	-9.83659
▁ကွယ်လွန်	-9.83664
ic	-9.83693
▁ဖြစ်၍	-9.83698
▁ပုဂ္ဂိုလ်	-9.83699
▁ရဟန္တာ	-9.83718
▁အာဖရိက	-9.83776
တတ်သော	-9.83818
လန်း	-9.83862
ပြန်လည်	-9.83886
ထိပ်	-9.83906
▁စီမံကိန်း	-9.8402
မား	-9.84036
▁အကယ်၍	-9.84051
▁ဖွဲ့စည်းပုံ	-9.84139
ဝမ်း	-9.84161
အလုပ်	-9.84165
ကိစ္စ	-9.84185
▁မိုင်းယောင်း	-9.8428
သော်လည်းကောင်း၊	-9.84293
တော်မူသည်။	-9.84296
I	-9.84333
R	-9.84384
▁မဂ္ဂဇင်း	-9.84388
▁သဲကုန်းမြို့နယ်	-9.84415
ဇင်	-9.8444
သိမ်း	-9.84471
▁စာရင်း	-9.84476
▁ပဲခူး	-9.84495
နှုန်း	-9.84505
▁သာမန်	-9.84513
ပြောဆို	-9.84539
▁မူဆယ်မြို့နယ်	-9.84592
▁သို့တည်းမဟုတ်	-9.84592
▁နိုဝင်ဘာ	-9.84593
▁အသိအမှတ်ပြု	-9.84599
၉၁	-9.84628
▁ဇူလိုင်	-9.84696
▁အော်	-9.84715
▁ကျောက်ဆည်	-9.84717
▁၄။	-9.84732
▁ထုတ်ဝေ	-9.84773
▁ပါလီမန်	-9.84779
အားကစားပြိုင်ပွဲ	-9.84781
▁ဖွင့်လှစ်	-9.84831
ဖ်	-9.84878
▁ဟံသာဝတီ	-9.84958
▁ထီး	-9.84968
▁ဖမ်းဆီး	-9.85083
▁ဆူ	-9.8518
▁မြတ်စွာဘုရား	-9.85226
အလွန်	-9.85251
ia	-9.85277
▁ပြုစု	-9.8535
▁ကျောက်ကြီး	-9.85382
ကျောင်းတော်	-9.85387
▁ပလက်ဝမြို့နယ်	-9.85407
▁ရဲဘော်	-9.85409
▁နာမည်	-9.85494
ကင်	-9.85497
စမ်း	-9.85554
ရက်နေ့	-9.85557
ပစ္စည်းများ	-9.85715
▁လက်ပံတန်း	-9.85766
▁အရွယ်	-9.86023
▁မန္တလေးမြို့	-9.8603
ဏ	-9.86089
လည်းဖြစ်သည်။	-9.86128
ရေးရာ	-9.86132
၇၁	-9.86139
▁ပတ်သက်၍	-9.86145
ခွန်	-9.86257
▁၎င်းကို	-9.86283
▁အားလုံး	-9.86362
နိုင်ငံ၊	-9.86405
စီးပွားရေး	-9.86562
ထောင့်	-9.86591
▁အစီအစဉ်	-9.86592
▁၄၄	-9.86629
▁ပင်	-9.86679
▁စပါး	-9.8671
▁ဖြစ်စေ	-9.86814
▁ကုန်းကြမ်း	-9.86825
▁မိုးမောက်	-9.86828
▁မိ	-9.86889
▁လုံ	-9.86926
▁သုတေသန	-9.86948
▁+	-9.86955
▁Ta	-9.86985
တောက်	-9.87018
တေး	-9.87086
လှိုင်	-9.87091
▁ဦးဆောင်	-9.87101
စောင့်	-9.87166
ကျပ်	-9.87263
သုံးစွဲ	-9.87274
+	-9.87322
▁ဈေး	-9.87418
ကစား	-9.87433
ခဲ့ပြီးနောက်	-9.87434
ဒီး	-9.87475
မွေး	-9.87525
▁မျက်စိ	-9.87531
▁မံစီမြို့နယ်	-9.87576
▁အေဒီ	-9.8758
▁ဖိလစ်ပိုင်	-9.87581
▁ဒါ	-9.87593
ော	-9.87657
▁ဂရိ	-9.87697
▁အုတ်	-9.87731
▁ဘေး	-9.878
▁ကျုံ	-9.87828
▁ကုန်	-9.87843
▁မှတ်	-9.87857
▁၄၂	-9.87922
▁အင်းဝ	-9.87923
▁မယ်	-9.87975
▁တန်	-9.88015
ပင်လယ်	-9.88054
ဘက်မှ	-9.88072
အတွင်းသို့	-9.88074
သည်မှာ	-9.8816
ဖော်ပြ	-9.88165
▁တစ်ယောက်	-9.88227
အရာ	-9.88235
အုပ်ချုပ်	-9.88248
▁ရာထူး	-9.88312
တု	-9.884
▁တင်ပြ	-9.88457
ဖွဲ့စည်း	-9.885
▁ကြိုးပမ်း	-9.88523
▁တွဲ	-9.88596
b	-9.88623
ပေါ	-9.88629
na	-9.88651
▁ဖာ	-9.88656
▁အင်ဒိုနီးရှား	-9.88675
ဝန်ကြီး	-9.88831
▁ထုတ်	-9.88854
▁ကြာအင်းဆိပ်ကြီး	-9.88873
▁လောက်ကိုင်	-9.88877
▁စစ်ရေး	-9.88957
ပုဂ္ဂိုလ်	-9.88963
▁ကန့်ဘလူမြို့နယ်	-9.88989
▁ပေါ်ပေါက်လာ	-9.8903
▁အရည်	-9.89065
သမ္မတနိုင်ငံ	-9.89075
▁ကြောင်း	-9.89105
▁ဥယျာဉ်	-9.89184
များအဖြစ်	-9.89219
သ်	-9.89221
▁ပိုး	-9.89247
▁ငြိမ်းချမ်းရေး	-9.89266
▁ဖာပွန်မြို့နယ်	-9.89309
ဆစ်	-9.89347
္	-9.89431
▁ပေါင်းစပ်	-9.89604
ရှု	-9.8964
▁ဆရာကြီး	-9.89651
ဝန်ကြီးဌာန	-9.89664
▁ပတ်	-9.89666
ကတော့	-9.89697
en	-9.8979
▁ကျမ်း	-9.89832
▁mg	-9.89902
ကျင်းပ	-9.89996
▁လှုပ်ရှား	-9.89996
လွင်	-9.90009
တော်လှန်ရေး	-9.90038
▁ဧပြီ	-9.90063
▁ပြည့်	-9.90093
▁ရတနာ	-9.90304
▁ကြိမ်	-9.90323
၍၊	-9.90328
▁ကုလား	-9.90328
▁ဖေဖော်ဝါရီ	-9.90368
▁အဲ	-9.90433
ရ၏။	-9.90449
ဝန်း	-9.90469
▁စတုရန်းမိုင်	-9.90567
▁ရမည်းသင်း	-9.90585
▁ကွန်မြူနစ်	-9.90636
အပ်သော	-9.90645
▁ခွေး	-9.90686
တောင်ပိုင်း	-9.90734
ု	-9.90738
▁ပူတာအိုခရိုင်	-9.90772
▁လယ်	-9.90837
▁မဟုတ်	-9.91233
▁ပူ	-9.91285
▁သာသနာတော်တွင်	-9.91324
လာပြီး	-9.91486
ပယ်	-9.91495
▁ခရစ်ယာန်	-9.9168
▁နောက်ပိုင်း	-9.91727
▁ဂူ	-9.91762
▁မြန်မာနိုင်ငံ၊	-9.91765
ဝဲ	-9.91802
▁စက်မှု	-9.91824
သမျှ	-9.91933
▁ကော့ကရိတ်	-9.91958
▁အေး	-9.92033
လက်ထက်	-9.92043
▁is	-9.92056
နဲ	-9.92111
▁တီးဝိုင်း	-9.92138
▁မင်းသမီး	-9.92282
ပိုင်းတွင်	-9.92394
မြောက်ပိုင်း	-9.92397
န့်	-9.92403
▁ဖခင်	-9.9241
ရူး	-9.92441
▁အသုံးပြုကြသည်။	-9.92487
တရုတ်	-9.92596
သု	-9.92656
အကြား	-9.92707
ကုလား	-9.92744
▁လှုပ်ရှားမှု	-9.92777
▁ပျက်စီး	-9.92832
▁သီရိလင်္ကာ	-9.92835
ဖွင့်	-9.92849
ဘတ်	-9.92881
▁ဝမ်း	-9.92892
ကြီးသည်	-9.92909
▁၁၉၄၈	-9.93004
အခြေခံ	-9.93033
ခဲ့ခြင်းဖြစ်သည်။	-9.93058
▁၁၉၆၀	-9.93112
▁၂၀၀၄	-9.93184
မျှသာ	-9.93229
တုံ	-9.93443
▁ရိုးရာ	-9.9351
ရီး	-9.93535
ကတည်းက	-9.93608
▁Pa	-9.93611
▁ဗန်းမော်ခရိုင်	-9.93666
▁၂၀၁၉	-9.93777
မြဲ	-9.93825
ယော	-9.93858
▁Gyi	-9.93901
၀၃	-9.93975
တေ	-9.94029
▁ဧက	-9.9403
မြင်း	-9.94043
▁–	-9.94065
▁ဖန်	-9.94068
အသက်	-9.94081
ဗေဒ	-9.94119
▁ထိုး	-9.94153
▁မိုင်းခတ်	-9.94158
ရှိရာ	-9.94164
ne	-9.94204
မြို့သို့	-9.94285
▁လောက	-9.94413
▁မျှ	-9.9448
▁အသုံးချ	-9.94495
▁အဆောက်အအုံ	-9.94506
ခဲ့ပါတယ်။	-9.94548
▁မင်္ဂလာ	-9.94551
▁၄၃	-9.94581
လျင်	-9.94599
▁စံ	-9.9462
န်း	-9.94621
▁စသည်တို့ကို	-9.94646
ဟုလည်း	-9.94691
ပြင်ရွာ	-9.94705
at	-9.94741
▁မြင်းခြံခရိုင်	-9.94745
သတ်မှတ်	-9.94828
▁ရပ်	-9.94867
▁ပါဝင်ခဲ့သည်။	-9.94873
▁၁၉၈၈	-9.94943
တည်း။	-9.94959
အခန်း	-9.94964
အုပ်ချုပ်ရေး	-9.94985
ကွင်းရွာ	-9.95058
▁ဆွေးနွေး	-9.95063
ဖြစ်လေသည်။	-9.95076
အဲ	-9.95081
▁ကြည့်	-9.95164
▁J	-9.95281
▁O	-9.95316
▁ကစား	-9.95324
▁ကူညီ	-9.95328
နင်း	-9.95426
v	-9.95486
ချာ	-9.95529
စတုရန်းကီလိုမီတာ	-9.95637
▁Tha	-9.95638
ထား၍	-9.95671
ကျင်	-9.95758
၈၁	-9.95802
တိုင်းရင်းသား	-9.95829
▁ကြယ်	-9.95906
ဗိုလ်	-9.95929
▁ဒီဂရီ	-9.95995
▁ဆု	-9.96094
ညောင်	-9.96128
▁2	-9.96187
ထိန်း	-9.96198
ရတနာ	-9.9624
▁မက်မန်းခရိုင်	-9.96345
un	-9.96432
▁ထား	-9.96482
▁W	-9.96508
▁၁၉၆၂	-9.96618
စောင်း	-9.9667
တုတ်	-9.96677
ရခြင်း	-9.96701
လမ်းကြောင်း	-9.96722
ထွေး	-9.96811
ဖြစ်ခဲ့သည်။	-9.9682
▁ခံယူ	-9.96833
ရေးကို	-9.96872
▁punk	-9.96886
▁အများအားဖြင့်	-9.96928
▁ပုံမှန်	-9.96945
▁သက်	-9.97074
နိုင်ခြင်း	-9.97175
▁စီး	-9.97189
st	-9.97262
လာသောအခါ	-9.97364
to	-9.97368
ထုံး	-9.97383
ta	-9.97384
ပွား	-9.97397
ဖြစ်ပွား	-9.97415
အပိုင်း	-9.97454
▁မင်းတုန်း	-9.97477
▁လေဆိပ်	-9.97545
ဘဏ်	-9.97576
၀၁	-9.97594
ခဲ့သဖြင့်	-9.97604
▁ဟိုပန်မြို့နယ်	-9.97629
NGC	-9.97668
▁ဖော်ပြထားသည်။	-9.97727
▁ခရစ်	-9.97731
ကိုယ်တိုင်	-9.97743
▁ဟန်	-9.97752
▁တာချီလိတ်ခရိုင်	-9.97778
အောင်မြင်	-9.97785
▁ခေတ်သစ်	-9.978
ရေးနှင့်	-9.97932
▁ပညာသင်ကြား	-9.97938
▁ဇာတ်	-9.97963
z	-9.97971
▁ခွဲခြား	-9.97976
အနည်းငယ်	-9.9798
me	-9.97987
▁ရှိနေ	-9.97988
▁လွှမ်းမိုး	-9.97994
▁အတွင်းရေးမှူး	-9.98012
ပေးခြင်း	-9.98049
▁ဝင်း	-9.9806
မှာမူ	-9.98086
▁စစ်ဆေး	-9.98101
▁သားသမီး	-9.98175
▁f	-9.98328
စဉ်က	-9.98361
▁ချီးမြှင့်	-9.98439
ခဲ့ကြောင်း	-9.98452
▁တစ်ဖန်	-9.9848
▁လူငယ်	-9.98488
ဆည်	-9.98606
▁ထိုအချိန်တွင်	-9.98631
▁ဘီ	-9.98633
▁မိုင်းပေါက်	-9.98723
▁ဖတ်	-9.98763
▁နောက်ထပ်	-9.98821
ဆုံ	-9.98822
ကြယ်	-9.98827
မြို့ကို	-9.9885
▁အစာ	-9.98916
မကြီး	-9.98926
ဘိ	-9.98977
▁အရပ်	-9.99019
▁ပဲခူးမြို့နယ်	-9.99067
၌လည်း	-9.99077
၀၂	-9.99106
မောက်	-9.99131
အဖွဲ့ဝင်	-9.99195
▁အစ	-9.992
▁ဖြစ်ပေသည်။	-9.99238
တံတား	-9.99277
▁အဆို	-9.99292
▁ပြင်သစ်နိုင်ငံ	-9.99312
▁ကြို့ပင်ကောက်	-9.99356
▁ရည်ညွှန်း	-9.9938
▁၂၀၀၂	-9.99442
▁ရောမ	-9.99457
▁မွေး	-9.99458
ပိုက်	-9.99491
▁တိုးချဲ့	-9.99544
လွှာ	-9.99684
ur	-9.99887
ကိုမူ	-9.99956
ဆင့်	-9.99978
▁ဝယ်ယူ	-9.99983
▁နယ်နိမိတ်	-9.99985
ကြမ်း	-9.99996
▁ခင်	-10
▁တည်ရှိပြီး	-10.0001
အက္ခရာ	-10.0003
▁အကျိုး	-10.0004
ယန်း	-10.0005
အခြေအနေ	-10.0005
ပုတ်	-10.0006
▁အမြင့်ဆုံး	-10.0014
ထူ	-10.0017
▁တန့်ဆည်မြို့နယ်	-10.0021
▁ပေါင်းတည်	-10.0026
ခိုင်း	-10.0032
▁သိရသည်။	-10.0038
▁၂၀၀၃	-10.0041
▁ခန္ဓာကိုယ်	-10.0044
တခု	-10.0047
ce	-10.0047
ကဗျာ	-10.0053
တာဝန်	-10.0056
▁ရန်	-10.0066
▁ခဲ	-10.007
ပျံ	-10.0079
▁အပိုင်း	-10.0088
နေရာတွင်	-10.0095
ယခု	-10.0097
လှသော	-10.0098
ချက်များ	-10.0102
၎င်း၊	-10.0106
▁အနည်းဆုံး	-10.0113
▁ယ	-10.0121
▁တစ်ခါတစ်ရံ	-10.0121
မြိုင်	-10.0122
ဒေသတွင်	-10.013
သင်း	-10.0136
ir	-10.0138
▁အီရန်	-10.0138
▁ရန်သူ	-10.014
ဟော	-10.014
မင်္ဂလာ	-10.0152
▁ဝိုင်းမော်	-10.0157
▁ဗမာ	-10.0162
မှတစ်ဆင့်	-10.0176
သည့်အတွက်	-10.0182
▁ကော်မတီ	-10.0194
ဖေ	-10.0201
▁ရိုက်ကူး	-10.0203
င်း	-10.0209
များဖြစ်သည်။	-10.0215
▁ဘွဲ့	-10.0217
▁အုတ်တွင်း	-10.0227
▁အပေါ်	-10.0235
မိတ္ထီလာမြို့နယ်	-10.0235
▁သိရှိ	-10.0238
il	-10.0239
မျက်နှာ	-10.0244
▁on	-10.0248
▁အလျား	-10.0252
ကမ်း	-10.0252
▁တွေ့ရ	-10.0256
သူ၏	-10.0256
▁ပခုက္ကူမြို့နယ်	-10.0264
▁အက္ခရာ	-10.0271
▁ဝေဖန်	-10.0274
▁ပြဋ္ဌာန်း	-10.0277
ဘော	-10.0277
▁၁၉၅၈	-10.0281
▁ပေါင်	-10.029
ရောင်း	-10.0293
▁အစောပိုင်း	-10.0298
▁ရှိ၏။	-10.0298
▁ဧကရာဇ်	-10.0299
▁ဇ	-10.0299
▁တွဲဖက်	-10.0302
▁အမြဲ	-10.0309
ကြိမ်	-10.0312
ချက်အရ	-10.0313
▁ပင်လည်ဘူး	-10.0319
အရောင်	-10.0326
သတင်း	-10.034
▁လူတို့	-10.0341
▁၁၉၅၃	-10.0342
▁၁၉၄၆	-10.0344
ကြေး	-10.0346
တောင်ရွာ	-10.035
▁နိုင်ငံ၏	-10.0353
▁ဖဆပလ	-10.0364
▁လုပ်ငန်းများ	-10.0365
ပြီး၊	-10.0367
▁was	-10.0375
အနီး	-10.0391
ရွာမရွာ	-10.0397
ခံရ	-10.0398
ဇီ	-10.04
▁စစ်တပ်	-10.0401
တိုက်ပွဲ	-10.0413
▁Kan	-10.0416
▁s	-10.0422
▁သထုံခရိုင်	-10.0424
အများဆုံး	-10.0427
ပွဲတော်	-10.0429
▁မိုင်းရယ်	-10.0434
▁ပေါက်ခေါင်း	-10.0436
▁၆၀	-10.0442
▁တိုင်	-10.0446
ခွေ	-10.0457
am	-10.0457
▁အဖ	-10.046
သရုပ်ဆောင်	-10.0462
▁အသစ်	-10.0463
▁ဝန်	-10.0464
ပေါ့	-10.0467
▁ကလောမြို့နယ်	-10.0468
လက်ထက်တွင်	-10.0482
ပေါ်၌	-10.0485
▁ထူထောင်	-10.0486
ရာဇာ	-10.0487
ဒူး	-10.0489
▁လက်တွေ့	-10.0498
ယံ	-10.0502
မရ	-10.0508
V	-10.0512
▁အလင်း	-10.0513
▁ချ	-10.0517
▁စပိန်	-10.0529
ပြောင်းလဲ	-10.0539
▁မွေးဖွားခဲ့သည်။	-10.0539
▁ကယားပြည်နယ်၊	-10.0546
ချော	-10.0547
▁album	-10.0554
▁ဟွေ	-10.0558
သည်အထိ	-10.0566
▁တို	-10.0572
ဖြစ်လာခဲ့သည်။	-10.0576
▁ဆက်သွယ်ရေး	-10.0576
ရိုင်း	-10.058
▁ရုံး	-10.058
ဘော်	-10.0583
ခြံ	-10.0588
▁ကြောင်	-10.0601
▁နန်းတော်	-10.0604
▁ပုံသဏ္ဌာန်	-10.0608
▁လိုအပ်	-10.0627
▁မိုင်းရှူး	-10.064
▁သတ္တဝါ	-10.0641
▁၁၉၆၃	-10.0641
▁သေဆုံး	-10.0659
▁သု	-10.0663
▁နေ့စဉ်	-10.0666
▁ပစ်	-10.0669
▁၂၀၀၁	-10.067
ပိ	-10.0682
▁မေး	-10.0686
ခံရသည်။	-10.0691
▁ချမ်းသာ	-10.0694
▁3	-10.0694
amp	-10.0696
▁ကြေညာ	-10.0699
တည်ဆောက်	-10.0702
▁ယောက်ျား	-10.0705
အသံ	-10.0716
▁ပြည့်စုံ	-10.0721
လွှတ်	-10.0723
ကျောက်ဆည်ခရိုင်၊	-10.0725
လေ့ရှိကြသည်။	-10.0725
–	-10.0728
▁re	-10.073
▁၁၉၅၄	-10.073
သာမက	-10.073
လိုင်	-10.0735
▁ရေနံ	-10.0741
သဖွယ်	-10.0741
▁ဓား	-10.0743
ညာ	-10.0745
တင့်	-10.0748
▁ခရီး	-10.0753
▁ခန့်မှန်း	-10.0759
ကိုပင်	-10.076
ရရှိခဲ့သည်။	-10.0765
▁စီစဉ်	-10.0772
▁စု	-10.0774
လုပ်ဆောင်	-10.0775
ဇင်း	-10.078
▁ဆန့်ကျင်	-10.0781
▁ဝေါဟာရ	-10.0782
▁ပီ	-10.0782
▁တောင်သာမြို့နယ်	-10.0786
ent	-10.0789
မြို့မှ	-10.0792
▁ထုတ်ပြန်	-10.0796
▁de	-10.0805
▁ကျေးရွာ	-10.0809
ငြိမ်း	-10.081
ပြသ	-10.0811
လှုပ်ရှားမှု	-10.0813
ချိ	-10.0813
um	-10.0813
▁ရောင်	-10.0822
ထံသို့	-10.0823
ချမ်းသာ	-10.0828
ပြင်း	-10.0836
▁Re	-10.084
ပြည်သူ့လွှတ်တော်	-10.0841
▁ထပ်	-10.0845
ပေါ်သို့	-10.0846
မှသာ	-10.0849
အကြောင်းကို	-10.0854
▁ဝမ်းတွင်း	-10.0858
▁အရေးပါသော	-10.0859
ခိုး	-10.0861
▁ရေစကြိုမြို့နယ်	-10.0864
ဟူ	-10.0868
ယောက်	-10.087
ဘက်သို့	-10.0875
▁သူမ၏	-10.0878
စက်ရုံ	-10.089
သမ္မတ	-10.0897
ပြိုင်	-10.0901
ine	-10.0903
▁၁၉၅၉	-10.0905
▁အောင်လံမြို့နယ်	-10.0906
▁ကသာခရိုင်	-10.091
▁My	-10.0916
ရမ်း	-10.0921
စည်	-10.0926
▁ရွက်	-10.0928
▁ပါဠိ	-10.0935
သောင်	-10.0935
▁ခုနှစ်၌	-10.0942
နိုင်ငံရေး	-10.0947
▁သစ်သား	-10.0954
အာဏာ	-10.0957
man	-10.0958
ရာထူး	-10.096
▁ကျယ်ဝန်းသည်။	-10.0962
ကိုက်	-10.0976
▁အာကာသ	-10.098
▁ရုပ်	-10.0981
ါ	-10.0981
အင်အား	-10.0983
▁ကာကွယ်ရေး	-10.0986
▁တို့တွင်	-10.0986
အရေး	-10.1004
▁by	-10.1013
▁၃ဝ	-10.1014
သောက်	-10.1023
▁မြစ်သားမြို့နယ်	-10.1025
▁၁၉၄၉	-10.1029
▁၁၉၇၀	-10.1029
မည်။	-10.103
နေပြီး	-10.1039
▁ဝေ	-10.1043
ကြောင်	-10.1043
▁လူသား	-10.1048
ရက်မြောက်	-10.105
▁သာယာဝတီမြို့နယ်	-10.1051
▁ပြည်ပ	-10.1054
▁ဂျပန်နိုင်ငံ	-10.1054
▁ထင်	-10.106
▁အတည်ပြု	-10.1063
▁လင်းခေးခရိုင်	-10.1066
▁သိပ္ပံ	-10.1067
▁ရှိခဲ့သည်။	-10.1069
ရထား	-10.107
▁ပွင့်	-10.1074
▁အခွင့်အရေး	-10.1075
▁၃၉	-10.1075
အော်	-10.1076
▁နဲ့	-10.108
▁ထမ်းဆောင်	-10.108
ရခိုင်	-10.1082
နည်းပညာ	-10.1086
▁ငှက်များ	-10.1093
လှေ	-10.1094
▁အလယ်ပိုင်း	-10.1099
▁သီးသန့်	-10.1105
ဘောင်	-10.1106
ဒုတိယ	-10.1111
▁ဦးခေါင်း	-10.1118
ရာသီ	-10.1124
▁as	-10.1129
▁ရောင်းချ	-10.1131
▁စစ်ပွဲ	-10.1135
ဝပ်	-10.114
အစား	-10.114
...	-10.1144
▁အရေး	-10.1146
▁တောင်ငူမြို့နယ်	-10.1148
အောက်တွင်	-10.115
▁V	-10.1152
▁မြိတ်ခရိုင်	-10.1158
ရန်ကုန်တက္ကသိုလ်	-10.1161
▁မလှိုင်မြို့နယ်	-10.1162
ဂြိုဟ်	-10.1166
တော့သည်။	-10.1166
ခိ	-10.1167
▁တောင်းဆို	-10.1168
မိုက်	-10.1168
ဟိ	-10.1172
▁၅။	-10.1177
နှင့်အညီ	-10.118
▁သစ်တော	-10.1183
▁၁၉၅၆	-10.1184
ဘိုး	-10.1186
▁အမိန့်	-10.1189
▁ဖြစ်သည်ဟု	-10.1197
▁အထက်တန်းကျောင်း	-10.1202
▁ယိုးဒယား	-10.1202
▁သဘာဝပတ်ဝန်းကျင်	-10.1206
▁ဇာတ်လမ်း	-10.1208
▁စမ်းသပ်	-10.1208
▁အပြစ်	-10.1221
မင်းသမီး	-10.1221
▁ပထမဦးဆုံး	-10.1224
▁လက်ထက်တွင်	-10.1226
မေး	-10.1232
▁မှတ်သား	-10.1236
▁ခုနစ်	-10.1238
▁တစ်နှစ်	-10.1238
▁ယင်းမာပင်ခရိုင်	-10.1238
အခါ	-10.1242
▁လဲချားမြို့နယ်	-10.1244
la	-10.1248
ရှီ	-10.1258
▁ဝက်လက်မြို့နယ်	-10.1258
▁ပြဇာတ်	-10.126
ဖြစ်သော်လည်း	-10.126
ကတ်	-10.1261
ရဟန်း	-10.127
▁ရှစ်	-10.1271
▁လျှောက်ထား	-10.1278
▁ဟိဂရှိ	-10.1281
▁ကျရောက်	-10.1292
▁တန်ဖိုး	-10.1297
ရရှိ	-10.1302
▁အီဂျစ်	-10.1303
▁ညောင်ဦးမြို့နယ်	-10.1305
▁ဆီး	-10.1305
▁ပရိသတ်	-10.1311
▁ပါဝင်သည့်	-10.1313
▁အကြောင်းအရာ	-10.1314
▁တွေ့ဆုံ	-10.1315
ဓ	-10.1317
▁အလုပ်လုပ်	-10.1318
လှည့်	-10.1326
ယာဉ်	-10.1327
ရား	-10.1327
ချပ်	-10.1343
ကြက်	-10.1346
မှာပင်	-10.1346
▁နံနက်	-10.1349
သေးသည်။	-10.1352
▁စင်ကာပူ	-10.1352
▁with	-10.1354
▁မိနစ်	-10.1356
ဒိ	-10.1362
ယု	-10.1366
အတွင်းတွင်	-10.1367
▁တည်ရှိ	-10.1368
ကျယ်	-10.1371
▁၁၉၅၂	-10.1376
▁မိုးညှင်း	-10.1382
▁အရာ	-10.1388
းရွာ၊	-10.1394
▁ကိုးကွယ်	-10.1397
ဒေါ	-10.1397
ကော်မတီ	-10.1398
ဘ်	-10.14
▁ဘာသာပြန်	-10.1402
ဖြစ်ပေါ်	-10.1406
ဂုဏ်	-10.1409
▁သက်တမ်း	-10.1409
▁ကူ	-10.1411
▁၀	-10.1412
သွားသော	-10.1412
▁၄၆	-10.1423
▁တွေ့ရှိရသည်။	-10.1424
နိုင်အောင်	-10.1425
ro	-10.1441
▁မိုးကောင်း	-10.1442
▁:	-10.1449
▁မုံရွာခရိုင်	-10.145
သူသည်	-10.1451
▁၁၉၆၈	-10.1451
ခြင်း။	-10.1453
ဆွေ	-10.1456
▁သာသနာ	-10.1458
▁သိန္နီမြို့နယ်	-10.1463
ခွေး	-10.1468
တိုင်အောင်	-10.1468
▁၄၁	-10.147
ကြသည့်	-10.1478
ဆောင်း	-10.148
မှီ	-10.1481
▁အနာ	-10.1485
▁ဘီးလင်းမြို့နယ်	-10.1488
▁ကျောက်စာ	-10.1496
▁ပေါ်ပေါက်	-10.1498
▁အုတ်ဖိုမြို့နယ်	-10.1504
▁ဩဂုတ်	-10.151
▁be	-10.1512
ကရင်	-10.1513
မင်းဆက်	-10.1519
မိဖုရား	-10.152
▁ယနေ့	-10.1521
ပြုစု	-10.1525
▁၈၀	-10.1528
မဂ္ဂဇင်း	-10.1532
▁ဗီယက်နမ်	-10.1533
▁ဇနီး	-10.1534
▁ပြဿနာ	-10.1537
စသည့်	-10.1538
မ်း	-10.1538
▁လက်ဝဲ	-10.1543
အမျိုးသမီး	-10.1543
ခရီး	-10.1544
▁မင်းတုန်းမင်း	-10.1546
▁တိုင်းဒေသကြီး	-10.1546
တင်ပြ	-10.1551
အမေရိကန်	-10.1552
▁ဘုံ	-10.1558
▁နေပြည်တော်	-10.1564
▁သူမသည်	-10.1566
သာယာ	-10.1566
ဖီ	-10.1569
▁ကောလင်းခရိုင်	-10.1569
မှုသည်	-10.157
▁အင်္ဂလိပ်ဘာသာ	-10.1571
▁ကွမ်း	-10.1572
ြ	-10.1579
▁ရသည်။	-10.1582
ဝင်ရောက်	-10.1588
▁အမေရိကန်နိုင်ငံ	-10.1592
▁လှူဒါန်း	-10.1593
▁...	-10.1594
▁လင်း	-10.1595
ga	-10.1598
လုံရွာ	-10.1598
▁အင်ဂျင်နီယာ	-10.1606
▁Min	-10.1607
▁သီဆို	-10.1611
▁အန်	-10.1619
▁တောင်ငူ	-10.1622
သူများသည်	-10.164
▁ကောက်	-10.1642
အနေနှင့်	-10.1642
▁လူမှုရေး	-10.1643
▁ဖြစ်ပေါ်လာ	-10.1644
▁ဇွန်	-10.1644
▁ရိုက်	-10.1645
▁အပူချိန်	-10.165
ပြင်ဆင်	-10.1654
ဘုရား၏	-10.1663
ရေး၊	-10.1666
ခြား	-10.1672
▁or	-10.1675
ထဲ၌	-10.168
ဖြစ်လာ	-10.1687
ပေါ်ရှိ	-10.1689
▁ရေဒီယို	-10.1692
▁၁၉၄၂	-10.1692
ခံခဲ့ရသည်။	-10.1692
▁ခေါ်ကြသည်။	-10.1693
▁အုပ်	-10.1696
▁အီတလီ	-10.1701
▁မိုင်းဆတ်ခရိုင်	-10.1703
လေဆိပ်	-10.1706
လျှင်၊	-10.1709
ယ်	-10.1709
▁အမျိုး	-10.1711
▁နေ့တွင်	-10.1716
ပါသော	-10.1718
▁ဗန်းမောက်	-10.1726
ပြိုင်ပွဲ	-10.1736
▁၁၉၅၀	-10.1737
▁ယှဉ်ပြိုင်	-10.1737
▁တန်း	-10.1737
▁ဆိုကြသည်။	-10.1743
ရေးဆွဲ	-10.1745
မူး	-10.1746
▁ရှာ	-10.1749
▁အောင်မြင်မှု	-10.1754
ထိုင်	-10.1756
▁သတ်	-10.1756
▁စပ်လျဉ်း၍	-10.1758
▁လက်နက်ကိုင်	-10.176
ရူ	-10.1782
ကိုယ်စားလှယ်	-10.1782
▁အိ	-10.1785
စစ်ပွဲ	-10.1785
▁ချမှတ်	-10.1785
ရှိသူ	-10.1785
တောင်တန်း	-10.1789
သန်	-10.1797
▁အများပြည်သူ	-10.18
ion	-10.1806
ဆပ်	-10.1808
▁၁၉၉၉	-10.1816
နှင့်ပတ်သက်၍	-10.1817
▁လွန်စွာ	-10.1817
▁တိုင်းတာ	-10.1818
▁Co	-10.182
နိုင်ပြီး	-10.1828
ပေးသော	-10.1831
▁စာရေး	-10.1832
▁သူမ	-10.1835
▁လျှို့ဝှက်	-10.1836
▁လိုက်နာ	-10.1837
▁လက်ထက်	-10.1838
▁ဆရာတော်သည်	-10.184
လျက်ရှိသော	-10.1841
ဖား	-10.1842
▁ပူးတွဲ	-10.1846
ရွေးချယ်	-10.1848
ဥယျာဉ်	-10.1851
ဂျ	-10.1851
▁လူ့	-10.1853
▁အမည်ရှိ	-10.1856
ပါဝင်သည်။	-10.1861
▁ပစ္စည်းများ	-10.1866
တပ်ဖွဲ့	-10.187
ထည်	-10.1871
နော်	-10.1871
ထင်ရှား	-10.1876
▁လို	-10.1879
▁ခေါ်ဆို	-10.1884
ထည့်	-10.1889
▁ချောက်မြို့နယ်	-10.1893
▁အသုံးပြုသည်။	-10.1894
မန္တလေး	-10.1903
ကြသဖြင့်	-10.1916
ဒန်	-10.1917
▁လင်	-10.1918
▁ရထား	-10.1924
ပိုင်းဆိုင်ရာ	-10.1926
▁၁၉၇၂	-10.1927
▁အရိုး	-10.1932
သည့်အပြင်	-10.1934
နိုင်ငံတွင်	-10.1935
▁ခါး	-10.1936
ဒူ	-10.1936
▁ရာဇဝင်	-10.1939
▁1	-10.1939
▁ထန်း	-10.194
▁သဘောတူ	-10.1945
သင်တန်း	-10.195
သင်္ဘော	-10.1951
အမြင်	-10.1955
▁တရုတ်ပြည်	-10.1957
▁တို့က	-10.1957
▁ဆိုင်	-10.1962
▁နားလည်	-10.1963
▁ယင်းသည်	-10.1966
▁လိပ်	-10.1966
▁ပန်းတောင်း	-10.1979
▁Man	-10.1984
တောကျေးရွာအုပ်စု	-10.1995
ဖောက်	-10.2005
အရပ်	-10.2012
▁ကြည့်ရှု	-10.2016
လက်ခံ	-10.2016
▁အစေ့	-10.2019
ခဲ့ကြပြီး	-10.2019
▁ထိုင်ဝမ်	-10.2025
▁ကျောင်းသားများ	-10.2033
ဗား	-10.2033
သူများကို	-10.2038
ခဲ့ပေ။	-10.204
▁ရင်	-10.2041
▁ဟုလည်း	-10.2043
▁စွမ်းအင်	-10.2044
▁ရွှေ့ပြောင်း	-10.2057
is	-10.2066
၌ပင်	-10.2071
ရပ်စောက်မြို့နယ်	-10.2072
▁ဖော်	-10.2073
▁ဉာဏ်	-10.2077
▁အဖြစ်ဖြင့်	-10.2078
▁တိုက်ပွဲ	-10.2082
▁လီ	-10.2087
▁အိပ်	-10.2088
▁ဧရာဝတီမြစ်	-10.2089
များထဲမှ	-10.2092
▁b	-10.2094
ဒါး	-10.2097
0&	-10.2098
▁ကောလိပ်	-10.2102
ငူ	-10.2111
▁တွေ့ရှိရသော	-10.2112
▁၁၉၅၅	-10.2115
▁ခံရသည်။	-10.2116
ထေရ်	-10.2118
စေသော	-10.2119
▁ရှေးခေတ်	-10.2121
▁ဈေးကွက်	-10.2129
▁၄၈	-10.2138
ကြသော်လည်း	-10.214
သောင်း	-10.2141
▁မိုင်းဖြတ်	-10.2142
▁ဘောလုံး	-10.2143
ရှစ်	-10.215
▁စနစ်တကျ	-10.2156
▁ပျံသန်း	-10.2156
တွေက	-10.216
▁ရှိလေသည်။	-10.2163
လှုပ်ရှား	-10.2168
လာသည့်	-10.2171
▁ခုနှစ်မှစ၍	-10.2173
▁ခေါ်ဝေါ်	-10.2173
▁မင်းတပ်မြို့နယ်	-10.2174
▁မေတ္တာ	-10.2174
အိပ်	-10.2184
▁မြောက်ဘက်တွင်	-10.2189
▁အဆင့်ဆင့်	-10.2191
▁ဘီလီယံ	-10.2191
▁မြို့ပြ	-10.2192
▁တပ်ရင်း	-10.2197
▁အမတ်	-10.2209
▁ပေါက်မြို့နယ်	-10.2213
▁ခေါင်လန်ဖူး	-10.2217
▁အရှေ့ဘက်တွင်	-10.2218
အောင်ဆန်း	-10.2218
▁စုဆောင်း	-10.222
စီမံကိန်း	-10.2221
▁မီ	-10.2221
တစ်လုံး	-10.2227
▁ဟိုပန်ခရိုင်	-10.223
လျှက်	-10.2233
te	-10.2233
▁အပူ	-10.2234
▁ဇာတ်ကား	-10.2236
▁အထက်ပါ	-10.2239
▁အနေဖြင့်	-10.2245
▁ထိန်းသိမ်းရေး	-10.225
▁၁၉၆၁	-10.2254
ation	-10.2259
▁ပြင်	-10.2261
▁အပွင့်	-10.2261
▁၁၉၆၄	-10.2264
အဖြစ်သို့	-10.2267
▁Taung	-10.2277
▁နည်းလမ်း	-10.2279
▁ဖော်ထုတ်	-10.2287
နိုင်ပေသည်။	-10.2307
စောင့်ရှောက်	-10.2309
ရော့	-10.231
▁ကမ်း	-10.2311
စာချုပ်	-10.2312
သော်လည်းကောင်း	-10.2312
▁ဒုတိယမြောက်	-10.2318
သဏ္ဌာန်	-10.2321
▁သူ့အား	-10.2337
ဇော်	-10.2338
▁လူအများ	-10.234
ကြော	-10.2342
များရှိ	-10.2349
町	-10.2355
ကြရာ	-10.2361
▁ထည့်	-10.2369
▁ကွဲပြား	-10.237
▁ဧရိယာ	-10.2377
▁လည်	-10.238
ကောလိပ်	-10.238
ဘု	-10.2382
ဗ်	-10.2387
▁အားပေး	-10.2389
▁Su	-10.2391
▁ဦးစီး	-10.2401
▁တွင်း	-10.2402
သွယ်	-10.2403
များအရ	-10.2408
ကွန်မြူနစ်ပါတီ	-10.2417
▁အူ	-10.2423
▁ဘက်	-10.2423
▁La	-10.2428
▁ဖယ်ခုံမြို့နယ်	-10.2436
ri	-10.2436
ဖျက်	-10.2438
▁ဆက်စပ်	-10.2439
▁တံတား	-10.244
▁ကေ	-10.2443
တံဆိပ်	-10.2445
▁ရေဦးမြို့နယ်	-10.2448
များဖြစ်သော	-10.2449
ယက်	-10.2451
သီရိ	-10.2453
▁အစိုးရက	-10.2453
▁များသည်	-10.2454
ပြောင်	-10.2455
▁ပြသ	-10.2457
▁၄၇	-10.2457
သခင်	-10.2458
တံခါး	-10.2459
ခဲ့ရ	-10.2459
▁နဂါး	-10.246
▁ဆောက်	-10.2462
▁အချက်	-10.2464
▁လန်ဒန်	-10.2467
သိမ်	-10.2467
▁ယင်းမာပင်	-10.247
▁၁၉၇၅	-10.2472
▁လွတ်လပ်စွာ	-10.2476
စနစ်ကို	-10.2477
▁ကြံ	-10.2477
▁နှစ်သက်	-10.2479
▁ရှ	-10.248
အုန်း	-10.2487
▁၅၅	-10.2487
▁အားကစား	-10.2491
▁ကိုးကန့်	-10.2495
▁ခံ	-10.2497
ers	-10.2498
▁အနောက်ဘက်တွင်	-10.2502
▁သွားလာ	-10.2502
wa	-10.2505
ဆွတ်	-10.2505
ပညာရေး	-10.2507
မဆို	-10.2515
▁ဆိုင်း	-10.2516
အရာရှိ	-10.2519
▁မန်တုံမြို့နယ်	-10.2524
မှတ်တမ်း	-10.2524
ဖြစ်သဖြင့်	-10.253
နိုင်၏။	-10.2531
ဘူ	-10.2539
အနုပညာ	-10.2541
ထုတ်လုပ်	-10.2542
သွားခဲ့သည်။	-10.2545
ကန်း	-10.2549
ရောင်းချ	-10.255
ဖမ်း	-10.2557
ပြေ	-10.2567
▁သာသနာပြု	-10.2581
▁ဘိုး	-10.2583
အစီအစဉ်	-10.2583
▁၁၉၄၁	-10.2584
ခေါက်	-10.2585
လံ	-10.2586
▁မိုင်းတုံ	-10.2587
▁ပုဂံခေတ်	-10.259
▁၁၉၉၇	-10.2591
ပြတ်	-10.2593
▁ကိုယ့်	-10.2598
▁ရေနံချောင်း	-10.2601
သိပ္ပံ	-10.2603
ဂန်	-10.2609
▁ဖြစ်သည့်	-10.2611
ဘက်တွင်	-10.2612
▁မိဘ	-10.2613
ကဲ	-10.2616
▁ထင်ရှားသည်။	-10.2617
▁အဲဒီ	-10.2621
▁ခို	-10.2624
▁ဝန်ဆောင်မှု	-10.2634
တိုးတက်	-10.2635
▁သင်္ချာ	-10.264
▁သရက်	-10.2642
▁ဗြိတိန်	-10.2646
▁ကောလင်းမြို့နယ်	-10.2646
▁ကျင့်သုံး	-10.265
▁Chaung	-10.2654
▁ကမ္ဘောဒီးယား	-10.2658
▁Me	-10.2666
▁၁၉၉၃	-10.2668
▁ထောက်ခံ	-10.267
ခြင်းအားဖြင့်	-10.2671
▁အမ်	-10.2674
▁၁၉၉၁	-10.2676
တတ်ကြသည်။	-10.2682
ကြရ	-10.2683
▁ပညာရှင်	-10.2685
အခြား	-10.2685
ပျောက်	-10.2688
▁ထက်	-10.269
တန်ဖိုး	-10.2692
ထိုက်	-10.2692
revision	-10.2702
ဘော့	-10.2706
မည်ဖြစ်သည်။	-10.2716
တည်ထောင်	-10.2716
ဝီ	-10.2719
▁တစ်မျိုး	-10.272
မြို့စား	-10.272
▁စီမံ	-10.2725
▁ပု	-10.2736
ပြီးမှ	-10.2742
▁မြို့မ	-10.2743
စုရွာ	-10.2744
▁စုပေါင်း	-10.2749
▁တိုး	-10.275
ပက်	-10.2751
▁ဖြစ်ကြောင်း	-10.2752
▁တည်ရှိသော	-10.2756
▁၁၉၉၆	-10.2757
▁ဖြစ်ပါတယ်။	-10.276
▁အရာရှိ	-10.2764
▁လုံခြုံရေး	-10.2765
နိုင်ငံများ	-10.2776
▁အတိုင်း	-10.2777
ပေးရသည်။	-10.2777
▁ဂျီ	-10.2778
▁၄၉	-10.278
မိသားစု	-10.2786
ry	-10.2789
ဖြစ်အောင်	-10.2803
ခြင်းတို့	-10.2808
▁များစွာသော	-10.2809
ချွန်	-10.281
ဆိတ်	-10.281
▁ဆူး	-10.281
ဟုခေါ်သည်။	-10.281
ရိုးရွာ၊	-10.2813
▁မှတ်တမ်းတင်	-10.2814
▁သမုဒ္ဒရာ	-10.2821
ဇာတ်လမ်း	-10.2829
မျိုးစုံ	-10.283
▁ထွန်းကား	-10.2833
▁ထိုနှစ်	-10.2835
ရွာသစ်	-10.2835
▁ကိစ္စ	-10.2839
▁အများ	-10.284
J	-10.2841
ong	-10.2844
ပွင့်ဖြူမြို့နယ်	-10.2849
▁မတူပီခရိုင်	-10.2853
ငယ်များ	-10.2855
နှစ်ဦး	-10.2861
se	-10.2863
▁အသုံး	-10.2863
▁သာယာ	-10.2866
ဖု	-10.2869
▁လွန်	-10.2873
▁အမြစ်	-10.2874
▁သမီးတော်	-10.2875
▁ခရီးသွား	-10.2885
▁စီးဆင်း	-10.2887
ချက်ကို	-10.2891
▁စက်ရုံ	-10.2896
သတင်းစာ	-10.2897
▁အယ်လ်	-10.2905
▁ဇာ	-10.2905
သူတို့	-10.2909
လွှဲ	-10.2909
▁စုစည်း	-10.291
▁အချင်းချင်း	-10.2911
▁that	-10.2912
▁အုပ်စိုး	-10.2913
ဋ္ဌ	-10.2914
ခုန်	-10.2916
▁၁၉၇၄	-10.2916
လျက်ရှိ	-10.292
ဂိုး	-10.2921
▁ပုလဲမြို့နယ်	-10.2923
သားများ	-10.2929
▁ဒု	-10.2931
▁ခုနှစ်က	-10.2932
သို	-10.2934
▁အဆိပ်	-10.2937
▁ယာ	-10.2937
▁ဘာသာရပ်	-10.2942
ကြွ	-10.2944
နာမည်	-10.2945
ဧရိယာ	-10.2946
ခက်	-10.2955
▁ယင်း၏	-10.2957
▁မိမိတို့၏	-10.296
▁ရဟန်းတစ်ပါး	-10.2963
ချည်	-10.2964
▁ညောင်လေးပင်	-10.2965
▁၁၉၈၉	-10.2968
မှတဆင့်	-10.2969
▁ပေးအပ်	-10.297
▁အကြီးအကျယ်	-10.2972
▁နွားထိုးကြီး	-10.2978
▁[	-10.2981
▁p	-10.299
▁အားဖြင့်	-10.2999
▁ကနီမြို့နယ်	-10.3
▁Pin	-10.3016
▁မင်းကြီး	-10.3017
▁သီတင်းသုံး	-10.3017
▁စတင်ခဲ့သည်။	-10.3024
▁ဖြစ်နေ	-10.3026
ဖွယ်ရာ	-10.3028
ဖွား	-10.3033
▁အင်္ဂလန်နိုင်ငံ	-10.3033
▁ရှေးအခါက	-10.3035
▁ညောင်ပင်	-10.304
▁မြတ်	-10.304
မွန်း	-10.3041
▁နံပါတ်	-10.3045
▁ချီ	-10.3049
▁ဖြတ်	-10.3055
ဆေးရုံ	-10.3059
▁ခန့်အပ်	-10.3061
▁စကားလုံး	-10.3064
မြို့၏	-10.3064
▁အမှု	-10.3066
စေခြင်း	-10.3066
▁ညောင်ဦးခရိုင်	-10.3074
တမ်း	-10.3083
ခုတ်	-10.3085
▁အလိုအလျောက်	-10.3087
အရွယ်	-10.3091
▁ကျင်းပသော	-10.31
▁ဝန်ထမ်း	-10.3102
သမီး	-10.3103
▁၁၉၉၅	-10.3104
▁၁၉၅၇	-10.3105
▁သင်ယူ	-10.3108
▁ဒေသခံ	-10.3109
ကိုလည်းကောင်း၊	-10.3111
▁အာရှတိုက်	-10.3111
▁စက္ကူ	-10.3112
▁ပမာဏ	-10.3116
▁အုန်း	-10.3116
▁ယာယီ	-10.3118
▁တပည့်	-10.312
လှသည်။	-10.312
▁ကဲ့သို့သော	-10.3123
▁ကြေညာခဲ့သည်။	-10.3125
လက်ရာ	-10.3128
အစု	-10.3142
▁တောင်ဘက်တွင်	-10.3148
▁စိုက်	-10.3148
▁ထိုကဲ့သို့	-10.3154
▁Bo	-10.3156
▁တည်ထောင်ခဲ့သည်။	-10.316
▁ပုံနှိပ်	-10.3162
▁၁၉၆၅	-10.3165
ပုံမှာ	-10.3165
▁ဆိုသည့်	-10.3168
ဖိုင်	-10.3175
▁ရယူ	-10.3175
ကနေ	-10.3176
▁လည်ပတ်	-10.3181
က္ခ	-10.3192
▁အမြင်	-10.3195
▁၁၉၉၂	-10.3196
▁ဒုတိယအကြိမ်	-10.3198
ခရစ်	-10.3199
▁သောက်	-10.3202
မြို့ရှိ	-10.3203
▁တီ	-10.3208
▁ရှင်းလင်း	-10.3209
▁၁၉၉၈	-10.3211
နွဲ့	-10.3216
ပီး	-10.322
▁အထက်တန်း	-10.3232
▁ရင်း	-10.3234
▁သိန်း	-10.3237
အပြီး	-10.3237
▁တစ်ခုဖြစ်သည်။	-10.3239
▁ပို့	-10.324
▁မြန်မာစာ	-10.324
ချမှတ်	-10.3241
ပန်းချီ	-10.3242
▁ဖွဲ့စည်းခဲ့သည်။	-10.3244
▁ကောင်	-10.3246
တော်မူ၏။	-10.3251
▁စောင့်ရှောက်	-10.3253
▁၅၂	-10.3262
▁မိုးညိုမြို့နယ်	-10.3263
ဖွင့်လှစ်ခဲ့သည်။	-10.3264
▁Ba	-10.3264
ခဲ့ပေသည်။	-10.3265
▁ကွန်မြူနစ်ပါတီ	-10.3267
▁ဒိုက်ဦးမြို့နယ်	-10.3269
တော်ကို	-10.327
▁ဆောင်းပါး	-10.3273
▁ရက်ပေါင်း	-10.3276
▁အမြီး	-10.3282
တည်ရှိ	-10.3286
▁ပါမောက္ခ	-10.3287
လုပ်ငန်းကို	-10.3288
ရတ်	-10.3288
▁ဟော	-10.3293
▁သတင်းအချက်အလက်	-10.3295
▁ဒီးမော့ဆို	-10.3295
▁ထုတ်ဝေခဲ့သည်။	-10.3302
▁ခပ်	-10.3305
▁ဆိုရှယ်လစ်	-10.3305
ung	-10.3308
တုန်း	-10.3312
ဆောက်	-10.3313
▁၁၉၆၉	-10.3315
▁ဆေးရုံ	-10.3315
▁အနောက်တိုင်း	-10.3319
▁မတ္တရာမြို့နယ်	-10.332
ဒိုင်း	-10.3326
ခွင်	-10.3331
▁သူတို့သည်	-10.3337
▁၁၉၆၇	-10.3343
Y	-10.3351
▁ဦးစီးဌာန	-10.3352
လွဲ	-10.3354
လိုက်သော	-10.3354
▁၁၉၃၉	-10.3355
▁ယော	-10.336
▁၁၉၅၁	-10.336
ton	-10.3375
▁4	-10.3378
ထားလေသည်။	-10.3382
▁နောက်ဆုံးတွင်	-10.3389
ကြ၍	-10.3391
▁ကပ်	-10.3394
▁ဘန်	-10.3396
စေပြီး	-10.3397
အားလုံးကို	-10.3404
▁အာရပ်	-10.3406
▁ရောက်ရှိလာ	-10.3409
ဖြစ်ရာ	-10.3414
▁ဖောင်းပြင်	-10.3416
▁အသုံးပြု၍	-10.3417
▁လင်းခေးမြို့နယ်	-10.3432
win	-10.3437
ဒေါင့်	-10.344
လှိုင်း	-10.3443
ဂျိ	-10.3444
▁ခါ	-10.3444
ဟီ	-10.3446
▁မို	-10.3452
ဗုဒ္ဓ	-10.3452
▁မစ္စတာ	-10.3455
▁အပြန်အလှန်	-10.3456
▁ဟဲ	-10.346
ဒေ	-10.3464
▁ထီ	-10.3465
▁အစည်းအဝေး	-10.3467
▁၆။	-10.3471
70250	-10.3473
ဥပမာ	-10.3477
▁ဓာတ်ငွေ့	-10.348
များထဲတွင်	-10.3481
▁မကြာမီ	-10.3482
နတ်မောက်မြို့နယ်	-10.3482
▁ဆင်း	-10.3483
နင်	-10.3484
အူ	-10.3485
▁ဘုတလင်မြို့နယ်	-10.3485
▁သစ္စာ	-10.3486
▁၁၉၈၅	-10.3487
သလောက်	-10.3495
▁အမြောက်အမြား	-10.3496
▁၁၉၉၄	-10.3497
▁ရို	-10.3497
သက်တမ်း	-10.3498
▁အင်္ဂလန်	-10.3498
စင်း	-10.35
များတွင်လည်း	-10.35
ပထမ	-10.3504
နေကြ	-10.3506
စတာ	-10.3506
▁တိုးမြှင့်	-10.3508
ချိုး	-10.3509
▁ကျွန်တော်	-10.3513
▁တော်ဝင်	-10.3513
▁ဆွဲ	-10.3514
အမ်	-10.3517
ti	-10.3526
▁ဆိုလိုသည်။	-10.3528
▁ဘုန်းတော်ကြီး	-10.3534
ထိန်းသိမ်း	-10.3534
▁တို့ဖြစ်သည်။	-10.3537
▁ရာသီ	-10.3537
ဆား	-10.3539
▁ဒဏ္ဍာရီ	-10.354
ကွယ်	-10.3547
ပြီးသော	-10.3548
▁ယင်းတို့	-10.3552
ol	-10.3552
ပြု၍	-10.3552
ရာစု	-10.3554
ရွေးကောက်ပွဲတွင်	-10.3554
▁အသုံးပြုနိုင်	-10.3555
▁သီလ	-10.3555
▁ခံခဲ့ရသည်။	-10.3557
▁ထိပ်	-10.356
▁ကျင်းပခဲ့သည်။	-10.3562
▁အနှစ်	-10.3562
ဟင်း	-10.3568
အများအပြား	-10.3573
▁စေ	-10.358
ပူဇော်	-10.3583
▁ကလေးများ	-10.3585
ထားကြသည်။	-10.3585
▁ကွန်ဟိန်း	-10.3589
▁ဆည်	-10.3596
မရွာ၊	-10.3598
လိုသော	-10.3599
ဆောက်လုပ်	-10.36
▁De	-10.3601
ရန်နှင့်	-10.3607
▁ကနေဒါ	-10.3612
မင်းကင်းမြို့နယ်	-10.3613
▁ယခုခေတ်	-10.3614
▁ပူဇော်	-10.3618
လုပ်ငန်းများကို	-10.3635
ပြုပြင်	-10.3637
ရအောင်	-10.3637
ခိုက်	-10.3653
▁ခံစား	-10.3653
▁ရာ	-10.3658
▁အထိမ်းအမှတ်	-10.3658
တို့အတွက်	-10.3666
▁ဝန်းသိုမြို့နယ်	-10.3669
▁၁၉၇၃	-10.3676
ik	-10.3677
▁ကဝမြို့နယ်	-10.368
▁ကိုင်း	-10.3682
▁၅၆	-10.3689
စစ်တပ်	-10.3695
▁တောင်တန်း	-10.3696
▁ပျမ်းမျှ	-10.3697
▁Taw	-10.3698
သူများက	-10.37
▁ကချင်	-10.37
▁မိုင်းပန်	-10.37
▁သူ့ကို	-10.3704
▁စာချုပ်	-10.3711
ရှိသည်ဟု	-10.3711
ရန်ကုန်	-10.3712
▁ဆေးပညာ	-10.3713
▁ဘောလုံးအသင်း	-10.3713
ဟူသည်	-10.3714
▁ဖိုး	-10.3714
▁ကော့ကရိတ်ခရိုင်	-10.3715
▁အာဖရိကတိုက်	-10.3723
ရွှေကျင်မြို့နယ်	-10.3726
နောက်ပိုင်းတွင်	-10.3728
▁ဟင်း	-10.3729
ဆံ	-10.3729
ရှန်	-10.3729
၁ဝ	-10.3731
▁ခမည်းတော်	-10.3735
▁စားသောက်	-10.3738
နေကြသည်။	-10.3743
▁မြောင်း	-10.3746
ခြင်းမှာ	-10.3746
မွှေး	-10.3749
▁လေကြောင်း	-10.3754
များရှိသည်။	-10.3754
ကလပ်	-10.3756
▁၇၀	-10.3761
အဖွဲ့ချုပ်	-10.3764
က္က	-10.3767
▁မပြု	-10.3768
▁ဧ	-10.3769
▁ရေခဲ	-10.3771
▁သထုံမြို့နယ်	-10.3774
မသိ	-10.3775
▁အန္တရာယ်	-10.3775
▁ဒေါ	-10.3776
▁တပ်ဆင်	-10.3777
▁တူးဖော်	-10.3778
ant	-10.3779
နိုင်လေသည်။	-10.3782
▁စဉ့်ကိုင်	-10.3783
▁အလွယ်တကူ	-10.3783
▁လောင်း	-10.3784
ထုပ်	-10.3784
ကြောင်းကို	-10.3786
▁ဖျက်ဆီး	-10.3794
▁၇၅	-10.3796
ဘုတ်	-10.3802
▁အဆိုတော်	-10.3803
▁၂၀၂၁	-10.3813
▁အယ်ဒီတာ	-10.3813
▁နမ္မတူမြို့နယ်	-10.3815
ဂ်	-10.3815
▁မိုင်းလား	-10.382
တိုင်းပြည်	-10.3825
▁လိုအပ်သော	-10.3833
▁ထိုအ	-10.3834
poem	-10.3837
တစ်ခုဖြစ်ပြီး	-10.3837
ဝန်ကြီးချုပ်	-10.3839
▁အကျယ်	-10.3842
▁နာမည်ကျော်	-10.3842
▁ပေါက်ရောက်	-10.3845
ကြောင်း၊	-10.3848
ha	-10.3849
▁ဝတ်ဆင်	-10.385
▁့	-10.3853
▁ကြိုတင်	-10.3855
ng	-10.3857
းကျေးရွာအုပ်စု	-10.3857
ကျုံ	-10.3858
ပျက်စီး	-10.3858
▁အရသာ	-10.3862
▁ကိုလည်း	-10.3867
li	-10.3868
အကြီးဆုံး	-10.3871
▁စေလွှတ်	-10.3873
ရာ၊	-10.3878
▁မြေအောက်	-10.3878
နေသည်ကို	-10.3884
ရှာဖွေ	-10.3887
များဖြစ်သည့်	-10.3893
ခဲ့တဲ့	-10.3895
ဆီသို့	-10.3896
▁လူမျိုးစု	-10.3898
ဆိုက်	-10.39
▁ဘော	-10.3904
မု	-10.3904
▁မရှိပေ။	-10.3905
ထဲက	-10.3915
▁မယ်တော်	-10.3918
▁ဗီ	-10.3918
ul	-10.3919
▁ဗိုလ်ချုပ်ကြီး	-10.392
အချင်းချင်း	-10.392
▁ပျံ့နှံ့	-10.3922
ခွံ	-10.3926
▁မီးရထားလမ်း	-10.3929
ဘား	-10.3931
ချန်	-10.3932
တွန်	-10.3932
▁မသိ	-10.3932
မစ်	-10.3935
ဦးစီးဌာန	-10.3945
အင်္ဂါ	-10.3946
▁သဘောတူညီချက်	-10.395
▁လွတ်မြောက်	-10.3953
▁ဇာတိ	-10.3953
နိုင်စွမ်း	-10.3956
▁တွေ့ရှိရ	-10.3956
▁အခြေစိုက်	-10.396
အဖွဲ့အစည်းများ	-10.3961
တို့ဖြစ်သည်။	-10.3967
▁အမ	-10.3971
အဓိပ္ပာယ်	-10.3972
လက်နက်	-10.3973
တ္တ	-10.3974
▁ဖက်	-10.3987
တစ်ခုတွင်	-10.3987
တိန်	-10.3987
▁အစရှိသော	-10.3992
▁အသံထွက်	-10.3994
▁၂၀၀	-10.3998
▁ဟော့ကိုင်းဒိုး	-10.3999
▁မက်မန်းမြို့နယ်	-10.3999
),	-10.4002
▁မူရင်း	-10.4003
▁နွေရာသီ	-10.4004
▁အရေအတွက်	-10.4006
▁ကြေး	-10.4007
ter	-10.4008
▁ရွှေဘိုမြို့နယ်	-10.401
ထမ်း	-10.4011
▁အမျိုးသမီးများ	-10.4014
အင်္ဂလိပ်	-10.4022
▁ဒုက္ခ	-10.4022
▁ချုပ်	-10.4022
ထဲမှာ	-10.4022
▁သကြား	-10.4023
▁မျက်နှာပြင်	-10.4023
▁လက်ရာ	-10.4023
▁နိ	-10.4024
ခံယူ	-10.4027
အဖြစ်ဖြင့်	-10.403
▁ကိုရီးယား	-10.4031
▁နှလုံး	-10.4034
ဝဝ	-10.4037
နော	-10.4037
ဖြစ်ပေသည်။	-10.4041
ဝေါဟာရ	-10.4043
▁သင်း	-10.4044
▁ဆက်ဆံရေး	-10.4044
ကြသည်	-10.4047
▁ပြည်သူ	-10.405
ခဲ့ကြလေသည်။	-10.4051
▁ကျိုက်မရော	-10.4054
▁အကြံပေး	-10.4056
▁လူမှု	-10.4058
sh	-10.4063
▁ဘုရင့်	-10.4063
▁ထုတ်ပြန်ကြေညာ	-10.4065
▁တစ်ဆင့်	-10.4073
▁ဇီဝ	-10.4074
အကျိုး	-10.4075
▁ဥရောပတိုက်	-10.4079
▁စဉ်းစား	-10.4082
▁နယ်ချဲ့	-10.4083
▁19	-10.4085
▁မျောက်	-10.409
▁လက်ထပ်	-10.4093
မှုန့်	-10.4094
▁ကန့်ကွက်	-10.4094
▁အဆောက်အဦး	-10.4104
ထံတွင်	-10.4106
▁ကောင်စီ	-10.4108
▁နှစ်ခု	-10.4114
ဟဲ	-10.4114
▁ကျော်ကြား	-10.412
ဥက္ကဋ္ဌ	-10.4122
▁နေ့ရက်	-10.4123
▁အားထုတ်	-10.4125
ကွာ	-10.4127
▁တံတားဦးမြို့နယ်	-10.4128
နိုင်ငံများတွင်	-10.4135
−	-10.4139
▁ဝဲ	-10.4141
များဖြစ်ကြသည်။	-10.4142
ဆိပ်ရွာ	-10.4143
တစ်လျှောက်	-10.4146
ကုန်၏။	-10.4149
▁ရောက်လာ	-10.4156
▁ပြိုင်ပွဲ	-10.4158
မှား	-10.4163
▁သပြေ	-10.4163
▁ညွှန်ကြား	-10.4164
အရေအတွက်	-10.4164
▁စေတီတော်	-10.4165
▁အမြဲတမ်း	-10.4166
ရာဇဝင်	-10.417
▁ဇီး	-10.4171
▁စာတမ်း	-10.4178
▁သာစည်မြို့နယ်	-10.418
▁ကျေးလက်	-10.418
▁အပ်	-10.4182
လျှောက်	-10.4184
ဂါးရွာ	-10.4184
▁လျင်မြန်စွာ	-10.4189
▁ဗာ	-10.419
▁တင်သွင်း	-10.4192
▁ကြီးမားသော	-10.4198
▁ပေးပို့	-10.42
သတ္တု	-10.42
အုံး	-10.4203
▁နိုင်	-10.4204
ပါဝင်သော	-10.4206
▁လို့	-10.4206
ခြင်းခံရသည်။	-10.4207
▁အချက်အလက်	-10.4211
▁သီး	-10.4214
ဖုန်း	-10.4218
ရင့်	-10.4218
▁တောင်ကိုရီးယား	-10.4218
အနီးတွင်	-10.4218
▁မကွေးမြို့နယ်	-10.422
ခု၊	-10.4225
ရွာသစ်ရွာ	-10.4227
ရမည်းသင်းခရိုင်၊	-10.423
▁ဟုခေါ်သည်။	-10.4232
X	-10.4235
▁•	-10.4239
▁ဖြစ်သော်လည်း	-10.4242
ဖန်တီး	-10.4244
လက္ခဏာ	-10.4248
▁ခွင့်ပြု	-10.4248
ဒေသ၊	-10.425
▁၁၉၇၁	-10.4251
မောက်မယ်မြို့နယ်	-10.4254
▁ကော်မရှင်	-10.426
▁အကောင်အထည်ဖော်	-10.4261
▁ဓာတုဗေဒ	-10.4265
▁အလေးချိန်	-10.4268
များထက်	-10.4271
▁ဂြိုဟ်	-10.4272
တီထွင်	-10.4273
▁Shwe	-10.4277
▁ရည်ရွယ်	-10.4283
လျက်၊	-10.4294
▁ဒေသအခေါ်မှာ	-10.4298
လေရာ	-10.43
▁၅၁	-10.4303
တင်မြှောက်	-10.4303
တောင့်	-10.4304
ဒု	-10.4304
▁ကွင်း	-10.4306
▁ဖြတ်သန်း	-10.431
▁ဗိုလ်မှူး	-10.4317
ဆုံးဖြတ်	-10.4318
ဆော်	-10.4318
▁ဗိုလ်မှူးကြီး	-10.4319
▁ပုဂ္ဂလိက	-10.432
▁လေကြောင်းလိုင်း	-10.4322
▁များတွင်	-10.4329
▁နားဖန်းမြို့နယ်	-10.4333
ထော်	-10.4335
ဘန်	-10.4338
▁အရှေ့ပိုင်း	-10.4339
များကဲ့သို့	-10.4341
▁၁၉၈၃	-10.4344
▁ပယ်	-10.4346
ယဉ်	-10.4348
▁ကွယ်လွန်ခဲ့သည်။	-10.4349
▁စတင်၍	-10.4349
▁ကုသ	-10.4351
နီးပါး	-10.4351
▁ကဲ့သို့	-10.4351
°	-10.4352
ဂီ	-10.4354
သွားပြီး	-10.4354
▁ဆက်ခံ	-10.4364
ကီး	-10.4365
▁စတုတ္ထ	-10.4365
တော်ကြီး	-10.4367
ch	-10.4367
ကျူ	-10.4369
ကြို	-10.4376
▁Thar	-10.4378
▁အစားထိုး	-10.4378
▁ဖား	-10.4379
အနေအထား	-10.4379
▁လျှောက်	-10.4381
ဒေါ်	-10.4382
▁ဂျာမနီနိုင်ငံ	-10.4387
နိုး	-10.4387
ရှေး	-10.4388
ပေးသည့်	-10.4395
သား၊	-10.4403
ပြွန်	-10.4404
နေခြင်း	-10.4406
▁မောင်း	-10.4408
▁ကျေး	-10.4408
သင်ကြား	-10.4409
ခြုံ	-10.441
လှူဒါန်း	-10.4414
▁ပလောင်	-10.4414
▁အဆင့်မြင့်	-10.4418
▁အသုံးပြုသော	-10.4421
ကွန်း	-10.4434
▁၅၈	-10.4437
▁ကျွန်	-10.444
ထားခြင်းဖြစ်သည်။	-10.444
▁မြို့သစ်	-10.4441
son	-10.4443
ဩ	-10.4445
▁၁၉၃၈	-10.4447
▁၁၉၈၆	-10.4448
တို့ကိုလည်း	-10.4448
ဒီမိုကရေစီ	-10.4453
တွေဟာ	-10.4454
ကြံ	-10.4456
▁ဆွမ်း	-10.4461
▁ပြန်လာ	-10.4462
ပုံ၊	-10.4464
▁To	-10.4464
▁အချို့က	-10.4467
▁ဆိတ်	-10.447
▁ပုဏ္ဏား	-10.4471
ကျောင်းသား	-10.4474
▁ဝတ်	-10.4477
ကမူ	-10.4485
▁ဂျ	-10.4487
ကွေ့	-10.449
တွင်းသို့	-10.4493
▁စစ်ဆင်ရေး	-10.4496
▁မောင်းထောင်	-10.4498
ချီးမြှင့်	-10.4501
▁စောင်း	-10.4502
▁ရှမ်းပြည်	-10.4506
▁သဘောထား	-10.4507
▁ဥပမာအားဖြင့်	-10.4508
▁ကမ်းရိုးတန်း	-10.4509
▁နှုတ်	-10.4509
ကွယ်လွန်	-10.4514
သိမ်းပိုက်	-10.4523
ဆက်သွယ်ရေး	-10.4525
10	-10.4526
ကျင်းရွာ	-10.4529
ဂျာနယ်	-10.4532
▁သီရိ	-10.4536
▁ပိတ်	-10.454
▁အသေးစိတ်	-10.4541
▁ဘဝဇာတ်ကြောင်း	-10.4542
ဇန်	-10.4546
▁စိတ်ဓာတ်	-10.4548
မှုဖြင့်	-10.4553
▁ယနေ့ခေတ်	-10.4554
ထုတ်ဝေ	-10.4555
▁ယာဉ်	-10.4556
▁မျိုးစိတ်	-10.4557
▁ဆားလင်းကြီး	-10.4562
▁နန်းယွန်း	-10.4562
▁ဤသို့ဖြင့်	-10.4574
ပါတယ်	-10.4577
နမ်	-10.4579
ဘယ်	-10.4583
▁Kyauk	-10.4586
ဒိုင်	-10.4588
တစ်ခုမှာ	-10.459
ဆိုသူ	-10.459
▁ကိုယ်စားပြု	-10.4592
ရှိခဲ့သည်။	-10.4596
ဗဟို	-10.4596
ian	-10.4602
လာခြင်း	-10.4605
▁မိုးနဲမြို့နယ်	-10.4608
ဒီပဲယင်းမြို့နယ်	-10.4612
▁မုန့်	-10.4615
▁ကော့သောင်း	-10.4621
ဒစ်	-10.4621
▁မိတ္ထီလာ	-10.4622
▁ခရစ်နှစ်	-10.4628
▁ကလေးမြို့နယ်	-10.4628
▁ဧရိယာသည်	-10.4628
ary	-10.4632
ဖြစ်သောကြောင့်	-10.4633
▁အကူအညီ	-10.4634
▁သုံးသပ်	-10.4636
▁၁၉၇၉	-10.4637
စွမ်းအင်	-10.464
▁ငယ်	-10.464
ကျောက်စာ	-10.4643
ဆိုလျှင်	-10.4648
ထန်	-10.4652
▁မည်သို့	-10.4657
▁မျက်	-10.4659
မဟုတ်ဘဲ	-10.466
▁နိုင်ငံများ	-10.4661
ဇာတိ	-10.4663
စစ်ဆေး	-10.4672
ဒေး	-10.4677
ive	-10.468
ဒေသများတွင်	-10.468
▁တင်း	-10.4682
▁ပြင်ပ	-10.4682
▁စားသုံး	-10.4683
▁မီးရထား	-10.4685
ပမာဏ	-10.4686
နိမ့်	-10.4686
▁ဦးဘ	-10.4688
de	-10.4698
နောက်ပိုင်း	-10.4698
ရွေး	-10.4702
နန်းတော်	-10.4703
သည့်အတိုင်း	-10.4703
ကာလတွင်	-10.4704
▁တီး	-10.4705
လိုက်လေသည်။	-10.4706
▁ကြီးမား	-10.4708
တိုင်းတွင်	-10.4711
▁အစားအစာ	-10.4714
▁သေနတ်	-10.4714
▁ဆင်းရဲ	-10.4716
ပုန်း	-10.4718
အချက်	-10.4723
▁၁၉၃၆	-10.4723
▁ဟိ	-10.4726
▁တိုက်တွန်း	-10.4737
▁ခေါ်တွင်	-10.4742
▁ရှား	-10.4742
▁ငါ့	-10.4746
လေးရွာ	-10.4747
နည်းဖြင့်	-10.4747
▁တောင်း	-10.4748
ဆွေးနွေး	-10.4748
▁အရွယ်အစား	-10.4754
▁အသုံးပြုခြင်း	-10.476
▁အနိုင်ရ	-10.4763
▁ပြည်မြို့နယ်	-10.4768
ယုံကြည်	-10.4775
▁ပထမအကြိမ်	-10.4778
▁နှင့်အတူ	-10.4785
▁ရည်ရွယ်ချက်	-10.4785
အဓိက	-10.4788
▁မွေးချင်း	-10.4793
ဗစ်	-10.4794
ရပ်ကွက်တွင်	-10.4794
▁သိမ်းယူ	-10.4801
▁နောက်ဆုံးဘဝ	-10.4805
▁အဓိပ္ပာယ်ရသည်။	-10.4808
▁ဖွားမြင်သည်။	-10.4809
▁အဖွဲ့အစည်းများ	-10.4813
▁အာသဝေါကုန်ခမ်း	-10.4816
တော်မူခဲ့သည်။	-10.4817
j	-10.4817
▁ဖြစ်တော်မူ၏။	-10.4819
▁Sa	-10.482
▁ယေဘုယျအားဖြင့်	-10.4825
▁အစား	-10.4829
▁အနေနှင့်	-10.4835
ကြပ်	-10.4837
နိုင်ငံတော်သမ္မတ	-10.484
▁ပင်စည်	-10.4842
မြောင်း	-10.4843
▁လှည့်လည်	-10.4854
တစ်ခုအဖြစ်	-10.4854
ရပြီး	-10.4856
▁ယင်းကို	-10.4862
▁သပိတ်	-10.4863
ရှူး	-10.4866
▁သာသနာတော်ရှိ	-10.4867
▁́	-10.4867
▁ယင်းတို့၏	-10.4867
▁အဖြူရောင်	-10.4867
▁Ah	-10.4868
အမြင့်	-10.487
ဘီး	-10.4871
▁ရွေးကောက်	-10.4873
▁လယ်ယာ	-10.4873
▁စာမျက်နှာ	-10.4876
▁ဘဏ်	-10.4883
15	-10.4884
များအပြင်	-10.4885
ရှိလေသည်။	-10.4886
▁စည်းရုံး	-10.4888
ကဲ့သို့ပင်	-10.4888
▁အစိုးရအဖွဲ့	-10.4892
ပုဒ်	-10.4893
▁မဟာမိတ်	-10.4896
▁အယ်	-10.4898
ရက်တွင်	-10.4898
▁မန်း	-10.4901
သူ၊	-10.4905
▁မြစ်ဝကျွန်းပေါ်	-10.4905
အထူး	-10.4909
ဆူး	-10.4911
▁လက်ပန်	-10.4911
▁ပုသိမ်ကြီး	-10.4912
ကာကွယ်ရေး	-10.4913
ရှောင်	-10.4913
▁ပုလောမြို့နယ်	-10.4917
လာကြ	-10.4919
▁တေး	-10.492
▁ချီတက်	-10.4923
▁ထားဝယ်	-10.4924
နိုင်ငံတော်	-10.4926
ပြတိုက်	-10.4928
▁ဘို	-10.4929
▁ဝတ္ထုတို	-10.4934
▁ငါန်းဇွန်	-10.4935
▁သင့်	-10.4935
မရှိသော	-10.4936
_	-10.4936
▁ဂုဏ်ပြု	-10.4938
▁အက်တမ်	-10.494
နယ်ပယ်	-10.4944
▁အယူအဆ	-10.4945
ငံ	-10.4945
ရီးယား	-10.4947
ရိုးရာ	-10.4951
▁ကူးစက်	-10.4951
▁အရေပြား	-10.4952
▁ပုလဲ	-10.4954
▁ကြသည်။	-10.4955
▁ဥပ	-10.4958
အမျိုး	-10.4967
▁နာမည်ကြီး	-10.4967
နိုင်ခဲ့	-10.4968
ဖြေ	-10.497
005	-10.4971
▁Ye	-10.4974
▁ဂျာမနီ	-10.4975
မူကား	-10.4979
▁ထားရှိ	-10.4981
▁တစ်ကြိမ်	-10.4985
▁သတိ	-10.4986
ရိပ်	-10.4987
▁ဦးနှောက်	-10.4988
▁ငလျင်	-10.4997
▁နန်းတွင်း	-10.5001
ဂျစ်	-10.5004
ရှိကြောင်း	-10.5007
▁တစ်ဖက်	-10.5007
▁အရာတော်မြို့နယ်	-10.5008
လော်	-10.5011
▁အနု	-10.5016
▁ထောက်ပံ့	-10.5016
တွင်ရှိသော	-10.5018
ဒက်	-10.5029
▁ကျဆုံး	-10.5031
▁ထောက်	-10.5033
▁တူရိယာ	-10.5033
▁ညီ	-10.5035
များအပေါ်	-10.5036
သဘာဝ	-10.504
များသာ	-10.5041
သရ	-10.5042
မှုအတွက်	-10.5045
ve	-10.5053
lo	-10.5054
▁တွက်ချက်	-10.506
▁ရူပဗေဒ	-10.506
ထိန်	-10.5065
တွေ့ရှိ	-10.5068
▁နေရာတွင်	-10.5071
အိတ်	-10.5071
▁ထွက်ပြေး	-10.5071
လက်မ	-10.5074
▁ကံမမြို့နယ်	-10.5077
▁ပိန်း	-10.5077
▁အခွန်	-10.5079
▁၁၉၆၆	-10.5081
ငြိမ်းချမ်းရေး	-10.5082
အဖွဲ့၏	-10.5088
▁ပြောကြား	-10.5089
ဒေါင်း	-10.5091
မှာတော့	-10.5093
ium	-10.5094
▁လက်မှတ်ရေးထိုး	-10.5097
ပျော်	-10.5098
▁ကူး	-10.5098
ရောက်ရှိ	-10.5101
▁ထမင်း	-10.5102
▁မု	-10.5106
ခြမ်း	-10.5107
▁အောင်မြင်စွာ	-10.5108
▁အကြိမ်ကြိမ်	-10.5108
ကိရိယာ	-10.5109
နှင့်စပ်လျဉ်း၍	-10.5118
ကျင့်	-10.5123
စာတမ်း	-10.5125
ဇာတ်ကား	-10.5125
▁တီးဝိုင်းများ	-10.5126
▁သင်္ကန်း	-10.5126
ပြည်သူ့	-10.513
ကျွန်းရွာ	-10.513
ခွဲခြား	-10.5132
▁အရက်	-10.5133
▁ခုနှစ်အတွင်း	-10.5134
▁လက်ထောက်	-10.5134
ပ္ပ	-10.5135
ထိုင်း	-10.5137
နမ့်ခမ်းမြို့နယ်	-10.5138
ထမ်းဆောင်ခဲ့သည်။	-10.5139
▁ဟူ	-10.5141
ရှိသော်လည်း	-10.5142
▁Al	-10.5142
ကျသော	-10.5146
▁၁၉၇၈	-10.5153
▁from	-10.5158
▁ရေတပ်	-10.5165
▁ဆိုသော	-10.5166
▁ကော	-10.5166
▁၁၉၈၄	-10.5169
အလယ်ပိုင်း	-10.5175
▁ရရှိသည်။	-10.5176
စော်ဘွား	-10.518
com	-10.5187
ဒဏ္ဍာရီ	-10.5189
ရမ်	-10.5191
▁စခန်း	-10.5192
▁၁၉၇၆	-10.5194
ရုံးစိုက်ရာမြို့	-10.5195
▁ရောက်သောအခါ	-10.5201
▁ထိန်းချုပ်	-10.5203
ဆိုသည့်	-10.5212
ပင်း	-10.5213
နန္ဒ	-10.5215
ဆိုတာ	-10.5217
▁၁၉၈၁	-10.5221
သာရ	-10.5221
စေ၏။	-10.5221
ကျန်း	-10.5221
▁စိုးရိမ်	-10.5227
▁သံမဏိ	-10.5227
▁ရွေး	-10.5231
ရှန်း	-10.5238
▁ခန္တီးခရိုင်	-10.5241
ကျောင်းတွင်	-10.5246
land	-10.5249
▁၅ဝ	-10.5252
▁သရက်ချောင်း	-10.5252
▁ဘုရားကျောင်း	-10.5254
▁ကောင်းမွန်	-10.5254
▁တဦး	-10.5257
▁ဂုဏ်	-10.5257
တို့သည်လည်း	-10.5261
ဖယ်	-10.5262
▁လက်အောက်ခံ	-10.5269
ခြင်းတို့ကို	-10.5274
▁ပါရှိသည်။	-10.5275
စလုံး	-10.5278
▁ပျူ	-10.5283
ခုံး	-10.5289
နိုင်မှု	-10.5289
▁သမ္မတနိုင်ငံ	-10.5289
▁ငယ်ဘဝ	-10.5293
▁ပေါ်ထွက်လာ	-10.5304
▁မီးလောင်	-10.5307
သန့်	-10.5309
ကြုံ	-10.5312
▁အချင်း	-10.532
▁မီလီယံ	-10.5321
ဘုရားထက်ထက်	-10.5323
▁၁၉၃၇	-10.5327
ခဲ့သည်မှာ	-10.533
▁အစ္စလာမ်	-10.5335
▁ပတ္တမြား	-10.5335
▁စပ်	-10.5344
စ္စ	-10.5345
minor	-10.5346
▁ကာဗွန်	-10.5346
▁လွတ်လပ်သော	-10.5351
တွေ့ရ	-10.5353
အောင်မြင်ခဲ့သည်။	-10.5354
လိန်	-10.536
▁၇။	-10.536
ဟ်	-10.5363
▁ဆင်ပေါင်ဝဲ	-10.5364
▁နီ	-10.5366
နိုင်ရန်အတွက်	-10.5366
▁တန်ခိုး	-10.5367
ရွတ်	-10.5367
▁တော်လှန်	-10.537
ရန်း	-10.5374
▁ကလေးခရိုင်	-10.5384
နော့	-10.5385
ဈေးကွက်	-10.5385
▁ကိုလိုနီ	-10.5387
မင်း၏	-10.539
▁ကျောက်မီးသွေး	-10.539
▁ကြံစည်	-10.5396
ကျော	-10.5406
ကျန်းမာရေး	-10.541
ဖွင့်လှစ်	-10.5411
▁ဝင်ငွေ	-10.5412
ဒဲ	-10.5414
▁ဩစတြေးလျ	-10.5421
ူ	-10.5422
aung	-10.5423
▁ကွန်ယက်	-10.5424
ا	-10.5427
ရသူ	-10.5428
အုံ	-10.5431
မိန်းမ	-10.5432
▁ချန်	-10.5434
▁မှတ်ပုံတင်	-10.5436
ခြင်းမှ	-10.5438
ပွ	-10.5438
ဝန်ထမ်း	-10.5442
▁ညှိနှိုင်း	-10.5442
25	-10.5445
mo	-10.5447
▁အင်္ဂါ	-10.5449
ဠ	-10.5453
▁ကုန်းဘောင်ခေတ်	-10.5454
▁ကိရိယာ	-10.5463
ပိုင်ရှင်	-10.5464
▁ဘုရားရှင်	-10.5474
▁ဓနု	-10.5475
▁အဆုံးသတ်	-10.5477
▁အကြား	-10.5478
▁၆၄	-10.5482
လေ့ရှိ	-10.5484
ပြည်နယ်၊	-10.5484
ပူး	-10.5485
နိုင်ကြောင်း	-10.5486
သိက္ခာပုဒ်	-10.5487
▁အလားတူ	-10.5488
▁ကပြ	-10.549
▁ကြီးကြပ်	-10.5498
▁စသည်	-10.5508
မဖြစ်	-10.5512
တစ်မျိုးဖြစ်သည်။	-10.5514
စပါး	-10.5516
မရှိဘဲ	-10.5517
▁အစိုးရ၏	-10.5518
▁မြေပြင်	-10.5523
▁၁၉၄၄	-10.5533
ဇံ	-10.5534
ရွေးကောက်ပွဲ	-10.5535
▁၁၉၈၂	-10.5535
နွား	-10.5536
“	-10.5536
သိုက်	-10.5543
▁ရှေးက	-10.5545
ဟွေ	-10.5546
age	-10.5547
▁မွေးဖွားသည်။	-10.5548
အစိုးရက	-10.5548
နေဆဲ	-10.5548
▁ဖြန့်ချိ	-10.5548
ရှ်	-10.5549
▁အဓိကအားဖြင့်	-10.5551
ဂျင်	-10.5554
▁ငရဲ	-10.5557
ဝတီ	-10.556
ပုပ်	-10.5564
▁ရင်ဆိုင်	-10.5566
▁ကွယ်လွန်သည်။	-10.5569
▁တေ	-10.5573
▁ကျွမ်းကျင်	-10.5574
▁ဧရာဝတီ	-10.5575
▁ပင်မ	-10.5576
ရှိန်	-10.5579
ဒဏ်	-10.5584
▁တိုကျို	-10.5589
နေသူ	-10.559
ဖြစ်စဉ်	-10.5591
သီလ	-10.5591
အယ်	-10.5593
ကိုင်းရွာ	-10.5595
လုပ်ကိုင်ခဲ့သည်။	-10.5595
▁သင်္ကေတ	-10.5595
▁ဘဝနိဂုံး	-10.5597
▁ဒေါင်း	-10.5602
နိုင်း	-10.5606
နှစ်ပါး	-10.5608
ဖုံး	-10.562
စာရေးဆရာ	-10.5624
▁ကိန်း	-10.5628
▁ဤကဲ့သို့	-10.563
▁အပင်များ	-10.563
ဆွ	-10.5632
မျဉ်း	-10.5633
▁ထုတ်လွှင့်	-10.5638
▁ရုတ်တရက်	-10.564
▁သို့ဖြင့်	-10.5643
▁တံခါး	-10.5646
အီး	-10.5646
ယောက်ျား	-10.5646
▁အဆင့်အတန်း	-10.5649
တတ်၏။	-10.565
များသည်လည်း	-10.5654
ပါဝင်သည့်	-10.5656
ကိုပါ	-10.566
▁စည်းကမ်း	-10.566
တွေမှာ	-10.5661
ဟတ်	-10.5663
စို	-10.5667
▁ကုန်သွယ်ရေး	-10.5667
▁တို့မှ	-10.5667
▁ရိုးရိုး	-10.567
ကိုးကွယ်	-10.568
လိမ်	-10.5681
စေ၍	-10.5687
သဘင်	-10.569
ငါ	-10.5691
▁လမ်းကြောင်း	-10.5692
▁နို့	-10.5692
▁ဝေါမြို့နယ်	-10.5693
▁စာအုပ်များ	-10.5697
▁ဖွင့်	-10.5698
▁နေထိုင်ကြသည်။	-10.5699
▁လူ့အခွင့်အရေး	-10.5701
ထွန်းကား	-10.5706
များနှင့်အတူ	-10.5709
▁၂ဝဝ	-10.5709
တပ်များ	-10.5718
▁`	-10.5719
▁ရေကန်	-10.5719
တ္ထ	-10.572
007	-10.5725
အုတ်	-10.5728
▁ခင်ဦးမြို့နယ်	-10.5728
အမည်ဖြင့်	-10.5732
▁မင်းဘူးမြို့နယ်	-10.5735
မူလ	-10.5747
▁ချီဖွေမြို့နယ်	-10.5748
စီမံ	-10.5748
▁လွန်ခဲ့သော	-10.5752
အပြီးတွင်	-10.5754
▁နိဗ္ဗာန်	-10.5756
တို့လည်း	-10.5766
▁ဆရာဝန်	-10.5769
▁ထိုင်	-10.5775
▁ရတနာပုံ	-10.5776
အဖွဲ့သည်	-10.5782
▁g	-10.5787
▁တစ်စတုရန်း	-10.579
အံ့	-10.5795
ဒေါ့	-10.5797
▁၁၉၄၀	-10.58
21	-10.58
ပြုပြင်ပြောင်းလဲ	-10.5801
▁သရက်မြို့နယ်	-10.5801
▁ဖြစ်သည်	-10.5802
လမ်	-10.5804
▁ရာဇ	-10.5807
▁မွေးမြူ	-10.5808
ate	-10.5809
တွေနဲ့	-10.5815
▁ရှေးဦးစွာ	-10.5816
we	-10.5817
ချက်များကို	-10.5817
▁ဘိန်း	-10.5818
ပျော့	-10.5821
▁အစွဲပြု၍	-10.5823
မှနေ၍	-10.5824
မံ	-10.5827
▁ပညာရှိ	-10.5828
▁သိပ္ပံပညာရှင်	-10.5829
နှင်	-10.583
ခံရခြင်း	-10.5831
▁မူလက	-10.5833
အချိန်တွင်	-10.5834
▁မလေးရှား	-10.5835
ဋ	-10.5837
▁အယူဝါဒ	-10.5838
▁သမဂ္ဂ	-10.584
ကျေး	-10.5841
▁အရည်အသွေး	-10.5847
ကိ	-10.5851
io	-10.5852
no	-10.5856
▁အာရုံ	-10.5856
အမှု	-10.5856
▁ရောက်ရှိခဲ့သည်။	-10.5857
▁အင်္ဂလန်ပြည်	-10.5869
ကီလိုမီတာလျှင်	-10.5872
ရွန်	-10.5875
ပစ္စည်းများကို	-10.5878
▁တောင်ကုန်း	-10.5881
ပိန်း	-10.5882
▁၁ဝဝ	-10.5884
▁ရှည်	-10.5887
▁Mo	-10.5892
▁ဌာနချုပ်	-10.5895
▁ပါရှိ	-10.5898
▁သူက	-10.5899
သူဖြစ်သည်။	-10.5899
▁(;	-10.5904
လူငယ်	-10.5907
▁လက်ပံ	-10.5908
▁အခြေခံဥပဒေ	-10.5909
da	-10.591
အပင်	-10.591
▁အလင်းနှစ်	-10.5911
▁ဘုရင်ခံ	-10.5913
▁၁၉၇၇	-10.5914
▁ဆောင်းပါးများ	-10.5917
သရက်	-10.5919
ပြောက်	-10.5922
တန်းရွာ	-10.5922
▁ထိုအချိန်က	-10.5923
▁မြို့နေလူဦးရေ	-10.5924
မ္မ	-10.5932
ထီ	-10.5934
▁ကာတွန်း	-10.5936
pe	-10.5937
▁ရင်းနှီး	-10.5938
▁ယင်းတို့ကို	-10.5939
03	-10.5943
▁ငယ်စဉ်က	-10.5944
ကူညီ	-10.5957
▁မော	-10.5961
▁လူမျိုးများ	-10.5961
ယပ်	-10.5962
▁ထိခိုက်	-10.5967
ိက	-10.5969
လျား	-10.5972
▁ကြော်ငြာ	-10.5973
လာ၍	-10.5978
ya	-10.5978
▁ထွန်း	-10.5979
ကွေး	-10.5981
▁စွပ်စွဲ	-10.5981
ကြေညာ	-10.5982
▁ဖွဲ့	-10.5988
▁လူဦးရေသိပ်သည်းဆ	-10.5991
▁အရေးပါ	-10.5992
op	-10.5992
ဖြိုး	-10.5995
လမ်းစဉ်	-10.5998
▁ညီလာခံ	-10.5998
လူထု	-10.6001
▁ဖလမ်းခရိုင်	-10.6002
အသီးသီး	-10.6002
ပင်ရွာ	-10.6002
ရော်	-10.6006
ရသဖြင့်	-10.6006
▁အချိန်ကာလ	-10.6007
မြို့ဟောင်း	-10.6009
စစ်ဆင်ရေး	-10.6011
▁ဖောက်	-10.6011
▁ဗြဟ္မာ	-10.6012
▁ကသာမြို့နယ်	-10.6014
▁ညနေ	-10.6016
▁လူနာ	-10.6016
နေရ	-10.6017
များပေါ်တွင်	-10.6022
လျှံ	-10.6022
▁မြေကြီး	-10.6026
co	-10.6027
13	-10.6027
▁ရော	-10.6029
▁ပြတိုက်	-10.603
▁နန်းတက်	-10.603
ား	-10.6031
သမိုင်းတွင်	-10.6032
ယုတ်	-10.6033
▁တည်နေရာ	-10.6036
မှန်း	-10.6036
အတွင်းမှ	-10.6038
ရမည်ဟု	-10.6039
▁ထားဝယ်ခရိုင်၊	-10.6039
▁ကမ်းခြေ	-10.6042
အင်းရွာ	-10.6042
▁အနောက်ပိုင်း	-10.6045
▁၁၉၈၇	-10.6047
ဖြစ်နေ	-10.6047
▁Le	-10.6048
အိုင်ရွာ	-10.605
▁၁၉၃၅	-10.6051
စွမ်း	-10.6053
▁လူတို့၏	-10.6053
ဓာတ်ငွေ့	-10.6055
အဖြစ်လည်းကောင်း၊	-10.6056
▁မြင့်	-10.6064
▁အုပ်ချုပ်မှု	-10.6068
▁၁၉၃၀	-10.6069
ပညာရပ်	-10.607
▁နောင်တွင်	-10.6072
▁ရွှေကျင်	-10.6075
▁၄ဝ	-10.6076
ကွမ်း	-10.6078
vi	-10.6079
▁ကန့်ဘလူခရိုင်	-10.608
▁မြန်မာသက္ကရာဇ်	-10.6082
ဝေဖန်	-10.6084
ဖြင့်သာ	-10.6085
မြောင်	-10.6087
▁တိရစ္ဆာန်များ	-10.609
စတန်	-10.609
▁စိစစ်	-10.609
▁သို့ဖြစ်၍	-10.6098
▁အနေအထား	-10.6098
နေရာမှ	-10.6099
go	-10.6101
မျက်	-10.6105
▁Ga	-10.6105
▁လှည်း	-10.6106
နေတဲ့	-10.6108
တွက်	-10.6116
ဆရာကြီး	-10.6119
▁မီဒီယာ	-10.612
▁ကောင်းကင်	-10.6121
ပေး၍	-10.6123
▁စာကြည့်တိုက်	-10.6127
▁ဗဟိုကော်မတီ	-10.6128
လုံကျေးရွာအုပ်စု	-10.6129
▁တစ်နှစ်လျှင်	-10.6131
နိုင်သဖြင့်	-10.6132
ac	-10.6134
ဘုန်း	-10.6134
16	-10.6135
▁တိုးတက်လာ	-10.6136
▁X	-10.6137
နိုင်ငံသည်	-10.6137
လှုပ်ရှားမှုများ	-10.6139
ကျင့်သုံး	-10.614
▁ကန့်	-10.6142
▁တံဆိပ်	-10.6145
▁ဖြေရှင်း	-10.6146
▁နိုင်ငံခြားသား	-10.6147
ဗုဒ္ဓဘာသာ	-10.6147
ဆန့်ကျင်	-10.6151
လာလေသည်။	-10.6153
▁သတ်ဖြတ်	-10.6156
စေး	-10.6158
▁ဆံပင်	-10.6161
ပြဿနာ	-10.6162
ဆိပ်ကမ်း	-10.6166
▁နယ်ပယ်	-10.6169
ကြည့်ရှု	-10.6169
▁ယင်းငှက်	-10.6169
ပြို	-10.6171
ဆက်သွယ်	-10.6179
တရာ	-10.6179
အဖွဲ့ကို	-10.6179
▁ပုသိမ်	-10.6182
လိမ့်မည်။	-10.6184
▁ကင်	-10.6193
▁ထို့နောက်တွင်	-10.6193
▁ဖြေ	-10.6193
▁10	-10.6193
va	-10.6197
ကာကွယ်	-10.6197
▁အနီရောင်	-10.6198
ment	-10.6199
ဝကျေးရွာအုပ်စု	-10.62
▁ရှေ့နေ	-10.6203
နှင်း	-10.6203
ge	-10.6203
▁ရေတံခွန်	-10.6204
နီးယား	-10.6209
▁သာသနာတော်	-10.6209
သာရွာ	-10.6209
မျိုးဖြစ်သည်။	-10.6212
01	-10.6215
ကွမ်းလုံမြို့နယ်	-10.6216
▁လေ့ကျင့်	-10.6216
▁လောက်	-10.6219
နှစ်သက်	-10.622
ကမ်းခြေ	-10.6221
▁ပြုလုပ်ခဲ့သည်။	-10.6226
ဂ္ဂ	-10.6227
▁တူညီ	-10.6229
တစ်ကောင်	-10.6235
ကျွဲ	-10.6237
▁ဆင်းသက်	-10.6238
11	-10.6238
ဇီး	-10.6239
တည်ရှိသည်။	-10.624
ဘီလူး	-10.624
▁သံဃာ	-10.6248
▁တဆင့်	-10.625
▁ဖောက်လုပ်	-10.6255
စောက်	-10.6255
မကျ	-10.6257
စီရင်	-10.6264
စသည်တို့	-10.6265
ဂဏန်း	-10.6266
ခဲ့ဖူးသည်။	-10.6268
▁ပလက်ဝမြို့နယ်၊	-10.6271
စာရေး	-10.6274
ဗတ်	-10.6275
▁အကြိမ်	-10.6281
▁ထုံး	-10.6282
လိုက်သောအခါ	-10.6282
▁ပို့ဆောင်	-10.6288
ထားတဲ့	-10.629
နှံ	-10.629
ပွဲများ	-10.6291
14	-10.6294
အချို့ကို	-10.6295
ke	-10.6296
ပြဇာတ်	-10.6296
▁လွှတ်	-10.6296
မျက်နှာပြင်	-10.6301
▁လုပ်ငန်းများကို	-10.6302
ဆော့လော်မြို့နယ်	-10.6306
အစိတ်အပိုင်းများ	-10.6311
▁ရွှေဘို	-10.6317
တော့ဘဲ	-10.6324
▁ဖွားမြင်ခဲ့သည်။	-10.6324
ဧက	-10.6325
ကိုယ်စားလှယ်များ	-10.6325
ဆက်ဆံရေး	-10.6327
ဂေါ	-10.6329
▁အခြေ	-10.633
▁စင်	-10.6332
▁အက	-10.6336
သီဆို	-10.6336
▁ပြန်ဆို	-10.6336
▁ဝိုင်း	-10.6337
ak	-10.6337
မို့	-10.6345
▁ပျက်	-10.6349
ကြီးများကို	-10.6352
စံနစ်	-10.6353
ရယူ	-10.6355
ခေတ်တွင်	-10.6356
▁ဝန်ကြီးဌာန၊	-10.6358
▁အဆီ	-10.6361
▁မိတ်ဆွေ	-10.6361
ဆက်လက်	-10.6368
တက်ရောက်	-10.6372
▁မြို့၏	-10.6377
စေသည့်	-10.6377
▁၁၉၄၃	-10.6377
မုန့်	-10.6378
▁နယ်စပ်	-10.6378
▁ကမ္ဘာပေါ်ရှိ	-10.6378
▁မယား	-10.638
တွင်းရှိ	-10.6382
ကာလအတွင်း	-10.6382
ယွန်း	-10.6385
▁လုပ်ကြံ	-10.6385
အကောင်းဆုံး	-10.6387
▁ခေတ်မီ	-10.6388
လူမျိုးတို့သည်	-10.6388
▁သိမ်	-10.6395
▁Nyaung	-10.6398
▁လက္ခဏာ	-10.6402
ဝဂ်	-10.6403
▁ဂလက်ဆီ	-10.6404
▁ပြည်မြို့	-10.6407
▁အဖျား	-10.641
ဖဲ	-10.6412
▁ဆိုတာ	-10.642
▁Li	-10.6421
ညွတ်	-10.6422
▁Ra	-10.6425
▁ဇီးကုန်း	-10.6428
ဝရွာ	-10.6429
တီးဝိုင်း	-10.643
▁အဝတ်	-10.6432
▁မတူ	-10.6433
▁ပထဝီဝင်	-10.6433
တယ်လို့	-10.6437
ဆုကို	-10.6437
ကုတ်	-10.6437
▁စိန့်	-10.6443
▁ဂျူး	-10.6448
▁ကျင်	-10.6448
▁New	-10.6453
▁အတွေးအခေါ်	-10.6455
▁ပါဝင်ပြီး	-10.6455
▁ရပ်တည်	-10.6456
▁ဟောပြော	-10.6461
ခုနစ်	-10.6462
▁တို့နှင့်	-10.6463
▁ဆိပ်ဖြူမြို့နယ်	-10.6466
▁ရောင်း	-10.6468
ပြစ်	-10.6469
▁လယ်ယာမြေ	-10.647
▁ရောနှော	-10.6472
ဟီး	-10.6475
ဘင်	-10.6477
▁အလံ	-10.6477
ဂု	-10.6483
▁ကိုက်	-10.6484
ာက်	-10.6485
▁ဟောကြား	-10.6487
▁တိ	-10.6489
ရှိနေ	-10.6489
▁ချက်ချင်း	-10.6494
▁ပုဒ်မခွဲ	-10.6496
▁အစ္စရေး	-10.6499
ဘုန်းကြီးကျောင်း	-10.65
em	-10.65
▁ဆုံးဖြတ်ချက်	-10.65
▁အတ္ထုပ္ပတ္တိ	-10.6502
သာသနာ	-10.6504
ချည်း	-10.6509
ကမ္ဘာ့	-10.651
▁၉၀	-10.651
one	-10.6511
▁အမှုဆောင်	-10.6511
▁ပြည်သူလူထု	-10.6513
▁၁၉၂၃	-10.652
▁အရှည်	-10.652
▁ပါးစပ်	-10.6521
▁လောင်	-10.6528
▁လျှပ်စစ်ဓာတ်	-10.6531
▁ဝါဒ	-10.6532
လှူ	-10.6533
▁မြွေ	-10.6534
▁တည်ဆောက်ခဲ့သည်။	-10.6535
22	-10.6535
ဌေး	-10.6536
ယွန်	-10.6538
သွားလေသည်။	-10.6539
▁အစောဆုံး	-10.6539
be	-10.6541
▁၁၉၂၀	-10.6545
မျိုးတွင်	-10.6547
ပေါ်မှ	-10.6547
ဘောလုံး	-10.6547
ဆုတ်	-10.6552
ut	-10.6552
နိုင်မည်	-10.6554
စောင်	-10.6554
12	-10.6555
26	-10.6555
ခန်	-10.6557
ဘူး။	-10.6559
တည့်	-10.656
▁ဆိပ်ကမ်း	-10.6569
▁အစည်းအရုံး	-10.657
လင့်	-10.657
▁ဘီး	-10.657
▁နုတ်ထွက်	-10.657
▁လွတ်	-10.6573
ရာခိုင်နှုန်း	-10.6574
▁ပြေး	-10.6575
▁အိမ်ထောင်	-10.6579
▁တီးတိန်မြို့နယ်	-10.6582
ဆိုသော်	-10.6583
ဟင်	-10.6585
ရောင်ခြည်	-10.6586
▁ပင်းတယမြို့နယ်	-10.6587
▁ဓာတ်ပုံ	-10.6588
လွတ်လပ်ရေး	-10.659
နှစ်ယောက်	-10.659
▁ပိုင်ဆိုင်	-10.6599
သူမှာ	-10.6601
ဗင်	-10.6602
▁ထန်းတပင်	-10.6602
ies	-10.6605
ဆွန်	-10.6607
▁ကန်ပက်လက်	-10.6609
▁အီတလီနိုင်ငံ	-10.661
▁ခမိ	-10.6612
ဗန်	-10.6613
တက္ကသိုလ်မှ	-10.6613
ထည့်သွင်း	-10.6614
ျ	-10.6616
ကက်	-10.6618
▁အခမဲ့	-10.6621
▁ရခိုင်ပြည်နယ်	-10.6622
ပွတ်	-10.6625
▁အမည်ကို	-10.6628
▁မင်	-10.6629
▁၈။	-10.6634
▁ရေကြောင်း	-10.6639
ကျိုင်းရွာ	-10.6639
ပညာကို	-10.6639
အပေါ်တွင်	-10.6642
မီတာ	-10.6643
မြန်မာနိုင်ငံရှိ	-10.6645
▁အကျယ်အဝန်း	-10.6647
ခဲ့ရာမှ	-10.6648
▁သဲဖြူ	-10.6648
ခဲ့သောကြောင့်	-10.6652
▁မြို့တစ်မြို့	-10.6654
မြင်းခြံမြို့နယ်	-10.6655
▁လွယ်ကူ	-10.6656
ဟူး	-10.6658
သိရှိ	-10.6658
▁၁၉၂၄	-10.6662
▁ဟောင်ကောင်	-10.6662
▁ရှောင်	-10.6665
▁အချက်အလက်များ	-10.6667
as	-10.6673
▁စကားပြော	-10.6677
▁အမေရိကန်ဒေါ်လာ	-10.6678
▁ဂရီဂေါရီးယန်း	-10.668
တော်မူသော	-10.6682
▁ပိုင်	-10.6682
▁ဗကပ	-10.6686
▁အကြောင်းကို	-10.6687
အန္တရာယ်	-10.6687
ဝေါ	-10.669
ဒင်း	-10.6691
သာကျေးရွာအုပ်စု	-10.6691
▁ရဲ့	-10.6696
▁ထိုဒေသ	-10.67
▁သန်းခေါင်စာရင်း	-10.6701
▁လှိုင်း	-10.6701
သိုင်း	-10.6701
▁သော်လည်း	-10.6702
▁Mi	-10.6703
▁ယခုအခါတွင်	-10.6703
▁ရုရှ	-10.6705
▁နက်	-10.6705
ယှဉ်ပြိုင်	-10.6706
▁သခင်သန်းထွန်း	-10.6707
▁ရုပ်ပွားတော်	-10.6707
▁ပျံလွန်တော်မူ	-10.671
▁Ha	-10.6712
02	-10.672
▁ပိုင်း	-10.672
ပုံသဏ္ဌာန်	-10.6721
ကောင်းသော	-10.6721
▁နှင်း	-10.6722
နုတ်	-10.6726
တို့ကြောင့်	-10.6727
▁မရ	-10.6727
ခွ	-10.6728
ပိုမို	-10.6728
▁မြိတ်မြို့နယ်	-10.673
▁၎င်းတို့သည်	-10.6736
အလို	-10.6737
နိုင်သည်ဟု	-10.6738
▁ယူဆကြသည်။	-10.674
သတ္တဝါ	-10.6742
▁စည်	-10.6747
စကားလုံး	-10.6753
ကြီးမား	-10.6756
▁ဓာတု	-10.6765
▁၁၉၁၈	-10.6765
ကေး	-10.6765
ယုံ	-10.6768
ပြီးနောက်တွင်	-10.6775
▁တောင်ပေါ်	-10.6778
▁သားရေ	-10.678
နူး	-10.6785
သစ္စာ	-10.6788
▁ရှိ၍	-10.6791
▁ဂျေ	-10.6792
▁စီးပွား	-10.6795
▁အိမ်ခြေ	-10.6798
▁ဒိုင်	-10.6799
▁ပျား	-10.6799
▁စဉ့်ကူးမြို့နယ်	-10.6802
များအကြား	-10.6804
ခဲ့ရလေသည်။	-10.6807
သူကို	-10.681
17	-10.6812
ဖြာ	-10.6814
▁ရှု	-10.6815
စင်တာ	-10.6819
ခွင့်ရ	-10.682
▁ပင်လယ်ရေ	-10.6822
ပေးပြီး	-10.6827
▁လိင်	-10.6828
ပြီးသည့်နောက်	-10.6829
ကာတွန်း	-10.683
▁ဣ	-10.6832
ယင်	-10.6833
▁ဆဲ	-10.6835
▁ပညာရပ်	-10.6836
▁ထောင့်	-10.6837
▁၎င်းတို့မှာ	-10.6837
နည်းကို	-10.6842
အများ	-10.6844
▁အတိအကျ	-10.6847
နိုင်သည်	-10.6848
အဖွဲ့က	-10.685
▁အမှန်	-10.6851
ဘာသာဖြင့်	-10.6857
▁တရားမဝင်	-10.6857
အက	-10.6858
▁စက်မှုလုပ်ငန်း	-10.6858
▁တူး	-10.686
▁သမိုင်းဝင်	-10.6861
▁ထိုပြင်	-10.6862
▁နှစ်ဦး	-10.6863
▁အလင်းရောင်	-10.6865
▁အနီး	-10.6868
▁ကဏ္ဍ	-10.6869
လိမ့်မည်	-10.6869
တစ်ဦးဖြစ်သည်။	-10.6871
▁လူတိုင်း	-10.6872
▁ကိုင်	-10.6875
▁တတိယမြောက်	-10.6878
▁ဗန်းမော်	-10.6878
ကွဲပြား	-10.6878
ရ၍	-10.688
▁၅၉	-10.6881
ဝန်ဆောင်မှု	-10.6881
အဆုံး	-10.6883
▁ကြည်	-10.6891
များကိုသာ	-10.6892
▁ခေတ္တ	-10.6894
▁မတ်လတွင်	-10.6901
ဆတ်	-10.6902
ညွှန်ကြားရေးမှူး	-10.6906
▁နည်းပါး	-10.6908
▁(2)	-10.691
▁မြင့်မား	-10.691
မြို့နှင့်	-10.6917
မှုမှာ	-10.6917
တွေ့ရသည်။	-10.6919
▁အခု	-10.6919
▁ရှိသည့်	-10.6922
ချယ်	-10.6924
▁ခိုး	-10.6925
▁လှ	-10.6926
ပြက္ခဒိန်အရ	-10.6926
ဖျက်ဆီး	-10.6934
ပြီ။	-10.6935
သူတို့၏	-10.6939
▁အီး	-10.6939
▁ကြယ်စုတန်းမှ	-10.6943
able	-10.6944
ဒုက္ခ	-10.6947
အစည်းအဝေး	-10.6954
20	-10.6962
▁စင်း	-10.6965
▁ဦးတည်	-10.6966
စန်း	-10.6966
▁၅၀၀	-10.6966
ပေါ်ပေါက်	-10.6971
▁(1)	-10.6977
မာန်	-10.6977
ဘာသာရပ်	-10.6978
လေယာဉ်	-10.6986
ဒုံ	-10.6986
ကျွန်းဆွယ်	-10.6988
မျိုးစိတ်	-10.6988
ဘွဲ့ခံ	-10.6989
▁ဒီဇိုင်း	-10.6991
▁လူသိများ	-10.6992
▁သူရဲကောင်း	-10.6993
hi	-10.6994
▁ကျီး	-10.6995
▁အဖွဲ့ချုပ်	-10.6999
ist	-10.7
သူများအား	-10.7001
သွားရာ	-10.7003
▁ဂို	-10.7003
▁၅၄	-10.7004
▁ဦးအောင်	-10.7009
ခဲ့သေးသည်။	-10.7009
▁စီရင်	-10.701
▁ဆေးဝါး	-10.701
▁ဆောင်း	-10.7011
သစ်များ	-10.7014
အသွင်	-10.7014
တ္တာ	-10.7015
▁ထုတ်ယူ	-10.7015
ခွာ	-10.7015
အခွင့်အရေး	-10.7015
▁Na	-10.7021
သင့်သည်။	-10.7023
▁လင်္ကာ	-10.7025
▁ထို့	-10.7026
ကြရန်	-10.703
သေဆုံး	-10.7032
လို့၊	-10.7041
သူများ၏	-10.7043
▁ထီးချိုင့်	-10.7045
တိမ်း	-10.7046
ဒေဝီ	-10.705
ခွင့်ပြု	-10.705
▁ဆန္ဒ	-10.7052
▁ထုတ်လုပ်မှု	-10.7056
▁မိုးကုတ်	-10.7057
▁ကျွန်ုပ်တို့	-10.7064
os	-10.7072
ဂျပန်	-10.7074
▁လိုက်ပါ	-10.7076
အမတ်	-10.7076
▁ရရှိသော	-10.7076
▁သင်တန်း	-10.708
▁ဒိုင်း	-10.7084
တယ်၊	-10.7085
▁၎င်းရွာ	-10.7087
ပေးခြင်း၊	-10.7093
▁နမ့်ဆန်မြို့နယ်	-10.7094
04	-10.7095
များအတွင်း	-10.7095
▁အောက်ဆီဂျင်	-10.7098
ဦးရေ	-10.7099
▁ပြောပြ	-10.7104
လုပ်ငန်း၊	-10.7104
▁လဲ	-10.7105
05	-10.7107
နပ်	-10.7108
ခဲ့ပြန်သည်။	-10.711
▁တူးမြောင်း	-10.711
▁ဘုရားသခင်	-10.7111
▁အဖြူ	-10.7113
▁ခရီးသည်	-10.7114
▁ဖလမ်းမြို့နယ်	-10.7114
▁အဆုံး	-10.7119
▁အချစ်	-10.7121
ဟုတ်	-10.7125
ကျွန်းလှမြို့နယ်	-10.7125
▁မုံရွာမြို့နယ်	-10.7127
ဆော	-10.7129
▁ယင်းအား	-10.7131
အမည်မှာ	-10.7131
▁ကားလမ်း	-10.7134
mi	-10.7138
▁မည်မျှ	-10.7139
ဆိုသော	-10.7139
▁ဘော်	-10.7139
▁မျက်လုံး	-10.7139
ဓား	-10.7144
ā	-10.7144
▁သဘောတရား	-10.715
တစ်နှစ်တာ	-10.7151
▁ခေါ်သော	-10.7151
ကောင်းမွန်	-10.7154
အတတ်	-10.7155
ပင်ကျေးရွာအုပ်စု	-10.7155
▁ဖိုင်	-10.7156
▁နိုင်ငံရေးသမား	-10.7158
သူတစ်ဦး	-10.7162
ကျရောက်	-10.7165
ပေါင်းစုံ	-10.7165
▁နောက်ခံ	-10.7165
ပူးပေါင်း	-10.7168
အမိန့်	-10.7169
▁လွှမ်းမိုးမှု	-10.7169
▁ပေါ်တူဂီ	-10.717
▁ချောင်းဆုံ	-10.7171
▁ပေါ်တွင်	-10.7172
အင်းတော်မြို့နယ်	-10.7173
▁ဘဏ္ဍာရေး	-10.7176
▁လော	-10.7178
▁အချို့မှာ	-10.7179
ချမ်း	-10.7182
▁ကိုယ်ခန္ဓာ	-10.7183
▁တဖန်	-10.7184
013	-10.7185
▁ခက်ခဲ	-10.7191
35	-10.7193
▁w	-10.7194
▁လူများ	-10.7195
ကိုလည်းကောင်း	-10.7196
လေ့ရှိသော	-10.7204
ie	-10.7205
▁ပေါ	-10.7219
စွယ်	-10.7223
▁အမှန်တကယ်	-10.7225
ဇို	-10.7226
▁ကု	-10.7227
ချဉ်	-10.7229
အဖို့	-10.7229
▁San	-10.723
▁ဂျာနယ်	-10.723
▁ကျိုက်	-10.7233
▁ပုံမှန်အားဖြင့်	-10.7235
မှုများကြောင့်	-10.7237
ရေတံခွန်	-10.724
▁ဖွားမြင်	-10.7243
▁m	-10.7252
▁ဘုရားကြီး	-10.7254
▁ရုပ်မြင်သံကြား	-10.7259
ကြီးက	-10.7261
ွ	-10.7261
ထွေ	-10.7261
▁လော့	-10.7262
ဖြစ်ပါတယ်။	-10.7264
ဂျက်	-10.7267
▁ကျူးကျော်	-10.7267
ni	-10.7267
▁အဝေး	-10.7269
▁သောင်းကျန်းသူ	-10.7269
▁၆၉	-10.7271
▁ကျင့်	-10.7273
▁ပထမဆုံးသော	-10.7273
ဘေ	-10.7274
ရှင်းလင်း	-10.7275
မှလည်း	-10.7279
▁သယံဇာတနှင့်	-10.7279
▁ဗိသုကာ	-10.728
မုန်း	-10.728
့်	-10.728
▁ကယ်လီဖိုးနီးယား	-10.7281
ပွဲတွင်	-10.7284
နေကြောင်း	-10.7286
▁အထောက်အပံ့	-10.7286
▁စက်တင်ဘာလတွင်	-10.7289
▁ငါတို့	-10.7289
▁ဟောကြားတော်မူ	-10.7289
▁ကလေးဝမြို့နယ်	-10.7296
▁၃၀၀	-10.7296
လွှမ်းမိုး	-10.7299
▁ကျယ်ပြန့်	-10.7299
▁မဖြစ်	-10.73
▁ဒြပ်စင်	-10.7302
▁၆၇	-10.7305
မြောက်ဘက်	-10.7311
လာသဖြင့်	-10.7313
30	-10.7315
▁ဦးနု	-10.7316
▁ကွမ်	-10.7316
▁စတင်တည်ထောင်	-10.7316
pa	-10.7318
သွားလာ	-10.7321
▁ချိတ်ဆက်	-10.7322
ညီနောင်	-10.7325
100	-10.7326
နယ်တွင်	-10.7327
gyi	-10.7327
▁ယနေ့တိုင်	-10.7329
▁စည်း	-10.733
▁အသုံးပြုခဲ့သည်။	-10.7331
▁ထူးခြား	-10.7332
▁အဘယ်ကြောင့်ဆို	-10.7332
ကျက်	-10.7333
▁၁၉၂၇	-10.7335
▁သရ	-10.7337
မဟုတ်သော	-10.7339
ပင်လျှင်	-10.735
အလင်း	-10.7352
နိုင်မည့်	-10.7353
012	-10.7353
▁ပေါ်လာ	-10.7353
▁၁၉၂၂	-10.7359
▁ဩဇာ	-10.7359
bi	-10.736
▁ပေါက်ကွဲ	-10.7363
ub	-10.7367
ဂါး	-10.7368
▁လေယာဉ်ပျံ	-10.7369
▁များနှင့်	-10.737
အတွင်းရေးမှူး	-10.737
▁လက်မှတ်	-10.7371
လုံးကို	-10.7373
▁ချောင်းဦး	-10.7374
▁အခေါက်	-10.7375
▁အထောက်အထား	-10.7381
▁are	-10.7382
▁စိတ်ဝင်စား	-10.7382
ရိုက်ကူး	-10.7385
▁Bu	-10.7389
▁အနံ့	-10.7394
ကချင်	-10.7399
▁သတ်မှတ်ထားသော	-10.74
လောက်တွင်	-10.7404
အဆိုတော်	-10.7404
▁အများစုမှာ	-10.7405
ချီး	-10.7405
▁သော်	-10.7408
▁အသုံးပြုသူ	-10.7408
▁ဘုရင့်နောင်	-10.7409
▁နှစ်အရွယ်	-10.7412
ကူးသန်းရောင်းဝယ်	-10.7413
အင်ဂျင်နီယာ	-10.7414
▁အမရပူရမြို့နယ်	-10.7415
မည်း	-10.7419
အစိုးရအဖွဲ့	-10.742
▁Yar	-10.742
နည်းပညာတက္ကသိုလ်	-10.7424
▁တောရိုင်းတိရ	-10.7425
တစ်ခု၏	-10.7425
▁၁၉၂၈	-10.7427
▁သန့်ရှင်း	-10.7429
အက်စ်	-10.7429
ထား၏။	-10.7433
▁အတွဲ	-10.7435
▁အကြံ	-10.7436
▁Se	-10.744
မှော်	-10.7441
နည်းလမ်း	-10.7443
▁ပုန်ကန်	-10.7443
▁ကလောင်	-10.7446
▁သရုပ်ဖော်	-10.7451
▁၁၀၀၀	-10.7454
တလျှောက်	-10.7455
▁ပွဲတော်	-10.7455
ဲ	-10.7456
ဘီစီ	-10.7457
▁မုန်တိုင်း	-10.7462
▁အောက်တွင်	-10.7463
ညှင်း	-10.7467
▁တစ်နေ့	-10.7472
▁စင်စစ်	-10.748
တဦး	-10.7484
ပေါင်းစပ်	-10.7487
East	-10.7487
▁ကချင်ပြည်နယ်	-10.7491
▁အမျိုးမျိုးသော	-10.7492
▁စာလုံး	-10.7494
▁မိမိကိုယ်ကို	-10.7499
ی	-10.75
ကြခြင်း	-10.7501
▁ခံရ	-10.7502
ခြင်းတို့ကြောင့်	-10.7504
ချောက်	-10.7508
▁ရှင်သန်	-10.7514
om	-10.7524
▁ထိုအချိန်	-10.7525
▁ရေဖြူမြို့နယ်	-10.7527
အထက်တန်းကျောင်း	-10.7528
▁ပူတာအိုမြို့နယ်	-10.754
▁နတ်ရွာစံ	-10.754
▁ဆက်လက်၍	-10.7541
▁တင်ပို့	-10.7542
▁ဖြစ်စေ၊	-10.7544
ဖီး	-10.7546
▁အခက်အခဲ	-10.7548
▁တခြား	-10.7548
▁အကြီးအကဲ	-10.7549
▁Aung	-10.7554
စွန်	-10.7558
ဒီဂရီ	-10.7558
တိမ်	-10.7559
▁အများစု	-10.756
ပွဲကို	-10.7564
23	-10.7567
မြှင့်	-10.7567
ဟေ	-10.7572
ဖော်ထုတ်	-10.7572
▁ရှင်းလင်းချက်	-10.7572
ကုံး	-10.7578
▁အချိန်ဇုန်	-10.7579
▁Da	-10.7583
စေကာမူ	-10.7584
▁တံခွန်တိုင်	-10.7584
▁စာမေးပွဲ	-10.7585
▁ညီတော်	-10.7592
▁အခမ်းအနား	-10.7594
နားလည်	-10.7598
di	-10.76
▁အဘယ်	-10.7603
▁မိုးညှင်းခရိုင်	-10.7606
▁အတွင်းတွင်	-10.7607
▁ခန်း	-10.761
၁၀၀	-10.7614
▁မြက်	-10.762
▁အကွာတွင်	-10.7624
ကြော်	-10.7624
▁မြန်မာနိုင်ငံ၌	-10.7626
▁ချို	-10.7627
▁ဂေါ်	-10.7627
▁ဒေသဆိုင်ရာ	-10.7628
way	-10.7629
ကုသ	-10.7631
▁တရုတ်ပြည်သူ့	-10.7633
yun	-10.7633
▁ဟူသည့်	-10.7636
▁သိမ်း	-10.7636
မျှင်	-10.7638
▁နယူး	-10.7638
သေးသော	-10.7639
▁ကတ်	-10.7644
bo	-10.7645
ဘွဲ့ကို	-10.7648
▁လျှပ်စစ်ဓာတ်အား	-10.7648
ထူထောင်	-10.7649
▁မေးမြန်း	-10.7652
▁လာအို	-10.7656
တစ်ဦးဖြစ်ပြီး	-10.7659
စုစည်း	-10.7665
▁အီဂျစ်နိုင်ငံ	-10.7669
▁ကုန်စည်	-10.767
တစ်ထောင်	-10.7675
▁ဒေ	-10.7676
▁Ho	-10.7676
▁ဘုန်းကြီး	-10.7677
▁အသည်း	-10.7677
ကျွန်	-10.7679
▁လက်နက်ချ	-10.768
auk	-10.768
▁ဟုခေါ်သော	-10.7682
နည်းပါး	-10.7684
ပြုခြင်း	-10.7685
ညီလာခံ	-10.7687
31	-10.7697
ရှေးဟောင်းသုတေသန	-10.7697
▁ပြည်တွင်းစစ်	-10.77
တို့နှင့်အတူ	-10.7701
ပို၍	-10.7703
အဆောက်အအုံ	-10.7705
▁ပြည်သူများ	-10.7707
▁ဖြစ်သွားသည်။	-10.771
▁ဂျို	-10.7714
▁သစ်တောများ	-10.7717
▁ပိုက်	-10.7718
သုံးသပ်	-10.7719
မခံ	-10.7719
ခဲ့တယ်။	-10.7719
▁ရွာသစ်	-10.772
သပြေ	-10.772
့စ်	-10.772
ခဲ့ဖူး	-10.7723
ဒါယကထေရ်	-10.7724
▁၉။	-10.7726
▁ပစ်ခတ်	-10.7728
ဌာနချုပ်	-10.773
▁အရာဝတ္ထု	-10.773
▁ပေါက်တော	-10.7733
▁စိတ်ကူး	-10.7733
ငွေ့	-10.7734
▁ပရိုဂရမ်	-10.7735
ခေါ်ဝေါ်	-10.7739
ဲ့	-10.7741
နိုင်စေရန်	-10.7743
သုတေသန	-10.7747
စားသောက်	-10.775
▁ဝေး	-10.7755
▁၆၅	-10.7756
သို့ရောက်	-10.7758
မကောင်း	-10.7759
▁ပြည့်နှစ်၊	-10.776
ခဲ့ပြီး၊	-10.7763
▁တီးခတ်	-10.7764
ခြင်းမရှိ	-10.7765
▁အာဆီယံ	-10.7767
▁အဘိဓာန်	-10.7768
စွာဖြင့်	-10.7769
▁မော်တော်ယာဉ်	-10.777
▁ဆောင်ရွက်သည်။	-10.7772
စာအုပ်များ	-10.7772
▁ရီ	-10.7774
▁သမင်	-10.7779
▁at	-10.7779
ဖောင်	-10.778
သူအား	-10.7782
မှုန်	-10.7784
▁ရှိသေးသည်။	-10.7786
29	-10.7786
▁သီပေါမင်း	-10.7789
▁ဂယ်လက်ဆီ	-10.7793
များကလည်း	-10.7793
▁တပ်မဟာ	-10.7794
ism	-10.7798
▁တရားရုံး	-10.7798
ကြိုးစား	-10.7809
▁ဗြိတိသျှတို့	-10.781
လီး	-10.7812
▁သဖြင့်	-10.7814
သစ်တောဦးစီးဌာနမှ	-10.7818
နိုင်သော်လည်း	-10.7819
▁ပျော်	-10.7822
နေသဖြင့်	-10.7823
est	-10.7824
ဆုပ်	-10.7825
▁မူပိုင်ခွင့်	-10.7827
▁သံတမန်	-10.7831
▁အနောက်မြောက်	-10.7832
တပ်ရင်း	-10.7836
ထားသည်ကို	-10.7837
▁ရဟန်းတော်များ	-10.784
▁လူကြီး	-10.7841
19	-10.7842
ig	-10.7842
ငါးပါး	-10.7842
▁ပထမဆုံးအကြိမ်	-10.7844
ကျီး	-10.7844
▁တွေ့နိုင်သည်။	-10.7844
ကွန်ပျူတာ	-10.7846
ငို	-10.7848
တစ်ဖက်	-10.785
မတိုင်မီ	-10.785
▁မက္ကဆီကို	-10.7851
▁ဒေသတွင်း	-10.7853
နေရာကို	-10.7856
▁ယမ်း	-10.7856
▁ရှောက်	-10.7857
ယူ၍	-10.7857
▁ခေါ်ယူ	-10.7858
ချေး	-10.7858
▁ဘုရားရှိခိုး	-10.7862
▁ထူး	-10.7863
လူမျိုးတို့	-10.787
▁ဖက်ဒရယ်	-10.7871
▁သီဟိုဠ်	-10.7872
▁ထိပ်တန်း	-10.7877
ခပ်	-10.7877
▁အမြောက်	-10.7878
▁ဆောမြို့နယ်	-10.7878
▁Be	-10.7879
ငလျင်	-10.7881
▁ဖျက်သိမ်း	-10.7887
▁မဟုတ်ဘဲ	-10.7888
ite	-10.7891
ထောက်ပံ့	-10.7893
▁သင်ကြားပေး	-10.7898
▁မှို	-10.7901
▁ကာကွယ်ထားသည့်	-10.7901
တစ်စင်း	-10.7902
▁အနောက်နိုင်ငံ	-10.7902
ရေးအဖွဲ့	-10.7903
▁အောက်ခြေ	-10.7903
ကိုယ်ပိုင်	-10.7906
▁၁၉၁၁	-10.7908
=76	-10.7908
ဦးဆောင်	-10.7909
▁ပြီးစီး	-10.7909
သုံးပါး	-10.791
▁ကျောက်တန်း	-10.7911
▁ရသေ့	-10.7911
▁သိုး	-10.7915
တင်သွင်း	-10.7915
န္တ	-10.7924
▁အဖိုးတန်	-10.7928
▁အတိုကောက်	-10.793
တစ်ခုတည်း	-10.7938
▁ကွယ်လွန်ချိန်	-10.7939
ဒမ်	-10.7942
▁လူဦးရေမှာ	-10.7942
ထိန်းသိမ်းရေး	-10.7943
ah	-10.7944
ပဲ့	-10.7945
ကြည့်လျှင်	-10.7948
▁တွေ့မြင်	-10.795
▁Si	-10.795
▁Ku	-10.7953
Dagon	-10.7954
တစ်ကြိမ်	-10.7955
▁စော်ဘွား	-10.7958
ပွန်	-10.7961
ဟုခေါ်သော	-10.7967
▁တောင်သူလယ်သမား	-10.7968
ကြိတ်	-10.7971
သူ့	-10.7974
▁ဗဟုသုတ	-10.7977
▁ဆုံး	-10.7978
▁Myoth	-10.7979
▁မြို့ဟောင်း	-10.7981
▁ကြေးနီ	-10.7981
ယန်ရွာ	-10.7983
မင်းသည်	-10.7985
ပြုတ်	-10.7987
▁ပြောကြားခဲ့သည်။	-10.7996
▁လေးစား	-10.7999
ရာဇ	-10.8004
▁စေတုတ္ထရာ	-10.8004
မည့်အန္တရာယ်ရှိသ	-10.8004
ဆော့	-10.8006
▁Mar	-10.8007
▁၁၉၂၉	-10.8009
▁၁၉၂၁	-10.8009
▁လူတို့သည်	-10.8011
▁ချည်	-10.8013
အမည်ကို	-10.8013
▁၁၉၁၇	-10.8015
နေခဲ့သည်။	-10.8018
စာရင်းတွင်	-10.8019
များစွာကို	-10.8023
▁နိုင်ငံခြားရေး	-10.8023
▁နာဂကိုယ်ပိုင်	-10.8025
▁မရမ်း	-10.8029
သမားများ	-10.8031
▁ဘုတ်ပြင်း	-10.8031
အားကစား	-10.8031
အရည်	-10.8034
▁လားရှိုး	-10.8036
ျိုးဆက်ပျက်သုဉ်း	-10.8036
▁ကွဲပြားခြားနား	-10.8037
▁စိုး	-10.804
▁အတိုင်းအတာ	-10.804
အစာ	-10.8043
▁ဖရူဆိုမြို့နယ်	-10.8043
▁ဂျက်	-10.8044
ဧ	-10.8045
အိန္ဒိယ	-10.805
ညင်း	-10.8055
▁သက်တော်	-10.8058
ချွတ်	-10.8058
▁၁၈၈၅	-10.8058
▁စစ်မှုထမ်း	-10.8058
▁ဘဲ	-10.8061
ခေါင်းဆောင်များ	-10.8062
ဇု	-10.8062
သဘောတရား	-10.8062
တွယ်	-10.8065
အရှေ့ပိုင်း	-10.8068
▁ဂျုံ	-10.8071
▁၁၉၂၅	-10.8074
▁ဂဏန်း	-10.8077
▁အဆောက်အအုံများ	-10.8078
လူမျိုးတို့၏	-10.8079
▁ကျက်စား	-10.8079
▁အဆက်အသွယ်	-10.8079
န္ဒ	-10.8079
▁ဖွံ့ဖြိုးရေး	-10.808
▁ထင်ရှားသည့်	-10.8083
နိုင်ကြ	-10.8084
ယှဉ်	-10.8084
မ္	-10.8085
စုတ်	-10.8087
စ္ဆာန်များအဖြစ်	-10.8088
ပါတ်	-10.8089
▁ကုန်ဆုံးရန်	-10.8093
▁ရစ်	-10.8093
▁ဖြစ်နိုင်သည်။	-10.8093
the	-10.8094
▁အာကာသယာဉ်	-10.8102
လှပေသည်။	-10.8102
▁ဆုံးရှုံး	-10.8108
▁ညောင်ပင်သာ	-10.811
▁နိုင်ငံရေးပါတီ	-10.8115
▁ဖယ်ရှား	-10.8116
တရားရုံး	-10.8119
▁ဆက်ဆံ	-10.8123
▁အကျိုးသက်ရောက်	-10.8125
မွေးဖွား	-10.8126
အလံ	-10.8128
▁ဒေါ်ခင်	-10.8131
06	-10.8132
▁စက်မှုလက်မှု	-10.8132
ထားခဲ့သည်။	-10.8136
▁အလှ	-10.8137
ထုံ	-10.8138
ထန်း	-10.8139
▁စုံစမ်း	-10.814
▁ယူနက်စကို	-10.8141
▁လယ်ယာစိုက်ပျိုး	-10.8143
▁Di	-10.8144
တစ်နှစ်တာ၏	-10.8148
▁မြို့ရိုး	-10.8152
လာခဲ့	-10.8152
ပေးပို့	-10.8152
▁၁၉၁၉	-10.8157
ကြွေ	-10.8158
ဆင်းရဲ	-10.816
▁ဖွံ့ဖြိုး	-10.8162
စိုင်း	-10.8162
တွေရဲ့	-10.8164
▁မြန်မာတို့	-10.8167
ဒယ်	-10.8168
▁ဂန့်ဂေါမြို့နယ်	-10.8174
ပြန့်	-10.8175
▁၆ဝ	-10.8178
▁ဖော်ပြခဲ့သည်။	-10.8181
ip	-10.8184
▁အသိ	-10.8184
▁ခန့်မှန်းခြေ	-10.8191
ဒတ်	-10.8194
▁မောင်းနှင်	-10.8199
အကျင့်	-10.82
နောက်ဆုံး	-10.8203
မြူ	-10.8204
bs	-10.8206
[	-10.8207
လာရာ	-10.8208
▁ကျုံး	-10.8211
▁၅၃	-10.8213
▁Ya	-10.8215
▁အချိန်တွင်	-10.8218
▁ပြောင်းရွေ့	-10.8223
▁နိုင်ငံသား	-10.8223
▁e	-10.8224
=87	-10.8224
ဟူ၍လည်း	-10.8225
စေနိုင်သည်။	-10.823
▁ဒီလို	-10.8231
မျိုးသည်	-10.8232
ချောင်ရွာ	-10.8233
▁သိပ္ပံပညာ	-10.8236
နှီးမြှုပ်နှံမှု	-10.8238
ပြဋ္ဌာန်း	-10.8245
▁တစ်ခုတည်းသော	-10.8245
သင်္ကေတ	-10.825
008	-10.825
▁အလုပ်အကိုင်	-10.825
▁War	-10.8253
▁ဂါ	-10.8253
▁သူရိယ	-10.8253
▁အဆောက်အဦ	-10.8254
▁ဘား	-10.8254
ကျိုင်း	-10.8254
သူအဖြစ်	-10.8255
▁အိုလံပစ်	-10.8257
▁သီအိုရီ	-10.826
တစ်ခုခု	-10.826
▁လမ်းစဉ်	-10.8261
▁မံ	-10.8263
▁သေချာ	-10.8263
ခူ	-10.8264
▁ဖြစ်ရပ်	-10.8265
မျိုးဆက်	-10.8265
▁အင်္ဂလိပ်စာ	-10.8266
▁အာမခံ	-10.8268
ပါရှိသည်။	-10.8269
▁တားမြစ်	-10.8271
▁မြန်မာလူမျိုး	-10.8276
ဖွံ့ဖြိုး	-10.8277
မြို့သစ်မြို့နယ်	-10.8278
▁ဖွား	-10.8279
သိုး	-10.8279
ဂရက်	-10.828
▁မချမ်းဘော	-10.828
ယောင်း	-10.828
နှင့်ဆိုင်သော	-10.8284
ပေးအပ်	-10.8287
တွင်သာ	-10.8291
▁ဥက္ကဋ္ဌအဖြစ်	-10.8296
ရုပ်တု	-10.8296
▁လူကြိုက်များ	-10.8298
▁အရွယ်တွင်	-10.8304
▁အဆုတ်	-10.8307
tha	-10.8311
ca	-10.8313
ရာ၏။	-10.8313
လောကတွင်	-10.8314
မြုပ်	-10.8316
လိုက်နာ	-10.8318
ဇ္ဇ	-10.8319
▁ဘိုးတော်ဘုရား	-10.8321
▁ဒသမ	-10.8323
စိ	-10.8323
ဟိုင်း	-10.8323
▁အနီ	-10.8326
▁ဝေဒနာ	-10.8326
မြီး	-10.8327
▁ပြား	-10.8329
ဝိုင်	-10.8329
မျှော်	-10.8331
▁ဟာသ	-10.8331
င်္ဂ	-10.8334
▁စည်းမျဉ်း	-10.8335
▁Y	-10.8336
▁မော်တော်ကား	-10.8342
ခီးရွာ	-10.8342
▁ချီးကျူး	-10.8343
▁သနပ်ပင်မြို့နယ်	-10.8344
သက်သက်	-10.8345
အခြေစိုက်	-10.8346
တယောက်	-10.8348
▁အော့	-10.835
▁ကျော	-10.8352
ကြိုက်	-10.8357
ကြီးနှင့်	-10.8363
တူရိယာ	-10.8363
အမှုထမ်း	-10.8375
▁ဌာပနာ	-10.8376
အသား	-10.8378
တစ်ရပ်ကို	-10.8382
ဘာသာပြန်	-10.8386
ခဲ့ကြ၏။	-10.8386
ခံရသော	-10.8387
သောင်းကျန်းသူ	-10.8388
ဝံသ	-10.8389
ဝန်းကျင်	-10.8389
▁World	-10.8389
24	-10.8391
မှတ်သား	-10.8393
နေပြည်တော်	-10.8395
▁၆၁	-10.8397
ပြင်းထန်	-10.84
▁ဘီလူး	-10.8401
မွေးမြူရေး	-10.8401
▁ခွဲ	-10.8402
ဖြစ်လျှင်	-10.8402
ခြင်း၏	-10.8404
▁မတူပီမြို့နယ်	-10.8411
န္	-10.8414
▁အနား	-10.8414
▁စပ်ဆို	-10.8416
▁ချုပ်ဆို	-10.8417
▁ရေးမြို့နယ်	-10.8425
ထက်ပို၍	-10.8426
ခေါ	-10.8426
▁Myo	-10.8426
ချ်	-10.8427
▁တဲ	-10.8429
▁မေလတွင်	-10.8432
▁ထွက်ခွာ	-10.8432
ဖွံ့ဖြိုးရေး	-10.8432
ဘန်း	-10.8434
ကျောင်းများ	-10.8435
▁ဖူ	-10.8435
ရှိသည်	-10.8436
▁ပညတ်တော်မူခဲ့	-10.8438
▁ဟိန္ဒူ	-10.8439
ဝယ်ယူ	-10.844
ဆန္ဒ	-10.844
▁ပြာ	-10.8441
▁ရန်ပုံငွေ	-10.8444
လုံခြုံရေး	-10.8445
▁အရေးကြီး	-10.8445
ရေကန်	-10.8454
▁လှူ	-10.846
ပုဂံ	-10.8462
▁နှိုင်းယှဉ်	-10.8463
▁အောက်တိုဘာလတွင်	-10.8465
▁သာသနာရေး	-10.8466
လေတော့သည်။	-10.8469
/&	-10.8469
မြန်	-10.8471
017	-10.8472
▁နန့်	-10.8475
လိုအပ်	-10.8477
▁ထွက်လာ	-10.8478
▁မြင်းခြံ	-10.8478
ဖြစ်ခြင်း	-10.8479
▁Windows	-10.8479
▁အခြေခံပညာ	-10.8479
▁လှပ	-10.8481
▁ဟူသည်မှာ	-10.8483
▁ရထားလမ်း	-10.8485
▁သခင်စိုး	-10.8486
▁Vi	-10.8487
▁ဖားကန့်မြို့နယ်	-10.8489
▁ရခဲ့သည်။	-10.8491
▁မဟုတ်ပေ။	-10.8491
▁ဗြ	-10.8492
▁မင်းတပ်ခရိုင်	-10.8496
▁သပိတ်မှောက်	-10.8501
▁လောင်းလုံး	-10.851
▁ဖြစ်ပြီး၊	-10.8512
လက်မှတ်	-10.8512
ကန့်	-10.8515
ဌာနခွဲ	-10.8516
18	-10.852
▁ပေးခဲ့သည်။	-10.8522
▁လိုင်	-10.8523
▁ပစ္စည်းများကို	-10.8524
▁အွန်လိုင်း	-10.8528
▁ဆင်ခြင်	-10.8528
ပင်များ	-10.8534
▁ပရိ	-10.8536
▁တစ်ပါး	-10.8536
▁အသက်မွေး	-10.8537
▁စစ်ဘက်	-10.8538
▁ဦးရွှေ	-10.8538
▁ဖြစ်သဖြင့်	-10.854
▁ဝိန်းကောင်	-10.8543
▁အမှတ်အသား	-10.8544
ခြင်းမပြု	-10.8546
ထုတ်လုပ်မှု	-10.8549
▁အစ်	-10.8551
▁ဆည်းပူး	-10.8555
▁လှံ	-10.8555
မြို့ပေါ်ရှိ	-10.856
▁ပြဋ္ဌာန်းချက်	-10.856
▁ခရုပတ်ပုံစံ	-10.8563
▁လဟယ်မြို့နယ်	-10.8563
▁နောင်အခါ	-10.8571
▁ခရု	-10.8572
စကားကို	-10.8573
ညက်	-10.8576
▁ဩ	-10.8577
ကြပေ။	-10.8579
▁အောင်ဆန်း	-10.8581
ပြည့်စုံ	-10.8585
▁ယခုတိုင်	-10.8586
ဖြစ်ပေါ်လာ	-10.8586
နံပါတ်	-10.8588
▁၁၅၀	-10.859
ရသည်	-10.8592
▁ဗီယက်နမ်နိုင်ငံ	-10.8594
▁ကနေဒါနိုင်ငံ	-10.8595
▁အကြောင်းမှာ	-10.8596
▁Ne	-10.8598
▁အကျဉ်း	-10.8601
ပေလိမ့်မည်။	-10.8604
08	-10.8605
▁ရန်ကုန်မြို့၊	-10.8605
အစိတ်အပိုင်း	-10.8606
▁လူပေါင်း	-10.861
▁တုံး	-10.8611
▁တို့ဖြစ်ကြသည်။	-10.8612
▁အမည်ပေး	-10.8613
ခန်းမ	-10.8613
▁ယင်းတို့သည်	-10.8614
▁ဆို၏။	-10.8621
▁သံဖြူဇရပ်	-10.8621
▁တောက်	-10.8621
▁အရည်အချင်း	-10.8622
ခဲ့ရပြီး	-10.8623
▁အု	-10.8624
▁ကန့်သတ်	-10.8624
ရာဇ်	-10.8627
▁တောင်အာဖရိက	-10.8628
ပညာရှင်များ	-10.8632
ဌ	-10.8632
▁အပ်နှင်း	-10.8633
07	-10.8633
▁အရှိန်	-10.8634
ဗီး	-10.8634
▁ဝင်ရောက်လာ	-10.8635
▁ပညာသင်	-10.8636
ကြချေ။	-10.8637
▁ဂေါ့	-10.8642
းရွာ	-10.8646
▁အကောင်	-10.8647
▁အနားယူ	-10.8651
ok	-10.8652
▁ကာမ	-10.8657
မော့	-10.8658
ဟော်	-10.8669
ပလ္လင်	-10.867
ခမ်းရွာ	-10.8671
ေး	-10.8672
▁ဖတ်ရှု	-10.8674
ဝံ့	-10.8676
ရမည်ဖြစ်သည်။	-10.8684
▁စပိန်နိုင်ငံ	-10.8687
ka	-10.8687
▁ခုခံ	-10.8687
▁ကျေးဇူး	-10.8687
▁ထုတ်ပေး	-10.8688
▁ဆုံ	-10.8688
အစည်းအရုံး	-10.8688
ဥပ	-10.8691
▁ရေကျော်	-10.8692
ခရီးစဉ်	-10.8697
▁ထုတ်ဖော်	-10.8698
▁ထားဝယ်မြို့နယ်	-10.8698
မီဒီယာ	-10.87
အသုံး	-10.8711
ကြူ	-10.8713
ရရှိသော	-10.8714
▁၁၉၁၄	-10.8715
များကိုပါ	-10.8717
▁ဖြစ်စဉ်	-10.8718
ကျဲ	-10.8721
▁အမှတ်တံဆိပ်	-10.8723
နေ၍	-10.8726
ကမ်းရိုးတန်း	-10.8731
▁Z	-10.8732
▁Ro	-10.8733
▁ရွာသစ်ရွာ၊	-10.8734
27	-10.8734
▁စောင့်	-10.874
ထားကာ	-10.874
ရသ	-10.8741
▁သီချင်းများ	-10.8742
▁နိုင်ငံတော်၏	-10.8742
▁အရှေ့တောင်ဘက်	-10.8742
လာရောက်	-10.8746
ကျောင်းတိုက်	-10.8746
▁အနံ	-10.8746
ထားရာ	-10.8748
▁အနှံ့အပြား	-10.8749
▁အမတ်ကြီး	-10.8753
▁စာဆို	-10.8754
ပြီးသောအခါ	-10.8755
▁Wa	-10.8755
၂ဝ	-10.8758
သမုဒ္ဒရာ	-10.8758
မြန်မာ့	-10.8758
နှုတ်	-10.8758
ငွေကြေး	-10.876
တူညီ	-10.8765
▁တစ်နိုင်ငံလုံး	-10.8767
အယူအဆ	-10.8767
အပေါင်း	-10.8768
▁သစ်သီး	-10.8771
▁ရေချို	-10.8771
▁Do	-10.8771
ဟိုး	-10.8772
701501	-10.8775
▁အနေ	-10.8775
သီချင်းများ	-10.8779
▁တံ	-10.8781
▁ပတ်သက်သော	-10.8782
▁ညောင်ကုန်း	-10.8784
ရဏ	-10.8788
▁ကျူးလွန်	-10.8789
▁နျူကလီးယား	-10.8789
စမ်းသပ်	-10.8792
▁စမ်း	-10.8793
တွင်း၌	-10.8793
!	-10.8796
▁were	-10.8796
စုစုပေါင်း	-10.88
ကော်မရှင်	-10.8808
▁ဖော်ပြထား	-10.8808
ဖလား	-10.8808
▁ပြင်းထန်	-10.8809
ဂန့်ဂေါခရိုင်၊	-10.8809
ဆရာဝန်	-10.881
▁ဝိဇ္ဇာ	-10.881
သန	-10.8814
သူများမှာ	-10.8818
▁၁၉၁၂	-10.882
ပတ်ဝန်းကျင်	-10.8821
ကျွန်းစုမြို့နယ်	-10.8822
▁ဥစ္စာ	-10.8823
37	-10.8824
▁အလောင်းမင်းတရား	-10.8825
▁၆၂	-10.8826
အမည်ရှိ	-10.8827
မိတ်	-10.8828
အကြားတွင်	-10.8828
မရွေး	-10.883
ရာသီဥတု	-10.883
အချက်အလက်များကို	-10.8832
▁အဖြေ	-10.884
ညှိ	-10.8843
▁စေတနာ	-10.8845
▁အကြောင်းရင်း	-10.8847
▁ရွေ့လျား	-10.8848
▁ဆန်စပါး	-10.8849
les	-10.885
701502	-10.8851
စာလုံး	-10.8855
ဗေး	-10.8856
လောက်အောင်	-10.8861
▁သည်လည်း	-10.8863
▁အိုင်ယာလန်	-10.8863
ဘို့	-10.8866
ဗို	-10.8868
▁ရှားပါး	-10.8869
တုန်းက	-10.887
▁ကြပ်	-10.8871
▁ထင်း	-10.8873
▁သတ်မှတ်ခဲ့သည်။	-10.8875
ဒေသရှိ	-10.8879
▁အလယ်ခေတ်	-10.888
ဝါဒီ	-10.8883
နေ့တွင်	-10.8884
▁သီ	-10.8885
▁သက်ရှိ	-10.8886
▁ရှေးဦး	-10.8887
အာရှ	-10.8892
▁၅၇	-10.8893
▁ပုဂ္ဂိုလ်များ	-10.8896
▁ရက်၊	-10.8898
▁မန္တလေးခရိုင်၊	-10.8899
▁လုပ်ပိုင်ခွင့်	-10.89
ခေတ်က	-10.8901
▁ကမာ	-10.8901
ဖမ်းဆီး	-10.8902
ဒေသမှ	-10.8906
▁အဝါရောင်	-10.8907
▁လင်ဟော်မြို့နယ်	-10.8915
▁ချိန်	-10.8918
ပြန်လေသည်။	-10.8918
ချိတ်	-10.8919
လည်ပတ်	-10.892
သည်ဟုဆိုသည်။	-10.8921
▁ခန့်ထား	-10.8923
ဒေါ်လာ	-10.8925
▁ခန္တီးမြို့နယ်	-10.8925
လိတ်	-10.8926
ကြပါတယ်။	-10.8927
▁ရက်လုပ်	-10.8927
▁၁၈၈၆	-10.8929
ကြကုန်၏။	-10.8933
tra	-10.8936
နှစ်မျိုး	-10.8936
မှိုင်း	-10.8937
▁မှတ်ချက်	-10.8939
int	-10.894
▁နံရံ	-10.894
လျှပ်စစ်	-10.894
ခံရသူ	-10.8946
အစိုးရ၏	-10.8947
နာစောင့်ထိန်းရန်	-10.8947
▁သိက္ခာ	-10.8948
▁အရှေ့မြောက်ဘက်	-10.8949
နိုင်ခဲ့ပြီး	-10.895
▁ဂျော့	-10.8951
မည်ကို	-10.8951
နိုင်သူ	-10.8959
▁ယုံကြည်မှု	-10.896
▁ခရီးစဉ်	-10.8962
▁ရဟန်းသည်	-10.8964
▁ကွန်ရက်	-10.8965
စွ	-10.8967
▁လွိုင်	-10.8969
▁စိုးစံ	-10.8969
▁တစ်ခုကို	-10.8974
ရိပ်သာ	-10.8975
ဆုံးသော	-10.8976
လူဦးရေ	-10.8976
▁ပေါင်းစည်း	-10.898
သည့်အခါတွင်	-10.8982
လမ်း၊	-10.8982
▁ရေကို	-10.8983
ခါးရွာ	-10.8985
ခုံရွာ	-10.8985
ဝှက်	-10.8986
ကြားတွင်	-10.8986
ide	-10.899
အဆို	-10.8993
ity	-10.8993
▁တချို့	-10.8993
ပါဝင်ပြီး	-10.8995
▁အဝ	-10.8996
▁အိုက်	-10.9003
▁ဖောင်	-10.9005
အော့	-10.9007
▁ဇွန်လတွင်	-10.9008
ဗူး	-10.9008
▁ပြစ်ဒဏ်	-10.9013
တစ်စု	-10.9014
ကုန်သော	-10.9015
သူက	-10.9015
ထားရှိ	-10.9017
အာရုံ	-10.9018
▁၁၉၃၁	-10.9018
▁ကျွန်းစု	-10.9021
▁မကောင်း	-10.9026
▁ခံတပ်	-10.9033
ထားရသည်။	-10.9034
ရာနေရာ	-10.9034
ကွ	-10.9035
ထောင်း	-10.9037
▁အစဉ်အလာ	-10.9037
ဂင်	-10.9038
ကွတ်	-10.9038
▁ဦးဆောင်သော	-10.9039
တစ်ခုလုံး	-10.9039
သူတို့သည်	-10.9041
▁ဖာပွန်ခရိုင်	-10.9047
စိုင်	-10.9047
တောင်ပေါ်	-10.9048
နတ်ဘုရား	-10.9048
▁လယ်သမား	-10.9048
▁အရေးပေါ်	-10.9048
▁ကျိုက်ထို	-10.9053
လိုက်ပါ	-10.9057
09	-10.9058
▁ဝီလျံ	-10.9058
▁ရှယ်ယာ	-10.9058
▁၁၉၁၆	-10.9061
သွားခြင်း	-10.9061
▁ကျန်သေး	-10.9062
ရရှိသည်။	-10.9063
▁ဟင်္သာ	-10.9064
လိမ့်မည်ဟု	-10.9065
မုံ	-10.9066
=73	-10.9068
မည်ဖြစ်ကြောင်း	-10.9069
အနီးရှိ	-10.9074
▁မြတ်စွာဘုရားအား	-10.9074
▁ငါသည်	-10.9074
▁တောင်းပန်	-10.9081
နှင့်လည်း	-10.9082
▁ဘူး	-10.9083
ဦး၊	-10.9085
▁ဒေသများ	-10.9088
▁လက်အောက်တွင်	-10.909
ဝိဇ္ဇာ	-10.9091
▁အိမ်ထောင်စု	-10.9093
▁မစ်	-10.9094
မောင်မောင်	-10.9095
ap	-10.9095
ထိန်းချုပ်	-10.91
▁အမိန့်တော်	-10.91
အများစုသည်	-10.9101
▁ရုပ်ရှင်ဇာတ်ကား	-10.9104
▁ပုဒ်	-10.9105
oke	-10.9105
▁အရေးအသား	-10.9107
▁တိမ်ကောသွားသည်။	-10.9108
▁(3)	-10.911
▁ဦးထွန်း	-10.9111
▁မူဝါဒ	-10.9113
▁အနော်ရထာမင်း	-10.9114
ကျူး	-10.9115
▁ဆုတောင်း	-10.9116
▁အလို	-10.9116
▁အခါတွင်	-10.9121
ဂဲ	-10.9124
ဝိဟာရ	-10.9125
▁မိန်းကလေး	-10.9125
▁အနာဂတ်	-10.9126
▁ကေအိုင်အေ	-10.9127
▁co	-10.9134
▁အံ	-10.9135
ပိုင်ခွင့်	-10.9141
မိနစ်	-10.9142
ဇိ	-10.9143
ထုတ်ပြန်	-10.9144
▁ဩဂုတ်လတွင်	-10.9146
▁ဒူး	-10.9148
ှ	-10.9149
▁Chan	-10.9149
ဖွဲ့စည်းခဲ့သည်။	-10.9153
▁အားကစားကွင်း	-10.9155
40	-10.9163
▁သူဌေး	-10.9164
လှုပ်	-10.9165
ပိန်	-10.9166
▁အစီရင်ခံစာ	-10.9169
▁တည်ရှိနေ	-10.9169
တုန်	-10.9172
▁နှစ်အရွယ်တွင်	-10.9174
▁လောကီ	-10.9175
▁အထည်	-10.9177
အကြောင်းအရာ	-10.9178
▁200	-10.9181
▁ရွှေကူမြို့နယ်	-10.9184
con	-10.9185
ပင်သည်	-10.9185
နေရာ၌	-10.9187
▁နိုင်ငံပေါင်း	-10.9188
▁အစရှိသည့်	-10.9191
ခဲ့သူဖြစ်သည်။	-10.9193
နို့	-10.9194
▁ဒီဇင်ဘာလတွင်	-10.9194
▁ဗုံး	-10.9196
▁ဘင်္ဂလားဒေ့ရှ်	-10.9197
သုံးခု	-10.9198
ခံရပြီး	-10.9199
အရပ်တွင်	-10.9199
▁ဆိုသူက	-10.9206
▁St	-10.9207
▁တတ်	-10.9207
▁ကြောက်	-10.9208
▁သေးငယ်သော	-10.921
▁ဂိုး	-10.9212
ဂုံ	-10.9218
ကျောင်းသားများ	-10.9218
ခူး	-10.9218
တတ်သည့်	-10.9219
▁လမ်းပန်းဆက်သွယ်	-10.9219
▁၄၀၀	-10.9224
ley	-10.9224
မျိုးနွယ်	-10.9225
အရင်း	-10.9226
နှစ်ဖက်	-10.9226
ဒီပ	-10.9227
33	-10.9227
အင်ပါယာ	-10.9229
▁ဆက်တိုက်	-10.9231
ot	-10.9232
စွပ်	-10.9236
ကလေးများကို	-10.9237
ပြီးသော်	-10.9237
ဓိ	-10.9237
▁ဖမ်း	-10.9238
▁အမည်ရင်းမှာ	-10.9238
▁ကြွေ	-10.9241
အများစု	-10.9241
▁အသွင်	-10.9242
မိုးမိတ်မြို့နယ်	-10.9243
မျာ	-10.9244
▁ရုပ်တု	-10.9246
▁တွန်းဇံမြို့နယ်	-10.9248
▁ကြယ်စုတန်း	-10.9248
▁ရှားတောမြို့နယ်	-10.925
▁အကွာအဝေး	-10.9251
▁ဝိနည်း	-10.9252
ကျုံး	-10.9253
▁တုတ်	-10.9255
မြို	-10.9255
▁၇၃	-10.926
▁ကာကွယ်ဆေး	-10.9262
ပေးနိုင်	-10.9263
▁သူတစ်ပါး	-10.9263
▁ရန်ကုန်မြို့၌	-10.9265
လျှောက်ထား	-10.9267
▁လုပ်ဆောင်ချက်	-10.9267
▁ကုသိုလ်	-10.9268
▁ပြန်၍	-10.9269
သုခ	-10.9271
▁Ri	-10.9272
အသံထွက်	-10.9273
▁အာဏာပိုင်	-10.9275
▁ဦးဘိုး	-10.9278
ကြီးမှာ	-10.9287
▁ရှီ	-10.929
စွန့်	-10.9292
▁International	-10.9293
▁စောင့်ကြည့်	-10.9293
ဒေါက်တာ	-10.9295
▁ဘေးအန္တရာယ်	-10.9296
▁ပိတ်ဆို့	-10.9297
▁ကျောင်းတော်	-10.9298
ကျွန်းစု	-10.93
▁၁၉၃၂	-10.93
ကထောင်ရွာ	-10.9302
▁မူလတန်း	-10.9302
▁သုတ်	-10.9302
သေနတ်	-10.9305
ထာ	-10.9306
▁ဆိုနိုင်သည်။	-10.9307
▁နေရာများ	-10.9307
▁၎င်းတို့ကို	-10.9309
းဦးကျော်လှ	-10.9309
▁တုံ	-10.9314
လျော့	-10.9315
▁ဖြူ	-10.9316
ပုလဲ	-10.932
၌သာ	-10.932
▁ယွန်း	-10.9322
▁တခု	-10.9322
▁ရှိသည်ဟု	-10.9323
အမြောက်အမြား	-10.9324
▁အီလက်ထရွန်	-10.9325
ညောင်ပင်	-10.9328
မပြု	-10.9329
36	-10.9333
▁ခြင်္သေ့	-10.9335
နယ်စပ်	-10.9336
▁၁၉၂၆	-10.9338
▁ကုန်သွယ်မှု	-10.9341
▁အမည်မှာ	-10.9342
မြစ်သည်	-10.9343
ပေမယ့်	-10.9343
ရွှင်	-10.9343
▁သောင်	-10.9344
▁ရှင်း	-10.9344
ab	-10.9346
▁ရဟန်းပြု	-10.9348
▁ကျွန်တော်တို့	-10.9349
▁အတိုက်အခံ	-10.935
နံရံ	-10.9352
စကားပြော	-10.9354
နိုင်ငံမှ	-10.9356
▁လျှာ	-10.9357
▁ထောင်ဒဏ်	-10.9357
▁ဖိအား	-10.9358
▁အသက်ရှူ	-10.9358
▁စွန့်ပစ်	-10.9361
ဗျ	-10.9363
▁အတ္တ	-10.9363
မှုရှိ	-10.9365
ရိုင်	-10.9365
ကြွယ်	-10.9367
▁တည်ထား	-10.9368
▁ဒေါသ	-10.937
▁ဗြိတိသျှအစိုးရ	-10.9373
▁country	-10.9374
▁သမဝါယမ	-10.9377
ငန်း	-10.9377
မေတ္တာ	-10.9378
▁အငြိမ်းစား	-10.938
▁အမေရိက	-10.9381
လှောင်	-10.9382
▁သထုံ	-10.9385
▁ဟီ	-10.9386
စိမ့်	-10.9387
နေပြီ	-10.9387
ညှပ်	-10.9388
လှည်း	-10.9388
ကြောက်	-10.9391
မျော	-10.9392
စို့	-10.9392
သူကြီး	-10.9394
ဟူ၍လည်းကောင်း၊	-10.9398
ယမ်	-10.9398
▁သွင်း	-10.9407
▁ဖြစ်ကာ	-10.9411
ဇေယျ	-10.9412
▁ရုပ်သံ	-10.9415
▁ညွှန်ကြားချက်	-10.9418
▁မြေပုံ	-10.942
ကိုယ်စားပြု	-10.9421
ခံစား	-10.9422
ပေါ်ပေါက်လာ	-10.9423
လာခဲ့ကြသည်။	-10.9423
▁အဘိဓမ္မာ	-10.9424
တော့ပေ။	-10.9427
▁တောင်ယာ	-10.943
ခဲ့ကြသော	-10.943
အဖွဲ့မှ	-10.9433
▁ထိုခေတ်	-10.9434
▁Microsoft	-10.9436
စက်များ	-10.9437
နယ်နိမိတ်	-10.9439
▁နို	-10.9441
▁အင်းစိန်	-10.9441
တန်ဆာ	-10.9443
▁အမည်တွင်	-10.9451
▁ဟေ	-10.9452
မိခင်	-10.9453
ကြဲ	-10.9454
▁မော်ကွန်း	-10.9459
▁လန်	-10.9462
▁အရှေ့မြောက်	-10.9462
▁နေအိမ်	-10.9462
ဥရောပ	-10.9462
▁တွက်	-10.9465
ပြီးဆုံး	-10.9466
ပုံပြင်	-10.9466
များပါဝင်သည်။	-10.9467
မိမိ	-10.9472
သိက္ခာပုဒ်၊	-10.9473
မြှောင်	-10.9478
▁ထိန်	-10.948
▁နှိမ်နင်း	-10.9482
▁အစဉ်	-10.9484
▁ထူ	-10.9485
ဟွန်း	-10.9489
ဖြစ်ထွန်း	-10.9492
ခဲ့သည်ကို	-10.9492
▁မြေထဲပင်လယ်	-10.9494
ပါဘူး။	-10.9496
▁ခုကို	-10.9498
မှလွဲ၍	-10.9499
ဗမာ	-10.9499
▁မြို့စား	-10.9501
▁အနောက်မြောက်ဘက်	-10.9502
ကွန်ယက်	-10.9502
အသီး	-10.9503
ခြည်	-10.9503
လိုက်လျှင်	-10.9503
နူ	-10.9505
သစ်ကို	-10.9505
▁မလေးရှားနိုင်ငံ	-10.9506
▁ကိုင်တွယ်	-10.9507
စေရန်အတွက်	-10.9508
ba	-10.9509
မွဲ	-10.9509
▁နှစ်မျိုး	-10.9509
▁အိပ်မက်	-10.9513
▁Ph	-10.9513
▁an	-10.9515
▁သက်သာ	-10.9516
တတ်သူ	-10.952
နိုင်ပေ။	-10.9523
▁ခေါင်းလောင်း	-10.9526
အိုက်	-10.9526
▁လက်ယာ	-10.9527
▁ကောင်းသော	-10.9528
▁ကမ္ဘာ့အမွေအနှစ်	-10.953
▁နောက်ဆက်တွဲ	-10.9533
▁Pe	-10.9535
▁ခွင့်ပြုချက်	-10.9535
အယူ	-10.9536
ပြည့်နှစ်	-10.9536
▁Tan	-10.9536
▁ကနဦး	-10.9538
မိုးကုတ်မြို့နယ်	-10.954
▁သာယာကုန်း	-10.9542
▁ပိုင်းခြား	-10.9548
ဒါရိုက်တာ	-10.9552
ကျမ်းကို	-10.9555
sa	-10.9556
▁ဘင်္ဂလား	-10.9557
▁တင်မြှောက်	-10.9563
▁မဖြစ်နိုင်	-10.9564
လျှော့	-10.9566
ကျမ်း၊	-10.9569
▁ရလဒ်	-10.957
▁ခွန်	-10.957
▁သားဖြစ်သူ	-10.9571
စီးဆင်း	-10.9574
ရှိသဖြင့်	-10.9577
▁ပေါင်မြို့နယ်	-10.9577
ဇိုင်း	-10.9579
နေရသည်။	-10.9581
▁ဆွီဒင်	-10.9583
ထားသည်	-10.9588
▁သတ္တုတွင်း	-10.9589
▁၆၆	-10.9591
စိပ်	-10.9592
ner	-10.9593
▁ထိုသူ	-10.9593
လာလျှင်	-10.9594
နဂါး	-10.9595
မုန်	-10.9595
အဖွဲ့များ	-10.9596
28	-10.9598
▁ထီးလင်းမြို့နယ်	-10.9599
ho	-10.9601
လဲ့	-10.9603
ကိုလိုက်၍	-10.9606
လင်္ကာ	-10.9613
=65	-10.9615
ထရီ	-10.9616
▁ယုံကြည်ကြသည်။	-10.9616
▁အီရတ်	-10.9619
နေကြသော	-10.9621
ကွန်မြူနစ်	-10.9622
▁ကျမ်းဂန်	-10.9626
အဖွဲ့တွင်	-10.9627
awng	-10.963
ဇူ	-10.963
▁ဟင်နရီ	-10.9632
▁ကညင်	-10.9633
ပမာ	-10.9633
ပြီဟု	-10.9633
ဘုရားကျောင်း	-10.9636
▁ဇော်	-10.9637
▁လက်ဖက်	-10.9637
ကြရလေသည်။	-10.9639
▁ဗမာ့	-10.9639
က္	-10.964
▁ခွဲစိတ်	-10.9646
ထောက်ခံ	-10.9649
လာကာ	-10.965
ယာမ	-10.9651
ရေးမှူးချုပ်	-10.9651
▁ပဲခူးရိုးမ	-10.9652
tab	-10.9652
▁အပူပိုင်း	-10.9653
▁ဒီမိုကရက်တစ်	-10.9656
ဒေသများ	-10.9657
▁အကြောင်းအရာများ	-10.9659
လာစေရန်	-10.9659
▁အခြေခံ၍	-10.9661
မော်ရွာ	-10.9663
▁Po	-10.9666
အထွေထွေ	-10.9668
▁အရုပ်	-10.967
ဇွန်	-10.967
အပေါင်းတို့	-10.9673
တာဝန်ယူ	-10.9674
မက	-10.9681
ဖူးသည်။	-10.9681
▁Lu	-10.9682
▁ကြွက်	-10.9683
▁သောင်း	-10.9683
ရာမ	-10.9684
ဂိ	-10.9685
နိုက်	-10.9685
▁ဝယ်	-10.9686
▁ထူးချွန်	-10.9687
▁ထိုခေတ်က	-10.9689
▁နိုင်ငံများတွင်	-10.9689
َ	-10.9689
▁ချဉ်းကပ်	-10.9689
အကြီးအကဲ	-10.969
▁အဖိုး	-10.9693
▁ဧပြီလတွင်	-10.9693
▁အသုံးအနှုန်း	-10.9694
▁လျှင်	-10.9694
သစ်ပင်	-10.9696
▁University	-10.9696
သူများနှင့်	-10.9698
▁ပန်းပု	-10.9702
▁စုံ	-10.9703
▁အာနန္ဒာ	-10.9703
▁နမ်	-10.9705
▁ငန်း	-10.9709
▁ဖိ	-10.9709
ဖြန့်ချိ	-10.971
%)	-10.9716
တော့ချေ။	-10.9716
▁သတ်မှတ်ထား	-10.9717
▁သတ္တဝါများ	-10.9717
ည်း	-10.9717
ရကား	-10.9718
▁China	-10.9722
▁ထိုအချိန်မှစ၍	-10.9725
တာကို	-10.9726
စရိတ်	-10.9726
▁အတူတကွ	-10.9727
▁တစ်ဦးဖြစ်သည်။	-10.9729
▁ထီးနန်း	-10.9733
တစ်မျိုးကို	-10.9739
▁An	-10.9745
▁ထိုမှ	-10.9746
▁ထေရဝါဒ	-10.9755
▁ကြားခံ	-10.9759
▁ဘူ	-10.9759
ထုတ်ယူ	-10.9761
စုဆောင်း	-10.9763
▁စသဖြင့်	-10.9763
▁ကမ္ဘာကျော်	-10.9764
တာဝန်ထမ်းဆောင်	-10.9767
▁အတွေ့အကြုံ	-10.9768
သလဲ	-10.9769
ဂျင်း	-10.9769
▁Java	-10.9771
▁ဓ	-10.9772
▁လက်ရှိတွင်	-10.9773
ဘောလုံးသမား	-10.9774
လေးပါး	-10.9774
လေ့ရှိပြီး	-10.9775
ပတ်လည်	-10.9776
▁ပယ်ဖျက်	-10.9779
▁ပြိုင်	-10.9779
▁ယို	-10.978
▁အက်ဆစ်	-10.9781
▁မြို့ကြီး	-10.9781
▁တစ်လ	-10.9782
အမှန်	-10.9783
ရွာမ	-10.9785
အပူချိန်	-10.9787
45	-10.9787
ငင်	-10.9787
▁Pyin	-10.9791
သောအခါတွင်	-10.9791
ရွယ်	-10.9794
▁သိမြင်	-10.9797
▁အရေးယူ	-10.9798
ကောင်စီ၏	-10.9801
▁အဖြစ်အပျက်	-10.9803
ပျို့	-10.9805
▁Mong	-10.9806
▁အကယ်ဒမီ	-10.9807
▁၁၉၀၀	-10.9809
▁ကြိမ်မြောက်	-10.981
▁သဒ္ဒါ	-10.9811
▁အစိမ်းရောင်	-10.9814
စီရင်စု	-10.9816
010	-10.9817
=77	-10.9818
▁ပြင်းထန်စွာ	-10.9819
mon	-10.9821
▁အရင်	-10.9823
▁ဖျော်ဖြေ	-10.9825
ကွမ်	-10.9826
ဉ္စ	-10.9826
▁ရတု	-10.9828
▁အိမ်နီးချင်း	-10.9834
▁အပြည့်အဝ	-10.9834
အနေနဲ့	-10.9836
▁Ar	-10.9837
▁ဒေသများတွင်	-10.9839
ပြင်သစ်	-10.9842
▁ဆောင်ရွက်ရန်	-10.9843
တော်မူ၍	-10.9843
ဘုရားကြီး	-10.9844
▁အကျင့်	-10.9845
▁Pan	-10.9847
32	-10.9847
မြတ်စွာဘုရား	-10.9849
ဇုန်	-10.9851
▁ပါကစ္စတန်	-10.9851
သားတော်	-10.9852
ခဲ့လျှင်	-10.9854
▁မိုင်းလင်း	-10.9859
ru	-10.9865
ပျို	-10.9866
▁အန်း	-10.9868
▁မောက်	-10.987
မွတ်	-10.9875
စာစောင်	-10.988
▁ကျူ	-10.988
ဖြေရှင်း	-10.9881
der	-10.9885
ခန့်အပ်	-10.9886
တို့အကြား	-10.9886
▁အကြောင်းပြု၍	-10.9887
▁သိမ်းဆည်း	-10.989
နေ၏။	-10.9891
▁Te	-10.9893
tu	-10.9895
▁တူညီသော	-10.9896
▁မုန်း	-10.9899
▁Pang	-10.9902
▁အလျောက်	-10.9902
ထင်ရှားကျော်ကြား	-10.9904
▁pop	-10.9906
▁ကျောက်တိုင်	-10.9909
နေရာများ	-10.9909
▁ကျဆင်း	-10.991
လျှင်လည်း	-10.991
▁အတ္တလန္တိတ်	-10.9911
အရသာ	-10.9913
▁သတိပေး	-10.9916
▁ထန်တလန်မြို့နယ်	-10.9918
ရှီး	-10.992
ဗုံး	-10.9921
လာ၏။	-10.9921
▁စီမံခန့်ခွဲမှု	-10.9921
စန်	-10.9921
ဗလ	-10.9927
တော်များ	-10.9927
▁ရေးထိုး	-10.9931
တပည့်	-10.9934
▁ဆွေ	-10.9936
အောင်း	-10.9937
▁မရှိချေ။	-10.994
▁တာဝန်ခံ	-10.9941
▁ကျမ်းစာ	-10.9941
ဆက်ဆံ	-10.9944
မည့်သူ	-10.9945
▁ကေအင်န်ယူ	-10.9946
ယခင်	-10.9949
ဂျေ	-10.9951
ရသေ့	-10.9951
ရ။	-10.9952
အရပ်၌	-10.9957
▁ကုန်သည်	-10.9959
▁ရှိသော်လည်း	-10.996
ရှူ	-10.9961
▁Myanmar	-10.9963
▁Nan	-10.9963
ခံတပ်	-10.9965
အကြိမ်	-10.9966
ဒုံး	-10.9966
▁ရည်မှန်းချက်	-10.9967
▁ကေအင်န်ဒီအို	-10.9973
▁ဒေါင့်ကြီး	-10.9975
▁ရုရှားနိုင်ငံ	-10.9975
▁ရေတွက်	-10.9976
ခွါ	-10.998
lan	-10.998
ဖိ	-10.9981
▁မဟုတ်ပါ။	-10.9982
ကျဆုံး	-10.9984
▁ရုက္ခဗေဒ	-10.9985
▁တွေ	-10.9986
တဘူတာ	-10.9989
▁ဖေဖော်ဝါရီလတွင်	-10.999
▁တူရကီ	-10.9994
▁သက်ဆိုင်သော	-10.9997
▁စီမံခန့်ခွဲ	-10.9998
▁၁၉၁၅	-10.9999
▁ပိတ်ပင်	-10.9999
မျိုးမှာ	-11
▁ချိုး	-11.0003
701503	-11.0005
ပင့်	-11.0005
ကိုယ်စား	-11.0008
▁ဦးစွာ	-11.0009
▁ခြေထောက်	-11.0009
မလာ	-11.001
ဝရ	-11.001
နှ	-11.0015
▁ဆိုး	-11.0016
ပြည်နယ်၏	-11.0017
▁ယှဉ်	-11.002
▁မော်လိုက်	-11.0021
သမဂ္ဂ	-11.0027
▁ခြားနား	-11.003
မည်သော	-11.0031
လွင်ပြင်	-11.0031
▁အစောပိုင်းတွင်	-11.0032
ကြပေသည်။	-11.0034
ခဲ့ကြရာ	-11.0038
ဟိန်း	-11.0038
ရပြန်သည်။	-11.0039
uk	-11.0043
▁ဆတ်	-11.0043
အလုပ်သမား	-11.0044
▁ကောက်ယူ	-11.0044
▁အရေးကြီးသော	-11.0047
▁လူသားများ	-11.0048
▁ခုန်	-11.005
▁အကြမ်းဖက်	-11.005
▁ဒိုး	-11.0051
▁စာပေဗိမာန်	-11.0053
ပရိသတ်	-11.0054
လှသဖြင့်	-11.0059
▁ကေအင်န်ယူပါတီ	-11.006
▁ကွယ်လွန်သွား	-11.0062
▁ပေပင်	-11.0062
▁စကားကို	-11.0062
အရှည်	-11.0065
ad	-11.0066
ဓလေ့	-11.0066
▁Group	-11.0068
▁ကော်ပိုရေးရှင်း	-11.007
▁မကျီး	-11.007
▁တို့ပါဝင်သည်။	-11.0072
▁အမရပူရ	-11.0072
▁ဗြိတိန်နိုင်ငံ	-11.0072
▁For	-11.0075
▁ဟတ်	-11.0077
မရှိပေ။	-11.0077
▁မွတ်	-11.0078
tic	-11.0079
▁ကွမ်းခြံကုန်း	-11.008
▁အသင့်	-11.0082
▁ပဉ္စမ	-11.0084
ပလာ	-11.0087
▁it	-11.0088
နေတတ်သည်။	-11.0089
ယမ်း	-11.0089
▁လွယ်ကူစွာ	-11.0092
▁ကယ်	-11.0094
▁တိုးတက်မှု	-11.0097
သက်သာ	-11.0098
မြင့်မား	-11.0099
▁သဘင်	-11.01
ကြကုန်	-11.0103
▁အဋ္ဌကထာ	-11.0105
သင်ယူ	-11.0106
ထုတ်လုပ်ရေး	-11.0108
=72	-11.0109
အကျဉ်း	-11.011
he	-11.011
▁ပြစ်မှု	-11.0111
ခဲ့ချေ။	-11.0113
သွားသောအခါ	-11.0115
လန့်	-11.0115
▁မောင်မောင်	-11.0116
▁လွှမ်းခြုံဧရိယာ	-11.0117
▁web	-11.0119
—	-11.0127
ရိတ်	-11.0127
▁အမေ	-11.0127
▁နာဂ	-11.0131
မြှုပ်	-11.0132
▁ဂုဏ်ထူးဆောင်	-11.0132
▁နိုဝင်ဘာလတွင်	-11.0133
▁များပြား	-11.0133
နိုင်ငံရှိ	-11.0142
မှောက်	-11.0142
▁သိရှိရသည်။	-11.0145
ပါပဲ။	-11.0148
▁Gu	-11.0152
▁အော	-11.0154
▁မိုက်	-11.0155
နိုဘူတာ	-11.0155
ထံ၌	-11.0155
▁ခြိမ်းခြောက်	-11.0159
34	-11.0163
ပထမဆုံး	-11.0166
▁Pro	-11.0168
အရေးအသား	-11.0169
▁အနောက်တောင်ဘက်	-11.0174
▁ဘုရင်မ	-11.0174
နေရာသို့	-11.0175
လှန်	-11.0177
▁ဆယ်စုနှစ်	-11.0177
▁ဦးကျော်	-11.0178
အမျိုးမျိုးကို	-11.0181
အလွှာ	-11.0181
▁ဆိုလို	-11.0182
မှုတ်	-11.0183
▁ကုန်းမြေ	-11.0184
▁ထို့အတူ	-11.0187
▁အထက	-11.0192
▁သုံးနှစ်	-11.0201
နှဲ	-11.0205
▁Car	-11.0205
han	-11.0206
တွင်ပင်	-11.0209
စွမ်းရည်	-11.021
ဆန့်ကျင်ရေး	-11.021
▁ခေါင်းဆောင်များ	-11.0214
နေသည်ဟု	-11.0215
▁လွတ်လပ်	-11.0216
သည်ကား	-11.0217
é	-11.0218
▁တစ်ခါ	-11.0219
▁၈၈	-11.022
ဟုခေါ်	-11.0221
ရပေမည်။	-11.0222
▁အသုံးပြုရန်	-11.0223
▁Ni	-11.0225
▁လက်တင်	-11.0227
မယား	-11.0228
▁စတုရန်း	-11.023
သေချာ	-11.023
▁၁၉၆ဝ	-11.0231
ဉ်	-11.0231
ေန	-11.0232
hu	-11.0234
▁လက်ဆောင်	-11.0236
နိုင်ရေးအတွက်	-11.0238
နားရွာ၊	-11.0238
▁ပခုက္ကူ	-11.024
နေချိန်	-11.024
▁ဘုန်း	-11.0242
ကျော့	-11.0244
အုပ်စိုး	-11.0253
လိမ့်	-11.0253
▁ဖြစ်သောကြောင့်	-11.0253
▁ဓာတ်ဆီ	-11.0254
Ma	-11.0254
▁ရာစုတွင်	-11.0255
သားတို့	-11.0255
▁အပြောင်းအလဲ	-11.0256
▁ရခိုင်ပြည်	-11.026
▁Pu	-11.0263
ကွီ	-11.0264
ဖြစ်ရပ်	-11.0265
▁ဖြစ်ကြ	-11.0265
ကြိုင်	-11.0268
ဟုန်	-11.0269
အယူဝါဒ	-11.027
မပါ	-11.027
▁အတွင်းရှိ	-11.0275
▁ရန်ကုန်သို့	-11.0279
▁သက်သေ	-11.0279
▁ခုံ	-11.0286
ဏာ	-11.0287
ဩဇာ	-11.0287
▁ကမ္မ	-11.0288
▁နှစ်ကြိမ်	-11.0289
im	-11.029
စူး	-11.0291
▁မွေးစား	-11.0295
ach	-11.0295
ဗက်	-11.03
▁ထူးခြားသော	-11.0301
သျှ	-11.0303
ဆဲလ်	-11.0304
အခမ်းအနား	-11.0305
နိုင်၍	-11.0305
ထပ်မံ	-11.0307
up	-11.0311
အရပ်ရပ်	-11.0311
▁နှစ်တွင်	-11.0312
ရခြင်းမှာ	-11.0312
▁ဘယ်လို	-11.0312
▁စွမ်းအား	-11.0315
ဆရာမ	-11.0317
နာဂ	-11.0322
▁သရက်တော	-11.0323
အစိုးရသည်	-11.0323
▁စွန့်လွှတ်	-11.0324
ရှင်သန်	-11.0326
▁အစု	-11.0326
▁ခွဲထွက်	-11.0328
▁မြန်မာစာပေ	-11.0332
ရပေသည်။	-11.0332
ပျံသန်း	-11.0333
ကတော်	-11.0335
▁နန်	-11.0337
▁အဆိုပြု	-11.0339
▁ဖခင်ဖြစ်သူ	-11.034
▁စာသားများကို	-11.0341
ပုံအခြေခံဥပဒေ	-11.0343
ငဲ့	-11.0344
ဂွန်	-11.0345
ki	-11.035
ဖော်ပြထားသည်။	-11.0351
▁မတ္တရာမြို့နယ်၊	-11.0352
▁ဖွဲ့စည်းထားသည်။	-11.0354
▁ရွာတစ်ရွာ	-11.0355
ဇာတ်လမ်းတွဲ	-11.0356
▁အဆိုအရ	-11.0358
▁တေးဂီတ	-11.0362
သွားသည့်	-11.0363
▁အိန္ဒိယပြည်	-11.0363
တလင်း	-11.0363
39	-11.0365
gon	-11.0367
အမ	-11.0367
▁စာနယ်ဇင်း	-11.0373
▁အခွံ	-11.0376
▁ဆန်း	-11.0377
▁ဖု	-11.0377
ဇွန်း	-11.038
▁တွင်လည်း	-11.0384
တပ်ဆင်	-11.0386
▁သမာဓိ	-11.0387
▁ပင်း	-11.0389
သဘောထား	-11.0389
▁ရေနွေးငွေ့	-11.0391
=68	-11.0393
▁စည်ကား	-11.0399
နေး	-11.0399
▁လန်ဒန်မြို့	-11.04
▁Ca	-11.0401
po	-11.0402
▁အတွင်း၌	-11.0406
လူသား	-11.0407
▁ညဉ့်	-11.0409
▁ဂျာ	-11.041
ဧကရာဇ်	-11.041
South	-11.0411
နည်းတူ	-11.0412
ish	-11.0413
မှအပ	-11.0413
မြှောက်	-11.0414
▁နိမိတ်	-11.0415
▁၁၀။	-11.0416
▁တိဗက်	-11.042
▁ဆိုလေသည်။	-11.042
▁ဝန်းကျင်	-11.0428
▁Ch	-11.0428
▁ပဋိပက္ခ	-11.0428
ထွတ်	-11.0428
▁မိဘများ	-11.0431
▁၁၈၉၆	-11.0432
▁စံပြ	-11.0433
တကာ	-11.0435
▁အရင်း	-11.0442
▁မီးရှို့	-11.0442
လျ	-11.0446
▁ကြွ	-11.0447
ရေးသားခဲ့သည်။	-11.0448
သူများအတွက်	-11.0449
▁ထိုစဉ်	-11.0449
▁ပိဋကတ်	-11.045
လွမ်း	-11.045
စစ်ဌာနချုပ်	-11.0451
▁ကျယ်ပြန့်စွာ	-11.0455
▁ရက်နေ့မှ	-11.0456
▁ကာတာ	-11.0456
ဟမ်	-11.046
▁မြင်းမူမြို့နယ်	-11.046
▁မည်သူ	-11.0463
▁သယ်ယူ	-11.0464
မကျေးရွာအုပ်စု	-11.0465
▁ကွာ	-11.0466
▁ကိုလိုနီခေတ်	-11.0468
▁ရှေးအကျဆုံး	-11.0471
▁တားဆီး	-11.0471
▁၁၉၁၃	-11.0472
မနေ	-11.0473
▁ကျန်းမာ	-11.0475
တက္ကသိုလ်တွင်	-11.0479
▁လှိုင်	-11.048
▁ငယ်စဉ်ကပင်	-11.0482
ဂျို	-11.0482
သီအိုရီ	-11.0483
ai	-11.0484
▁ပက်	-11.0486
မယ့်	-11.0486
▁ပထမကမ္ဘာစစ်	-11.0488
မြက်	-11.0489
စေခြင်း၊	-11.0489
ခွဲ၍	-11.049
▁ကျောက်တုံး	-11.0493
အသုံးချ	-11.0493
▁လက်မခံ	-11.0494
▁တတ်မြောက်	-11.0494
▁တောခို	-11.0496
▁ဆင်နွှဲ	-11.0502
▁အမြန်	-11.0504
▁ကရင်အမျိုးသား	-11.0506
▁စစ်သား	-11.0507
သွားရောက်	-11.0508
သက်ရောက်	-11.0509
38	-11.0512
▁ဟုတ်	-11.0512
များပြား	-11.0512
▁ခိုင်း	-11.0514
▁ဖြစ်ပေါ်စေ	-11.0515
▁ချိ	-11.052
▁ခရမ်း	-11.0525
▁တရားသူကြီး	-11.0526
ဦးစီး	-11.0528
တွင်လည်းကောင်း၊	-11.0528
In	-11.0528
▁တိမ်	-11.0529
▁Sin	-11.0532
=64	-11.0533
▁ဇူလိုင်လတွင်	-11.0533
▁တိုက်ခိုက်မှု	-11.0537
ရှိကြသည်။	-11.054
ver	-11.0543
▁ဝူ	-11.0547
▁အဆောင်	-11.0549
ဒီဇိုင်း	-11.0549
▁5	-11.0549
အဆင့်အတန်း	-11.0553
တစ်ဆူ	-11.0554
ဝေဒနာ	-11.0556
ချိုင့်	-11.0559
မလေး	-11.0559
▁သယ်ဆောင်	-11.056
စေလွှတ်	-11.0562
▁အပြင်းအထန်	-11.0563
▁ကြေးနန်း	-11.0566
▁နှောင်းပိုင်း	-11.0567
နှင့်ပတ်သက်ပြီး	-11.0567
နှောင်းပိုင်း	-11.057
▁သိသာ	-11.057
ဝတ်ဆင်	-11.057
▁ကွပ်ကဲ	-11.0572
ji	-11.0575
▁not	-11.0576
အပြစ်	-11.0576
▁စာပေများ	-11.0578
▁ခုနှစ်များတွင်	-11.0583
▁မြို	-11.0584
နှစ်အရွယ်	-11.0584
▁ဒဏ်ရာ	-11.0586
▁ကျောက်မဲ	-11.0588
▁မြေး	-11.0591
အောက်ပိုင်း	-11.0592
ခဲ့ရသော	-11.0592
သွန်း	-11.0593
ရတု	-11.0594
▁ညောင်ဝိုင်း	-11.0594
ဒေဝ	-11.0596
▁အပြုအမူ	-11.0599
▁ဆိုတဲ့	-11.0601
▁ဂိုဏ်း	-11.0601
▁တက္ကသိုလ်မှ	-11.0601
▁တစ်ကမ္ဘာလုံး	-11.0602
ဘုန်းတော်ကြီး	-11.0603
▁ပါဝင်သရုပ်ဆောင်	-11.0603
လျှော်	-11.0605
▁ပုန်း	-11.0608
တိုက်ခိုက်မှု	-11.0611
▁သိကြားမင်း	-11.0613
▁Ja	-11.0615
▁အဝါ	-11.0616
လာခဲ့ပြီး	-11.0618
lu	-11.062
▁ရောဂါပိုး	-11.0621
ရာတွင်လည်း	-11.0621
▁လူတန်းစား	-11.0622
တိရစ္ဆာန်	-11.0622
စာဆို	-11.0624
ဖြစ်ပြီး၊	-11.0626
▁စာစောင်	-11.0629
ဆိုရင်	-11.0632
တစ်လျှောက်တွင်	-11.0632
si	-11.0633
50	-11.0635
နေလေသည်။	-11.0636
▁ခရစ်တော်	-11.064
▁အစာအိမ်	-11.0642
▁မှန်ကန်	-11.0642
တစ်ဝက်	-11.0648
▁သျှင်	-11.0649
▁မိဖုရားကြီး	-11.065
အနှံ့	-11.0651
▁ကုက္ကို	-11.0652
▁အမေရိကတိုက်	-11.0656
▁မှတ်ယူ	-11.0657
မပေး	-11.0658
▁စေ့စပ်	-11.0658
▁တက်ရောက်ခဲ့သည်။	-11.0659
ဋီကာ	-11.0661
ဂွ	-11.0662
ရေးဦးစီးချုပ်	-11.0666
▁အစားထိုးခြင်း	-11.0666
မြွေ	-11.0666
▁Ywar	-11.067
စက္ကူ	-11.067
▁လိုက်၍	-11.0673
▁ခေါင်	-11.0673
နိုင်ပါတယ်။	-11.0676
လာအောင်	-11.0677
ထွင်း	-11.0678
▁အစိုးရမှ	-11.0679
▁ဆပ်	-11.068
ကျီ	-11.0681
▁ကူးပြောင်း	-11.0681
ဆေး၊	-11.0683
▁လူသိများသည်။	-11.0683
ster	-11.0684
and	-11.0684
မပျက်	-11.0685
ကျော်ကြား	-11.0685
▁အရွယ်ရောက်	-11.069
ကြပြန်သည်။	-11.0691
▁ရှုံး	-11.0693
▁နောက်တွင်	-11.0694
တစ်ဦးအဖြစ်	-11.0694
▁ဒါကြောင့်	-11.0697
စိတ်ဓာတ်	-11.0697
လှော်	-11.0697
ရေစီအဖွဲ့ချုပ်	-11.0702
▁နာယက	-11.0707
▁သောအခါ	-11.071
▁ကျင်း	-11.071
ပေးနိုင်သည်။	-11.0712
▁ကိုက်ညီ	-11.0713
များမှာလည်း	-11.0713
▁ဂျင်	-11.0715
စာကြည့်တိုက်	-11.0721
တစ်ချောင်း	-11.0722
▁အင်္ဂလိပ်တို့	-11.0723
အနား	-11.0724
▁ထု	-11.0726
▁အတော်	-11.0728
ဖြစ်တဲ့	-11.073
▁လမ်းညွှန်	-11.073
▁အတိတ်	-11.073
▁အဓိပ္ပာယ်မှာ	-11.0732
▁ကမ္ဘာစစ်	-11.0732
▁ပကတိ	-11.0733
၃ဝ	-11.0733
ဆိုသည်။	-11.0734
▁ရုပ်သိမ်း	-11.0734
▁အမျိုးသားဒီမိုက	-11.0736
▁ကမ္ဘာ့ဖလား	-11.0737
ရန့်	-11.0738
▁အနိုင်ရရှိ	-11.0743
နှောင်း	-11.0743
▁မုဆိုး	-11.0744
▁ဖက်ဆစ်	-11.0747
▁Web	-11.0748
အသုံးအနှုန်း	-11.0751
မျက်စိ	-11.0754
ကုန်သည်	-11.0754
▁ပြည့်စုံသော	-11.0754
▁မတရား	-11.0757
ဟုန်း	-11.0762
▁၉၅	-11.0762
သင်္ကန်း	-11.0763
သေးပေ။	-11.0763
ပြုကာ	-11.0765
▁အယ်လ	-11.0765
တွေး	-11.0766
▁ပြီးဆုံး	-11.0767
▁အပေါက်	-11.077
လူငယ်များ	-11.077
ဖှ	-11.0771
▁ခဝ	-11.0771
ဟောင်	-11.0773
▁ကြုံ	-11.0774
မြောက်ပိုင်းတွင်	-11.0774
▁ကမ္ဘာမြေ	-11.0776
ن	-11.0777
မိန့်	-11.0777
ဟစ်	-11.0778
ရာစုနှစ်	-11.0778
လိုက်ပြီး	-11.0778
▁ဆီးချို	-11.0782
▁ထိန်းသိမ်းထား	-11.0782
▁နောင်တော်	-11.0784
သူဌေး	-11.0785
ci	-11.0785
▁ဗုဒ္ဓဘာသာဝင်	-11.0787
ချူး	-11.0787
မာလာ	-11.0788
ill	-11.0788
မင်းလက်ထက်	-11.0791
▁ကြာအင်း	-11.0792
▁လူငယ်များ	-11.0793
ခံရသည့်	-11.0794
▁ရေတွင်း	-11.0795
▁လွှဲပြောင်း	-11.0796
▁အငြိမ့်	-11.0796
▁ဖမ်းယူ	-11.0796
▁အိန္ဒိယနိုင်ငံ၊	-11.08
အမြင့်ဆုံး	-11.0801
မထား	-11.0801
▁အကူအညီဖြင့်	-11.0802
ပေးခြင်းဖြင့်	-11.0805
▁ဖေ	-11.0807
ov	-11.0808
▁ဘိ	-11.0808
▁မိုင်းဖျန်	-11.0813
အကူအညီ	-11.0813
▁ဆောင်းရာသီ	-11.0814
▁ဘုရားလောင်း	-11.0815
▁ဖြေဆို	-11.0815
▁ငါ့သျှင်တို့	-11.0815
▁၁၉၃၄	-11.0819
မှုတွင်	-11.0821
=59	-11.0822
တမျိုး	-11.0823
▁ကြ	-11.0823
▁လွမ်း	-11.0824
▁အက်ဥပဒေ	-11.0827
▁မင်းလှ	-11.083
▁အတော်များများ	-11.0833
▁မွမ်းမံ	-11.0833
တို့ကား	-11.0835
လက်ရှိ	-11.0839
ထွဋ်	-11.0843
မတူ	-11.0844
▁မြဝတီ	-11.0846
▁which	-11.0849
▁ကတိ	-11.085
ဇောင်း	-11.0852
▁ချက်ပြုတ်	-11.0853
အတည်ပြု	-11.0854
နိုင်ချေ။	-11.0854
ချုံ	-11.0856
▁၇၂	-11.086
▁လောက၌	-11.0861
မဟုတ်၊	-11.0862
လိုက်ခြင်း	-11.0862
သောသူ	-11.0863
ပလောင်	-11.0864
ရလျှင်	-11.0865
▁သက်ရောက်	-11.0874
▁နှစ်ယောက်	-11.0876
စေနိုင်	-11.0881
▁၁၉၁၀	-11.0881
‡	-11.0885
=90	-11.0886
▁Thit	-11.0887
နိုင်ငံနှင့်	-11.0889
ပါသည့်	-11.0892
ဘောင်း	-11.0892
ဖော	-11.0898
▁ချစ်ခင်	-11.0898
▁ပထဝီ	-11.09
ကျူးလွန်	-11.09
011	-11.0901
ဟိုင်	-11.0902
တို့ကဲ့သို့	-11.0902
ယ်ယူပို့ဆောင်ရေး	-11.0903
▁သတ်မှတ်ထားသည့်	-11.0905
▁လှည့်ပတ်	-11.0905
▁အင်ဂျင်	-11.0905
ညစ်	-11.0908
▁လိုအပ်သည်။	-11.0908
▁ကြေညာချက်	-11.0909
▁အတွင်းပိုင်း	-11.0911
▁ဇန်နဝါရီလတွင်	-11.0911
ပင်များကို	-11.0914
ရှိလျှင်	-11.0915
▁18	-11.0915
▁Mu	-11.0916
▁နှာခေါင်း	-11.0916
ယိုင်	-11.0917
▁အပူပိုင်းဒေသ	-11.0917
ell	-11.0917
▁တို့ဖြင့်	-11.0918
▁မျိုးရိုး	-11.0919
မရှိ၊	-11.0923
per	-11.0924
သွားကြ	-11.0925
ဘုရင်၏	-11.0927
▁မော်လိုက်ခရိုင်	-11.0927
တံတိုင်း	-11.0927
47	-11.0929
▁သက္က	-11.0936
လူမျိုးစု	-11.0938
ခရီးသွား	-11.0941
▁မြောက်အမေရိက	-11.0946
▁ငြင်းပယ်	-11.0946
▁ဟိုတယ်	-11.0948
သမ	-11.0951
ဒါန	-11.0952
▁မျဉ်း	-11.0953
တန်ခိုး	-11.0956
ဟား	-11.0961
ဓာ	-11.0961
ချီတက်	-11.0963
▁ဗိုလ်မှူးချုပ်	-11.0965
နှင့်ပတ်သက်သော	-11.0966
ဏ်	-11.0967
တရားကို	-11.0972
▁သီဟိုဠ်ကျွန်း	-11.0972
▁လိပ်ပြာ	-11.0974
▁၁၈၉၄	-11.0975
နိုင်သောကြောင့်	-11.0975
▁ကီ	-11.0975
အဖွဲ့နှင့်	-11.0978
လူမျိုးများသည်	-11.0978
ous	-11.0979
▁စွဲ	-11.0981
ee	-11.0982
မထေရ်	-11.0985
▁ကုန်သွယ်	-11.0985
▁ဟိုက်ဒရိုဂျင်	-11.0986
ပေးရ	-11.0988
သက္ကရာဇ်	-11.0995
နိုင်စွမ်းရှိ	-11.0995
▁၁၉၇ဝ	-11.0996
▁ခန္ဓာ	-11.0997
▁တယော	-11.0997
ရက်ထပ်နှစ်ဖြစ်	-11.0998
▁ဗုဒ္ဓသာသနာ	-11.0998
ဂေါ်	-11.0999
စကာ	-11.1002
▁နှမ်း	-11.1003
နေသည်	-11.1005
▁တင်ဆက်	-11.1005
▁ပျံ	-11.1008
သူငယ်	-11.1008
နိုင်ကြသည်။	-11.1014
▁ပါရမီ	-11.1015
ဇီဝ	-11.1016
▁ဆန္ဒပြ	-11.1016
▁အစားအသောက်	-11.1019
သင့်ကြောင်း	-11.102
▁ဝိန်း	-11.1022
=207	-11.1023
▁ယင်းတို့မှာ	-11.1023
▁သဲကုန်း	-11.1027
ထားသဖြင့်	-11.1027
ိမ်း	-11.1028
ကျောင်း၌	-11.1028
▁ဖူး	-11.1031
အခြေ	-11.1032
ဝံ	-11.1033
▁တယောက်	-11.1033
▁ကြိုးပမ်းမှု	-11.1033
▁Lo	-11.1034
=89	-11.1034
ကြည်း	-11.1035
တစ်ရာ	-11.1038
ဝင်ငွေ	-11.1038
▁ပြွန်	-11.1039
▁သံလွင်	-11.1039
▁သာသနာ့	-11.1042
yan	-11.1043
▁ဘင်	-11.1043
▁စွန့်	-11.1044
▁အဆင်း	-11.1046
ပြန်ရာ	-11.1049
▁၁၈၈၄	-11.1049
▁တရားဟော	-11.105
▁စန္ဒရား	-11.1051
▁Lay	-11.1054
ဖွဲ့စည်းပုံ	-11.1054
ပုံနှင့်	-11.1055
▁ညာ	-11.1056
အားထုတ်	-11.1056
တစ်ဦးက	-11.1056
အဖြစ်လည်း	-11.1056
စုကျေးရွာအုပ်စု	-11.1059
▁ရံဖန်ရံခါ	-11.1064
တူးမြောင်း	-11.1067
=138	-11.1068
ဌာနတွင်	-11.1069
Pa	-11.1071
▁ကွဲ	-11.1071
ဂျွန်	-11.1072
၌မူ	-11.1073
▁ဒေးဗစ်	-11.1074
ကစ၍	-11.1075
▁အမွှေး	-11.1076
စာမေးပွဲ	-11.1076
ဆွမ်း	-11.1077
အနာ	-11.1079
▁လိုင်း	-11.108
ခြ	-11.108
ကျိုက်	-11.1081
အဖြစ်မှ	-11.1081
ဆောင်ရွက်မှု	-11.1083
▁နှစ်ဖက်	-11.1084
▁ပိုမို၍	-11.1085
▁ဖြတ်ကျော်	-11.1086
သာဖြစ်သည်။	-11.1086
▁ငှက်ပျော	-11.1086
▁ခလုတ်	-11.1086
ရွာဟောင်းရွာ	-11.1087
42	-11.1087
စက	-11.1088
▁ပြုလုပ်သော	-11.109
လုပ်ငန်းများတွင်	-11.1095
▁Nar	-11.1095
၏သား	-11.1096
ကြီးမားသော	-11.1099
တင်၍	-11.11
▁အလုပ်သမားများ	-11.11
ကျဆင်း	-11.1103
ဖြစ်၍၊	-11.1104
ဍ	-11.1105
▁ပန်းချီဆရာ	-11.1107
ဇော	-11.1111
▁ရေကြည်	-11.1113
ဘွား	-11.1114
ow	-11.1114
▁သံလွင်မြစ်	-11.1115
ko	-11.1115
ရိန်း	-11.1117
ဆိုတဲ့	-11.1118
တတိယ	-11.112
▁သုံးခွ	-11.1121
ကုန်၏၊	-11.1122
သည့်ပြင်	-11.1126
▁John	-11.113
ရုံး၊	-11.1131
ဆုံးဖြတ်ချက်	-11.1132
▁လုပ်ငန်းတာဝန်	-11.1134
▁နေမျိုး	-11.1135
▁မျိုးဆက်	-11.1136
▁ရပ်တန့်	-11.1136
▁အစ်ကို	-11.1137
▁ဟူး	-11.1138
လိုသည့်	-11.1139
ထွက်သည်။	-11.114
lin	-11.114
နှစ်လုံး	-11.1141
အဆင်း	-11.1141
ဂရိ	-11.1142
▁ဒုံး	-11.1143
▁အလယ်တန်း	-11.1144
တို့ကလည်း	-11.1144
▁တည်းဖြတ်	-11.1145
ဒ္ဓ	-11.1148
▁ဝန်ခံ	-11.1149
ဝတ်စုံ	-11.1152
ဘွဲ့ရ	-11.1154
▁အမျိုးသားဥယျာဉ်	-11.1155
du	-11.1155
ft	-11.1157
▁ယန်း	-11.1157
ရှေ	-11.116
မွေးမြူ	-11.116
၅၀၀	-11.1161
ကြီးတွင်	-11.1162
▁သက်ဆိုင်	-11.1163
▁စာအုပ်ကို	-11.1166
▁၁၁။	-11.1167
၂၀၁၀	-11.1168
▁ဖြည့်စွက်	-11.1168
သောအားဖြင့်	-11.1168
▁လှည့်	-11.1171
▁ဓာတ်တော်	-11.1171
တစ်ခုလုံးကို	-11.1172
▁Hpa	-11.1172
ပတ်လုံး	-11.1176
▁မား	-11.1177
▁ပျို့	-11.1178
ris	-11.1179
လူတန်းစား	-11.1179
▁လူတစ်ယောက်	-11.1179
ye	-11.118
▁မလေး	-11.118
ထားသော်လည်း	-11.1181
▁သတ်မှတ်ထားသည်။	-11.1182
▁ဘောင်	-11.1182
=66	-11.1183
ကျကျ	-11.1185
လွှင့်	-11.1185
▁မင်းဆက်	-11.1188
▁ရက်မှ	-11.119
ဆက်ခံ	-11.119
▁x	-11.1192
▁မြေဩဇာ	-11.1192
ဗ္ဗ	-11.1193
ရှက်	-11.1193
ဈ	-11.1194
44	-11.1195
▁သမိုင်းတွင်	-11.1196
▁တစ်ရပ်	-11.1196
အများစုမှာ	-11.1198
▁အမွေး	-11.1198
ပင်ကို	-11.1199
ဗိမာန်	-11.1199
▁အရိပ်	-11.1201
ကျောင်း၊	-11.1202
▁ကြီးထွား	-11.1204
ခုခံ	-11.1208
▁မီးတောင်	-11.1208
လက်ထပ်	-11.1211
ဟယ်	-11.1213
▁တစ်ခုခု	-11.1213
▁ပြန်ကြားရေး	-11.1213
လျာ	-11.1214
လွှား	-11.1215
စဉ်းစား	-11.1217
▁ရန်ကုန်တိုင်း	-11.1218
ကြသည်ဟု	-11.1222
▁ဥပဒေအရ	-11.1225
▁၁၈၉၅	-11.1227
ကစားသမား	-11.1228
▁သာယာဝတီ	-11.1229
▁ဉာဏ်တော်	-11.123
ငုံ	-11.1231
ကျော်ထင်	-11.1232
▁ကျောက်ဖြူ	-11.1232
▁pro	-11.1233
ပျံ့နှံ့	-11.1234
စွမ်းအား	-11.1236
▁ပညာရှင်များ	-11.124
ကြသူများ	-11.1241
ss	-11.1241
အဆောက်အဦ	-11.1242
လာသည်ကို	-11.1242
သွားရန်	-11.1246
▁ဖြစ်နိုင်	-11.1247
▁အသုံးပြုသည့်	-11.1249
ဒိန်	-11.1249
လုံးဆိုင်ရာ	-11.125
▁သပြေကုန်း	-11.125
don	-11.1251
▁ရက်နေ့အထိ	-11.1251
gen	-11.1254
▁အိုက်ချန်	-11.1255
=83	-11.1256
mer	-11.1256
ထမင်း	-11.1256
တဲ့အခါ	-11.1256
▁စတင်ဖွဲ့စည်း	-11.1256
▁ပုံဖော်	-11.1258
ဇီးကုန်းမြို့နယ်	-11.126
လေ။	-11.1261
ခဲ့ပြီ	-11.1261
တပ်ဖွဲ့များ	-11.1262
▁အရှေ့တိုင်း	-11.1268
တိုးချဲ့	-11.1269
▁ကဗျာဆရာ	-11.1269
▁အသျှင်	-11.127
ရသော်လည်း	-11.1273
ဒြပ်စင်	-11.1273
▁သာစည်	-11.1275
ရေတပ်	-11.1276
အဖြစ်လည်းကောင်း	-11.128
ron	-11.1284
▁တွေ့ရသော	-11.1284
လျန်	-11.1285
▁တီးမှုတ်	-11.1286
▁သာမက	-11.1288
▁ကြည်ညို	-11.129
do	-11.1291
တွေ့ဆုံ	-11.1291
ညှာ	-11.1293
အလ္လာဟ်အရှင်မြတ်	-11.1293
▁အဖွဲ့ဝင်နိုင်ငံ	-11.1295
ဝါဒကို	-11.1297
မွေ	-11.1298
▁ခြင်	-11.1298
=98	-11.13
▁တုံ့ပြန်	-11.13
လှမ်း	-11.13
43	-11.1301
ပါစေ	-11.1301
သည်ထက်	-11.1301
▁ဟိုတောင်း	-11.1302
မြို့ဖြစ်သည်။	-11.1302
ဗိုလ်ချုပ်	-11.1303
တစ်ခုဖြစ်	-11.1304
ue	-11.1305
သွန်	-11.1306
ွီး	-11.1307
▁မန့်	-11.1307
▁ကျွန်မ	-11.1311
▁ပြဆို	-11.1316
ဒဏ်ကို	-11.132
▁အငြိမ်းစားယူ	-11.1324
ဒပ်	-11.1326
▁ကွက်	-11.1327
ကုပ်	-11.1328
▁ကစားသမား	-11.1331
▁သက်ရောက်မှု	-11.1332
အလျား	-11.1334
▁ထုတ်ဝေသော	-11.1334
လွိုင်	-11.1334
▁အခြေပြု	-11.1337
▁ဆောင်ရွက်ခဲ့	-11.1338
ဂျ်	-11.1339
ဂျီး	-11.134
▁မရှိဘဲ	-11.1341
▁အဘ	-11.1342
သို့ရောက်ရှိ	-11.1344
▁မူတည်၍	-11.1344
ကျေးဇူး	-11.1345
စ္ဆ	-11.1348
▁ဥပဒေပြု	-11.1348
▁အနက်ရောင်	-11.135
ကျွမ်းကျင်	-11.1352
နှလုံး	-11.1353
▁၁၉၅ဝ	-11.1355
နေထိုင်ကြသည်။	-11.1357
စီစဉ်	-11.1361
▁အသေးစား	-11.1361
ရှဲ	-11.1361
▁မျိုးရင်း	-11.1362
▁စလင်း	-11.1362
▁ဘုရင်မင်းမြတ်	-11.1363
မျ	-11.1364
▁မြို့နယ်တစ်ခု	-11.1364
ဆောင်းပါး	-11.1364
▁system	-11.1365
သေးချေ။	-11.1365
▁သပိတ်ကျင်း	-11.137
ဆရာတော်ဘုရားကြီး	-11.1376
နှစ်ခုကို	-11.1381
ကျို	-11.1382
ကြံစည်	-11.1385
မြန်မာနိုင်ငံသား	-11.1386
▁ပူးပေါင်း၍	-11.1391
အုပ်ချုပ်ရေးမှူး	-11.1394
vo	-11.1398
▁ဆံတော်	-11.1401
="83	-11.1402
▁ကာယ	-11.1403
တစ်ခုမှ	-11.1405
▁စာရင်းတွင်	-11.1407
▁heavy	-11.1407
▁အတတ်ပညာ	-11.1407
▁အရှေ့တောင်	-11.1408
ဒွန်	-11.1409
▁ပေါက်ရောက်သည်။	-11.141
လိုက်ရာ	-11.1411
▁များ၏	-11.1412
များပင်	-11.1412
ရာဒေသ	-11.1413
▁၁၈၅၂	-11.1418
▁ရွာငံမြို့နယ်	-11.1419
▁ဂါထာ	-11.1419
▁ဗောဓိ	-11.1421
သော်လည်း၊	-11.1422
ရည်ရွယ်ချက်	-11.1423
လုတ်	-11.1424
▁ချစ်ကြည်ရေး	-11.1424
ို	-11.1424
▁ပုံနှိပ်ထုတ်ဝေ	-11.1425
▁စွန်	-11.1427
▁အသိုက်	-11.1429
▁ညို	-11.143
▁Go	-11.1431
▁ထိတွေ့	-11.1432
▁He	-11.1432
ရတဲ့	-11.1434
ခံ၍	-11.1434
ရုပ်ပွားတော်	-11.1435
▁ရွာသစ်ကုန်းရွာ	-11.1435
▁အကျယ်အဝန်းမှာ	-11.1436
▁ရှားတော	-11.1437
▁အခြေချ	-11.1437
အယ်လ်	-11.1438
ated	-11.1439
ချေား	-11.1439
အရိုး	-11.1441
▁ဦးတင်	-11.1441
တူးဖော်	-11.1443
▁ဖြစ်ထွန်း	-11.1445
▁မြောင်မြို့နယ်	-11.1447
▁ဒုတိယဥက္ကဋ္ဌ	-11.1449
▁ချင်	-11.1449
ချိန်၌	-11.145
▁နှစ်နှစ်	-11.1452
▁လေထု	-11.1452
▁ကျွန်ုပ်	-11.1453
▁ကွေ့	-11.1456
▁အတောင်	-11.1459
▁ဖိတ်ခေါ်	-11.146
သွားကြသည်။	-11.1463
▁ကယားပြည်နယ်	-11.1463
ပုံစံများ	-11.1465
▁မူး	-11.1467
▁ရှိကာ	-11.1467
▁လစ်	-11.1469
သွား၍	-11.1473
▁မိကျောင်း	-11.1475
ea	-11.1476
ဖိတ်	-11.1476
ဒါယက	-11.1481
▁လိုက်လံ	-11.1484
den	-11.1488
▁On	-11.1488
ို့ဗမာအစည်းအရုံး	-11.1489
▁ဖိနှိပ်	-11.1489
▁မိုင်ခန့်	-11.1492
လေးစား	-11.1493
▁ထွက်သည်။	-11.1497
ပိုင်ဆိုင်	-11.1497
သိပ်	-11.1498
▁၁၈၈၂	-11.1498
မြို့ရိုး	-11.1501
ရင်းမြစ်	-11.1504
မှုဆိုင်ရာ	-11.1504
နော်ရထာ	-11.1506
ရည်ညွှန်း	-11.1507
▁လှုံ့ဆော်	-11.1508
ix	-11.151
▁ယေဘုယျ	-11.1511
ပါမောက္ခ	-11.1511
ရဲဘော်	-11.1513
ကန့်လန့်	-11.1513
ယေ	-11.1515
တိန်း	-11.1515
▁အစွန်း	-11.1521
တရားဝင်	-11.1521
တစ်ခုသည်	-11.1522
ر	-11.1522
စည်းရုံး	-11.1522
▁ဇင်းမယ်	-11.1523
▁အလီ	-11.1526
▁သေးငယ်	-11.153
▁အသုံးဝင်	-11.1531
015	-11.1533
▁အဘယ်ကြောင့်	-11.1534
▁တည်ထားကိုးကွယ်	-11.1535
▁သဲကန္တာရ	-11.1535
ကြီးတစ်ခု	-11.1537
▁အားလုံးကို	-11.1538
ပါဠိ	-11.1542
တ္တိ	-11.1542
▁တစ်လုံး	-11.1543
ုတ်	-11.1543
နိုင်ငံများနှင့်	-11.1544
▁con	-11.1546
ခြင်းခံခဲ့ရသည်။	-11.1546
▁ဈာန်	-11.1548
မဝင်	-11.1549
ခြင်းငှါ	-11.155
ဗားရှင်း	-11.1551
▁နောက်မှ	-11.1552
ကစ်	-11.1555
▁အကွာ	-11.1556
▁ကိုယ်ဝန်ဆောင်	-11.1558
ဟူ၍လည်းကောင်း	-11.1559
ကောင်းစွာ	-11.1562
ရွဲ	-11.1564
▁ဖို	-11.1565
▁တစ်ခုနှင့်တစ်ခု	-11.1566
▁အီရန်နိုင်ငံ	-11.1568
▁အစိမ်း	-11.1568
အတွင်းက	-11.1569
=69	-11.1569
▁ဗီဒီယို	-11.157
▁တစ်နိုင်ငံ	-11.1571
▁ပေါများ	-11.1572
တွန့်	-11.1575
စာများ	-11.1575
▁အထင်ရှားဆုံး	-11.1576
ဖြင့်လည်း	-11.1576
တောင်ဘက်	-11.1578
ကွပ်	-11.1581
=92	-11.1592
ဥစ္စာ	-11.1593
▁အတန်း	-11.1596
ပေးထား	-11.1597
ဆွယ်	-11.1598
အဆင့်ဆင့်	-11.1598
လှယ်	-11.1599
▁ဆဲလ်	-11.1599
▁ဆောင်ဖမြို့နယ်	-11.16
မူပိုင်ခွင့်	-11.16
▁Ex	-11.1601
ခြင်းများကို	-11.1602
ချထား	-11.1603
▁ဒို	-11.1606
▁ထွက်ပေါ်လာ	-11.1607
အန်း	-11.1607
ထားသည်မှာ	-11.161
▁အာဏာသိမ်း	-11.1611
▁ဝီ	-11.1615
မယ်။	-11.1616
▁အပေါ်တွင်	-11.1617
701504	-11.1618
▁ပြုလုပ်ထား	-11.1619
လမ်းမကြီး	-11.1621
▁Burma	-11.1622
▁အုံ	-11.1624
▁ရက်နေ့၌	-11.1624
41	-11.1624
ice	-11.1626
▁ဆုံးမ	-11.1626
▁ဒါး	-11.1628
စာကို	-11.163
ဖက်တွင်	-11.1631
ဖြစ်သွား	-11.1636
ချား	-11.1637
လိုက်ကြသည်။	-11.1638
ပေါ်မှာ	-11.1638
ရာထူးကို	-11.1638
ပြည်ထောင်စုသမ္မတ	-11.1639
▁ပြက္ခဒိန်	-11.1639
▁ရာထူးမှ	-11.1641
▁ဂျိမ်း	-11.1641
▁၆၈	-11.1642
▁ကွန်ဂရက်	-11.1644
▁ပြီးလျှင်	-11.1644
▁နမူနာ	-11.1645
▁နစ်	-11.1646
▁တင့်တယ်	-11.1646
▁မကျေနပ်	-11.1649
▁သာစည်မြို့နယ်၊	-11.1651
▁ဒစ်ဂျစ်တယ်	-11.1651
ထူးခြား	-11.1654
▁ချင်းပြည်နယ်	-11.1658
▁ဆွတ်	-11.1658
▁ကလပ်	-11.1658
▁ကက်	-11.1659
တလုံး	-11.1659
အကျယ်	-11.1662
▁မွတ်စလင်	-11.1663
▁Black	-11.1668
▁ချား	-11.1668
▁ကစားနည်း	-11.167
▁ရောစပ်	-11.1671
▁စိုင်	-11.1672
သားကို	-11.1675
▁တည်ထောင်သူ	-11.1676
ဂေါင်း	-11.1676
ကျန်ရစ်	-11.1676
မုန်တိုင်း	-11.1678
နေသောကြောင့်	-11.1679
▁ပြုလုပ်ကြသည်။	-11.168
sk	-11.1682
ကြင်	-11.1682
▁တိဘက်	-11.1682
▁စကြာဝဠာ	-11.1682
သယ်	-11.1684
▁ယုံ	-11.1685
ကျယ်ဝန်း	-11.1688
ကြာမြင့်	-11.1688
ဖြစ်ရန်	-11.1693
ရပ်တည်	-11.1694
ထန်းတပင်မြို့နယ်	-11.1698
▁Th	-11.1699
လျက်ရှိပြီး	-11.1699
▁တောင်ထိပ်	-11.1699
လိန်း	-11.1699
▁မုတ္တမ	-11.17
▁Kha	-11.17
ပါဒ	-11.1701
ဇယား	-11.1701
▁အချက်အချာ	-11.1702
ဖက်မှ	-11.1703
မြား	-11.1704
ပြည်ထောင်စု၏	-11.1705
ရှိကာ	-11.1706
▁နှုတ်ခမ်း	-11.1706
လိုက်၍	-11.1706
ေယျ	-11.1707
ဓဇ	-11.1708
▁ဆိုသူ	-11.1709
▁ကောင်း၊	-11.1709
▁ဂုဏ်ထူး	-11.1709
ကြွင်း	-11.1712
အယ်လ်ဘမ်	-11.1713
ဗြိတိသျှ	-11.1714
▁ဆွဲဆောင်	-11.1717
▁ဒင်္ဂါး	-11.1717
အစ်	-11.1719
▁ဘတ်	-11.172
မုနိ	-11.172
ခန့်တွင်	-11.1721
▁မျှော်စင်	-11.1723
ရေကျော်	-11.1723
တစ်ခါ	-11.1723
▁ရှိသည်	-11.1726
မှပင်	-11.1728
▁လိုလား	-11.1729
▁ကွာဝေးသည်။	-11.1729
ven	-11.1733
▁Lar	-11.1734
များသော	-11.1734
နေအိမ်	-11.1737
▁သယ်ယူပို့ဆောင်	-11.1737
▁ရှုပ်ထွေး	-11.1743
နည်းမှာ	-11.1744
ပေမည်။	-11.1745
BC	-11.1747
ဒွန်း	-11.1748
▁နီးပါး	-11.1751
▁National	-11.1751
▁အလှူ	-11.1752
▁ပို့ချ	-11.1753
▁ပြည်မြို့နယ်၊	-11.1755
ကျောင်းမှ	-11.1755
▁ဟူ၍လည်း	-11.1756
ဂိတ်	-11.1756
တရားလွှတ်တော်	-11.1759
▁တပ်မှူး	-11.1759
ထွက်လာ	-11.1761
တောင်းဆို	-11.1761
▁နတ်ဘုရား	-11.1764
ကွေ	-11.1764
▁Za	-11.1764
▁အလိုရှိ	-11.1766
နည်း၊	-11.1768
စိုက်ပျိုးကြသည်။	-11.177
▁အတွင်းဝန်	-11.1772
▁နှစ်နိုင်ငံ	-11.1773
▁အခြေအနေကို	-11.1775
▁ဖီ	-11.1776
▁၁၈၉၂	-11.1776
ဇက်	-11.1777
▁ဆိုက်	-11.1779
="65	-11.178
နိုင်ငံကို	-11.178
▁ထုလုပ်	-11.1782
▁ပိုင်ဆိုင်မှု	-11.1785
▁ကာကွယ်ရန်	-11.1787
▁ဖဲ	-11.1788
လားဟူ	-11.1791
=95	-11.1792
▁ခံစားရ	-11.1793
=210	-11.1793
▁ကျိုး	-11.1795
ဖန်း	-11.1796
နိမိတ်	-11.1796
▁ကောင်မင်ဆန်း	-11.1797
ချန်း	-11.1798
▁မိုးမိတ်	-11.1798
▁အဖွဲ့၏	-11.1798
▁နည်းဥပဒေ	-11.1799
▁ဝက်ဝံ	-11.1801
သန့်စင်	-11.1801
▁သာယာကုန်းရွာ	-11.1801
▁ပြင်သစ်၊	-11.1802
▁ခုနှစ်မှာ	-11.1802
ထိခိုက်	-11.1804
▁အမြတ်	-11.1804
▁မှော်	-11.1806
စည်သူ	-11.1806
ရိယ	-11.1806
▁ဘဒ္ဒန္တ	-11.1807
▁၁၈၇၈	-11.1807
▁ဝန်ဆောင်မှုများ	-11.1808
မှသာလျှင်	-11.1809
▁မည်	-11.1812
▁စုဝေး	-11.1813
▁တိမ်ကောသွား	-11.1817
▁အုတ်ဖို	-11.1818
▁အရပ်ရပ်	-11.1819
▁ဆင့်	-11.1823
▁ထမ်း	-11.1827
တင်ပို့	-11.1833
ရေးဆိုင်ရာ	-11.1835
ထစ်	-11.1837
လေးများ	-11.1837
▁ဂျူ	-11.1839
ja	-11.184
ဖြင့်လည်းကောင်း၊	-11.1842
▁Kaw	-11.1845
▁နယူးယောက်	-11.1846
▁ညီညွတ်	-11.1849
▁၁၈၉၈	-11.1851
▁ကာလအတွင်း	-11.1855
လှပ	-11.1855
="207	-11.1859
▁ရှက်	-11.1863
=58	-11.1863
▁လူး	-11.1863
ဂယ်	-11.1864
▁သိုင်း	-11.1865
▁အသက်ရှင်	-11.1866
▁ကဗျာကို	-11.1867
▁pa	-11.1869
▁ဗီတာမင်	-11.1871
ယိမ်း	-11.1874
တွေ၊	-11.1875
▁ဝီလီယံ	-11.1876
သန့်ရှင်း	-11.1877
▁ဆင်တူ	-11.1879
ure	-11.1879
မျောက်	-11.188
="87	-11.188
ကြီးအား	-11.188
▁အကြီးမားဆုံး	-11.1883
▁ထိန်း	-11.1888
▁အကွက်	-11.1888
▁ဆေးတက္ကသိုလ်	-11.189
အကြံ	-11.1892
▁ရွာမ	-11.1892
▁ခိ	-11.1893
▁ဦးစိန်	-11.1894
မြင့်သော	-11.1895
▁နော်	-11.1896
ခုနှစ်မှ	-11.1897
ခေါ်ဆို	-11.1897
အွန်	-11.1899
တပါး	-11.1901
▁ရာမ	-11.1902
မူဝါဒ	-11.1904
▁ထိုသို့သော	-11.1908
ထားကြ	-11.1912
ခံခဲ့ရ	-11.1913
▁အစိုးရသည်	-11.1913
ယော်	-11.1914
ချွန်း	-11.1916
နေထိုင်ရာ	-11.1918
များပါ	-11.1918
ဇနီး	-11.1918
▁Pauk	-11.1919
▁ဂျပန်တို့	-11.1923
▁ညီအစ်ကို	-11.1923
ပြိုင်ပွဲတွင်	-11.1923
အလှ	-11.1925
ဘုန်းကြီး	-11.1925
▁၉၆	-11.1928
▁ဆင်ဖြူရှင်	-11.1928
ten	-11.193
▁ပြုလုပ်ထားသော	-11.193
ပြောကြား	-11.193
▁စင်ကာပူနိုင်ငံ	-11.1933
▁တိုင်ပင်	-11.1934
ဘုရား၊	-11.1934
▁ပြုလုပ်ခြင်း	-11.1935
သိမ်းယူ	-11.1938
▁ရာဇဝတ်မှု	-11.1943
ဘွယ်	-11.1946
=149	-11.1951
="149	-11.1954
▁ဖြစ်သွား	-11.1954
act	-11.1956
▁also	-11.1957
ဖေါက်	-11.1957
▁လူမျိုးရေး	-11.1961
တွေ့ရှိရ	-11.1961
▁သံချို	-11.1964
▁တရုတ်၊	-11.1964
ts	-11.1964
▁ဆောက်လုပ်ရေး	-11.1965
mar	-11.1967
ဆန့်	-11.1967
▁အာဏာရှင်	-11.1968
တွင်းရွာ၊	-11.1969
ard	-11.1969
▁Nam	-11.197
▁၁၈၉၁	-11.1971
ning	-11.1971
မပါဘဲ	-11.1971
လူများ	-11.1972
▁Con	-11.1973
▁တွေ့ရလေသည်။	-11.1974
▁အတွင်းသို့	-11.1977
▁ခန့်အပ်ခဲ့သည်။	-11.1977
▁ပါသည်။	-11.1977
ဆင်ခြင်	-11.1977
မဟုတ်သည့်	-11.1978
ပြည်ထောင်စုတွင်	-11.198
▁ချီးမွမ်း	-11.1981
လာသည်	-11.1981
မြစ်၏	-11.1983
ပညာသင်ကြား	-11.1985
▁စနစ်ကို	-11.1986
by	-11.1987
ကူးစက်	-11.1987
46	-11.1988
အချက်များ	-11.1989
53	-11.1995
ial	-11.1996
▁မှူးမတ်	-11.1997
▁ဦးစားပေး	-11.2
▁မြင်ရ	-11.2001
ည်	-11.2005
▁စောင်	-11.2005
▁စည်းရုံးရေး	-11.2006
တုပ်	-11.2007
ပေါ်မူတည်၍	-11.2007
▁၁၈၈၇	-11.2009
အားကစားကွင်း	-11.201
ဖင်	-11.2011
▁ထားသည်။	-11.2012
နယ်၊	-11.2014
အရှေ့ဘက်	-11.2015
ခြယ်	-11.2016
ရွေ့	-11.2017
ပါဝင်ခဲ့သည်။	-11.2018
ရှို	-11.2019
▁သင်ကြားခဲ့သည်။	-11.202
▁အင်ပါယာ	-11.2027
▁ဝပ်	-11.2028
▁ကိလေသာ	-11.2029
သင်္ချာ	-11.2029
ဖိအား	-11.203
ကျဉ်း	-11.203
▁သုည	-11.2031
="210	-11.2033
▁အုန်းပင်	-11.2034
ဆန်သော	-11.2035
ပါသည်	-11.2037
ခက်ခဲ	-11.2037
東	-11.2038
ကြပြီးလျှင်	-11.2039
▁အိုင်ဖုန်း	-11.204
ထွန်	-11.2041
လိုလျှင်	-11.2041
ကျွေး	-11.2041
ရှေ့တွင်	-11.2043
▁နု	-11.2043
▁တစ်နေရာ	-11.2044
▁၁၉၀၅	-11.2047
မျိုးရိုး	-11.2048
▁formula	-11.2048
▁ပန်ဝိုင်	-11.2049
▁ဖုန်း	-11.2051
▁၁၉၀၁	-11.2051
▁စကော့	-11.2057
▁စန္ဒ	-11.2057
▁၂၀ဝ	-11.2058
အသင်း၏	-11.2061
▁ရိုး	-11.2061
ဗု	-11.2061
▁အမိုး	-11.2065
▁ဖော်ပြသည်။	-11.2066
▁တရုတ်နိုင်ငံ၊	-11.2071
တော်ဝင်	-11.2072
▁သံလိုက်	-11.2073
▁ဆီမီး	-11.2073
▁Har	-11.2074
စာမျက်နှာ	-11.2077
▁ထုတ်လွှတ်	-11.2077
စကီး	-11.2078
48	-11.2079
▁ဖီဖာ	-11.208
ကြေ	-11.2083
အနေ	-11.2083
လွင့်	-11.2086
လိုက်၏။	-11.2087
▁ဖြတ်၍	-11.2087
ဇယ်	-11.2087
▁မော်စကို	-11.209
တတ်မြောက်	-11.209
ဗြ	-11.2092
▁ခိုင်မာ	-11.2096
▁တွေ့ရ၏။	-11.2096
မှုများနှင့်	-11.2097
▁Rock	-11.2098
အုပ်စုတွင်	-11.2101
▁နီး	-11.2102
▁စက္ကန့်	-11.2105
ရရန်	-11.211
▁ဆင်ဖြူ	-11.211
အခေါ်	-11.211
ထွက်ရှိ	-11.2111
တစ်ပုဒ်	-11.2111
ef	-11.2112
ခဲ့ကြရသည်။	-11.2113
တစ်ဦးဖြစ်သူ	-11.2118
ယ်ကျယ်ပြန့်ပြန့်	-11.212
ကာရ	-11.212
▁ဖားဆောင်း	-11.2121
▁ဟောင်း	-11.2122
တိတ်	-11.2124
သပ်	-11.2125
ဘုရင်သည်	-11.2125
▁ဆုတ်ခွာ	-11.2125
ိုင်းစစ်ဌာနချုပ်	-11.2126
▁လိုအပ်သည့်	-11.2127
များဖြစ်	-11.2127
▁တပ်ဖွဲ့	-11.2128
ဒဘူတာ	-11.213
▁တကောင်း	-11.2131
▁ဝါးရုံ	-11.2133
ဂါထာ	-11.2133
တာက	-11.2138
▁မဲဆန္ဒနယ်	-11.2141
▁အောက်ပိုင်း	-11.2141
▁ပန်းချီကား	-11.2146
ယာမဘူတာ	-11.2147
ပရိ	-11.2147
▁သုံးခု	-11.2147
ဘက်က	-11.2148
ခေ	-11.2149
ထမ်းဆောင်	-11.2149
ဖြည့်	-11.2149
▁ဘူတာရုံ	-11.2153
▁စီးဝင်	-11.2154
▁ရှိခိုး	-11.2156
ကစားနည်း	-11.2157
ပတ်လမ်း	-11.2157
ဆွေးနွေးပွဲ	-11.2157
နိယ	-11.2158
ပျဉ်	-11.2159
ကျွတ်	-11.2159
ဆောင်ရွက်ခြင်း	-11.2159
▁နမ်ခမ်းဝူး	-11.2161
▁အင်မတန်	-11.2162
▁နှစ်ကြာ	-11.2163
=88	-11.2163
▁ရောက်သွား	-11.2164
▁ဂေါ	-11.2166
▁ပစိဖိတ်	-11.2166
▁ထန်းပင်	-11.2167
လှရွာ	-11.2169
▁ထွက်ရှိ	-11.217
▁ရွာသစ်ရွာ	-11.2171
▁ယုန်	-11.2171
ရပ်စ်	-11.2172
သဒ္ဒါ	-11.2174
▁ရှိသဖြင့်	-11.2175
▁ဆွေမျိုး	-11.2177
ိယ	-11.2178
▁နံ	-11.218
▁အခိုင်အမာ	-11.218
▁ဝတ္ထုရှည်	-11.218
လေ့ကျင့်	-11.2182
သူတော်	-11.2183
▁အစပြု	-11.2184
▁မအောင်မြင်	-11.2184
▁၇၄	-11.2189
အခွန်	-11.2191
▁အရံ	-11.2192
=63	-11.2192
▁ရုပ်ရှင်ကား	-11.2193
▁ကုန်ပစ္စည်း	-11.2195
▁ပြည်ခရိုင်	-11.2195
ချောင်းဖျားရွာ	-11.2196
▁လူ့အဖွဲ့အစည်း	-11.2196
အတူ	-11.2197
▁အသုံးမပြု	-11.2197
ပုံများကို	-11.2199
▁ကုန်ကျစရိတ်	-11.22
▁အကြင်	-11.2201
▁သုံးကြိမ်	-11.2201
ဗယ်	-11.2201
su	-11.2204
▁ထိုကဲ့သို့သော	-11.2205
ယူး	-11.2205
▁လောင်စာ	-11.2206
▁အပြာရောင်	-11.2207
▁ဆံ	-11.2208
ရရှိရန်	-11.2208
မှုမရှိ	-11.2209
ting	-11.2209
ကျောင်းတော်တစ်ခု	-11.221
▁သိပ်	-11.2211
▁စာသား	-11.2213
နှင့်တူသော	-11.2215
▁မျှော်လင့်	-11.2215
▁အချုပ်အခြာအာဏာ	-11.2216
▁ဆပ်ပြာ	-11.2217
အရွယ်အစား	-11.222
▁ချင်းတွင်းမြစ်	-11.222
▁အကျိုးရှိ	-11.222
ou	-11.2221
▁ပြုလုပ်ပေး	-11.2222
တာဝန်ကို	-11.2223
▁အမဲလိုက်	-11.2224
▁ဆန့်ကျင်ဘက်	-11.2225
▁မြူ	-11.2225
မည်ဆိုပါက	-11.2225
▁ခြ	-11.2226
▁ပွား	-11.2227
ag	-11.2227
ငြိမ်	-11.2228
▁ခန့်က	-11.223
▁ဘိုင်	-11.2231
ရွာဟောင်း	-11.2232
အမျိုးအစားများ	-11.2233
=205	-11.2235
သည့်အလျောက်	-11.2238
ပြက်	-11.224
="205	-11.2241
နာ၊	-11.2241
▁ပြင်းထန်သော	-11.2242
အကျဆုံး	-11.2244
Bhone	-11.2244
ပြီးစီး	-11.2244
▁မရှိခဲ့ပေ။	-11.2245
နှိုက်	-11.2245
▁မှစ၍	-11.2246
▁ပိုင်ရှင်	-11.2249
တိုးတက်မှု	-11.225
core	-11.225
▁ရေကူး	-11.2251
ပေးခဲ့	-11.2251
နိုင်ငံသား	-11.2252
▁၁၉၀၃	-11.2253
▁၁၈၂၄	-11.2254
သတိ	-11.2254
လာသည့်အခါ	-11.2256
▁၁၈၅၇	-11.2258
▁ကတော့	-11.2258
အသိုင်းအဝိုင်း	-11.2259
များဟု	-11.226
စသည်တို့ကို	-11.2262
န္တိ	-11.2263
သဘောကို	-11.2267
▁သာမဏေ	-11.2268
ဒိုက်	-11.2268
▁Jo	-11.227
▁စစ်ကိုင်းခရိုင်	-11.227
▁ပါဝင်ဆောင်ရွက်	-11.2271
တစ်ဦး၏	-11.2273
ဟုဆို	-11.228
ပြောင်းလဲခဲ့သည်။	-11.228
ဆောင်ရွက်ရန်	-11.2281
▁ထိပ်ဆုံး	-11.2282
▁ဦးစံ	-11.2283
▁၈၅	-11.2283
ပြောင်းရွှေ့	-11.2287
ပညာရှင်များက	-11.229
ဂန်း	-11.229
▁ဂြိုဟ်ရံလ	-11.2291
ler	-11.2292
သတ်ဖြတ်	-11.2298
▁ခုမြောက်	-11.2298
ဖော့	-11.2298
▁ဘေ	-11.2299
▁ယု	-11.23
သေး၏။	-11.2303
ဝစ်	-11.2304
▁(4)	-11.2304
▁အပိုဒ်	-11.2305
▁၁၈၅၉	-11.2305
သတ္တိ	-11.2306
သနည်း	-11.2306
ဂမုန်း	-11.2306
▁တပင်ရွှေထီး	-11.2308
▁လက်ခံကျင်းပ	-11.231
အလုပ်ကို	-11.231
ဟောက်	-11.2311
ကလေးရွာ	-11.2314
တိုင်းတာ	-11.2314
ဓာတ်ပုံ	-11.2314
အားလုံး၏	-11.2314
▁Nat	-11.2318
▁အိမ်ရှင်	-11.2318
အစစ်	-11.2318
ကျေ	-11.2321
▁ပြတ်	-11.2326
▁power	-11.2327
▁နီးစပ်	-11.2327
လည်းရှိသည်။	-11.2327
သည့်အချိန်	-11.2328
က်စ်	-11.2329
▁စင်တီမီတာ	-11.2329
▁အနုပညာရှင်များ	-11.233
▁စိုးမိုး	-11.233
▁စာဖတ်	-11.2331
="138	-11.2332
▁အမွေ	-11.2332
အသစ်များ	-11.2333
▁ဗျည်း	-11.2333
လုပ်ငန်းသည်	-11.2335
▁ရေးစပ်	-11.2335
ရက်၊	-11.2336
▁၁၉၀၆	-11.2337
IA	-11.2338
ပြုလုပ်ခြင်း	-11.2339
ny	-11.2339
▁Ru	-11.234
▁ကြာမြင့်	-11.234
▁ကျယ်	-11.2341
▁ကျွန်းဆွယ်	-11.2341
ရန်ဖြစ်သည်။	-11.2341
▁တဏှာ	-11.2345
လိုက်ရသည်။	-11.2346
▁နေထိုင်ရာ	-11.2346
ဟက်	-11.2348
▁ဆည်မြောင်း	-11.2351
▁ကိုယ်ထည်	-11.2352
▁တစ်ချို့	-11.2352
မပြတ်	-11.2353
▁အားနည်း	-11.2355
=60	-11.2359
လူနာ	-11.236
▁ကျောင်းတွင်	-11.2361
▁နိုင်ငံအတွင်း	-11.2361
▁မုံရွာ	-11.2363
▁ရုပ်ပုံ	-11.2366
ပုံများ	-11.2369
▁ဖုံးအုပ်	-11.2369
▁သံသရာ	-11.2369
ل	-11.2369
▁ရင်ဖန့်မြို့နယ်	-11.2369
ဖျာ	-11.237
▁ဆောင်ရွက်ပေး	-11.237
▁မြား	-11.2373
ance	-11.2373
▁အခွင့်အရေးများ	-11.2373
ခြင်းမရှိဘဲ	-11.2374
ပုံပြင်များ	-11.2377
ပုဂ္ဂိုလ်များ	-11.2377
မြည်	-11.2379
ငါ့	-11.238
▁ရှေ့တန်း	-11.2382
▁၁၈၂၁	-11.2384
▁နယူးဇီလန်	-11.2387
▁ဇီဝဗေဒ	-11.2387
ခြင်းခံရ	-11.2393
ပေါင်းချုပ်	-11.2393
တည်းဟူသော	-11.2395
ပျိုး	-11.2396
ပြန်၏။	-11.24
▁ကျင်းပသည့်	-11.24
ပေးလိုက်	-11.24
နိုင်ခွင့်	-11.2402
▁တရုတ်လူမျိုး	-11.2402
စည်ကား	-11.2404
▁ဟက်	-11.2404
▁ပုဂံမင်း	-11.2404
ငုတ်	-11.2405
ပြုရန်	-11.2406
▁ထိုနေ့	-11.2406
တလန်	-11.2408
▁အနည်းငယ်သာ	-11.2409
▁ကဗျာများ	-11.241
အ်	-11.241
▁ယူနိုက်တက်	-11.2411
▁၁၈၆၄	-11.2411
aw	-11.2413
▁အပြား	-11.2414
▁နွယ်	-11.2414
▁နေရောင်ခြည်	-11.2415
ပေးကာ	-11.2417
စိုက်ပျိုးရေး	-11.2417
တော့၏။	-11.2419
▁၁၉၃၃	-11.242
▁မြောက်မြားစွာ	-11.2421
ဟိတ်	-11.2422
မုတ်	-11.2426
မှတစ်ပါး	-11.2426
ကြီးထွား	-11.2427
▁၁၈၈၁	-11.2428
ွှ	-11.2429
ခွင့်ကို	-11.2429
▁ခေတ်စား	-11.2432
လှသည့်	-11.2433
ဖခင်	-11.2436
006	-11.2438
နွေး	-11.2438
▁အနုပညာရှင်	-11.2439
▁အမှား	-11.244
▁နယူးယောက်မြို့	-11.244
▁t	-11.2443
▁ပြောင်းလဲသွား	-11.2444
▁တည်ရှိ၍	-11.2445
ck	-11.2445
▁နှဲ	-11.2446
ဒီမိုကရက်တစ်ပါတီ	-11.2446
▁ရှောင်ကြဉ်	-11.2446
60	-11.2448
▁တွေ့မြင်နိုင်	-11.2448
အံ	-11.2448
▁အာဟာရ	-11.2452
▁Pi	-11.2453
▁ပြဒါး	-11.2454
သေန	-11.2455
▁သန့်စင်	-11.2456
တွက်ချက်	-11.2458
▁၁၂။	-11.2461
▁ပြန်ရောက်	-11.2463
▁ရေအောက်	-11.2463
▁ကျနော်တို့	-11.2463
ll	-11.2464
▁၁၉၀၇	-11.2465
▁အပတ်စဉ်	-11.2466
▁ယင်းနောက်	-11.2466
လိမ်း	-11.2467
▁အလောင်းတော်	-11.2468
▁လယ်တီ	-11.2469
▁အလွှာ	-11.2469
▁၆၃	-11.2469
အမျိုးမျိုးဖြင့်	-11.247
▁၁၈၈၈	-11.247
ကြရ၏။	-11.2475
ဖြောင့်	-11.2476
▁အလေး	-11.2479
ကြိုးပမ်း	-11.248
စောင့်ရှောက်ရေး	-11.2482
လဟာ	-11.2483
အပူ	-11.2483
punk	-11.2485
▁ထောက်ပံ့ပေး	-11.2487
▁Lan	-11.2487
ရှပ်	-11.2487
အပ်နှင်း	-11.2487
ထက်သန်	-11.2487
တားဆီး	-11.249
▁ဆွေးနွေးပွဲ	-11.249
▁နတ်ပြည်	-11.2491
ပြုလုပ်ရန်	-11.2492
အလျောက်	-11.2493
ence	-11.2493
မဟုတ်ပေ။	-11.2494
▁သမုတ်	-11.2495
▁ပြုလုပ်ရန်	-11.2495
▁ရှိရာ	-11.2496
ညှစ်	-11.2496
▁ဆင်စွယ်	-11.2496
=94	-11.2497
ချ၍	-11.2499
▁ယူကေ	-11.25
၌လည်းကောင်း၊	-11.2502
▁ငှားရမ်း	-11.2504
▁ခက်	-11.2505
▁ညောင်ကုန်းရွာ	-11.2506
▁အမည်ပြောင်း	-11.2507
ကသာ	-11.251
ငှား	-11.2511
လာသည်နှင့်အမျှ	-11.2512
lic	-11.2512
▁ဂန္ထဝင်	-11.2513
ထဲရှိ	-11.2513
▁ပျောက်	-11.2515
▁ဘာသာစကားများ	-11.2517
▁၁၈၈၉	-11.252
▁မရောက်	-11.2521
▁အသုံးပြုကြ	-11.2521
နိုင်ရေး	-11.2522
ကြီးများသည်	-11.2525
ဖူ	-11.2525
နေပါသည်။	-11.2526
ပင်လယ်အော်	-11.2526
ခေါင်းဆောင်သော	-11.2527
အားလုံးသည်	-11.2528
▁ကိုလံဘီယာ	-11.2528
▁အထက်ပိုင်း	-11.2528
▁မနော	-11.2528
▁ယခုလက်ရှိ	-11.253
အသိ	-11.2531
ပ္	-11.2531
ွိုင်	-11.2531
များဖြစ်ကြသော	-11.2536
▁မွန်ပြည်နယ်	-11.2537
▁ပိုလန်	-11.2539
و	-11.2539
သံတူကြောင်းကွဲ	-11.2539
▁တလိုင်း	-11.2543
လွတ်မြောက်ရေး	-11.2545
▁အာနိသင်	-11.2546
▁ကန်တော်	-11.2546
ကောင်းကင်	-11.2548
Mir	-11.2549
▁၁၈၉၃	-11.255
▁တက်ကြွ	-11.2555
▁၁၈၉၉	-11.2556
ပိုဒ်	-11.2557
▁အမြင့်ပေ	-11.2557
ပြည့်ရှင်	-11.256
သည့်နေရာ	-11.256
▁၁၈၇၂	-11.2564
သေခိယသိက္ခာပုဒ်	-11.2565
ဒေသသို့	-11.2566
▁၁၈၆၇	-11.2567
လေ့ရှိကြ	-11.2567
ဖြစ်ခဲ့	-11.2572
▁မူလတန်းကျောင်း	-11.2572
▁Asia	-11.2572
▁စတင်ဖွင့်လှစ်	-11.2573
▁အောက်သို့	-11.2573
▁ရုပ်သေး	-11.2574
▁မြေဆီလွှာ	-11.2576
▁ကောင်းမှု	-11.2577
၏ဟု	-11.2578
▁Du	-11.258
▁အက်စ်	-11.258
▁တရားစီရင်ရေး	-11.2582
င်္	-11.2582
=213	-11.2583
▁ကျေနပ်	-11.2584
▁ဟားခါးမြို့နယ်	-11.2584
▁ဘု	-11.2587
▁ပေသည်။	-11.2587
▁အသံလွှင့်	-11.2592
▁စာပေဆု	-11.2593
▁၁၈၈၃	-11.2594
▁အကြံပြု	-11.2598
▁ကျောက်ကပ်	-11.2599
▁တကယ်	-11.26
▁တစ်ဝက်	-11.26
ပြပွဲ	-11.26
▁ဟုခေါ်	-11.2602
ပုံး	-11.2605
မှာပဲ	-11.2605
ထားရန်	-11.2606
နိုင်ငံသို့	-11.2606
004	-11.2607
ရည်ကို	-11.2608
val	-11.2608
▁အခွင့်	-11.261
▁post	-11.2611
နိဗ္ဗာန်	-11.2612
▁ပိ	-11.2612
▁အမှတ်တရ	-11.2614
ဂတ်	-11.2618
king	-11.2618
အု	-11.262
နည်းသော	-11.2624
="213	-11.2625
ပေါက်ရွာ	-11.2627
▁ရဟန်းမိန်းမ	-11.2627
လုပ်ကြံ	-11.2628
လျက်ရှိရာ	-11.2628
▁ရေးသားသော	-11.2629
▁နက္ခတ်	-11.2629
ဇား	-11.2629
Re	-11.263
ဝ်	-11.2631
▁၇၁	-11.2632
="72	-11.2635
ကိရိယာများ	-11.2637
▁ပျဉ်းမနား	-11.2639
daung	-11.264
ဖြန့်	-11.264
▁မဟုတ်ချေ။	-11.2642
orn	-11.2646
▁ခြောက်သွေ့	-11.2647
▁မြိုင်	-11.2648
▁ငါ၏	-11.2649
ဂျူ	-11.2653
▁ဓလေ့	-11.2656
▁ချာ	-11.2658
▁အိတ်	-11.266
▁ပင့်	-11.2662
ညှိနှိုင်း	-11.2662
လွှမ်း	-11.2665
▁စကားပြေ	-11.2665
="202	-11.2665
=202	-11.2668
ဘွတ်	-11.2668
▁System	-11.2669
▁များမှာ	-11.267
ick	-11.2672
တွန်း	-11.2672
ရသောကြောင့်	-11.2674
▁ပညတ်	-11.2675
ခဲ့ရ၏။	-11.2676
▁မြဝတီမြို့နယ်	-11.2678
▁အဘိ	-11.268
▁၁၈၉၇	-11.268
▁တဖက်	-11.268
▁လုပ်ကိုင်ကြသည်။	-11.2682
=57	-11.2683
မြစ်ဝှမ်း	-11.2684
▁လမ်းလျှောက်	-11.2684
ချောင်းဝရွာ	-11.2685
▁၁၈၁၉	-11.2686
▁ပျိုး	-11.2688
▁ကယ်တင်	-11.2689
=209	-11.269
="73	-11.2691
လုပ်ဆောင်ခဲ့သည်။	-11.2692
▁ရပ်နား	-11.2694
င္	-11.2698
▁တည်ငြိမ်	-11.2699
ဝှ	-11.27
ပုဏ္ဏား	-11.27
၄ဝ	-11.2701
ပို့ချ	-11.2702
အတတ်ပညာ	-11.2703
၂၀၀	-11.2709
နိုင်ခဲ့လေသည်။	-11.271
▁နိုင်ငံရေးအရ	-11.2711
စနစ်ဖြင့်	-11.2712
▁တစ်စတစ်စ	-11.2712
▁မိုက်ကယ်	-11.2714
ကြောင့်လည်း	-11.2714
တော်မူလေသည်။	-11.2714
▁အကျွန်ုပ်	-11.2714
ဟူသည့်	-11.2715
▁ပုံရိပ်	-11.2715
▁လေတပ်	-11.2718
▁ဆရာတော်ကြီး	-11.272
▁တစ်ပတ်	-11.2722
▁သားငယ်	-11.2722
သည်ဟူသော	-11.2723
ရှည်လျား	-11.2723
▁သရက်ကုန်း	-11.2723
တောရ	-11.2723
▁သိသိသာသာ	-11.2723
ဓာတု	-11.2724
နွမ်း	-11.2725
သဘောတူညီချက်	-11.2725
▁ငြင်းဆို	-11.2725
အနောက်ပိုင်း	-11.2727
▁၈ဝ	-11.2728
▁ပုဂံပြည်	-11.2731
ဆင်နွှဲ	-11.2731
အသိအမှတ်ပြု	-11.2733
▁ကုန်ကျ	-11.2735
▁ရည်	-11.2736
▁ညွှန်ပြ	-11.2741
▁Cha	-11.2741
နိုင်ငံများမှ	-11.2741
▁ကြိတ်	-11.2743
အစဉ်	-11.2743
ယူဆ	-11.2745
▁ကျောင်းဆရာ	-11.2748
▁တာဝန်ယူခဲ့သည်။	-11.2749
An	-11.2749
ပါလ	-11.275
yo	-11.2751
အုပ်ချုပ်မှု	-11.2751
သစ်တော	-11.2751
▁သိုက်	-11.2751
▁သာသနာပိုင်	-11.2752
ဒေါင်	-11.2752
ကြသည်ကို	-11.2752
▁အရေးအခင်း	-11.2752
▁ဖိနပ်	-11.2753
ရောက်လာ	-11.2754
▁ကုန်းဘောင်	-11.2754
=74	-11.2755
▁School	-11.2756
=136	-11.2756
=214	-11.2756
▁လက်ဖြင့်	-11.2756
tta	-11.2757
▁နည်းစနစ်	-11.2761
="136	-11.2762
cha	-11.2762
▁မြို့ကြီးများ	-11.2766
="214	-11.2766
ဂေါ့	-11.2769
ထွက်၍	-11.2772
▁တမန်တော်	-11.2772
တတ်ကြ	-11.2773
ဝု	-11.2774
ဟွမ်	-11.2774
▁တစ်ခုအပါအဝင်	-11.2775
▁အလောင်း	-11.2775
▁ဤသို့သော	-11.2776
ပြည်သို့	-11.2779
▁ခေါက်	-11.2781
လိုက်ရ	-11.2782
▁အဆ	-11.2782
စေကာ	-11.2784
▁လူ၏	-11.279
ထွင်	-11.279
ခရိုင်တွင်	-11.279
ဗျည်း	-11.2791
▁ရေပေါ်	-11.2793
▁ဝေါ	-11.2795
▁ရှည်လျား	-11.2797
▁ခေတ်ပေါ်	-11.2798
▁မြှောက်	-11.2799
▁မြန်မာဘာသာ	-11.2803
▁ရှင်းပြ	-11.2806
ဘုရင်မ	-11.2808
▁၁၈၅၀	-11.2808
၂၀၁၅	-11.2809
▁ပြည်ထဲရေး	-11.281
▁ရေးသားထား	-11.281
▁အနိစ္စရောက်	-11.2812
▁ခေါ	-11.2812
▁ပွတ်	-11.2813
▁ပြည်သူတို့	-11.2816
▁ဟိမဝန္တာ	-11.2818
တောင်အမေရိကတိုက်	-11.2819
▁လုပ်ငန်းကို	-11.2819
ခဏ	-11.282
▁အသက်အရွယ်	-11.282
ယူကာ	-11.2821
▁ရေးသားပြုစု	-11.2823
▁ဝိုင်	-11.2824
ဘိုင်း	-11.2824
▁၁၈၇၉	-11.2827
▁သစ်စေး	-11.2827
▁ခေါင်းဆောင်သော	-11.283
▁တိုးပွားလာ	-11.2831
▁ပြောင်းလဲမှု	-11.2832
ကုန်သွယ်ရေး	-11.2835
▁မပါဝင်	-11.2835
▁နန္ဒ	-11.2838
အချို့က	-11.2839
ဖြစ်ပါက	-11.2839
နှစ်တွင်	-11.2839
▁ဒန်	-11.2841
ding	-11.2842
ဒါယကာ	-11.2842
=139	-11.2844
ပေါများ	-11.2844
▁တရားဥပဒေ	-11.2844
="139	-11.2848
▁အသုံးပြုမှု	-11.2848
တဲရွာ	-11.2848
သူရိယ	-11.2849
▁၁၈၀၀	-11.285
▁ဂျင်း	-11.2851
003	-11.2852
▁ခွာ	-11.2854
သုံ	-11.2855
▁ဂဠုန်	-11.2855
▁အသင်တို့	-11.2856
▁ထမ်းရွက်	-11.2857
▁အုပ်ချုပ်သူ	-11.2857
▁ပရို	-11.2857
▁ချေ	-11.286
စေဘဲ	-11.286
▁မင်းဘူး	-11.2862
▁Lin	-11.2863
▁ဩစတြီးယား	-11.2864
▁နတ်သမီး	-11.2867
▁ပါဝင်၍	-11.2868
စဲ	-11.2868
နေလျှင်	-11.2869
ထုတ်လွှင့်	-11.2869
▁ဖြစ်ပွားခဲ့သည်။	-11.287
▁ရရှိနိုင်	-11.287
ဝယ်၊	-11.2871
▁မိုင်ပေါင်း	-11.2871
ိတ	-11.2873
▁ဥပဒေကို	-11.2873
ဟောကြားတော်မူခဲ့	-11.2873
နိုင်ငံတို့	-11.2873
▁ရေရှည်	-11.2877
▁၂၀၂၂	-11.2878
▁အာရုံစိုက်	-11.2878
▁သုတ်သင်	-11.2879
အကြံပေး	-11.2883
▁ဖြစ်သူ	-11.2885
▁ခတ်	-11.2885
မော်ကွန်း	-11.2885
စုန်	-11.2886
▁ဒေသတွင်	-11.2886
=84	-11.2886
မှုများသည်	-11.2887
▁ရှည်လျားသော	-11.2887
▁လေရှီးမြို့နယ်	-11.2888
▁ကုမ္ပဏီများ	-11.2888
▁အောက်ဖော်ပြပါ	-11.2888
ထယ်	-11.2889
=82	-11.2889
စကားပုံတစ်ခု	-11.2892
▁အငယ်ဆုံး	-11.2892
ana	-11.2893
သည့်တိုင်အောင်	-11.2894
ဂယ်လက်ဆီဖြစ်ပြီး	-11.2895
▁ရေတွင်းကုန်း	-11.2899
ရေးလုပ်ငန်း	-11.2899
▁သီဟ	-11.2903
▁စကော့တလန်	-11.2903
ရုံသာမက	-11.2906
▁အစည်း	-11.2906
အသုံးပြုသည်။	-11.2908
▁ဂြိုဟ်တု	-11.2908
▁မိန်	-11.291
အထွက်	-11.291
ဖျံ	-11.2911
▁သူရဲ	-11.2913
နယ်ကို	-11.2914
▁၁၈၆၈	-11.2915
ရပါတယ်။	-11.2915
တင့်တယ်	-11.2916
Me	-11.2917
ger	-11.2917
တွင်တည်ရှိသည်။	-11.2919
=206	-11.2922
▁Day	-11.2925
="206	-11.2928
လျှော	-11.2929
အင်္ကျီ	-11.2929
▁စိုင်း	-11.2932
▁မြတ်သော	-11.2934
▁ဖြစ်ခဲ့၏။	-11.2936
▁ပလ္လင်	-11.2936
49	-11.2936
လေးခု	-11.2937
▁၁၈၃၆	-11.294
▁၁၉၀၄	-11.2941
▁နားထောင်	-11.2942
မင်းတရားကြီး	-11.2943
▁နေရာကို	-11.2945
▁ရူ	-11.2946
▁ခွဲထုတ်	-11.2948
စဉ်တွင်	-11.2948
သူတွေ	-11.2949
ကြီးများတွင်	-11.295
တီးခတ်	-11.2951
ဆိုဒ်	-11.2951
ကျမ်းစာ	-11.2951
သော်၊	-11.2954
▁အိုးဘို	-11.2955
▁Kyun	-11.2955
ဘဝကို	-11.2956
ရှစ်ပါး	-11.2957
▁တစ်ပင်	-11.296
▁ပဋိ	-11.2965
▁အမည်ရင်း	-11.2968
▁မဂ္ဂဇင်းတွင်	-11.2971
နေထိုင်ကြ	-11.2974
▁ဒိန်းမတ်	-11.2974
=97	-11.2974
•	-11.2976
ဇန်နဝါရီ	-11.2976
▁Ko	-11.2978
▁ကဲ	-11.2979
ကော်ရွာ	-11.2979
▁ပင်ပန်း	-11.298
သူရဲကောင်း	-11.2981
ခမိ	-11.2982
▁ကဗျာလင်္ကာ	-11.2983
ဂြိုဟ်ရံလ	-11.2984
▁၁၈၂၆	-11.2985
▁အလယ်တွင်	-11.2985
လေတပ်	-11.2987
▁ခေါ်ဆိုသည်။	-11.2987
▁သူငယ်	-11.2989
ဗင်း	-11.2992
▁မဒညတ	-11.2993
▁ဆွတ်ခူး	-11.2993
▁၁၇၁၇	-11.2997
▁ပင်းယ	-11.2997
လှည့်လည်	-11.2997
min	-11.2998
ဒေါက်	-11.3
▁ရပ်ဆိုင်း	-11.3001
▁တခါတရံ	-11.3003
▁မြင့်မားသော	-11.3003
▁တည်မြဲ	-11.3003
ဟိန်	-11.3003
ဘွေ	-11.3004
▁၁၇၈၄	-11.3005
▁အဖွဲ့ဝင်များ	-11.3006
တရပ်	-11.3007
မင်းက	-11.3008
ယူပြီး	-11.3012
▁အလျင်	-11.3012
ear	-11.3012
သာသနာပြု	-11.3013
လေကြောင်း	-11.3014
ဗျာ	-11.3016
ata	-11.3017
▁အဝတ်အစား	-11.3019
ပါလီမန်	-11.3021
ဂျန်	-11.3022
▁ဝတ္ထုကို	-11.3022
သွင်	-11.3023
▁မင်းတရားကြီး	-11.3024
▁စိတ်ကူးယဉ်	-11.3026
▁ကရာတေး	-11.3026
▁နတ်မောက်	-11.3028
ဖြစ်စေရန်	-11.3028
▁အနီးတွင်	-11.3028
▁l	-11.3029
▁၁၈၃၇	-11.3029
▁အကိုင်း	-11.3032
အားပေး	-11.3033
ကပြ	-11.3033
ယုန်	-11.3035
▁အရင်းအမြစ်	-11.3036
ရေးဌာန	-11.3038
▁ဘရာဇီး	-11.3038
▁ပင့်ဆောင်	-11.3039
▁ကာကွယ်ပေး	-11.304
▁စတင်ကာ	-11.3042
="89	-11.3042
▁Par	-11.3042
လက်ပံ	-11.3042
▁Zay	-11.3042
▁တိုက်ခတ်	-11.3043
001	-11.3043
▁မိုဟာမက်	-11.3045
▁သင်္ဘောများ	-11.3046
ကြီးသော	-11.3046
▁အသိပညာ	-11.3047
▁ဖွဲ့ဆို	-11.3049
ဆုံးမ	-11.305
=50	-11.3051
ဘဝမှ	-11.3051
▁ကလည်း	-11.3056
အလယ်တွင်	-11.3061
ပွန်း	-11.3062
▁ကော်ဖီ	-11.3062
တန့်	-11.3063
="76	-11.3064
▁ထိုမြို့	-11.3065
ပြန်၍	-11.3065
=86	-11.3067
▁ဆိုသူမှ	-11.3069
ဖော်ပြထား	-11.3069
အတွေးအခေါ်	-11.307
ခဲ့ကြသော်လည်း	-11.3072
▁စရိတ်	-11.3074
▁တွေး	-11.3077
မ့်	-11.3077
တိတိ	-11.3079
▁စိတ်ကို	-11.3079
ကောင်ရွာ	-11.308
▁တပ်မ	-11.3081
▁၁၆၇၅	-11.3082
▁တကွ	-11.3082
▁ချုံ	-11.3083
▁မဆို	-11.3084
ပါဠိတော်	-11.3084
qu	-11.309
▁သတ္တိ	-11.309
နဝ	-11.3091
▁၁၈၆၁	-11.3091
သပိတ်	-11.3094
▁တရားစွဲဆို	-11.3094
=215	-11.3095
▁အမျိုးသားရေး	-11.3095
ရွှေ့	-11.3095
ဘောလုံးပြိုင်ပွဲ	-11.3095
▁အဆင်ပြေ	-11.3097
▁အဖွဲ့ဝင်အဖြစ်	-11.31
▁မဲဇလီ	-11.3102
="215	-11.3102
▁ကောက်ခံ	-11.3103
လှဲ	-11.3104
ကြသေးသည်။	-11.3107
▁ဝါသနာ	-11.3107
▁ပါဝင်ကြသည်။	-11.3108
▁အနောက်တောင်	-11.3109
ဆေးများ	-11.311
ပြုံး	-11.3113
ပါရမီ	-11.3116
အတော်များများ	-11.3116
▁သုံးနှုန်း	-11.3117
▁ဆက်သ	-11.3119
▁ဖြစ်ကြသော	-11.3119
▁အဝင်	-11.312
▁အေဂျင်စီ	-11.312
အပါး	-11.3122
▁မျိုးချစ်	-11.3122
စေမည့်	-11.3125
မှုတို့ကို	-11.3125
▁၁၈၇၆	-11.3126
▁ဟီရိုရှီးမား	-11.3127
▁ဓနိ	-11.3132
ပြည်နယ်တွင်	-11.3134
▁ဦးသာ	-11.3134
▁ဖြန့်	-11.3135
MA	-11.3135
▁ရပ်စဲ	-11.3136
▁ကွင်းကြီး	-11.3139
▁ဟင်းသီးဟင်းရွက်	-11.314
တောက်ပ	-11.3142
ရှော	-11.3145
များထံမှ	-11.3146
▁နမ့်ဟူး	-11.3146
မှန်ကန်	-11.3147
အုပ်ချုပ်ပုံ	-11.3147
တို့အပြင်	-11.3147
ဝိုး	-11.3151
▁It	-11.3153
ste	-11.3158
တစ်စိတ်တစ်ပိုင်း	-11.3159
▁လည်ပင်း	-11.3159
▁စစ်အစိုးရ	-11.3162
သွားကာ	-11.3163
▁ဘရူနိုင်း	-11.3171
လုပ်ငန်းရှင်	-11.3174
res	-11.3175
▁၁၉၀၈	-11.3175
▁ပေါ့	-11.3176
▁စတုတ္ထမြောက်	-11.3177
ခီ	-11.3177
ထွက်ခွာ	-11.3177
ဘိုင်	-11.3178
အဖျား	-11.3182
="86	-11.3183
▁အင်းဝခေတ်	-11.3184
▁ရိက္ခာ	-11.3184
▁စိတ်မ	-11.3185
သွား၏။	-11.3185
▁မြေပြန့်	-11.3188
ခြင်	-11.3192
▁ဘုရားဖူး	-11.3192
▁မှည့်ခေါ်	-11.3193
▁ဝင်ရောက်ခဲ့သည်။	-11.3193
၂၀၁၁	-11.3194
ငျ	-11.3194
▁ရည်ရွယ်၍	-11.3194
▁နောင်မွန်း	-11.3195
၃၀၀	-11.3196
ရန်သူ	-11.3196
▁ဝိပဿနာ	-11.3197
အဝ	-11.3197
လက်ရာများ	-11.32
ကျိ	-11.3202
а	-11.3203
ရေနံ	-11.3203
ဂိုဏ်းဝင်	-11.3204
လောင်းရွာ	-11.3207
▁သစ်ပင်များ	-11.3207
ကြကာ	-11.3208
ိန်း	-11.3208
▁ပါတီ၏	-11.3209
စံတော်ချိန်	-11.3209
▁ဖြစ်ခဲ့	-11.3209
▁ချဲ့ထွင်	-11.3212
သားများသည်	-11.3213
▁ထိုနေရာတွင်	-11.3215
မထွက်	-11.3215
▁အငြင်းပွားမှု	-11.3215
မတက်	-11.3216
▁ဖယ်	-11.3217
▁ရှိတတ်သည်။	-11.3217
ကျွမ်း	-11.3219
▁၉၇	-11.3221
▁သောက်သုံး	-11.3221
ပန်းခြံ	-11.3222
▁တပ်သား	-11.3223
အရပ်သို့	-11.3224
▁သင့်လျော်	-11.3226
ညွှန်း	-11.3228
51	-11.3231
▁So	-11.3231
တလုပ်	-11.3236
လုပ်ငန်းတွင်	-11.3236
▁ယူရို	-11.3238
မျို	-11.3243
▁ခေတ်ပြိုင်	-11.3246
အစားအစာ	-11.3249
ဦးခေါင်း	-11.325
စသည်	-11.325
▁ဆိုရပေမည်။	-11.3251
နေရာများတွင်	-11.3252
ise	-11.3252
▁ထည့်၍	-11.3252
နန့်	-11.3253
တစ်ခုဖြစ်သည့်	-11.3253
▁မိန့်တော်မူ၏။	-11.3253
▁El	-11.3253
သည်ရှိသော်	-11.3254
▁Paing	-11.3256
▁၁၉၀၂	-11.3259
ခရစ်ယာန်	-11.3262
daw	-11.3263
ဖုတ်	-11.3264
▁ဟင်္သာတ	-11.3264
▁ကလေးသူငယ်	-11.3271
▁ကွယ်	-11.3271
ST	-11.3271
ပေးထားသည်။	-11.3272
▁လစာ	-11.3274
▁ညောင်ပင်သာရွာ	-11.3274
ပေါ်လာ	-11.3276
▁ကံကြီး	-11.3278
▁တစ်ခါတစ်ရံတွင်	-11.3278
▁အလုံးစုံ	-11.3278
▁တောင်ကြား	-11.3279
par	-11.3279
ခြင်းပင်	-11.3281
▁Hu	-11.3285
▁လစဉ်	-11.3285
အောင်မြင်မှု	-11.3288
=56	-11.3289
▁ရောဂါများ	-11.3292
သရေ	-11.3293
▁၁၈၈၀	-11.3294
▁တပ်မတော်မှ	-11.3296
ကြီးစွာ	-11.3296
နယ်မြေများ	-11.3301
▁သိရ	-11.3302
ကား၊	-11.3302
ပြည်တွင်း	-11.3302
▁သတင်းထောက်	-11.3302
ဏ္ဍ	-11.3307
အေဒီ	-11.3307
▁ပျောက်ကင်း	-11.3308
▁သုခ	-11.3309
▁၁၈၆၃	-11.331
▁ချေား	-11.331
▁ညီညွတ်ရေး	-11.331
ဘူး၊	-11.3311
▁ဗေဒင်	-11.3314
ပေါက်ရောက်	-11.3315
=75	-11.3315
▁အစိုးရနှင့်	-11.3321
▁လက်ရာများ	-11.3322
အပြည့်	-11.3326
▁ဇာတ်လမ်းတွဲ	-11.3328
အကြီး	-11.3331
▁အာဇာနည်	-11.3331
▁အပို	-11.3332
▁ဗက်	-11.3333
▁အသင်းတော်	-11.3334
▁ဆက်သွယ်မှု	-11.3336
စောင့်ရှောက်မှု	-11.3337
▁ရောင်စုံ	-11.3339
က္ကာ	-11.3339
တော်လှန်	-11.3339
ခိဘူတာ	-11.334
၅ဝ	-11.3341
=132	-11.3342
▁ခြံ	-11.3342
▁မြေမျက်နှာသွင်	-11.3342
▁ကြူ	-11.3342
▁its	-11.3342
▁တောင်အာရှ	-11.3346
ဂျား	-11.3346
ဟောပြော	-11.3347
အသင်းတော်	-11.3349
▁station	-11.3351
▁၁၈၅၄	-11.3355
ီး	-11.3356
▁အလေ့အထ	-11.3357
▁ကုန်းသာ	-11.336
▁ပုံပြင်	-11.3361
="132	-11.3361
▁ရာဇဝတ်	-11.3364
▁အမရပူရမြို့	-11.3365
အဆောက်အဦး	-11.3367
▁၁၈၆၆	-11.3367
ခဲ့စဉ်က	-11.337
ပြင်ပ	-11.3371
▁လဲလှယ်	-11.3373
တြ	-11.3373
▁ကြည်လင်	-11.3374
▁ပွဲဦးထွက်	-11.3374
▁ပတ်သက်သည့်	-11.3374
▁ဆရာမ	-11.3376
▁ရှိပေသည်။	-11.3377
▁ခရစ်ယာန်ဘာသာ	-11.3378
တော်၊	-11.3379
▁ကမ္ဘာတွင်	-11.338
ယျ	-11.3382
▁လော်	-11.3382
=46	-11.3384
▁မကောင်းသော	-11.3384
ထုတ်ဝေခဲ့သည်။	-11.3385
▁no	-11.3387
▁၆၀၀	-11.3389
မွန်းရွာ	-11.3389
▁သိကြ	-11.339
ty	-11.339
▁နိုင်ငံတွင်	-11.3391
▁တောင်သူ	-11.3392
net	-11.3392
▁ဂလက်ဆီဖြစ်ပြီး	-11.3394
ဝန်ကြီးအဖြစ်	-11.3395
▁တာကော်	-11.3396
▁ထိုအပင်	-11.3396
▁လျှပ်	-11.3396
▁ကိုယ်ဝန်	-11.3397
▁ဗဒုံမင်း	-11.34
▁လက်ကိုင်	-11.3402
အဋ္ဌကထာ	-11.3402
ဟိဂရှိ	-11.3403
▁တမူးမြို့နယ်	-11.3406
ပုံနှိပ်	-11.3406
ထော	-11.3407
▁ဖွံ့ဖြိုးမှု	-11.3407
ric	-11.3407
ရာသို့	-11.341
ဂျူး	-11.3411
တစ်ခုလည်း	-11.3411
▁ယူဆောင်	-11.3412
▁အကြားတွင်	-11.3414
အနောက်ဘက်	-11.3415
kg	-11.3416
သုံးဆယ်	-11.3418
တက်၍	-11.3419
▁တို့မှာ	-11.3419
▁ပီတာ	-11.3419
▁Law	-11.342
gu	-11.342
ရှုံး	-11.3421
▁ခန့်တွင်	-11.3422
▁မင်းကြီးသည်	-11.3422
▁မကျီးကုန်း	-11.3424
▁မြို့ကို	-11.3426
ကျစ်	-11.3426
နိုင်လောက်အောင်	-11.3427
▁၂၅၀	-11.3427
▁ပတ်သက်	-11.3428
▁Chinese	-11.3429
များကိုမူ	-11.3429
▁စိမ်း	-11.343
▁၁၃။	-11.343
လေပြီ။	-11.3432
▁ရွှံ့	-11.3434
တက်ကြွ	-11.3434
သုံးမျိုး	-11.3434
=111	-11.3435
▁သုတ္တန်တစ်ခု	-11.3436
▁အယ်ဒီတာချုပ်	-11.3437
ပစ်ခတ်	-11.3437
▁မာလာ	-11.3438
ကိုမဆို	-11.344
=201	-11.344
အစွန်း	-11.344
ဉာဏ	-11.3442
▁မင်းကွန်း	-11.3442
ယှက်	-11.3443
▁ရေးဖွဲ့	-11.3444
စူ	-11.3444
ရင်းနှီး	-11.3445
▁အကျိုးပြု	-11.3445
ထိုက်သော	-11.3445
▁ဖြန့်ချိခဲ့သည်။	-11.3446
ငြားအံ့၊	-11.3446
-2	-11.3446
▁ငယ်မည်မှာ	-11.3446
ချက်မှာ	-11.3446
▁နွေ	-11.3446
▁ပြုမူ	-11.3447
▁လက်မခန့်	-11.3447
▁နော့	-11.3449
တစ်နေရာ	-11.3449
ကုသိုလ်	-11.3449
▁စေ့	-11.3451
▁ပုသိမ်မြို့	-11.3452
▁၁၈၆၅	-11.3453
▁ဒီပဲယင်း	-11.3453
ဖြတ်သန်း	-11.3456
စေတတ်သော	-11.3456
▁ကုန်ဆုံး	-11.3458
ပါ၏။	-11.3458
သွားရ	-11.3462
လူကြီး	-11.3466
▁စွမ်းရည်	-11.3468
▁ကျောင်းတိုက်	-11.3471
စသည်ဖြင့်	-11.3472
▁ချွန်	-11.3472
▁မှားယွင်း	-11.3473
▁လေးထောင့်	-11.3473
▁မြေယာ	-11.3474
▁မွန်ဂို	-11.3475
တို့ဖြစ်ကြသည်။	-11.3476
အရေးတော်ပုံ	-11.3477
▁ရွှေရောင်	-11.348
▁ကျီ	-11.348
ب	-11.3482
▁ဘာလူစကိုနီ	-11.3482
▁မိုးမိတ်ခရိုင်	-11.3485
▁ဝန်းရံ	-11.3487
▁အများက	-11.3488
တစ်ဝိုက်	-11.3489
▁သတင်းမီဒီယာ	-11.3489
တိုးမြှင့်	-11.3492
ံ့	-11.3493
▁၁၇၈၅	-11.3496
har	-11.3496
နေသော်လည်း	-11.3499
ကော်ပိုရေးရှင်း	-11.35
ပါယ်	-11.35
လုပ်သား	-11.35
ဖျက်သိမ်း	-11.3501
▁ဖြစ်ပျက်	-11.3502
▁ပတ်သက်ပြီး	-11.3505
▁အင်ကြင်း	-11.3507
စေလို	-11.351
▁ဖန်ဆင်း	-11.351
▁ထိုနေရာ	-11.3511
▁မိန့်ခွန်း	-11.3516
▁အရောင်းအဝယ်	-11.3516
ထက်ပင်	-11.3517
="88	-11.3519
▁ဗိုင်းရပ်စ်	-11.3519
▁တရုပ်	-11.352
၎င်း၏	-11.3521
ထားသူ	-11.3522
▁ကြီးမားသည့်	-11.3522
▁နာမ်	-11.3523
tor	-11.3525
▁အရေးပါသည့်	-11.3525
▁၁၈၇၁	-11.3526
bu	-11.3526
မရှိချေ။	-11.3527
ဖျောက်	-11.3528
▁ဆောက်တည်	-11.3528
▁မဘိမ်းမြို့နယ်	-11.3529
▁ပြောင်	-11.3529
တမ်	-11.353
▁ပဲခူးမြို့	-11.3531
▁မည်သူမျှ	-11.3531
▁ဒါယကာ	-11.3532
ွပ်ကဲမှုဌာနချုပ်	-11.3532
▁အဓိကထား	-11.3533
လျော်	-11.3533
▁လိုင်စင်	-11.3534
▁ပျောက်၏။	-11.3534
လတ်သော်	-11.3536
▁ကိုးကွယ်မှု	-11.3537
▁ဘွဲ့ကို	-11.3538
▁Yae	-11.3538
Q	-11.3538
▁တိုးပွား	-11.3539
ကြသည်မှာ	-11.3543
ကြီးများ၏	-11.3544
အစောပိုင်း	-11.3544
▁ဇော်ဂျီ	-11.3545
▁ကျောင်းများ	-11.3546
▁တောင်ကြီးမြို့	-11.3547
ology	-11.3548
if	-11.3549
အက်ဥပဒေ	-11.3549
▁အသိဉာဏ်	-11.3551
▁သွတ်သွင်း	-11.3551
▁အသုံးပြုသူများ	-11.3551
ဈာန်	-11.3553
▁ငို	-11.3554
▁အခ	-11.3555
▁ဖြစ်ပေါ်လာသော	-11.3555
ရကြောင်း	-11.3555
န္န	-11.3555
အရွက်	-11.3556
▁အကူအညီပေး	-11.3559
52	-11.3559
ဖေး	-11.3559
▁၁၈၃၄	-11.3559
ကြတယ်။	-11.3564
▁သန်းကျော်	-11.3565
▁ရက်နေ့က	-11.3572
▁လူသားတို့	-11.3572
▁လွယ်လုံ	-11.3573
ခြင်းအတွက်	-11.3574
▁အကာအကွယ်	-11.3575
ရမည်၊	-11.3576
▁တစ်ခုတည်း	-11.3576
▁ကောင်းမွန်စွာ	-11.3577
▁ကွန်း	-11.3579
▁ရှုမြင်	-11.3582
ဗေ	-11.3583
▁ဝဲကြီး	-11.3585
ဖောင်း	-11.3587
ချိုင်း	-11.3589
ယိ	-11.359
သိန်းတန်	-11.359
▁ဖော်ပြချက်	-11.3591
▁ကန်ကြီး	-11.3592
ks	-11.3592
ဒန်း	-11.3593
▁သီဟသူ	-11.3594
▁အနိမ့်ဆုံး	-11.3595
▁ပါရဂူဘွဲ့	-11.3595
▁အချုပ်	-11.3597
▁၁၈၅၆	-11.3598
အရည်အသွေး	-11.3598
ထကြွ	-11.3599
▁မြစ်ဝ	-11.36
အမွေအနှစ်	-11.3601
▁ဒတ်ချ်	-11.3601
▁ချောက်	-11.3602
ခံခဲ့ရပြီး	-11.3602
▁၁၈၆၉	-11.3604
▁ကင်ဆာ	-11.3607
မျက်နှာပြင်အထက်	-11.3608
းမား	-11.361
ကထေရ်	-11.3611
▁သူငယ်ချင်း	-11.3611
▁Kyaukta	-11.3612
တစ်စောင်	-11.3613
မှို	-11.3614
ဖြစ်၏	-11.3615
▁မီးခိုး	-11.3616
▁မိမိအား	-11.3617
▁20	-11.3617
▁အကျိုးကျေးဇူး	-11.3619
▁အဝိုင်း	-11.3619
စေခဲ့	-11.362
▁၉၃	-11.3621
=108	-11.3623
ခဲ့သော်	-11.3623
လုပ်ထုံးလုပ်နည်း	-11.3624
▁ကျွန်းကြီး	-11.3625
ကျန်းမာရေးဌာနခွဲ	-11.3627
လာခဲ့ရာ	-11.3628
="108	-11.3629
ရှိသည့်အနက်	-11.3629
လျှာ	-11.3631
▁ရှင်သာမဏေ	-11.3632
▁၁၈၂၈	-11.3634
▁Music	-11.3634
လေလေ	-11.3635
အရည်အချင်း	-11.3639
▁သာဓက	-11.3639
▁ထုထည်	-11.364
မေ့	-11.3641
ွင်း	-11.3642
ရှိသည်ကို	-11.3642
▁ပဉ္စ	-11.3645
▁အနန္တ	-11.3646
မြို့များ	-11.3646
م	-11.3647
▁မြို့ရွာ	-11.3647
ran	-11.3648
မရမ်း	-11.3649
▁နွေး	-11.365
▁သူနှင့်	-11.365
ထည့်၍	-11.365
▁ကြွယ်ဝ	-11.365
ကူးပြောင်း	-11.365
▁ချီးမြှင့်ခြင်း	-11.365
▁တစ်နည်း	-11.3651
▁မြို့တွင်း	-11.3652
▁စာမူ	-11.3652
▁သမား	-11.3654
▁ချန်ပီယံ	-11.3654
▁ကဲ့ရဲ့	-11.3655
▁မဟာယာန	-11.3655
သံ၊	-11.3657
▁သင်္ဂြိုဟ်	-11.3657
▁အဆောင်အယောင်	-11.3661
▁နိမ့်	-11.3662
ဆီကို	-11.3662
▁အထူးပြု	-11.3664
စကို	-11.3666
▁နေရာများတွင်	-11.3666
ပြီဖြစ်သည်။	-11.3667
▁ကလေးသူငယ်များ	-11.367
▁အီလက်ထရွန်းနစ်	-11.3671
ကဲ့	-11.3672
=85	-11.3672
▁ဖြတ်တောက်	-11.3673
လွယ်ကူ	-11.3673
▁စီးပွားရေးအရ	-11.3674
▁ထိုကျောင်း	-11.3677
ကျင်းပသော	-11.3678
▁အထောက်အထားများ	-11.3678
ထွား	-11.3678
▁ကုန်းမြင့်	-11.3682
ကျည်း	-11.3682
▁မော်တော်ကားလမ်း	-11.3683
▁၁၈၇၃	-11.3684
▁စတု	-11.3685
▁စစ်ပွဲများ	-11.3687
သင့်သော	-11.3687
▁စုံစမ်းစစ်ဆေး	-11.3687
▁ကျယ်ပြန့်သော	-11.3688
ဌာနမှ	-11.3689
ရတယ်။	-11.3689
ရှိခြင်း	-11.369
▁ရဟန်းတို့သည်	-11.3693
book	-11.3694
▁သမ္မတအဖြစ်	-11.3695
တော့၊	-11.3695
ဂုတ်	-11.3696
▁မေရီ	-11.3696
▁အပင်မျိုး	-11.3697
▁တစ်ရက်	-11.3697
တစ်ခုစီ	-11.3697
ရှေးဟောင်း	-11.3698
▁မပြတ်	-11.3699
တပ်များကို	-11.3699
▁ပန်းပွင့်	-11.37
သက်ရောက်မှု	-11.3701
▁သစ်ရွက်	-11.3702
▁စူးစမ်း	-11.3703
tion	-11.3703
ငင်း	-11.3705
▁ဒေဝ	-11.3707
ထားကြောင်း	-11.3707
မမှန်	-11.3709
▁အလက်	-11.371
ပြက္ခဒိန်	-11.3711
ခဲ့။	-11.3713
အစားထိုး	-11.3715
ကွေ့ရွာ	-11.3716
IS	-11.3717
သတည်း။	-11.3718
▁၂ဝဝဝ	-11.3721
အာဏာပိုင်	-11.3722
▁Tu	-11.3723
▁ခရီးထွက်	-11.3725
▁သို့နှင့်	-11.3726
▁ချောင်းဆိုး	-11.3726
red	-11.3726
ပျစ်	-11.3726
▁လက်ဝှေ့	-11.3728
▁ရေလဲ	-11.3728
သားတို့သည်	-11.3732
▁Per	-11.3733
▁တရားတော်	-11.3735
▁ကျောင်းစုရွာ	-11.3738
အတု	-11.3739
▁စာတိုက်	-11.374
▁ရောမမြို့	-11.374
▁ဗျ	-11.3743
ခဲ့သလို	-11.3743
ကြောင့်ဖြစ်သည်။	-11.3744
▁ဘူမိဗေဒ	-11.3745
တွင်းမှ	-11.3749
အလေးချိန်	-11.375
▁ဒေါ်အောင်ဆန်းစု	-11.3751
▁၁၈၅၃	-11.3751
ဖြို	-11.3752
▁သတိပြု	-11.3752
▁၁၈၅၁	-11.3752
ိန္ဒ	-11.3753
ခဲ့ဘူး	-11.3754
ze	-11.3755
▁သရေခေတ္တရာ	-11.3758
ဟပ်	-11.3761
▁ဒုံးပျံ	-11.3762
ဆင်းတု	-11.3765
၂၀၁၄	-11.3765
▁သဘောတူညီ	-11.3766
အချက်အလက်များ	-11.3767
ō	-11.3768
ဖျင်	-11.3769
▁ရှူ	-11.3769
ဗဲ	-11.377
စတီ	-11.3772
our	-11.3773
▁သတ်မှတ်သည်။	-11.3773
▁ال	-11.3773
▁မြန်မာနိုင်ငံမှ	-11.3775
သံဃာ	-11.3777
▁ကြောက်ရွံ့	-11.3777
နှုန်းဖြင့်	-11.3777
ဟော့	-11.3779
▁အပြင်ဘက်	-11.3781
ကာလများတွင်	-11.3781
▁ရိုက်နှိပ်	-11.3782
▁စားသုံးသူ	-11.3783
ရှယ်	-11.3783
ကမ္မ	-11.3788
▁တစ်ဦးချင်း	-11.3788
ခဝ	-11.3789
အတိုင်းအတာ	-11.379
▁အိရှိ	-11.3791
▁ကြို့ကုန်း	-11.3793
▁သိပ္ပံနှင့်	-11.3794
ခွင့်ပေး	-11.38
▁ရူပ	-11.38
ome	-11.3801
▁ခုတ်	-11.3802
▁ဇီးပင်	-11.3804
လိုက်သည့်	-11.3805
▁ကွဲပြားသော	-11.3806
▁လာဘ်	-11.3806
BS	-11.3809
▁ပြိုကွဲ	-11.381
▁ဝိဇ္ဇာဘွဲ့	-11.381
ပြစ်မှု	-11.3812
ဒေသကို	-11.3815
▁သတ်မှတ်ကြသည်။	-11.3816
▁စီးပွားဖြစ်	-11.3816
▁ကျော်ကြားသော	-11.3817
▁သက်သက်	-11.3818
▁အပြီးသတ်	-11.3819
▁အခန်းကဏ္ဍ	-11.3819
▁ပရ	-11.3819
▁မည်သူမဆို	-11.3822
မည့်အကြောင်း	-11.3822
▁မြစ်ဖျားခံ	-11.3822
ဌာန၊	-11.3823
▁Htan	-11.3826
ဘက်၌	-11.3826
လေ့လာမှု	-11.3827
▁တောင်ဘက်သို့	-11.3828
▁အသုံးပြုပြီး	-11.3834
ဘဝတွင်	-11.3835
▁စီးပွားရေးနှင့်	-11.3839
▁ဟော်	-11.3844
▁လွတ်မြောက်ရေး	-11.3845
▁အကျိုးအမြတ်	-11.3847
▁အကြောင်းကြား	-11.3847
NA	-11.385
▁အရွက်များ	-11.385
▁ရာဇာဓိရာဇ်	-11.385
သံကို	-11.3852
▁ကျောက်ဆောင်	-11.3853
သီးခြား	-11.3853
▁အလံနီ	-11.3854
ကိုဖြစ်စေ၊	-11.3854
▁ကမ္ဘာကြီး	-11.3855
▁၃ဝဝ	-11.3855
▁သင်္ကြန်	-11.3855
▁ဘန်း	-11.3855
ပင်မျိုး	-11.3855
▁နှစ်ပါး	-11.3856
▁ဗန်	-11.3859
ချက်များအရ	-11.3859
="85	-11.3861
သုံးဦး	-11.3863
▁နိုင်ငံပိုင်	-11.3863
▁အီလက်ထရောနစ်	-11.3865
大	-11.3865
ညံ့	-11.3865
▁ပြန့်ပွား	-11.3869
▁သတိုး	-11.3872
▁၁၇၉၅	-11.3872
▁သတ်မှတ်ပေး	-11.3873
▁မဏိပူရ	-11.3874
▁ဂိမ်း	-11.3874
▁တနင်္သာရီတိုင်း	-11.3875
အနှစ်	-11.3876
▁အဆောက်အဦးများ	-11.3876
▁နက်ဗျူလာ	-11.3877
tro	-11.3878
all	-11.3878
▁ကြမ်း	-11.388
▁စည်းစိမ်	-11.3883
▁၁၉၀၉	-11.3884
အက်ဖ်	-11.3884
သောနေရာ	-11.3885
ဟိုက်	-11.3885
py	-11.3886
▁ပဒေသရာဇ်	-11.3889
men	-11.3889
များသည်။	-11.3894
သီဟ	-11.3895
▁ညောင်ပင်ကြီး	-11.3895
လိုး	-11.3895
▁ကိရိယာများ	-11.3896
▁သီးနှံ	-11.3896
▁တွေကို	-11.3896
ရှိုး	-11.3896
နယ်မှ	-11.3897
▁ထိုင်းနိုင်ငံ၏	-11.3899
တော်မူခြင်း	-11.39
မော်လမြိုင်မြို့	-11.3901
ဒေသသည်	-11.3901
တစ်နိုင်ငံ	-11.3904
▁၉၉	-11.3904
▁အဆစ်	-11.3906
▁ကြီးပွား	-11.3906
သူနှင့်	-11.3907
အထူးသဖြင့်	-11.3908
North	-11.3912
▁နှိပ်စက်	-11.3913
တရားတော်	-11.3913
▁လုပ်ငန်းစဉ်	-11.3914
·	-11.3914
▁ပန်ခမ့်မြို့နယ်	-11.3914
▁အာဂျင်တီးနား	-11.3914
ه	-11.3914
▁အင်္ဂတေ	-11.3914
=78	-11.3915
▁ဝဲဒေါင့်	-11.3915
ရှိပေသည်။	-11.3918
၂၀၁၆	-11.3919
▁Lel	-11.392
▁မြင်းစီး	-11.3921
▁ရသ	-11.3921
▁ထင်မြင်	-11.3922
ကွန်ရက်	-11.3922
အောင်ဆန်းစုကြည်	-11.3924
▁နက္ခတ္တဗေဒ	-11.3925
ဌာနများ	-11.3925
▁မြိတ်	-11.3926
တစ်ခုဖြစ်သော	-11.3927
▁၂၀၉၃	-11.3927
အစုံ	-11.3927
▁ကြိယာ	-11.3929
ထိရောက်	-11.3933
▁ဟွန်း	-11.3936
ဝိုက်	-11.3936
ခရီးသွားလုပ်ငန်း	-11.3936
▁အောင်နိုင်	-11.3937
-1	-11.3938
▁လွှင့်	-11.3939
တို့ထက်	-11.3939
အသင်းများ	-11.394
စုံစမ်း	-11.3942
▁သာယာဝတီမင်း	-11.3943
လျက်ရှိ၏။	-11.3945
နေရင်း	-11.3946
▁မြို့တော်မှာ	-11.3949
မီယာ	-11.395
▁ခိုင်	-11.395
▁လူနည်းစု	-11.3951
စွပ်စွဲ	-11.3951
ထရာ	-11.3953
---	-11.3955
ဆိုပြီး	-11.3958
ဟောင်းများ	-11.3961
▁အရေးတော်ပုံ	-11.3961
စပ်ဆို	-11.3962
▁ယေရှု	-11.3962
ရေတွက်	-11.3965
ွာ	-11.3966
nic	-11.3968
pi	-11.3968
▁ဆော့ဖ်ဝဲ	-11.397
▁၁၈၄၈	-11.3972
ပူရ	-11.3972
▁တွေ့ရှိခဲ့သည်။	-11.3972
▁တု	-11.3974
ကြပါ	-11.3975
▁ဘီလျံ	-11.3976
ရည်ရွယ်	-11.3978
ပွက်	-11.3979
▁ဧည့်သည်	-11.3979
၌ကား	-11.3981
▁ခေါ်ဆိုကြသည်။	-11.3982
▁အဖြစ်သို့	-11.3982
▁Bar	-11.3983
▁မှား	-11.3985
ချိန်မှာ	-11.3986
သို့ပြန်	-11.3989
တည်၍	-11.3989
▁အကြီး	-11.3992
▁တူသည်။	-11.3994
ors	-11.3995
▁ကျယ်ဝန်း	-11.3996
ထင်ရှားသော	-11.3997
▁နှုတ်သီး	-11.4
မဖြစ်မီ	-11.4001
စက်မှု	-11.4002
▁ဘိုးတော်	-11.4003
▁ကျောင်းကုန်း	-11.4004
De	-11.4005
IP	-11.4006
▁သရုပ်	-11.4006
▁Mon	-11.4006
▁တပ်မတော်ကာကွယ်	-11.4007
လက်အောက်ခံ	-11.4009
▁လူဝီ	-11.4009
▁၂၁၁၆	-11.4011
ရာမှာ	-11.4013
▁တစ်စိတ်တစ်ဒေသ	-11.4014
▁record	-11.4014
▁တမာ	-11.4015
ရေကြောင်း	-11.4016
မှောင်	-11.4017
မင်းလှ	-11.4018
▁သို့ဖြစ်ရာ	-11.4019
တစ်ခုနှင့်	-11.402
▁အသင်တို့သည်	-11.4022
▁သားသမီးများ	-11.4023
ဇန	-11.4024
ိယထေရ်	-11.4025
▁လျှော့ချ	-11.4026
▁ဖီဂျီ	-11.4028
ဆေ	-11.4028
ပြိုင်ပွဲများ	-11.4028
▁စည်ပင်	-11.4029
▁တစ်ဆူ	-11.4031
တောင်ကုန်း	-11.4031
▁အကုန်	-11.4032
ကင်ဆာ	-11.4034
▁သားကောင်	-11.4034
▁အတိုင်ပင်ခံ	-11.4037
▁ရေပြင်	-11.4037
မြောင်ရွာ	-11.4045
▁ရေနှင့်	-11.4047
ကြီ	-11.4047
▁တာဝန်ပေးအပ်	-11.405
gi	-11.405
ပြုသော	-11.4052
=67	-11.4052
▁ဆုတံဆိပ်	-11.4052
ဖိနပ်	-11.4053
တချို့	-11.4053
ဇရပ်	-11.4054
▁အသင်းကြီး	-11.4054
▁ပြဿနာများ	-11.4055
▁ကူကီး	-11.4057
▁အိမ်ရှေ့မင်း	-11.4057
▁ဆရာတော်၏	-11.4057
ရေးတွင်	-11.4058
▁နှာ	-11.4059
ပြီးသား	-11.4059
တ္	-11.4059
စစ်သည်	-11.4059
▁ဘန်ကောက်မြို့	-11.4059
▁hardcore	-11.4062
=48	-11.4065
ပုဒ်မ	-11.4067
▁ထွက်ခွာသွား	-11.4069
▁ဆုတ်	-11.4071
▁ဒုတိယသမ္မတ	-11.4071
ဘာသာစကားဖြင့်	-11.4072
မဟုတ်။	-11.4072
န်ရွာ၊	-11.4073
သမင်	-11.4073
စားသုံး	-11.4074
ဉ္ဇ	-11.4075
▁အပေါင်း	-11.4076
▁မည်သို့ပင်	-11.4077
ခေါင်းစဉ်	-11.4078
ချဲ့ထွင်	-11.4081
ကိုလိုနီ	-11.4082
▁သမ	-11.4082
▁သားမွေး	-11.4084
▁နေထိုင်သူ	-11.4084
▁အာသာ	-11.4085
▁အာဖဂန်နစ္စတန်	-11.4088
သင်တန်းကျောင်း	-11.4088
san	-11.4091
au	-11.4092
အစဉ်အလာ	-11.4092
မှုများ၊	-11.4093
▁တောကြီး	-11.4093
▁%	-11.4094
ကိုမျှ	-11.4094
▁သုတေသနပြု	-11.4095
▁သက်သေခံ	-11.4096
အောက်ရှိ	-11.4097
▁မနက်	-11.4099
▁မုံရွာမြို့နယ်၊	-11.41
▁ကျွမ်းကျင်သူ	-11.4101
▁အရင်းရှင်	-11.4102
=91	-11.4104
အေဂျင်စီ	-11.4104
တာဝန်များကို	-11.4106
Al	-11.4108
▁အလုံး	-11.4111
ဘက်ကမ်း	-11.4112
▁အဘယ့်ကြောင့်	-11.4113
စစ်သား	-11.4113
ရန်လည်း	-11.4114
သီး၊	-11.4114
▁အတူတူ	-11.4115
▁လျှော်	-11.4117
▁ကဗျာအမျိုးအစား	-11.4117
▁အဆက်မပြတ်	-11.4118
သုပ်	-11.4121
ဟာရ	-11.4123
အံ့၊	-11.4124
Ka	-11.4124
▁ကျမ်းများ	-11.4124
▁တက္ကသိုလ်တွင်	-11.4126
▁၁၈၃၀	-11.4127
အပင်များ	-11.4128
▁၂၁၁၇	-11.4134
ရောမ	-11.4134
▁သတ်မှတ်ချက်	-11.4135
လုပ်ငန်းနှင့်	-11.4135
ခေး	-11.4135
ဟုပင်	-11.4135
▁အိန္ဒိယ၊	-11.4135
ဗန်း	-11.4136
▁အညီ	-11.4138
▁အစပြု၍	-11.4138
▁7	-11.414
▁အရေ	-11.4141
pro	-11.4142
q	-11.4143
သားရေ	-11.4143
▁ဂုံညင်းတန်း	-11.4144
မူ၊	-11.4145
▁ရေးခဲ့သည်။	-11.4148
ဖျော်	-11.4148
▁ဂရိနိုင်ငံ	-11.4149
▁ဟိုး	-11.415
မိုင်ရွာ	-11.4154
▁စမ်းချောင်း	-11.4154
▁ခေါင်းစဉ်	-11.4155
▁တိုက်ပွဲဝင်	-11.4155
ical	-11.4155
ရှုပ်ထွေး	-11.4157
လာပြီးလျှင်	-11.4157
အသင်းသည်	-11.4157
ရှောက်	-11.4158
▁Thi	-11.4162
မျိုးတို့	-11.4163
▁server	-11.4163
MS	-11.4164
▁ကတည်းက	-11.4164
▁နယ်သာလန်နိုင်ငံ	-11.4166
=55	-11.4174
ကျမ်းများ	-11.4174
လက်အောက်တွင်	-11.4175
▁မလုပ်	-11.4175
ကောင်စီက	-11.4175
ပြောင်းလဲမှု	-11.4176
▁ဝတ္ထုများ	-11.418
အလုပ်လုပ်	-11.4182
▁လက်နက်များ	-11.4186
▁မိုးရေချိန်	-11.4189
ပါရှိ	-11.419
မျိုး၊	-11.419
▁မန္တ	-11.4191
ရှိသောကြောင့်	-11.4194
တောင်ထိပ်	-11.4195
လွတ်မြောက်	-11.4196
▁ကြီးစိုး	-11.4198
▁ကူးယူ	-11.4199
ိတ်	-11.42
=51	-11.4202
▁ကန်း	-11.4204
▁Star	-11.4204
▁မီးသွေး	-11.4206
စနစ်များ	-11.4206
▁black	-11.4207
▁နခ	-11.4208
နက္ခတ်	-11.4209
ပရိုဂရမ်	-11.4209
မေးမြန်း	-11.4209
နှစ်ရပ်	-11.4211
▁တွန်း	-11.4212
▁မြောက်လတ္တီတွဒ်	-11.4214
▁ဆစ်	-11.4216
ကြသောကြောင့်	-11.4217
▁ကျော်လွန်	-11.4218
ph	-11.422
တရုပ်	-11.4221
▁စာရေးသူ	-11.4224
စေရမည်။	-11.4224
▁မေးခွန်း	-11.4225
▁မြင့်တက်လာ	-11.4228
မမြင်	-11.4229
▁၁၈၆၂	-11.423
▁ဈေးနှုန်း	-11.4231
▁ဒဿန	-11.4232
အကွာအဝေး	-11.4232
mu	-11.4232
စည်းစိမ်	-11.4233
▁ဖော်ပြပါ	-11.4233
▁ချေမှုန်း	-11.4237
တိုးတက်လာ	-11.4238
မြစ်နှင့်	-11.4241
ဝဲလ်	-11.4244
အာဖရိက	-11.425
▁ပါရှိသော	-11.4251
▁100	-11.4252
ကမ္ဘာလုံးဆိုင်ရာ	-11.4253
နှိုင်း	-11.4257
နီးစပ်	-11.4259
တစ်မျိုးမှာ	-11.4261
▁ပြန့်	-11.4261
=216	-11.4262
West	-11.4262
နေသူများ	-11.4264
▁စာရင်းအရ	-11.4264
▁လတ်တလော	-11.4264
▁နက္ခတာရာ	-11.4264
ပဲခူး	-11.4266
▁၁၉၂ဝ	-11.4266
="216	-11.4269
▁12	-11.4269
ချဲ့	-11.427
▁တစ်စု	-11.4271
တပ်များသည်	-11.4274
ညီညွတ်	-11.4274
▁ယနေ့အထိ	-11.4275
▁ရွာကြီး	-11.4275
ိဿ	-11.4277
▁အိမ်ထောင်ပြု	-11.4277
စကြာ	-11.4278
▁Long	-11.4278
ဂေး	-11.4282
▁ဦးချို	-11.4285
ပြူး	-11.4288
သလား	-11.4288
▁n	-11.4288
ခ်ျ	-11.4288
▁လှုပ်	-11.4289
တော်တွင်	-11.429
▁ကြားဖြတ်	-11.429
အရင်းအမြစ်	-11.429
▁မတိုင်မီ	-11.4291
▁အစီအစဉ်များ	-11.4294
▁ဟိုပန်	-11.4295
ဘိက္ခုနီ	-11.4295
ရေးမှူး	-11.4299
▁မှတ်တမ်းတင်ထား	-11.4303
အခြေချ	-11.4304
တစ်မျိုးဖြစ်ပြီး	-11.4305
လာနိုင်	-11.4308
▁ဖရန့်	-11.4308
အသင်းကြီး	-11.4308
▁ဘူတာ	-11.4309
အောက်တိုဘာ	-11.4311
▁ရသော	-11.4311
ဝိန်း	-11.4313
▁ရရှိနိုင်သည်။	-11.4314
*	-11.4314
▁တနိုင်းမြို့နယ်	-11.4316
▁Kyon	-11.4316
သေတ္တာ	-11.4317
▁ကျွဲနွား	-11.4317
မှုအား	-11.4317
▁အစီရင်ခံ	-11.432
တဲ့အတွက်	-11.432
▁မုဒုံမြို့နယ်	-11.4322
▁ဖွင့်ဆို	-11.4323
▁ဗျိုင်း	-11.4324
▁သန်းခန့်	-11.4325
ပျ	-11.4325
▁ကယ်ဆယ်ရေး	-11.4327
▁ဗဟိုဌာနချုပ်	-11.4328
ခဲ့တာ	-11.4328
အမြတ်	-11.4331
တွာ	-11.4331
လုပ်ရန်	-11.4334
ညောင်း	-11.4334
▁ဆင်းသက်လာ	-11.4334
လိုသူ	-11.4334
="75	-11.4335
▁ပင်လယ်ပြင်	-11.4335
▁လူသူ	-11.4335
ပုပ္ဖိယထေရ်	-11.4339
kan	-11.4339
▁သရက်ပင်	-11.4339
▁မွေးသည်။	-11.4339
ထွာ	-11.4339
▁မီးဖို	-11.434
ွိုက်	-11.434
ဟန်း	-11.4342
လိုင်ရွာ	-11.4342
တော်၏	-11.4343
▁ပုပ်ရဟန်းမင်း	-11.4343
▁ပြည်နယ်နှင့်	-11.4343
▁သိမ်းသွင်း	-11.4344
▁တဘက်	-11.4344
တာတွေ	-11.4345
▁ရွတ်ဆို	-11.4349
ပေးခဲ့ပြီး	-11.4349
▁စစ်တွေမြို့	-11.435
တိုင်ရွာ	-11.435
အတိုင်းပင်	-11.4353
ဖြစ်နေသည်။	-11.4354
▁အဂ	-11.4355
▁ပြင်သစ်တို့	-11.4358
lon	-11.4359
ခန္ဓာ	-11.436
ကြိမ်မြောက်	-11.4363
သိမြင်	-11.4363
မရှိပါ။	-11.4365
▁ဝါရှင်တန်	-11.4365
မစား	-11.4365
▁ပေးထားခြင်း	-11.4366
မြို့မ	-11.4366
▁Seik	-11.4368
▁ပုရပိုက်	-11.4368
မရောက်	-11.4369
မိုင်ခန့်	-11.437
ဗိုက်	-11.4371
တစ်နှစ်	-11.4371
▁Maung	-11.4372
▁ငါးနှစ်	-11.4373
နိုင်ငံများသို့	-11.4373
▁has	-11.4375
▁Yan	-11.4375
ရုံမက	-11.4375
="64	-11.4376
ဖျော်ဖြေ	-11.4376
▁ကွေး	-11.4378
၂၀၀၀	-11.4378
▁အတော်အတန်	-11.4378
▁ဒြပ်	-11.4379
▁သူပုန်	-11.438
▁ဒဂုန်	-11.4381
ကြည်ညို	-11.4387
▁တစ်ဦးတည်း	-11.4388
▁မအူ	-11.439
▁လှမ်း	-11.4393
=54	-11.4394
▁ဤအ	-11.4394
ဆေးပညာ	-11.4397
▁မာန်	-11.4398
▁၅ဝဝ	-11.44
▁dis	-11.44
▁သနား	-11.44
ယူနိုက်တက်	-11.4401
▁ပြည်နယ်များ	-11.4401
▁တစ်ကောင်	-11.4402
▁နှုန်း	-11.4403
ဝင်၍	-11.4404
▁ချိုးဖောက်	-11.4405
=107	-11.4406
▁ငွေစက္ကူ	-11.4407
လမ်းညွှန်	-11.4407
ခန့်မှန်း	-11.4407
▁အမည်နာမ	-11.4408
▁သွပ်	-11.4408
▁ဒဏ်	-11.4408
ဖြ	-11.441
▁Award	-11.4412
▁ကျန်စစ်သား	-11.4413
ွီ	-11.4413
▁comp	-11.4415
▁ပတ်လည်	-11.4415
▁အလယ်တန်းကျောင်း	-11.4416
▁သလိပ်	-11.4417
▁တော်ကီးန်	-11.4418
▁le	-11.4418
တစ်စီး	-11.4419
▁အကျုံးဝင်	-11.442
▁ဟိုင်	-11.442
▁မောင်နှမ	-11.4422
▁သပြု	-11.4422
အနောက်စု	-11.4422
▁မရှိတော့	-11.4423
▁မော့	-11.4424
မျိုးနွယ်စု	-11.4424
ပို့ဆောင်	-11.4424
▁၁၈၄၁	-11.4425
▁အကြမ်း	-11.4426
ဂီရိ	-11.4427
▁မသေ	-11.4428
အသုံးပြုသော	-11.4428
▁တပ်များ	-11.4428
ငှက်များ	-11.4428
ကြိုးပမ်းမှု	-11.4429
▁နိုင်ငံတွင်း	-11.4429
ရဟတ်	-11.4429
▁ရှေးရိုး	-11.443
▁သေဆုံးသူ	-11.4431
ling	-11.4431
▁Ge	-11.4433
ဆေးဝါး	-11.4436
ness	-11.4436
▁အရှေ့အလယ်ပိုင်း	-11.4436
▁အင်ဒို	-11.4436
Cl	-11.4437
တုံ့ပြန်	-11.4437
ဇေ	-11.4437
ွိ	-11.4437
▁မော်ဒယ်	-11.4441
ဘာသာရေး	-11.4441
▁ယူဆရသည်။	-11.4441
▁ဂွ	-11.4443
▁ပဋိသန္ဓေ	-11.4443
▁ဆမ်	-11.4449
ဒေသများသို့	-11.445
▁မမြင်	-11.4451
▁ဆောင်ရွက်ချက်	-11.4451
dy	-11.4455
▁ခမာ	-11.4458
ထားခဲ့	-11.4459
▁စေတီတော်ကို	-11.4461
ပလီ	-11.4462
ထူးချွန်	-11.4463
▁Dr	-11.4464
▁အငွေ့	-11.4468
နှိမ်နင်း	-11.4469
▁မြေမျက်နှာပြင်	-11.4469
=218	-11.447
=93	-11.4471
ဆမ်	-11.4472
နီယမ်	-11.4473
တွေ့ရှိနိုင်သည်။	-11.4473
ဆွေး	-11.4473
ခြင်းပင်ဖြစ်သည်။	-11.4474
နှေး	-11.4474
▁တစ်နည်းအားဖြင့်	-11.4474
လေးဆယ်	-11.4475
▁ခေါ်ဝေါ်ကြသည်။	-11.4476
="218	-11.4477
▁အားကိုး	-11.4477
သယ်ဆောင်	-11.4477
ဟောကြား	-11.4479
သာရှိသည်။	-11.4479
သစ်ရွာ၊	-11.4481
ရှိခြင်း၊	-11.4482
▁မိစ္ဆာ	-11.4488
ဆရာများ	-11.4488
▁ယေ	-11.4488
▁မုံ	-11.4488
▁အသီးအသီး	-11.4488
▁တပ်ဦး	-11.4489
တောင်တန်းများ	-11.4489
▁၁၈၇၅	-11.4489
ကထာ	-11.4491
တ္ထိ	-11.4491
ခဲ့သည့်အတွက်	-11.4491
နိုင်ငံများ၏	-11.4492
low	-11.4492
SA	-11.4493
▁နေထိုင်သော	-11.4494
▁တာဝန်များကို	-11.4495
ပုတ္တ	-11.4497
▁ခန့်ရှိသည်။	-11.4497
ထို့အတွက်ကြောင့်	-11.4497
၂၀၀၈	-11.4499
▁စာပေနှင့်	-11.4501
ချိုင်	-11.4501
ရန်ပုံငွေ	-11.4502
ငတ်	-11.4503
▁ခွက်	-11.4504
▁ဖောင်ဒေးရှင်း	-11.4506
▁မြတ်နိုး	-11.4506
ast	-11.4507
▁ခုနှစ်ကတည်းက	-11.4507
တားမြစ်	-11.4509
▁အကြော	-11.451
မောင်းနှင်	-11.451
▁လွတ်လပ်ရေးရ	-11.4511
▁၁၈၇၄	-11.4511
လူ့	-11.4511
တော့မည်	-11.4512
002	-11.4512
▁ပဲ့	-11.4514
▁မြန်မာတို့၏	-11.4514
မရှိပဲ	-11.4515
ကိစ္စများ	-11.4516
▁h	-11.4517
▁ချိတ်	-11.4518
▁ချထား	-11.4518
▁ရှုံးနိမ့်	-11.4518
▁၁၆၉၉	-11.4519
上	-11.4522
▁စစ်တွေ	-11.4523
▁အတတ်	-11.4523
လှချေ။	-11.4524
တကျ	-11.4524
▁လု	-11.4525
အနွယ်	-11.4526
▁ပြိုင်ဘက်	-11.4526
▁အလွတ်	-11.4527
▁ရှန်	-11.4529
မျိုးနှင့်	-11.4529
▁had	-11.453
စည်းမျဉ်း	-11.453
▁ပါဝင်လေသည်။	-11.4532
▁ဒုံ	-11.4533
▁ဘုတ်	-11.4534
▁စက်ဝိုင်း	-11.4535
အောက်စု	-11.4535
▁အတော်ပင်	-11.4536
mm	-11.4537
မကင်း	-11.4537
နှိပ်	-11.4537
များတွင်မူ	-11.4537
▁ဖျော်ဖြေရေး	-11.454
အလို့ငှာ	-11.4541
ဂါမ	-11.4543
ယူခြင်း	-11.4543
▁Sh	-11.4543
ရာ၌လည်း	-11.4546
▁၁၇၈၉	-11.4547
လာပြီးနောက်	-11.4547
တိုက်တွင်	-11.4549
▁၁၈၇၀	-11.4549
▁အောက်ဘက်	-11.455
▁အပန်းဖြေ	-11.4553
ထူထပ်	-11.4553
▁ယူအက်စ်	-11.4554
ဘာသာစကားကို	-11.4556
▁ဆွန်	-11.4556
▁နွေရာသီတွင်	-11.4558
အီရန်	-11.4562
▁တည်ဆောက်ရေး	-11.4563
▁ခွဲဝေ	-11.4563
▁ရှိပါတယ်။	-11.4563
▁သဘောကျ	-11.4564
▁၁၈၂၅	-11.4565
စမ်းရွာ	-11.4567
▁၁၈၂၇	-11.4567
ဖောက်လုပ်	-11.4568
▁ပဓာန	-11.457
iv	-11.4571
▁ဇာတ်ကောင်	-11.4571
ပုံစံဖြင့်	-11.4573
▁ဘန်ကောက်	-11.4573
="57	-11.4574
▁မရနိုင်	-11.4574
о	-11.4574
မဏ္ဍိုင်	-11.4575
gy	-11.4577
လီယာ	-11.4578
▁မိမိကိုယ်တိုင်	-11.4579
▁ရွာတွင်	-11.4581
ခြင်းမရှိပေ။	-11.4582
ခဲ့ကြသည့်	-11.4583
▁အာလူး	-11.4584
ရှော့	-11.4585
▁လုံ့လ	-11.4586
▁အချိုး	-11.4588
၄၉။	-11.4589
အော	-11.459
မှတ်ပုံတင်	-11.4591
▁ကျော်ကို	-11.4593
che	-11.4593
ys	-11.4593
▁အစချီ	-11.4594
ခန	-11.4595
▁အဖြစ်လည်း	-11.4596
ပြောကြားခဲ့သည်။	-11.4598
▁တာဝန်ပေး	-11.4598
ပိုင်ဆိုင်မှု	-11.4598
zi	-11.46
▁ရေယာဉ်	-11.4602
▁ဝါးတော	-11.4603
▁၁၈၄၆	-11.4604
▁ရပ်စောက်	-11.4605
▁၁၆၈၄	-11.4605
▁နေထိုင်ကြ	-11.4606
▁ထာဝရ	-11.4606
ပညာရှိ	-11.4606
ပုံစံကို	-11.4606
ခြင်းမျိုး	-11.4607
▁၁၆၈၂	-11.4608
ရောက်ရှိလာ	-11.4609
▁ထွက်သော	-11.461
▁un	-11.4611
▁ဗုံးကြဲ	-11.4613
▁ဇယား	-11.4614
ရေကို	-11.4615
ယေး	-11.4616
▁ကြိုဆို	-11.4616
အောင်၊	-11.4616
▁ကြွရောက်	-11.4618
▁တရားအားထုတ်	-11.4618
▁ပို့ဆောင်ရေး	-11.4619
=217	-11.462
ခဲ့လေ	-11.4622
ဘ၀	-11.4624
▁လူသိများသော	-11.4624
ဆုံးရှုံး	-11.4625
="217	-11.4625
▁ဖျက်	-11.4626
▁ထုတ်ပြန်ခဲ့သည်။	-11.4626
ငါးရာ	-11.4627
▁၁၄။	-11.4627
▁လူတစ်ဦး	-11.4627
မှတ်တမ်းတင်	-11.4628
အဂ္ဂ	-11.4628
▁ကမ္ဘာအနှံ့	-11.4629
ဖြစ်လာပြီး	-11.4629
▁ပြောသည်။	-11.4634
▁အိဝ	-11.4635
ဇေယျာ	-11.4635
▁ရေးသားထားသည်။	-11.4636
ကတည်းကပင်	-11.4636
▁ဆောင်ရွက်နိုင်	-11.4637
ပညတ်	-11.4638
war	-11.4642
သို့လည်း	-11.4642
▁ကျွဲခြံ	-11.4642
▁၁၈၉၀	-11.4645
▁တောက်ပ	-11.4645
CE	-11.4646
▁ဟုဆိုသည်။	-11.4646
▁ထုံ	-11.4646
▁စစ်သူကြီး	-11.4649
gan	-11.4651
▁မတူညီ	-11.4654
▁ပြုလုပ်နိုင်	-11.4655
▁အလုံ	-11.4658
စည်းကမ်း	-11.4661
ပန်ဝိုင်မြို့နယ်	-11.4662
တည်ရှိနေ	-11.4663
▁တိုက်ပွဲများ	-11.4663
▁တိုင်းသူပြည်သား	-11.4664
="93	-11.4665
ခရာ	-11.4666
▁အထက်တွင်	-11.4667
ထွက်ပြေး	-11.4668
အောက်သို့	-11.4669
ဂျေား	-11.467
တည်ရှိရာ	-11.467
၌ရှိသော	-11.4672
▁စန်း	-11.4672
="92	-11.4674
တစ်ဦးသည်	-11.4674
သည့်အနေဖြင့်	-11.4675
တော်မူရာ	-11.4675
▁သုံးဦး	-11.4676
ative	-11.4677
ပရာ	-11.4677
▁အထင်အရှား	-11.4677
▁ရေငုပ်သင်္ဘော	-11.4679
အနီး၌	-11.4679
▁နာဝီးမြို့နယ်	-11.4679
▁ဘာသာတရား	-11.4681
ဓုတင်	-11.4681
▁zone	-11.4681
▁ဝိုင်းဝန်း	-11.4681
▁ဒူ	-11.4682
စီးတီး	-11.4682
▁နည်းလမ်းများ	-11.4683
▁တတိယအကြိမ်	-11.4684
▁ဟိုက်	-11.4684
ဗြဟ္မာ	-11.4684
အလုံး	-11.4684
▁တရုတ်တို့	-11.4685
▁ဟုခေါ်သည့်	-11.4687
▁ဆီးရီးယား	-11.4689
ခံစားရ	-11.469
▁လေ့လာမှု	-11.4692
ဝင်ရိုးစွန်း	-11.4693
စာအုပ်ကို	-11.4693
▁ယူဇနာ	-11.4698
▁၁၇၈၈	-11.4698
ဆရာတော်ကြီး	-11.47
▁သံပုရာ	-11.47
▁ရှေ့သို့	-11.4701
009	-11.4702
ဇူး	-11.4704
▁အလွန်ပင်	-11.4705
▁ဆင်းရဲသား	-11.4706
သေးငယ်	-11.4706
နေချိန်တွင်	-11.4708
▁ဖြစ်နေသည်။	-11.4709
ဥပဒေကို	-11.471
ကောင်ရေ	-11.471
နိုင်၊	-11.4712
ရာအရပ်	-11.4713
▁သုံးဆောင်	-11.4713
▁ဤကန်	-11.4719
နိုင်ဘဲ	-11.472
ဖြစ်ကြသည်။	-11.4721
အိုလံပစ်	-11.4721
အဘိဓာန်	-11.4722
▁အငြင်းပွား	-11.4723
▁ဖိတ်ကြား	-11.4724
▁ပါဝင်ယှဉ်ပြိုင်	-11.4725
▁ချောင်	-11.4725
ခံနေရ	-11.4726
စားခြင်း	-11.4731
▁ဘုရားကုန်း	-11.4732
ကြူး	-11.4733
山	-11.4733
▁Mawlamyine	-11.4733
အခြေပြု	-11.4734
▁တပ်ပေါင်းစု	-11.4734
မှန်သမျှ	-11.4737
စီးပွား	-11.474
▁သင်တန်းများ	-11.4741
▁တစ်နေ့လျှင်	-11.4742
စနစ်သည်	-11.4742
▁စိတ္တ	-11.4742
▁အမြန်ဆုံး	-11.4742
▁ထုတ်ကုန်	-11.4743
နန္ဒာ	-11.4744
အကြာတွင်	-11.4744
▁ဩဝါဒ	-11.4746
လက်ဝဲ	-11.4747
▁လွန်ခဲ့သည့်	-11.4747
▁ဗေ	-11.4747
အကြောင်းအရာများ	-11.4749
▁ထူးခြားချက်	-11.475
▁ရေချိုး	-11.4751
▁၁၅ဝ	-11.4751
အင်ဂျင်	-11.4751
▁၁၈၅၅	-11.4752
pan	-11.4752
မိသည်။	-11.4753
တည်ထား	-11.4755
68	-11.4755
▁သာလွန်	-11.4757
▁အုံး	-11.4757
▁ကျန်း	-11.4757
ဗွေ	-11.4757
▁ဖလမ်းမြို့နယ်၊	-11.4759
▁ထိုရွာသည်	-11.4761
ort	-11.4763
ခွဲများ	-11.4764
ပေးကြသည်။	-11.4766
နေရသော	-11.4767
="84	-11.4768
=208	-11.4771
▁အလေးထား	-11.4772
▁တပည့်တော်	-11.4773
ကြွယ်ဝ	-11.4773
▁မပြော	-11.4776
▁United	-11.4779
ဏီ	-11.4779
▁၃၀၀၀	-11.4782
▁ငြင်းဆန်	-11.4782
▁အမိန့်ပေး	-11.4782
▁death	-11.4782
▁ကင်မရာ	-11.4783
▁ကန်တော့	-11.4785
▁အထောက်အကူပြု	-11.4786
▁အီကွေတာ	-11.4787
ယ့်	-11.4788
van	-11.4789
▁ထိရောက်စွာ	-11.4789
▁၇၀၀	-11.479
စရိုက်	-11.479
▁လျှပ်စစ်သံလိုက်	-11.479
▁days	-11.479
▁နေထိုင်ခဲ့သည်။	-11.479
ဖြင့်လည်းကောင်း	-11.4791
▁စားပွဲ	-11.4796
ae	-11.4799
ထက်မြက်	-11.4802
မွ	-11.4802
ဖောင်ဒေးရှင်း	-11.4803
▁သံသယ	-11.4804
▁နာရီတွင်	-11.4805
▁သမိုင်းပညာရှင်	-11.4805
ဖယ်ရှား	-11.4805
ကုန်းတန်း	-11.4806
▁သူကိုယ်တိုင်	-11.481
ပြီးတော့	-11.481
လယ်ရွာ	-11.4812
▁ထင်ရှားစွာ	-11.4812
ရှိဘူတာ	-11.4812
▁ညွှန်းဆို	-11.4813
▁နေရောင်	-11.4813
ထရို	-11.4815
ဟရ	-11.4815
▁အာဏာကို	-11.4815
▁ဘုရားသခင်၏	-11.4816
▁မြင်သာ	-11.4818
မွေ့	-11.4818
▁အယူ	-11.4818
▁သော်လည်းကောင်း၊	-11.4818
▁အမရပူရမြို့နယ်၊	-11.482
▁သတ္တမ	-11.482
▁သင်္ခါရ	-11.4822
▁၉၄	-11.4823
▁တစ်စုံတစ်ရာ	-11.4825
▁စာသင်	-11.4825
▁၁၈၂၂	-11.483
အဝင်	-11.4832
▁အကောင်း	-11.4833
▁အကြီးဆုံးမြို့	-11.4836
မြှင့်တင်	-11.4837
▁ရှိကြောင်း	-11.4837
▁စာရွက်စာတမ်း	-11.4837
▁မုံရွာမြို့	-11.4837
ခဲ့ကြသည်	-11.4838
ဿာ	-11.4841
▁ပထမဦးစွာ	-11.4841
▁ချော	-11.4841
နိုင်တဲ့	-11.4842
ဂျော့	-11.4843
▁အမျိုးအစားများ	-11.4844
▁အညာ	-11.4844
▁ဂွေးကုန်း	-11.4845
▁တနင်္ဂနွေ	-11.4845
စမစ်	-11.4845
▁Shan	-11.4846
အူး	-11.4846
▁နေသည်။	-11.4848
▁လမ်းများ	-11.4848
▁ဇနီးဖြစ်သူ	-11.485
ကဗျာများ	-11.485
▁သူရ	-11.485
▁ဆိုက်ရောက်	-11.485
မင်းတို့	-11.4851
="208	-11.4851
တစ်ပိုင်း	-11.4852
ဖစ်	-11.4852
▁၁၈၂၃	-11.4852
▁လက်ဆက်	-11.4853
▁စာသင်ကျောင်း	-11.4853
▁အထပ်	-11.4853
အထက်ပိုင်း	-11.4853
သီဟသူ	-11.4854
ကလောင်	-11.4855
▁သွယ်	-11.4855
မိဖုရားခေါင်ကြီး	-11.4855
▁ရု	-11.4855
သည်ဟူ၍	-11.4855
AN	-11.4856
▁၁၈၁၂	-11.4856
za	-11.4856
ဝူ	-11.4856
▁မန်ကျည်း	-11.4856
▁ထောပတ်	-11.4858
သူပုန်	-11.4858
▁ကြေညာသည်။	-11.4858
ကြီးငယ်	-11.4859
▁စတင်ခဲ့ပြီး	-11.486
လျှို့ဝှက်	-11.486
▁အင်္ဂ	-11.4861
▁နာဇီ	-11.4862
▁ကော်မတီဝင်	-11.4862
St	-11.4862
▁ပင်လုံ	-11.4864
မလုပ်	-11.4867
▁ဆရာကြီးသည်	-11.4868
တွေ့ရှိရသည်။	-11.4868
ဖက်သို့	-11.487
ရည်ရွယ်ချက်ဖြင့်	-11.487
ကာလက	-11.487
ခါနီး	-11.487
▁အရှေ့အာရှ	-11.4873
▁ထုတ်လုပ်သော	-11.4873
▁သဏ္ဌာန်	-11.4873
ဗူ	-11.4874
▁ပျောက်ဆုံး	-11.4874
ကျွန်းများ	-11.4874
▁အင်းဝမြို့	-11.4876
ပင်ဖြစ်	-11.4877
▁အသုံးများ	-11.4877
▁ဆရာစံ	-11.4878
အဖွဲ့ဝင်များ	-11.4878
မြန်မာအမျိုးသမီး	-11.4878
▁အအေး	-11.4881
▁မျှော်	-11.4882
ထန်ရွာ	-11.4883
▁အောက်လွှတ်တော်	-11.4883
ကလေးကို	-11.4884
တွမ်	-11.4884
▁အဋ္ဌမ	-11.4886
▁ဩစတြေးလျနိုင်ငံ	-11.4888
▁ပစိဖိတ်သမုဒ္ဒရာ	-11.4888
စခန်းများ	-11.4889
▁မက္က	-11.4889
ဇမ်	-11.489
၂၀၁၃	-11.489
ဒေသ၌	-11.489
▁ဟစ်တလာ	-11.4891
▁မွေးမြူရေး	-11.4891
▁ချိုင့်ဝှမ်း	-11.4892
လုံးတွင်	-11.4894
=135	-11.4895
▁အဘိုး	-11.4895
▁ရေးသားခဲ့သော	-11.4896
▁သူနာပြု	-11.4897
▁ခရစ်ယန်	-11.4897
▁ကျင်းပသည်။	-11.4898
ဖျင်း	-11.49
ထွက်သော	-11.4902
များအနေဖြင့်	-11.4903
▁ခေါင်းဆောင်မှု	-11.4904
="135	-11.4904
တောင်းရွာ	-11.4907
ဝီး	-11.4908
▁ရေအားလျှပ်စစ်	-11.4909
iz	-11.4909
ယယ်	-11.4909
▁ပြည်သူ့ရဲဘော်	-11.4911
၂၀၁၂	-11.4913
▁အသုံးပြုပုံ	-11.4914
ဘွဲ့ဖြင့်	-11.4914
▁၁၇၆၉	-11.4915
▁ထားဝယ်မြို့	-11.4915
▁ချဉ်	-11.4916
ပင်၏	-11.492
▁ထန်းတော	-11.492
တွင်ပါဝင်	-11.4922
▁အမှတ်လက္ခဏာ	-11.4923
▁Maw	-11.4923
▁တန်ချိန်	-11.4923
ပါဝင်မှု	-11.4926
▁ရဲတိုက်	-11.4926
▁ငှက်ဖျားရောဂါ	-11.4927
လမ်းကို	-11.4928
▁ရရှိခဲ့	-11.4929
စိုးရိမ်	-11.493
ခြားနား	-11.4932
မီက	-11.4932
တတ်ပြီး	-11.4933
▁ခဲယဉ်း	-11.4933
တတ်သဖြင့်	-11.4935
လှာ	-11.4938
တစ်နိုင်ငံလုံး	-11.4939
ins	-11.4939
▁သဗ္ဗ	-11.4939
▁16	-11.494
day	-11.494
▁စစ်ကြောင်း	-11.4941
▁ရရှိခဲ့ပြီး	-11.4941
▁ဂျွန်ဆင်	-11.4942
▁ပင့်ကူ	-11.4942
ကလေးများသည်	-11.4943
gar	-11.4943
တို့ထံမှ	-11.4944
▁ထိုအကြောင်းကို	-11.4946
=137	-11.4946
အုပ်ချုပ်ခဲ့သည်။	-11.4947
သွားမည်	-11.4948
မျိုးဖြင့်	-11.4948
▁ခဏ	-11.4948
▁စစ်ချီ	-11.4948
ခန့်ထား	-11.4948
သွားလျှင်	-11.495
▁*	-11.495
▁များမကြာမီ	-11.4951
▁ဤသုတ္တန်	-11.4951
▁အင်္ကျီ	-11.4953
="137	-11.4953
▁ဟိုင်း	-11.4953
ခန့်သာ	-11.4954
အရှိဆုံး	-11.4956
ass	-11.4956
ကရိယာ	-11.4957
▁နှစ်ခန့်	-11.4958
ပေ၏။	-11.4962
▁သမ္မာ	-11.4963
▁Nga	-11.4964
နှစ်ဆယ်	-11.4966
ပဲ။	-11.4967
▁Sp	-11.4967
▁ပျဉ်	-11.4968
လိုကြောင်း	-11.497
▁ထိုင်းနိုင်ငံ၊	-11.4973
တစ်ချို့	-11.4975
▁ဆော	-11.4976
နေခဲ့	-11.4977
မြတ်နိုး	-11.4978
ဘက်ခြမ်း	-11.4978
▁ပုံတူ	-11.4979
▁နောက်လိုက်	-11.4979
▁အိန	-11.4981
▁သုံးဆယ်	-11.4981
▁အရည်ပျော်	-11.4983
▁သုံးသည်။	-11.4983
နွန်	-11.4984
▁ငါးပိ	-11.4985
သုံးယောက်	-11.4987
▁သုံးမျိုး	-11.4987
▁လွှဲပြောင်းပေး	-11.4988
▁အပ	-11.4989
ပညာသင်	-11.499
ကိစ္စကို	-11.4991
ပင်ပန်း	-11.4991
ကာလ၌	-11.4991
▁ဇေယျ	-11.4995
▁တောင်တန်းများ	-11.4996
▁အိန္ဒိယနိုင်ငံ၏	-11.4997
ပြည်သူ	-11.4997
လှံ	-11.4998
▁အစာကို	-11.5
▁ကနေ	-11.5
ကျယ်ပြန့်	-11.5
▁Google	-11.5001
ဆရာအဖြစ်	-11.5001
▁နောက်ခံသမိုင်း	-11.5002
▁ရွှေတံဆိပ်	-11.5002
▁two	-11.5004
▁ရွှေပြည်	-11.5005
အလီ	-11.5005
ပရို	-11.5007
▁တောင်းခံ	-11.5008
▁ယင်းတို့အနက်	-11.501
▁မြင့်တက်	-11.5011
▁ဆက်နွယ်	-11.5011
ငါသည်	-11.5011
▁သေဒဏ်	-11.5014
▁new	-11.5015
▁ဒဂုံ	-11.5016
▁ရင်းမြစ်	-11.5017
ဟူသည်မှာ	-11.5018
▁ပုံ။	-11.5018
▁up	-11.5018
▁ကြီးကျယ်	-11.5019
ore	-11.5019
▁ဖြစ်ရာ	-11.502
▁လက္ခဏာများ	-11.5021
▁တယ်ပင်	-11.5021
▁၁၆၇၇	-11.5022
ရသည်ဟု	-11.5022
▁ခွင့်	-11.5022
သည်ဖြစ်၍	-11.5022
▁ထပ်ဆင့်	-11.5023
တည်ထောင်ခဲ့သည်။	-11.5023
ern	-11.5024
ဇုံ	-11.5025
ခိုင်မာ	-11.5026
အစိုးရမှ	-11.5026
ရသည်မှာ	-11.5026
▁လိုချင်	-11.5027
သည်ဖြစ်စေ	-11.5027
ဇာတ်လမ်းများ	-11.5028
အမိန့်ကြော်ငြာစာ	-11.5028
▁ပေါ်လစီ	-11.5028
လက်နက်များ	-11.5028
အထောက်အပံ့	-11.5029
ယန်ကျေးရွာအုပ်စု	-11.503
▁ထန်	-11.5031
▁၈၁	-11.5031
▁သတ်မှတ်ခြင်း	-11.5033
▁စစ်ဆေးခြင်း	-11.5034
▁၁၈၃၉	-11.5035
▁၁၇၆၄	-11.5038
နယ်သည်	-11.5039
▁သဘာဝဓာတ်ငွေ့	-11.504
▁ပရိယတ္တိ	-11.5041
▁ထီးနန်းကို	-11.5043
ကြီးကြပ်	-11.5044
▁ကုဋေ	-11.5047
▁su	-11.5048
တင်၊	-11.505
▁လောဘ	-11.5051
▁ရေးသားထားသော	-11.5051
▁one	-11.5053
သီတာ	-11.5056
▁ပါဠိတော်	-11.5057
▁အခေါ်အဝေါ်	-11.5057
ကြိမ်တိုင်တိုင်	-11.5058
▁နဂါးငွေ့တန်း	-11.5058
▁ယူအေအီး	-11.5058
▁စကြဝတေးမင်း	-11.5059
ထုတ်လုပ်ခြင်း	-11.5059
▁လိမ်	-11.506
▁စက်ရုံများ	-11.5062
အဆောင်	-11.5063
▁နေထိုင်သူများ	-11.5064
ဘောလုံးအသင်း	-11.5064
▁ဝမ်းနည်း	-11.5065
▁ဟင်	-11.5065
ဇိုး	-11.5065
▁ကမ်းလှမ်း	-11.5065
▁ဖာရင်ဟိုက်	-11.5066
▁ဆက်မြောက်	-11.5067
တည်ဆောက်ရေး	-11.5068
▁တည်ဆောက်ရန်	-11.5068
▁အနိစ္စ	-11.5069
▁Sun	-11.5069
ဖြစ်ခဲ့ပြီး	-11.507
ရှိ၍၊	-11.5072
ပြုပြီး	-11.5073
▁ကမ္မဋ္ဌာန်း	-11.5075
▁Inn	-11.5077
ပေးလေသည်။	-11.5078
701505	-11.5078
အမေရိက	-11.508
▁ရောင်ခြည်	-11.508
တစ်ချပ်	-11.5081
▁ရှိနေသည်။	-11.5081
="111	-11.5082
▁အာသံ	-11.5083
ဂိမ်း	-11.5084
ဇလုပ်	-11.5084
▁တံတားဦး	-11.5084
ကြရာတွင်	-11.5084
ရပ်ဝန်း	-11.5085
နှစ်များတွင်	-11.5086
မူကြမ်း	-11.5086
▁ညီနောင်	-11.5086
ဖရုံ	-11.509
▁မတူညီသော	-11.5091
သူများ၊	-11.5091
ပြစ်ဒဏ်	-11.5092
ပါကစ္စတန်နိုင်ငံ	-11.5092
ရောဂါများ	-11.5093
▁We	-11.5095
="82	-11.5098
▁သိုလှောင်	-11.5098
▁ခန့်အပ်ခြင်း	-11.5099
န္ဓ	-11.5099
▁ယင်	-11.5099
မည်၊	-11.51
▁ဆင်ခေါင်း	-11.5101
▁အသုံးပြုထားသည်။	-11.5104
ကြားရှိ	-11.5104
▁အခြားသူများ	-11.5104
▁ဘရာဇီးနိုင်ငံ	-11.5105
▁ရှမ်းစု	-11.5105
▁သားပေါက်	-11.5106
bar	-11.5106
▁ပါတီဝင်	-11.5107
ပေးသူ	-11.5107
သွားသဖြင့်	-11.5107
ပြုလုပ်၍	-11.5108
န်းရွာ၊	-11.5108
▁ရှုမဝ	-11.5109
ဝိတ်	-11.511
▁ကျတီ	-11.511
▁ကျန်ရစ်	-11.5111
▁တိုင်အောင်	-11.5111
▁များက	-11.5111
▁ပါဠိဘာသာ	-11.5113
အချို့သည်	-11.5113
▁ဖလား	-11.5114
▁လိုအပ်သလို	-11.5116
လိယ	-11.5116
▁ကိုယ်ရေး	-11.5117
ပျင်း	-11.5118
ပြောင်းလဲခြင်း	-11.512
ဆိုရှယ်လစ်	-11.512
▁လောင်ကျွမ်း	-11.5122
▁မြန်မာ့သမိုင်း	-11.5123
ကောင့်	-11.5124
စတား	-11.5124
▁ကျောက်တောင်	-11.5125
ဘုရားသည်	-11.5125
▁စကြဝဠာ	-11.5126
နှင့်တူ	-11.5127
ဖွဲ့ဆို	-11.5127
▁စီးပွားရေး၊	-11.5127
▁တီးဝိုင်းသည်	-11.5129
တည်ရာ	-11.5131
ခရိုင်ခွဲ	-11.5132
▁ခမ်း	-11.5132
ay	-11.5133
အရာရှိများ	-11.5135
▁၁၇၉၂	-11.5135
fi	-11.5135
;2021-10-0	-11.5135
▁လမ်းမကြီး	-11.5136
ယူရန်	-11.5137
▁တန်ဆောင်မုန်း	-11.5138
▁ကလေးငယ်	-11.5138
▁တည်ထောင်ခဲ့ပြီး	-11.5139
ဇူလိုင်	-11.514
ura	-11.5141
မုခ်	-11.5142
▁ဦးဖိုး	-11.5142
ဖိန်း	-11.5144
▁၁၈၃၃	-11.5144
▁ဆိုလျှင်	-11.5146
▁Hs	-11.5146
အနည်းဆုံး	-11.5146
များဖြစ်ပြီး	-11.5147
▁အသေ	-11.5147
မြို့မှာ	-11.5148
▁တို့ဗမာ	-11.5148
ခလုတ်	-11.5149
ဆန္ဒပြ	-11.515
▁ဒလ	-11.5151
▁၈၂	-11.5153
▁နေအဖွဲ့အစည်း	-11.5153
▁အသင်းဝင်	-11.5153
▁၈၆	-11.5154
▁ဝတ်ပြု	-11.5155
ဆက်စပ်	-11.5156
▁ယူခဲ့သည်။	-11.5156
▁ကလောင်အမည်	-11.5156
▁ဖြုတ်	-11.5156
နတ်သမီး	-11.5157
▁၁၂၀	-11.5157
ဟိုတယ်	-11.5159
▁ရုပ်သံလိုင်း	-11.516
▁ငြိမ်းချမ်း	-11.5162
ဇာတ်တော်	-11.5163
▁တစ်ခုဖြစ်ပြီး	-11.5163
မိန်း	-11.5163
ရှိရာသို့	-11.5167
▁၁၈၁၁	-11.5168
ကျင်းပခဲ့သည်။	-11.5169
အမျိုးသမီးများ	-11.5169
▁အင်ဆူလင်	-11.5169
▁ထူထပ်	-11.517
ရခဲ့သည်။	-11.517
▁နေရ	-11.5172
▁တာဝန်ကို	-11.5173
တမံ	-11.5173
▁သုတ	-11.5173
အချို့မှာ	-11.5173
▁အကောင်အထည်	-11.5175
▁ထင်မှတ်	-11.5175
အသစ်ကို	-11.5175
▁နိုင်ငံရေး၊	-11.5175
▁တောတွင်း	-11.5176
▁အလှူခံ	-11.5177
ထားလျှင်	-11.5178
ham	-11.5181
▁၁၆၆၄	-11.5181
▁ဒါပေမယ့်	-11.5182
▁ကြားတွင်	-11.5183
အနု	-11.5184
▁နဖူး	-11.5184
ကဒ်	-11.5184
လိုအပ်သော	-11.5185
ကြေညာခဲ့သည်။	-11.5186
▁တင်စား	-11.5186
နံ့သာ	-11.5188
▁၎င်းအား	-11.5188
ren	-11.5188
ei	-11.5189
▁ပါဝင်ခဲ့ပြီး	-11.519
unt	-11.519
လက်သို့	-11.519
▁အဖို	-11.519
▁ထိုးဖောက်	-11.5195
▁စာအုပ်တွင်	-11.5195
▁နှစ်အောက်	-11.5196
▁စုပ်ယူ	-11.5196
▁ပဲခူးတိုင်း	-11.5197
ဖေဖော်ဝါရီ	-11.5198
လျူ	-11.5198
ပန်းပင်	-11.5198
▁ကြုံတွေ့	-11.5198
▁မှီခို	-11.5199
▁အသုံးပြုခွင့်	-11.5202
▁သောကြောင့်	-11.5203
ဗန်းမော်မြို့နယ်	-11.5203
အိပ်မက်	-11.5204
▁အဆက်	-11.5205
တက	-11.5205
law	-11.5207
tal	-11.5207
ဒေသ၏	-11.5208
▁အနော်ရထာ	-11.5208
ရွှေ့ပြောင်း	-11.5208
မောင်၊	-11.5209
▁ပါလာ	-11.5209
▁ပြည်မ	-11.521
မယ်တော်	-11.5212
▁ဂျီဩမေတြီ	-11.5212
ခုတွင်	-11.5212
yn	-11.5213
▁တည်ရှိရာ	-11.5214
▁ချောင်းဖျား	-11.5215
▁ကျိုင်း	-11.5216
▁တယ်လီဖုန်း	-11.5217
▁ဝတ္ထုတိုများ	-11.5221
ဘစ်	-11.5221
ean	-11.5221
▁ကျွန်တော့်	-11.5222
▁ဂွေးပင်	-11.5223
ِ	-11.5225
=110	-11.5225
တွတ်	-11.5226
Ch	-11.5226
▁ကမ္ဘာဦး	-11.5226
▁မတွေ့ရ	-11.5227
▁ကြို့ပင်	-11.5229
လွှမ်းမိုးမှု	-11.5232
အမှတ်အသား	-11.5232
စစ်ကိုင်း	-11.5233
စီးရီး	-11.5234
▁ကျန်ရှိ	-11.5236
▁Let	-11.5237
ep	-11.5238
▁သံဃာတော်များ	-11.5239
▁ကီး	-11.5239
▁၁၇၅၂	-11.5242
ပါဟု	-11.5242
နေတာ	-11.5242
▁ရဟန်းတော်	-11.5242
▁ဖြစ်စေသည်။	-11.5243
▁ဆိပ်သာ	-11.5243
▁ရောင်းဝယ်	-11.5243
အသုံးပြုမှု	-11.5244
တဲ့၊	-11.5244
▁ဇရပ်	-11.5245
▁ဟူ၍လည်းကောင်း၊	-11.5245
▁၁၇၅၈	-11.5247
▁ထိုစာအုပ်	-11.5249
▁နံ့သာ	-11.525
▁ဖြန့်ဖြူး	-11.5251
အကယ်ဒမီ	-11.5253
55	-11.5253
▁နူးညံ့	-11.5253
▁ဖူးမြော်	-11.5253
▁အချမ်းသာဆုံး	-11.5254
▁စတာလင်	-11.5255
▁အနီးရှိ	-11.5256
ွင်	-11.5256
ုပ်သံဇာတ်လမ်းတွဲ	-11.5257
tri	-11.5258
ရှေ့လောင်ဂျီတွဒ်	-11.5259
သတ္တဝါများ	-11.5259
▁ဂျပန်ခေတ်	-11.5259
သက်သေ	-11.5261
="110	-11.5262
▁ဂီတကို	-11.5262
တံခွန်	-11.5262
▁၎င်းမှာ	-11.5262
▁ဆော်	-11.5264
သမုတ်	-11.5265
▁၇၆	-11.5265
▁ဆိုပြီး	-11.5265
▁ပြောက်ကျား	-11.5265
▁မပေး	-11.5266
ဆွန်း	-11.5267
လျက်ရှိကြသည်။	-11.5267
▁ကညင်ကုန်း	-11.5271
=52	-11.5274
ပမ်း	-11.5275
▁၎င်းတွင်	-11.5275
တော်စပ်သူ	-11.5275
▁ကိုယ်စားပြုသည်။	-11.5276
▁လုပ်သား	-11.5276
ပြသည်။	-11.5278
ကျက်စား	-11.5278
▁မိုက်ခရိုဆော့ဖ်	-11.5282
▁name	-11.5285
▁၁၈၁၅	-11.5285
▁နို့တိုက်သတ္တဝါ	-11.5286
▁တရားကို	-11.5287
သိဒ္ဓိ	-11.5287
အဝတ်	-11.5287
အမှတ်မှာ	-11.5287
▁လက်တွဲ	-11.5287
တစ်ခုအနေဖြင့်	-11.5288
ရောင်ခြင်း၊	-11.5289
▁ပြုလုပ်ထားသည်။	-11.5294
အထိမ်းအမှတ်	-11.5297
▁မျက်မှောက်ခေတ်	-11.5297
cho	-11.5299
▁ရနိုင်	-11.53
▁လွှဲ	-11.5301
အသုံးပြုကြသည်။	-11.5303
▁ဓာတ်အား	-11.5303
▁အဆိုရှိသည်။	-11.5303
ာန်	-11.5304
▁ယင်းကဲ့သို့	-11.5304
▁တယ်	-11.5307
သျှင်	-11.5308
▁အောင်း	-11.5309
န္တာ	-11.5309
န္တရ	-11.531
ဘရ	-11.5315
▁လျော်	-11.5315
နေစဉ်အတွင်း	-11.5315
ထောက်လှမ်းရေး	-11.5318
▁US	-11.5319
သည်လည်းကောင်း၊	-11.5319
မြေပုံ	-11.532
နောက်ခံ	-11.5324
တစ်ပင်	-11.5328
▁ရစ်ချတ်	-11.5329
လာသောကြောင့်	-11.5333
▁ခင်ပွန်း	-11.5334
▁ချပ်	-11.5335
▁ယခုခေတ်တွင်	-11.5336
▁သင်ကြားပို့ချ	-11.5336
▁မိန့်တော်မူ	-11.5336
ကွာဝေး	-11.5336
▁ဆင်ယင်	-11.5337
▁Billboard	-11.5338
ကြီးများနှင့်	-11.5338
▁ဖွံ့ဖြိုးဆဲ	-11.5339
▁နယ်ခြား	-11.5342
ဆန်ဆန်	-11.5343
တိုက်ရိုက်	-11.5344
များအကြောင်း	-11.5344
▁၁၇၉၃	-11.5345
▁မိုင်းပတ်	-11.5345
▁ဂျပ်	-11.5346
သောအရာ	-11.5348
ဆောင်းပါးများ	-11.5348
ဖော်ပြခဲ့သည်။	-11.5349
▁မီလီမီတာ	-11.535
port	-11.535
▁King	-11.5351
အနွယ်ဝင်	-11.5351
▁ရည်ရွယ်ချက်မှာ	-11.5352
Po	-11.5353
အစေ့	-11.5353
▁တပ်ဆင်ထား	-11.5355
ရိုင်းတိရစ္ဆာန်	-11.5357
▁၁၈၇၇	-11.5357
ex	-11.5359
ကျောင်းသို့	-11.536
လျှို	-11.5361
▁အမှုန့်	-11.5362
အရာကို	-11.5363
▁ရေစီး	-11.5363
သူမ	-11.5364
▁ဘုရားချောင်း	-11.5365
▁၁၇၅၉	-11.5366
ကလို	-11.5367
တွင်ကား	-11.5368
▁အစေး	-11.537
▁ပူး	-11.537
စေရာ	-11.5373
ရှားပါး	-11.5374
ရလဒ်	-11.5374
▁မကောင်းမှု	-11.5374
▁ဂရမ်	-11.5375
စေတီကို	-11.5377
ကွန်ဂရက်	-11.5377
အစ္စလာမ်	-11.5377
မှိန်	-11.5378
▁ကြားရ	-11.5379
▁ငဖဲမြို့နယ်	-11.5381
ဖြင့်ပင်	-11.5381
မဏိ	-11.5381
ငွေကို	-11.5381
ရေတွင်း	-11.5381
များမှာမူ	-11.5384
▁ချီးမြှောက်	-11.5385
ကောက်ခံ	-11.5386
▁ကျနော်	-11.5386
ပြုလုပ်ခဲ့သည်။	-11.5386
▁အမှုထမ်းခဲ့သည်။	-11.5386
ဒေသနှင့်	-11.5386
▁ချောင်းဝ	-11.5388
▁တွန်းလှန်	-11.5388
▁ပြန်သွား	-11.5389
▁ပြောင်းလဲလာ	-11.539
ရရှိသည့်	-11.5391
မရွာ	-11.5392
▁လှူဒါန်းခဲ့သည်။	-11.5393
ကသိုဏ်း	-11.5394
▁alternative	-11.5395
▁ဂျော်ဂျီယာ	-11.5395
ဝေးသော	-11.5395
▁အထူးပင်	-11.5397
▁တရားလွှတ်တော်	-11.5398
▁ရရှိသည့်	-11.5399
▁မျိုးနွယ်စု	-11.5401
များအားလုံး	-11.5402
▁၁၈၄၇	-11.5403
ကြခြင်းဖြစ်သည်။	-11.5403
တောင်ကြား	-11.5408
▁နေရာဒေသ	-11.5408
ငြား	-11.5408
▁၁၇၆၃	-11.5409
▁နက္ခတ္တပညာရှင်	-11.541
▁ဇွဲ	-11.541
▁စူဠ	-11.541
အစိုးရကို	-11.5412
tin	-11.5412
▁ညွန့်ပေါင်း	-11.5415
▁မလို	-11.5416
▁အင်းမ	-11.5417
ဖြစ်နိုင်သည်။	-11.5417
ညဉ့်	-11.5417
line	-11.5417
▁တင်ပို့ရောင်းချ	-11.5417
ပို့ဆောင်ရေး	-11.5418
▁ဖုဂျိ	-11.5419
▁ချစ်သူ	-11.5419
▁အစ္စလာမ်ဘာသာ	-11.5419
58	-11.542
Sa	-11.5421
မ္ဗ	-11.5421
▁၁၇၆၀	-11.5425
▁ဧချင်း	-11.5426
▁ထိုကျွန်း	-11.5428
လောက်သာ	-11.5428
▁မြောက်ကိုရီးယား	-11.5428
ဘိက္ခုနီမ	-11.543
လုံးဝ	-11.543
တတ်၍	-11.5432
နန်းတက်	-11.5433
လမ်းမ	-11.5433
ကြေညာချက်	-11.5434
မှာကား	-11.5434
▁အိန္ဒိယနှင့်	-11.5434
အရှေ့စု	-11.5437
▁ဟားခါးခရိုင်	-11.5438
="66	-11.5439
လှကျေးရွာအုပ်စု	-11.544
ဂရီ	-11.544
အခွေ	-11.5442
▁ပြုတ်	-11.5442
▁ခင်မောင်	-11.5443
cus	-11.5444
▁မလိုလား	-11.5446
▁မြန်	-11.5447
▁မြင်တွေ့	-11.5447
=62	-11.5448
▁လူပျို	-11.5449
ust	-11.5449
▁ညီမျှ	-11.5451
е	-11.5452
▁အခကြေးငွေ	-11.5454
ချောင်းဖျား	-11.5454
▁Tar	-11.5455
ဘိန်း	-11.5456
▁ပန်းခြံ	-11.5457
▁ဗားရှင်း	-11.546
▁ဝန်ကြီးအဖြစ်	-11.5466
အုပ်စု၌	-11.5472
ကောက်ယူ	-11.5472
▁သက်ဆိုင်သည့်	-11.5473
နိပါတ်	-11.5474
ခင်မောင်	-11.5475
▁၁၅။	-11.5475
▁အသုံးဝင်ပုံ	-11.5477
၍လည်း	-11.5478
▁ဆိုလိုသည်မှာ	-11.5478
အထည်	-11.548
▁ပညာဆည်းပူး	-11.548
▁စိ	-11.548
တန်ချိန်	-11.5481
အရေးကြီး	-11.5481
light	-11.5482
▁၇ဝ	-11.5483
▁ဖြစ်ကြ၏။	-11.5485
ဖြစ်နေသော	-11.5485
ဘရာ	-11.5486
မင်းခေါင်	-11.5487
ပါရှိသော	-11.5488
▁အင်္ဂလိပ်အစိုးရ	-11.5492
လောက်က	-11.5493
ကောင်းများ	-11.5494
ရဟန်းတို့	-11.5494
▁၉ဝ	-11.5495
မျှား	-11.5496
▁ဖုန်	-11.5496
▁စဝ်	-11.5496
ဘားမား	-11.5496
ကျောက်တိုင်	-11.5499
▁ဖြစ်ခဲ့ပြီး	-11.5501
ဖြင်	-11.5502
လည်းဖြစ်	-11.5504
▁ဖြန့်ဝေ	-11.5504
▁ဦးခင်မောင်	-11.5505
▁စနေ	-11.5506
နှော	-11.5506
ဂုဏ်ပြု	-11.5507
pho	-11.5507
▁ထွန်းကားခဲ့သည်။	-11.5507
မလဲ	-11.5508
အာဏာကို	-11.5508
▁တိုကျိုမြို့	-11.5508
ငရဲ	-11.5509
▁mainstream	-11.5509
▁တယ်လီစကုပ်	-11.5509
▁အီတာလျံ	-11.5509
▁နယ်သာလန်	-11.5509
▁ဝါဂွမ်း	-11.551
စွတ်	-11.5511
နံ့	-11.5513
▁ကြမ်းတမ်း	-11.5513
မိုတို	-11.5514
လုပ်ငန်းစဉ်	-11.5514
▁တန်ဆာဆင်	-11.5514
="56	-11.5515
▁ကျူး	-11.5515
ပြန့်ပွား	-11.5515
တွင်လည်းကောင်း	-11.5515
▁၁၇၉၁	-11.5516
လုပ်ပိုင်ခွင့်	-11.5517
▁ကျွမ်းကျင်မှု	-11.5517
တယ်ဆိုတာ	-11.5517
ခြင်းဆိုင်ရာ	-11.5518
မည်သည့်	-11.5519
▁၁၆၄၄	-11.552
▁သာမန်အားဖြင့်	-11.5521
▁မိတ်ဆက်	-11.5522
▁အိမ်ရှေ့	-11.5522
▁ဝင်ရောက်ယှဉ်	-11.5523
▁၁၁၀	-11.5525
▁အဖမ်း	-11.5526
ကွပ်ကဲ	-11.5526
▁သံဘို	-11.5527
EC	-11.5527
▁ပြည်တော်သာ	-11.5527
▁ဖော်ဆောင်	-11.553
▁Ok	-11.553
ပေ၊	-11.5531
▁လေးနှစ်	-11.5532
▁ပြုလုပ်သည်။	-11.5534
▁ကျွန်းကလေး	-11.5535
မှတ်တမ်းများ	-11.5535
လီရှော	-11.5537
အခါက	-11.5537
ချစ်ခင်	-11.5538
▁ဃ	-11.5539
ကြည်လင်	-11.5539
▁များဖြင့်	-11.5539
▁တွေ့ဆုံဆွေးနွေး	-11.5541
ရာ၏၊	-11.5541
ခဲ့သည်၊	-11.5542
ခဲ့ခြင်းကြောင့်	-11.5543
▁ကွာဝေး	-11.5544
▁အင်ပိုင်ယာ	-11.5544
kin	-11.5545
များလည်းရှိသည်။	-11.5545
မို့၊	-11.5547
▁စည်းလုံး	-11.5549
▁ပေးရန်	-11.555
▁Sha	-11.5552
▁BD	-11.5552
ဧပြီ	-11.5553
▁ဘာသာပြန်ဆို	-11.5553
▁မိုးလေဝသ	-11.5553
▁အလွန်အမင်း	-11.5553
▁ကမ်	-11.5555
▁ရက်ကန်း	-11.5556
▁အလှအပ	-11.5556
ရုံ၊	-11.5557
▁ဇင်	-11.556
ပလင်	-11.5564
ney	-11.5565
▁လိုအပ်ချက်	-11.5565
ရင်းနှီးမြုပ်နှံ	-11.5567
▁guitar	-11.5567
▁ပေးသည်။	-11.5568
▁သက္ကတ	-11.5569
ထုတ်၍	-11.5569
နိုင်သမျှ	-11.5571
▁နမ့်ဖိုင်	-11.5572
▁တံတိုင်း	-11.5572
▁မည်သို့မျှ	-11.5573
▁ဆင်ကူး	-11.5574
အားလည်း	-11.5576
ရာသီတွင်	-11.5576
▁၁၈၄၂	-11.5576
▁၁၇၃၁	-11.5577
▁အဓမ္မ	-11.5579
▁ရွာသာ	-11.5579
▁စတင်တည်ထောင်ခဲ့	-11.5581
▁၁၈၄၉	-11.5582
▁အံ့ဩ	-11.5584
▁မိခင်ဖြစ်သူ	-11.5585
▁၁၆၈၃	-11.5585
ရွန်း	-11.5586
▁ဝီရိယ	-11.5587
မချိဘူတာ	-11.5588
▁လျော့	-11.5589
လောကသို့	-11.559
တစ်ဝိုက်တွင်	-11.559
▁(5)	-11.5591
▁Than	-11.5592
တပ်ကို	-11.5593
ုန်း	-11.5593
အတွင်းဝန်	-11.5594
▁ဟန်ဂေရီ	-11.5597
ith	-11.5598
▁စစ်သည်	-11.5602
▁ဖြစ်လာလေသည်။	-11.5602
စေရ	-11.5603
လက်ပန်	-11.5604
▁ကျူတော	-11.5604
ဒဏ်ရာ	-11.5605
ရှိသူများ	-11.5607
ပေးရမည်။	-11.5609
ခုနှစ်အထိ	-11.561
အရေးပါ	-11.561
▁စားသောက်ဆိုင်	-11.5611
▁လှပသော	-11.5611
နမူနာ	-11.5615
ပြီးသည့်	-11.5615
▁တစ်ပြိုင်နက်	-11.5615
ပါလျက်	-11.5617
ပျံ့	-11.5619
ကြွေး	-11.562
တတ်လေသည်။	-11.5621
▁နေထိုင်ကြသော	-11.5623
▁တံငါ	-11.5623
ပိုင်းကို	-11.5625
▁Naruto	-11.5625
=133	-11.5625
▁ကောက်ညှင်း	-11.5626
▁မျိုးပွား	-11.5629
သူလည်း	-11.5629
▁ဘူမိ	-11.563
နယ်ပယ်တွင်	-11.5631
▁အောင်မြေ	-11.5631
မြစ်၊	-11.5632
▁ထိုပုဂ္ဂိုလ်	-11.5632
▁နွားနို့	-11.5632
မြောက်ပိုင်း၊	-11.5632
▁၁၈၄၃	-11.5633
▁15	-11.5635
ight	-11.5635
▁မြင့်သည်။	-11.5635
▁ရေနွေး	-11.5636
▁တရားခံ	-11.5636
▁ပြောင်းလဲခြင်း	-11.5636
▁ပြီးနောက်	-11.5639
▁ဂျာမန်တို့	-11.564
▁၁ဝဝဝ	-11.5641
လျှ	-11.5641
▁ဘားမား	-11.5642
▁၁၇၀၆	-11.5642
▁အနိုင်	-11.5643
▁၁၇၆၅	-11.5644
အခြေအနေကို	-11.5644
="133	-11.5644
▁အပြိုင်	-11.5646
ဝူး	-11.5647
▁အုပ်ချုပ်သည်။	-11.5648
ထိမ်း	-11.5648
ကျွန်း၏	-11.5649
အွန်း	-11.5649
▁စီးဝင်သည်။	-11.565
▁Am	-11.565
▁ပေါ်ပေါက်ခဲ့	-11.5651
ဒရာ	-11.5651
▁အောက်မေ့	-11.5651
နိုင်လျှင်	-11.5652
▁ကျန်းမာရေးနှင့်	-11.5655
▁ရှည်သည်။	-11.5655
▁ဖြစ်တတ်သည်။	-11.5659
▁နပိုလီယန်	-11.5659
▁ခြုံ	-11.5662
ထုတ်ဖော်	-11.5662
လွမ်	-11.5662
▁ကိုယ်စား	-11.5664
ရှိပါတယ်။	-11.5664
လိုစိတ်	-11.5666
▁စတော့	-11.5666
=96	-11.5667
▁ဝိတိုရိယ	-11.5668
▁ကျွန်းချောင်း	-11.5668
▁ကောင်းမွန်သော	-11.567
▁ယနေ့ခေတ်တွင်	-11.5673
▁အလုပ်အမှုဆောင်	-11.5673
▁အသက်မွေးဝမ်း	-11.5674
▁သို	-11.5674
တေဇ	-11.5674
သမာ	-11.5676
▁module	-11.5676
▁၁၈၄၅	-11.5677
အောက်၌	-11.5677
ဂုဏ်ရည်	-11.5677
▁လျင်မြန်	-11.5677
စိတ်ဝင်စား	-11.5678
ဖွံ့ဖြိုးမှု	-11.5678
IC	-11.5679
ဂုဏ်ထူး	-11.568
ဂျောင်	-11.5682
▁ဗောဓိပင်	-11.5683
မြို့အနီး	-11.5683
အကြောင်းရင်း	-11.5683
ّ	-11.5684
▁အတိအလင်း	-11.5684
▁Kyaung	-11.5684
=212	-11.5685
▁ဇာတ်ညွှန်း	-11.5685
'()	-11.5687
အသုံးပြုခြင်း	-11.5688
▁Metal	-11.5689
ဝန်ထမ်းများ	-11.569
▁တည်တံ့	-11.569
▁အယ်လ်ဘမ်	-11.569
ဖွင့်ဆိုချက်	-11.5691
ဆောင်ရွက်ရေး	-11.5691
▁သေချာစွာ	-11.5691
▁စီမံခန့်ခွဲရေး	-11.5692
▁နှစ်သား	-11.5692
▁ပျောက်ကွယ်	-11.5693
အဝေး	-11.5693
▁Africa	-11.5695
▁ကြားနာ	-11.5696
ခြင်းခံရသော	-11.5696
ဇတ်	-11.5698
▁ထုံးစံ	-11.5698
▁ဖောက်ပြန်	-11.5701
နှစ်ကြာ	-11.5702
စက်တင်ဘာ	-11.5702
▁ခူ	-11.5703
▁ပွားများ	-11.5704
▁ရေသွင်း	-11.5704
ြောက်အမေရိကတိုက်	-11.5704
▁သဘောတူညီမှု	-11.5704
▁ကြိုးကြာ	-11.5705
▁အသုံးအဆောင်	-11.5707
▁သုတေသီ	-11.5707
သင်္ဘောများ	-11.5708
▁ဘွဲ့အမည်	-11.571
နယ်များ	-11.5711
▁ချေ။	-11.5711
Na	-11.5712
="98	-11.5713
ြန်မာနိုင်ငံတော်	-11.5714
▁၁၈၀၇	-11.5714
▁အဲဒါ	-11.5715
▁ဖြာထွက်	-11.5717
▁ကြိုက်	-11.5718
သေးသည့်	-11.5718
မိဘ	-11.5718
မှူးအဖြစ်	-11.5721
▁ကျည်	-11.5723
၏အဓိက	-11.5724
အများစုကို	-11.5725
▁al	-11.5726
▁ဥပဒေများ	-11.5727
▁နမ့်ခမ်း	-11.5728
▁၁၆၇၂	-11.5729
▁ကျောင်းသူ	-11.573
လေ့ရှိ၏။	-11.573
ဇန်း	-11.573
▁ပိုက်ဆံ	-11.5731
ဋိ	-11.5732
▁IV	-11.5733
ဒီဇင်ဘာ	-11.5733
ပေါက်ကွဲ	-11.5735
▁ကိစ္စရပ်များ	-11.5736
▁ဝေါဟာရကို	-11.5736
▁ဘုရင်၏	-11.5736
▁ဟစ်	-11.5738
ခြစ်	-11.5739
ကျမ်းတွင်	-11.574
ပျား	-11.574
▁ကယ်ဆယ်	-11.574
▁ဥရောပတိုက်တွင်	-11.574
54	-11.5741
mil	-11.5741
မှအစ	-11.5741
▁language	-11.5742
=130	-11.5743
▁have	-11.5743
▁ဟူသည်	-11.5743
▁လာသည်။	-11.5743
▁ချွတ်	-11.5744
rit	-11.5745
ရတော့သည်။	-11.5746
bin	-11.5747
ဥမင်	-11.5749
ခွင့်ရှိသည်။	-11.5751
နာယက	-11.5751
▁သီချင်းကို	-11.5751
="212	-11.5752
ဝန်ထောက်	-11.5753
▁မှော်ဘီ	-11.5754
ပုံရွာ	-11.5755
▁သံဃ	-11.5755
70151	-11.5757
▁ရောက်သည်။	-11.5757
သိမ်းဆည်း	-11.5758
▁ချော်	-11.5758
စေခြင်းဖြင့်	-11.5759
အင်္ဂလိပ်လူမျိုး	-11.5759
တို့တွင်လည်း	-11.576
▁အစုံ	-11.5761
တစ်ဦးနှင့်	-11.5761
ဒေသများ၌	-11.5762
စထ	-11.5762
လက်ထက်က	-11.5762
out	-11.5763
▁pre	-11.5764
="130	-11.5767
အဆင်	-11.5769
ကြသူ	-11.577
▁နောက်ဆုံး၌	-11.577
▁တန်ဆောင်း	-11.5772
▁ဝံပုလွေ	-11.5773
▁တိုက်ခိုက်ရေး	-11.5773
ပီယာ	-11.5776
လျက်ရှိသည့်	-11.5776
ကြကြောင်း	-11.5776
ပြည့်ဝ	-11.5778
ကျန့်	-11.5779
▁ဆူပူ	-11.578
▁နှော	-11.578
ပြည်ကို	-11.5781
ပေးထားသော	-11.5781
ဘုရားရှိခိုး	-11.5781
ဆင်းတုတော်	-11.5782
▁ပုံနှိပ်တိုက်	-11.5782
▁ဘွဲ့တံဆိပ်	-11.5782
▁သည်းခြေ	-11.5782
▁လေးမျက်နှာ	-11.5783
စာပေများ	-11.5783
သမျှသော	-11.5783
မင်းများ	-11.5785
▁တပ်မြို့	-11.5785
▁တခါ	-11.5788
▁လျော့ချ	-11.5788
▁ဖောင်း	-11.5789
▁ဆေးလိပ်	-11.5791
▁မော်စကိုမြို့	-11.5792
သွားနိုင်သည်။	-11.5792
▁ကထိက	-11.5793
ပညာသည်	-11.5793
sang	-11.5793
▁မပြုလုပ်	-11.5794
▁ဤကား	-11.5795
နိုဝင်ဘာ	-11.5795
အဖြေ	-11.5795
နိုင်ငံအဖြစ်	-11.5795
so	-11.5795
▁ခူး	-11.5797
▁ဝိညာဉ်	-11.5797
ခဲ့ပုံ	-11.5798
ပုံဖော်	-11.5798
▁အလိုက်	-11.5798
▁နိုင်ငံကို	-11.5799
▁သံဃာတော်	-11.5801
ွမ်း	-11.5801
▁တပေါင်းလ	-11.5801
ညွှတ်	-11.5801
▁စူပါ	-11.5801
ချူပ်	-11.5803
▁music	-11.5804
နှီး	-11.5806
နှစ်ခုလုံး	-11.5807
▁ရွှေ့	-11.5807
▁ရွာသွန်း	-11.5808
▁၂၁၅၉	-11.5809
ဠာ	-11.581
ဖွားမြင်	-11.5812
RC	-11.5812
ပသ	-11.5813
▁ပေါ်ထွန်းလာ	-11.5817
အလား	-11.5817
▁သင်ယူခဲ့သည်။	-11.5819
လေးကျေးရွာအုပ်စု	-11.5819
▁၁၇၀၅	-11.582
▁ဤသည်မှာ	-11.5821
ံ၊	-11.5823
▁၉၈	-11.5823
yin	-11.5824
အရာ၌	-11.5825
▁ကရင်နီ	-11.5825
▁၈၃	-11.5825
▁ကွာခြား	-11.5825
▁၁၆၈၈	-11.5826
▁တနေ့	-11.5826
မျိုးဖြစ်၍	-11.5827
▁ဒိ	-11.5827
▁ဂေါတမ	-11.5827
သင်္ချိုင်း	-11.5828
▁ဗိုလ်ကြီး	-11.5829
bit	-11.5831
▁အလ္လာဟ်	-11.5831
ခြင်းဖြစ်	-11.5833
ဂေ	-11.5836
ပန္န	-11.5836
▁ကက်သလစ်	-11.5837
ညီညွတ်ရေး	-11.5838
အရက်	-11.584
တစ်ခုခုကို	-11.584
ဗွန်	-11.5843
တရ	-11.5844
သုံးနှုန်း	-11.5845
ဂေါင်	-11.5846
▁မိုးရေ	-11.5847
let	-11.5847
လာပြီ	-11.5847
ကိုင်တွယ်	-11.5848
▁ပျက်ပြား	-11.5848
▁ကျော်ခန့်	-11.5849
အိမ်ထောင်	-11.585
▁အဖေ	-11.5852
▁အိမ်ထောင်ကျ	-11.5852
▁ဒဏ်ရာရ	-11.5852
▁အသိအမှတ်	-11.5853
▁other	-11.5858
▁လက်ထပ်ခဲ့သည်။	-11.5859
▁ချူ	-11.586
ဘဝသို့	-11.586
▁အချို့သည်	-11.586
▁စင်္ကာပူ	-11.5861
ဎ	-11.5861
▁မရိုး	-11.5862
▁တည်ဆောက်မှု	-11.5862
▁ဖြုတ်ချ	-11.5863
မန်တွန်းမြို့နယ်	-11.5863
အကောင်အထည်ဖော်	-11.5863
ကလောင်ဖာမြို့နယ်	-11.5863
▁ထိုမှတစ်ဆင့်	-11.5863
ချိန်း	-11.5864
▁ကုမ္ပဏီ၏	-11.5866
နှင့်အခြား	-11.5867
▁အလွန်တရာ	-11.5868
▁UTC	-11.5868
တခုခု	-11.5868
ဂျာမန်	-11.587
▁တစ်မြို့	-11.587
▁အကောက်	-11.5873
▁၇၈	-11.5874
--	-11.5875
တို့အပေါ်	-11.5878
▁ပါဝင်မှု	-11.5878
ကို၎င်း၊	-11.588
မြတ်သော	-11.5881
▁ကန်၏	-11.5881
စိမ်	-11.5882
ဘယ	-11.5885
ခွင့်၊	-11.5886
ဘေးမှ	-11.5886
▁ချွေး	-11.5889
▁ခုနှင့်	-11.5889
▁အာဏာရ	-11.589
ဂမ်	-11.589
▁ရုံတင်	-11.5891
ဖြစ်ပါတယ်	-11.5892
လုပ်ခြင်း	-11.5894
အပြား	-11.5895
65	-11.5896
ချိုင့်ဝှမ်း	-11.5896
▁မဲပေး	-11.5897
အဖြစ်အပျက်	-11.5897
▁သိက္ခာပုဒ်	-11.5898
▁သံဖြူ	-11.5899
▁ဒါန	-11.5899
▁မြန်မာအစိုးရ	-11.59
ev	-11.5903
▁လွတ်လပ်မှု	-11.5903
▁၁၆၉၂	-11.5903
▁ယူနိုက်တက်ကင်းဒ	-11.5904
▁ဘွဲ့ရ	-11.5904
▁အထောက်အကူ	-11.5905
▁ကွာရှင်း	-11.5906
▁အတုယူ	-11.5907
မရှိ။	-11.591
▁မြောင်	-11.591
နောက်တွင်	-11.5912
▁သင့်လျော်သော	-11.5912
▁Wi	-11.5913
fa	-11.5914
▁ကိုးကွယ်ယုံကြည်	-11.5914
ပင်ဖြစ်၏။	-11.5916
ပေါ်ထွက်လာ	-11.5919
ခေါ်ယူ	-11.592
▁first	-11.5921
တောင်ကြီး	-11.5922
နိသျ၊	-11.5924
စဉ်အတွင်း	-11.5924
▁ဧရာဝတီတိုင်း	-11.5925
Ar	-11.5925
▁Pyay	-11.5925
ရတာ	-11.5926
ထူထပ်သော	-11.5926
▁အညိုရောင်	-11.5928
▁ဖွဲ့နွဲ့	-11.5929
▁တောတောင်	-11.5929
▁ကျောက်စိမ်း	-11.593
▁၂၀၂၉	-11.5935
▁မအူပင်	-11.5936
▁ပြည်ပြေး	-11.5938
▁ထိုအဖွဲ့	-11.5939
▁မီးသတ်	-11.594
▁ရွေ့ပြောင်း	-11.594
ted	-11.5941
▁လန်း	-11.5942
▁သေဆုံးခဲ့သည်။	-11.5945
▁၂၁၀၁	-11.5946
မြိတ်	-11.5947
သလင်း	-11.5947
▁အတို	-11.5948
ဘဲ၊	-11.5949
aing	-11.5949
မှစတင်၍	-11.595
="63	-11.5953
▁သုတေသနလုပ်ငန်း	-11.5953
သူတို့အား	-11.5956
▁ပေါ်ထွက်	-11.5956
▁ပျက်ကွက်	-11.5958
▁၁၇၀၀	-11.5958
တပ်သား	-11.5958
ဝန်ကြီးဌာန၏	-11.5961
▁ဤနည်း	-11.5962
▁လွင်ပြင်	-11.5964
များသာမက	-11.5966
ina	-11.5967
စော်	-11.5968
▁ကြို	-11.5969
▁၁၈၁၄	-11.597
ကြီးဖြစ်သည်။	-11.597
▁ဟောတော်မူ	-11.5971
▁ရေတွင်	-11.5971
▁ယူဆောင်လာ	-11.5972
ခေါ်သည်။	-11.5973
အင်တာနက်	-11.5975
▁ဦးဆောင်မှု	-11.5976
▁မြှုပ်နှံ	-11.5977
70350	-11.5981
ဘဝက	-11.5981
ကန့်သတ်	-11.5981
ဝတ္ထုများ	-11.5981
▁ပေါင်မြို့နယ်၊	-11.5982
▁အိမ်တွင်း	-11.5982
[...]
