<unk>	0
<s>	0
</s>	0
▁	-3.22021
၊	-3.94525
="	-4.29598
doc	-4.31582
>	-4.31637
▁<	-4.31637
)	-4.4364
▁(	-4.57218
သည်	-4.57499
"	-4.75876
d	-4.91741
/	-4.93728
တွင်	-4.94689
ကို	-4.94954
?	-5.00753
curi	-5.00927
▁title	-5.00932
url	-5.00933
▁id	-5.01095
ရွာ၊	-5.0855
နှင့်	-5.18364
▁ဖြစ်သည်။	-5.22654
၌	-5.31465
ကျေးရွာအုပ်စု	-5.32828
.	-5.4327
▁ဦး၊	-5.44636
၏	-5.55424
▁မ	-5.60538
▁တည်ရှိသည်။	-5.70624
က	-5.79372
▁ရွာနေရာကုတ်မှာ	-5.79412
မြို့နယ်	-5.83348
မှ	-5.89341
များ	-5.91377
▁သ	-5.97825
သော	-5.9944
ရွာ	-5.99709
▁()	-6.00859
မှာ	-6.02588
-	-6.03843
▁၂၀၁၄	-6.06543
န်းခေါင်စာရင်းအရ	-6.09867
▁ကျား	-6.10296
▁လူဦးရေ	-6.11537
▁စုစုပေါင်း	-6.13375
ကြီး	-6.20308
၍	-6.23947
▁ဦးနေထိုင်သည်။	-6.27677
(	-6.28151
များကို	-6.30769
သည်။	-6.32702
ခဲ့သည်။	-6.33995
;	-6.42411
မြို့နယ်၊	-6.5079
ပြီး	-6.56217
▁နှင့်	-6.56516
အား	-6.58218
&	-6.58781
▁သည်	-6.59414
မ	-6.59582
သို့	-6.59908
သည့်	-6.60084
၁	-6.61079
ကာ	-6.61368
▁ထို	-6.61913
။	-6.65981
ခြင်း	-6.67538
ရန်	-6.67559
ဖြင့်	-6.69316
▁အ	-6.70066
ရှိ	-6.71904
,	-6.72278
▁ရှမ်းပြည်နယ်	-6.74698
လည်း	-6.78584
တိုင်းဒေသကြီး၊	-6.80524
ဖြစ်သည်။	-6.81622
▁ခုနှစ်	-6.82471
▁ဦး	-6.83467
▁ခုနှစ်တွင်	-6.84332
lt	-6.87488
အ	-6.87835
ရာ	-6.89606
gt	-6.90515
▁"	-6.90796
တောင်	-6.92095
ပင်	-6.93689
အဖြစ်	-6.97637
▁MMR	-7.00454
ဟု	-7.03524
တို့	-7.05329
မြောက်	-7.07272
▁ကို	-7.07325
သာ	-7.08712
s	-7.12243
▁-	-7.12659
▁တွင်	-7.13179
ရ	-7.1552
၂	-7.18781
မှု	-7.19689
ပါ	-7.26082
ရေး	-7.34165
▁က	-7.34776
အရှေ့	-7.34923
အတွက်	-7.37375
▁ရက်။	-7.39043
()	-7.40055
တ	-7.40771
ဝ	-7.45141
သူ	-7.45827
တော်	-7.4599
▁ဤ	-7.46772
များသည်	-7.47249
မြို့	-7.47866
ကြသည်။	-7.49001
လာ	-7.49228
▁ရှိသည်။	-7.51576
တို့ကို	-7.5233
▁သို့မဟုတ်	-7.52863
▁&	-7.534
အောင်	-7.53975
▁အခြား	-7.54241
စ	-7.56341
များနှင့်	-7.57561
များတွင်	-7.58194
'	-7.59031
▁စစ်ကိုင်း	-7.59267
တို့သည်	-7.60016
▁မြန်မာနိုင်ငံ	-7.60562
ကုန်းရွာ၊	-7.65087
၃	-7.65865
ခရိုင်၊	-7.6645
တို့၏	-7.67348
▁မြန်မာ	-7.67756
၏။	-7.67882
▁ဟု	-7.68613
ခြင်း၊	-7.69175
တာ	-7.69938
ဦး	-7.70271
လ	-7.7146
▁မန္တလေး	-7.71542
▁ယင်း	-7.73445
လျှင်	-7.7376
▁the	-7.75041
လေသည်။	-7.75719
”	-7.75998
ပုံ	-7.76279
ခဲ့ပြီး	-7.76506
▁၂	-7.76564
ခ	-7.76804
ကား	-7.77384
နေ	-7.78326
▁မှ	-7.78852
;/	-7.79624
ပေါင်း	-7.80335
လေး	-7.80432
▁ရေ	-7.81324
▁ပဲခူးတိုင်းဒေသ	-7.81437
▁သို့သော်	-7.81788
▁“	-7.83483
အနောက်	-7.83573
▁အဖြစ်	-7.84089
▁၏	-7.84645
▁၁	-7.86309
▁ရက်နေ့တွင်	-7.86346
သား	-7.86848
▁နှစ်	-7.87222
ဖြစ်သော	-7.8725
၄	-7.87366
စွာ	-7.87892
မင်း	-7.88218
သ	-7.88623
▁တ	-7.88903
များ၊	-7.89214
▁နေထိုင်သည်။	-7.90409
နီ	-7.90764
ခဲ့ကြသည်။	-7.91688
ကုန်း	-7.92934
▁of	-7.92961
▁၃	-7.93463
သဖြင့်	-7.9391
ချောင်း	-7.94213
အတွင်း	-7.94464
ဆိုင်ရာ	-7.94655
တစ်ခု	-7.95208
▁အမေရိကန်	-7.95311
▁လူ	-7.95452
ကြောင့်	-7.95515
id	-7.96164
▁'	-7.97375
၅	-7.97549
ထက်	-7.97722
ပ	-7.97823
နိုင်သည်။	-7.98585
နိုင်	-7.98984
များမှာ	-7.99273
ဖြစ်	-7.99598
ရေ	-7.99622
လျက်	-7.99896
▁မကွေး	-8.00378
ထားသော	-8.00914
▁သည်။	-8.01181
▁ခုနှစ်၊	-8.01528
▁Ward	-8.03594
နာ	-8.04024
ဖြစ်ပြီး	-8.04519
း	-8.04975
▁၄	-8.05321
▁သူ၏	-8.05785
မျိုး	-8.05807
ကြောင်း	-8.05894
တဲ့	-8.06128
နိုင်ငံ	-8.0614
▁ကျိုင်းတုံ	-8.06491
စီ	-8.06875
▁ရှိ	-8.06925
တိုင်း	-8.07282
ရှိသည်။	-8.07655
နှစ်	-8.0819
ခေါ်	-8.08325
ရသည်။	-8.08398
အထိ	-8.08642
▁စတင်	-8.09435
ပြီးနောက်	-8.09735
▁ရွှေ	-8.10075
ကောင်း	-8.10679
ခဲ့သော	-8.10826
ကန်	-8.10872
ရင်း	-8.10914
တင်	-8.11975
တစ်	-8.12385
▁နိုင်ငံ	-8.13043
တန်း	-8.13393
အရ	-8.13561
▁အမှတ်	-8.13793
▁။	-8.13889
▁၅	-8.14212
စ်	-8.14289
များ၏	-8.14512
ရာတွင်	-8.14531
လေ	-8.15041
သွား	-8.15815
▁ရက်	-8.16604
သစ်	-8.17144
သုံး	-8.1764
ထား	-8.1775
▁တောင်	-8.18073
နဲ့	-8.18536
မူ	-8.187
ကျွန်း	-8.19952
▁အဓိက	-8.20491
ပေး	-8.2052
တွေ	-8.2066
ပေါက်	-8.22416
▁အသက်	-8.22447
စာ	-8.22526
▁ပြန်လည်	-8.22923
နေသော	-8.23034
▁ဒုတိယ	-8.23069
ထားသည်။	-8.2308
▁သော	-8.23228
စား	-8.23305
န	-8.2369
▁Town	-8.23984
လိုက်	-8.23995
လ်	-8.2426
ဟာ	-8.24668
ကျော်	-8.24776
:	-8.25083
လို	-8.25164
ဝါ	-8.25273
2	-8.25619
တိုက်	-8.25623
မာ	-8.26468
့	-8.27256
ခံ	-8.27639
တော	-8.27929
ဝင်	-8.27942
သော်လည်း	-8.28109
ကိုလည်း	-8.28149
▁ဖြစ်	-8.2816
ဂ	-8.28504
၆	-8.2853
▁အမျိုးသား	-8.29082
လုံး	-8.29138
3	-8.29398
တို	-8.30047
▁အလွန်	-8.30069
ဘဲ	-8.31159
▁၆	-8.31763
လီ	-8.32032
လက်	-8.32194
ကျောင်း	-8.32592
ရှင်	-8.32652
▁၎င်း	-8.3308
၇	-8.33097
ကျ	-8.33557
ခဲ့	-8.34237
ဟူ၍	-8.34639
▁−	-8.34703
▁မင်း	-8.34824
▁ထို့နောက်	-8.35213
▁တည်ရှိသည့်	-8.36191
▁and	-8.36317
ရီ	-8.36423
1	-8.36596
▁ခု	-8.36974
▁တစ်	-8.37029
အားဖြင့်	-8.37228
သည်ဟု	-8.37491
ကလေး	-8.37499
သောအခါ	-8.37552
ရှိသော	-8.37808
▁ဤရွာ	-8.37934
4	-8.38165
▁လက်	-8.38518
မိ	-8.38601
ကြ	-8.38828
ဖြစ်၍	-8.38879
လူ	-8.3983
▁လ	-8.3986
ချက်	-8.40426
▁၇	-8.40539
▁ပထမဆုံး	-8.40554
▁အတွက်	-8.40567
များက	-8.40708
ရက်	-8.40734
▁စီးပွားရေး	-8.40818
မြို့တွင်	-8.4127
ပန်း	-8.41469
ခဲ့လေသည်။	-8.41701
▁ကျောက်	-8.41729
ပြင်	-8.41772
မီ	-8.41958
▁အိမ်	-8.42063
t	-8.42267
▁၁၀	-8.42489
စု	-8.42633
ရွှေ	-8.43112
▁အစိုးရ	-8.43139
ငယ်	-8.43337
▁ပထမ	-8.43696
များဖြင့်	-8.43742
▁ဂျပန်နိုင်ငံ၊	-8.43993
တက်	-8.44074
ချင်း	-8.44518
တို့တွင်	-8.44656
စုရွာ၊	-8.44668
▁စစ်	-8.44862
▁၁၅	-8.45146
ခြင်းကို	-8.45784
▁ထို့ကြောင့်	-8.45831
တော့	-8.45923
တပ်	-8.45979
ဒ	-8.45983
e	-8.46056
▁နောက်	-8.46517
ပြန်	-8.4675
ပြီးလျှင်	-8.46857
▁နိုင်ငံရေး	-8.47257
မျှ	-8.47261
ကွင်း	-8.47348
▁စ	-8.47578
▁ပေ	-8.47633
▁ထိုသို့	-8.47641
စစ်	-8.47788
ကဲ့သို့	-8.47882
▁ရ	-8.47893
တိုင်	-8.48009
၈	-8.48109
▁ရေး	-8.48698
ဆင်	-8.48823
▁အထိ	-8.48897
နယ်	-8.49248
▁သူသည်	-8.4928
ဒီ	-8.49327
▁ရန်ကုန်	-8.49412
ဘ	-8.49695
▁ရပ်ကွက်	-8.49819
အောက်	-8.49886
y	-8.49934
▁ပါဝင်	-8.50606
▁ပ	-8.50626
ပဲ	-8.51483
▁မိမိ	-8.51525
စဉ်	-8.51541
ဆုံး	-8.51764
ဖြူ	-8.51953
နည်း	-8.52077
▁တိမ်ကောသွားပြီ	-8.52342
တန်	-8.52449
▁ငါး	-8.52477
▁ပြည်ထောင်စု	-8.52487
ယူ	-8.52813
လူဦးရေစုစုပေါင်း	-8.52949
များအား	-8.52987
▁၁၂	-8.53243
▁နေ	-8.53245
ရင်	-8.53439
▁တို့	-8.53631
▁ကျော်	-8.54369
လှ	-8.55128
▁ကချင်ပြည်နယ်၊	-8.55165
မှုကို	-8.55362
▁ဆောင်ရွက်	-8.55407
▁ဝ	-8.56549
လမ်း	-8.56557
▁မြေ	-8.56686
▁၁၄	-8.56767
▁ခေါ်	-8.5696
ဆို	-8.57093
ထားသည့်	-8.57416
မြေ	-8.57507
ခွဲ	-8.57689
▁အသုံးပြု	-8.57818
စေ	-8.57921
ထွက်	-8.57935
သံ	-8.58059
ရိုး	-8.58085
ရပ်ကွက်	-8.58151
၁၈	-8.58257
▁၈	-8.59114
▁=	-8.59266
▁တရုတ်	-8.59325
▁နေရာ	-8.59359
▁အင်္ဂလိပ်	-8.59375
▁၃၀	-8.59442
ဒါ	-8.59563
▁နောင်	-8.59672
▁မတ်လ	-8.59676
ယ	-8.60163
ပေါ်	-8.60283
▁ဘူတာတစ်ခု	-8.60331
▁ဖြစ်ပြီး	-8.60361
5	-8.60676
▁၂၅	-8.60705
ယာ	-8.60741
ပါသည်။	-8.61632
မှုများ	-8.61672
ဆောင်	-8.6171
▁အား	-8.61712
ခန့်	-8.62081
ခဲ့သည့်	-8.621
ချောင်းရွာ	-8.62263
▁ဆရာ	-8.62792
နား	-8.63053
▁ကျောင်း	-8.63138
▁၂၄	-8.6331
တီ	-8.63553
အဖွဲ့	-8.63601
ချ	-8.63776
▁တက္ကသိုလ်	-8.64229
၁၂	-8.64232
ပေ	-8.64238
▁အဲခိ	-8.64323
6	-8.64359
▁သုံး	-8.6437
▁ကိုယ်ပိုင်	-8.64689
▁A	-8.64983
၁၉	-8.65125
▁စာ	-8.6525
တို့က	-8.65298
▁နိုင်ငံတော်	-8.65414
▁ပြုလုပ်	-8.65735
ပိုင်း	-8.66008
သောကြောင့်	-8.6604
သော်	-8.66164
▁ပါ	-8.66288
တူ	-8.66618
▁စိတ်	-8.66761
▁ဘုရား	-8.6678
▁၉	-8.67378
ဘုရား	-8.67389
▁အာ	-8.67419
လုပ်	-8.67693
၉	-8.67735
▁ပန်	-8.6803
ဒေသ	-8.68043
▁၁၁	-8.68186
▁ပါဝင်သည်။	-8.68266
▁သို့	-8.68302
ပြ	-8.68446
ဆာ	-8.68555
များမှ	-8.68637
ခဲ့ရာ	-8.68672
8	-8.6891
စေရန်	-8.69035
ရဲ့	-8.69215
▁အချို့	-8.69249
in	-8.69482
ရပ်	-8.69929
▁အထူး	-8.69935
ဆန်	-8.69977
▁ဆက်လက်	-8.70232
▁ဆင်	-8.70253
▁မဟာ	-8.70472
လုပ်ငန်း	-8.70477
▁The	-8.7062
ရာ၌	-8.70636
▁ကောင်း	-8.70651
ဆေး	-8.70831
ပေါ်တွင်	-8.70889
0	-8.71105
ဘာ	-8.71106
▁အတွင်း	-8.71255
ပြု	-8.71424
ပွဲ	-8.71457
▁ကမ္ဘာ့	-8.71512
▁၂၂	-8.71744
▁မိုင်	-8.71768
လို့	-8.71907
၁၀	-8.71912
▁in	-8.72078
အို	-8.72125
ခေတ်	-8.7213
သည်လည်း	-8.72735
▁ဝင်ရောက်	-8.72903
ing	-8.73251
▁S	-8.73366
▁")	-8.7361
တတ်	-8.7377
▁၂၃	-8.73838
▁များ	-8.7387
▁၁၆	-8.73878
စိတ်	-8.73943
▁No	-8.74082
ဆ	-8.74236
▁သူ	-8.74514
ဟောင်း	-8.7453
駅	-8.74669
▁၂၇	-8.74801
▁မောင်	-8.7485
ဆီ	-8.74896
7	-8.75126
နိုင်သော	-8.75483
ခုနှစ်တွင်	-8.75619
▁နား	-8.75944
▁၂၆	-8.76059
ကုန်	-8.76386
)"	-8.76461
▁ခန့်	-8.76883
ဇ	-8.77058
ကျောက်	-8.77363
၁၁	-8.77504
’	-8.77729
ဟန်	-8.77883
သိ	-8.78027
▁မေလ	-8.78075
နေရာ	-8.78625
ချိန်	-8.78688
▁လေ	-8.7872
ထုတ်	-8.78764
မြင့်	-8.7877
▁ရေးသား	-8.78844
ဆက်	-8.78972
▁ထိုအခါ	-8.79024
▁အရှင်	-8.79222
▁မြို့	-8.79283
လဲ	-8.79329
▁ငွေ	-8.79382
ထ	-8.79826
သီး	-8.7994
▁ရုပ်ရှင်	-8.80212
▁သူ့	-8.80291
မည့်	-8.80326
မြစ်	-8.80418
ခုနှစ်	-8.80434
▁to	-8.80963
9	-8.81009
ဖို့	-8.81219
▁တနင်္သာရီ	-8.81276
al	-8.81289
▁ဂျပန်	-8.81289
▁ဒီ	-8.81319
များအတွက်	-8.81345
▁နမ့်	-8.81428
မန်	-8.81788
▁ကရင်ပြည်နယ်	-8.81844
ကြား	-8.81855
▁သမိုင်း	-8.82211
o	-8.82319
ချုပ်ခွင့်ရဒေသ	-8.82328
၁၅	-8.8246
ဖ	-8.82709
ဖြစ်သည့်	-8.82889
▁အောက်	-8.83011
ပညာ	-8.83087
▁တစ်ခု	-8.83116
ခဲ့ရသည်။	-8.83593
နှင့်အတူ	-8.8362
လောက်	-8.83693
လင်း	-8.83755
ရည်	-8.83811
ရသော	-8.83972
▁သို့ရာတွင်	-8.84124
နိုင်ရန်	-8.8429
▁သံ	-8.84353
n	-8.84463
အတိုင်း	-8.84904
▁ပညာ	-8.84914
▁ရှင်	-8.84926
ခဲ့၏။	-8.84993
▁လုပ်ငန်း	-8.85163
▁အခြေခံ	-8.85245
ခင်	-8.85477
လူမျိုး	-8.85481
▁ရက်တွင်	-8.85671
ငွေ	-8.85937
▁ဧပြီလ	-8.85983
ထိ	-8.86019
▁နတ်	-8.86021
▁စာပေ	-8.86058
▁ကိုယ်ပိုင်အုပ်	-8.86159
န်	-8.86181
▁ရောက်	-8.86247
▁ပန်း	-8.86291
မည်	-8.86303
သေ	-8.86383
▁ဖွဲ့စည်း	-8.86414
▁a	-8.86418
ဘူတာ	-8.86499
▁မိုး	-8.86543
မီး	-8.86656
ပန်	-8.86841
ပိုင်	-8.86923
အနေဖြင့်	-8.8729
▁မိုင်းပျဉ်း	-8.87393
▁အဆိုပါ	-8.87403
တွင်း	-8.87492
er	-8.87617
x	-8.87659
ဟူသော	-8.8775
ရစ်	-8.87891
▁ဗြိတိသျှ	-8.87926
၁၄	-8.87931
သူများ	-8.88062
▁၂၈	-8.88146
အပေါ်	-8.88193
၁၃	-8.88347
▁ဇွန်လ	-8.88352
၂၀	-8.88571
စက်	-8.88796
လုံ	-8.88946
ပါက	-8.89076
လျက်ရှိသည်။	-8.89252
52"	-8.89262
၁၇	-8.89343
53"	-8.89353
▁၂၀	-8.89442
▁ဖြစ်၏။	-8.89526
▁မန်	-8.89566
S	-8.89679
ဝန်	-8.89701
မောင်	-8.89794
▁ပိုမို	-8.89837
51"	-8.9001
61"	-8.90412
54"	-8.90422
စနစ်	-8.90484
▁မီး	-8.90627
72"	-8.90717
63"	-8.90811
62"	-8.90867
နို	-8.90933
နန်း	-8.90949
ခွင့်	-8.91015
%	-8.91023
ထိုး	-8.9112
၁၆	-8.91147
▁၁၃	-8.91183
▁သန်း	-8.9123
87"	-8.91255
▁ဩဂုတ်လ	-8.91272
48"	-8.91343
နောင်	-8.91488
▁ယခုအခါ	-8.91641
77"	-8.91667
69"	-8.91704
03"	-8.91759
55"	-8.91822
42"	-8.91869
94"	-8.91889
85"	-8.91942
46"	-8.91956
16"	-8.92001
83"	-8.92041
ထဲတွင်	-8.9208
73"	-8.921
▁ဟူ၍	-8.92111
59"	-8.92128
93"	-8.92222
37"	-8.92235
71"	-8.9227
04"	-8.92327
67"	-8.92355
99"	-8.92384
74"	-8.92409
13"	-8.92423
86"	-8.92429
19"	-8.92596
89"	-8.92637
ခြင်းနှင့်	-8.92653
12"	-8.92758
44"	-8.92809
88"	-8.92844
64"	-8.92884
43"	-8.92892
28"	-8.92913
10"	-8.92918
ရောက်	-8.92965
79"	-8.92997
36"	-8.93057
33"	-8.93069
68"	-8.93074
09"	-8.93082
95"	-8.93111
78"	-8.93129
ဖြစ်၏။	-8.93198
58"	-8.93214
29"	-8.93257
66"	-8.93258
အိုင်	-8.93333
15"	-8.93349
82"	-8.93351
50"	-8.93396
65"	-8.93396
ခဲ့ပါသည်။	-8.93398
45"	-8.9341
▁ဆေး	-8.93415
97"	-8.9343
14"	-8.93464
07"	-8.93518
17"	-8.93545
ဆု	-8.9359
24"	-8.93659
40"	-8.93667
91"	-8.93676
30"	-8.93716
31"	-8.93721
r	-8.93761
ဟ	-8.93839
T	-8.93853
မြန်မာ	-8.93862
57"	-8.93871
84"	-8.93946
47"	-8.93962
11"	-8.93971
27"	-8.93979
i	-8.94026
တည်း	-8.94048
အကြောင်း	-8.94049
80"	-8.94059
08"	-8.94061
75"	-8.94068
41"	-8.94078
76"	-8.94099
60"	-8.94106
81"	-8.94106
49"	-8.94108
39"	-8.94112
21"	-8.94203
ပြည်နယ်	-8.94216
ed	-8.9426
32"	-8.94265
23"	-8.94275
▁စသည့်	-8.94343
02"	-8.94411
96"	-8.94436
▁တော်	-8.9446
18"	-8.94473
ခု	-8.94521
35"	-8.9458
01"	-8.94658
▁C	-8.94789
br	-8.94807
▁လွိုင်လင်ခရိုင်	-8.94851
ဇာ	-8.9491
25"	-8.94972
▁ဤသို့	-8.95008
92"	-8.95037
▁ယဉ်ကျေးမှု	-8.9519
34"	-8.95255
90"	-8.95334
▁ယခု	-8.95351
နတ်	-8.95453
70"	-8.95522
ပစ်	-8.95587
စေသည်။	-8.95609
▁ဇန်နဝါရီလ	-8.9574
ကုန်းရွာ	-8.95744
38"	-8.9579
▁အိန္ဒိယ	-8.95891
20"	-8.95917
06"	-8.95929
ဆိုင်	-8.96033
အင်း	-8.9619
▁သာယာဝတီခရိုင်	-8.96254
▁လေး	-8.96273
▁လုပ်	-8.96284
22"	-8.96314
ဆရာတော်	-8.96343
▁ဝမ်	-8.96347
05"	-8.96416
98"	-8.96425
များစွာ	-8.96507
ဝင်း	-8.96564
▁ဆို	-8.96571
▁ဟူသော	-8.96646
▁၁၈	-8.96742
▁မြန်မာ့	-8.96826
မိုး	-8.9686
▁အောင်	-8.9694
▁သမ္မတ	-8.96983
ခန်း	-8.9703
56"	-8.97106
▁ဥပဒေ	-8.97249
▁သား	-8.9726
ပါ။	-8.97292
လာသည်။	-8.97369
၀၀၀	-8.97426
▁တိုက်ခိုက်	-8.97701
▁သွား	-8.97739
လေ့	-8.97742
26"	-8.97845
▁ထို့ပြင်	-8.98027
နောက်	-8.98053
ပြည်	-8.98059
▁များစွာ	-8.98307
ဘုရင်	-8.98605
ရဲ	-8.98775
▁တော	-8.98813
အုပ်ချုပ်ခွင့်ရ	-8.98866
်	-8.98919
▁H	-8.99061
▁ပြန်	-8.99176
ရန်အတွက်	-8.99323
တို့မှ	-8.99344
▁ပြောင်းလဲ	-8.99419
သန်း	-8.99477
စီး	-8.99612
ခြင်းဖြင့်	-8.99621
ထို	-8.99629
စကား	-8.99819
လေ့ရှိသည်။	-8.9985
00"	-8.99905
▁အကြောင်း	-9.0016
▁အထက်	-9.00288
▁၂၉	-9.00299
▁ဇူလိုင်လ	-9.00353
▁အောက်တိုဘာလ	-9.00497
▁B	-9.00555
ရို	-9.00612
နက်	-9.00654
c	-9.00756
ကျမ်း	-9.00834
▁ဒေသ	-9.00852
တရား	-9.00862
လယ်	-9.00871
▁ပြု	-9.01061
ဗ	-9.01395
အိမ်	-9.01415
▁ဖြစ်ကြသည်။	-9.0148
▁စက်တင်ဘာလ	-9.01486
▁၎င်း၏	-9.01809
▁ဒေါ်	-9.01862
ရမည်။	-9.01883
ကင်း	-9.01941
▁ဒီဇင်ဘာလ	-9.02196
▁လည်းကောင်း၊	-9.02255
ကူး	-9.0231
▁င	-9.02378
▁သိ	-9.02447
ဘက်	-9.02719
ပုံစံ	-9.02786
ပါး	-9.02961
ရှာ	-9.03026
ဒ်	-9.03085
▁မည်သည့်	-9.03121
▁စသော	-9.03207
များကိုလည်း	-9.03736
▁အချိန်	-9.03934
▁ပြည်နယ်	-9.03999
▁‘	-9.04119
▁တရား	-9.04429
ပတ်	-9.04452
▁ဘ	-9.04681
ရောင်	-9.04782
ချီ	-9.04966
အထက်	-9.05
ခဲ	-9.05073
▁ကိုယ်	-9.0508
စံ	-9.0512
ရော	-9.05517
ဥ	-9.05659
▁နိုဝင်ဘာလ	-9.05991
B	-9.06043
▁ဖြင့်	-9.06249
ဝမ်	-9.06367
ဆရာ	-9.06416
▁သက္ကရာဇ်	-9.06424
အာ	-9.06425
နိုင်ခဲ့သည်။	-9.06453
တို့မှာ	-9.06492
▁ရှမ်း	-9.0655
▁သွေး	-9.06804
မွန်	-9.06814
▁အမျိုးသမီး	-9.06982
၃၀	-9.07113
တိုင်း၊	-9.07124
▁စိုက်ပျိုး	-9.07256
ရှည်	-9.07303
သုတ်	-9.07351
▁ကန်	-9.07374
▁စကား	-9.07554
▁နောက်ဆုံး	-9.07576
လွယ်	-9.07599
တွင်လည်း	-9.07741
A	-9.0775
တို့နှင့်	-9.07775
▁အင်	-9.07841
တိုး	-9.07846
▁၁၉	-9.07983
ပါတယ်။	-9.08128
▁ရောဂါ	-9.08183
ငါး	-9.08264
▁အထူးသဖြင့်	-9.08283
a	-9.08318
လိုက်သည်။	-9.08348
▁မာ	-9.08388
▁တွေ့ရသည်။	-9.08397
ဘာသာစကား	-9.0841
▁ခ	-9.08497
င	-9.0896
▁ပို၍	-9.09011
နေသည်။	-9.09614
တို့ဖြင့်	-9.09645
▁လားရှိုးခရိုင်	-9.09838
တက္ကသိုလ်	-9.09942
▁စာအုပ်	-9.09983
▁ဆိုသည်။	-9.10083
▁ကွတ်ခိုင်	-9.10145
▁Ma	-9.10153
ဘီ	-9.10214
▁ဆ	-9.10223
လောင်း	-9.10347
▁၃၁	-9.10468
၂၄	-9.1081
▁ဂီတ	-9.10948
မဲ	-9.11093
၂၅	-9.11243
▁ကလေး	-9.11278
မှုကြောင့်	-9.11394
▁လေ့လာ	-9.11395
▁သတ်မှတ်	-9.11454
အုပ်	-9.11583
အထူးဒေသ	-9.11589
▁ဆိုသည်မှာ	-9.11705
ပို	-9.11752
▁လမ်း	-9.11769
တစ်ဦး	-9.1187
ခဲ့သော်လည်း	-9.11884
▁မြင်း	-9.12091
ကောင်	-9.12102
▁နိုင်ငံတကာ	-9.12205
ထောင်	-9.12484
▁ဗိုလ်	-9.12544
ာ	-9.12672
ပြား	-9.12751
▁ပြည်သူ့	-9.12895
▁အမည်	-9.12923
▁၁ဝ	-9.12954
ပစ္စည်း	-9.13111
▁ယူ	-9.13219
ဝေ	-9.13264
▁တိုက်	-9.13329
▁၁၇	-9.13439
သည့်အခါ	-9.13632
အိုး	-9.13649
ဖက်	-9.13702
▁အသံ	-9.13977
မ်	-9.13997
အပြင်	-9.14007
▁တပ်မတော်	-9.14151
ရုံ	-9.14225
C	-9.14345
ကပ်	-9.14345
▁M	-9.14371
ံ	-9.14421
နေ့	-9.14451
▁ပြော	-9.14546
ကွဲ	-9.14616
ကြ၏။	-9.14863
မှစ၍	-9.14946
▁အခြားသော	-9.15238
တို့အား	-9.15348
ချင်	-9.15449
▁တာ	-9.1549
▁ခေါင်းဆောင်	-9.15519
မိုင်	-9.15777
P	-9.15795
ချုပ်	-9.15862
▁မူလ	-9.15873
ဂါ	-9.15943
▁ဘုရင်	-9.15948
▁အနောက်	-9.15951
မဲ့	-9.15958
▁ပြင်သစ်	-9.16023
တတ်သည်။	-9.16023
များလည်း	-9.16048
▁ရာခိုင်နှုန်း	-9.16068
▁ပေါက်	-9.16106
အေး	-9.16148
နေသည့်	-9.1615
▁သခင်	-9.1615
လင်	-9.16261
ကံ	-9.16371
g	-9.16404
ဖူး	-9.16471
လွန်	-9.16804
▁ဥ	-9.16858
▁ဗိုလ်ချုပ်	-9.17061
တ်	-9.171
နု	-9.17214
ခေါင်း	-9.17664
စရာ	-9.17765
ကလည်း	-9.17799
▁ဘဝ	-9.17872
▁ဖော်ပြ	-9.18144
ကာလ	-9.18195
▁ရန်ကုန်မြို့	-9.18244
ဓာတ်	-9.1828
▁နန်း	-9.18411
မယ်	-9.18545
▁ကျန်	-9.18561
အစိုးရ	-9.18586
▁တရားဝင်	-9.18591
▁မြောက်	-9.18626
ခို	-9.18657
▁ကမ္ဘာ	-9.18683
ဘဝ	-9.18737
▁ယောက်	-9.18752
▁လုပ်ကိုင်	-9.18948
▁န	-9.18976
ကြည့်	-9.18982
ရုံး	-9.19281
မှာလည်း	-9.19331
E	-9.19342
▁K	-9.19386
▁ပညာရေး	-9.19557
▁ရှေး	-9.1958
ဝါး	-9.19631
▁ဒေါက်တာ	-9.19633
ကြလေသည်။	-9.19643
▁မျိုး	-9.19676
ရောဂါ	-9.19693
၂၃	-9.19721
▁သစ်	-9.19801
▁အရ	-9.19822
▁မိုင်းမော	-9.19845
▁အများဆုံး	-9.19906
ပူ	-9.20063
▁ဥက္ကဋ္ဌ	-9.20136
▁သဘာဝ	-9.20269
ထံ	-9.20368
▁ဝါ	-9.20414
▁အဖွဲ့ဝင်	-9.20433
▁NGC	-9.20446
▁နေထိုင်	-9.20479
ပီ	-9.20488
▁ဟို	-9.20547
တော်မူ	-9.20625
▁ကိုးကား	-9.2065
▁စက်	-9.20675
▁မိမိတို့	-9.20724
ဆောင်ရွက်	-9.20743
▁ကျောင်းသား	-9.20819
ပြည်ထောင်စု	-9.20873
လာခဲ့သည်။	-9.20948
လန်	-9.20996
▁ရရှိ	-9.2108
ဘာသာ	-9.21112
▁D	-9.21275
ငှက်	-9.2139
၂၆	-9.21413
ည	-9.21543
တည်	-9.21545
▁ပြည်	-9.21889
▁လည်း	-9.21903
ခရိုင်	-9.21936
▁ပေး	-9.22019
က်	-9.22054
▁ပြည့်နှစ်	-9.22082
▁ကရင်	-9.22111
၄၀	-9.2212
ဖြစ်စေ	-9.22127
၂၁	-9.22266
▁ပါတီ	-9.2229
နိုင်သည့်	-9.22305
▁အလုပ်	-9.22406
ရှိပြီး	-9.22518
▁မြစ်ကြီးနား	-9.2259
တိ	-9.22714
▁ဥရောပ	-9.22767
▁ပင်လယ်	-9.22837
တန့်ယန်းမြို့နယ်	-9.22877
▁တော်လှန်ရေး	-9.22884
စိန်	-9.22967
ဌာန	-9.23224
▁အင်း	-9.23241
▁ဆောင်	-9.23531
▁၃၅	-9.23547
▁P	-9.2357
▁မိုင်းဆတ်	-9.23979
ကြာ	-9.24155
တွဲ	-9.24271
▁တပ်	-9.24298
ပါတီ	-9.24473
▁ရွေးချယ်	-9.24559
ရိ	-9.24611
▁လာ	-9.24834
▁အဖွဲ့	-9.24868
ကောက်	-9.24908
မော်	-9.24984
|	-9.2518
▁သူတို့	-9.25241
ဘွဲ့	-9.25277
၂၈	-9.25309
▁လက်ရှိ	-9.25376
သတ်	-9.25539
▁အုပ်ချုပ်ရေး	-9.25664
တီး	-9.25715
▁ခေါ်သည်။	-9.25845
တံ	-9.2593
၂၉	-9.25947
▁ဆာ	-9.26005
h	-9.26041
ns	-9.26091
▁မဲ	-9.26098
▁ပင်လောင်း	-9.26185
▁မော်လမြိုင်	-9.26227
မေ	-9.2624
အသင်း	-9.26288
▁ဗဟို	-9.26412
ပြော	-9.26423
သင်	-9.26478
▁အို	-9.26482
၀	-9.26526
စပ်	-9.26598
▁ရရှိခဲ့သည်။	-9.26607
အမည်	-9.26766
▁၂၁	-9.26844
▁F	-9.27177
▁၂၀၁၀	-9.27235
၂၇	-9.27355
L	-9.27571
ညို	-9.27659
ခါ	-9.27865
သကဲ့သို့	-9.27942
စာပေ	-9.28059
ဆိုသည်မှာ	-9.2807
အပြည်ပြည်ဆိုင်ရာ	-9.28087
ခဲ့ခြင်း	-9.28108
ဝိုင်း	-9.28383
▁ပဲခူးခရိုင်	-9.28403
ရေးသား	-9.28411
ဆင်း	-9.28428
▁ကုန်း	-9.28454
အဆင့်	-9.28526
▁တက်	-9.28661
ဂျီ	-9.28707
▁တောင်ငူခရိုင်၊	-9.28766
▁ချင်းပြည်နယ်၊	-9.28801
လည်းကောင်း၊	-9.28955
▁ဂ	-9.28975
တောင်း	-9.29068
▁ကျန်းမာရေး	-9.29316
▁သီပေါမြို့နယ်	-9.29335
▁ပုံ	-9.29368
▁ဝက်	-9.29375
လည်	-9.29399
▁များကို	-9.29429
▁E	-9.2945
▁ထည့်သွင်း	-9.29469
▁ပေါင်း	-9.29506
ဆန်း	-9.29565
၂၂	-9.29591
ဖြစ်သူ	-9.29619
▁ပအိုဝ်း	-9.29794
▁အဆင့်	-9.29855
စင်	-9.29881
▁လေသည်။	-9.29903
အင်	-9.29918
ရွက်	-9.29953
တောရွာ	-9.30017
▁စား	-9.30067
▁အောင်မြင်	-9.30109
K	-9.30126
▁ပါဝင်သော	-9.30161
▁တို့ကို	-9.30233
ထားပြီး	-9.30371
သက်	-9.30448
▁ထို့အပြင်	-9.3049
ဘူး	-9.3057
▁ဝါး	-9.30653
တောင်ကြီးခရိုင်၊	-9.30694
▁တည်	-9.30833
▁ပြည်တွင်း	-9.30908
▁ကွန်ပျူတာ	-9.30915
င်	-9.30997
▁အပင်	-9.31128
▁အမျိုးအစား	-9.31135
▁ဝင်	-9.31174
▁ရှိပြီး	-9.31209
▁ကာ	-9.31246
ဖွယ်	-9.31271
▁ဖြစ်လေသည်။	-9.31408
အမှတ်	-9.31446
▁ကျွန်း	-9.3148
▁အခါ	-9.31575
ထွန်း	-9.31607
▁ခုနှစ်မှ	-9.31722
▁လက်ခံ	-9.31818
သင့်	-9.31869
▁အမျိုးမျိုး	-9.31884
ပျက်	-9.31887
မြို့၊	-9.31947
m	-9.32318
များ၌	-9.32334
ပြည်ခရိုင်၊	-9.32394
ဆွဲ	-9.32523
▁တင်	-9.32531
▁မြစ်	-9.32564
ဒို	-9.32573
ရှိသည့်	-9.32605
ပြုလုပ်	-9.32669
နိ	-9.32738
▁သတင်းစာ	-9.32739
စော	-9.32758
▁မြို့တော်	-9.32826
▁ညောင်ရွှေ	-9.33067
▁ဗုဒ္ဓဘာသာ	-9.33112
လစ်	-9.33155
▁ဖြစ်သော	-9.33209
ကူ	-9.33309
ပိုး	-9.33352
or	-9.33364
ဖာ	-9.33438
ကိုယ်	-9.33547
▁ဆရာတော်	-9.33565
▁သတင်း	-9.33827
▁metal	-9.33838
▁အခန်း	-9.33863
တွေကို	-9.33865
အနက်	-9.33887
ခြောက်	-9.33948
▁ကျ	-9.33954
တစ်မျိုး	-9.34091
▁ထင်ရှားသော	-9.34097
▁တတိယ	-9.34147
ခင်း	-9.34214
ဖျား	-9.3425
▁၃၂	-9.34277
▁ပန်ဆန်း	-9.34344
မှူး	-9.34386
ဆိပ်	-9.34398
မြတ်	-9.34815
▁သမိုင်းကြောင်း	-9.34816
▁လွယ်	-9.34865
ကိုသာ	-9.34878
▁ကျောက်မဲခရိုင်	-9.35021
ကော်	-9.35023
▁ခု၊	-9.35064
ပု	-9.3514
သမိုင်း	-9.35177
သီ	-9.35209
ထဲသို့	-9.35311
▁ရာစု	-9.35327
▁နောက်ပိုင်းတွင်	-9.35357
စေခဲ့သည်။	-9.35444
D	-9.35604
▁အောက်ပါအတိုင်း	-9.35654
▁သွားရောက်	-9.35678
မို	-9.3571
p	-9.35854
▁ရခိုင်	-9.35855
it	-9.35998
စုံ	-9.36062
▁ထွက်	-9.36089
k	-9.36095
▁သေ	-9.36161
time	-9.36307
▁အပါအဝင်	-9.36336
▁အိန္ဒိယနိုင်ငံ	-9.36476
▁၂၀၁၅	-9.3654
ခြင်းသည်	-9.36624
ဗာ	-9.36662
▁အရှေ့	-9.36759
ဝယ်	-9.36862
▁တာဝန်	-9.36862
▁မွန်	-9.36921
ခြင်းဖြစ်သည်။	-9.36933
ပ်	-9.37
၅၀	-9.37046
▁လည်းကောင်း	-9.37058
▁ဘာ	-9.37066
ရသည့်	-9.37158
▁နာရီ	-9.37257
▁မှတ်တမ်း	-9.37269
H	-9.37324
ရုပ်	-9.37363
▁အချို့သော	-9.37416
စေတီ	-9.37444
ေ	-9.37665
ရိုက်	-9.37675
လား	-9.3768
ဆိုး	-9.37681
▁ဆီ	-9.37762
▁ဘာသာစကား	-9.37779
၄၅	-9.37804
▁ဝန်ကြီးချုပ်	-9.3783
▁တိုင်းပြည်	-9.37943
M	-9.37984
ဖြစ်စေ၊	-9.37997
စတင်	-9.38423
ဝါဒ	-9.38579
▁တိုင်းရင်းသား	-9.38635
▁မွန်ပြည်နယ်၊	-9.3868
▁တိုးတက်	-9.38714
▁ရက်နေ့	-9.38792
▁ပူးပေါင်း	-9.38871
▁ဖြစ်ပါသည်။	-9.38879
G	-9.38913
ခေါင်းဆောင်	-9.38991
▁၅၀	-9.39016
လည်းကောင်း	-9.39108
လတ်	-9.39227
▁ဘီစီ	-9.39291
လားရှိုးမြို့နယ်	-9.39291
ပါဝင်	-9.39349
ထားခြင်း	-9.3947
▁ထပ်မံ	-9.39543
ရာမှ	-9.39549
▁၎င်းသည်	-9.39658
▁မေ	-9.39691
▁ဘားအံမြို့နယ်	-9.39727
▁သင်္ဘော	-9.39732
တယ်	-9.39936
▁၂၀၁၆	-9.40053
နေစဉ်	-9.40097
▁သီချင်း	-9.40156
▁နှစ်ပေါင်း	-9.40259
ရက်နေ့တွင်	-9.40347
ကြိုး	-9.40403
အပ်	-9.40543
မြင်	-9.40574
▁အနုပညာ	-9.40574
F	-9.40606
မတ်	-9.40627
▁အင်တာနက်	-9.40653
ကိုင်	-9.40724
▁ရှေးဟောင်း	-9.40739
မရှိ	-9.40749
▁ယခင်	-9.40779
▁စော	-9.40995
ခြင်းကြောင့်	-9.41148
U	-9.41161
▁ကံ	-9.41243
▁သာ	-9.41246
th	-9.41333
တို့၌	-9.41382
▁ဆန်	-9.41418
ဖတ်	-9.41442
ရေးအတွက်	-9.41471
ရုပ်ရှင်	-9.41509
ရ်	-9.41586
လော	-9.41689
▁ငှက်	-9.41717
တုံး	-9.41751
ပြည့်	-9.4178
မှန်	-9.41827
▁ခေါင်း	-9.4191
=	-9.42032
▁ဆက်	-9.42046
ကြီးကို	-9.4209
၃၃	-9.42109
တစ်ခုကို	-9.42126
▁ဗုဒ္ဓ	-9.42153
▁ကိုယ်စားလှယ်	-9.42212
ပန်ခမ်း	-9.42224
▁ပုံစံ	-9.42348
▁အက်	-9.42402
▁ထိုကြောင့်	-9.42453
▁အိမ်ခြေပေါင်း	-9.4247
သမား	-9.42492
▁အုပ်ချုပ်	-9.42508
▁သူတို့၏	-9.42754
တယ်။	-9.42803
▁ကွန်	-9.42866
▁တည်ဆောက်	-9.43058
▁ပစ္စည်း	-9.4307
format	-9.43093
နမ့်	-9.4342
၃၆	-9.43474
▁၃၃	-9.43568
▁သို့သော်လည်း	-9.43613
▁၄၀	-9.43703
ပေသည်။	-9.43748
▁မင်းသား	-9.43824
အလယ်	-9.43826
▁မြင်	-9.43832
သွားသည်။	-9.44113
ယား	-9.4416
▁တောင်ကြီး	-9.44275
▁ထောင်	-9.44329
▁သရုပ်ဆောင်	-9.44377
မြ	-9.44434
▁အလယ်	-9.44435
▁လိုက်	-9.44493
▁အနည်းငယ်	-9.4478
အမျိုးသား	-9.44802
▁မီတာ	-9.44836
ပေးခဲ့သည်။	-9.44859
▁ကြာ	-9.44883
▁သားတော်	-9.44901
▁ပြောဆို	-9.44916
စခန်း	-9.45053
text	-9.45057
▁၁။	-9.45085
၉၉	-9.45428
ပွင့်	-9.4545
▁ထိုနောက်	-9.45485
▁ခေတ်	-9.45506
▁၂၀၁၁	-9.45513
▁တာဝန်ထမ်းဆောင်	-9.45514
▁အောက်ပါ	-9.45566
စိုး	-9.45612
ီ	-9.45763
တွေ့	-9.45814
▁အာရှ	-9.46006
ခုံ	-9.46019
ရှိ၍	-9.4606
▁ရဟန်း	-9.4613
▁ချောင်း	-9.46273
▁အကြီးဆုံး	-9.46309
ဟို	-9.46383
ဆဲ	-9.4645
၈၅	-9.46505
▁လွတ်လပ်ရေး	-9.4669
▁ပြောင်း	-9.46756
▁၂၀၀၈	-9.46771
သဘော	-9.4683
▁ရွှေဘိုခရိုင်၊	-9.46981
▁အင်အား	-9.47167
▁ကိုယ်တိုင်	-9.4719
စာအုပ်	-9.47233
ကြည်	-9.47305
▁ပါး	-9.4734
▁ရွှေတောင်	-9.47377
များကြောင့်	-9.47399
ဖွဲ့	-9.47411
▁အခြေအနေ	-9.47423
ချေ။	-9.47534
wiki	-9.47632
▁တစ်ဦး	-9.47692
ကြီးများ	-9.47711
မြို့သည်	-9.4777
အလိုက်	-9.47917
ချောင်	-9.48113
▁ပြောင်းရွှေ့	-9.48123
▁ရှိကာ၊	-9.48186
၉၅	-9.48235
ခြေ	-9.48239
၉၈	-9.48411
သို့မဟုတ်	-9.48481
ကောင်စီ	-9.48489
▁လူထု	-9.48593
▁ဗ	-9.48616
၃၂	-9.48617
▁ကဗျာ	-9.487
▁တက်ရောက်	-9.48719
၃၄	-9.48758
မျိုးကို	-9.48831
၃၉	-9.48929
၎င်း	-9.48966
model	-9.48971
တိုက်ခိုက်	-9.49124
▁ဗမာပြည်	-9.49138
၇၅	-9.4917
▁အကောင်းဆုံး	-9.49177
တောင်ရွာ၊	-9.49199
ကိုင်း	-9.49215
လာကြသည်။	-9.49237
l	-9.49279
▁G	-9.49288
ကန်ရွာ	-9.49294
▁သင်ကြား	-9.49295
ကြရသည်။	-9.4933
▁ကား	-9.49332
▁အီ	-9.49391
ခတ်	-9.49397
၅၉	-9.49425
ချစ်	-9.49455
▁တည်ထောင်	-9.49677
ပြောင်း	-9.49739
ဘို	-9.49793
သီချင်း	-9.49894
ပေးရန်	-9.4993
▁တိုင်း	-9.4994
ဝိ	-9.50038
၈၆	-9.50128
▁တွေ့	-9.50139
▁ဟာ	-9.50181
▁ကျေးသီးမြို့နယ်	-9.50219
▁ဝတ္ထု	-9.50221
၈၈	-9.50262
ထဲ	-9.5034
▁အလုပ်သမား	-9.50599
ရလေသည်။	-9.50698
ချိန်တွင်	-9.50735
▁များသောအားဖြင့်	-9.50766
ဝတ်	-9.50781
ဆယ်	-9.50796
ကြပြီး	-9.50797
▁ဥပမာ	-9.50827
၉၆	-9.51076
အမျိုးမျိုး	-9.51184
u	-9.51227
▁ယခင်က	-9.51276
▁T	-9.51378
တဲ	-9.51394
▁ဘားအံခရိုင်	-9.51401
မဟာ	-9.51406
ရွာသစ်ရွာ၊	-9.51425
▁ပခုက္ကူခရိုင်၊	-9.51436
နေထိုင်	-9.51639
▁ကော့	-9.51643
ly	-9.51691
▁ထင်ရှား	-9.51751
▁အရောင်	-9.51756
▁မိသားစု	-9.51813
▁လက်နက်	-9.51824
မင်းသား	-9.51849
▁ကီလိုမီတာ	-9.51883
မကွေးခရိုင်၊	-9.51895
လိ	-9.51917
▁မိမိ၏	-9.51919
stamp	-9.5196
▁၂၀၁၂	-9.51985
▁နည်းပညာ	-9.51998
contributor	-9.52116
အမျိုးအစား	-9.52133
၃၁	-9.52207
▁ဟ	-9.52369
▁၂။	-9.52383
အသုံးပြု	-9.52498
ရှင်း	-9.52511
သွေး	-9.52534
ကျင်း	-9.52563
၄၂	-9.52689
၄၆	-9.52713
▁ကုမ္ပဏီ	-9.52729
▁ထိန်းသိမ်း	-9.52771
▁၎င်းတို့၏	-9.52952
၈၉	-9.53014
၆၉	-9.5302
▁လျှပ်စစ်	-9.53035
▁နှစ်စဉ်	-9.53064
စသော	-9.53068
ချို	-9.53107
ခိုင်	-9.53173
▁ကာလ	-9.5319
၆၈	-9.53208
▁အနက်	-9.53254
▁ရွေးကောက်ပွဲ	-9.53263
▁rock	-9.5329
▁ဖြစ်လာ	-9.53376
▁လုံး	-9.5339
▁အစိတ်အပိုင်း	-9.53414
ဥပဒေ	-9.53428
▁မူဆယ်ခရိုင်	-9.53494
▁လုပ်ဆောင်	-9.53498
ဘုံ	-9.53565
လာသော	-9.53641
O	-9.53692
▁I	-9.53698
▁လွှတ်တော်	-9.53716
▁ကြိုးစား	-9.53759
နီး	-9.53843
အတွင်းရှိ	-9.53857
▁ငါ	-9.53862
ထဲမှ	-9.53955
ar	-9.53979
၇၃	-9.53984
ဿ	-9.54015
▁လူမျိုး	-9.54102
▁ထိုင်း	-9.54112
ရံ	-9.54219
▁၂၀၁၇	-9.54254
▁သမီး	-9.54318
ကျေးရွာ	-9.54349
အုပ်စု	-9.54372
၀၀	-9.5443
▁ရှိသော	-9.54604
▁လွိုင်ကော်	-9.54658
ကွက်	-9.54792
▁တို့သည်	-9.54793
လွန်း	-9.54858
ဈေး	-9.54872
၅၄	-9.54922
▁L	-9.54961
၄၉	-9.55087
၇၄	-9.55148
ဇာတ်	-9.55153
▁အဖွဲ့အစည်း	-9.55185
ကီ	-9.55203
၃၅	-9.55235
▁လက်မ	-9.55244
၃၇	-9.55247
ကိုး	-9.55281
▁ရာသီဥတု	-9.55325
▁၃၄	-9.55521
▁စိန်	-9.55525
▁ရှာဖွေ	-9.55535
▁၃၈	-9.55593
▁စလင်းမြို့နယ်	-9.55713
၈၀	-9.55743
▁အသင်း	-9.55823
ရှိ၏။	-9.55925
▁လှိုင်းဘွဲ့	-9.55976
ဂူ	-9.56046
နွယ်	-9.56074
▁ဒေါ်လာ	-9.56103
၅၇	-9.56132
⁠	-9.5614
မက်	-9.5615
ခဲ့သူ	-9.56257
▁သုံးစွဲ	-9.56351
parent	-9.56394
▁ဓာတ်	-9.56457
▁နိုင်ငံခြား	-9.56555
▁တီထွင်	-9.56614
▁ပြည့်နှစ်တွင်	-9.56714
▁မြန်မာပြည်	-9.56718
၉၀	-9.56773
ဆောင်ရွက်ခဲ့သည်။	-9.56776
▁မိုင်း	-9.56809
သေး	-9.56852
ပေ။	-9.5693
၃၈	-9.56935
ထီး	-9.56951
▁ယင်းသို့	-9.56956
▁အာဏာ	-9.5696
▁လာရောက်	-9.56971
၅၅	-9.56974
▁ဓမ္မ	-9.56979
username	-9.56983
▁စီ	-9.57092
ခဲ့သည်ဟု	-9.57223
ဝက်	-9.57244
ခ်	-9.57268
ထပ်	-9.57286
သွင်း	-9.57325
▁ဖြစ်ပွား	-9.57381
▁ထိုင်းနိုင်ငံ	-9.57414
▁for	-9.57563
▁ချင်း	-9.576
ကယ်	-9.57665
▁မင်းလှမြို့နယ်	-9.57688
သိန်း	-9.57751
f	-9.57802
ဆိုင်း	-9.57879
▁ကင်း	-9.57899
ခဲ့သည်	-9.57903
ရှား	-9.57926
၇၉	-9.57927
လိပ်	-9.58068
▁ည	-9.58121
on	-9.58232
▁ခြေ	-9.58285
တူး	-9.58286
စွဲ	-9.58432
၆၃	-9.58501
▁ထ	-9.58614
မည်ဟု	-9.58643
et	-9.58649
ကြသော	-9.58669
၉၂	-9.58679
လိုင်း	-9.58704
ma	-9.58819
၆၄	-9.58871
▁၁၉၉၀	-9.58919
▁ကြက်	-9.58939
▁ကာကွယ်	-9.59105
၇၀	-9.59147
၆၇	-9.59152
၆၂	-9.59169
▁ဖေဖော်ဝါရီလ	-9.59191
ဖြစ်ပါသည်။	-9.59209
ရယ်	-9.59278
▁ဆက်သွယ်	-9.59299
▁သီးခြား	-9.59404
▁ကြောင့်	-9.59445
၀၇	-9.59451
မား	-9.59515
စေ့	-9.59552
▁မြတ်စွာဘုရား၏	-9.59764
၄၈	-9.59795
▁မိုင်းကိုင်	-9.59796
▁သရက်ခရိုင်	-9.59868
ကမ္ဘာ	-9.59906
၀၈	-9.59982
▁R	-9.59996
▁ကမ္ဘာပေါ်တွင်	-9.60028
▁အိုင်	-9.60095
▁တွေ့ရှိ	-9.601
ပေါင်းများစွာ	-9.60106
▁ဒီမိုကရေစီ	-9.60173
▁၂၀၀၇	-9.60208
၉၃	-9.60308
▁အရွက်	-9.60388
တစ်ခုဖြစ်သည်။	-9.60408
▁မတ်	-9.6046
▁အများအပြား	-9.60517
ကပင်	-9.60554
▁ရေးဆွဲ	-9.60554
▁ခုနှစ်အထိ	-9.60557
▁ဒုတိယကမ္ဘာစစ်	-9.60615
လု	-9.60688
▁မိုင်းယန်း	-9.60688
▁အထွေထွေ	-9.60738
၀၄	-9.60807
▁၂၀၀၉	-9.60864
▁၂ဝ	-9.60873
N	-9.60889
▁ပြင်ဦးလွင်	-9.60902
▁ကောင်းစွာ	-9.60913
▁ဒ	-9.60964
▁တိုက်ရိုက်	-9.6102
ပြီ	-9.61043
▁အတူ	-9.61175
]	-9.61285
မှတ်	-9.61402
စွန်း	-9.61404
▁ညောင်	-9.61488
▁ဂျာမန်	-9.61494
▁၂၀၁၃	-9.61512
၇၇	-9.61515
▁အိုး	-9.61519
မန်း	-9.61576
ပေးသည်။	-9.61636
သာလျှင်	-9.61653
ရမည်	-9.61699
ဖို	-9.61772
▁ပြုပြင်	-9.61805
၇၈	-9.61837
▁မိတ္ထီလာခရိုင်၊	-9.61851
ဖြတ်	-9.61909
၀၉	-9.61994
ကော့	-9.62004
▁ဂေါတမမြတ်စွာ	-9.62088
▁ပြ	-9.6217
နှစ်ခု	-9.6218
ဤ	-9.62249
▁နေ့	-9.62277
▁၃။	-9.6229
▁ငွေကြေး	-9.62401
လုပ်ကိုင်	-9.62469
ကလေးများ	-9.62486
ကိန်း	-9.62487
၅၂	-9.62616
ပေါင်	-9.6271
၄၄	-9.62769
တပ်မတော်	-9.6279
ထူး	-9.62959
▁ရှာဖွေတွေ့ရှိ	-9.62984
၆၆	-9.63016
၈၃	-9.6303
ကျန်	-9.63098
▁မိဖုရား	-9.63124
▁အသား	-9.63163
▁ဆောက်လုပ်	-9.63206
အပါအဝင်	-9.63218
ခဲ့ကာ	-9.6325
ဖြစ်ကာ	-9.63294
▁ခရိုင်	-9.63326
မြန်မာနိုင်ငံ	-9.63352
မှုများကို	-9.63484
▁အပြင်	-9.63517
ရှ	-9.63526
ကျောက်ပန်းတောင်း	-9.63528
အချိန်	-9.63559
▁ရဲ	-9.63645
စိုက်	-9.63651
လေ့လာ	-9.63684
လုပ်ငန်းများ	-9.6383
ဂီတ	-9.63886
၈၄	-9.63913
▁ရှေ့	-9.63996
ပြန်သည်။	-9.64018
▁ယုံကြည်	-9.64303
▁ဖြစ်ပေါ်	-9.64395
▁တူ	-9.64443
▁အောက်တိုဘာ	-9.64498
▁N	-9.6454
ပို့	-9.64559
ကွန်	-9.64568
ထု	-9.64603
▁အင်ဂျန်းယန်	-9.64617
၈၂	-9.64672
ရု	-9.6469
▁ဖန်တီး	-9.64776
▁ပုဂံ	-9.64859
▁မိခင်	-9.6488
▁ဝန်ကြီးဌာန	-9.64917
w	-9.6493
▁ချစ်	-9.6496
▁အေ	-9.65012
နံ	-9.65041
▁ဖ	-9.65053
ဂို	-9.65317
လွတ်	-9.65322
▁ခုတွင်	-9.65326
▁စနစ်	-9.65386
▁မြောက်ပိုင်း	-9.65403
၅၆	-9.65415
▁ဆား	-9.65447
အားလုံး	-9.65543
မော	-9.65565
ဗီ	-9.65646
▁စာရေးဆရာ	-9.65817
▁ကျောက်တံခါး	-9.65824
▁တောင်တွင်းကြီး	-9.65825
▁၃၇	-9.65857
ယဉ်ကျေးမှု	-9.65865
▁ဒါရိုက်တာ	-9.65871
▁ပုဒ်မ	-9.65929
▁ကျင်းပ	-9.66
အဖွဲ့အစည်း	-9.66258
▁၎င်းတို့	-9.66261
▁ထိုစဉ်က	-9.6629
နယ်မြေ	-9.66292
၅၈	-9.66349
တစ်ရပ်	-9.66363
▁ဟုမ္မလင်း	-9.66365
▁ဒီဇင်ဘာ	-9.6637
အေ	-9.66372
ကြီးရွာ	-9.66444
ဇ်	-9.66447
ဒင်	-9.66488
▁ဆွမ်ပရာဘွမ်	-9.66551
အတွင်း၌	-9.66573
ခေါင်	-9.66577
ယင်း	-9.66623
▁၃၆	-9.66625
၇၆	-9.66635
▁ဆိုဗီယက်	-9.66692
▁မရှိ	-9.66765
▁လေယာဉ်	-9.66765
▁မော်	-9.66805
▁အနက်အဓိပ္ပာယ်	-9.66832
လပ်	-9.66854
Z	-9.66909
အိ	-9.66933
▁ကြား	-9.66937
၅၃	-9.6696
▁သက်ဆိုင်ရာ	-9.66967
၉၇	-9.66993
ဝေး	-9.66998
▁ခြောက်	-9.67046
နှင့်တကွ	-9.67096
le	-9.67147
▁သဲ	-9.67196
▁မူ	-9.67244
ဂိုဏ်း	-9.67257
တား	-9.67325
▁ယောင်	-9.67345
ထင်	-9.67444
ခဲ့ကြ	-9.67791
၈၇	-9.67795
ခဲ့၍	-9.67841
ဖန်	-9.6785
၆၀	-9.67906
▁၂၀၀၀	-9.6793
▁မင်းဘူးခရိုင်	-9.67961
▁In	-9.6806
ညီ	-9.68093
▁လုံးဝ	-9.68236
လွှတ်တော်	-9.68263
▁အမြင့်	-9.6838
▁စသည်တို့	-9.68407
▁၂၀၁၈	-9.68407
ရှမ်း	-9.68418
▁ရောက်ရှိ	-9.68453
▁ရဟန်းတို့	-9.68508
▁ကိုး	-9.68536
▁သံတောင်ကြီး	-9.68545
၀၆	-9.68592
▁ဝန်ကြီး	-9.68594
ra	-9.6866
▁ပျော်ဘွယ်	-9.68677
▁သဘော	-9.68751
မြို့တော်	-9.68759
ပြေး	-9.68824
ကျောက်မဲမြို့နယ်	-9.68889
သဲ	-9.69004
▁ယူဆ	-9.69078
မိုင်း	-9.69082
ပညာရှင်	-9.69177
es	-9.69205
▁အမှုထမ်း	-9.69237
တေး	-9.69238
မင်းကြီး	-9.69396
တွင်မူ	-9.69406
ယောင်	-9.6941
တင်း	-9.69425
▁ပို	-9.69464
▁ရှိကြသည်။	-9.69492
၄၇	-9.69715
▁ထုတ်လုပ်	-9.69777
▁အမိ	-9.6987
မှုနှင့်	-9.6993
ဖော်ပြ	-9.70034
လူး	-9.70066
စည်း	-9.70105
▁နွား	-9.7011
ညွန့်	-9.7019
▁သုတေသန	-9.7024
).	-9.7025
▁ဆုံးဖြတ်	-9.70371
▁တာဝန်ယူ	-9.70395
လော့	-9.70415
ပိတ်	-9.70418
▁အသီး	-9.70472
အချို့	-9.70481
၄၃	-9.70528
▁မှန်	-9.70587
▁ကျုံ	-9.70684
▁စသည်ဖြင့်	-9.70694
en	-9.70701
ချေ	-9.70729
ကေ	-9.70865
▁နာ	-9.7096
ကော	-9.71072
ဆီး	-9.71207
မှု၊	-9.71233
ဝမ်း	-9.7126
အရှင်	-9.71308
၄၁	-9.7131
နတ်တလင်းမြို့နယ်	-9.71314
▁တဖြည်းဖြည်း	-9.71326
မောင်း	-9.71396
ဓမ္မ	-9.71398
▁Ka	-9.71624
ပုံကို	-9.71657
▁ကော်	-9.71667
▁ဆိုင်ရာ	-9.71837
ဘေး	-9.71845
▁နည်း	-9.71856
၅၁	-9.71913
▁လွိုင်လင်	-9.71956
▁၁၉၈၀	-9.72121
▁တောင်ပိုင်း	-9.72199
▁တာချီလိတ်	-9.72241
မဟုတ်	-9.72289
စာရင်း	-9.72306
ခုနှစ်၊	-9.72342
ရမည့်	-9.72354
လျှက်	-9.72455
▁၂၀၀၆	-9.72485
▁အုပ်စု	-9.72499
အရာ	-9.72508
an	-9.72525
ဖွဲ့စည်း	-9.7254
၀၅	-9.7258
နစ်	-9.72585
နိုင်ငံ၏	-9.72781
▁၄၅	-9.72787
▁တို့၏	-9.72811
▁နမ့်စန်မြို့နယ်	-9.72821
▁အမည်ဖြင့်	-9.7283
အစ	-9.72937
ကြီး၏	-9.73079
▁မြတ်စွာဘုရားသည်	-9.7308
▁ဖြူးမြို့နယ်	-9.73081
▁ပတ်ဝန်းကျင်	-9.73096
ang	-9.73191
▁နယ်	-9.73228
▁မွေးဖွား	-9.7334
▁အရှေ့တောင်အာရှ	-9.73407
တစ်ယောက်	-9.73496
တစ်ပါး	-9.73533
▁စက်တင်ဘာ	-9.73573
▁တောင်ဘက်	-9.73599
ခမ်း	-9.73608
▁မျက်နှာ	-9.73637
ဖြစ်ကြောင်း	-9.73699
ခါး	-9.73755
ဖိုး	-9.73806
ြန်မာဆိုရိုးစကား	-9.73879
▁ဟိုပုံးမြို့နယ်	-9.73883
▁ပြုစု	-9.73927
ဆူ	-9.73932
ဃ	-9.73977
ခြင်းများ	-9.73979
▁အစီအစဉ်	-9.7406
၉၄	-9.74108
▁မြောက်ဘက်	-9.7413
ဏ	-9.74131
အန်	-9.74141
င့်	-9.74227
မြို့၌	-9.74296
ဒိုး	-9.7433
၆၁	-9.74349
▁ဆီဆိုင်မြို့နယ်	-9.74379
]]	-9.74388
စိမ်း	-9.74453
ဇင်	-9.74454
▁အသီးသီး	-9.74465
▁ချက်	-9.74509
ကျား	-9.7463
▁ပေါ်	-9.7464
▁သစ်ပင်	-9.74664
များအနက်	-9.74665
ဖော်	-9.74802
၇၂	-9.74803
စိုက်ပျိုး	-9.74839
W	-9.74889
ယန်	-9.74936
အသစ်	-9.74938
▁ဖြစ်ခဲ့သည်။	-9.74974
ဝတ္ထု	-9.75113
သလို	-9.75114
▁တင်ပြ	-9.75149
▁ကြိုး	-9.75176
▁တရုတ်နိုင်ငံ	-9.75279
ရေတာရှည်မြို့နယ်	-9.75293
▁U	-9.753
▁ဘာသာရေး	-9.75308
ကိစ္စ	-9.75309
▁သတ္တု	-9.75354
ဂျာ	-9.75466
▁ကျွဲ	-9.75497
▁သိမ်းပိုက်	-9.75507
ရှေ့	-9.75544
▁ရုရှား	-9.75555
ကျိုး	-9.75594
▁ကွယ်လွန်	-9.75628
လူမျိုးများ	-9.757
ယို	-9.75756
▁ဖြစ်စေ	-9.75813
လေ၏။	-9.75847
▁ဝိ	-9.7585
ကု	-9.75925
▁နောင်ချို	-9.75932
ဖြစ်သည်	-9.75946
ကန်ကျေးရွာအုပ်စု	-9.75957
▁နယ်မြေ	-9.7598
ဉာဏ်	-9.76043
ဖွံ့ဖြိုးတိုးတက်	-9.76066
▁ကုလသမဂ္ဂ	-9.76092
us	-9.7614
▁ဆယ်	-9.76157
▁လှေ	-9.76205
ဖြစ်သည်ဟု	-9.7621
▁ပဲ	-9.7622
▁ထုတ်ဝေ	-9.76253
▁သင်	-9.7628
▁မြိုင်မြို့နယ်	-9.76368
အက်	-9.76399
ကျပ်	-9.76407
▁ထိ	-9.76426
▁ဖြစ်လာသည်။	-9.76489
ပင်ဖြစ်သည်။	-9.76493
▁၁၉၄၇	-9.76552
▁Kone	-9.76625
The	-9.76692
တိုင်းဒေသကြီး	-9.76747
လောက	-9.76802
ခွက်	-9.7681
များသို့	-9.76838
b	-9.76845
ကဲ့သို့သော	-9.76874
နာရီ	-9.76931
▁ဘာသာ	-9.76961
▁၁၉၄၅	-9.77
▁တိရစ္ဆာန်	-9.77009
▁ဘယ်	-9.7701
▁စ၍	-9.77035
▁စိုက်ပျိုးရေး	-9.77064
▁ဌာန	-9.77124
▁ဖွင့်လှစ်	-9.77156
ကုမ္ပဏီ	-9.77225
ဝဝဝ	-9.7727
▁၁၀၀	-9.77285
၆၅	-9.77318
▁ရာစုနှစ်	-9.77355
▁မကြာခဏ	-9.77433
▁ရေးသားခဲ့သည်။	-9.77473
မင်	-9.77543
▁ရဟန္တာ	-9.77682
လမ	-9.77741
▁ဂျွန်	-9.77756
▁ထိုး	-9.77825
လွင်	-9.77834
ထောက်	-9.77843
▁ဇန်နဝါရီ	-9.78018
▁မက်	-9.78023
▁ပြင်ဆင်	-9.78065
na	-9.78102
တော်မူသည်။	-9.78125
အလုပ်	-9.78149
နန်	-9.78164
▁မိုင်းယောင်း	-9.78174
comment	-9.78174
စေတီတော်	-9.78182
နိုင်ပါသည်။	-9.78255
▁ပွဲ	-9.78276
▁ပုဂ္ဂိုလ်	-9.78283
▁၄။	-9.783
▁သဲကုန်းမြို့နယ်	-9.78319
R	-9.78333
၉၁	-9.78337
ပြောဆို	-9.78382
သိမ်း	-9.78393
▁မြ	-9.78404
▁ကုန်	-9.7843
▁ဖွဲ့စည်းပုံ	-9.78439
▁မဂ္ဂဇင်း	-9.78444
▁မူဆယ်မြို့နယ်	-9.78486
အီ	-9.78526
ဖြစ်လာသည်။	-9.78545
တောင်ပိုင်း	-9.78548
အလွန်	-9.78561
▁ကျပ်	-9.78573
▁သို့တည်းမဟုတ်	-9.78591
လောင်	-9.78627
စမ်း	-9.78686
▁မိန်းမ	-9.78715
စီးပွားရေး	-9.78722
▁မြတ်စွာဘုရား	-9.7879
▁နိုဝင်ဘာ	-9.78832
ပစ္စည်းများ	-9.78841
နှုန်း	-9.78872
▁စီမံကိန်း	-9.78973
▁ဖြစ်၍	-9.79026
▁ကျောက်ဆည်	-9.79039
အားကစားပြိုင်ပွဲ	-9.79219
▁အာဖရိက	-9.79245
▁သာမန်	-9.79307
▁ကျောက်ကြီး	-9.79316
ရက်နေ့	-9.79341
▁ပဲခူး	-9.79348
▁အသိအမှတ်ပြု	-9.79391
▁မယ်	-9.79432
လန်း	-9.79515
▁ဟံသာဝတီ	-9.79589
ကျောင်းတော်	-9.79595
▁ရဲဘော်	-9.79609
▁ဖမ်းဆီး	-9.79625
▁ပလက်ဝမြို့နယ်	-9.79737
▁ဇူလိုင်	-9.79738
▁လက်ပံတန်း	-9.79767
ု	-9.79785
▁ထီး	-9.798
I	-9.79815
ခွန်	-9.79884
▁အကယ်၍	-9.79919
ရေးရာ	-9.79924
၇၁	-9.79951
▁နာမည်	-9.79959
▁အင်ဒိုနီးရှား	-9.80003
▁ပန်းချီ	-9.80044
▁အရွယ်	-9.80122
▁ပတ်သက်၍	-9.80147
မြဲ	-9.80192
တတ်သော	-9.80302
သုံးစွဲ	-9.8045
ိ	-9.80461
လှိုင်	-9.80475
▁လောက	-9.80535
+	-9.80589
ထောင့်	-9.80604
▁မိ	-9.80621
▁၄၄	-9.80629
▁ဖြစ်လာခဲ့သည်။	-9.80693
▁စာရင်း	-9.80696
st	-9.80718
▁မိုးမောက်	-9.80723
ထံမှ	-9.80908
▁Ta	-9.80908
အုပ်ချုပ်	-9.80923
▁ကုန်းကြမ်း	-9.80934
တောက်	-9.81016
▁ဆူ	-9.81038
el	-9.81079
▁ဦးဆောင်	-9.81169
▁မန္တလေးမြို့	-9.81273
မွေး	-9.81325
တု	-9.81334
▁ပါလီမန်	-9.81394
▁ဝမ်း	-9.81451
▁မံစီမြို့နယ်	-9.81471
စောင့်	-9.81492
သမ္မတနိုင်ငံ	-9.81536
တော်လှန်ရေး	-9.81575
ော	-9.8163
ခဲ့ပြီးနောက်	-9.81654
▁စပါး	-9.81768
ဝန်ကြီး	-9.81859
ကင်	-9.81917
လည်းဖြစ်သည်။	-9.81967
ခဲ့ပါတယ်။	-9.82014
▁ဖေဖေါ်ဝါရီလ	-9.82107
▁၄၂	-9.82123
▁လုံ	-9.82145
▁ရမည်းသင်း	-9.82326
ပြာ	-9.82361
▁တစ်ယောက်	-9.82369
အတွင်းသို့	-9.82384
▁ဂရိ	-9.82428
ပေါ	-9.82447
ပုဂ္ဂိုလ်	-9.82483
▁မှတ်	-9.82515
▁၎င်းကို	-9.82519
▁တန်	-9.82565
▁ရိုးရာ	-9.82627
္	-9.8267
▁မျက်စိ	-9.82752
▁လောက်ကိုင်	-9.82772
▁အေဒီ	-9.8282
▁ကန့်ဘလူမြို့နယ်	-9.82884
▁အနောက်ဘက်	-9.82911
ဘက်မှ	-9.82939
▁ကြိုးပမ်း	-9.83063
▁၂၀၀၅	-9.83081
▁အားလုံး	-9.83099
▁ပေါ်ပေါက်လာ	-9.83178
▁ကြာအင်းဆိပ်ကြီး	-9.83205
ဖွင့်	-9.83238
▁ဥယျာဉ်	-9.83243
▁[[	-9.83298
▁စစ်ရေး	-9.83314
▁ဒါ	-9.83333
▁ငြိမ်းချမ်းရေး	-9.83352
▁စေတီ	-9.83437
ပင်လယ်	-9.83445
▁အရည်	-9.83535
ကတော့	-9.8358
ကျင်းပ	-9.83581
▁အုတ်	-9.83582
▁ဇာတ်	-9.8359
ထိပ်	-9.83687
နဲ	-9.83698
▁ဖာပွန်မြို့နယ်	-9.83729
▁ထုတ်	-9.83759
▁mg	-9.83795
▁အင်းဝ	-9.83811
▁တွဲ	-9.8386
ကစား	-9.83869
▁ပတ်	-9.84016
▁လှုပ်ရှား	-9.84136
▁ဆရာကြီး	-9.84149
ရှု	-9.84158
ပြန်လည်	-9.84188
▁ဧပြီ	-9.84253
သ်	-9.84257
▁ပိုး	-9.84304
ယော	-9.84314
တရုတ်	-9.84366
ရ၏။	-9.8443
ဝန်း	-9.84491
▁ရာထူး	-9.84506
ပယ်	-9.84628
ပိုင်းတွင်	-9.84651
▁ပူတာအိုခရိုင်	-9.84662
▁ကွန်မြူနစ်	-9.8482
▁စတုရန်းမိုင်	-9.84831
အပ်သော	-9.84837
▁ဈေး	-9.84862
▁ပြည့်	-9.84967
တခု	-9.84979
▁ရတနာ	-9.85009
v	-9.85056
▁is	-9.85076
▁မဟုတ်	-9.85095
▁ကျမ်း	-9.85188
▁သာသနာတော်တွင်	-9.85234
▁ပေါင်းစပ်	-9.85348
များအဖြစ်	-9.85492
▁ဆု	-9.85507
▁အဲ	-9.85543
လက်ထက်	-9.85832
▁ကြောင်း	-9.85845
တေ	-9.8585
ဘတ်	-9.85851
▁O	-9.85917
ကတည်းက	-9.85979
ဘိ	-9.86097
သု	-9.86145
ဗေဒ	-9.86161
▁ကြိမ်	-9.86301
ကျင်	-9.86313
▁စက်မှု	-9.86347
▁ဖိလစ်ပိုင်	-9.86397
▁ဖာ	-9.86409
သမျှ	-9.86447
ဝန်ကြီးဌာန	-9.86472
▁အဓိပ္ပါယ်	-9.86514
▁ကုလား	-9.86601
မြောက်ပိုင်း	-9.86711
ဆစ်	-9.86717
အဲ	-9.86785
▁အေး	-9.86796
တုံ	-9.868
ia	-9.86942
▁ခရစ်ယာန်	-9.86956
အခြေခံ	-9.86974
▁တီးဝိုင်း	-9.86979
ဖ်	-9.87009
မျှသာ	-9.87025
▁၁၉၄၈	-9.8708
▁နောက်ပိုင်း	-9.87101
အကြား	-9.87159
ရူး	-9.87201
▁အော်	-9.8721
ပြင်ရွာ	-9.87222
ကုလား	-9.87444
▁ဖခင်	-9.87459
▁စံ	-9.87477
ဒီး	-9.87505
▁ဗန်းမော်ခရိုင်	-9.87531
▁လှုပ်ရှားမှု	-9.87697
▁၂၀၀၄	-9.87708
၍၊	-9.87764
▁Gyi	-9.87765
မြင်း	-9.8779
▁၁၉၆၀	-9.8783
▁ဂူ	-9.87836
အခန်း	-9.87867
▁ကော့ကရိတ်	-9.87956
▁မိုင်းခတ်	-9.88054
▁ဖေဖော်ဝါရီ	-9.88093
▁ပျက်စီး	-9.88155
နင်း	-9.88295
▁ဧက	-9.88328
၀၃	-9.88334
ဗိုလ်	-9.88374
▁ဖန်	-9.88385
ဝဲ	-9.88396
▁ပူ	-9.884
ချက်များ	-9.8843
▁ပင်	-9.88504
un	-9.8858
လာပြီး	-9.88581
at	-9.88619
ကွင်းရွာ	-9.88657
ညောင်	-9.8869
▁အဆောက်အအုံ	-9.887
ထား၍	-9.88723
ရှိရာ	-9.8875
▁–	-9.88754
ဟုလည်း	-9.8876
▁ဘေး	-9.88775
▁မင်္ဂလာ	-9.88822
z	-9.88833
▁၁၉၈၈	-9.88882
▁၄၃	-9.88979
▁အသုံးချ	-9.8906
ရခြင်း	-9.89111
တိုင်းရင်းသား	-9.89322
▁၂၀၁၉	-9.89358
▁အရှေ့ဘက်	-9.89384
▁စသည်တို့ကို	-9.89385
ဖြစ်လေသည်။	-9.89476
▁ရပ်	-9.89489
ce	-9.89514
ရတနာ	-9.89551
▁Tha	-9.89776
စောင်း	-9.89798
ta	-9.89851
▁ကူညီ	-9.89852
မြို့သို့	-9.89928
စတုရန်းကီလိုမီတာ	-9.89956
၈၁	-9.89987
ထိန်း	-9.9001
ရိုင်း	-9.90178
▁မက်မန်းခရိုင်	-9.90238
▁ရှိနေ	-9.90291
▁ကြည့်	-9.90321
▁ခဲ	-9.90365
ic	-9.9037
ငြိမ်း	-9.90402
ထွေး	-9.90437
▁မျှ	-9.90596
▁ကစား	-9.90663
▁၁၉၆၂	-9.90689
▁သားသမီး	-9.90729
အခြေအနေ	-9.90772
▁ဒီဂရီ	-9.9078
▁စီး	-9.90861
▁punk	-9.90892
ဘဏ်	-9.9095
▁မင်းသမီး	-9.90972
ထုံး	-9.91108
▁ခံယူ	-9.91113
▁မင်းတုန်း	-9.91233
▁သိရှိ	-9.91285
▁၂၀၂၀	-9.91293
ခဲ့ခြင်းဖြစ်သည်။	-9.91311
ဖြစ်ပွား	-9.91352
သူ၏	-9.91363
▁ခွေး	-9.91437
န်း	-9.91493
▁ဟိုပန်မြို့နယ်	-9.91528
ဆည်	-9.9154
တည်း။	-9.91577
▁တာချီလိတ်ခရိုင်	-9.91623
▁အသုံးပြုကြသည်။	-9.9166
▁ထား	-9.91718
▁ပုံမှန်	-9.91767
လွှာ	-9.91818
လာသောအခါ	-9.91859
ရီး	-9.91918
၀၁	-9.9195
ခဲ့သဖြင့်	-9.91983
▁အတွင်းရေးမှူး	-9.92115
ကိုယ်တိုင်	-9.9213
ဆုံ	-9.92148
▁ခရစ်	-9.92166
ကြီးသည်	-9.92195
▁Pa	-9.92244
NGC	-9.9228
အနည်းငယ်	-9.92311
အုပ်ချုပ်ရေး	-9.92369
▁ဆွေးနွေး	-9.92395
▁အများအားဖြင့်	-9.92416
▁တွေ့ရ	-9.92437
မကြီး	-9.92444
▁ပညာသင်ကြား	-9.92476
မြို့ကို	-9.92488
သင်း	-9.92533
ရေးနှင့်	-9.92552
ခဲ့ကြောင်း	-9.92585
စဉ်က	-9.92601
▁မိုင်းပေါက်	-9.9262
မှာမူ	-9.92692
▁လေဆိပ်	-9.92694
▁လူငယ်	-9.92748
▁သက်	-9.92814
me	-9.92822
ပေးခြင်း	-9.92858
▁ဟန်	-9.9288
▁ဖြစ်ပေသည်။	-9.92909
နိုင်ခြင်း	-9.92971
အသက်	-9.93011
▁ပဲခူးမြို့နယ်	-9.93073
▁တစ်ဖန်	-9.9309
မောက်	-9.93107
▁စစ်ဆေး	-9.93116
လမ်းကြောင်း	-9.93139
ပုတ်	-9.93141
ပိုက်	-9.93144
▁အရပ်	-9.93195
▁နောက်ထပ်	-9.93238
▁ကြို့ပင်ကောက်	-9.9325
▁ဖတ်	-9.93294
to	-9.93295
▁ပြင်သစ်နိုင်ငံ	-9.933
▁မွေး	-9.93314
၀၂	-9.93315
ဟော	-9.93327
▁ပါဝင်ခဲ့သည်။	-9.93349
▁2	-9.93379
ယန်း	-9.93519
ရေးကို	-9.93541
အောင်မြင်	-9.93656
ချာ	-9.93656
▁ရောမ	-9.93657
ကိုမူ	-9.93657
▁ခွဲခြား	-9.93727
▁အဆို	-9.93731
▁၂၀၀၂	-9.93741
သည်မှာ	-9.93794
ကြမ်း	-9.93853
▁ဝယ်ယူ	-9.93926
လျင်	-9.93946
ဆင့်	-9.93998
▁ဘီ	-9.94012
ဖြစ်ခဲ့သည်။	-9.94033
ယခု	-9.94042
▁သီရိလင်္ကာ	-9.94097
▁တန့်ဆည်မြို့နယ်	-9.94102
ယံ	-9.94116
▁လယ်	-9.94146
▁ကော်မတီ	-9.94149
▁ပေါင်းတည်	-9.94156
▁အလင်း	-9.9418
ကဗျာ	-9.94318
ခိုင်း	-9.9437
ne	-9.94373
တံတား	-9.94415
အများဆုံး	-9.94491
▁ထိုအချိန်တွင်	-9.94514
▁အစ	-9.9457
▁၂၀၀၃	-9.94604
▁J	-9.94659
▁အစာ	-9.94854
မြိုင်	-9.94903
ထူ	-9.9494
တာဝန်	-9.9496
ir	-9.94995
▁တစ်ခါတစ်ရံ	-9.95041
နေရာတွင်	-9.95083
▁အကျိုး	-9.95098
တုတ်	-9.95113
မင်္ဂလာ	-9.95138
▁ရည်ညွှန်း	-9.95152
▁ရန်သူ	-9.95152
အက္ခရာ	-9.95162
▁တည်ရှိပြီး	-9.9519
င်း	-9.95214
▁အမြင့်ဆုံး	-9.95219
...	-9.95257
အဖွဲ့ဝင်	-9.9526
re	-9.95267
ကြိမ်	-9.95388
မိတ္ထီလာမြို့နယ်	-9.95434
▁ဝိုင်းမော်	-9.95464
မှတစ်ဆင့်	-9.95502
▁တိုးချဲ့	-9.95521
သည့်အတွက်	-9.95771
▁ခင်	-9.9584
တည်ဆောက်	-9.95916
▁ရိုက်ကူး	-9.95965
၌လည်း	-9.95987
▁အုတ်တွင်း	-9.96157
▁ချီးမြှင့်	-9.96198
▁အနည်းဆုံး	-9.96202
▁အမြဲ	-9.96278
▁ခေတ်သစ်	-9.9642
▁ပခုက္ကူမြို့နယ်	-9.96617
လှသော	-9.96698
▁အီရန်	-9.96775
▁အပိုင်း	-9.9679
▁ဗမာ	-9.96831
▁၁၉၅၈	-9.9687
▁on	-9.96891
ဓ	-9.96894
▁f	-9.97015
▁ဇ	-9.9702
▁W	-9.97046
သတင်း	-9.97107
ရောင်း	-9.97114
ရရှိ	-9.97157
ပျံ	-9.97171
▁ပင်လည်ဘူး	-9.97212
▁တွဲဖက်	-9.97213
ဘော	-9.97257
▁ဧကရာဇ်	-9.97376
▁အက္ခရာ	-9.97376
▁၁၉၄၆	-9.97381
▁လူတို့	-9.97408
ဖေ	-9.97452
▁၁၉၅၃	-9.97483
တောင်ရွာ	-9.97501
▁was	-9.97522
မျက်နှာ	-9.97651
တိုက်ပွဲ	-9.97678
ရွာမရွာ	-9.97682
▁အစောပိုင်း	-9.97714
ကမ်း	-9.97742
▁ဝေဖန်	-9.9775
▁ကြယ်	-9.97768
▁ထူထောင်	-9.97784
ation	-9.97793
▁ယ	-9.97832
အနီး	-9.97878
▁Kan	-9.97899
▁ဖဆပလ	-9.97969
▁ပြဋ္ဌာန်း	-9.98038
ရာဇာ	-9.98085
▁ရုံး	-9.98097
န့်	-9.98119
▁အဖ	-9.98178
▁လုပ်ငန်းများ	-9.98223
ချက်အရ	-9.9823
▁မိုင်းရယ်	-9.98238
▁မြန်မာနိုင်ငံ၏	-9.98248
▁1	-9.98424
▁လွှမ်းမိုး	-9.98433
▁အလျား	-9.98489
▁ပေါက်ခေါင်း	-9.98512
▁ပစ်	-9.98518
▁ကလောမြို့နယ်	-9.98573
ပေါ့	-9.98606
▁သေဆုံး	-9.98699
ကော်မတီ	-9.98709
ပွား	-9.98717
▁နိုင်ငံ၏	-9.98796
▁ခန္ဓာကိုယ်	-9.98823
▁ဇာတ်လမ်း	-9.9887
▁ဘွဲ့	-9.98911
▁အသစ်	-9.99138
ခံရ	-9.99174
ပြသ	-9.9924
လက်ထက်တွင်	-9.99384
▁သထုံခရိုင်	-9.99397
▁၆၀	-9.99444
ထည်	-9.99498
▁ကယားပြည်နယ်၊	-9.9963
▁အပေါ်	-9.99672
ခွေ	-9.99727
ခြံ	-9.99746
ဘော်	-9.99753
အရေး	-9.99824
အပိုင်း	-9.99842
▁ဟွေ	-9.99884
ပြောင်းလဲ	-9.99898
သည်အထိ	-9.99909
▁စစ်တပ်	-9.99946
ကျောက်ဆည်ခရိုင်၊	-9.99994
ညာ	-9.99996
▁album	-9.99999
ပေါ်၌	-10.0025
▁မိုင်းရှူး	-10.003
▁လက်တွေ့	-10.003
▁စပိန်	-10.003
▁တိုင်	-10.0031
▁နယ်နိမိတ်	-10.0032
ur	-10.0045
မည်။	-10.0054
ဇီ	-10.0057
ကြယ်	-10.0061
▁၁၉၆၃	-10.0061
▁ဆက်သွယ်ရေး	-10.0066
▁ပေါင်	-10.0066
ချော	-10.0071
▁ကြောင်	-10.0074
amp	-10.0075
▁ရှိ၏။	-10.0076
▁ပုံသဏ္ဌာန်	-10.0078
ဒေသတွင်	-10.0085
စည်	-10.0085
မြို့မှ	-10.0087
အသံ	-10.009
0&	-10.009
သမ္မတ	-10.0095
▁de	-10.0096
လှုပ်ရှားမှု	-10.01
V	-10.0102
▁၂၀၀၁	-10.0117
▁နေ့စဉ်	-10.0119
များဖြစ်သည်။	-10.0123
il	-10.0128
▁ချ	-10.0133
လွှတ်	-10.0141
▁နန်းတော်	-10.0145
–	-10.0145
▁၁၉၅၄	-10.0149
▁ချမ်းသာ	-10.0152
▁ပြည့်စုံ	-10.0154
မရ	-10.0154
ချမ်းသာ	-10.0162
▁တို	-10.0164
သဖွယ်	-10.0166
▁ဓား	-10.0169
သာမက	-10.017
ပိ	-10.017
ြ	-10.0174
▁ရေနံ	-10.0175
▁ဝန်	-10.0178
တင့်	-10.0181
ကိုပင်	-10.0184
▁တောင်သာမြို့နယ်	-10.0189
ဇင်း	-10.0189
▁စီစဉ်	-10.019
ယောက်	-10.0191
▁ခန့်မှန်း	-10.0192
▁ဝင်း	-10.0198
▁ဝေ	-10.0198
ပြည်သူ့လွှတ်တော်	-10.0198
▁အတည်ပြု	-10.0199
လုပ်ဆောင်	-10.02
▁ဆန့်ကျင်	-10.0201
▁ဝေါဟာရ	-10.0215
um	-10.0224
ထံသို့	-10.0226
ဟူ	-10.0229
ခိုး	-10.0234
ရမ်း	-10.0235
▁re	-10.0238
▁ဝမ်းတွင်း	-10.0248
ine	-10.0254
▁သု	-10.0258
ဖြစ်လာခဲ့သည်။	-10.0265
▁ရေစကြိုမြို့နယ်	-10.0266
▁ရွက်	-10.0267
ခရီး	-10.0267
သောင်	-10.0269
▁သတ္တဝါ	-10.027
မြင်းခြံခရိုင်၊	-10.0273
▁ရောင်	-10.0276
အကြောင်းကို	-10.0279
▁မေး	-10.0285
ရရှိခဲ့သည်။	-10.0291
▁by	-10.0291
▁ကသာခရိုင်	-10.0298
▁မွေးဖွားခဲ့သည်။	-10.0299
ဒူး	-10.0317
▁ကျေးရွာ	-10.0321
သူသည်	-10.0324
မှသာ	-10.0327
နိုင်ငံ၊	-10.0328
သောက်	-10.0331
ဒုတိယ	-10.0333
▁ထုတ်ပြန်	-10.0336
အင်အား	-10.0338
▁၁၉၅၉	-10.0339
▁အောင်လံမြို့နယ်	-10.0339
အာဏာ	-10.0341
ပြီး၊	-10.0348
▁သူမ၏	-10.0354
▁သစ်သား	-10.0358
▁ထပ်	-10.036
▁ကျယ်ဝန်းသည်။	-10.0365
ါ	-10.0366
▁မြန်မာနိုင်ငံ၊	-10.0373
ပေါ်သို့	-10.0375
▁ပီ	-10.0378
လှေ	-10.038
ရာထူး	-10.0389
▁နဲ့	-10.039
▁အရေးပါသော	-10.039
နိုင်ငံရေး	-10.0391
▁My	-10.0393
သတ်မှတ်	-10.0394
ရန်ကုန်တက္ကသိုလ်	-10.0394
▁၃ဝ	-10.041
man	-10.0412
▁မြစ်သားမြို့နယ်	-10.0415
▁ထမ်းဆောင်	-10.042
▁ကာကွယ်ရေး	-10.0424
▁ခုနှစ်၌	-10.0425
ရက်မြောက်	-10.0427
ဝပ်	-10.0432
စက်ရုံ	-10.0437
te	-10.0438
▁စစ်ပွဲ	-10.0439
▁သာယာဝတီမြို့နယ်	-10.0442
▁၁၉၄၉	-10.0448
▁ဆက်စပ်	-10.0448
သရုပ်ဆောင်	-10.0451
နေပြီး	-10.0451
▁လင်းခေးခရိုင်	-10.0455
▁အာကာသ	-10.0457
စစ်ပွဲ	-10.0461
▁၁၉၇၀	-10.0464
ဘောင်	-10.047
နည်းပညာ	-10.0476
ခံရသည်။	-10.0476
မိုက်	-10.0481
▁ထင်	-10.0483
ချိ	-10.0492
ဟိ	-10.0498
ရာသီ	-10.0498
လက်ခံ	-10.0499
▁အခွင့်အရေး	-10.0499
ခိ	-10.0501
am	-10.0504
▁သီးသန့်	-10.0513
▁ပြည်ပ	-10.0518
▁ပွင့်	-10.0519
▁၃၉	-10.0521
▁ရောင်းချ	-10.0525
ကြေး	-10.0525
▁၅။	-10.053
တော့သည်။	-10.0532
▁တောင်ငူမြို့နယ်	-10.0536
▁Re	-10.0539
▁မြိတ်ခရိုင်	-10.0545
ဘက်သို့	-10.0548
အစား	-10.0552
▁တို့တွင်	-10.0556
▁ပါဠိ	-10.0558
ပွဲတော်	-10.0559
ဘိုး	-10.0561
▁ရှစ်	-10.0562
ကြောင်	-10.0563
▁မလှိုင်မြို့နယ်	-10.0566
လိုင်	-10.0568
▁အမိန့်	-10.0571
▁တောင်းဆို	-10.0577
▁အလယ်ပိုင်း	-10.0579
▁၁၉၅၆	-10.0579
▁အင်ဂျင်နီယာ	-10.0584
▁ခရီး	-10.0586
▁လင်	-10.0607
▁အုပ်	-10.0607
နှင့်အညီ	-10.0613
▁ဦးခေါင်း	-10.0613
မေး	-10.0614
လေ့ရှိကြသည်။	-10.0618
ရား	-10.0621
▁အရေး	-10.0622
▁အထက်တန်းကျောင်း	-10.0625
▁သိရသည်။	-10.0626
▁လျှောက်ထား	-10.0627
▁လဲချားမြို့နယ်	-10.0634
▁ဂျပန်နိုင်ငံ	-10.0635
ဂြိုဟ်	-10.0643
▁ဝက်လက်မြို့နယ်	-10.0647
ကတ်	-10.065
▁ယင်းမာပင်ခရိုင်	-10.0652
▁as	-10.0654
▁ယိုးဒယား	-10.0658
ချပ်	-10.0665
▁စမ်းသပ်	-10.0668
အတွင်းတွင်	-10.0669
▁ပထမဦးဆုံး	-10.0675
အောက်တွင်	-10.0675
ရှီ	-10.0678
အော်	-10.068
▁ဟိဂရှိ	-10.0683
▁အပြစ်	-10.0686
အခါ	-10.0688
▁မှတ်သား	-10.0693
▁တစ်နှစ်	-10.0696
▁with	-10.0701
▁အီဂျစ်	-10.0705
ကျယ်	-10.0708
▁ရုပ်	-10.0722
▁အကြောင်းအရာ	-10.0735
အမေရိကန်	-10.0735
မ်း	-10.0737
▁လက်ထက်တွင်	-10.0742
ဂုဏ်	-10.0756
▁တန်ဖိုး	-10.0758
▁လိုအပ်	-10.0759
▁ကိုးကွယ်	-10.076
▁တွေ့ဆုံ	-10.0761
▁:	-10.0766
▁ဆီး	-10.0768
ယာဉ်	-10.0773
▁အလုပ်လုပ်	-10.0775
ခြင်း။	-10.0778
သေးသည်။	-10.0784
▁၁၉၅၂	-10.0786
▁ညောင်ဦးမြို့နယ်	-10.0791
ဒေါ	-10.0792
▁ဘာသာပြန်	-10.0792
▁မိနစ်	-10.0794
▁ဖြစ်သည်ဟု	-10.0796
▁မိုးညှင်း	-10.0799
▁ပြဇာတ်	-10.0799
တင်ပြ	-10.0801
▁နံနက်	-10.0802
▁တည်ရှိ	-10.0809
ဒိ	-10.0812
ပြိုင်	-10.0812
လံ	-10.0815
la	-10.0817
ဘ်	-10.0817
ယု	-10.082
▁ဇာတ်ကား	-10.0824
မှာပင်	-10.0829
မှီ	-10.0836
▁အရာ	-10.0836
▁မုံရွာခရိုင်	-10.0851
▁သိန္နီမြို့နယ်	-10.0852
▁၄၁	-10.0854
▁ကျရောက်	-10.0857
▁မိုးကောင်း	-10.0864
▁စင်ကာပူ	-10.0871
▁၄၆	-10.0874
ဖြစ်သော်လည်း	-10.0874
တိုင်အောင်	-10.0875
▁ခေါ်ဆို	-10.0881
နိုင်အောင်	-10.089
အမျိုးသမီး	-10.0891
မဂ္ဂဇင်း	-10.0892
▁သာသနာ	-10.0894
▁အုတ်ဖိုမြို့နယ်	-10.0895
ဆွေ	-10.0897
▁ပေါ်ပေါက်	-10.09
▁၁၉၆၈	-10.0904
▁ဘီးလင်းမြို့နယ်	-10.0906
ရဟန်း	-10.0915
▁ကျောက်စာ	-10.092
▁ထိုပြင်	-10.0925
ပြင်း	-10.0926
မင်းဆက်	-10.0934
ပြုစု	-10.094
မင်းသမီး	-10.0949
▁ရေဒီယို	-10.095
လုံရွာ	-10.0951
▁ဩဂုတ်	-10.0951
▁be	-10.0952
▁ခန့်အပ်	-10.0953
▁ကောလင်းခရိုင်	-10.0957
▁ပါဝင်သည့်	-10.0958
းရွာ၊	-10.096
ကိုက်	-10.096
ro	-10.0961
▁သူမသည်	-10.0961
▁ခုနစ်	-10.0963
▁အင်္ဂလိပ်ဘာသာ	-10.0967
▁၀	-10.0968
စသည့်	-10.0976
▁ကူ	-10.0977
▁သိပ္ပံ	-10.0978
▁အမျိုး	-10.098
▁လူသား	-10.0981
▁ပြဿနာ	-10.0983
ဆောင်း	-10.0987
▁အဓိပ္ပာယ်	-10.099
▁ဇနီး	-10.0993
ဖီ	-10.0994
ဝင်ရောက်	-10.0995
ဖြစ်လာ	-10.0997
ကရင်	-10.0998
▁သစ်တော	-10.0998
တံခါး	-10.1001
သွားသော	-10.1005
သာယာ	-10.101
▁မင်းတုန်းမင်း	-10.1014
ပြင်ဆင်	-10.1019
မန္တလေး	-10.1025
▁ကွမ်း	-10.1028
▁ဘုံ	-10.1035
▁ဖြစ်ပေါ်လာ	-10.1038
ဘုရား၏	-10.1043
သူများသည်	-10.1045
ကြသည့်	-10.105
ကွန်မြူနစ်ပါတီ	-10.105
အနေနှင့်	-10.1053
ရေးဆွဲ	-10.1062
▁ရှိခဲ့သည်။	-10.1063
▁အမေရိကန်နိုင်ငံ	-10.1064
ခွေး	-10.1068
▁သက်တမ်း	-10.107
ers	-10.1071
▁ယနေ့	-10.1075
ယ်	-10.1079
▁ဇွန်	-10.108
▁၈၀	-10.1082
▁မိုင်းဆတ်ခရိုင်	-10.1083
▁အီတလီ	-10.1087
▁အနာ	-10.1088
ဥယျာဉ်	-10.1092
▁s	-10.1097
▁ပြသ	-10.1103
▁ခေါ်ဝေါ်	-10.1106
▁လင်း	-10.1106
▁ကောက်	-10.1106
ထိုင်	-10.1112
ကိုယ်စားလှယ်	-10.1115
▁အစေ့	-10.1115
▁၁၉၄၂	-10.1115
▁ဗန်းမောက်	-10.1115
▁လူမှုရေး	-10.1115
▁သီဆို	-10.1124
▁တောင်ငူ	-10.1131
▁ဗီယက်နမ်	-10.1138
ရှိသူ	-10.1149
ပေးသော	-10.115
▁အပူချိန်	-10.1155
▁ရိုက်	-10.1158
သန်	-10.1174
▁စပ်လျဉ်း၍	-10.1176
▁ချမှတ်	-10.1176
လေဆိပ်	-10.1177
မူး	-10.1178
ထဲ၌	-10.118
အရောင်	-10.1181
▁နေ့တွင်	-10.1182
▁၁၉၅၀	-10.1187
ဆပ်	-10.1188
▁နေပြည်တော်	-10.1191
▁လက်ဝဲ	-10.1193
ဂျ	-10.1194
▁တိုင်းဒေသကြီး	-10.1195
ပြေ	-10.1198
▁အိ	-10.1202
ခံခဲ့ရသည်။	-10.121
▁လွန်စွာ	-10.1211
▁အန်	-10.1214
▁or	-10.1218
ရူ	-10.1218
▁၁၉၉၉	-10.1219
▁စု	-10.1225
လျှင်၊	-10.1226
▁လက်နက်ကိုင်	-10.1235
လှုပ်ရှား	-10.1235
▁အောင်မြင်မှု	-10.1237
လှည့်	-10.1243
မိဖုရား	-10.1247
ရပ်စောက်မြို့နယ်	-10.1256
ရှစ်	-10.126
ဘု	-10.126
▁သူမ	-10.126
ရွေးချယ်	-10.1265
▁စာရေး	-10.1265
ရခိုင်	-10.1268
▁ကျင့်သုံး	-10.1269
▁...	-10.1269
▁ပူးတွဲ	-10.1276
နိုင်ပြီး	-10.1278
နှင့်ပတ်သက်၍	-10.128
▁အမည်ရှိ	-10.1281
▁ဆရာတော်သည်	-10.1289
▁လှူဒါန်း	-10.1291
▁လူ့	-10.1293
နော်	-10.1293
▁ချောက်မြို့နယ်	-10.1297
ကြသဖြင့်	-10.1301
▁ယှဉ်ပြိုင်	-10.1301
ဒန်	-10.1302
ပါသော	-10.1305
ကြရာ	-10.1308
▁အများပြည်သူ	-10.1311
▁ရှာ	-10.1314
ပေါ်ရှိ	-10.1315
မှုသည်	-10.1324
တောင်တန်း	-10.1326
ထေရ်	-10.133
▁ထန်း	-10.1334
ထိုက်	-10.1356
တည်ထောင်	-10.1357
▁အရိုး	-10.1358
ဖောက်	-10.1358
▁ရာဇဝင်	-10.1367
▁၁၉၇၂	-10.1368
▁သတ်	-10.1374
▁အိပ်	-10.1375
▁လက်ထက်	-10.1378
▁ပစ္စည်းများ	-10.1384
တောကျေးရွာအုပ်စု	-10.1384
ထည့်	-10.1385
▁3	-10.1387
▁V	-10.1392
▁တိုင်းတာ	-10.1394
▁ပန်းတောင်း	-10.1399
▁သဘောတူ	-10.1402
▁လို	-10.1403
▁တရုတ်ပြည်	-10.1406
သည့်အပြင်	-10.1425
တပ်ဖွဲ့	-10.1426
▁ဆိုကြသည်။	-10.1432
▁ဧရာဝတီမြစ်	-10.1433
▁ဖော်ပြထားသည်။	-10.1434
▁Man	-10.1434
ဒါး	-10.1445
ရေး၊	-10.1446
ပိုင်းဆိုင်ရာ	-10.1452
▁ကြည့်ရှု	-10.1455
▁Min	-10.1456
▁ခေါ်ကြသည်။	-10.1457
▁ရွှေ့ပြောင်း	-10.1458
ကြက်	-10.1463
▁လီ	-10.1463
▁ကျောင်းသားများ	-10.1464
▁အသုံးပြုသည်။	-10.1465
ဖြစ်ပေါ်	-10.147
▁စွမ်းအင်	-10.1475
▁ဟုလည်း	-10.1475
သင်္ဘော	-10.1484
ခဲ့ပေ။	-10.1485
၌ပင်	-10.149
ငူ	-10.1498
ent	-10.15
▁လိပ်	-10.1504
ဂန်	-10.1505
▁အဖြစ်ဖြင့်	-10.151
▁Co	-10.1511
သောင်း	-10.1515
စီမံကိန်း	-10.1519
ခြား	-10.1521
တစ်လုံး	-10.1522
သူများကို	-10.1531
▁မိုင်းဖြတ်	-10.1532
အောင်ဆန်း	-10.1537
▁ဉာဏ်	-10.1545
▁တန်း	-10.1545
ဗား	-10.1557
ခဲ့ကြပြီး	-10.1562
▁အပူ	-10.1562
▁စနစ်တကျ	-10.1564
▁တို့က	-10.1573
ဖား	-10.1574
▁၁၉၅၅	-10.1582
▁အသုံး	-10.1583
▁ကောလိပ်	-10.159
အုန်း	-10.1594
▁ကမ်း	-10.1604
▁ခေါင်လန်ဖူး	-10.1606
▁တပ်ရင်း	-10.1608
တွေက	-10.1608
▁အဆင့်ဆင့်	-10.1612
▁တိုက်ပွဲ	-10.1612
ဒူ	-10.1613
▁ဟိုပန်ခရိုင်	-10.1618
▁ရှေးခေတ်	-10.1624
▁မင်းတပ်မြို့နယ်	-10.1624
ခုန်	-10.164
▁ခုနှစ်မှစ၍	-10.1642
စေသော	-10.1645
များထဲမှ	-10.1649
▁ပေါက်မြို့နယ်	-10.1649
▁ရှိလေသည်။	-10.1659
▁စုဆောင်း	-10.1663
▁Taung	-10.1667
ပြိုင်ပွဲ	-10.1671
▁ဘောလုံး	-10.1672
စာချုပ်	-10.1672
အဖြစ်သို့	-10.1675
ကြသော်လည်း	-10.1675
▁မေတ္တာ	-10.1677
▁၁၉၆၁	-10.1679
▁ဘီလီယံ	-10.1687
▁အမတ်	-10.1689
ပျောက်	-10.1694
လျက်ရှိသော	-10.17
▁ဖြတ်	-10.1701
ရော့	-10.1705
▁အထက်ပါ	-10.1705
ရထား	-10.1708
▁ပြင်	-10.1709
အခြား	-10.1709
အမြင်	-10.1711
▁၁၉၆၄	-10.172
▁ရင်	-10.1725
▁b	-10.1737
町	-10.1745
ဇော်	-10.1746
▁ခံရသည်။	-10.1748
အရပ်	-10.175
ong	-10.1756
လာသည့်	-10.1767
ဖျက်	-10.1769
ကောလိပ်	-10.1774
▁Su	-10.1781
▁တွင်း	-10.1788
▁အဲဒီ	-10.1788
နိုင်ပေသည်။	-10.1789
ကြပါသည်။	-10.1792
▁လူအများ	-10.1795
▁ခံ	-10.1816
▁နည်းလမ်း	-10.1821
▁ဆိုင်	-10.1821
▁သူ့အား	-10.1822
▁ဖယ်ခုံမြို့နယ်	-10.1825
သဏ္ဌာန်	-10.1826
စောင့်ရှောက်	-10.1828
ကဏ္ဍ	-10.1828
ပါဝင်သည်။	-10.1836
ယက်	-10.1837
▁ဧရိယာ	-10.1837
ပြောင်	-10.1839
ခဲ့ရ	-10.1839
▁အနေဖြင့်	-10.184
▁ဦးစီး	-10.1843
▁အူ	-10.1851
▁ဖြစ်ပါတယ်။	-10.1859
ဆွတ်	-10.1861
သခင်	-10.1863
▁ယင်းမာပင်	-10.1863
▁၁၉၇၅	-10.1864
se	-10.1872
တံဆိပ်	-10.1874
▁အားပေး	-10.1874
စနစ်ကို	-10.1878
▁ခါး	-10.1882
▁ဒုတိယမြောက်	-10.1883
ထင်ရှား	-10.1883
▁လန်ဒန်	-10.1884
▁ကိုးကန့်	-10.1885
သီရိ	-10.1885
▁လွတ်လပ်စွာ	-10.1886
wa	-10.1888
များရှိ	-10.1888
▁ရေဦးမြို့နယ်	-10.1889
▁နဂါး	-10.1902
▁ထိုင်ဝမ်	-10.1902
ဘူ	-10.1904
ga	-10.1907
သွယ်	-10.1907
▁ဘက်	-10.1909
ကန်း	-10.191
မှတ်တမ်း	-10.1911
▁မန်တုံမြို့နယ်	-10.1914
ကဲ	-10.1915
ရောင်းချ	-10.1915
ပညာရေး	-10.1921
မဆို	-10.1922
▁တံတား	-10.1924
▁၄၇	-10.1926
အရာရှိ	-10.1929
▁ယင်းသည်	-10.1931
▁အစိုးရက	-10.194
▁၄၈	-10.194
▁နှစ်သက်	-10.1941
ပြတ်	-10.1941
▁ကိုယ့်	-10.1948
အစီအစဉ်	-10.1951
ဖြစ်သဖြင့်	-10.1957
▁စားသောက်	-10.1958
ထုတ်လုပ်	-10.1959
▁ရသည်။	-10.197
▁မိုင်းတုံ	-10.1976
▁၁၉၄၁	-10.1978
ion	-10.1982
ခေါက်	-10.1983
▁La	-10.1987
▁ကွဲပြား	-10.1988
ပက်	-10.1991
▁အချက်	-10.1998
▁၅၅	-10.1999
▁နားလည်	-10.2004
▁လျှို့ဝှက်	-10.2005
▁အားကစား	-10.2009
အိပ်	-10.2011
revision	-10.2011
▁သရက်	-10.202
▁အာရှတိုက်	-10.2023
▁ထည့်	-10.203
▁ကောလင်းမြို့နယ်	-10.2035
▁မိဘ	-10.2035
များအရ	-10.2039
▁Chaung	-10.2043
▁၁၉၉၇	-10.2048
ဖု	-10.205
▁ကေ	-10.2057
သိပ္ပံ	-10.2061
▁ပုဂံခေတ်	-10.2065
ခြင်းအားဖြင့်	-10.2066
▁ခို	-10.2068
▁ဆောက်	-10.207
နိုင်၏။	-10.2074
▁Bo	-10.208
ch	-10.2081
▁ရှ	-10.2082
မြို့စား	-10.2093
▁၁၉၉၃	-10.2095
များဖြစ်သော	-10.2101
တိုးတက်	-10.2108
ပြီးမှ	-10.2112
▁ရေနံချောင်း	-10.2119
▁တစ်မျိုး	-10.2123
▁မီ	-10.2123
ဟုခေါ်သည်။	-10.2127
▁ဝန်ဆောင်မှု	-10.2134
▁၁၉၉၁	-10.2134
▁၁၉၉၆	-10.2134
▁အမ်	-10.2136
စုရွာ	-10.2139
ဖြစ်အောင်	-10.2139
နိုင်ငံများ	-10.2141
▁သာသနာပြု	-10.2146
▁ထွန်းကား	-10.2147
▁ဖြစ်သည့်	-10.2171
▁ထောက်ခံ	-10.2175
မြို့၏	-10.2178
▁စုပေါင်း	-10.2178
သိမ်	-10.218
▁၄၉	-10.2184
မိသားစု	-10.2187
is	-10.2188
၎င်း၊	-10.2189
▁ဗြိတိန်	-10.2189
သူတို့	-10.2193
▁ပို့	-10.2197
▁သင်္ချာ	-10.2198
ဂျိ	-10.22
▁ဆူး	-10.2203
▁ပေးအပ်	-10.2204
ဖွယ်ရာ	-10.2204
နွဲ့	-10.2205
j	-10.2211
▁မြို့မ	-10.2217
ကြရ	-10.2217
▁that	-10.222
▁တည်ရှိသော	-10.2221
ရိုးရွာ၊	-10.2221
သို	-10.2224
▁စီမံ	-10.2227
ဋ္ဌ	-10.2227
▁ဖြစ်ကြောင်း	-10.2229
▁အရာရှိ	-10.2229
▁လုံခြုံရေး	-10.2234
ခြင်းတို့	-10.2235
▁ရထား	-10.2238
▁တိုး	-10.2245
ဝီ	-10.2247
သတင်းစာ	-10.2253
တန်ဖိုး	-10.2253
ပွင့်ဖြူမြို့နယ်	-10.2254
▁ဖော်ထုတ်	-10.2267
▁ပညာရှင်	-10.2275
ri	-10.2279
J	-10.2281
ချွန်	-10.2283
▁သာယာ	-10.2283
သမီး	-10.2285
ခက်	-10.2288
ol	-10.229
▁ဘိုး	-10.2292
မျိုးစုံ	-10.2293
▁ရောက်ရှိလာ	-10.2302
ဂိုး	-10.2303
▁အများ	-10.231
▁ပုလဲမြို့နယ်	-10.2312
▁အယ်လ်	-10.2312
▁သမုဒ္ဒရာ	-10.2315
ရန်ကုန်	-10.2316
▁[	-10.2318
▁ပု	-10.2318
▁စက္ကူ	-10.2322
ချည်	-10.2325
▁မှတ်တမ်းတင်	-10.2329
▁ထိုနှစ်	-10.2334
▁အတိုင်း	-10.2336
နာမည်	-10.2337
ဗ်	-10.2339
▁များသည်	-10.2341
▁စက်ရုံ	-10.2345
သင်တန်း	-10.2345
မွန်း	-10.2346
▁မတူပီခရိုင်	-10.2352
▁ရဟန်းတစ်ပါး	-10.2353
ကြော	-10.2353
▁မိမိတို့၏	-10.2356
▁၁၉၇၄	-10.2359
▁စုစည်း	-10.2369
သွားခဲ့သည်။	-10.2372
▁များစွာသော	-10.2385
▁ကနီမြို့နယ်	-10.239
▁ညောင်လေးပင်	-10.239
▁Pin	-10.2391
▁ဖြစ်နေ	-10.2391
▁အားဖြင့်	-10.2394
▁၁၉၈၉	-10.2396
▁ကိစ္စ	-10.2398
အရွယ်	-10.2398
▁နွားထိုးကြီး	-10.24
▁ဒု	-10.2401
▁လိုက်နာ	-10.2403
▁ထင်ရှားသည်။	-10.2403
▁ခရီးသွား	-10.2406
လျက်ရှိ	-10.2409
နေကြ	-10.2409
▁အကြီးအကျယ်	-10.2416
ဖမ်း	-10.2425
ဘက်တွင်	-10.2431
မှတဆင့်	-10.2434
▁ခုနှစ်က	-10.2439
▁သမီးတော်	-10.2439
ဆေးရုံ	-10.244
က္ခ	-10.2442
▁သွားလာ	-10.2443
ခုတ်	-10.2453
သားများ	-10.2456
▁အင်္ဂလန်နိုင်ငံ	-10.2457
▁ယင်း၏	-10.2461
▁လွန်	-10.2467
▁ညောင်ပင်	-10.2469
▁အုပ်စိုး	-10.2471
▁ရှေးအခါက	-10.2477
ခရစ်	-10.2479
ပေးရသည်။	-10.2481
▁ကလေးများ	-10.2482
▁+	-10.2485
ရာစု	-10.2499
▁စီးဆင်း	-10.25
▁အချင်းချင်း	-10.2502
ထားလေသည်။	-10.2503
▁ထက်	-10.2504
▁မင်းကြီး	-10.2505
▁အမှု	-10.251
▁စေလွှတ်	-10.251
ရွာသစ်	-10.2515
ငယ်များ	-10.2517
▁ပမာဏ	-10.2517
ဖိုင်	-10.252
▁သင်ယူ	-10.252
စေခြင်း	-10.2529
▁၁၉၉၅	-10.2529
▁၁၉၅၇	-10.2532
▁ချီ	-10.2535
▁ရယူ	-10.2544
ပထမ	-10.2548
တမ်း	-10.2559
▁ဂျီ	-10.2559
▁ပုံနှိပ်	-10.2559
▁ကြံ	-10.2561
▁ယာယီ	-10.2566
လိုက်သော	-10.2575
▁မြတ်	-10.2575
▁အုန်း	-10.2578
▁ရှင်းလင်း	-10.2582
▁သီတင်းသုံး	-10.2582
▁၁၉၉၂	-10.2594
မြို့ရှိ	-10.2597
▁ဒေသခံ	-10.2602
ti	-10.2602
▁ဆိုင်း	-10.2605
ry	-10.2611
မည်ဖြစ်သည်။	-10.2613
ဒေါင့်	-10.2617
▁စကားလုံး	-10.2617
▁ဈေးကွက်	-10.262
▁ကျင်းပသော	-10.2623
▁တီ	-10.2624
▁လည်ပတ်	-10.2625
▁၁၉၆၅	-10.2629
▁လည်	-10.2629
▁ဇာ	-10.263
ပုံမှာ	-10.2635
နတ်မောက်မြို့နယ်	-10.2639
ပီး	-10.2639
▁မြို့ပြ	-10.2641
ကိုလည်းကောင်း၊	-10.2642
▁တပည့်	-10.2644
ချမှတ်	-10.2644
ခဲ့ပေသည်။	-10.2647
▁စတင်ခဲ့သည်။	-10.2648
▁မိုးညိုမြို့နယ်	-10.2652
▁ဆောင်းပါး	-10.2656
▁ဒိုက်ဦးမြို့နယ်	-10.2658
▁အထက်တန်း	-10.2659
▁ဒုတိယအကြိမ်	-10.2659
တွန်	-10.2662
▁ဆိုသည့်	-10.2662
▁ဖော်	-10.2668
▁ယာ	-10.2669
နိုင်ငံတွင်	-10.2671
အနုပညာ	-10.2671
▁၁၉၉၈	-10.2673
▁စောင့်ရှောက်	-10.2676
▁အဆိပ်	-10.2678
လွဲ	-10.268
▁ရက်ပေါင်း	-10.2683
▁ဒီးမော့ဆို	-10.2685
▁ပရိသတ်	-10.269
▁ဆိုရှယ်လစ်	-10.2692
▁Ba	-10.2694
▁ညောင်ဦးခရိုင်	-10.2697
▁မတ္တရာမြို့နယ်	-10.2699
▁ထိုကဲ့သို့	-10.2699
▁သိန်း	-10.27
▁ပါမောက္ခ	-10.2701
▁စိုက်	-10.2703
▁ကြေး	-10.2707
▁မြန်မာစာ	-10.2721
တော်မူ၏။	-10.2724
▁အပွင့်	-10.2726
▁ကမ္ဘောဒီးယား	-10.2727
▁၁၉၆၉	-10.2727
ဆား	-10.2728
ဒိုင်း	-10.2728
ဆောက်	-10.2733
▁ကောင်	-10.2735
▁နိ	-10.2736
▁4	-10.2741
ခိုက်	-10.2745
▁၅၂	-10.2746
▁ကပ်	-10.2747
ung	-10.2748
ဗုဒ္ဓ	-10.2751
ကြ၍	-10.2752
▁ဦးစီးဌာန	-10.2752
▁အမြီး	-10.2752
တော်ကို	-10.2754
▁၁၉၅၁	-10.2755
▁နံပါတ်	-10.2755
▁ပျံသန်း	-10.2757
ကနေ	-10.2758
▁အမြင်	-10.2759
▁သတင်းအချက်အလက်	-10.2761
▁ဟော	-10.2761
▁အာရပ်	-10.2766
ချက်ကို	-10.2772
▁ကွန်မြူနစ်ပါတီ	-10.2773
▁ကဲ့သို့သော	-10.2774
ဟီ	-10.2777
▁အနောက်တိုင်း	-10.2778
▁p	-10.278
▁သီလ	-10.2782
▁၁၉၃၉	-10.2782
▁၁၉၆၇	-10.2791
▁ခပ်	-10.2792
▁မပြု	-10.2799
လုပ်ငန်းကို	-10.28
မု	-10.2804
▁ဖောင်းပြင်	-10.2805
▁သောက်	-10.2806
အားလုံးကို	-10.2808
တည်ရှိ	-10.2811
ဇာတ်လမ်း	-10.2816
▁ဆေးရုံ	-10.2816
▁လင်းခေးမြို့နယ်	-10.2822
လှသည်။	-10.2824
လှိုင်း	-10.2826
Y	-10.2827
▁အပြန်အလှန်	-10.2835
ချိုး	-10.284
နှစ်ဦး	-10.2842
▁၆။	-10.2848
သလောက်	-10.2855
သော်လည်းကောင်း၊	-10.2855
စေပြီး	-10.2858
▁မစ္စတာ	-10.2864
ခွင်	-10.2873
▁ဘုတလင်မြို့နယ်	-10.2875
ကွယ်	-10.2881
ဟင်း	-10.2883
▁ဟဲ	-10.2886
စတာ	-10.2886
▁ဘန်	-10.289
နောက်ပိုင်းတွင်	-10.289
ခြင်းမှာ	-10.2893
▁ကျွန်တော်	-10.2897
အမ်	-10.2903
▁ထီ	-10.2904
▁အသုံးပြု၍	-10.2906
▁အစည်းအဝေး	-10.291
▁နောက်ဆုံးတွင်	-10.2913
▁ဆင်း	-10.2917
ပြု၍	-10.2922
▁လူမှု	-10.2923
ရမည်းသင်းခရိုင်၊	-10.2924
ပြုပြင်	-10.2928
▁သစ္စာ	-10.2929
▁မြောက်ဘက်တွင်	-10.2929
အူ	-10.293
လက်ရာ	-10.2933
▁အင်္ဂလန်	-10.2933
ရွှေကျင်မြို့နယ်	-10.2947
▁သူတို့သည်	-10.2948
▁မကြာမီ	-10.2951
▁တည်ထောင်ခဲ့သည်။	-10.2957
နင်	-10.2958
▁ခါ	-10.2959
▁ဆွဲ	-10.2961
များတွင်လည်း	-10.2964
▁၁၉၈၅	-10.2969
▁ထိုအ	-10.2969
ပူဇော်	-10.2973
အစု	-10.2976
▁ကွန်ဟိန်း	-10.2978
တွေဟာ	-10.2984
သက်တမ်း	-10.2985
ခွံ	-10.2993
▁ဘုန်းတော်ကြီး	-10.2996
▁၁၉၉၄	-10.2997
မင်းကင်းမြို့နယ်	-10.3002
ရအောင်	-10.3006
ရွေးကောက်ပွဲတွင်	-10.3006
ဆောက်လုပ်	-10.3007
ton	-10.301
များထဲတွင်	-10.3015
လိုသော	-10.302
▁ယခုခေတ်	-10.3021
ဖွား	-10.3021
အများအပြား	-10.3025
▁တော်ဝင်	-10.3027
ဒေ	-10.3029
ဟူသည်	-10.303
ကြွ	-10.3032
▁တိုးမြှင့်	-10.3035
ပမာဏ	-10.3037
son	-10.3038
▁ဘာသာရပ်	-10.3039
ပြီးသော	-10.3041
ဥပမာ	-10.3044
▁အနှစ်	-10.3047
ဖန်တီး	-10.3049
▁ဝန်းသိုမြို့နယ်	-10.3059
▁ရို	-10.306
တို့အတွက်	-10.3062
▁ကဝမြို့နယ်	-10.3069
လုပ်ငန်းများကို	-10.307
▁ယင်းတို့	-10.3073
▁ဆည်	-10.3076
ရှန်	-10.3077
▁ဓာတ်ငွေ့	-10.3081
▁အရှေ့ဘက်တွင်	-10.3085
▁ရင်း	-10.3085
▁ပူဇော်	-10.3088
▁မိုင်းပန်	-10.309
▁Taw	-10.3095
ကလပ်	-10.3095
▁ကြေညာ	-10.3097
▁ဘောလုံးအသင်း	-10.3097
ကျူ	-10.3097
▁ဒဏ္ဍာရီ	-10.3098
မသိ	-10.3099
မွှေး	-10.3099
▁စားသုံး	-10.31
တိုင်းပြည်	-10.3102
ဖြစ်ရာ	-10.3107
▁ကိုင်း	-10.311
လွှဲ	-10.3111
▁ရာသီ	-10.3113
နိုင်လေသည်။	-10.3117
▁ကချင်	-10.3121
▁ခံစား	-10.3123
နေသည်ကို	-10.3128
ပန်းချီ	-10.3132
အဖွဲ့ချုပ်	-10.3135
▁အသုံးပြုနိုင်	-10.3139
သူများက	-10.314
▁စာချုပ်	-10.3142
ဘုတ်	-10.3143
ခဲ့တဲ့	-10.3144
▁ကနေဒါ	-10.3149
win	-10.3151
တတ်ကြသည်။	-10.3152
၁ဝ	-10.3152
▁သူ့ကို	-10.3153
com	-10.316
▁၅၆	-10.3164
▁မို	-10.3167
▁စေ	-10.3168
▁အထိမ်းအမှတ်	-10.317
မရွာ၊	-10.3176
▁De	-10.3181
▁သထုံမြို့နယ်	-10.3181
စင်း	-10.3186
▁စဉ့်ကိုင်	-10.319
▁မြောင်း	-10.3196
▁ဆေးပညာ	-10.3201
ရှာဖွေ	-10.3204
03	-10.3204
▁နမ္မတူမြို့နယ်	-10.3205
▁ရေခဲ	-10.3205
ထုပ်	-10.3206
▁လိုအပ်သော	-10.3208
ဂ်	-10.321
▁မိုင်းလား	-10.321
ဖွင့်လှစ်ခဲ့သည်။	-10.3214
▁ခေါ်တွင်	-10.3218
ကျုံ	-10.3224
▁စဉ်းစား	-10.3225
▁အန္တရာယ်	-10.3227
▁ထိပ်	-10.3229
▁လေကြောင်း	-10.3229
▁အယ်ဒီတာ	-10.323
▁ဧ	-10.3231
▁၁၉၇၃	-10.3233
▁ခမည်းတော်	-10.3239
အကြီးဆုံး	-10.3239
▁ထုတ်ဝေခဲ့သည်။	-10.3244
▁တောင်တန်း	-10.3244
▁အလွယ်တကူ	-10.3248
ရန်နှင့်	-10.3252
စ္စ	-10.3255
▁ကြိုတင်	-10.3273
▁ဝတ်ဆင်	-10.3275
▁ကော့ကရိတ်ခရိုင်	-10.3275
▁ဝန်ထမ်း	-10.3278
▁၇၀	-10.3282
ဘား	-10.3284
ကြောင်းကို	-10.3285
အချင်းချင်း	-10.3288
မ္မ	-10.3291
poem	-10.3298
▁နိုင်	-10.3304
▁မီးရထားလမ်း	-10.3309
▁မြေအောက်	-10.3309
အပြီး	-10.3316
▁အဆိုတော်	-10.3318
ဆံ	-10.3319
▁၇၅	-10.3319
▁ကိုရီးယား	-10.332
▁နာမည်ကျော်	-10.3325
ဝန်ကြီးချုပ်	-10.333
မစ်	-10.3337
အင်္ဂလိပ်	-10.3338
▁ဖွဲ့စည်းခဲ့သည်။	-10.334
ရှိသည်ဟု	-10.334
▁မသိ	-10.3341
ထိန်းသိမ်း	-10.3343
▁ကုသ	-10.3347
ချန်	-10.3348
ium	-10.335
▁တပ်ဆင်	-10.3351
ထဲမှာ	-10.3355
▁ဖျက်ဆီး	-10.3356
▁ဖက်	-10.3356
▁ပျမ်းမျှ	-10.3356
ဆီသို့	-10.3358
ထမ်း	-10.3359
အဖြစ်ဖြင့်	-10.3361
ng	-10.3369
▁အမြစ်	-10.337
▁မယ်တော်	-10.3378
▁ခွင့်ပြု	-10.3379
▁အရသာ	-10.338
နော	-10.3381
လက်နက်	-10.3381
▁မရှိပေ။	-10.3385
▁သကြား	-10.3386
▁ပျံ့နှံ့	-10.3388
ကြောင်း၊	-10.3389
▁မက်မန်းမြို့နယ်	-10.3389
ဝေါဟာရ	-10.3393
▁လောင်း	-10.3401
များဖြစ်သည့်	-10.3402
▁ဟော့ကိုင်းဒိုး	-10.3407
သတ္တု	-10.3408
▁ခံခဲ့ရသည်။	-10.3416
▁ကျင်းပခဲ့သည်။	-10.3418
▁ရွှေဘိုမြို့နယ်	-10.3419
က္က	-10.3421
ဟဲ	-10.3427
ဖြစ်ပေသည်။	-10.3428
▁အစရှိသော	-10.343
▁အခြေစိုက်	-10.3431
ခံယူ	-10.3434
▁အမျိုးသမီးများ	-10.3437
▁လွတ်မြောက်	-10.3438
▁အသံထွက်	-10.3441
15	-10.3441
အဖွဲ့အစည်းများ	-10.3443
▁လူမျိုးစု	-10.3444
ထံတွင်	-10.3444
▁ပေါက်ရောက်	-10.3445
တိန်	-10.3446
အကျိုး	-10.3448
70250	-10.3452
▁တစ်ဆင့်	-10.3453
▁နွေရာသီ	-10.3454
မောက်မယ်မြို့နယ်	-10.3456
ဥက္ကဋ္ဌ	-10.3457
▁နှလုံး	-10.3459
▁သဘောတူညီချက်	-10.346
ကွာ	-10.3461
▁ကျိုက်မရော	-10.3462
ခဲ့ကြလေသည်။	-10.3462
▁လက်ရာ	-10.3462
▁ဘုရင့်	-10.3464
▁ဖိုး	-10.3464
▁လို့	-10.3466
▁ဇာတိ	-10.3466
▁ဘော	-10.3471
▁သင်း	-10.3473
▁အကြံပေး	-10.3476
▁မျောက်	-10.3477
▁ထိန်းချုပ်	-10.3481
−	-10.3488
▁ဒုက္ခ	-10.3491
▁ယော	-10.3491
▁မျက်နှာပြင်	-10.3492
▁လက်ထပ်	-10.3502
▁အာဖရိကတိုက်	-10.3506
လက်မ	-10.3508
ant	-10.3508
ဂျာနယ်	-10.3508
▁ဒေါ	-10.3509
လှူဒါန်း	-10.3517
▁တံတားဦးမြို့နယ်	-10.3518
ဧရိယာ	-10.352
ကီး	-10.3522
▁ညွှန်ကြား	-10.3526
တစ်လျှောက်	-10.353
▁ငလျင်	-10.3531
),	-10.3533
▁Sa	-10.3534
▁ယောက်ျား	-10.3537
▁နယ်ချဲ့	-10.3537
▁ဗိုလ်ချုပ်ကြီး	-10.3537
▁မူရင်း	-10.3539
▁ဆက်ဆံရေး	-10.354
ကုန်၏။	-10.3542
ထားကြသည်။	-10.3545
X	-10.3546
ဆိပ်ရွာ	-10.3549
▁့	-10.355
▁ကန့်ကွက်	-10.3551
ဒေါ်	-10.3553
နိုင်စွမ်း	-10.3553
▁ဝဲ	-10.3555
▁ဆွမ်း	-10.3557
ရာဇဝင်	-10.3557
▁နေ့ရက်	-10.3558
▁သာစည်မြို့နယ်	-10.356
▁ကိုလည်း	-10.3564
ကွန်း	-10.3567
ပျက်စီး	-10.3567
ရွာသစ်ရွာ	-10.3569
▁အားထုတ်	-10.3569
▁ထောက်ပံ့	-10.357
သော်လည်းကောင်း	-10.3571
ik	-10.3571
မှုန့်	-10.3571
▁ဥရောပတိုက်	-10.3576
▁ဗီ	-10.3578
တစ်ခုတွင်	-10.3582
လျှောက်	-10.3587
▁အနောက်ဘက်တွင်	-10.359
များရှိသည်။	-10.3596
ဂါးရွာ	-10.3602
▁သပြေ	-10.3606
▁ဇီး	-10.3615
▁၂၀၀	-10.3616
လျက်၊	-10.3618
▁ကျော်ကြား	-10.3621
▁စာတမ်း	-10.3621
▁ချုပ်	-10.3624
▁နှစ်ခု	-10.3626
▁မကွေးမြို့နယ်	-10.3632
▁•	-10.3632
▁ကောင်စီ	-10.3638
▁စေတီတော်	-10.3639
ဖုန်း	-10.3645
ဆိုက်	-10.3655
▁အမ	-10.3659
ဆော်	-10.3663
▁Shwe	-10.3666
အနီးတွင်	-10.3668
li	-10.3672
တောင့်	-10.3672
▁အစားထိုး	-10.3674
လက္ခဏာ	-10.3677
▁တောင်ကိုရီးယား	-10.3678
စန်း	-10.3679
လေရာ	-10.3685
ဘန်	-10.3685
▁ဒေသအခေါ်မှာ	-10.3688
အုံး	-10.3688
တင်မြှောက်	-10.369
▁ဗိုလ်မှူး	-10.3697
▁ရည်ရွယ်	-10.3697
▁အဆောက်အဦး	-10.3703
▁ရောက်လာ	-10.3705
ခြင်းခံရသည်။	-10.3707
▁အချက်အလက်	-10.3708
▁တင်သွင်း	-10.371
သင်ကြား	-10.3712
အရေအတွက်	-10.3714
▁လေကြောင်းလိုင်း	-10.3721
▁နားဖန်းမြို့နယ်	-10.3722
ဂီ	-10.3725
▁အပ်	-10.3728
တုန်း	-10.3728
▁ကျေးလက်	-10.3736
▁ပေးပို့	-10.3738
▁၁၉၇၁	-10.3739
ခြုံ	-10.3739
ခု၊	-10.3744
▁ပြည်သူ	-10.3745
တော်ကြီး	-10.3747
▁ဟင်း	-10.3749
▁ဖြစ်သော်လည်း	-10.375
▁ဂျ	-10.3753
▁ဗိုလ်မှူးကြီး	-10.3755
နိုင်ငံများတွင်	-10.3756
ဆိတ်	-10.3758
°	-10.376
ကြို	-10.3762
ရတ်	-10.3763
ရှေး	-10.3763
▁သီး	-10.3764
ရာ၊	-10.3767
▁မိတ္ထီလာ	-10.3767
▁Thar	-10.3768
▁၅၁	-10.3771
▁ကျေး	-10.3773
ဒီမိုကရေစီ	-10.3774
ကျောင်းသား	-10.3776
▁၂၀၂၁	-10.3778
ပါဝင်သော	-10.3783
▁တစ်ခုဖြစ်သည်။	-10.3785
အနေအထား	-10.3793
▁ဂျာမနီနိုင်ငံ	-10.3797
ကွယ်လွန်	-10.3797
သိုက်	-10.3798
▁ဆက်ခံ	-10.3798
ထော်	-10.38
ဒီပဲယင်းမြို့နယ်	-10.38
▁စတုတ္ထ	-10.3804
▁စတင်၍	-10.3812
များထက်	-10.3819
▁ဂြိုဟ်	-10.3822
သွားပြီး	-10.3822
းကျေးရွာအုပ်စု	-10.3823
ကြံ	-10.3828
▁ပြန်လာ	-10.3832
▁သေနတ်	-10.3833
▁ပလောင်	-10.3833
▁ဆိတ်	-10.3834
ဒု	-10.3839
▁ဗာ	-10.384
▁ဟုခေါ်သည်။	-10.3841
▁ဆိုလိုသည်။	-10.3846
▁၁၉၈၃	-10.3852
နီးပါး	-10.3854
▁To	-10.3855
ယဉ်	-10.3855
ကြသည်	-10.3856
ပါတယ်	-10.3856
ပေးသည့်	-10.3857
တို့ကိုလည်း	-10.3866
▁ပယ်	-10.3866
နန်းတော်	-10.3867
▁လျှောက်	-10.3868
▁အသုံးပြုသော	-10.3874
▁ပုဂ္ဂလိက	-10.3875
▁အမြဲတမ်း	-10.3876
▁ကျွန်	-10.388
ခွဲခြား	-10.388
▁တောင်ဘက်တွင်	-10.3885
နေကြသည်။	-10.3886
▁မောင်း	-10.389
နောက်ပိုင်း	-10.3893
ဦးစီးဌာန	-10.3894
များကဲ့သို့	-10.3895
နေခြင်း	-10.3896
13	-10.39
▁ပြောကြား	-10.3901
▁၅၈	-10.391
▁မောင်းထောင်	-10.391
▁စစ်ဆင်ရေး	-10.3911
▁တို့ဖြစ်သည်။	-10.3912
ဇန်	-10.3915
▁ပုဏ္ဏား	-10.3917
▁၁၉၈၆	-10.3917
ဗဟို	-10.3922
တို့ဖြစ်သည်။	-10.3927
ထန်	-10.3928
နမ်	-10.393
▁ဓာတုဗေဒ	-10.393
▁အရေအတွက်	-10.393
▁ဘဝဇာတ်ကြောင်း	-10.3932
နိုး	-10.3932
စစ်တပ်	-10.3932
▁ရှမ်းပြည်	-10.3937
▁အသေးစိတ်	-10.3937
▁၁၉၃၈	-10.3937
▁တူးဖော်	-10.3942
14	-10.3946
▁ဆားလင်းကြီး	-10.3951
▁နန်းယွန်း	-10.3952
သည့်အတိုင်း	-10.3953
▁သဘောထား	-10.3955
▁မုန့်	-10.3957
ဒိုင်	-10.3957
▁ဤသို့ဖြင့်	-10.3966
ရပြီး	-10.397
ကျောက်စာ	-10.397
ပြွန်	-10.397
သိမ်းပိုက်	-10.397
▁အကျယ်	-10.3974
▁Kyauk	-10.3974
▁ဖြတ်သန်း	-10.3975
▁အယ်	-10.3975
▁စောင်း	-10.398
ကြပ်	-10.3986
ကျင်းရွာ	-10.3986
▁ယာဉ်	-10.3986
▁ဧရိယာသည်	-10.3987
နိုင်ငံတော်သမ္မတ	-10.3988
▁အရှေ့ပိုင်း	-10.3989
ချီးမြှင့်	-10.399
စစ်ဆေး	-10.3993
ဆိုသူ	-10.3994
▁မိုးနဲမြို့နယ်	-10.3998
တီထွင်	-10.3999
တွင်းသို့	-10.4001
အဓိက	-10.4003
ဒေး	-10.4008
▁ကော့သောင်း	-10.401
တစ်ခုမှာ	-10.401
de	-10.4014
ပုံ၊	-10.4017
စွမ်းအင်	-10.402
▁ကလေးမြို့နယ်	-10.4024
▁အဆင့်မြင့်	-10.4027
ဘယ်	-10.4029
▁ဝတ်	-10.4033
▁မြို့သစ်	-10.4035
ထဲက	-10.4036
ဩ	-10.4037
▁တင်း	-10.4039
ဘီး	-10.4039
▁ကောင်းမွန်	-10.4043
ရက်တွင်	-10.4044
▁ကွင်း	-10.4052
▁၁၉၇၉	-10.4052
▁ဖား	-10.4054
▁အလေးချိန်	-10.4055
▁ကိုယ်စားပြု	-10.4057
ရှူး	-10.4057
▁ဖြေရှင်း	-10.4059
ရွေး	-10.406
▁ကဲ့သို့	-10.406
မှုဖြင့်	-10.4065
▁ပြိုင်ပွဲ	-10.4066
သား၊	-10.4067
ဒေသ၊	-10.4074
▁မည်သို့	-10.4076
ကမူ	-10.4076
▁နှုတ်	-10.4082
ယုံကြည်	-10.4084
▁ခရစ်နှစ်	-10.4089
နိမ့်	-10.4089
မဟုတ်ဘဲ	-10.4089
▁ဥပမာအားဖြင့်	-10.4091
▁အကူအညီ	-10.4096
25	-10.4098
▁ဦးဘ	-10.4099
lo	-10.41
ဒစ်	-10.4102
ရင့်	-10.4112
▁စာမျက်နှာ	-10.4113
ရမ်	-10.4118
▁တီး	-10.4121
▁ကြီးမား	-10.4121
နိုင်ငံတော်	-10.4121
▁ကြီးမားသော	-10.4128
ရှန်း	-10.4128
▁မီးရထား	-10.4137
ပုန်း	-10.4143
▁သီရိ	-10.4144
ဘုန်း	-10.4145
လာခြင်း	-10.4148
ive	-10.4149
ဖြစ်သောကြောင့်	-10.4152
▁ပြည်မြို့နယ်	-10.4152
▁ငါ့	-10.4155
▁၁၉၃၆	-10.4156
▁အစားအစာ	-10.4159
▁အချို့က	-10.4161
▁ရှား	-10.4164
ဇာတိ	-10.4167
▁ကမ်းရိုးတန်း	-10.4167
လေးရွာ	-10.4171
▁ဟိ	-10.4178
▁Me	-10.418
အချက်	-10.4182
လိုက်လေသည်။	-10.4183
တွေ့ရ	-10.4194
▁နောက်ဆုံးဘဝ	-10.4194
မြောင်း	-10.4195
ရပ်ကွက်တွင်	-10.4199
▁အကောင်အထည်ဖော်	-10.4204
▁အာသဝေါကုန်ခမ်း	-10.4205
ဆက်သွယ်ရေး	-10.4205
ဆွေးနွေး	-10.4208
▁ဖြစ်တော်မူ၏။	-10.4209
တိုင်းတွင်	-10.4212
▁သိမ်းယူ	-10.4216
▁တိုက်တွန်း	-10.4218
နည်းဖြင့်	-10.4218
ဗစ်	-10.4221
▁မွေးချင်း	-10.4223
▁အသုံးပြုခြင်း	-10.4234
ian	-10.4235
▁ဗဟိုကော်မတီ	-10.4239
ကွေ့	-10.4244
24	-10.4248
005	-10.4248
▁ပထမအကြိမ်	-10.4251
နိုင်ခဲ့	-10.4254
▁များတွင်	-10.4255
ter	-10.4256
▁သာသနာတော်ရှိ	-10.4257
▁́	-10.4257
11	-10.4258
ပုဒ်	-10.4262
ပြတိုက်	-10.4265
▁ရည်ရွယ်ချက်	-10.427
_	-10.4272
ဆိုလျှင်	-10.4275
▁အနေနှင့်	-10.4277
▁ယနေ့ခေတ်	-10.428
▁ဖွားမြင်သည်။	-10.4284
ထားပါသည်။	-10.4287
ary	-10.429
ရှ်	-10.429
လမ်	-10.429
ဒက်	-10.4293
▁Ah	-10.4296
▁လှည့်လည်	-10.4298
▁အစား	-10.4298
အမြင့်	-10.4299
အထူး	-10.4299
မူကား	-10.4301
ကျသော	-10.4302
ရိုးရာ	-10.4302
▁ရွေးကောက်	-10.4303
▁မဟာမိတ်	-10.4304
▁ပုလောမြို့နယ်	-10.4307
▁လက်ပန်	-10.4317
ကိရိယာ	-10.432
▁မြစ်ဝကျွန်းပေါ်	-10.432
▁ပုသိမ်ကြီး	-10.4322
မှာတော့	-10.4323
▁လယ်ယာ	-10.4323
နမ့်ခမ်းမြို့နယ်	-10.4324
▁ငါန်းဇွန်	-10.4324
▁ဇီဝ	-10.4324
▁ချီတက်	-10.4326
▁အဖွဲ့အစည်းများ	-10.4333
လာကြ	-10.4339
▁ယေဘုယျအားဖြင့်	-10.4339
▁ယင်းကို	-10.4343
များဖြစ်ကြသည်။	-10.4343
21	-10.4345
▁ကွယ်လွန်ခဲ့သည်။	-10.4349
▁သတိ	-10.4351
ရောက်ရှိ	-10.4355
▁နိုင်ငံများ	-10.4356
▁ဂုဏ်ပြု	-10.4358
▁စည်းရုံး	-10.436
လော်	-10.4364
▁ပင်စည်	-10.4364
▁ထားရှိ	-10.4367
▁ဘဏ်	-10.4368
သဘာဝ	-10.4368
နေသူ	-10.4369
နယ်ပယ်	-10.4371
အဖွဲ့၏	-10.4372
ဖြေ	-10.4372
ကာလတွင်	-10.4373
▁ဝတ္ထုတို	-10.4373
ကဲ့သို့ပင်	-10.4374
▁သပိတ်	-10.4374
▁Ye	-10.4379
ဆူး	-10.4383
▁ယင်းတို့၏	-10.4383
16	-10.4384
▁ကူးစက်	-10.4384
▁ဦးနှောက်	-10.4387
ဖွင့်လှစ်	-10.439
▁တစ်ကြိမ်	-10.4395
▁အရာတော်မြို့နယ်	-10.4398
ငံ	-10.4398
▁ဆင်းရဲ	-10.4399
▁ဂျာမနီ	-10.4402
▁အနု	-10.4402
ရှိကြောင်း	-10.4403
အမျိုး	-10.4405
စာတမ်း	-10.4408
▁အရေပြား	-10.4409
များအပြင်	-10.4409
ရိပ်	-10.4414
▁အယူအဆ	-10.4414
အိတ်	-10.4418
▁ပိတ်	-10.4419
▁ငယ်	-10.4425
မှုအတွက်	-10.4429
▁တစ်ဖက်	-10.4431
▁အက်တမ်	-10.4434
▁ကော်မရှင်	-10.4448
▁အနိုင်ရ	-10.4452
သော်၎င်း၊	-10.4453
▁အရွယ်အစား	-10.4455
▁ညီ	-10.4457
ပြည်သူ့	-10.4458
▁နန်းတွင်း	-10.4459
▁နာမည်ကြီး	-10.4465
ပ္ပ	-10.4466
ကျင့်	-10.4468
▁အခွန်	-10.4468
ရီးယား	-10.447
တစ်ခုအဖြစ်	-10.4476
ထိန်	-10.4477
▁ကျဆုံး	-10.448
▁ထောက်	-10.4485
▁နှင့်အတူ	-10.4485
မှား	-10.4486
ဝဂ်	-10.4488
▁ထွက်ပြေး	-10.4489
ထိုင်း	-10.449
▁ပုလဲ	-10.4492
▁ထားဝယ်	-10.4495
ဝန်ထမ်း	-10.4501
များအပေါ်	-10.4501
▁အကြိမ်ကြိမ်	-10.4501
▁ပိန်း	-10.4502
နှင့်စပ်လျဉ်း၍	-10.4507
▁ကံမမြို့နယ်	-10.4507
ရှောင်	-10.4512
▁ထမင်း	-10.4514
ငြိမ်းချမ်းရေး	-10.4514
ဒဏ္ဍာရီ	-10.4516
▁ဘို	-10.4521
ကျန်း	-10.4522
▁အောင်မြင်စွာ	-10.4522
▁from	-10.4527
နန္ဒ	-10.4528
▁တူရိယာ	-10.4528
ပင်း	-10.453
▁လက်ထောက်	-10.4533
ဆိုတာ	-10.4536
▁နေရာတွင်	-10.4538
▁အရက်	-10.454
ul	-10.4541
▁ရူပဗေဒ	-10.4542
မရှိသော	-10.4543
ရန်း	-10.4545
ကျွန်းရွာ	-10.4545
▁မန်း	-10.4549
▁စိုးရိမ်	-10.4549
များသာ	-10.4558
▁လက်မှတ်ရေးထိုး	-10.4559
▁၁၉၆၆	-10.456
တွင်ရှိသော	-10.4563
ရှိပါသည်။	-10.4567
ဒေါင်း	-10.4567
တွေမှာ	-10.4569
▁တွက်ချက်	-10.4571
▁တီးဝိုင်းများ	-10.4576
▁တွေ့ရှိရသည်။	-10.4579
တွေနဲ့	-10.458
လျှံ	-10.4582
▁အဖြူရောင်	-10.4586
ထားခြင်းဖြစ်သည်။	-10.4587
▁စခန်း	-10.4588
▁ခုနှစ်အတွင်း	-10.459
▁ပြန်ဆို	-10.4594
▁သင်္ကန်း	-10.4597
စော်ဘွား	-10.4603
အလယ်ပိုင်း	-10.4609
ဇာတ်ကား	-10.4613
ရှိခဲ့သည်။	-10.4614
▁ကော	-10.4615
sh	-10.4615
▁ဟူ	-10.4617
▁တေ	-10.4618
▁ရောက်သောအခါ	-10.4623
ဝဝ	-10.4626
ဆိုသည့်	-10.4628
▁သံမဏိ	-10.4628
ူ	-10.4629
အင်္ဂါ	-10.463
စေ၏။	-10.4634
▁19	-10.4637
▁၅ဝ	-10.4643
▁သရက်ချောင်း	-10.4646
▁၁၉၇၆	-10.4652
▁အခမ်းအနား	-10.4662
▁၁၉၇၈	-10.467
▁ခန္တီးခရိုင်	-10.4671
အမည်ဖြင့်	-10.4676
ကျန်းမာရေး	-10.4677
သရ	-10.4679
▁ဥပ	-10.4679
▁၁၉၈၁	-10.4679
▁ကွန်ယက်	-10.4681
စလုံး	-10.4686
▁တေး	-10.4689
ကျောင်းတွင်	-10.4697
ရှိသော်လည်း	-10.4706
▁ဆိုသော	-10.4706
▁၁၉၈၄	-10.4708
ခဲ့သည်မှာ	-10.4709
ဘုရားထက်ထက်	-10.4712
တို့သည်လည်း	-10.4715
ဖယ်	-10.4721
▁သုံးသပ်	-10.4725
▁ဂုဏ်	-10.473
▁တဦး	-10.4737
နော့	-10.474
▁ငယ်ဘဝ	-10.4741
လိန်	-10.4743
▁ပိုင်ဆိုင်	-10.4747
▁ပေါ်ထွက်လာ	-10.4748
အချိန်တွင်	-10.4748
▁ပျူ	-10.4749
▁အစိုးရအဖွဲ့	-10.4751
ha	-10.4754
▁ဆင်ပေါင်ဝဲ	-10.4754
▁၇။	-10.4755
aung	-10.4763
▁ကူး	-10.4764
ak	-10.4769
▁Al	-10.4771
▁လွတ်လပ်သော	-10.4773
ထွန်းကား	-10.4774
▁X	-10.4775
land	-10.4776
▁ပတ္တမြား	-10.4777
▁လက်အောက်ခံ	-10.4778
▁၁၉၃၇	-10.4781
တ္တ	-10.4784
သူ၊	-10.4787
ပွ	-10.4789
▁သမ္မတနိုင်ငံ	-10.4792
ပိုင်ရှင်	-10.4793
ဒဲ	-10.4796
▁တော်လှန်	-10.4796
▁စိစစ်	-10.4797
▁မု	-10.4799
▁မှတ်ပုံတင်	-10.48
လေ့ရှိ	-10.48
အုံ	-10.4803
▁သင့်	-10.4803
ဂျစ်	-10.4805
ဂျင်	-10.4805
သိက္ခာပုဒ်	-10.4805
ပူး	-10.4807
▁ကျောက်မီးသွေး	-10.4807
ခြင်းတို့ကို	-10.4814
ا	-10.4817
နိုင်မှု	-10.4819
▁ဘုရားကျောင်း	-10.4819
▁ကလေးခရိုင်	-10.4822
▁စပ်	-10.4824
▁ဝင်ငွေ	-10.4826
ကာကွယ်	-10.4828
▁ကိုလိုနီ	-10.4829
▁ကြံစည်	-10.4829
▁ကိရိယာ	-10.4834
နိုင်ရန်အတွက်	-10.4841
▁ဩစတြေးလျ	-10.4841
စပါး	-10.4842
▁ဘုရားရှင်	-10.4843
မင်း၏	-10.4844
အဖွဲ့သည်	-10.4846
ကမ်းခြေ	-10.4855
▁ပြင်ပ	-10.4859
မိန်းမ	-10.4861
▁အစ္စလာမ်	-10.4866
ကာကွယ်ရေး	-10.4867
age	-10.4869
သူဖြစ်သည်။	-10.4876
သီလ	-10.4879
ခြင်းမှ	-10.4886
▁ညှိနှိုင်း	-10.4892
မရှိဘဲ	-10.4894
ဟွေ	-10.4895
▁မီးလောင်	-10.4897
ဟ်	-10.4898
▁မီလီယံ	-10.49
▁အဆုံးသတ်	-10.4903
မဖြစ်	-10.4908
▁အချင်း	-10.4908
12	-10.4913
ဒေသများတွင်	-10.4914
ဇံ	-10.4915
▁စသည်	-10.4922
▁၁၉၄၄	-10.4927
နွား	-10.4929
▁၁၉၈၂	-10.4931
▁ကုန်းဘောင်ခေတ်	-10.4936
ရွတ်	-10.4939
▁မွေးဖွားသည်။	-10.494
ရွန်	-10.4944
အယ်	-10.495
အောင်မြင်ခဲ့သည်။	-10.4953
▁ဖြန့်ချိ	-10.4959
ဠ	-10.496
ရပါသည်။	-10.4961
ပျော်	-10.4961
▁ချန်	-10.4963
ဆွ	-10.4963
▁ဘဝနိဂုံး	-10.4965
ies	-10.4971
ငါ	-10.4974
အမှု	-10.498
ဆုတ်	-10.4981
မျဉ်း	-10.4983
be	-10.4983
နိုင်း	-10.4986
▁နည်းပါး	-10.4987
နိုင်ကြောင်း	-10.4993
ထမ်းဆောင်ခဲ့သည်။	-10.4993
ဇီး	-10.4996
အစိုးရက	-10.4996
▁ဤကဲ့သို့	-10.4998
▁အင်္ဂါ	-10.5003
ဒဏ်	-10.5003
ထုတ်ဝေ	-10.5003
▁ကွယ်လွန်သည်။	-10.5004
စာရေးဆရာ	-10.5005
22	-10.5005
▁အစိုးရ၏	-10.5011
ကိုင်းရွာ	-10.5011
▁ရှေးက	-10.5019
ဂဏန်း	-10.5019
we	-10.5023
▁ရရှိသည်။	-10.5026
▁ငရဲ	-10.5027
သဘင်	-10.5029
လျား	-10.5031
ဒေဝီ	-10.5031
pe	-10.5033
ဖုံး	-10.5035
ဟတ်	-10.5035
mo	-10.5036
ရှိန်	-10.5036
▁မြေပြင်	-10.5038
ရုံးစိုက်ရာမြို့	-10.5046
▁ကပြ	-10.5047
▁တိုကျို	-10.5058
“	-10.5063
ရွေးကောက်ပွဲ	-10.5063
▁တန်ခိုး	-10.5066
သာရ	-10.5069
▁အလားတူ	-10.5075
လိမ်	-10.5075
▁၆၄	-10.5077
04	-10.5077
▁ဝေါမြို့နယ်	-10.5078
▁ဆရာဝန်	-10.508
▁ဧရာဝတီ	-10.5081
တပ်များ	-10.5082
op	-10.5083
ခုံး	-10.5088
▁ကုန်သွယ်ရေး	-10.5089
▁အကြား	-10.5093
ဖြစ်နေ	-10.5097
▁လူ့အခွင့်အရေး	-10.5098
ut	-10.5101
▁မျက်	-10.5101
လုပ်ကိုင်ခဲ့သည်။	-10.5103
စီမံ	-10.5103
စေ၍	-10.5111
▁အမြောက်အမြား	-10.5115
▁ခင်ဦးမြို့နယ်	-10.5118
▁ကျွမ်းကျင်	-10.5118
▁ရုတ်တရက်	-10.5119
▁ဓနု	-10.5119
ခြမ်း	-10.5119
တတ်၏။	-10.5121
▁လမ်းကြောင်း	-10.5124
ရသူ	-10.5126
ဖြစ်စဉ်	-10.5126
▁၂ဝဝ	-10.5126
စတန်	-10.5127
▁ပင်မ	-10.5128
ate	-10.5131
နှစ်ပါး	-10.5133
ပြုပြင်ပြောင်းလဲ	-10.5133
နှင်	-10.5134
များသည်လည်း	-10.5134
▁စည်းကမ်း	-10.5134
များနှင့်အတူ	-10.5135
▁ရိုးရိုး	-10.5136
▁ချီဖွေမြို့နယ်	-10.5137
▁ထုတ်လွှင့်	-10.514
တ္ထ	-10.5142
007	-10.5143
▁`	-10.5144
မံ	-10.5147
▁နိဗ္ဗာန်	-10.515
အီး	-10.5156
▁စာအုပ်များ	-10.5156
▁ရေကန်	-10.5164
▁ပြေး	-10.5181
စို	-10.5182
ဒေါ့	-10.5182
▁တောင်း	-10.5186
▁အဓိကအားဖြင့်	-10.5186
▁မင်းဘူးမြို့နယ်	-10.5187
▁နီ	-10.5188
▁၁၉၄၀	-10.519
ကိုပါ	-10.5191
သရက်	-10.5194
ထားတဲ့	-10.5199
ွ	-10.52
▁သင်္ကေတ	-10.5201
ကျေး	-10.5201
▁တစ်စတုရန်း	-10.5204
ချက်များကို	-10.5204
ment	-10.5204
▁တံခါး	-10.5207
▁w	-10.5217
▁သရက်မြို့နယ်	-10.5218
ိက	-10.5221
▁ဘိန်း	-10.5223
▁ထိုင်	-10.5223
▁ရှေးဦးစွာ	-10.5228
▁ကာဗွန်	-10.5229
▁သမဂ္ဂ	-10.5235
ကိုးကွယ်	-10.5239
▁စိတ်ဓာတ်	-10.5241
▁နို့	-10.5243
ကိ	-10.5243
စွယ်	-10.5245
လူထု	-10.5247
စစ်ဆင်ရေး	-10.5247
▁ရတနာပုံ	-10.5248
▁အရည်အသွေး	-10.5253
▁အယူဝါဒ	-10.5254
▁ပါရှိသည်။	-10.5255
တို့လည်း	-10.5255
▁မလေးရှား	-10.5256
▁ပညာရှိ	-10.5257
ဋ	-10.5258
▁ဖေါ်ပြ	-10.526
ပျော့	-10.5261
ထီ	-10.5263
လုံကျေးရွာအုပ်စု	-10.5268
ချယ်	-10.5269
နေတဲ့	-10.5274
ကွေး	-10.5275
▁၁ဝဝ	-10.5277
ပိန်း	-10.5277
ကီလိုမီတာလျှင်	-10.5291
▁ရာဇ	-10.5294
ya	-10.5296
▁ဖွင့်	-10.5299
▁တို့မှ	-10.53
no	-10.53
▁အာရုံ	-10.5301
ပြည်နယ်၊	-10.5301
▁ရေတပ်	-10.5301
ထည့်သွင်း	-10.5302
ကျွန်းဆွယ်	-10.5305
▁အခြေခံဥပဒေ	-10.5307
▁လွန်ခဲ့သော	-10.5312
▁ဆောင်းပါးများ	-10.5319
▁အင်္ဂလန်ပြည်	-10.532
တွေ့ရှိ	-10.5321
▁အစွဲပြု၍	-10.5323
ပစ္စည်းများကို	-10.5324
▁၁၉၇၇	-10.5333
▁မြို့နေလူဦးရေ	-10.5335
▁Ga	-10.5338
လူငယ်	-10.5339
ပုပ်	-10.5344
▁ရင်းနှီး	-10.5349
▁ဗြဟ္မာ	-10.5356
ဂ္ဂ	-10.5358
ပါဝင်သည့်	-10.5359
▁အပင်များ	-10.536
လမ်းစဉ်	-10.5362
▁ဌာနချုပ်	-10.5364
▁မွေးမြူ	-10.5369
▁ရွေး	-10.5381
▁လူမျိုးများ	-10.5383
01	-10.5386
များပေါ်တွင်	-10.5394
ရမည်ဟု	-10.5396
05	-10.5397
▁သိပ္ပံပညာရှင်	-10.5401
▁ဒေါင်း	-10.5402
▁ကသာမြို့နယ်	-10.5403
▁လက်ပံ	-10.5403
လှုပ်ရှားမှုများ	-10.5403
▁လူနာ	-10.5404
▁ဘုရင်ခံ	-10.5405
▁ယင်းတို့ကို	-10.5406
ပင်ရွာ	-10.5407
တန်းရွာ	-10.5408
▁မော	-10.541
စွမ်း	-10.5412
ကွမ်းလုံမြို့နယ်	-10.5412
▁သူက	-10.5415
ပညာရပ်	-10.5415
io	-10.5421
ယုတ်	-10.5422
ရော်	-10.5424
ဆရာကြီး	-10.5425
▁ကိန်း	-10.5427
မှန်း	-10.5428
ရှိလေသည်။	-10.5429
▁ထိခိုက်	-10.5431
▁သို့ဖြင့်	-10.5431
▁ကာတွန်း	-10.5433
▁ထိုအချိန်က	-10.5434
▁ညီလာခံ	-10.5436
မြို့ဟောင်း	-10.5436
▁Mo	-10.5439
go	-10.5441
တွင်းရှိ	-10.5452
▁ထားဝယ်ခရိုင်၊	-10.5453
ဝေဖန်	-10.5456
နေရာမှ	-10.5461
ကျင့်သုံး	-10.5464
▁နန်းတက်	-10.5465
အပြီးတွင်	-10.5465
▁၁၉၃၅	-10.5467
လာ၍	-10.5467
ယွန်	-10.5468
မြောင်	-10.5469
▁ကန့်ဘလူခရိုင်	-10.547
▁ဖွဲ့	-10.5471
အင်းရွာ	-10.5476
အသီးသီး	-10.5476
▁၄ဝ	-10.5479
▁တည်နေရာ	-10.548
▁၁၉၃၀	-10.5481
▁၁၉၈၇	-10.5486
ge	-10.5494
အပင်	-10.5494
ဘီလူး	-10.5495
တယ်လို့	-10.5496
အိုင်ရွာ	-10.5496
▁Ra	-10.55
နေရ	-10.5504
▁လူတို့၏	-10.5504
တစ်ခုဖြစ်ပြီး	-10.5505
တွက်	-10.5509
ပြို	-10.551
▁မူလက	-10.5512
သမိုင်းတွင်	-10.5514
▁နိုင်ငံခြားသား	-10.5516
▁ဖောက်	-10.5516
နိုင်သဖြင့်	-10.5521
▁ဖလမ်းခရိုင်	-10.5526
ဆန့်ကျင်	-10.5526
နှင်း	-10.5529
▁မြေကြီး	-10.5532
အဖွဲ့ကို	-10.5532
▁သတ်ဖြတ်	-10.5538
▁အနေအထား	-10.5539
▁အရေးပါ	-10.554
ဆုံးဖြတ်	-10.554
စေး	-10.5544
နှံ	-10.5544
ပေး၍	-10.5544
တော်မူခဲ့သည်။	-10.5545
ot	-10.5545
▁ပြတိုက်	-10.5545
▁ကောင်းကင်	-10.5554
မှနေ၍	-10.5556
▁လောက်	-10.5565
▁ရေးမြို့နယ်	-10.5566
▁အဆင့်အတန်း	-10.5566
▁ကန့်	-10.5567
ဗင်	-10.5569
▁မီဒီယာ	-10.557
▁တွေ့ရှိရ	-10.5571
▁စာကြည့်တိုက်	-10.5572
တစ်မျိုးဖြစ်သည်။	-10.5577
ကြုံ	-10.5581
▁လှည်း	-10.5581
ဆိပ်ကမ်း	-10.5582
▁Le	-10.5582
ယပ်	-10.5583
▁ကြသည်။	-10.5583
အံ့	-10.5584
▁ထွန်း	-10.5585
▁တစ်နှစ်လျှင်	-10.5589
နိုင်ငံသည်	-10.5595
တည်ရှိသည်။	-10.5596
ဆက်လက်	-10.5599
မကျ	-10.56
▁အုပ်ချုပ်မှု	-10.56
ခြင်းမရှိ	-10.5607
ac	-10.5608
ပြဿနာ	-10.5608
ကျွဲ	-10.5609
အစိတ်အပိုင်းများ	-10.561
ကိုယ်စားလှယ်များ	-10.5614
ကာတွန်း	-10.5617
သာရွာ	-10.562
ကြည့်ရှု	-10.5622
▁တိုးတက်လာ	-10.5622
ဗတ်	-10.5625
▁ပုသိမ်	-10.5626
26	-10.5626
စောက်	-10.5629
ဝကျေးရွာအုပ်စု	-10.5629
စီရင်	-10.563
အတွင်းမှ	-10.5631
အဖြစ်လည်းကောင်း၊	-10.5636
▁မြန်မာသက္ကရာဇ်	-10.5639
▁နောင်တွင်	-10.5645
ဖြင့်သာ	-10.5645
လာလေသည်။	-10.5649
▁ဆံပင်	-10.5651
ပြဇာတ်	-10.5653
ဧက	-10.5653
▁ရေတံခွန်	-10.5654
စာရေး	-10.5656
မျိုးဖြစ်သည်။	-10.5659
ဖဲ	-10.5659
▁တိ	-10.5663
တက်ရောက်	-10.5665
▁ကင်	-10.5666
ဆက်ဆံရေး	-10.5666
▁လူဦးရေသိပ်သည်းဆ	-10.5666
▁ရော	-10.5669
▁သို့ဖြစ်၍	-10.567
▁သာသနာတော်	-10.567
co	-10.5675
တစ်ကောင်	-10.5675
တော်မူသော	-10.5676
▁သံဃာ	-10.5679
▁အလင်းနှစ်	-10.5679
▁ပလက်ဝမြို့နယ်၊	-10.5681
▁ရှေ့နေ	-10.5682
▁ဖြေ	-10.5683
▁ဆင်းသက်	-10.5683
အချို့ကို	-10.5684
မျက်နှာပြင်	-10.5684
သာသနာ	-10.5684
▁အခြေ	-10.5685
ဆက်သွယ်	-10.5685
▁လျှပ်စစ်ဓာတ်	-10.5689
▁ဖောက်လုပ်	-10.5689
▁Ha	-10.569
▁ကြော်ငြာ	-10.569
▁မြင့်	-10.5691
ကောင်းသော	-10.5692
▁တဆင့်	-10.5695
ဆိုသော်	-10.5695
ဆော့လော်မြို့နယ်	-10.5696
▁ရွှေကျင်	-10.5696
17	-10.5697
လိုက်သောအခါ	-10.57
ke	-10.5701
မို့	-10.5706
▁ညနေ	-10.5707
▁လေ့ကျင့်	-10.5712
တီးဝိုင်း	-10.5718
mi	-10.5719
da	-10.5722
▁ရောက်ရှိခဲ့သည်။	-10.5724
တော့ဘဲ	-10.5729
▁ဆိုတာ	-10.573
▁ရွှေဘို	-10.5733
ရှိနေ	-10.5734
▁တူညီ	-10.574
ယှဉ်ပြိုင်	-10.5742
ခံရခြင်း	-10.5744
▁အဆီ	-10.5745
ကာလအတွင်း	-10.5745
သီဆို	-10.5746
ဘင်	-10.5748
ာက်	-10.5749
▁ဝိုင်း	-10.5752
▁နယ်ပယ်	-10.5753
▁m	-10.5757
▁အကြိမ်	-10.5758
အကောင်းဆုံး	-10.576
တရာ	-10.577
▁ငယ်စဉ်က	-10.5773
ဂေါ	-10.5774
▁ထို့နောက်တွင်	-10.5776
▁Li	-10.5781
ပွဲများ	-10.5781
▁အချိန်ကာလ	-10.5783
ကမ္ဘာ့	-10.5785
▁Nyaung	-10.5787
သျှ	-10.5789
ကုတ်	-10.5791
▁ကမ်းခြေ	-10.5791
▁လွှတ်	-10.5791
▁တောင်ကုန်း	-10.5792
ပြစ်	-10.5792
မြင်းခြံမြို့နယ်	-10.5793
▁လုပ်ကြံ	-10.5794
▁မိတ်ဆွေ	-10.5798
▁လုပ်ငန်းများကို	-10.5801
ခဲ့ဖူးသည်။	-10.5801
မျိုးတွင်	-10.5801
သာကျေးရွာအုပ်စု	-10.5815
▁ပြည်မြို့	-10.5819
▁အဝတ်	-10.582
ခန်	-10.5821
▁မြို့၏	-10.5828
▁မယား	-10.5829
▁ခေတ်မီ	-10.5829
▁အမှန်	-10.5834
▁ဆိပ်ဖြူမြို့နယ်	-10.5834
လှူ	-10.5834
▁ရှု	-10.5835
▁၁၉၄၃	-10.584
23	-10.5842
▁တံဆိပ်	-10.5843
သွားလေသည်။	-10.5845
ဘုန်းကြီးကျောင်း	-10.5852
▁ဂျူး	-10.5856
▁အတွေးအခေါ်	-10.5859
02	-10.5862
▁ကျင်	-10.587
အုတ်	-10.5874
တည့်	-10.5876
ဟီး	-10.5876
▁နေထိုင်ကြသည်။	-10.5878
▁လက္ခဏာ	-10.588
စေသည့်	-10.5882
▁အနောက်ပိုင်း	-10.5882
ဝရွာ	-10.5885
▁လှိုင်း	-10.5885
▁ပြည်သူလူထု	-10.5886
လင့်	-10.5887
▁လောင်	-10.5887
လူမျိုးတို့သည်	-10.5888
လိမ့်မည်။	-10.5888
လွတ်လပ်ရေး	-10.5891
ကက်	-10.5892
▁သိမ်	-10.5894
ဗုဒ္ဓဘာသာ	-10.5895
19	-10.5897
▁အတ္ထုပ္ပတ္တိ	-10.5897
▁ဟောပြော	-10.5905
မော့	-10.5908
▁လယ်ယာမြေ	-10.5909
▁ဒေ	-10.5909
▁၁၉၂၃	-10.5909
▁ပုဒ်မခွဲ	-10.5909
ခွ	-10.5911
ဂု	-10.5912
သိရှိ	-10.5913
ယွန်း	-10.5913
ကြီးများကို	-10.5915
10	-10.5916
ဟေ	-10.5919
▁New	-10.5919
▁ပါးစပ်	-10.592
▁အစ္စရေး	-10.5923
မုန့်	-10.5923
▁ရပ်တည်	-10.5924
▁ဟောကြား	-10.5925
▁ကမ္ဘာပေါ်ရှိ	-10.5931
▁ပျက်	-10.5936
ie	-10.594
▁အဖျား	-10.5941
ဘောလုံး	-10.5947
▁ဖွားမြင်ခဲ့သည်။	-10.5948
▁ဒိုင်	-10.5949
va	-10.5949
မြန်မာနိုင်ငံရှိ	-10.5951
35	-10.5951
ပွတ်	-10.5952
ဆွန်	-10.5956
▁ထုံး	-10.5957
စောင်	-10.5958
ချည်း	-10.5958
▁အိမ်ထောင်	-10.596
ဟင်	-10.5962
ဒင်း	-10.5963
▁၁၉၂၀	-10.5963
ကောင်းမွန်	-10.5965
▁နုတ်ထွက်	-10.5967
▁ကဏ္ဍ	-10.5967
ကျော	-10.5968
▁ရောနှော	-10.5969
▁နယ်စပ်	-10.597
နှစ်ယောက်	-10.5976
ချမ်း	-10.5977
▁ဆုံးဖြတ်ချက်	-10.5978
▁စိန့်	-10.5983
▁ချက်ချင်း	-10.5984
▁ဇီးကုန်း	-10.5987
▁အမှုဆောင်	-10.5993
ဝေါ	-10.5999
▁ပင်းတယမြို့နယ်	-10.6001
ဟူး	-10.6003
▁၈။	-10.6004
ကွမ်း	-10.6005
ကျရောက်	-10.6015
▁ခမိ	-10.6018
▁အလံ	-10.6019
▁ဆိပ်ကမ်း	-10.602
ကူညီ	-10.6022
▁သဲဖြူ	-10.6025
သိုင်း	-10.6025
▁အစည်းအရုံး	-10.6033
အပေါ်တွင်	-10.6034
အမည်မှာ	-10.6036
▁ဖြစ်သည်	-10.6037
▁ပထဝီဝင်	-10.6038
▁ဘီး	-10.6039
ချောက်	-10.604
▁လွယ်ကူ	-10.6042
▁တီးတိန်မြို့နယ်	-10.6043
▁အီတလီနိုင်ငံ	-10.6044
မီတာ	-10.6044
ဖြိုး	-10.6045
ဌေး	-10.6046
ပေါ်မှ	-10.6047
▁လွတ်	-10.6048
ကျိုင်းရွာ	-10.605
▁၁၉၂၄	-10.6051
▁Mi	-10.6052
ခဲ့ရာမှ	-10.6054
အင်ဂျင်နီယာ	-10.6054
ဆုကို	-10.6057
▁အရှည်	-10.6057
နုတ်	-10.6059
မုန်း	-10.6062
သူမှာ	-10.6062
နိုင်မည်	-10.6062
▁ရေကြောင်း	-10.6064
ပိုမို	-10.6066
အလို	-10.6067
မူလ	-10.6069
▁ဂရီဂေါရီးယန်း	-10.607
▁အမေရိကန်ဒေါ်လာ	-10.6074
ရောင်ခြည်	-10.6077
▁မြို့တစ်မြို့	-10.6077
▁လှ	-10.6079
သတ္တဝါ	-10.6083
ယင်	-10.6086
ရ၍	-10.6087
▁ပြုလုပ်ခဲ့သည်။	-10.6088
ခဲ့တယ်။	-10.6089
▁တို့နှင့်	-10.6095
ခဲ့သောကြောင့်	-10.6098
ညွတ်	-10.6098
▁ဗကပ	-10.6101
▁အက	-10.6101
▁ထိုဒေသ	-10.6107
▁အခမဲ့	-10.6114
စကားလုံး	-10.6116
▁မြိတ်မြို့နယ်	-10.6118
▁သခင်သန်းထွန်း	-10.6123
ကြီးမား	-10.6123
ပညာကို	-10.6125
▁တစ်နေ့	-10.6125
▁ဓာတ်ပုံ	-10.6127
▁ရုရှ	-10.6127
▁ထန်းတပင်	-10.6128
▁ပျံလွန်တော်မူ	-10.6128
ရသဖြင့်	-10.6133
ဝတီ	-10.6135
▁ကိုက်	-10.6135
▁အကျယ်အဝန်း	-10.614
as	-10.6141
ကုသ	-10.6141
▁ဝါဒ	-10.6145
▁ရှည်	-10.6149
ကေး	-10.6153
▁၁၉၁၈	-10.6155
18	-10.6157
တို့ကြောင့်	-10.6161
သစ္စာ	-10.6161
▁သန်းခေါင်စာရင်း	-10.6161
▁စကားပြော	-10.6164
▁သားရေ	-10.6165
▁ကန်ပက်လက်	-10.6166
▁၉၀	-10.6167
ပြီးသည့်နောက်	-10.6171
ဘာသာဖြင့်	-10.6174
မာန်	-10.6182
▁အချက်အလက်များ	-10.6182
▁ပို့ဆောင်	-10.6185
▁10	-10.6186
▁အတွဲ	-10.6186
▁စဉ့်ကူးမြို့နယ်	-10.619
▁အမည်ကို	-10.6191
▁လူတိုင်း	-10.6192
▁ပင်လယ်ရေ	-10.6193
များအကြား	-10.6193
▁ရောင်း	-10.6196
ခဲ့ရလေသည်။	-10.6201
ဖြာ	-10.6201
▁ပါဝင်ပြီး	-10.6204
▁အကြောင်းကို	-10.6209
▁လူသိများ	-10.6215
▁အိမ်ခြေ	-10.6215
အဖွဲ့က	-10.6216
ပြောက်	-10.6218
အန္တရာယ်	-10.6219
▁ပါရှိ	-10.6219
▁ဟောင်ကောင်	-10.6219
ပုံသဏ္ဌာန်	-10.6223
▁နှင်း	-10.6228
ဝန်ဆောင်မှု	-10.6228
31	-10.624
အဆုံး	-10.6242
စင်တာ	-10.6245
▁ရုပ်ပွားတော်	-10.6246
ပေးပြီး	-10.6247
နူး	-10.6249
20	-10.6252
လေယာဉ်	-10.6253
▁ပျား	-10.6254
တက္ကသိုလ်မှ	-10.6264
▁အခု	-10.6269
အက	-10.6269
▁မတ်လတွင်	-10.6274
ရယူ	-10.6276
ခေတ်တွင်	-10.628
▁ဂျေ	-10.6289
▁ရှိ၍	-10.6292
▁ခေတ္တ	-10.6292
လိမ့်မည်	-10.6295
ကြရန်	-10.6296
▁(2)	-10.63
ညွှန်ကြားရေးမှူး	-10.6301
▁၎င်းတို့မှာ	-10.6304
om	-10.6307
သူတို့၏	-10.6308
ပြီးနောက်တွင်	-10.6308
▁ကြီးကြပ်	-10.6309
သန့်	-10.6312
များကိုသာ	-10.6317
ပြီ။	-10.6318
▁မြင့်မား	-10.632
▁စီးပွား	-10.6321
ဂျပန်	-10.6322
▁အနီရောင်	-10.6325
▁လိင်	-10.6326
စိ	-10.6327
▁g	-10.6327
▁မြွေ	-10.6327
▁ယူဆကြသည်။	-10.6329
ကွဲပြား	-10.633
ve	-10.633
one	-10.6332
▁တူး	-10.6332
▁ဆန်စပါး	-10.6337
▁ယခုအခါတွင်	-10.6338
▁ပညာရပ်	-10.6338
▁ထောင့်	-10.6338
ခွင့်ရ	-10.634
မြို့နှင့်	-10.6343
ခွင့်ပြု	-10.6343
ခွာ	-10.6346
ဘာသာရပ်	-10.6352
▁သော်လည်း	-10.6353
▁ရခိုင်ပြည်နယ်	-10.6353
ထွေ	-10.6354
▁စည်	-10.6356
▁ပေါ	-10.6358
▁ကြယ်စုတန်းမှ	-10.636
▁စက်မှုလုပ်ငန်း	-10.636
ကြွယ်	-10.6361
▁တောင်ပေါ်	-10.6362
နှစ်သက်	-10.6363
အင်းတော်မြို့နယ်	-10.6363
ပြက္ခဒိန်အရ	-10.6365
အခွင့်အရေး	-10.6365
သစ်များ	-10.6367
ကျီး	-10.6368
အစည်းအဝေး	-10.6371
▁အတိအကျ	-10.6371
▁(1)	-10.6373
နိုင်သည်ဟု	-10.6375
▁ဗန်းမော်	-10.6384
နည်းကို	-10.6385
30	-10.6385
▁ရဲ့	-10.6387
အသွင်	-10.6388
▁ခိုး	-10.6388
▁၅၉	-10.639
ပေးခြင်း၊	-10.639
ယုံ	-10.639
ဗန်	-10.6392
▁တည်ဆောက်ခဲ့သည်။	-10.6395
▁အဖွဲ့ချုပ်	-10.641
▁ပိုင်	-10.6411
▁အီး	-10.6412
▁ဒီဇိုင်း	-10.6414
▁တတိယမြောက်	-10.6416
ဓား	-10.6416
▁ဦးအောင်	-10.6417
▁တရားမဝင်	-10.6418
တဦး	-10.6419
▁နက်	-10.6421
▁ရှိပါသည်။	-10.6422
▁အလင်းရောင်	-10.6423
▁ဆဲ	-10.6423
pa	-10.6426
▁၎င်းတို့သည်	-10.6433
▁ထီးချိုင့်	-10.6434
▁ဆောင်း	-10.6435
သေဆုံး	-10.6437
▁အစောဆုံး	-10.6437
နေဆဲ	-10.6442
▁၅၀၀	-10.6449
▁ဣ	-10.645
ခဲ့သေးသည်။	-10.645
▁Na	-10.6453
▁သမိုင်းဝင်	-10.6456
ခုနစ်	-10.6459
နီးယား	-10.6459
ဒုံ	-10.6462
အတတ်	-10.6463
ပြုခြင်း	-10.6466
▁ထုတ်ယူ	-10.6466
▁စင်း	-10.6467
တိမ်း	-10.6467
ni	-10.6469
များအတွင်း	-10.647
ဦးရေ	-10.6472
▁စီရင်	-10.6473
▁စင်	-10.6475
▁ပိုင်း	-10.6477
▁ကျီး	-10.6478
▁သူရဲကောင်း	-10.6482
ကိုလည်းကောင်း	-10.6483
▁နမ့်ဆန်မြို့နယ်	-10.6484
▁ကြည်	-10.6487
▁ဦးတည်	-10.6487
▁၎င်းရွာ	-10.649
29	-10.6496
▁လိုက်ပါ	-10.6501
တစ်နှစ်တာ	-10.6501
▁အလိုအလျောက်	-10.6503
▁မင်	-10.6503
တစ်ဦးဖြစ်သည်။	-10.6504
သူများ၏	-10.6504
▁လင်္ကာ	-10.6504
▁ဆန္ဒ	-10.6507
▁မုံရွာမြို့နယ်	-10.6507
ကျွန်းလှမြို့နယ်	-10.6514
ထားသည်ကို	-10.6515
▁ခံရ	-10.6517
▁ဖလမ်းမြို့နယ်	-10.6519
▁ဆေးဝါး	-10.6522
▁ကျွန်ုပ်တို့	-10.6526
▁ဒိုင်း	-10.6531
▁တူးမြောင်း	-10.6531
▁နှစ်ဦး	-10.6532
ā	-10.6533
▁ဘုရားသခင်	-10.6534
ဘူး။	-10.6535
▁မရ	-10.6539
လို့၊	-10.654
▁ဂလက်ဆီ	-10.6543
တယ်၊	-10.6544
သင့်သည်။	-10.6545
▁ထုတ်လုပ်မှု	-10.6548
ရှင်းလင်း	-10.655
▁ရရှိသော	-10.6552
100	-10.6558
ခဲ့ပြန်သည်။	-10.656
▁ပြောပြ	-10.6563
vi	-10.6574
▁ခရီးသည်	-10.6576
သူကို	-10.6579
▁ကားလမ်း	-10.658
▁အဖြူ	-10.6582
▁သင်တန်း	-10.6584
စားသောက်	-10.6584
သူများအား	-10.6589
ရေတံခွန်	-10.6589
ဖြစ်ပါတယ်။	-10.6593
ပေါင်းစုံ	-10.6598
▁သဘောတရား	-10.6599
ဘေ	-10.6601
အဖို့	-10.6602
▁၅၄	-10.6604
အမတ်	-10.6605
▁အဆုံး	-10.6606
ဂါး	-10.6607
ဇို	-10.6617
▁are	-10.6618
▁ထိုအချိန်	-10.6618
▁မည်မျှ	-10.662
▁နောက်ခံ	-10.6629
ပူးပေါင်း	-10.663
▁လွှမ်းမိုးမှု	-10.6631
မှုများကြောင့်	-10.6635
▁ဖိုင်	-10.6638
လီး	-10.6646
ဆိုသော	-10.6648
ကချင်	-10.6652
▁ဗိသုကာ	-10.6657
▁ကိုယ်ခန္ဓာ	-10.6658
တွေ့ရသည်။	-10.666
hi	-10.6661
ဂျက်	-10.6662
▁ချောင်းဆုံ	-10.6666
▁ဘဏ္ဍာရေး	-10.667
▁(;	-10.6671
လွှမ်းမိုး	-10.6671
မှုမှာ	-10.6673
အမိန့်	-10.6673
ရိုက်ကူး	-10.6674
▁ဖွားမြင်	-10.6676
ျ	-10.6679
▁အောက်ဆီဂျင်	-10.6679
▁မိုးကုတ်	-10.6679
စသည်တို့	-10.668
▁San	-10.6681
ဒတ်	-10.6682
▁ကလေးဝမြို့နယ်	-10.6685
▁ဘုရားကြီး	-10.6686
ကျက်	-10.6686
များစွာကို	-10.6687
တ္တာ	-10.6691
ပွဲတွင်	-10.6697
မှလည်း	-10.6699
▁ဦးနု	-10.6701
▁ဓာတု	-10.671
▁လဲ	-10.6711
gyi	-10.6717
လာသဖြင့်	-10.6717
နပ်	-10.6719
ကြခြင်း	-10.6721
▁အမှန်တကယ်	-10.6721
ဘီစီ	-10.6726
▁၆၉	-10.6727
▁ပုံမှန်အားဖြင့်	-10.673
▁ကျင့်	-10.6731
သူတစ်ဦး	-10.6733
▁ဟောကြားတော်မူ	-10.6733
▁နိုင်ငံရေးသမား	-10.6735
ညီနောင်	-10.6735
▁ကွမ်	-10.6735
မှော်	-10.6737
ကူးသန်းရောင်းဝယ်	-10.6738
▁ထူးခြား	-10.6739
▁တဖန်	-10.6741
▁ခုကို	-10.6741
ဆတ်	-10.6743
▁၁၉၂၂	-10.6748
▁၁၉၂၇	-10.675
ဘွဲ့ကို	-10.675
▁အဝေး	-10.6751
▁ပေါ်လာ	-10.6752
▁လူများ	-10.6755
▁ငါတို့	-10.6757
▁အထောက်အပံ့	-10.676
▁ချောင်းဦး	-10.6764
ထား၏။	-10.677
ယောက်ျား	-10.6772
▁ခေါ်သော	-10.6773
▁ပေါက်ကွဲ	-10.6774
ား	-10.6776
အတွင်းရေးမှူး	-10.678
▁ဘော်	-10.678
အဆိုတော်	-10.678
▁မတူ	-10.6783
013	-10.6786
▁Yar	-10.6788
သေးသော	-10.6789
့်	-10.6789
▁ရုပ်မြင်သံကြား	-10.679
▁ကု	-10.6796
▁သောင်းကျန်းသူ	-10.6797
▁လေယာဉ်ပျံ	-10.6798
နည်းပညာတက္ကသိုလ်	-10.6802
▁ကယ်လီဖိုးနီးယား	-10.6802
အက်စ်	-10.6806
▁ချိတ်ဆက်	-10.6808
▁ပေါ်တူဂီ	-10.6813
▁ကျယ်ပြန့်	-10.6814
အလင်း	-10.6817
▁၁၉၂၈	-10.6817
▁သန့်ရှင်း	-10.6817
▁ဒြပ်စင်	-10.682
▁ယနေ့တိုင်	-10.6821
လုပ်ငန်း၊	-10.6826
နည်းလမ်း	-10.6827
▁အကြံ	-10.6829
မည်း	-10.683
▁ခက်ခဲ	-10.6831
▁ကိုင်	-10.6832
▁Se	-10.6833
▁ကလောင်	-10.6835
▁ပေါ်တွင်	-10.6835
▁မဖြစ်	-10.6838
▁ကျိုက်	-10.6839
လောက်တွင်	-10.6841
ဟုတ်	-10.6842
▁၆၇	-10.6845
em	-10.6846
▁အမရပူရမြို့နယ်	-10.6848
▁စက်တင်ဘာလတွင်	-10.6849
▁နှစ်အရွယ်	-10.6852
နယ်တွင်	-10.6854
▁ဂို	-10.6856
သူ့	-10.6858
▁၃၀၀	-10.6859
▁ပုန်ကန်	-10.6861
▁အထောက်အထား	-10.6862
ပေါင်းစပ်	-10.6866
▁ရင်ဆိုင်	-10.6876
▁အခေါက်	-10.6881
တိမ်	-10.6881
▁သတ်မှတ်ထားသော	-10.6883
နိုင်မည့်	-10.6885
▁မုန်တိုင်း	-10.6885
ist	-10.6889
ی	-10.6889
ပင်လျှင်	-10.689
▁သရ	-10.689
▁စတင်တည်ထောင်	-10.6892
ဲ	-10.6895
East	-10.6896
▁စိတ်ဝင်စား	-10.6897
▁အနံ့	-10.6902
▁စင်စစ်	-10.6906
မဟုတ်သော	-10.6907
▁အချို့မှာ	-10.6908
အထက်တန်းကျောင်း	-10.6915
ကုံး	-10.6915
▁ရေဖြူမြို့နယ်	-10.6917
နားလည်	-10.6919
ig	-10.6922
လုံးကို	-10.6924
ဓာတ်ငွေ့	-10.6925
ဒုက္ခ	-10.6926
ကြွေ	-10.6926
▁ပူတာအိုမြို့နယ်	-10.693
▁အသုံးပြုသူ	-10.6933
▁ပထမဆုံးသော	-10.6934
ဒီဂရီ	-10.6935
▁အနား	-10.6937
ပင်ကျေးရွာအုပ်စု	-10.6938
▁နတ်ရွာစံ	-10.6938
▁မိမိကိုယ်ကို	-10.6944
yun	-10.6946
▁မျက်လုံး	-10.6948
▁လော	-10.6949
▁e	-10.6952
မခံ	-10.6961
▁ရှင်းလင်းချက်	-10.6961
▁ကျူးကျော်	-10.6962
▁ရှိသည့်	-10.6963
နိုင်ကြ	-10.6964
▁လော့	-10.6965
စွန်	-10.6965
way	-10.6966
ချွတ်	-10.6968
▁အချိန်ဇုန်	-10.6968
စေကာမူ	-10.6973
နေကြောင်း	-10.6973
စံနစ်	-10.6973
▁ကချင်ပြည်နယ်	-10.6975
ity	-10.6978
တစ်ခု၏	-10.698
မြှင့်	-10.6983
▁နယူး	-10.6984
▁ညီတော်	-10.6988
▁မိုးညှင်းခရိုင်	-10.6988
နံပါတ်	-10.699
os	-10.6993
▁တခြား	-10.6998
▁အခက်အခဲ	-10.7004
▁အကြီးအကဲ	-10.7006
▁သော်	-10.7007
▁မေးမြန်း	-10.7007
ဖျက်ဆီး	-10.7007
နည်းပါး	-10.7008
အမည်ကို	-10.7009
သပြေ	-10.7011
37	-10.7013
▁စာလုံး	-10.7015
▁အမျိုးမျိုးသော	-10.7018
တလျှောက်	-10.7024
တစ်ထောင်	-10.7025
ညီလာခံ	-10.7027
ကြော်	-10.7029
▁တံခွန်တိုင်	-10.703
ငွေ့	-10.7036
auk	-10.7036
အိန္ဒိယ	-10.7038
▁တင်ပို့	-10.7043
▁အများစုမှာ	-10.7045
ဖောင်	-10.7046
▁အဘယ်	-10.7048
ထူထောင်	-10.705
ပွဲကို	-10.7053
ဖီး	-10.7053
▁ဒေသဆိုင်ရာ	-10.7055
အစိုးရအဖွဲ့	-10.7057
ပို၍	-10.7059
▁အထည်	-10.7063
▁အဘယ်ကြောင့်ဆို	-10.7064
▁ကုန်စည်	-10.7067
▁အကွာတွင်	-10.7068
ဌာနချုပ်	-10.7068
▁လျင်မြန်စွာ	-10.7068
ဈေးကွက်	-10.7069
▁ဝေး	-10.7071
▁တရုတ်ပြည်သူ့	-10.7075
27	-10.7075
▁လက်နက်ချ	-10.7076
▁လျှပ်စစ်ဓာတ်အား	-10.7079
▁အီဂျစ်နိုင်ငံ	-10.7082
▁စာမေးပွဲ	-10.7084
▁အရာဝတ္ထု	-10.7085
တစ်ဦးဖြစ်ပြီး	-10.7085
▁၁၀၀၀	-10.7092
အဆောက်အအုံ	-10.7092
▁ပွဲတော်	-10.7094
▁၉။	-10.7094
▁စွပ်စွဲ	-10.7095
သုံးသပ်	-10.7096
▁Bu	-10.7096
▁ဆက်လက်၍	-10.7096
ဒါယကထေရ်	-10.7097
▁အသုံးပြုခဲ့သည်။	-10.7098
▁ဘုရင့်နောင်	-10.7098
စုစည်း	-10.71
အများ	-10.71
နိုင်သော်လည်း	-10.7102
ကွန်ပျူတာ	-10.711
▁မြန်မာနိုင်ငံ၌	-10.7113
▁မြက်	-10.7114
ဘွဲ့ခံ	-10.7115
ခေါ်ဝေါ်	-10.7118
ကျွန်	-10.7119
ရှေးဟောင်းသုတေသန	-10.7124
▁သိမ်း	-10.7125
ခြင်းတို့ကြောင့်	-10.7128
▁ဟူသည့်	-10.7128
▁အတွင်းတွင်	-10.713
▁အောက်တွင်	-10.7131
▁Da	-10.7131
တစ်ဖက်	-10.7132
င်္ဂ	-10.7134
▁ဂျို	-10.7147
▁ရွာသစ်	-10.7148
့စ်	-10.7149
ah	-10.7151
ချေး	-10.7151
bo	-10.7152
▁စည်း	-10.7153
▁အများစု	-10.7153
▁အနီး	-10.7153
▁အသည်း	-10.7156
ငို	-10.7157
▁ပေါက်တော	-10.7158
▁ပြည်တွင်းစစ်	-10.7159
▁မော်တော်ယာဉ်	-10.7161
▁ပြည်သူများ	-10.7163
စွာဖြင့်	-10.7167
ကြိုးစား	-10.7172
▁သီပေါမင်း	-10.7175
သုတေသန	-10.7181
06	-10.7183
able	-10.7186
▁ရှိသေးသည်။	-10.7188
▁ထူး	-10.7188
▁အဖြေ	-10.7189
▁အမြောက်	-10.7193
ငါးပါး	-10.7194
▁တပ်မဟာ	-10.7195
မကောင်း	-10.7195
▁မျိုးစိတ်	-10.7196
သို့ရောက်	-10.7197
ကော်မရှင်	-10.7199
▁တီးခတ်	-10.7206
မှုန်	-10.7209
▁အဘိဓာန်	-10.721
▁ကတ်	-10.7211
▁ဖြစ်သွားသည်။	-10.7212
▁ဘုရားရှိခိုး	-10.7212
▁သမင်	-10.7214
အရည်	-10.7215
▁သစ်တောများ	-10.7217
▁၆၅	-10.7218
▁ဒေသတွင်း	-10.7224
▁အရေးကြီး	-10.7224
ရာခိုင်နှုန်း	-10.7228
▁ပရိုဂရမ်	-10.7229
▁ဗြိတိသျှတို့	-10.7232
ယူ၍	-10.7233
ကြီးက	-10.7244
နောက်ဆုံး	-10.7245
▁ပစ်ခတ်	-10.7245
▁စိတ်ကူး	-10.7249
တစ်ကြိမ်	-10.7249
ခပ်	-10.7253
လာခဲ့	-10.7255
စာအုပ်များ	-10.7256
န္ဒ	-10.7256
tha	-10.7258
▁ဖြစ်စေ၊	-10.7262
▁ဆောင်ရွက်သည်။	-10.7265
များကလည်း	-10.7266
08	-10.7267
သုံးပါး	-10.7268
▁ခန်း	-10.727
ism	-10.7272
▁ဂယ်လက်ဆီ	-10.7273
▁ပြည့်နှစ်၊	-10.7276
မျက်	-10.7278
သူအား	-10.7279
▁ယမ်း	-10.7281
နေသဖြင့်	-10.7281
တပ်ရင်း	-10.7283
ကြိတ်	-10.7285
▁တရားရုံး	-10.7287
▁၁၉၁၁	-10.7289
ခဲ့ဖူး	-10.7289
▁at	-10.729
▁အနောက်နိုင်ငံ	-10.7295
07	-10.7301
ဧ	-10.7302
ပြုတ်	-10.7303
▁သင်ကြားပေး	-10.7307
▁ပြား	-10.7308
ချဉ်	-10.7309
▁ပိုက်	-10.7309
▁ရဟန်းတော်များ	-10.7311
▁အာကာသယာဉ်	-10.7312
▁သိုး	-10.7312
ပဲ့	-10.7313
လက်မှတ်	-10.7313
ကိုယ်ပိုင်	-10.7313
မျှင်	-10.7316
တွေရဲ့	-10.7317
လေ့ရှိသော	-10.7321
ပွန်	-10.7321
▁ဆောမြို့နယ်	-10.7322
▁ပြီးစီး	-10.7322
▁မူပိုင်ခွင့်	-10.7323
နိုင်စေရန်	-10.7327
▁ကျောက်တန်း	-10.7327
တို့နှင့်အတူ	-10.7328
▁ချို	-10.7337
မျိုးသည်	-10.7338
▁သံတမန်	-10.7338
စုတ်	-10.7341
Dagon	-10.7343
မင်းသည်	-10.7344
ဟုခေါ်သော	-10.7347
▁အတိုကောက်	-10.7355
▁မဟုတ်ဘဲ	-10.7356
ဒမ်	-10.7358
လူမျိုးတို့	-10.7366
▁ပထမဆုံးအကြိမ်	-10.7368
▁Myoth	-10.7369
▁ကြေးနီ	-10.7371
▁Ho	-10.7372
တစ်ခုတည်း	-10.7374
ထိန်းသိမ်းရေး	-10.7374
▁မက္ကဆီကို	-10.7375
▁ဂဏန်း	-10.7377
အလံ	-10.7386
ဆော့	-10.7387
▁ဖျက်သိမ်း	-10.7393
▁စေတုတ္ထရာ	-10.7393
မတိုင်မီ	-10.7396
ငလျင်	-10.7396
▁၁၉၂၁	-10.7399
ip	-10.7399
▁ကျော	-10.7402
est	-10.7404
▁ဗဟုသုတ	-10.7406
▁အဖိုးတန်	-10.7406
▁ဟုခေါ်သော	-10.7406
မြူ	-10.7406
ru	-10.7408
▁အချစ်	-10.7409
ခေါင်းဆောင်များ	-10.7411
▁လူတို့သည်	-10.7411
ကြည့်လျှင်	-10.7412
▁ရသေ့	-10.7412
ပြဋ္ဌာန်း	-10.7413
▁အောက်ခြေ	-10.7414
▁နာဂကိုယ်ပိုင်	-10.7415
ဆင်းရဲ	-10.7418
▁တောင်သူလယ်သမား	-10.7418
၁၀၀	-10.742
▁ဘုတ်ပြင်း	-10.7421
▁ဩဇာ	-10.7425
▁၁၉၂၉	-10.7426
ub	-10.7426
အစာ	-10.7432
▁၁၉၁၇	-10.7432
▁ဖရူဆိုမြို့နယ်	-10.7433
ပြန့်	-10.7437
▁အနှံ့အပြား	-10.7438
ဦးဆောင်	-10.7441
တင်သွင်း	-10.7442
ဝိုင်	-10.7447
▁ခရီးစဉ်	-10.7449
▁ဂျာနယ်	-10.7452
▁လူဦးရေမှာ	-10.7452
▁၁၈၈၅	-10.7453
ရေးအဖွဲ့	-10.7456
▁ဖက်ဒရယ်	-10.7458
▁လာအို	-10.7462
ဇု	-10.7462
▁၁၉၂၅	-10.7463
မြို့သစ်မြို့နယ်	-10.7467
သဘောတရား	-10.747
ယန်ရွာ	-10.7471
▁မရမ်း	-10.7473
မွေးဖွား	-10.7473
နေရာကို	-10.7478
▁ကုန်ဆုံးရန်	-10.7483
ထုံ	-10.7484
▁တွေ့မြင်	-10.7484
ပေးပို့	-10.7485
▁သဖြင့်	-10.7485
▁စစ်မှုထမ်း	-10.7486
▁မြို့ဟောင်း	-10.7488
▁ညောင်ပင်သာ	-10.7488
ကွန်ယက်	-10.7491
▁ကျက်စား	-10.7491
ပုဂံ	-10.7492
▁ဂျုံ	-10.7495
▁ချည်	-10.7497
နိုင်သည်	-10.7498
▁မှို	-10.7498
ka	-10.75
ပါတ်	-10.7501
▁လူကြီး	-10.7503
▁အကောင်	-10.7508
▁အဆက်အသွယ်	-10.7509
ထန်း	-10.7512
▁သီဟိုဠ်	-10.7516
▁Be	-10.7518
ခဲ့ပြီး၊	-10.752
▁ကွဲပြားခြားနား	-10.7521
စိုင်း	-10.7521
ရာဇ	-10.7523
တစ်နှစ်တာ၏	-10.7524
▁စော်ဘွား	-10.7528
▁ကွယ်လွန်ချိန်	-10.753
▁လယ်ယာစိုက်ပျိုး	-10.7535
လှပေသည်။	-10.7536
▁အဆောက်အအုံများ	-10.7537
▁သရုပ်ဖော်	-10.7546
မြန်	-10.7547
▁စက်မှုလက်မှု	-10.7554
တရားရုံး	-10.7555
ညင်း	-10.7557
▁ဂန့်ဂေါမြို့နယ်	-10.7558
ဟူ၍လည်း	-10.7563
▁အကျိုးသက်ရောက်	-10.7564
▁များနှင့်	-10.7565
ပါသည်	-10.7565
▁သက်တော်	-10.7565
▁Mar	-10.7569
▁၆ဝ	-10.7573
▁၁၉၁၉	-10.7573
အပေါင်းတို့	-10.7574
ကျိုင်း	-10.7577
▁Ya	-10.7582
▁ယူနက်စကို	-10.7586
▁ထွက်လာ	-10.759
▁နိုင်ငံခြားရေး	-10.7591
▁ဆက်ဆံ	-10.7593
▁စိုး	-10.7595
▁အာဆီယံ	-10.7597
▁Ku	-10.76
▁စုံစမ်း	-10.7609
▁လေးစား	-10.761
▁မောင်းနှင်	-10.761
▁ဂျက်	-10.7614
ဖော်ထုတ်	-10.7614
ပေးအပ်	-10.7615
▁မြန်မာတို့	-10.762
ခီးရွာ	-10.762
တူရိယာ	-10.7623
နှီးမြှုပ်နှံမှု	-10.7623
▁နိုင်ငံရေးပါတီ	-10.7623
▁မြို့ရိုး	-10.7624
ဓိ	-10.7627
▁အသိ	-10.7633
▁အနောက်မြောက်	-10.7635
လိုက်နာ	-10.7638
▁ထင်ရှားသည့်	-10.7639
အကျင့်	-10.7639
▁War	-10.764
ရိပ်သာ	-10.764
▁မြန်မာလူမျိုး	-10.7641
▁ပြောင်းရွေ့	-10.7645
▁အလုပ်အကိုင်	-10.7646
ဒယ်	-10.7651
မျှော်	-10.7651
▁ဖွံ့ဖြိုးရေး	-10.7655
the	-10.7655
ညှင်း	-10.7661
ချောင်ရွာ	-10.7665
ရုပ်တု	-10.7665
▁သိပ္ပံပညာ	-10.7665
ခူ	-10.7666
ရာသီဥတု	-10.7669
▁မချမ်းဘော	-10.7669
▁သေချာ	-10.767
▁သူရိယ	-10.767
ဟိုင်း	-10.767
လောကတွင်	-10.7671
လူမျိုးတို့၏	-10.7673
▁ဒသမ	-10.7674
▁ဒေါ်ခင်	-10.7674
▁ဟာသ	-10.7683
▁အရွယ်တွင်	-10.7684
▁နိုင်ငံသား	-10.7685
ဖွံ့ဖြိုး	-10.7685
▁မံ	-10.7689
ဲ့	-10.769
▁အတိုင်းအတာ	-10.7696
အခြေစိုက်	-10.7696
▁အဆောက်အဦ	-10.7703
008	-10.7703
နှင့်ဆိုင်သော	-10.7704
လျှော့	-10.7704
▁အာမခံ	-10.7704
နေပြည်တော်	-10.7706
Ma	-10.7706
▁ကြယ်စုတန်း	-10.7708
လာရာ	-10.7712
မြုပ်	-10.7715
ကန့်	-10.7715
သောင်းကျန်းသူ	-10.7716
▁တားမြစ်	-10.7717
▁ရီ	-10.7719
di	-10.772
▁၅၃	-10.7723
=87	-10.7726
▁Lu	-10.7726
▁ခန့်မှန်းခြေ	-10.7728
ဇ္ဇ	-10.7728
09	-10.773
တယောက်	-10.773
▁မော်တော်ကား	-10.7731
ရာ၏။	-10.7732
ပုံပြင်	-10.7732
▁သနပ်ပင်မြို့နယ်	-10.7734
▁အဆုတ်	-10.7736
ကြိုက်	-10.7737
သည်ဟုဆိုသည်။	-10.7738
▁ထိပ်တန်း	-10.7739
မှတ်သား	-10.7742
▁ဒီလို	-10.7747
တစ်ရပ်ကို	-10.7748
မျိုးဆက်	-10.775
▁ကျုံး	-10.775
▁လမ်းစဉ်	-10.7754
▁အင်္ဂလိပ်စာ	-10.7755
▁ယင်းအား	-10.7756
▁ရှင်သန်	-10.7758
▁အော့	-10.7758
▁အလှ	-10.776
သင်္ကေတ	-10.7763
▁ချီးကျူး	-10.777
▁ဆုံးရှုံး	-10.777
▁Y	-10.7774
ဝံသ	-10.7776
ပြင်းထန်	-10.7776
▁Di	-10.7776
န္	-10.7782
သက်သက်	-10.7782
တစ်ခုခု	-10.7783
ဖြစ်ပေါ်လာ	-10.7784
minor	-10.7785
ကျူး	-10.7791
▁ဘား	-10.7793
▁ဝေဒနာ	-10.7795
အားကစား	-10.7796
▁ဆုံး	-10.7803
▁ဌာပနာ	-10.7803
▁ဖော်ပြထား	-10.7804
ဝန်းကျင်	-10.781
▁လူကြိုက်များ	-10.7814
အသား	-10.7814
▁Myo	-10.7814
ho	-10.7817
▁သီအိုရီ	-10.7818
လိုအပ်	-10.782
▁အနီ	-10.7821
ဝယ်ယူ	-10.7822
▁သဘာဝပတ်ဝန်းကျင်	-10.7823
အမှုထမ်း	-10.7824
▁Aung	-10.7826
▁ပညတ်တော်မူခဲ့	-10.7827
မွေးမြူရေး	-10.7828
45	-10.7829
ဆန္ဒ	-10.7831
▁စည်းမျဉ်း	-10.7832
▁ဂါ	-10.7836
ရေကန်	-10.7836
▁နန့်	-10.7839
ချ်	-10.784
သမားများ	-10.784
ဘန်း	-10.7844
ကျောင်းများ	-10.7846
▁အချိန်တွင်	-10.7846
▁အနာဂတ်	-10.7851
▁Ch	-10.7852
▁ချုပ်ဆို	-10.7859
▁ရန်ပုံငွေ	-10.7859
▁တိရစ္ဆာန်များ	-10.7861
ဌ	-10.7861
▁သခင်စိုး	-10.7865
ကွ	-10.7865
ဌာနခွဲ	-10.7868
▁ပြာ	-10.7872
▁Windows	-10.7872
▁World	-10.7873
▁ဖားကန့်မြို့နယ်	-10.7875
▁ဥက္ကဋ္ဌအဖြစ်	-10.7875
သူအဖြစ်	-10.7877
န္တ	-10.788
▁ထွက်ခွာ	-10.7881
အရှေ့ပိုင်း	-10.7885
701501	-10.7887
ခဲ့ကြ၏။	-10.7892
▁လက်မှတ်	-10.7895
ထုတ်လုပ်မှု	-10.7897
▁သပိတ်မှောက်	-10.7897
▁၁၅၀	-10.7898
▁လှပ	-10.7899
▁Vi	-10.79
▁လောင်းလုံး	-10.79
▁ပါသည်။	-10.7902
▁ဘီလူး	-10.7902
ထက်ပို၍	-10.7902
ဖြစ်ခြင်း	-10.7902
ခဲ့ရပြီး	-10.7903
လင်္ကာ	-10.7908
▁အသက်မွေး	-10.7911
▁ဘိုးတော်ဘုရား	-10.7912
▁မေလတွင်	-10.7913
လေတော့သည်။	-10.7921
▁ဟူသည်မှာ	-10.7922
ရရှိသော	-10.7926
▁ဟိန္ဒူ	-10.7927
ခြင်း၏	-10.7928
▁ဆည်းပူး	-10.7929
▁လှူ	-10.793
▁အခြေခံပညာ	-10.7931
▁မဟုတ်ပေ။	-10.7931
▁ဝိန်းကောင်	-10.7933
▁ဖွံ့ဖြိုး	-10.7934
▁ဖြစ်ရပ်	-10.7934
▁ဦးရွှေ	-10.7936
ထားခဲ့သည်။	-10.7944
လုံခြုံရေး	-10.7944
▁၆၁	-10.7945
701502	-10.7947
၂ဝ	-10.7951
▁လဟယ်မြို့နယ်	-10.7953
ခံရသော	-10.7955
ညက်	-10.7956
စကားကို	-10.7959
ဆော	-10.7959
▁ခရု	-10.796
သွားလာ	-10.796
စာရင်းတွင်	-10.7963
ဖွံ့ဖြိုးရေး	-10.7967
ခန်းမ	-10.7967
▁မတူပီမြို့နယ်	-10.7967
▁လှံ	-10.7967
017	-10.797
▁အွန်လိုင်း	-10.7976
▁ယခုတိုင်	-10.7976
▁ဆင်ခြင်	-10.7977
▁အမှတ်အသား	-10.7977
40	-10.7979
နေခဲ့သည်။	-10.798
စီစဉ်	-10.798
မျိုးစိတ်	-10.7981
▁လွတ်လပ်	-10.7983
▁တစ်ခုတည်းသော	-10.7983
▁အကျဉ်း	-10.7983
▁အစ်	-10.7984
▁တဲ	-10.7986
ပလ္လင်	-10.7989
ဟော်	-10.7989
▁ပေါင်းစည်း	-10.7989
မြို့ပေါ်ရှိ	-10.7991
▁အောက်တိုဘာလတွင်	-10.7991
▁ထို့	-10.7991
းရွာ	-10.7993
▁ရထားလမ်း	-10.7998
▁တောက်	-10.8
▁ဦးထွန်း	-10.8008
▁တောင်အာဖရိက	-10.8013
▁နောင်အခါ	-10.8017
▁စစ်ဘက်	-10.8022
▁မင်းတပ်ခရိုင်	-10.8028
▁အပ်နှင်း	-10.803
ကျွန်းစုမြို့နယ်	-10.8032
▁ပညာသင်	-10.8033
▁လူပေါင်း	-10.8034
▁ပစ္စည်းများကို	-10.8034
012	-10.8035
do	-10.8039
နေ့တွင်	-10.8039
▁သာသနာရေး	-10.804
ကျဲ	-10.804
▁အရှိန်	-10.8043
လာရောက်	-10.8045
ချီး	-10.8046
မြန်မာ့	-10.8047
အော့	-10.8051
▁ဖြစ်သဖြင့်	-10.8058
▁အု	-10.8058
▁ကနေဒါနိုင်ငံ	-10.8063
တွင်သာ	-10.8063
▁အိုလံပစ်	-10.8064
▁ပြောကြားခဲ့သည်။	-10.8065
ကြူ	-10.807
နှုတ်	-10.8076
သမုဒ္ဒရာ	-10.8076
▁တစ်ပါး	-10.8079
မီဒီယာ	-10.808
28	-10.8083
▁ထားဝယ်မြို့နယ်	-10.8085
▁အမည်ပေး	-10.809
▁Do	-10.8094
▁ကန့်သတ်	-10.8094
ဝံ့	-10.8096
▁ဘုန်းကြီး	-10.8101
▁အောင်ဆန်း	-10.8101
လောက်အောင်	-10.8102
ရသ	-10.8102
ငွေကြေး	-10.8103
ထုတ်ပြန်	-10.8105
ပြီးသောအခါ	-10.8106
ဥပ	-10.8107
ပေလိမ့်မည်။	-10.8108
စုစုပေါင်း	-10.8109
▁ခွဲ	-10.811
ဂရက်	-10.8117
အသုံး	-10.8121
ခမ်းရွာ	-10.8121
▁ရေကျော်	-10.8122
▁ရှောက်	-10.8125
ဖလား	-10.8126
▁အမှတ်တံဆိပ်	-10.8127
▁သံဖြူဇရပ်	-10.8127
▁တံ	-10.8127
▁ထုတ်ပေး	-10.8127
▁ဖွား	-10.8127
ရာဇ်	-10.813
▁ကျေးဇူး	-10.8135
▁ဝင်ရောက်လာ	-10.8135
ပတ်ဝန်းကျင်	-10.8136
▁၁၉၁၄	-10.8136
အစိတ်အပိုင်း	-10.8137
သီချင်းများ	-10.8144
ပြည့်စုံ	-10.8145
ပါရှိသည်။	-10.8145
ite	-10.8149
▁were	-10.8156
▁သီချင်းများ	-10.8156
ဘို့	-10.8159
▁Ne	-10.8165
အမည်ရှိ	-10.8165
▁အနံ	-10.8165
▁လိုင်	-10.8167
▁ခုခံ	-10.8169
▁Wa	-10.8169
▁ဩ	-10.8178
ဗီး	-10.8182
ပေးနိုင်	-10.8183
▁ညောင်ကုန်း	-10.8189
ဆရာဝန်	-10.8189
▁ပြဋ္ဌာန်းချက်	-10.819
▁ခေါ်ယူ	-10.819
ပင်များ	-10.8193
ဗမာ	-10.8193
▁ရခဲ့သည်။	-10.8194
▁ယင်းတို့သည်	-10.8195
လျှပ်စစ်	-10.8196
▁အနားယူ	-10.8198
▁နျူကလီးယား	-10.8198
ယှဉ်	-10.8204
▁ပြင်းထန်	-10.8206
▁၁၉၁၂	-10.8207
▁ဖြစ်ပြီး၊	-10.8207
▁တစ်နိုင်ငံလုံး	-10.8207
မရွေး	-10.8209
သန	-10.8209
အချက်အလက်များကို	-10.8211
▁တွေ့နိုင်သည်။	-10.8213
တုန်းက	-10.8214
!	-10.8215
▁နှိုင်းယှဉ်	-10.8217
▁ဆို၏။	-10.8217
ညှိ	-10.8218
အယူအဆ	-10.8219
▁ရန်ကုန်မြို့၊	-10.8222
ဖြစ်လျှင်	-10.8223
အစည်းအရုံး	-10.8231
▁ပေးခဲ့သည်။	-10.8242
▁ရှားပါး	-10.8244
လျော့	-10.8244
▁ခရုပတ်ပုံစံ	-10.8245
လိတ်	-10.8251
▁အရည်အချင်း	-10.8252
ဝှက်	-10.8253
သိုး	-10.8255
မှိုင်း	-10.8255
▁ဖူ	-10.8256
ဆုံးသော	-10.8257
▁ပတ်သက်သော	-10.826
နေ၍	-10.8269
36	-10.8275
▁ဥစ္စာ	-10.8277
▁ထင်း	-10.8281
▁ရွာသစ်ရွာ၊	-10.8282
ဂန့်ဂေါခရိုင်၊	-10.8282
▁စေတနာ	-10.8283
33	-10.8283
▁အိုင်ယာလန်	-10.8287
လျှက်ရှိသည်။	-10.8288
ထားကာ	-10.8291
▁မန္တလေးခရိုင်၊	-10.8292
ဝါဒီ	-10.8292
ကျောင်းတိုက်	-10.8293
▁သစ်သီး	-10.8294
▁စမ်း	-10.8296
▁စာဆို	-10.8297
▁လင်ဟော်မြို့နယ်	-10.8304
▁အကြောင်းမှာ	-10.8305
သူတို့သည်	-10.8305
ဒေါ်လာ	-10.8305
▁နိုင်ငံတော်၏	-10.8307
ရမည်ဖြစ်သည်။	-10.831
▁ရစ်	-10.8313
စမ်းသပ်	-10.8314
တွင်း၌	-10.8314
▁ခန္တီးမြို့နယ်	-10.8315
ကြကုန်၏။	-10.8316
▁ဝိဇ္ဇာ	-10.832
များကိုပါ	-10.8323
ထားရာ	-10.8324
လှည်း	-10.8324
▁မှတ်ချက်	-10.8325
▁အဝါရောင်	-10.8331
▁ရက်လုပ်	-10.8332
▁ကြပ်	-10.8334
နာစောင့်ထိန်းရန်	-10.8336
ဗို	-10.8339
▁ဖော်ပြခဲ့သည်။	-10.8344
ခရီးစဉ်	-10.8344
▁၁၈၈၆	-10.8348
▁စောင့်	-10.835
▁ဂေါ်	-10.8354
ကြီးနှင့်	-10.8354
ဇော	-10.8357
ပေမယ့်	-10.8358
ဗူး	-10.8359
ide	-10.8362
▁ကျူးလွန်	-10.8363
ကြချေ။	-10.8363
▁ရှောင်	-10.8363
လည်ပတ်	-10.8366
▁ဂျော့	-10.8367
▁အမတ်ကြီး	-10.8372
▁၆၂	-10.8373
▁ရှေးဦး	-10.8373
ဝိဇ္ဇာ	-10.8377
▁ကွန်ရက်	-10.8378
မုံ	-10.8379
မည်ကို	-10.8381
▁သိက္ခာ	-10.8383
ဘာသာပြန်	-10.8387
နိုင်ခဲ့ပြီး	-10.8389
▁လုပ်ပိုင်ခွင့်	-10.8391
ချိတ်	-10.8392
▁ရဟန်းသည်	-10.8392
သူများမှာ	-10.8395
တစ်စု	-10.8396
ထောင်း	-10.8399
ှ	-10.8401
ca	-10.8401
▁ကေအင်န်ယူ	-10.8403
▁အကြောင်းရင်း	-10.8403
▁ယုံကြည်မှု	-10.8405
သူက	-10.8406
▁ဗြ	-10.8406
▁an	-10.8406
▁ရေချို	-10.8407
အဆို	-10.8408
▁၁၉၃၁	-10.8408
နတ်ဘုရား	-10.8409
လူဦးရေ	-10.8414
▁လားရှိုး	-10.8415
ဒေသရှိ	-10.8416
ရာနေရာ	-10.8418
int	-10.8421
▁အိုက်	-10.8422
ခါးရွာ	-10.8423
တုန်	-10.8423
ကွတ်	-10.8425
တောင်ပေါ်	-10.8426
ဗေး	-10.8426
ကြပေ။	-10.8428
▁၅၇	-10.8428
▁ဖြစ်စဉ်	-10.8431
▁အဝ	-10.8431
အများစု	-10.8433
သည့်အခါတွင်	-10.8435
▁ဆုံ	-10.8436
▁မြင်းခြံ	-10.8436
▁ခန့်ထား	-10.844
စာလုံး	-10.8441
လိုက်ပါ	-10.8443
မောင်မောင်	-10.8443
▁ပုဂ္ဂိုလ်များ	-10.8443
ကုန်သော	-10.8444
တစ်ခုလုံး	-10.8445
▁အီလက်ထရွန်	-10.8446
မိုးမိတ်မြို့နယ်	-10.8446
▁၁၉၁၆	-10.8447
လှုပ်	-10.845
▁ရွေ့လျား	-10.845
▁ကမာ	-10.8451
▁ဇွန်လတွင်	-10.8452
နှစ်မျိုး	-10.8452
▁အစဉ်အလာ	-10.8452
ဒေါက်တာ	-10.8454
အာရုံ	-10.8456
အကြားတွင်	-10.8456
▁စပိန်နိုင်ငံ	-10.8458
ခုံရွာ	-10.8459
▁မြတ်စွာဘုရားအား	-10.8466
အနီးရှိ	-10.8466
▁ကျန်သေး	-10.8467
▁မကောင်း	-10.8468
▁စိုးစံ	-10.8469
oke	-10.847
ဂဲ	-10.8471
အစိုးရ၏	-10.8474
▁တောင်းပန်	-10.8478
▁ပြစ်ဒဏ်	-10.8487
▁အခါတွင်	-10.8488
မိနစ်	-10.8488
▁ဟင်္သာ	-10.849
▁ခံတပ်	-10.8491
ဇိ	-10.8492
▁လယ်သမား	-10.8492
ဂင်	-10.8493
ကမ်းရိုးတန်း	-10.8495
▁ကျိုက်ထို	-10.8496
▁တိမ်ကောသွားသည်။	-10.8499
▁စာပေဗိမာန်	-10.8499
မြို	-10.85
▁(3)	-10.85
▁ဖောင်	-10.8504
ဗျ	-10.8505
ထားရှိ	-10.8505
▁ဦးဆောင်သော	-10.8505
▁သည်လည်း	-10.8506
▁အရေးပေါ်	-10.8506
ဟိုး	-10.8506
▁သက်ရှိ	-10.8507
im	-10.8509
▁အလယ်ခေတ်	-10.8511
မိခင်	-10.8511
နို့	-10.8512
ထိန်းချုပ်	-10.8513
▁လွိုင်	-10.8513
▁ဝီလျံ	-10.8518
အသီး	-10.8519
34	-10.852
သေးပေ။	-10.8525
လိမ့်မည်ဟု	-10.8527
ရှိသဖြင့်	-10.8528
▁လက်အောက်တွင်	-10.8531
con	-10.8534
▁ဘဲ	-10.8535
နိုင်သူ	-10.8536
ဝိဟာရ	-10.8536
▁ငါသည်	-10.8541
ခူး	-10.8544
နိုင်ငံမှ	-10.8547
အကြောင်းအရာ	-10.8549
▁သူဌေး	-10.8549
ပိုင်ခွင့်	-10.8551
▁ရေကို	-10.8556
ခေတ်က	-10.8558
▁ရုပ်ရှင်ဇာတ်ကား	-10.8559
▁တစ်ခုကို	-10.8561
▁ကေအိုင်အေ	-10.8562
▁အလို	-10.8563
ကျောင်းသားများ	-10.8565
▁အမည်တွင်	-10.8567
▁လောကီ	-10.857
သုံးခု	-10.8573
▁ရွှေကူမြို့နယ်	-10.8574
▁အနေ	-10.8577
▁အရေးအသား	-10.858
ညောင်ပင်	-10.8585
▁ဆုတောင်း	-10.8585
▁နှစ်အရွယ်တွင်	-10.8585
▁ချိန်	-10.8586
သွားရာ	-10.859
သုခ	-10.8592
▁ပုဒ်	-10.8597
▁အမိန့်တော်	-10.8597
▁Pe	-10.8599
ဒေသမှ	-10.8599
▁ကာမ	-10.8599
မေတ္တာ	-10.8599
▁အလောင်းမင်းတရား	-10.86
▁နိုင်ငံပေါင်း	-10.8602
▁လက်ယာ	-10.8602
မည်ဖြစ်ကြောင်း	-10.8602
▁မိန်းကလေး	-10.8604
▁ဒီဇင်ဘာလတွင်	-10.8605
ပိန်	-10.8611
▁အစီရင်ခံစာ	-10.8611
မိမိ	-10.8611
▁Chan	-10.8621
ရွှင်	-10.8623
▁ကျွန်းစု	-10.8626
▁တချို့	-10.8628
▁စပ်ဆို	-10.8628
▁International	-10.8632
▁အံ	-10.8633
▁ဆက်တိုက်	-10.8635
မျာ	-10.8635
=76	-10.8638
▁ရှားတောမြို့နယ်	-10.8641
ရိုင်	-10.8644
ဂိ	-10.8646
ပြီးသော်	-10.8651
▁သူတစ်ပါး	-10.8651
▁ဟီ	-10.8653
▁ဒေသများ	-10.8657
နေပြီ	-10.8658
အရင်း	-10.8658
ကျုံး	-10.8666
အမ	-10.8666
ပုလဲ	-10.8666
ဒီပ	-10.8667
▁တွန်းဇံမြို့နယ်	-10.8668
▁ကာကွယ်ဆေး	-10.8669
ကထောင်ရွာ	-10.867
စိမ့်	-10.8671
▁အိမ်ထောင်စု	-10.8672
စွန့်	-10.8673
les	-10.8675
▁တတ်	-10.8675
အပေါင်း	-10.8676
ley	-10.8678
▁အစရှိသည့်	-10.868
=73	-10.8681
စွပ်	-10.8682
▁ဩဂုတ်လတွင်	-10.8682
ခဲ့သည်ကို	-10.8682
နှင့်လည်း	-10.8683
▁ဘူး	-10.8683
ထာ	-10.8685
▁အမည်ရင်းမှာ	-10.8691
▁၄၀၀	-10.8693
▁Ri	-10.8694
▁အနော်ရထာမင်း	-10.8695
းဦးကျော်လှ	-10.8699
▁တုတ်	-10.8701
သွားခြင်း	-10.8701
▁ဦးဘိုး	-10.8708
နံရံ	-10.8709
▁ထုတ်ဖော်	-10.8711
▁တခု	-10.8711
မြီး	-10.8716
အသံထွက်	-10.8721
▁ရက်၊	-10.8722
▁pro	-10.8725
▁သီ	-10.8726
စကားပြော	-10.8728
▁၁၉၂၆	-10.8728
▁ထိုသူ	-10.873
▁စွန့်ပစ်	-10.8732
▁ရန်ကုန်မြို့၌	-10.8732
32	-10.8735
▁တည်ရှိနေ	-10.8737
စိုင်	-10.8737
▁ဂိုး	-10.8737
▁ရုက္ခဗေဒ	-10.8739
44	-10.8742
ပေါ်ပေါက်လာ	-10.8743
▁ရဟန်းပြု	-10.8745
နေရာ၌	-10.8746
▁အာဏာပိုင်	-10.8746
ဥရောပ	-10.8746
ကွန်မြူနစ်	-10.8751
ခံရပြီး	-10.8751
▁ရုပ်တု	-10.8752
▁ပရိ	-10.8755
ကလေးများကို	-10.8755
▁ပြန်၍	-10.8755
▁၁၉၃၂	-10.8757
ခန့်အပ်	-10.8759
လမ်း၊	-10.8759
Re	-10.876
ကြားတွင်	-10.8762
နိုင်ပေ။	-10.8764
သူကြီး	-10.8766
▁ပိတ်ဆို့	-10.8769
▁ဒေါသ	-10.877
မိုးကုတ်မြို့နယ်	-10.877
▁အတိုက်အခံ	-10.8775
▁ကုန်သွယ်မှု	-10.8776
▁စောင့်ကြည့်	-10.8779
▁200	-10.8788
▁ပျော်	-10.8789
ကျွန်းစု	-10.879
ဆက်ဆံ	-10.8794
တန်ဆာ	-10.8796
▁အသက်ရှူ	-10.8797
▁ဖာပွန်ခရိုင်	-10.88
▁country	-10.88
ကြဲ	-10.88
ကြပါတယ်။	-10.8801
ညှပ်	-10.8802
bi	-10.8806
▁ဖြစ်နိုင်သည်။	-10.8807
▁ဗြိတိသျှအစိုးရ	-10.8815
ခံစား	-10.8815
▁ရှီ	-10.8817
▁အမည်မှာ	-10.8818
▁ညွှန်ကြားချက်	-10.8818
▁ယွန်း	-10.882
နယ်စပ်	-10.8821
50	-10.8829
▁Microsoft	-10.8832
▁သောင်	-10.8834
sa	-10.8837
▁ထိုခေတ်	-10.8837
▁ကြေညာခဲ့သည်။	-10.8839
▁လျှာ	-10.8839
▁ကျွန်တော်တို့	-10.8839
▁ဘေးအန္တရာယ်	-10.8841
▁အငြိမ်းစား	-10.8843
▁အတ္တ	-10.8844
ထောက်ပံ့	-10.8844
အဖွဲ့မှ	-10.8845
ရာမ	-10.8847
ပါဘူး။	-10.8847
▁မူလတန်း	-10.885
▁တုံ	-10.8852
▁အဘိဓမ္မာ	-10.8854
▁ချဉ်းကပ်	-10.8856
▁ကျန်းမာ	-10.8857
▁အမေရိက	-10.8857
ယခင်	-10.8861
▁အစဉ်	-10.8863
စွ	-10.8863
▁တွက်	-10.8864
စေရန်အတွက်	-10.8865
▁တို့ဖြစ်ကြသည်။	-10.8866
မြစ်သည်	-10.8867
ဒါရိုက်တာ	-10.8868
▁ရုပ်သံ	-10.8869
စက်များ	-10.8872
tab	-10.8876
▁နေရာများ	-10.8876
တော့ပေ။	-10.8878
▁မြေထဲပင်လယ်	-10.888
သိက္ခာပုဒ်၊	-10.888
▁မှတ်ယူ	-10.8882
▁၎င်းတို့ကို	-10.8883
▁St	-10.8887
မုန်	-10.8887
▁သက်ဆိုင်	-10.8891
▁ဖမ်း	-10.8893
လှောင်	-10.8894
▁ထိန်	-10.8899
အပူချိန်	-10.8899
အမှန်	-10.89
ပြီးဆုံး	-10.8901
အင်ပါယာ	-10.8902
▁အင်းစိန်	-10.8903
awng	-10.8907
▁မြေပုံ	-10.891
နဂါး	-10.891
▁ကျောင်းတော်	-10.8914
▁သာယာကုန်း	-10.8917
ကိုလိုက်၍	-10.8919
▁သက်သာ	-10.8919
▁သထုံ	-10.8919
▁Tan	-10.892
အယူ	-10.8924
ဖမ်းဆီး	-10.8924
တူညီ	-10.8924
မြှောင်	-10.8925
▁တောင်ယာ	-10.8927
▁ရှယ်ယာ	-10.8927
▁တည်ထား	-10.8929
စို့	-10.8931
▁အိပ်မက်	-10.8931
▁နှိမ်နင်း	-10.8931
▁ကောက်ယူ	-10.8934
များပါဝင်သည်။	-10.8934
ခံရသူ	-10.8939
ရရှိသည်။	-10.8939
ကြီးမှာ	-10.8942
▁မဖြစ်နိုင်	-10.8943
tu	-10.8944
▁အသွင်	-10.8944
▁သုတ်	-10.8944
▁ခွင့်ပြုချက်	-10.8944
▁လမ်းပန်းဆက်သွယ်	-10.8949
ငန်း	-10.895
ပွန်း	-10.8952
မြောက်ဘက်	-10.8953
အမြင့်ဆုံး	-10.8955
▁သွင်း	-10.8957
ကျမ်းကို	-10.8958
နယ်နိမိတ်	-10.8959
▁ခြင်္သေ့	-10.896
▁သားဖြစ်သူ	-10.8961
▁အဖိုး	-10.8965
သစ်ပင်	-10.8969
▁၇၃	-10.8969
သစ်ကို	-10.897
အိုက်	-10.8975
ထားရသည်။	-10.8975
▁ရှင်း	-10.8978
အများစုသည်	-10.8978
တတ်သူ	-10.898
ပေါ်ပေါက်	-10.8981
▁ကမ္ဘာ့အမွေအနှစ်	-10.8984
ခြည်	-10.8988
၌သာ	-10.8989
လိုက်လျှင်	-10.899
မ္	-10.899
▁ဟေ	-10.899
▁ပေါင်မြို့နယ်	-10.8991
▁သတ္တုတွင်း	-10.8993
▁ဟင်နရီ	-10.8996
ပမာ	-10.8996
▁Pan	-10.8997
▁ရှိသည်ဟု	-10.8999
010	-10.8999
▁နောက်ဆက်တွဲ	-10.9
▁ကုသိုလ်	-10.9001
▁အကွာအဝေး	-10.9001
သလဲ	-10.9004
ပျို့	-10.9005
ထောက်ခံ	-10.9006
▁ကြောက်	-10.9011
ထရီ	-10.9014
အဖွဲ့တွင်	-10.9017
ba	-10.9019
▁ဇော်	-10.9023
▁အီရတ်	-10.9025
▁နေအိမ်	-10.9029
▁မစ်	-10.9031
အရပ်တွင်	-10.9032
လာစေရန်	-10.9032
▁Th	-10.9035
▁ဖိအား	-10.9036
▁ဗမာ့	-10.9037
▁လုပ်ဆောင်ချက်	-10.9039
အဖွဲ့များ	-10.9039
လာလျှင်	-10.9044
▁ကညင်	-10.9045
▁Myanmar	-10.9045
ကြကုန်	-10.9046
▁သတ်မှတ်ခဲ့သည်။	-10.9048
ယာမ	-10.905
▁ခွဲစိတ်	-10.9051
▁ဖြစ်ကာ	-10.9052
▁ကြွေ	-10.9052
=65	-10.9052
▁ကျဆင်း	-10.9052
အထွေထွေ	-10.9053
▁ထီးလင်းမြို့နယ်	-10.9053
ပြည့်နှစ်	-10.9055
ကြရလေသည်။	-10.9057
ဇိုင်း	-10.9058
▁ကောင်းသော	-10.9059
▁အကြောင်းအရာများ	-10.9061
▁ဖြူ	-10.9063
▁လန်	-10.9064
▁တင်မြှောက်	-10.9069
▁မော်ကွန်း	-10.9069
38	-10.907
▁ဒီမိုကရက်တစ်	-10.9073
▁ကိုင်တွယ်	-10.9074
နေကြသော	-10.9076
▁နို	-10.9077
▁ဆွီဒင်	-10.9077
မျော	-10.9078
َ	-10.9079
စိပ်	-10.9079
▁ပိုင်းခြား	-10.9081
▁China	-10.9083
▁ကြွက်	-10.909
▁ကနဦး	-10.9093
ထုတ်ယူ	-10.9095
လဲ့	-10.9095
သူများနှင့်	-10.9099
ကိုယ်စားပြု	-10.9099
▁မြို့စား	-10.9099
701503	-10.9099
အနေနဲ့	-10.91
▁အရင်	-10.9104
ရကား	-10.9106
မြတ်စွာဘုရား	-10.9107
▁အာနန္ဒာ	-10.9108
စရိတ်	-10.9109
စုဆောင်း	-10.911
ဇွန်	-10.9118
ပညာရှင်များ	-10.9118
ဂျင်း	-10.912
ဘောလုံးသမား	-10.9123
ဇူ	-10.9126
တာဝန်ယူ	-10.9127
▁ခေါင်းလောင်း	-10.9129
ကျမ်း၊	-10.9134
▁သတ်မှတ်ထား	-10.9134
ပြီဟု	-10.9135
ယမ်	-10.9136
▁ဖိ	-10.9136
ဝရ	-10.9136
ဟွန်း	-10.9137
▁Java	-10.9139
▁Po	-10.914
▁ကျမ်းဂန်	-10.914
တတ်သည့်	-10.9142
▁ထိုခေတ်က	-10.9145
39	-10.9146
▁ဘင်္ဂလား	-10.9149
ရသည်	-10.915
▁တုံး	-10.9151
▁ဆိုသူက	-10.9152
▁ထေရဝါဒ	-10.9152
▁ကမ္ဘာကျော်	-10.9153
▁University	-10.9154
▁အလျောက်	-10.9155
▁Ro	-10.9157
▁အတူတကွ	-10.9158
▁Pyin	-10.9165
ပင်သည်	-10.9166
မှုရှိ	-10.9168
ရွာမ	-10.9169
ner	-10.9169
▁နိုင်ငံများတွင်	-10.917
ရှီး	-10.9175
သားတော်	-10.9176
မှလွဲ၍	-10.9177
ပတ်လည်	-10.9177
ငင်	-10.9178
42	-10.9182
▁အမေ	-10.9183
မပြု	-10.9185
ure	-10.9186
▁ဖယ်ရှား	-10.9188
▁ရေးထိုး	-10.9188
တော့ချေ။	-10.919
ရွယ်	-10.9191
ဉ္စ	-10.9191
ပြင်သစ်	-10.9192
တပည့်	-10.9193
ap	-10.9195
▁မူဝါဒ	-10.9195
လေးပါး	-10.9196
▁ဘူ	-10.92
▁ထီးနန်း	-10.92
▁Mong	-10.92
တွယ်	-10.92
▁ထူးချွန်	-10.9201
▁လက်ဖက်	-10.9204
▁နမ်	-10.9204
ကွမ်	-10.921
အကြိမ်	-10.9211
တာဝန်ထမ်းဆောင်	-10.9212
▁၆၆	-10.9212
%)	-10.9213
ခဲ့ကြသော	-10.9215
▁အကယ်ဒမီ	-10.9218
ဦး၊	-10.9219
▁အက်ဆစ်	-10.9221
တော်မူ၍	-10.9221
မိတ်	-10.9222
ကျော်ကြား	-10.9222
▁အရှေ့တောင်ဘက်	-10.9228
မွတ်	-10.9228
ကောင်စီ၏	-10.9228
▁သေးငယ်သော	-10.9228
စာစောင်	-10.9231
တစ်မျိုးကို	-10.9232
▁သဒ္ဒါ	-10.9232
ဘုရားကြီး	-10.9232
ဇုန်	-10.9235
▁အဖြစ်အပျက်	-10.924
အာရှ	-10.9242
▁ဧပြီလတွင်	-10.9242
ting	-10.9242
▁အသုံးအနှုန်း	-10.9243
ကြေညာ	-10.9243
▁အရေးယူ	-10.9243
နှ	-10.9243
သို့သော်	-10.9246
▁ရလဒ်	-10.9246
▁အခြေခံ၍	-10.9247
▁Te	-10.9247
ထင်ရှားကျော်ကြား	-10.9248
▁မိုင်းလင်း	-10.9249
▁ပြင်းထန်စွာ	-10.9252
တော်များ	-10.9253
နေရာများ	-10.9254
▁စသဖြင့်	-10.9254
han	-10.9258
▁သိမြင်	-10.926
uk	-10.926
▁ကွယ်လွန်သွား	-10.9262
▁၁၉၀၀	-10.9264
ဘုရားကျောင်း	-10.927
▁Gu	-10.9271
လာကာ	-10.9274
▁အကြောင်းပြု၍	-10.9276
▁ပဲခူးရိုးမ	-10.9278
▁ပယ်ဖျက်	-10.9279
မထား	-10.9286
ဖိ	-10.929
▁ဝယ်	-10.9293
▁အိမ်နီးချင်း	-10.9295
▁ဖျော်ဖြေ	-10.9296
စန်	-10.9297
▁အပြည့်အဝ	-10.9299
▁ပန်းပု	-10.9301
▁pop	-10.9306
ဗလ	-10.9307
▁အစိမ်းရောင်	-10.9309
ပုံး	-10.931
ဒုံး	-10.9312
ခံတပ်	-10.9314
▁အပူပိုင်း	-10.9317
▁သတိပေး	-10.9317
▁ကြိမ်မြောက်	-10.9318
▁ကျောက်တိုင်	-10.9322
အောင်း	-10.9323
သောအခါတွင်	-10.9324
=77	-10.9326
ster	-10.9327
မည့်သူ	-10.933
▁အတွေ့အကြုံ	-10.933
▁Pang	-10.9332
▁ခဝ	-10.9332
▁Nan	-10.9334
ယောင်း	-10.9335
▁ယို	-10.9337
▁မြို့ကြီး	-10.9339
he	-10.934
ok	-10.9341
တို့အကြား	-10.9342
▁ဝိနည်း	-10.9343
ရင်းမြစ်	-10.9343
ပြောကြား	-10.9343
တဘူတာ	-10.9352
ဟိန်း	-10.9353
▁ကြားခံ	-10.9356
▁ဒေသများတွင်	-10.9357
မလာ	-10.9359
ယမ်း	-10.9359
ရေးမှူးချုပ်	-10.9359
▁မောက်	-10.9362
▁အကျင့်	-10.9362
▁သောင်း	-10.9365
လာ၏။	-10.9365
▁ယုံကြည်ကြသည်။	-10.9365
▁Si	-10.9366
ပထမဆုံး	-10.9367
▁အတ္တလန္တိတ်	-10.9369
ဟုခေါ်	-10.9369
▁၁၉၁၅	-10.937
ရသေ့	-10.937
▁ထန်တလန်မြို့နယ်	-10.9373
ဗုံး	-10.9373
အရသာ	-10.9373
▁သိမ်းဆည်း	-10.9376
သမဂ္ဂ	-10.9377
ရပြန်သည်။	-10.938
ကျဆုံး	-10.9381
ဂျေ	-10.9382
▁ဆိုး	-10.9384
နိုဘူတာ	-10.9388
▁တူရကီ	-10.939
ကြောက်	-10.9393
ကိုယ်စား	-10.9394
အလုပ်သမား	-10.9395
ကြပေသည်။	-10.9395
▁သတ္တဝါများ	-10.9395
▁စီမံခန့်ခွဲမှု	-10.9397
▁စီမံခန့်ခွဲ	-10.9398
47	-10.94
အရပ်၌	-10.9404
မည်သော	-10.9404
▁ဒေါင့်ကြီး	-10.9404
▁အာဏာသိမ်း	-10.9405
▁ကျမ်းစာ	-10.9406
▁မုန်း	-10.9406
ပလာ	-10.9406
▁တစ်လ	-10.9407
▁အရှေ့မြောက်ဘက်	-10.941
▁Pro	-10.9412
▁ရည်မှန်းချက်	-10.9415
▁မော်လိုက်	-10.9415
ဓလေ့	-10.9415
ခွါ	-10.9416
▁ကေအင်န်ဒီအို	-10.9416
▁ပါကစ္စတန်	-10.9417
▁ကျူ	-10.9418
ဖြေရှင်း	-10.9419
ခဲ့လျှင်	-10.942
▁ပို့ချ	-10.942
ခဲ့သူဖြစ်သည်။	-10.9422
ခြင်းမပြု	-10.9422
▁ကုန်သည်	-10.9424
▁ဖမ်းယူ	-10.9426
▁ထောင်ဒဏ်	-10.9427
▁အမရပူရ	-10.9427
သင်ယူ	-10.9428
▁ရေတွင်း	-10.943
▁ဆွေ	-10.9438
တစ်စင်း	-10.944
လန့်	-10.944
▁စုံ	-10.944
သက်သာ	-10.9441
▁ပိတ်ပင်	-10.9444
▁ယှဉ်	-10.9451
Bot	-10.9451
လွင်ပြင်	-10.9452
▁ထိုမှ	-10.9454
▁တာဝန်ခံ	-10.9454
ပျို	-10.9456
▁ဗြိတိန်နိုင်ငံ	-10.9456
▁မဟုတ်ပါ။	-10.9456
လှန်	-10.9457
▁မရှိချေ။	-10.946
▁သေးငယ်	-10.9463
အကျဉ်း	-10.9464
▁ပြစ်မှု	-10.9465
မော်ရွာ	-10.9465
ပါဝင်ပြီး	-10.9467
တာကို	-10.9468
▁ပေပင်	-10.947
▁ကွမ်းခြံကုန်း	-10.9479
မျိုးနွယ်	-10.9481
မပေး	-10.9484
▁ဦးစွာ	-10.9486
▁ကော်ပိုရေးရှင်း	-10.9487
နေ၏။	-10.9488
ရ။	-10.9489
▁ဆောင်ရွက်ရန်	-10.949
▁အန်း	-10.949
▁Group	-10.9493
စက	-10.9495
လေ့ရှိပြီး	-10.9496
006	-10.9497
နူ	-10.9503
မှောက်	-10.9503
▁ချိုး	-10.9505
ဏာ	-10.9505
လှသဖြင့်	-10.9506
▁လွှမ်းခြုံဧရိယာ	-10.9506
▁web	-10.9508
▁ထိုအချိန်မှစ၍	-10.951
လာခဲ့ကြသည်။	-10.9511
—	-10.9511
အရေးအသား	-10.9512
▁ဓ	-10.9515
▁တူညီသော	-10.9517
▁ကေအင်န်ယူပါတီ	-10.9518
မြှုပ်	-10.9519
▁အကြမ်းဖက်	-10.952
▁ပြိုင်	-10.9523
▁Pu	-10.9524
ေန	-10.9525
▁အဋ္ဌကထာ	-10.9525
▁မွတ်	-10.9525
▁ခွန်	-10.953
သွားသောအခါ	-10.9536
▁သုံးနှစ်	-10.9537
▁ရတု	-10.9538
အယူဝါဒ	-10.9539
▁လက်ရှိတွင်	-10.954
မြင့်မား	-10.9542
နိုင်ငံရှိ	-10.9543
▁စကားကို	-10.9544
▁An	-10.9545
▁အသင့်	-10.9551
lan	-10.9551
နှဲ	-10.9552
▁သက်ဆိုင်သော	-10.9552
အလွှာ	-10.9553
မျိုးမှာ	-10.9554
စွမ်းရည်	-10.9554
▁တစ်ဦးဖြစ်သည်။	-10.9555
ခဲ့ချေ။	-10.9556
▁စွဲ	-10.9561
▁ဟတ်	-10.9561
▁For	-10.9562
▁ပဉ္စမ	-10.9565
နိုက်	-10.9565
▁အားကစားကွင်း	-10.9567
▁သဘင်	-10.9569
▁တစ်ခါ	-10.9571
▁ရှိသော်လည်း	-10.9574
▁တိုးတက်မှု	-10.9575
ရိတ်	-10.9576
▁ခြားနား	-10.9577
စီရင်စု	-10.9578
များပြား	-10.958
der	-10.9585
မယား	-10.9585
ဉ်	-10.9586
အခမ်းအနား	-10.9587
ထံ၌	-10.9587
အမျိုးမျိုးကို	-10.9589
▁ဖတ်ရှု	-10.959
နေသည်ဟု	-10.9591
▁၁၉၆ဝ	-10.9591
▁နာဂ	-10.9592
po	-10.9592
ခဲ့ကြရာ	-10.9595
ည်း	-10.9596
အရှည်	-10.9596
▁ရခိုင်ပြည်	-10.9599
မရှိပေ။	-10.96
အုပ်စိုး	-10.9602
နှစ်ဖက်	-10.9603
du	-10.9604
ပါပဲ။	-10.9605
▁ဒူး	-10.9606
ဖွဲ့စည်းခဲ့သည်။	-10.9607
ဖူးသည်။	-10.9609
ကြည်း	-10.9611
ဖေါ်ပြ	-10.9615
▁နိုဝင်ဘာလတွင်	-10.9616
▁မောင်မောင်	-10.9619
ထပ်မံ	-10.9621
ဆန့်ကျင်ရေး	-10.9623
▁ဒိုး	-10.9624
▁ညာ	-10.9624
▁လွယ်ကူစွာ	-10.9625
▁ဘုရင်မ	-10.9628
လျ	-10.9629
လိမ့်	-10.963
ဩဇာ	-10.9633
ဖြစ်ရပ်	-10.9637
ရပေမည်။	-10.9638
▁အရှေ့မြောက်	-10.9639
▁အရေးကြီးသော	-10.9639
နည်းတူ	-10.964
ရပေသည်။	-10.9644
▁တို့ပါဝင်သည်။	-10.9645
မပါ	-10.9646
▁ခေါင်းဆောင်များ	-10.9647
▁it	-10.9647
ကြိုင်	-10.9647
▁co	-10.965
ကွီ	-10.9651
▁ခြေထောက်	-10.9653
ဗက်	-10.9654
မှုတ်	-10.9656
ဇွန်း	-10.9657
▁ကမ္မ	-10.9658
ဆရာမ	-10.9662
ပေးရ	-10.9664
▁အတွင်းရှိ	-10.9665
▁မိုက်	-10.9665
ဖြန့်ချိ	-10.9666
▁များပြား	-10.9668
▁ကယ်	-10.9675
သည်ကား	-10.9675
▁လက်တင်	-10.9677
စီးဆင်း	-10.968
▁သမဝါယမ	-10.9683
နေရာသို့	-10.9683
hu	-10.9686
▁ဓာတ်ဆီ	-10.9687
နိုင်ရေးအတွက်	-10.9687
▁အစောပိုင်းတွင်	-10.9689
▁မွေးစား	-10.9689
▁5	-10.9691
▁သရက်တော	-10.9697
▁ငန်း	-10.9697
cha	-10.9698
ပြည်နယ်၏	-10.9699
နားရွာ၊	-10.9703
အရပ်ရပ်	-10.9703
=72	-10.971
နေတတ်သည်။	-10.971
အစိုးရသည်	-10.9712
▁မြန်မာစာပေ	-10.9714
နာဂ	-10.9721
လူသား	-10.9727
▁ဂေါ့	-10.9729
ရခြင်းမှာ	-10.973
▁စွန့်လွှတ်	-10.973
▁အပြောင်းအလဲ	-10.9735
▁စတုရန်း	-10.9735
ဒေသများ	-10.9738
▁ရွာတစ်ရွာ	-10.9745
In	-10.9745
▁နှစ်မျိုး	-10.9745
အကြီးအကဲ	-10.9747
▁သက်သေ	-10.9751
▁Car	-10.9752
လျှောက်ထား	-10.9754
▁ဆယ်စုနှစ်	-10.9756
ish	-10.9758
South	-10.976
▁မတ္တရာမြို့နယ်၊	-10.9763
▁အော	-10.9768
ငဲ့	-10.977
▁အသုံးပြုရန်	-10.977
▁လန်ဒန်မြို့	-10.9772
ထွင်း	-10.9773
▁မီးရှို့	-10.9776
နိုင်ပါတယ်။	-10.9777
▁လက်ဆောင်	-10.9778
▁ဆိုတဲ့	-10.9778
▁စာနယ်ဇင်း	-10.9779
é	-10.9779
ပုံအခြေခံဥပဒေ	-10.978
▁ဖြစ်သောကြောင့်	-10.9782
▁ရာစုတွင်	-10.9783
နေချိန်	-10.9786
တလင်း	-10.9786
▁ရေနွေးငွေ့	-10.9786
lu	-10.9787
▁နှစ်ကြိမ်	-10.9789
▁ရန်ကုန်သို့	-10.9792
မတူ	-10.9793
လွမ်း	-10.9797
▁အောက်ပိုင်း	-10.9798
▁သမာဓိ	-10.98
တမျိုး	-10.98
ji	-10.9803
▁ရေတွက်	-10.9803
▁ကာတာ	-10.9805
▁ထူးခြားသော	-10.9809
▁၁၀။	-10.981
▁ဘုန်း	-10.981
ခွဲ၍	-10.9812
ထုတ်လုပ်ရေး	-10.9814
ကတော်	-10.9816
▁တေးဂီတ	-10.9817
သဘောထား	-10.9818
ဖြစ်တဲ့	-10.9819
▁အိန္ဒိယပြည်	-10.982
စေခြင်း၊	-10.9821
▁အထက	-10.9823
▁ပင်း	-10.9824
အစ်	-10.9826
▁ခွဲထွက်	-10.9829
41	-10.9831
▁အဆိုအရ	-10.9831
ဟုန်	-10.9832
မြှောက်	-10.9832
▁ဘယ်လို	-10.9834
▁မိဘများ	-10.9839
တပ်ဆင်	-10.9843
တစ်ချောင်း	-10.9846
▁စံပြ	-10.9847
▁မြင်းမူမြို့နယ်	-10.9849
တစ်ဆူ	-10.985
▁နန်	-10.9852
မှအပ	-10.9855
▁၁၈၉၆	-10.9857
လာသည်ကို	-10.9857
▁ဖို	-10.9857
▁အသက်ရှင်	-10.9861
si	-10.9861
▁ပိဋကတ်	-10.9864
▁ဖခင်ဖြစ်သူ	-10.9865
ဂွ	-10.9866
သွားရောက်	-10.9866
▁ရက်နေ့မှ	-10.9866
ai	-10.9867
▁သယ်ယူ	-10.9868
▁Ar	-10.9869
▁စစ်သား	-10.987
သားတို့	-10.9871
မယ့်	-10.9871
▁မကျီး	-10.9871
▁အရုပ်	-10.9871
▁ဆတ်	-10.9871
မနေ	-10.9875
က္	-10.9876
ell	-10.9878
စစ်ဌာနချုပ်	-10.9881
ပြန်လေသည်။	-10.9882
▁အခွံ	-10.9882
▁ဆိုလေသည်။	-10.9883
▁စွမ်းအား	-10.9884
▁ထို့အတူ	-10.9885
▁ဖြစ်ပေါ်စေ	-10.9885
▁Sin	-10.9887
IA	-10.989
နေး	-10.989
per	-10.9895
▁နှစ်တွင်	-10.9896
▁တောခို	-10.9897
▁မည်သူ	-10.9898
gon	-10.9899
ဂျို	-10.9899
▁ရုရှားနိုင်ငံ	-10.99
▁အသံလွှင့်	-10.9901
▁ကုန်းမြေ	-10.9904
စားသုံး	-10.9905
ဝေဒနာ	-10.9906
နိုင်၍	-10.9907
လက်ရှိ	-10.9908
မျက်စိ	-10.991
သွားသည့်	-10.9913
▁ကွာ	-10.9918
အောက်ပိုင်း	-10.992
ဝတ်ဆင်	-10.992
▁ကျောက်တုံး	-10.9921
▁ဆင်နွှဲ	-10.9924
ဆဲလ်	-10.9924
▁တွင်လည်း	-10.9926
▁လျှင်	-10.9927
သက္ကရာဇ်	-10.9933
နှစ်အရွယ်	-10.9934
▁ပျောက်	-10.9937
အပြစ်	-10.9937
စူး	-10.9938
မင်းလက်ထက်	-10.9943
ဘုန်းတော်ကြီး	-10.9943
စာဆို	-10.9943
လျှော	-10.9944
▁အရင်း	-10.9944
တကာ	-10.9945
အသုံးချ	-10.995
▁အမွှေး	-10.995
ဆိုရင်	-10.995
ဇာတ်လမ်းတွဲ	-10.9955
စေနိုင်သည်။	-10.9955
ဦးစီး	-10.9955
▁အပြင်းအထန်	-10.9957
နှင့်ပတ်သက်ပြီး	-10.9957
ဒေဝ	-10.9957
▁လက်မခံ	-10.9959
ပြီးစီး	-10.9959
/&	-10.996
▁၁၉၁၃	-10.9961
▁ပဋိပက္ခ	-10.9961
▁not	-10.9962
▁အမြန်	-10.9962
▁ခြိမ်းခြောက်	-10.9963
▁ရှေးအကျဆုံး	-10.9964
▁လှိုင်	-10.9967
ရာတွင်လည်း	-10.9969
▁သိသာ	-10.9972
▁တိုက်ခိုက်မှု	-10.9972
▁ဦးကျော်	-10.9972
▁ဟုတ်	-10.9975
တိုက်ခိုက်မှု	-10.9975
▁အဆောင်	-10.9976
ဧကရာဇ်	-10.9977
သီအိုရီ	-10.9978
▁တရားသူကြီး	-10.9978
ဋီကာ	-10.9978
▁စည်ကား	-10.9981
နှောင်းပိုင်း	-10.9982
▁ပထမကမ္ဘာစစ်	-10.9983
ချိုင့်	-10.9983
စေလွှတ်	-10.9986
ကျီ	-10.999
ဒါန	-10.999
▁အတွင်း၌	-10.9991
▁ညောင်ဝိုင်း	-10.9995
mer	-10.9996
▁ဖု	-10.9996
သူများအတွက်	-11
▁တားဆီး	-11.0001
▁သိကြားမင်း	-11.0002
▁ဆန်း	-11.0003
=68	-11.0004
▁ဆုံးမ	-11.0005
မလေး	-11.0006
▁ဝန်းကျင်	-11.0007
တက္ကသိုလ်တွင်	-11.0009
▁ခရမ်း	-11.0011
ရှက်	-11.0011
▁ငယ်စဉ်ကပင်	-11.0012
ဗ္ဗ	-11.0014
▁ရောဂါပိုး	-11.0016
ဟမ်	-11.0018
▁ကြေးနန်း	-11.0019
စက္ကူ	-11.002
▁ဝူ	-11.0021
ချုံ	-11.0023
တွင်လည်းကောင်း၊	-11.0026
ပျံသန်း	-11.003
လာအောင်	-11.003
▁တစ်ခုခု	-11.0031
သေနတ်	-11.0033
▁ဖြစ်ကြ	-11.0034
▁အစု	-11.0035
မပျက်	-11.0036
မရှိ၊	-11.004
▁ညဉ့်	-11.004
▁ဆိုလို	-11.004
တွင်ပင်	-11.0041
▁ထိုစဉ်	-11.0043
ဒီဇိုင်း	-11.0043
ရာစုနှစ်	-11.0045
တစ်ရာ	-11.0047
ဆွမ်း	-11.0048
▁လူတန်းစား	-11.0048
စိတ်ဓာတ်	-11.0048
သေချာ	-11.0049
=64	-11.0049
▁မိဖုရားကြီး	-11.005
▁ကိုလိုနီခေတ်	-11.0051
▁Z	-11.0051
သွန်း	-11.0052
▁ဒဏ်ရာ	-11.0053
▁ကုက္ကို	-11.0055
▁သယ်ဆောင်	-11.0056
ခေါ်ဆို	-11.0058
‡	-11.0059
▁ဇူလိုင်လတွင်	-11.0059
▁Ywar	-11.0059
တစ်လျှောက်တွင်	-11.0061
ပေးခြင်းဖြင့်	-11.0062
တစ်ဦးအဖြစ်	-11.0063
ရေးသားခဲ့သည်။	-11.0063
၃ဝ	-11.0065
သင်္ကန်း	-11.0075
မှုတွင်	-11.0075
▁မြေး	-11.0075
စာကြည့်တိုက်	-11.0075
ထွတ်	-11.0076
ous	-11.0077
ကြပြန်သည်။	-11.0079
ပြုကာ	-11.008
▁ပခုက္ကူ	-11.0081
▁တိမ်	-11.0082
▁စာစောင်	-11.0082
အနား	-11.0084
▁အယ်လ	-11.0087
▁တက္ကသိုလ်မှ	-11.0088
မကျေးရွာအုပ်စု	-11.009
▁ခုနှစ်များတွင်	-11.0091
▁ပက်	-11.0092
ပါစေ	-11.0095
▁လိုက်၍	-11.0098
▁ပုန်း	-11.0101
▁အစာအိမ်	-11.0104
နေလေသည်။	-11.0105
▁ပါဝင်သရုပ်ဆောင်	-11.0107
ထားသည်	-11.0108
ကျဆင်း	-11.0111
▁ထိန်းသိမ်းထား	-11.0111
▁ဖေဖော်ဝါရီလတွင်	-11.0112
▁ကိုက်ညီ	-11.0113
▁ကမ္ဘာစစ်	-11.0114
ဇေယျ	-11.0116
ရလျှင်	-11.0119
ach	-11.0119
ဟုန်း	-11.0122
အကူအညီ	-11.0123
▁ရုပ်သိမ်း	-11.0125
အတည်ပြု	-11.0125
▁နှောင်းပိုင်း	-11.0128
▁ဆပ်	-11.013
လူငယ်များ	-11.0132
▁ကျယ်ပြန့်စွာ	-11.0132
▁ကမ္ဘာ့ဖလား	-11.0133
▁Web	-11.0134
▁အတိတ်	-11.0135
ence	-11.0137
လူမျိုးစု	-11.0137
ဆေး၊	-11.0138
ဂွန်	-11.0139
▁ကူးပြောင်း	-11.0141
▁စေ့စပ်	-11.0142
ငှား	-11.0145
▁အတော်	-11.0148
▁Ja	-11.0149
▁နာယက	-11.0152
ရန့်	-11.0156
အနာ	-11.0163
▁ဖက်ဆစ်	-11.0164
ဖှ	-11.0164
ن	-11.0166
▁ကြုံ	-11.0167
ညှာ	-11.0168
▁တစ်ကမ္ဘာလုံး	-11.017
▁သျှင်	-11.0172
▁ဂျင်	-11.0178
ပင့်	-11.0179
▁ဆီးချို	-11.0182
▁Ni	-11.0183
ခဲ့ရသော	-11.0183
▁မုဆိုး	-11.019
▁အနောက်မြောက်ဘက်	-11.019
မာလာ	-11.0194
▁ဂုဏ်ထူးဆောင်	-11.0195
မိန့်	-11.0195
▁စကြာဝဠာ	-11.0198
▁ခိုင်း	-11.0198
မြောက်ပိုင်းတွင်	-11.02
▁အငြိမ့်	-11.02
သောသူ	-11.0202
▁မိုင်းဖျန်	-11.0202
သွားကြ	-11.0203
▁မတရား	-11.0205
▁ငါ့သျှင်တို့	-11.0205
▁ပြည့်စုံသော	-11.0206
ပလောင်	-11.0206
ရှင်သန်	-11.0207
▁အဝါ	-11.0207
▁၁၉၃၄	-11.0209
▁မြို	-11.0209
▁အနိုင်ရရှိ	-11.0215
▁မလေးရှားနိုင်ငံ	-11.0215
aw	-11.0215
▁လူငယ်များ	-11.0215
လာခဲ့ပြီး	-11.0215
▁အပြုအမူ	-11.0216
ဖြစ်ထွန်း	-11.0218
▁လွမ်း	-11.0219
သည့်ပြင်	-11.0221
▁အင်္ဂလိပ်တို့	-11.0223
▁သောအခါ	-11.0223
▁နောက်တွင်	-11.0225
တူးမြောင်း	-11.0225
▁which	-11.0225
yan	-11.0227
ကုန်သည်	-11.0228
▁ဒါကြောင့်	-11.023
▁အကူအညီဖြင့်	-11.0233
▁အက်ဥပဒေ	-11.0236
▁အပေါက်	-11.0237
လိုက်ပြီး	-11.024
တတိယ	-11.024
▁ဘုရားလောင်း	-11.0241
တို့ကား	-11.0249
▁တတ်မြောက်	-11.0257
ဘော့	-11.0259
▁ခရစ်တော်	-11.0259
စဉ်းစား	-11.0259
မက	-11.0261
အပါး	-11.0263
▁နောင်တော်	-11.0263
▁လမ်းညွှန်	-11.0265
▁အရွယ်ရောက်	-11.0265
ပါဠိ	-11.0266
▁ခုန်	-11.0268
ခံရသည့်	-11.0269
▁လွှဲပြောင်း	-11.027
▁အတော်များများ	-11.027
▁၁၉၁၀	-11.027
▁Mu	-11.0271
▁ပကတိ	-11.0271
ov	-11.0273
▁မွမ်းမံ	-11.0273
တို့ကဲ့သို့	-11.0275
တံတိုင်း	-11.0277
▁Thit	-11.0277
ဘောင်း	-11.0283
ဟား	-11.0285
▁ကြေငြာခဲ့သည်။	-11.0287
▁ခုံ	-11.0287
ကျူးလွန်	-11.0288
▁လောက၌	-11.029
▁ဂိုဏ်း	-11.0296
▁မှန်ကန်	-11.0296
▁တိဗက်	-11.0298
ညစ်	-11.0299
ယ်ယူပို့ဆောင်ရေး	-11.0303
▁မြောက်အမေရိက	-11.0305
သူငယ်	-11.0305
ဘုရင်၏	-11.0306
ဟိုင်	-11.0308
▁သက္က	-11.0309
ဟောင်	-11.0311
▁စာပေများ	-11.0312
▁မော်လိုက်ခရိုင်	-11.0312
▁ကွပ်ကဲ	-11.0313
ဟစ်	-11.0314
ချီတက်	-11.0316
▁ပြီးဆုံး	-11.0316
တရားကို	-11.0316
ခြ	-11.0317
▁၂၀ဝ	-11.0319
▁နှမ်း	-11.0322
ရေစီအဖွဲ့ချုပ်	-11.0322
မဟုတ်၊	-11.0323
ကျော့	-11.0324
▁နှစ်ယောက်	-11.0325
▁အတွင်းပိုင်း	-11.0325
အသုံးအနှုန်း	-11.0327
▁မင်းလှ	-11.0329
▁အစိုးရမှ	-11.0329
▁ကျင်း	-11.0335
လိုက်ခြင်း	-11.0336
▁ကတိ	-11.0339
တွေ၊	-11.0341
▁သတ်မှတ်ထားသည့်	-11.0342
တန်ခိုး	-11.0343
▁ဖြေဆို	-11.0344
▁ငြင်းပယ်	-11.0345
▁ထမ်း	-11.0346
ဏ္ဍ	-11.0348
▁ပေါများ	-11.0348
ယိုင်	-11.0348
▁ပုံဖော်	-11.0349
ဝင်ငွေ	-11.0352
ွီး	-11.0352
▁အမျိုးသားဒီမိုက	-11.0357
▁ထု	-11.036
နိုင်သောကြောင့်	-11.0361
တစ်ဦးက	-11.0364
▁၁၈၉၄	-11.0365
▁ဗုဒ္ဓသာသနာ	-11.0366
မထေရ်	-11.0368
▁ဇန်နဝါရီလတွင်	-11.0369
▁ဆောင်းရာသီ	-11.0371
▁လူသိများသည်။	-11.0371
ရက်ထပ်နှစ်ဖြစ်	-11.0373
▁ခန္ဓာ	-11.0375
▁လိပ်ပြာ	-11.0377
▁ထိန်းသိမ်းရေး	-11.038
▁၇၂	-11.038
ပါသည့်	-11.0381
အခြေ	-11.0381
▁ချစ်ခင်	-11.0382
▁ပထဝီ	-11.0383
▁ကမ္ဘာမြေ	-11.0384
=207	-11.0384
ဌာနတွင်	-11.0385
▁သက်ရောက်	-11.0385
▁ဘိ	-11.0386
အဖွဲ့နှင့်	-11.0386
▁တွေ	-11.0386
▁အင်ဂျင်	-11.0388
ရတု	-11.0391
လိန်း	-11.0393
▁ကြာအင်း	-11.0397
များမှာလည်း	-11.0398
စေနိုင်	-11.0399
▁ကရင်အမျိုးသား	-11.0399
43	-11.04
▁နံရံ	-11.0401
▁အနောက်တောင်ဘက်	-11.0401
mon	-11.0401
up	-11.0402
သင့်ကြောင်း	-11.0402
▁ချက်ပြုတ်	-11.0407
▁အမေရိကတိုက်	-11.041
ရှိလျှင်	-11.0411
▁၉၅	-11.0413
ko	-11.0419
လုပ်ငန်းများတွင်	-11.0419
ဂျွန်	-11.042
▁သဲကုန်း	-11.0421
▁အတွင်းဝန်	-11.0427
အားထုတ်	-11.0427
▁နှာခေါင်း	-11.0428
ဖွဲ့စည်းပုံ	-11.0431
ten	-11.0431
၌မူ	-11.0431
▁ဆန္ဒပြ	-11.0434
ခေါ	-11.0434
▁ပါရမီ	-11.0435
▁ခေါင်	-11.0436
ပင်များကို	-11.0437
▁Lay	-11.0438
▁တယောက်	-11.0438
▁တယော	-11.0439
▁၁၈၈၄	-11.0439
ဆိုတဲ့	-11.0439
▁ဝိန်း	-11.0441
လွိုင်	-11.0442
လက်ထပ်	-11.0444
▁ခံစားရ	-11.0445
ထားသဖြင့်	-11.0446
▁စန္ဒရား	-11.0446
▁ဟိုတယ်	-11.0447
▁လူသားများ	-11.0449
▁တည်းဖြတ်	-11.0453
[	-11.0454
ဓာ	-11.0455
=138	-11.0458
▁အစားအသောက်	-11.0458
အ်	-11.0458
ဇီးကုန်းမြို့နယ်	-11.0459
▁၁၉၇ဝ	-11.046
▁ထိတွေ့	-11.0463
ချူး	-11.0469
ရွာဟောင်းရွာ	-11.0471
▁အဆိုပြု	-11.0472
▁ဂြိုဟ်တု	-11.0472
နှင့်ပတ်သက်သော	-11.0476
ဖြစ်ပြီး၊	-11.0477
▁သာသနာ့	-11.048
နေသည်	-11.0481
ကျောင်း၌	-11.0482
ပတ်လုံး	-11.0482
ဘွဲ့ရ	-11.0483
အဆင့်အတန်း	-11.0484
ရိန်း	-11.0485
ဆုံးဖြတ်ချက်	-11.0486
▁ဖြတ်ကျော်	-11.0486
စုကျေးရွာအုပ်စု	-11.0486
တစ်ဝက်	-11.0488
▁အနောက်ဖက်	-11.0491
▁ပြွန်	-11.0492
▁ယင်းတို့မှာ	-11.0492
▁ရံဖန်ရံခါ	-11.0494
▁စွန့်	-11.0495
လွှင့်	-11.0496
ဘွား	-11.05
▁ခလုတ်	-11.0501
ေး	-11.0502
ဈ	-11.0504
▁ဘင်	-11.0505
သောအားဖြင့်	-11.0508
နေရသည်။	-11.0508
ကုန်၏၊	-11.0512
▁တင်ဆက်	-11.0516
▁ပန်းချီဆရာ	-11.0517
=89	-11.0517
▁သီဟိုဠ်ကျွန်း	-11.0519
▁ရေကြည်	-11.052
တွေ့ဆုံ	-11.052
▁အလုပ်သမားများ	-11.0521
▁သုံးခွ	-11.0523
ကြာမြင့်	-11.0523
၏သား	-11.0524
▁၁၁။	-11.0525
ဆုပ်	-11.0527
တို့ကလည်း	-11.0529
ကစ၍	-11.0529
▁John	-11.053
▁တို့ဖြင့်	-11.0531
▁Nar	-11.0531
အဆင်း	-11.0534
ဆောင်ရွက်မှု	-11.0539
ထွက်သည်။	-11.054
ဝတ်စုံ	-11.054
နိုင်စွမ်းရှိ	-11.0542
▁နေမျိုး	-11.0545
တွေး	-11.0549
▁ဟူး	-11.0552
▁မြဝတီ	-11.0555
စွမ်းအား	-11.0556
ရတဲ့	-11.0556
▁ဗိုလ်မှူးချုပ်	-11.0556
▁ပိုမို၍	-11.0558
▁တရားဟော	-11.0559
အဖြစ်လည်း	-11.056
အဖြစ်မှ	-11.056
▁တက်ရောက်ခဲ့သည်။	-11.0562
နိုင်ချေ။	-11.0562
▁စတင်ဖွဲ့စည်း	-11.0562
▁နှစ်ဖက်	-11.0563
ခရီးသွား	-11.0564
လူနာ	-11.0564
လိုသည့်	-11.0565
ဝံ	-11.0565
ဆွယ်	-11.0567
လူတန်းစား	-11.0567
▁မျဉ်း	-11.0567
လူမျိုးများသည်	-11.0567
ကစားသမား	-11.0569
=90	-11.0569
▁ဓာတ်တော်	-11.0571
▁အလယ်တန်း	-11.0572
ပုံနှင့်	-11.0572
ဆက်ခံ	-11.0575
နှစ်လုံး	-11.0576
စကာ	-11.0576
▁He	-11.0577
ငုံ	-11.0578
▁ရပ်တန့်	-11.0582
▁မျိုးဆက်	-11.0582
ကြသူများ	-11.0583
▁ကြိုးပမ်းမှု	-11.0586
▁အရိပ်	-11.0587
▁ကျွန်မ	-11.0588
▁အစ်ကို	-11.0588
ခဲ့ပြီ	-11.0588
ခုခံ	-11.059
▁ဒေးဗစ်	-11.0591
▁အသျှင်	-11.0593
အဆောက်အဦ	-11.0596
▁ဝန်ခံ	-11.0597
ဂရိ	-11.0601
ဇီဝ	-11.0601
▁ဟိုက်ဒရိုဂျင်	-11.0604
ခြယ်	-11.0609
▁Hpa	-11.061
act	-11.061
▁ဖြည့်စွက်	-11.0614
▁၁၈၉၅	-11.0617
▁ဖွဲ့စည်းထားသည်။	-11.0618
▁ပြန်ကြားရေး	-11.0619
ရှေ	-11.0619
ကြီးမားသော	-11.0619
▁ပြုလုပ်သော	-11.062
48	-11.0622
▁သာယာဝတီ	-11.0622
တစ်ခုလုံးကို	-11.0623
ဂျီး	-11.0624
don	-11.0626
▁ကျောက်ဖြူ	-11.063
တပ်ဖွဲ့များ	-11.0631
ဝါဒကို	-11.0631
သမ	-11.0633
▁စာအုပ်ကို	-11.0634
ci	-11.0636
ဒိန်	-11.0637
▁ဥပဒေအရ	-11.0638
ဟယ်	-11.064
ထမင်း	-11.0642
မွေ	-11.0642
▁အိုက်ချန်	-11.0645
လျန်	-11.0648
▁ယောကျာ်း	-11.0649
စည်းရုံး	-11.065
▁လူတစ်ယောက်	-11.0651
▁Za	-11.0653
ဂတ်	-11.0655
လှော်	-11.0655
ဒပ်	-11.0656
တိုးချဲ့	-11.0656
▁သပြေကုန်း	-11.0656
tic	-11.0657
လေ။	-11.0659
ကျို	-11.0659
▁အမျိုးသားဥယျာဉ်	-11.0664
တစ်ခုဖြစ်	-11.0665
ဗိမာန်	-11.0666
▁ဖူး	-11.0666
နိုင်ငံနှင့်	-11.0667
▁သံလွင်	-11.067
ဆောင်းပါး	-11.0671
၂၀၁၀	-11.0672
ဖော	-11.068
▁လှည့်	-11.0681
ရသော်လည်း	-11.0683
လျှင်လည်း	-11.0684
ဖြစ်၍၊	-11.0685
လှမ်း	-11.0688
အဖြစ်လည်းကောင်း	-11.0688
▁ဟိုတောင်း	-11.0692
▁ဗုဒ္ဓဘာသာဝင်	-11.0692
ကျေးဇူး	-11.0694
▁ဖုန်း	-11.0694
▁အရှေ့တိုင်း	-11.0695
ရာဒေသ	-11.0697
ကျွမ်းကျင်	-11.0701
နှလုံး	-11.0702
▁မား	-11.0703
▁အဆင်း	-11.0706
ကျကျ	-11.0708
▁သာမက	-11.0708
▁ထုတ်ဝေသော	-11.0709
▁ကွဲ	-11.071
▁ကဗျာဆရာ	-11.0711
52	-11.0712
▁ကီ	-11.0714
▁မန့်	-11.0714
လုံးဆိုင်ရာ	-11.0719
▁သံလွင်မြစ်	-11.0722
တင်၍	-11.0722
▁တစ်ရပ်	-11.0722
မွေးမြူ	-11.0727
▁ရက်နေ့အထိ	-11.0727
လိုက်ရာ	-11.0728
▁ဒုံး	-11.073
ကြံစည်	-11.0731
ဂျ်	-11.0731
ရုံး၊	-11.0734
ဒြပ်စင်	-11.0737
နှောင်း	-11.0737
gen	-11.0738
▁ရက်မှ	-11.0739
ဗြိတိသျှ	-11.0741
▁ယန်း	-11.0742
▁ဉာဏ်တော်	-11.0744
▁ပြဆို	-11.0745
▁လုပ်ငန်းတာဝန်	-11.0746
701504	-11.0747
အယ်လ်	-11.0747
▁၁၉၅ဝ	-11.0751
▁အမွေး	-11.0752
=83	-11.0752
=66	-11.0755
▁သမိုင်းတွင်	-11.0756
▁system	-11.0757
အလ္လာဟ်အရှင်မြတ်	-11.0758
ကစ်	-11.076
▁ဘင်္ဂလားဒေ့ရှ်	-11.0763
▁တီးမှုတ်	-11.0768
သက်ရောက်	-11.0769
တလန်	-11.077
ချား	-11.0772
သွားရန်	-11.0774
ဒဏ်ကို	-11.0775
▁ပျို့	-11.0775
▁အဖွဲ့ဝင်နိုင်ငံ	-11.0776
▁သာစည်	-11.0787
▁ကုန်သွယ်	-11.0788
ချေား	-11.0789
အရိုး	-11.0789
▁ဆောင်ရွက်ခဲ့	-11.079
ဇောင်း	-11.0794
ရုပ်ပွားတော်	-11.0795
▁ခြင်	-11.0796
▁heavy	-11.0796
▁ကြာမြင့်	-11.0797
▁ပူးပေါင်း၍	-11.0798
▁ရွာငံမြို့နယ်	-11.0798
အုပ်ချုပ်ရေးမှူး	-11.0798
ရှိကြသည်။	-11.0799
သို့ရောက်ရှိ	-11.0799
▁မရှိဘဲ	-11.0801
▁ဘောင်	-11.0802
▁အသေးစား	-11.0803
▁၁၈၅၂	-11.0806
▁ကျောက်မဲ	-11.0808
▁ဖေ	-11.0808
သည်ထက်	-11.0809
ထားသော်လည်း	-11.0809
▁con	-11.081
▁ကစားသမား	-11.081
လုတ်	-11.081
သွန်	-11.0811
ss	-11.0813
▁ဝက်ဝံ	-11.0816
နည်းမှာ	-11.0819
ို	-11.082
▁အငြိမ်းစားယူ	-11.082
ပျံ့နှံ့	-11.082
များပင်	-11.0822
ခံ၍	-11.0827
မြန်မာနိုင်ငံသား	-11.0829
ပိုင်ဆိုင်	-11.0829
▁အပူပိုင်းဒေသ	-11.0832
▁အတတ်ပညာ	-11.0832
▁ရန်ကုန်တိုင်း	-11.0833
စ္ဆ	-11.0833
▁တုံ့ပြန်	-11.0833
▁ရှားတော	-11.0835
ဆရာတော်ဘုရားကြီး	-11.0836
ယေ	-11.0837
▁မြောင်မြို့နယ်	-11.0838
ခံခဲ့ရ	-11.0838
၅၀၀	-11.084
▁အကျယ်အဝန်းမှာ	-11.084
ကောင်းစွာ	-11.0844
▁မီးတောင်	-11.0845
Pa	-11.0847
▁နှစ်နှစ်	-11.0847
▁ကြေငြာ	-11.0849
▁မူတည်၍	-11.0849
သွား၍	-11.085
ရည်ရွယ်ချက်	-11.085
ခြင်းငှါ	-11.085
▁အသုံးပြုသည့်	-11.0854
ဗိုလ်ချုပ်	-11.0854
▁ရွာသစ်ကုန်းရွာ	-11.0857
▁မြို့နယ်တစ်ခု	-11.0859
ပါမောက္ခ	-11.086
ို့ဗမာအစည်းအရုံး	-11.086
ကြသည်ဟု	-11.0862
နှစ်ခုကို	-11.0862
▁မြေဩဇာ	-11.0863
▁ပုံနှိပ်ထုတ်ဝေ	-11.0863
▁မင်းဆက်	-11.0867
ရာထူးကို	-11.0868
ဒါယက	-11.087
▁အခြေပြု	-11.087
▁ဗောဓိ	-11.0874
▁သပိတ်ကျင်း	-11.0874
▁pa	-11.0877
ပုံပြင်များ	-11.0878
လေးစား	-11.0879
မယ်။	-11.088
▁စာရင်းတွင်	-11.0881
ထူးခြား	-11.0881
တိန်း	-11.0885
ထုတ်လွှင့်	-11.0886
▁စလင်း	-11.0888
သိပ်	-11.0888
▁၁၈၈၂	-11.0888
မြို့ရိုး	-11.089
▁ကျွန်ုပ်	-11.089
▁18	-11.0891
▁လေထု	-11.0894
ကြီးတစ်ခု	-11.0894
▁On	-11.0894
▁လိုင်း	-11.0894
▁ဖိတ်ခေါ်	-11.0896
▁အခြေချ	-11.0899
ard	-11.0901
ရဲဘော်	-11.0902
ပိုဒ်	-11.0904
▁ဥပဒေပြု	-11.0904
▁အဘ	-11.0905
လှယ်	-11.0905
▁Black	-11.0906
အဆင့်ဆင့်	-11.0907
▁ငှက်ပျော	-11.0909
ထွက်လာ	-11.091
ر	-11.0911
နိုင်ငံများနှင့်	-11.0912
▁မူး	-11.0913
ထန်းတပင်မြို့နယ်	-11.0913
▁ကွက်	-11.0916
▁ဒုတိယဥက္ကဋ္ဌ	-11.0917
▁ဆံတော်	-11.0918
▁ကြည်ညို	-11.0919
▁မိကျောင်း	-11.0919
▁လိုက်လံ	-11.0919
တစ်ခုမှ	-11.092
▁ဘုရင်မင်းမြတ်	-11.0921
▁၈၈	-11.0921
▁ဖိနှိပ်	-11.0922
မှန်ကန်	-11.0925
ပေါက်ရောက်	-11.0929
ပေးနိုင်သည်။	-11.093
▁အတောင်	-11.093
ကွပ်	-11.0932
မြက်	-11.0932
▁ဦးတင်	-11.0936
ရည်ညွှန်း	-11.0937
ချိန်၌	-11.0938
ဥစ္စာ	-11.0939
ty	-11.0946
▁အစွန်း	-11.0947
ကျောင်း၊	-11.0948
▁ဇင်းမယ်	-11.0951
▁သက်ရောက်မှု	-11.0953
ရွဲ	-11.0954
vo	-11.0955
ကြီးတွင်	-11.0966
ပြန်ရာ	-11.0967
သာဖြစ်သည်။	-11.097
▁မိုင်ခန့်	-11.097
▁ထွက်ပေါ်လာ	-11.0971
ts	-11.0973
▁အနက်ရောင်	-11.0977
▁ဈာန်	-11.0977
▁အတန်း	-11.0977
▁ယေဘုယျ	-11.0981
▁သဲကန္တာရ	-11.0981
စာများ	-11.0981
▁ဖြစ်နိုင်	-11.0982
▁ဗီဒီယို	-11.0982
အတွင်းက	-11.0984
▁မျိုးရိုး	-11.0985
▁အသုံးဝင်	-11.0986
မဝင်	-11.0987
▁Burma	-11.0988
▁ဆောင်ဖမြို့နယ်	-11.0989
ရှဲ	-11.0992
ပေးထား	-11.0994
▁မလေး	-11.0997
and	-11.0998
▁ကြ	-11.0998
53	-11.0998
စာကို	-11.0999
▁နီးပါး	-11.1004
ဖြစ်သွား	-11.1005
▁ဂါထာ	-11.1006
ချထား	-11.1006
▁လစ်	-11.1007
ris	-11.1007
ရိယ	-11.1012
py	-11.1016
လားဟူ	-11.1017
ကန့်လန့်	-11.1018
သိမ်းယူ	-11.1022
ထူထပ်	-11.1025
▁အသိုက်	-11.1025
ဂေါင်း	-11.1027
သယ်	-11.1031
ကြင်	-11.1031
အများစုမှာ	-11.1032
မူပိုင်ခွင့်	-11.1035
▁အကွာ	-11.1036
den	-11.1037
▁အလီ	-11.1037
▁တစ်ခုနှင့်တစ်ခု	-11.1038
▁တွေ့ရသော	-11.1039
မုနိ	-11.104
▁ကြွ	-11.1041
တွန့်	-11.1043
▁တည်ထားကိုးကွယ်	-11.1043
ပြိုင်ပွဲတွင်	-11.1046
▁Lar	-11.1046
▁ဂျာ	-11.1046
▁ဒစ်ဂျစ်တယ်	-11.1047
▁မကျေနပ်	-11.1048
▁ထွက်သည်။	-11.105
အန်း	-11.105
ကျွမ်း	-11.1053
အကျယ်	-11.1053
▁ချစ်ကြည်ရေး	-11.1054
▁နောက်မှ	-11.1054
ပါဒ	-11.1059
လျှော်	-11.1062
ဗားရှင်း	-11.1064
▁ဆိုနိုင်သည်။	-11.1065
သန့်စင်	-11.1067
မြို့ဖြစ်သည်။	-11.1068
ဓဇ	-11.1069
▁တစ်နိုင်ငံ	-11.1073
သွားကြသည်။	-11.1073
ab	-11.1074
▁ရက်နေ့၌	-11.1074
ကျယ်ဝန်း	-11.1075
တရားလွှတ်တော်	-11.1075
▁အဘယ်ကြောင့်	-11.1078
ုတ်	-11.1079
=69	-11.1081
▁ပေါက်ရောက်သည်။	-11.1082
မှုဆိုင်ရာ	-11.1082
ပေါ်မှာ	-11.1083
▁ရောစပ်	-11.1083
sk	-11.1085
▁အထင်ရှားဆုံး	-11.1085
▁အုံ	-11.1086
ရပ်တည်	-11.1089
▁မွတ်စလင်	-11.109
ဂုံ	-11.109
▁ကိုယ်ဝန်ဆောင်	-11.1091
ခြင်းများကို	-11.1092
▁စိုင်	-11.1096
▁တစ်လုံး	-11.1096
ထားကြ	-11.1098
▁အားလုံးကို	-11.11
ေယျ	-11.1101
▁ကွန်ဂရက်	-11.1102
▁သာစည်မြို့နယ်၊	-11.1102
လမ်းမကြီး	-11.1103
ဂိတ်	-11.1105
တိရစ္ဆာန်	-11.1106
▁ကာယ	-11.1107
နှိုက်	-11.1108
ကျောင်းမှ	-11.1111
ပြည်ထောင်စု၏	-11.1112
▁ဆိုသူ	-11.1113
တရားဝင်	-11.1115
▁တိဘက်	-11.1118
တစ်ခါ	-11.1119
ဖြင့်လည်း	-11.1119
▁တောင်ထိပ်	-11.1119
▁ကယားပြည်နယ်	-11.112
▁ဂုဏ်ထူး	-11.1121
▁ကောင်း၊	-11.1121
▁ဒါး	-11.1122
ki	-11.1125
ဒွန်း	-11.1126
▁တည်ထောင်သူ	-11.1128
au	-11.1129
တောင်းဆို	-11.1131
▁ကစားနည်း	-11.1132
ice	-11.1132
ပင်ကို	-11.1133
▁Kha	-11.1137
ရေကျော်	-11.1138
လိုက်၍	-11.1139
ပြည်ထောင်စုသမ္မတ	-11.1143
သော်လည်း၊	-11.1143
▁ရာထူးမှ	-11.1143
▁ဒင်္ဂါး	-11.1146
မြစ်၏	-11.1148
ဖန်း	-11.115
▁ဗုံး	-11.1152
▁l	-11.1152
ကွေ	-11.1156
သားကို	-11.1156
nic	-11.1156
▁ညို	-11.1161
▁ထုလုပ်	-11.1163
လေးများ	-11.1163
▁နစ်	-11.1163
ရေတပ်	-11.1167
▁ဆွတ်	-11.1169
▁အပေါ်တွင်	-11.117
▁တပ်မှူး	-11.117
▁ပြည်မြို့နယ်၊	-11.117
▁နှစ်နိုင်ငံ	-11.1173
ပေမည်။	-11.1177
ee	-11.1177
▁လိုလား	-11.1184
▁တင့်တယ်	-11.1185
▁စွန်	-11.1185
▁သယ်ယူပို့ဆောင်	-11.1186
▁အလှူ	-11.1186
ဖြစ်ရန်	-11.1186
▁ကောင်မင်ဆန်း	-11.1186
ll	-11.1187
ချန်း	-11.1189
များဖြစ်	-11.1189
ကျန်ရစ်	-11.119
ကြေ	-11.119
ထစ်	-11.1192
အတူ	-11.1192
နိမိတ်	-11.1193
▁နည်းဥပဒေ	-11.12
▁ဘဒ္ဒန္တ	-11.1202
ခရစ်ယာန်	-11.1202
▁တိမ်ကောသွား	-11.1206
▁အစိမ်း	-11.1208
အွန်	-11.1208
▁ကက်	-11.121
▁ဝီ	-11.1211
="207	-11.1213
▁အုတ်ဖို	-11.1215
▁အလိုရှိ	-11.1215
▁မျှော်စင်	-11.1216
▁ဆင်တူ	-11.1217
▁နတ်ဘုရား	-11.1218
ထိခိုက်	-11.1218
▁ကလပ်	-11.122
▁ဆိုက်	-11.1222
▁ဆွဲဆောင်	-11.1225
=92	-11.1225
သန့်ရှင်း	-11.1226
▁အမြတ်	-11.1227
▁ဗီတာမင်	-11.1227
▁ကြီးထွား	-11.1227
chi	-11.1228
မြွေ	-11.1228
ye	-11.1228
▁ဝန်ဆောင်မှုများ	-11.1234
မုန်တိုင်း	-11.1235
ဟုဆို	-11.1237
▁၁၈၇၈	-11.1238
▁သာယာကုန်းရွာ	-11.1238
▁ပြုလုပ်ထားသော	-11.1239
အကြံ	-11.1239
▁အီရန်နိုင်ငံ	-11.124
ခဲ့ကြပါသည်။	-11.1241
▁၁၈၉၈	-11.1242
လိုက်ကြသည်။	-11.1243
BC	-11.1244
ဆင်ခြင်	-11.1244
▁၁၈၉၂	-11.1246
တလုံး	-11.1247
▁ရှိကာ	-11.1248
▁မုတ္တမ	-11.1253
▁စုဝေး	-11.1256
တပါး	-11.1259
ယိမ်း	-11.126
▁ချား	-11.1261
▁အရပ်ရပ်	-11.1261
ဇနီး	-11.1262
စိုက်ပျိုးကြသည်။	-11.1265
49	-11.1265
▁၆၈	-11.1268
▁ကာကွယ်ရန်	-11.1268
များသော	-11.1269
=95	-11.1272
မျ	-11.1273
မှပင်	-11.1273
▁ပိုင်ဆိုင်မှု	-11.1274
ဆန့်	-11.1274
မှသာလျှင်	-11.1278
▁ဦးစိန်	-11.1279
သေးချေ။	-11.1281
=58	-11.1281
▁အကွက်	-11.1281
▁ပြက္ခဒိန်	-11.1283
▁တွေ့ရလေသည်။	-11.1284
▁ကဗျာကို	-11.1285
▁Con	-11.1288
ix	-11.1289
လျာ	-11.1291
▁ဖဲ	-11.1292
▁အရှေ့တောင်	-11.1293
တ္တိ	-11.1299
▁ခုနှစ်မှာ	-11.13
ရှို	-11.13
▁မှော်	-11.1301
▁ပြင်သစ်၊	-11.1301
▁ကျိုး	-11.1304
လှပ	-11.1305
ကုပ်	-11.1305
ကျွေး	-11.1306
▁also	-11.1306
ရေးဦးစီးချုပ်	-11.1307
▁နိမိတ်	-11.1308
▁Pauk	-11.1308
▁ဘတ်	-11.1309
▁Ph	-11.1312
ပေးခဲ့	-11.1312
ချွန်း	-11.1313
▁National	-11.1313
▁ညီညွတ်	-11.1313
ခန့်တွင်	-11.1318
015	-11.1318
ကြွင်း	-11.1321
၄ဝ	-11.1327
▁များ၏	-11.1329
ဂယ်	-11.133
▁ဂျိမ်း	-11.1332
ည်	-11.1333
▁အခြေအနေကို	-11.1334
သင်္ချာ	-11.1334
ning	-11.1337
▁နမူနာ	-11.1338
▁စောင်	-11.1339
=149	-11.134
စာမေးပွဲ	-11.134
ad	-11.134
လိုက်၏။	-11.1341
ခြင်းခံခဲ့ရသည်။	-11.1343
နေအိမ်	-11.1344
="149	-11.1345
▁ရှုပ်ထွေး	-11.1345
▁ကျီ	-11.1346
▁ရာဇဝတ်မှု	-11.1346
ပုံစံများ	-11.1347
နေသောကြောင့်	-11.1348
▁ဖြစ်ခဲ့	-11.1351
▁နှုတ်ခမ်း	-11.1351
လေ့ရှိကြ	-11.1351
နိုင်ငံကို	-11.1353
▁ဆင့်	-11.1353
▁သံချို	-11.1353
ဂါထာ	-11.1355
▁Pi	-11.1357
▁ရှက်	-11.1359
▁၁၈၉၁	-11.136
ဇယား	-11.136
▁နယူးယောက်	-11.1362
▁ဖြစ်သွား	-11.1366
ဖုတ်	-11.1367
▁အကြီးမားဆုံး	-11.1368
မွဲ	-11.1375
▁ပညာရှင်များ	-11.1375
ဘွယ်	-11.1376
ated	-11.1378
အလျား	-11.1378
ကျဉ်း	-11.1378
▁ဂျူ	-11.138
ပြက်	-11.1382
ိုင်းစစ်ဌာနချုပ်	-11.1383
ယော်	-11.1383
▁Nam	-11.1383
တော်ဝင်	-11.1384
▁ပြုလုပ်ခြင်း	-11.1385
တစ်ခုသည်	-11.1386
ပညာသင်ကြား	-11.1386
▁လူမျိုးရေး	-11.1387
▁ဝီလီယံ	-11.1387
ဆောင်ရွက်ရန်	-11.139
▁ဦးစံ	-11.1391
တိတ်	-11.1393
▁စည်းရုံးရေး	-11.1394
▁ကာလအတွင်း	-11.1394
▁ဖီ	-11.1394
ဖြင့်လည်းကောင်း၊	-11.1395
တင်ပို့	-11.1396
နည်း၊	-11.1399
▁ကွာဝေးသည်။	-11.14
မပါဘဲ	-11.14
▁ခိ	-11.1401
ဇက်	-11.1404
▁သံလိုက်	-11.1404
▁ဦးစားပေး	-11.1404
▁ညီအစ်ကို	-11.1406
▁တိုင်ပင်	-11.1406
▁အဖွဲ့၏	-11.1407
▁မှူးမတ်	-11.1408
▁x	-11.1409
အချက်များ	-11.1409
ထမ်းဆောင်	-11.1411
▁ဟူ၍လည်း	-11.1411
ရှူ	-11.1414
▁ရွာမ	-11.1414
▁သိုင်း	-11.1414
46	-11.1415
▁အုန်းပင်	-11.1419
လူများ	-11.1421
▁ချီးမွမ်း	-11.1424
ကြပြီးလျှင်	-11.1424
▁လှုံ့ဆော်	-11.1426
▁ကိလေသာ	-11.1426
ဆွေးနွေးပွဲ	-11.1427
လိုလျှင်	-11.1427
စိုက်ပျိုးရေး	-11.1427
東	-11.1427
ဖေါက်	-11.1428
▁စန္ဒ	-11.1429
စာမျက်နှာ	-11.1429
▁ယုန်	-11.1429
▁အိုင်ဖုန်း	-11.1429
▁အာဏာရှင်	-11.1433
ဖက်မှ	-11.1434
လွင့်	-11.1435
▁ဆင်ဖြူ	-11.1435
တွင်းရွာ၊	-11.1438
▁၁၈၈၇	-11.1439
▁၁၉၀၁	-11.1441
▁ဆောက်လုပ်ရေး	-11.1443
နိုင်ကြသည်။	-11.1444
နေထိုင်ကြ	-11.1444
တစ်ပုဒ်	-11.1445
▁မိုးမိတ်	-11.1447
ထွက်ရှိ	-11.1447
သူဌေး	-11.1449
ယူး	-11.1449
▁ရာမ	-11.1453
ရှေ့တွင်	-11.1453
▁ထိန်း	-11.1454
ရေးဆိုင်ရာ	-11.1462
▁ဂျပန်တို့	-11.1462
▁တစ်နေရာ	-11.1463
▁ဒို	-11.1464
▁ဖီဖာ	-11.1469
စကီး	-11.147
▁ကျွန်းဆွယ်	-11.147
▁စက္ကန့်	-11.147
ဖိအား	-11.1471
▁အစိုးရသည်	-11.1472
my	-11.1475
▁ပြီးလျှင်	-11.1475
ဂေါ်	-11.1476
▁၁၉၀၅	-11.1478
စီးပွား	-11.1479
ပေါ်မူတည်၍	-11.1479
ဇယ်	-11.1479
▁n	-11.148
ခက်ခဲ	-11.148
ိယ	-11.148
▁လှည့်ပတ်	-11.1481
▁မော်စကို	-11.1485
▁Har	-11.1487
ဗု	-11.149
▁ရောက်သွား	-11.149
▁တကောင်း	-11.1492
▁ချင်	-11.1493
ပြည်ထောင်စုတွင်	-11.1493
▁ချာ	-11.1493
ပေါများ	-11.1498
သပ်	-11.1499
▁ဖြတ်၍	-11.1501
အလှ	-11.1502
▁စကော့	-11.1504
ဗယ်	-11.1508
▁ဆေးတက္ကသိုလ်	-11.1508
ထွန်	-11.151
င်္	-11.1511
ရွေ့	-11.1511
ron	-11.1512
ကျွတ်	-11.1514
▁ခိုင်မာ	-11.1515
ခေ	-11.1518
▁ကတော့	-11.1518
▁ဆင်ဖြူရှင်	-11.1518
တုပ်	-11.1519
▁စနစ်ကို	-11.152
ဒဘူတာ	-11.152
*	-11.1522
တစ်ဦးဖြစ်သူ	-11.1523
သဒ္ဒါ	-11.1523
▁ထန်းပင်	-11.1524
အခေါ်	-11.1526
▁ဆီမီး	-11.1527
▁ထွက်ရှိ	-11.1529
▁ချင်းပြည်နယ်	-11.1531
▁ဆုတ်ခွာ	-11.1532
▁Rock	-11.1534
လေ့ကျင့်	-11.1535
ယာမဘူတာ	-11.1536
▁ထိုသို့သော	-11.1538
ဖြည့်	-11.1538
▁ဝါးရုံ	-11.1543
▁ပန်းချီကား	-11.1544
▁ပြုလုပ်ပေး	-11.1545
by	-11.1546
▁ဆဲလ်	-11.1547
▁ဆွေမျိုး	-11.1548
▁နမ်ခမ်းဝူး	-11.155
ဘုန်းကြီး	-11.1551
▁စစ်ကိုင်းခရိုင်	-11.1552
နေထိုင်ရာ	-11.1558
▁အတွင်းသို့	-11.1559
▁မြင်ရ	-11.1562
▁နှစ်ကြာ	-11.1564
▁မဲဆန္ဒနယ်	-11.1567
▁တပ်ဖွဲ့	-11.1568
မျိုးရိုး	-11.157
▁ရှိခိုး	-11.1571
ပုံများကို	-11.1573
▁သုည	-11.1574
ger	-11.1575
ငြိမ်	-11.1576
▁ထုတ်လွှတ်	-11.1576
ချောင်းဖျားရွာ	-11.1579
▁ဝတ္ထုရှည်	-11.158
▁ပန်ဝိုင်	-11.1582
ဗြ	-11.1582
▁အကျိုးရှိ	-11.1585
နှစ်တွင်	-11.1587
အခွန်	-11.1587
စည်သူ	-11.1587
အကျဆုံး	-11.1588
▁ပါဝင်ဆောင်ရွက်	-11.1589
▁မအောင်မြင်	-11.1589
ပညာရှင်များက	-11.159
ပျဉ်	-11.1592
▁သုံးကြိမ်	-11.1597
စသည်တို့ကို	-11.1597
ဖခင်	-11.16
မိန်း	-11.1604
▁ကုန်ပစ္စည်း	-11.1604
ance	-11.1607
lin	-11.1611
▁တွေ့ရ၏။	-11.1611
▁အကြင်	-11.1612
ရရှိရန်	-11.1612
ဂမုန်း	-11.1613
ဖက်တွင်	-11.1613
ဒိုက်	-11.1615
မပြတ်	-11.1615
▁လူး	-11.1616
မှတစ်ပါး	-11.1617
▁ဆပ်ပြာ	-11.1617
ကြီးအား	-11.1619
ခုနှစ်မှ	-11.1619
▁Nat	-11.162
ခြင်းခံရ	-11.1623
▁၉၆	-11.1624
=205	-11.1624
အောင်ဆန်းစုကြည်	-11.1625
မှုများနှင့်	-11.1627
န္တိ	-11.1627
ပါဝင်ခဲ့သည်။	-11.1628
သူတော်	-11.1629
▁အင်ပါယာ	-11.1629
▁လောင်စာ	-11.1635
ဘက်က	-11.1635
သတိ	-11.1637
▁လိုအပ်သည့်	-11.1638
▁ဘူတာရုံ	-11.1639
▁ဖြစ်ထွန်း	-11.164
သူတွေ	-11.1641
▁ရွာသစ်ရွာ	-11.1642
▁ရုပ်ရှင်ကား	-11.1642
▁၁၉၀၃	-11.1643
▁၁၈၂၄	-11.1644
▁ရှိသဖြင့်	-11.1644
▁၁၈၅၇	-11.1645
=88	-11.1646
သည့်အလျောက်	-11.1646
▁အရံ	-11.1647
▁ဘိုင်	-11.165
▁အမိုး	-11.1651
▁ပြုလုပ်ကြသည်။	-11.1651
▁ပွား	-11.1651
▁အချုပ်အခြာအာဏာ	-11.1652
ဆန်သော	-11.1652
▁သုံးခု	-11.1654
နိယ	-11.1658
ဆောင်ရွက်ခြင်း	-11.1659
တစ်ဦး၏	-11.166
▁စီးဝင်	-11.1661
core	-11.1661
ကာရ	-11.1663
▁သင်ကြားခဲ့သည်။	-11.1664
▁မျှော်လင့်	-11.1667
ကစားနည်း	-11.1669
သနည်း	-11.167
▁သာမဏေ	-11.167
သတ်ဖြတ်	-11.1671
တာဝန်ကို	-11.1671
king	-11.1672
▁နီး	-11.1675
ဖျာ	-11.1675
ယ်ကျယ်ပြန့်ပြန့်	-11.1675
▁ဖားဆောင်း	-11.1676
ja	-11.1676
ပြောင်းလဲခဲ့သည်။	-11.1676
▁Go	-11.1679
▁သတ်မှတ်ထားသည်။	-11.1679
ရွာဟောင်း	-11.1681
နေထိုင်ကြသည်။	-11.1683
သဘောကို	-11.1684
အစစ်	-11.1684
▁formula	-11.1685
ငါ့	-11.1685
နှင့်တူသော	-11.1685
ကျောင်းတော်တစ်ခု	-11.1686
▁ဆောင်ရွက်ပေး	-11.1686
ရှိကာ	-11.1688
ဆိုသည်။	-11.1689
▁ခွဲဝေ	-11.169
▁၁၈၅၉	-11.1691
▁သိပ်	-11.1692
▁(4)	-11.1695
ဒ္ဓ	-11.1698
▁ထူ	-11.1698
လာသည့်အခါ	-11.1699
အလုပ်ကို	-11.1705
မဟုတ်သည့်	-11.1705
▁မည်	-11.1709
တဲ့အခါ	-11.1709
သေး၏။	-11.1711
▁ဂေါ	-11.1716
▁ပစိဖိတ်	-11.1717
▁အင်မတန်	-11.1717
ou	-11.1718
▁ဝပ်	-11.1718
ပုဂ္ဂိုလ်များ	-11.1719
▁power	-11.172
▁ရုပ်ပုံ	-11.172
ဂန်း	-11.1721
▁မြောက်ဖက်	-11.1721
="138	-11.1721
ဘုရား၊	-11.1722
▁ခြ	-11.1722
တွက်ချက်	-11.1723
ရရန်	-11.1723
▁အသုံးမပြု	-11.1726
ပတ်လမ်း	-11.1727
▁၁၉၀၆	-11.1727
ပေါင်းချုပ်	-11.1728
ွှ	-11.1729
ပုံများ	-11.1729
ဖော့	-11.1729
▁ကုန်ကျစရိတ်	-11.1736
ven	-11.1737
ပြောင်းရွှေ့	-11.1738
အသိုင်းအဝိုင်း	-11.1739
ပြုလုပ်ခြင်း	-11.1739
▁အားနည်း	-11.1743
▁စိုးမိုး	-11.1743
ခဲ့ကြရသည်။	-11.1744
▁ခန့်က	-11.1744
lic	-11.1745
ပျိုး	-11.1746
▁အခိုင်အမာ	-11.1746
နွေး	-11.1747
ow	-11.1747
▁ဆည်မြောင်း	-11.1748
သည်ဟူသော	-11.1748
များပါ	-11.1749
▁ဆံ	-11.1749
တည်းဟူသော	-11.1758
ဒွန်	-11.1758
ل	-11.1758
▁ရင်ဖန့်မြို့နယ်	-11.1759
▁ဗျည်း	-11.1759
ဓာတ်ပုံ	-11.176
နယ်၊	-11.176
ရသောကြောင့်	-11.1762
▁ပိုင်ရှင်	-11.1762
အံ	-11.1764
သည့်အချိန်	-11.1766
=63	-11.1767
▁လူ့အဖွဲ့အစည်း	-11.1768
▁ချင်းတွင်းမြစ်	-11.1768
လိမ်း	-11.1771
▁ရိုး	-11.1772
▁ရှေ့တန်း	-11.1773
ရက်၊	-11.1773
▁၁၈၂၁	-11.1774
▁မရှိခဲ့ပေ။	-11.1774
▁အနုပညာရှင်	-11.1775
▁ပြင်းထန်သော	-11.1776
အမျိုးအစားများ	-11.1777
နိုင်ငံသား	-11.178
▁အပတ်စဉ်	-11.178
လှရွာ	-11.1782
▁အမွေ	-11.1788
▁အစပြု	-11.179
အပူ	-11.1791
▁ပုဂံမင်း	-11.1792
▁ပြောင်းလဲသွား	-11.1793
▁ယု	-11.1794
ိမ်း	-11.1795
▁ဘေ	-11.1796
တားဆီး	-11.1796
▁ဂြိုဟ်ရံလ	-11.1799
ver	-11.18
▁ကျယ်	-11.18
kan	-11.1802
ဟိတ်	-11.1803
▁အခွင့်အရေးများ	-11.1804
▁တဏှာ	-11.1806
▁ကိုယ်ထည်	-11.1807
▁ထိုကဲ့သို့သော	-11.181
ဝစ်	-11.1812
▁နေထိုင်ရာ	-11.1812
တူးဖော်	-11.1812
▁အဓိပ္ပါယ်ရသည်။	-11.1813
ခြင်းမရှိဘဲ	-11.1817
▁စာသား	-11.1817
ကလေးရွာ	-11.182
ကြီးထွား	-11.1821
နေပါသည်။	-11.1821
▁အဓိပ္ပာယ်ရသည်။	-11.1821
သုံ	-11.1822
▁၁၂။	-11.1822
=60	-11.1822
▁ရေကူး	-11.1823
▁ကဗျာများ	-11.1824
ဖြောင့်	-11.1825
ကြရ၏။	-11.183
▁ရရှိနိုင်	-11.1832
လဟာ	-11.1835
punk	-11.1835
ရှပ်	-11.1836
▁အပိုဒ်	-11.1838
▁တည်ရှိ၍	-11.1838
ဖိတ်	-11.1839
▁နိုင်ငံအတွင်း	-11.184
▁အပြား	-11.1842
▁ပြတ်	-11.1843
အနေ	-11.1843
▁ရေအောက်	-11.1846
အသိ	-11.1846
▁ရှောင်ကြဉ်	-11.1847
ဘဝကို	-11.1848
=59	-11.1849
min	-11.1849
လျက်ရှိပြီး	-11.1851
▁ကျနော်တို့	-11.1852
ဓာတု	-11.1853
တိုင်းတာ	-11.1854
Ch	-11.1857
▁ဟက်	-11.1859
▁အနုပညာရှင်များ	-11.186
▁အာဟာရ	-11.1861
▁၁၈၈၁	-11.1861
▁တစ်ချို့	-11.1861
▁၁၈၈၈	-11.1862
▁လယ်တီ	-11.1862
▁ပျံ	-11.1862
တော့၏။	-11.1862
ဟက်	-11.1862
▁ဟောင်း	-11.1863
▁အမှား	-11.1864
ရန်ဖြစ်သည်။	-11.1864
နိုင်ခွင့်	-11.1864
ူး	-11.1864
▁နီးစပ်	-11.1866
▁ပြန်ရောက်	-11.1871
မှာပဲ	-11.1873
▁Lan	-11.1875
▁Jo	-11.1875
တောင်ဘက်	-11.1875
▁လိုအပ်သည်။	-11.1876
အမျိုးမျိုးဖြင့်	-11.1876
လုပ်ငန်းသည်	-11.1881
အသစ်များ	-11.1883
လွတ်မြောက်ရေး	-11.1885
▁နှဲ	-11.1886
စည်ကား	-11.1886
▁၁၈၆၄	-11.1887
ခေါင်းဆောင်သော	-11.1887
▁တွေ့မြင်နိုင်	-11.1888
▁ခုမြောက်	-11.1888
▁ယူကေ	-11.189
ကျေ	-11.1893
▁စတင်ဖွင့်လှစ်	-11.1894
▁၁၉၃၃	-11.1895
ပြုလုပ်ရန်	-11.1897
▁ကျင်းပသည့်	-11.1897
▁၁၉၀၇	-11.1897
▁ဆော်	-11.1898
▁အလောင်းတော်	-11.19
▁လက်ခံကျင်းပ	-11.19
▁မြူ	-11.1906
▁ပြဒါး	-11.1907
▁အာနိသင်	-11.1907
▁အနည်းငယ်သာ	-11.1908
▁၇၄	-11.1909
▁၁၈၈၉	-11.191
▁မြောက်မြားစွာ	-11.191
▁ခေတ်စား	-11.1912
▁ကျောင်းတွင်	-11.1914
သေခိယသိက္ခာပုဒ်	-11.1914
ထားရန်	-11.1915
ရဏ	-11.1915
▁သာဓက	-11.1916
လွှား	-11.1918
▁တပင်ရွှေထီး	-11.1919
သေန	-11.192
မှုမရှိ	-11.1922
အချို့က	-11.1923
▁အသုံးပြုကြ	-11.1924
ထက်သန်	-11.1926
ွိုင်	-11.1926
▁ညောင်ကုန်းရွာ	-11.1927
လိုး	-11.1929
60	-11.1929
و	-11.1929
ကြသည်ကို	-11.1936
ny	-11.1938
▁ဆင်စွယ်	-11.1939
ဝ်	-11.1939
ea	-11.194
▁၁၈၉၃	-11.194
▁နု	-11.1942
ထဲရှိ	-11.1943
▁သံသရာ	-11.1944
အတိုင်းပင်	-11.1945
ခွင့်ကို	-11.1945
▁၁၈၉၉	-11.1946
▁ကျောက်ကပ်	-11.1946
ပြည့်ရှင်	-11.1947
မြစ်ဝှမ်း	-11.195
▁ယင်းနောက်	-11.1951
▁တလိုင်း	-11.1953
▁၁၈၇၂	-11.1953
ဟောက်	-11.1954
▁နွယ်	-11.1954
များဟု	-11.1956
ကြိုးပမ်း	-11.1956
▁၁၈၆၇	-11.1956
ပရိ	-11.1958
အယ်လ်ဘမ်	-11.196
အရွယ်အစား	-11.1964
ဖော်ပြထား	-11.1965
▁မုံရွာ	-11.1966
▁တစ်ပတ်	-11.1966
ဘုရင်သည်	-11.1967
▁မူလတန်းကျောင်း	-11.1968
▁ယူနိုက်တက်	-11.197
▁အထက်ပိုင်း	-11.197
▁ဆွေးနွေးပွဲ	-11.1971
ညှစ်	-11.1971
သံတူကြောင်းကွဲ	-11.1972
▁ပိုလန်	-11.1973
ပေးကာ	-11.1974
ချ၍	-11.1975
▁ပေသည်။	-11.1975
▁ကောင်းမှု	-11.1976
▁အခွင့်	-11.1976
▁Asia	-11.1977
▁ရုပ်သေး	-11.1977
▁ဘာသာစကားများ	-11.1977
▁၈၅	-11.1977
="213	-11.1978
တတ်ကြ	-11.1978
▁ကန်တော်	-11.1981
▁အမည်ပြောင်း	-11.1983
▁သုံးနှုန်း	-11.1984
▁၁၈၈၃	-11.1984
ick	-11.1985
လုပ်ကြံ	-11.1987
သတ္တိ	-11.1989
▁ပြုလုပ်ရန်	-11.1989
လာသည်နှင့်အမျှ	-11.1994
ဒီမိုကရက်တစ်ပါတီ	-11.1994
အလျောက်	-11.1996
▁ကယ်တင်	-11.1999
▁အလွှာ	-11.1999
▁Ko	-11.2
ခဲ့ရ၏။	-11.2
▁20	-11.2001
လျက်ရှိရာ	-11.2003
▁တကယ်	-11.2003
▁ဟုခေါ်	-11.2006
▁စာပေဆု	-11.2006
ကိရိယာများ	-11.2006
▁ထောက်ပံ့ပေး	-11.2006
ကျိုက်	-11.2007
ပေးလိုက်	-11.2007
ag	-11.2007
ပြပွဲ	-11.2007
ထိုက်သော	-11.2011
▁Du	-11.2012
▁အမှတ်တရ	-11.2012
ဖူ	-11.2012
▁ပြုလုပ်ထား	-11.2013
▁post	-11.2014
များဖြစ်ကြသော	-11.2016
▁ရဟန်းမိန်းမ	-11.2016
▁သမုတ်	-11.2019
လာသည်	-11.2019
ထားသည်မှာ	-11.202
▁ထိပ်ဆုံး	-11.2021
ler	-11.2022
လုလင်	-11.2025
Mir	-11.2027
ကသာ	-11.203
ဖြန့်	-11.2032
သည့်နေရာ	-11.2033
▁ကျေနပ်	-11.2036
▁နော်	-11.2038
မဟုတ်ပေ။	-11.2039
daung	-11.2039
▁ယခုလက်ရှိ	-11.2043
▁ဆန့်ကျင်ဘက်	-11.2046
ချောင်းဝရွာ	-11.2049
ပုဏ္ဏား	-11.2049
•	-11.2051
ဇား	-11.2052
တာက	-11.2055
=202	-11.2057
▁System	-11.2058
▁ကိုလံဘီယာ	-11.2059
▁တရုတ်လူမျိုး	-11.2061
▁မြေဆီလွှာ	-11.2061
=94	-11.2062
▁၈ဝ	-11.2063
သဘောတူညီချက်	-11.2065
▁အကြံပြု	-11.2065
လိုက်ရ	-11.2066
▁၁၈၁၉	-11.2066
မင်းတရားကြီး	-11.2066
▁မရောက်	-11.2067
ရပါတယ်။	-11.2067
▁သန့်စင်	-11.2067
="202	-11.2068
▁မှစ၍	-11.2069
▁၁၈၉၇	-11.2069
▁တရားစီရင်ရေး	-11.2069
▁နတ်ပြည်	-11.207
မည်ဆိုပါက	-11.2076
val	-11.2078
ဆင်နွှဲ	-11.2079
▁ဇီဝဗေဒ	-11.208
နိုင်ရေး	-11.208
▁အက်စ်	-11.2081
၌လည်းကောင်း၊	-11.2084
အတတ်ပညာ	-11.2086
▁မြိုင်	-11.2086
နည်းသော	-11.2087
င္	-11.2087
▁ခြောက်သွေ့	-11.2091
▁နွေ	-11.2091
ထွင်	-11.2093
ဏ်	-11.2096
အေဒီ	-11.2097
▁သရက်ကုန်း	-11.2098
ဒေါင်	-11.21
ကြီးများသည်	-11.21
▁တစ်စတစ်စ	-11.2101
ကြပါ	-11.2102
▁၆၃	-11.2102
▁ဖော်ပြသည်။	-11.2102
▁အကျွန်ုပ်	-11.2103
▁အခ	-11.2103
တော်မူလေသည်။	-11.2103
▁အရှေ့ဖက်	-11.2103
ပို့ချ	-11.2104
ဒေသသို့	-11.2105
တိုးတက်မှု	-11.2105
အု	-11.2106
=213	-11.2106
ze	-11.2111
ပြန်၏။	-11.2112
ဟူသည့်	-11.2112
နိုင်ငံသို့	-11.2112
နွမ်း	-11.2113
ဝှ	-11.2114
▁ပါဝင်၍	-11.2115
ရှိသည်ကို	-11.2118
▁ပျိုး	-11.2119
=209	-11.2119
▁ရေးသားသော	-11.212
ယူဆ	-11.2122
▁ကုန်ကျ	-11.2124
▁နယူးယောက်မြို့	-11.2125
▁ရေးစပ်	-11.2126
▁ခက်	-11.2128
▁စကားပြေ	-11.213
▁ဓလေ့	-11.2131
ရည်ကို	-11.2133
စနစ်ဖြင့်	-11.2134
▁အောက်သို့	-11.2135
ဟွမ်	-11.2136
ဂျူ	-11.2138
တောရ	-11.2144
▁School	-11.2145
=136	-11.2145
▁တစ်ဝက်	-11.2146
အဓိပ္ပါယ်	-11.2148
▁လေတပ်	-11.2148
▁နက္ခတ်	-11.2149
▁ငါ၏	-11.2151
="136	-11.2154
orn	-11.2154
နိုင်ငံများမှ	-11.2155
၂၀၁၅	-11.2155
▁သားငယ်	-11.2157
ဟောကြားတော်မူခဲ့	-11.216
ထွက်၍	-11.216
▁တည်ငြိမ်	-11.216
၏ဟု	-11.2161
▁မနော	-11.2162
လိုက်ရသည်။	-11.2163
ဘုရင်မ	-11.2163
ရှည်လျား	-11.2164
အစဉ်	-11.2166
▁သင်္ဘောများ	-11.2167
ပေါက်ရွာ	-11.2167
▁ရှင်းပြ	-11.217
▁ခေါ	-11.217
51	-11.2171
▁ဖိနပ်	-11.2178
▁ခွာ	-11.2179
ကောက်ယူ	-11.218
▁အဆ	-11.2181
စဲ	-11.2181
ial	-11.2181
ပြုရန်	-11.2184
▁မဟုတ်ချေ။	-11.2185
▁အဘိ	-11.2186
ဗျည်း	-11.2186
စက်မှု	-11.2186
အားလုံး၏	-11.2186
▁အရေးအခင်း	-11.2189
▁ဟားခါးမြို့နယ်	-11.219
▁မြန်မာဘာသာ	-11.2192
ဒါယကာ	-11.2192
▁အချက်အချာ	-11.2193
ဂျန်	-11.2193
=74	-11.2195
▁စဝ်	-11.2196
▁ပင့်	-11.2196
▁ချိ	-11.2205
▁အလောင်း	-11.2205
▁ပုဂံပြည်	-11.2205
▁သိသိသာသာ	-11.2206
ရောက်လာ	-11.2207
သည့်တိုင်အောင်	-11.221
▁လမ်းလျှောက်	-11.2211
နိုင်ငံတို့	-11.2214
▁ဂန္ထဝင်	-11.2214
="65	-11.2215
▁အမြင့်ပေ	-11.2215
▁တစ်ခုအပါအဝင်	-11.2216
အဆောက်အဦး	-11.2218
▁လက်ဖြင့်	-11.2218
▁Lin	-11.2223
▁မိုက်ကယ်	-11.2223
▁တန်ဆာဆင်	-11.2223
▁သစ်စေး	-11.2225
▁အုပ်ချုပ်သူ	-11.2225
▁မြို့ကြီးများ	-11.2225
အာဖရိက	-11.2226
▁ဤသို့သော	-11.2226
နာ၊	-11.223
▁၁၈၅၀	-11.223
အုပ်ချုပ်မှု	-11.2232
▁ရေပေါ်	-11.2232
အကြံပေး	-11.2232
=139	-11.2233
မြင့်သော	-11.2234
မော်ကွန်း	-11.2234
ပြည်တွင်း	-11.2235
▁ပွတ်	-11.2236
▁ရပ်နား	-11.2237
ပင်လယ်အော်	-11.2237
နောင်း	-11.2238
="139	-11.2239
011	-11.224
▁ပုံရိပ်	-11.2242
▁တရားဥပဒေ	-11.2243
gu	-11.2247
အားလုံးသည်	-11.2247
▁အသင်တို့	-11.2248
▁သုတ်သင်	-11.2249
▁ကြိတ်	-11.2249
ရုံသာမက	-11.225
▁ကုန်းဘောင်	-11.2252
▁နည်းစနစ်	-11.2252
စုန်	-11.2253
▁ငြင်းဆို	-11.2256
▁ဂဠုန်	-11.2256
တီးခတ်	-11.2256
▁ပျဉ်းမနား	-11.2256
▁ရှည်လျား	-11.2261
▁၁၈၇၉	-11.2261
▁အသက်အရွယ်	-11.2262
=206	-11.2266
▁အပြင်ဘက်	-11.2267
အသိအမှတ်ပြု	-11.2268
▁ဘု	-11.2268
ပြည်သို့	-11.2268
ရေနံ	-11.227
▁ပြည်ခရိုင်	-11.2273
လွှမ်း	-11.2274
▁ခေါင်းဆောင်သော	-11.2274
▁ပြည်သူတို့	-11.2275
=84	-11.2275
▁ရှုံး	-11.2276
လုပ်ဆောင်ခဲ့သည်။	-11.2276
ဂယ်လက်ဆီဖြစ်ပြီး	-11.2277
▁နိုင်ငံရေးအရ	-11.2277
▁လေရှီးမြို့နယ်	-11.2277
အင်္ကျီ	-11.2278
▁ဩစတြီးယား	-11.2279
နိုင်ခဲ့လေသည်။	-11.2279
▁မပါဝင်	-11.2281
▁ညွှန်ပြ	-11.2281
အသင်း၏	-11.2282
ရပ်စ်	-11.2282
သူရဲကောင်း	-11.2287
▁အနိစ္စရောက်	-11.229
▁အကိုင်း	-11.229
သူရိယ	-11.2291
သစ်တော	-11.2291
▁ကျောင်းဆရာ	-11.2291
လှသည့်	-11.2291
▁ဆရာတော်ကြီး	-11.2292
ပါဠိတော်	-11.2295
ညွှန်း	-11.2295
▁ဂျင်း	-11.2296
▁သာသနာပိုင်	-11.2297
▁နယူးဇီလန်	-11.2297
ယူကာ	-11.2299
ပါလ	-11.2301
▁လူ၏	-11.2303
ဂြိုဟ်ရံလ	-11.2305
▁ရေတွင်းကုန်း	-11.2305
ကျမ်းစာ	-11.2306
▁၁၈၆၈	-11.2307
လေးခု	-11.2308
နေလျှင်	-11.2309
=57	-11.231
စေဘဲ	-11.2311
▁လုပ်ငန်းကို	-11.2311
▁၂၀၂၂	-11.2312
အားပေး	-11.2312
▁ထမ်းရွက်	-11.2312
▁နားထောင်	-11.2313
ဖြစ်ပါက	-11.2314
004	-11.2316
မင်းက	-11.2318
စေကာ	-11.2318
အလယ်တွင်	-11.2319
အထွက်	-11.2319
▁ခေတ်ပေါ်	-11.232
▁သီဟ	-11.232
▁ခေါက်	-11.2322
▁နန္ဒ	-11.2326
▁အပြာရောင်	-11.2327
▁၁၈၀၀	-11.2327
ွပ်ကဲမှုဌာနချုပ်	-11.2327
res	-11.2327
ကျော်ထင်	-11.2327
pro	-11.2327
သာသနာပြု	-11.2327
▁သားကောင်	-11.2328
▁တက်ကြွ	-11.2329
▁၁၉၀၄	-11.2331
ညှိနှိုင်း	-11.2333
▁အငယ်ဆုံး	-11.2334
စဉ်တွင်	-11.2335
▁အသုံးပြုမှု	-11.2336
ခရိုင်တွင်	-11.2336
ရှစ်ပါး	-11.2337
လက်ပံ	-11.2338
▁ဝိုင်	-11.234
▁တဖက်	-11.2342
▁ပင်းယ	-11.2342
▁တစ်ပင်	-11.2343
▁တကွ	-11.2344
▁Kyun	-11.2344
ယူပြီး	-11.2347
▁ရေးသားပြုစု	-11.2348
သပိတ်	-11.2349
▁ဒေသတွင်	-11.2349
ဆိုဒ်	-11.2349
▁စိမ်း	-11.2349
tor	-11.235
▁ကာကွယ်ပေး	-11.2353
▁မြတ်သော	-11.2354
ရေးဌာန	-11.2354
▁အိုးဘို	-11.2355
ခမိ	-11.2355
အနှံ့	-11.2355
ကျိ	-11.2357
▁အမည်ရင်း	-11.2357
if	-11.2358
▁ရေရှည်	-11.2358
တရပ်	-11.236
▁အဝတ်အစား	-11.236
▁တမန်တော်	-11.2362
▁အိတ်	-11.2363
▁မိုင်ပေါင်း	-11.2364
တတ်မြောက်	-11.2364
ကုန်သွယ်ရေး	-11.2369
▁အာရုံစိုက်	-11.237
လည်းရှိသည်။	-11.237
ိတ	-11.2372
▁တိုးပွားလာ	-11.2373
▁မြဝတီမြို့နယ်	-11.2373
▁အစည်း	-11.2376
▁သူရဲ	-11.2377
တိတိ	-11.2378
ဗင်း	-11.2383
န္တာ	-11.2385
▁ဖြစ်ခဲ့၏။	-11.2385
▁စိုင်း	-11.2386
▁Zay	-11.2386
▁ကဲ	-11.2387
▁၁၇၁၇	-11.2387
ကြတယ်။	-11.2388
▁မဒညတ	-11.2389
▁၇၁	-11.239
=82	-11.2391
ခ်ျ	-11.2393
▁ဒန်	-11.2394
ဒေါက်	-11.2394
▁Day	-11.24
အုပ်ချုပ်ပုံ	-11.24
ထွဋ်	-11.2406
▁တွေး	-11.2406
တင့်တယ်	-11.2407
ကျည်း	-11.2409
တန့်	-11.2409
ကလို	-11.2409
▁မွန်ဂို	-11.2409
ဗျာ	-11.241
ရှော	-11.2411
▁မြင့်မားသော	-11.2412
▁မိန်	-11.2412
နယ်ကို	-11.2412
▁ရပ်ဆိုင်း	-11.2414
mar	-11.2415
မြား	-11.2416
▁တည်မြဲ	-11.2418
ဇန်နဝါရီ	-11.2419
▁၁၈၃၇	-11.2419
▁ဒိန်းမတ်	-11.2419
▁၁၈၂၆	-11.2419
▁၁၈၃၆	-11.242
▁ကုမ္ပဏီများ	-11.242
▁ကရာတေး	-11.2421
စကားပုံတစ်ခု	-11.2421
▁ကဗျာလင်္ကာ	-11.2423
ထယ်	-11.2423
▁မပြော	-11.2423
▁နတ်သမီး	-11.2424
နဝ	-11.2424
▁ပြည်ထဲရေး	-11.2425
ဘဝမှ	-11.2426
ဂျား	-11.2428
ကြောင့်လည်း	-11.243
လေတပ်	-11.2435
▁တာဝန်ယူခဲ့သည်။	-11.2435
▁ဘရာဇီး	-11.2436
="83	-11.2437
▁၁၇၈၄	-11.244
▁မှည့်ခေါ်	-11.244
▁Par	-11.2441
ဆုံးမ	-11.2442
▁ဗီယက်နမ်နိုင်ငံ	-11.2444
ပြန်၍	-11.2445
▁အကျိုးဆက်	-11.2445
ကော်ရွာ	-11.2445
အနောက်ပိုင်း	-11.2446
▁မဂ္ဂဇင်းတွင်	-11.2446
▁ရှိရာ	-11.2446
▁မိုဟာမက်	-11.2447
▁ပြောင်းလဲမှု	-11.2448
ရွှေ့	-11.245
သွင်	-11.2451
▁တိုက်ခတ်	-11.2454
ဖြစ်စေရန်	-11.2454
အသုံးပြုသည်။	-11.2454
▁သိုက်	-11.2456
▁ရည်	-11.2457
▁မြှောက်	-11.246
တဲရွာ	-11.2461
▁ဥပဒေကို	-11.2461
▁ဆွတ်ခူး	-11.2462
မေ့	-11.2463
ပါရမီ	-11.2465
စေခဲ့	-11.2465
ဘောလုံးပြိုင်ပွဲ	-11.2468
ရေယာဉ်	-11.2468
▁ရှည်လျားသော	-11.2472
▁၁၆၇၅	-11.2472
▁စရိတ်	-11.2473
▁သတ္တိ	-11.2474
▁သူငယ်	-11.2474
ဦးခေါင်း	-11.2477
An	-11.2481
ဟိန်	-11.2481
▁နေရာကို	-11.2482
▁စကော့တလန်	-11.2482
▁ပင်ပန်း	-11.2485
ိဿ	-11.2487
▁ဝါသနာ	-11.2488
များထံမှ	-11.249
ရတယ်။	-11.249
ကြီးများတွင်	-11.2495
ကောင်ရွာ	-11.2498
▁မွန်ပြည်နယ်	-11.25
အရွက်	-11.25
▁ဖြစ်ပွားခဲ့သည်။	-11.2501
ran	-11.2502
လှဲ	-11.2502
တစ်စိတ်တစ်ပိုင်း	-11.2502
ရေးလုပ်ငန်း	-11.2503
▁ပင့်ဆောင်	-11.2503
▁စိတ်ကူးယဉ်	-11.2506
ဖြစ်ခဲ့	-11.2506
▁ဖြစ်ကြသော	-11.2508
=50	-11.2509
▁မဲဇလီ	-11.251
နိဗ္ဗာန်	-11.2512
အတွေးအခေါ်	-11.2513
ပျံ့	-11.2514
▁၁၈၇၆	-11.2516
▁အဝင်	-11.2516
စိစစ်	-11.2517
▁အဖွဲ့ဝင်များ	-11.252
▁ပဋိ	-11.2521
▁ရူ	-11.2522
▁ချေ	-11.2522
ကူးစက်	-11.2522
aing	-11.2522
▁စိတ်မ	-11.2523
▁ပလ္လင်	-11.2525
=86	-11.2525
ဖျံ	-11.2525
▁အဖွဲ့ဝင်အဖြစ်	-11.2527
▁၁၈၆၁	-11.2527
=98	-11.2527
▁ဖြန့်	-11.2528
▁ဦးသာ	-11.2532
▁တရုတ်၊	-11.2532
▁အသိပညာ	-11.2534
ငျ	-11.2535
▁အနီးတွင်	-11.2536
▁မျိုးချစ်	-11.2538
▁ဘရူနိုင်း	-11.2539
▁ကွင်းကြီး	-11.2539
ဝိုး	-11.2541
▁မင်းဘူး	-11.2545
သရေ	-11.2545
တို့အပြင်	-11.2546
▁အိမ်ရှင်	-11.2547
ဘွေ	-11.2548
မင်းလှ	-11.2549
MA	-11.2549
▁နမ့်ဟူး	-11.255
▁မြား	-11.2551
su	-11.2551
▁နေရောင်ခြည်	-11.2551
▁အမဲလိုက်	-11.2557
စံတော်ချိန်	-11.2558
ကလေးများသည်	-11.2566
▁၁၉၀၈	-11.2566
▁ဟီရိုရှီးမား	-11.2567
▁ရပ်စဲ	-11.2567
▁ဆိုသူမှ	-11.2568
▁စိတ်ကို	-11.2569
▁အစွမ်း	-11.2569
▁စင်ကာပူနိုင်ငံ	-11.257
▁ဟင်္သာတ	-11.2571
▁တရားစွဲဆို	-11.2572
▁ပညတ်	-11.2574
များသည်။	-11.2574
ပ္	-11.2575
မတက်	-11.2575
ပန်းခြံ	-11.2575
ဆေးများ	-11.2576
▁Ex	-11.2577
▁အမျိုးသားရေး	-11.2579
သော်၊	-11.258
▁ဖြစ်သူ	-11.258
▁မင်းတရားကြီး	-11.2582
▁စစ်အစိုးရ	-11.2582
▁ဖုံးအုပ်	-11.2584
ကြကာ	-11.2585
ဇုံ	-11.2585
▁တပ်မ	-11.2587
▁ချုံ	-11.2587
▁အဆင်ပြေ	-11.2588
▁အေဂျင်စီ	-11.2588
အဖျား	-11.2589
အဝ	-11.2589
ထားသူ	-11.2589
▁ရည်ရွယ်၍	-11.259
▁ဓနိ	-11.2592
ထွက်ခွာ	-11.2592
ရန်သူ	-11.2592
а	-11.2593
▁နိုင်ငံတွင်	-11.2593
▁ဆိုရပေမည်။	-11.2594
▁စတင်ကာ	-11.2595
▁ကော်ဖီ	-11.2595
▁သောက်သုံး	-11.2598
▁ဝတ္ထုကို	-11.2599
ဗြဟ္မာ	-11.2599
▁ဖွဲ့ဆို	-11.2599
▁လည်ပင်း	-11.2599
အောင်မြင်မှု	-11.2601
ear	-11.2605
အတော်များများ	-11.2607
▁ယုံ	-11.2607
ise	-11.2609
ပြုံး	-11.2609
ခဲ့ကြသော်လည်း	-11.2609
▁no	-11.2613
70	-11.2614
▁လုပ်ကိုင်ကြသည်။	-11.2614
မျောက်	-11.2614
အပ်နှင်း	-11.2616
▁ပေါ့	-11.2616
တော်လှန်	-11.2619
အဓိပ္ပာယ်	-11.2622
ပြည်နယ်တွင်	-11.2623
▁ဆက်သ	-11.2625
▁အပို	-11.2627
▁ယူရို	-11.2628
ဝု	-11.2628
သွား၏။	-11.2631
▁လစဉ်	-11.2631
▁နောင်မွန်း	-11.2631
စေမည့်	-11.2632
တောင်အမေရိကတိုက်	-11.2633
သွားကာ	-11.2634
ခြင်	-11.2634
တလုပ်	-11.2634
Me	-11.2636
▁ရိက္ခာ	-11.2638
▁အလျင်	-11.264
ပါလီမန်	-11.264
အကြာတွင်	-11.2643
အစောပိုင်း	-11.2644
အစားအစာ	-11.2645
▁ခေတ်ပြိုင်	-11.2645
▁Paing	-11.2646
▁ခတ်	-11.2646
မှုတို့ကို	-11.2647
▁၁၉၀၂	-11.2649
▁Ca	-11.2649
သုံးမျိုး	-11.2649
ခြင်းပင်	-11.265
▁တပ်သား	-11.2651
၂၀၀	-11.266
မှုများသည်	-11.266
မထွက်	-11.2661
▁အရင်းအမြစ်	-11.2661
▁တစ်နည်း	-11.2662
▁ကောက်ခံ	-11.2664
ဝယ်၊	-11.2666
▁အငြင်းပွားမှု	-11.2668
▁ဟင်းသီးဟင်းရွက်	-11.267
▁အလယ်တွင်	-11.267
▁သင့်လျော်	-11.2673
မ့်	-11.2675
daw	-11.2675
▁မဆို	-11.2676
စသည်ဖြင့်	-11.2677
▁ပျောက်ကင်း	-11.2678
▁သိရ	-11.2682
▁၁၈၈၀	-11.2683
▁ချဲ့ထွင်	-11.2685
▁လစာ	-11.2686
ဘူး၊	-11.2687
သည်ရှိသော်	-11.2689
▁မိန့်တော်မူ၏။	-11.2689
▁ထည့်၍	-11.269
▁ကံကြီး	-11.2692
ဟောပြော	-11.2695
▁ဝိပဿနာ	-11.2698
▁its	-11.2701
အဋ္ဌကထာ	-11.2703
▁စတုတ္ထမြောက်	-11.2705
▁Hu	-11.2711
▁ညောင်ပင်သာရွာ	-11.2712
လောင်းရွာ	-11.2714
▁အင်းဝခေတ်	-11.2716
ဘိုင်	-11.2717
▁ကလေးသူငယ်	-11.2717
မြို့များ	-11.2717
▁သတင်းထောက်	-11.272
▁အလုံးစုံ	-11.272
တွေ့ရှိရ	-11.2721
ပုံနှိပ်	-11.2722
အကြီး	-11.2722
▁ဗေဒင်	-11.2723
▁လက်ရာများ	-11.2723
ခိဘူတာ	-11.2723
လေပြီ။	-11.2723
ရကြောင်း	-11.2725
ကြီးစွာ	-11.2725
▁ကွယ်	-11.2725
တစ်ခုခုကို	-11.2726
တစ်ခုဖြစ်သည့်	-11.2726
စသည်	-11.2726
=75	-11.2726
tion	-11.2726
▁ဗက်	-11.2727
အရပ်သို့	-11.2728
၃၀၀	-11.273
=132	-11.2731
▁တောင်ဖက်	-11.2733
ံ့	-11.2734
ကျစ်	-11.2735
▁Law	-11.2738
▁ဆက်သွယ်မှု	-11.2738
▁station	-11.274
ဒန်း	-11.2741
▁ရောဂါများ	-11.2741
net	-11.2745
▁စင်တီမီတာ	-11.2747
=56	-11.2747
ီး	-11.2747
▁ချေား	-11.2749
ST	-11.275
ဟိဂရှိ	-11.2752
▁Cha	-11.2752
ရင်းနှီး	-11.2753
ရာသို့	-11.2754
▁ကုန်းသာ	-11.2754
သမုတ်	-11.2756
kg	-11.2757
တစ်နေရာ	-11.2758
▁အလေ့အထ	-11.2758
ခဝ	-11.2759
▁လက်မခန့်	-11.276
အသင်းတော်	-11.276
="132	-11.2762
▁ကိုယ်ဝန်	-11.2763
=97	-11.2763
▁ရာဇဝတ်	-11.2766
မျို	-11.2772
▁ရေးသားထား	-11.2773
=46	-11.2773
ယျ	-11.2774
▁ညီညွတ်ရေး	-11.2775
အပြည့်	-11.2778
မျက်နှာသွင်ပြင်	-11.2778
စူ	-11.2779
တက်၍	-11.2779
မရှိချေ။	-11.2779
yo	-11.278
="210	-11.2781
▁It	-11.2781
▁ပျောက်၏။	-11.2784
▁မြေပြန့်	-11.2784
ယှက်	-11.2785
▁တာကော်	-11.2786
▁လဲလှယ်	-11.2787
▁ကလည်း	-11.279
▁၁၈၅၄	-11.279
ဉာဏ	-11.279
▁တမူးမြို့နယ်	-11.2792
▁သုခ	-11.2792
ကရိယာ	-11.2793
▁သိကြ	-11.2793
Q	-11.2793
▁၁၈၆၃	-11.2794
အစွန်း	-11.2795
ကုသိုလ်	-11.2797
▁ကြူ	-11.2798
▁မကျီးကုန်း	-11.2799
▁ငှားရမ်း	-11.2799
ချိန်မှာ	-11.2802
▁၁၈၆၆	-11.2804
▁ဗဒုံမင်း	-11.2805
▁၉၇	-11.2808
▁အမရပူရမြို့	-11.2808
လုပ်ငန်းရှင်	-11.281
▁အသင်းတော်	-11.2812
▁ပီတာ	-11.2814
▁အင်ကြင်း	-11.2815
များကိုမူ	-11.2819
▁Chinese	-11.2821
နေရာများတွင်	-11.2823
မွန်းရွာ	-11.2824
=111	-11.2824
အရေးတော်ပုံ	-11.2825
▁ထိုမြို့	-11.2825
▁မကောင်းသော	-11.2825
▁သုတ္တန်တစ်ခု	-11.2826
▁အယ်ဒီတာချုပ်	-11.2826
▁ပုံပြင်	-11.2826
▁၁၃။	-11.2827
စောင့်ရှောက်မှု	-11.2829
ကောင်းကင်	-11.2831
သွားရ	-11.2832
၂၀၁၁	-11.2832
၎င်း၏	-11.2833
ငြားအံ့၊	-11.2835
▁ဝေါ	-11.2836
003	-11.2837
လျှာ	-11.2837
ခဲ့စဉ်က	-11.2839
လျော်	-11.2839
▁ဝန်းရံ	-11.2843
▁ပုသိမ်မြို့	-11.2845
ယိ	-11.2847
Cl	-11.2851
ထော	-11.2852
▁ပတ်သက်သည့်	-11.2856
▁ထိုနေ့	-11.2856
▁ခရစ်ယာန်ဘာသာ	-11.2857
အထူးသဖြင့်	-11.2858
▁နှုတ်သီး	-11.2862
▁မိုးမိတ်ခရိုင်	-11.2862
▁ကမ္ဘာတွင်	-11.2863
▁အဓိကထား	-11.2863
သုံးဆယ်	-11.2865
▁သစ်ပင်များ	-11.2866
▁မင်းကြီးသည်	-11.287
▁ဘာလူစကိုနီ	-11.2871
ب	-11.2871
=201	-11.2872
ပါယ်	-11.2876
▁တောင်ကြား	-11.2876
▁လေးထောင့်	-11.2877
▁မာလာ	-11.2878
တက်ကြွ	-11.288
အက်ဥပဒေ	-11.2881
စေတတ်သော	-11.2883
▁ပါတီ၏	-11.2883
▁ငယ်မည်မှာ	-11.2883
▁သတင်းမီဒီယာ	-11.2885
▁ထိုနေရာတွင်	-11.2885
▁၁၇၈၅	-11.2886
ပစ်ခတ်	-11.2887
ကြသည်မှာ	-11.2888
▁၁၈၆၅	-11.2889
စေလို	-11.289
▁ဖွံ့ဖြိုးမှု	-11.2891
▁မင်းကွန်း	-11.2891
▁ပတ်သက်ပြီး	-11.2894
ကော်ပိုရေးရှင်း	-11.2898
▁ဇော်ဂျီ	-11.2898
ဈာန်	-11.2898
▁တောင်သူ	-11.2899
ဖျက်သိမ်း	-11.29
မုတ်	-11.29
▁တိုးပွား	-11.29
ဖေါ်	-11.2901
▁ဝင်ရောက်ခဲ့သည်။	-11.2901
လုပ်သား	-11.2903
▁ရှိပေသည်။	-11.2905
▁ပြုမူ	-11.2906
ဂျူး	-11.2908
ကြီးများ၏	-11.291
လုပ်ငန်းတွင်	-11.291
▁လော်	-11.2912
နေသော်လည်း	-11.2913
ခံစားရ	-11.2913
လတ်သော်	-11.2913
▁လျှပ်	-11.2913
▁Kaw	-11.2914
ခရာ	-11.2917
="205	-11.2917
▁ကုန်ဆုံး	-11.2918
▁အစိုးရနှင့်	-11.2918
▁မဘိမ်းမြို့နယ်	-11.2918
▁ဆရာမ	-11.2918
ဖြစ်၏	-11.2918
တိုးမြှင့်	-11.292
▁ပွဲဦးထွက်	-11.2921
တစ်ဝိုက်	-11.2921
▁အာဇာနည်	-11.2924
▁ဂလက်ဆီဖြစ်ပြီး	-11.2924
▁ရက်နေ့က	-11.2925
▁၂၅၀	-11.2925
▁Yae	-11.2926
▁ရွှေရောင်	-11.2927
▁ထိုအပင်	-11.2927
အုပ်စုတွင်	-11.2928
▁များမှာ	-11.2928
▁ဗိုင်းရပ်စ်	-11.2929
▁အကာအကွယ်	-11.2932
▁ရောင်စုံ	-11.2934
▁ကျွန်းတော	-11.2937
▁So	-11.2939
▁ခန့်တွင်	-11.2939
▁လက်ကိုင်	-11.294
▁ဆောက်တည်	-11.294
001	-11.2942
▁ဓာတ်အား	-11.2942
ထက်ပင်	-11.2942
▁၆၀၀	-11.2945
▁အသိဉာဏ်	-11.2946
ထကြွ	-11.2946
▁ငို	-11.2947
▁အကူအညီပေး	-11.2947
▁၁၈၃၄	-11.2949
▁စွမ်းရည်	-11.2951
ကထေရ်	-11.2951
ဖေး	-11.2952
အမွေအနှစ်	-11.2953
▁တစ်ခါတစ်ရံတွင်	-11.2955
ခံခဲ့ရပြီး	-11.2956
▁အများက	-11.2956
▁ယူဆောင်	-11.2957
-2	-11.2957
▁လိုင်စင်	-11.2958
တစ်စောင်	-11.2959
▁ဖြစ်ပေါ်လာသော	-11.2962
တမ်	-11.2962
ထားကြောင်း	-11.2962
▁၁၈၇၁	-11.2963
▁ပါဝင်ကြသည်။	-11.2963
▁မြေယာ	-11.2963
ခဲ့သော်	-11.2964
▁ဒါယကာ	-11.2964
လေလေ	-11.2964
▁အကျိုးပြု	-11.2965
▁ပဲခူးမြို့	-11.2965
bu	-11.2966
▁အောက်ဖော်ပြပါ	-11.2966
▁လွယ်လုံ	-11.2967
တစ်ခုလည်း	-11.2967
▁အရောင်းအဝယ်	-11.2968
▁ဖြစ်ပျက်	-11.2968
▁ဖယ်	-11.2969
▁Lo	-11.2971
ဖျောက်	-11.2972
ပုဒ်မ	-11.2972
ကား၊	-11.2972
▁အလက်	-11.2974
▁ဖန်ဆင်း	-11.2974
=210	-11.2975
▁ရွှံ့	-11.2976
ခီ	-11.2981
▁ဝဲကြီး	-11.2983
▁ရှုမြင်	-11.2983
▁ခြံ	-11.2983
▁ကြည်လင်	-11.2984
လိုက်သည့်	-11.2984
ana	-11.2985
▁ဖြန့်ချိခဲ့သည်။	-11.2986
▁နော့	-11.2988
▁နာမ်	-11.2988
ဗေ	-11.2989
က်စ်	-11.299
▁အနိမ့်ဆုံး	-11.2991
တွန်း	-11.2993
▁ခွဲထုတ်	-11.2993
▁၁၈၆၉	-11.2994
م	-11.2996
▁သွတ်သွင်း	-11.2996
▁ကျောင်းတိုက်	-11.2996
▁တခါတရံ	-11.2997
မျက်နှာပြင်အထက်	-11.2997
▁မြို့ကို	-11.2999
ထည့်၍	-11.3
မရမ်း	-11.3001
▁ချီးမြှင့်ခြင်း	-11.3003
▁မြစ်ဝ	-11.3004
▁Kyaukta	-11.3005
▁ပါရဂူဘွဲ့	-11.3006
▁အကြားတွင်	-11.301
▁လူသားတို့	-11.301
▁တစ်ခုတည်း	-11.3011
=108	-11.3012
▁အချုပ်	-11.3013
ကိုမဆို	-11.3014
▁ကျောင်းများ	-11.3015
▁မည်သူမျှ	-11.3016
="108	-11.3018
▁ကန်ကြီး	-11.3019
▁အမြောက်အများ	-11.3019
လွယ်ကူ	-11.3021
▁ဘုရားဖူး	-11.3022
8&	-11.3023
▁၁၈၂၈	-11.3024
▁Music	-11.3028
▁ပြောင်	-11.3028
▁မလုပ်	-11.3029
oc	-11.3031
လူကြီး	-11.3031
▁၁၈၅၆	-11.3031
ထွား	-11.3036
ကမ္မ	-11.3037
အရည်အချင်း	-11.3039
▁သစ်ရွက်	-11.3039
▁ကွန်း	-11.3045
▁ကလေးသူငယ်များ	-11.3046
အရည်အသွေး	-11.3047
▁မီးခိုး	-11.3047
ရှေးဟောင်း	-11.3047
▁ဒတ်ချ်	-11.3048
tta	-11.3053
IS	-11.3054
▁ကဲ့ရဲ့	-11.3054
ပြက္ခဒိန်	-11.3058
ဆေးပညာ	-11.3059
=85	-11.3062
အစားထိုး	-11.3064
▁အီလက်ထရွန်းနစ်	-11.3066
▁သန်းကျော်	-11.3067
▁မှားယွင်း	-11.3067
သင့်သော	-11.3068
▁ရှင်သာမဏေ	-11.3068
တြာ	-11.3071
▁ဘွဲ့ကို	-11.3074
▁၁၈၇၃	-11.3074
သံဃာ	-11.3075
▁ချန်ပီယံ	-11.3075
mm	-11.3076
▁တောင်ကြီးမြို့	-11.3076
▁မြို့ရွာ	-11.3076
သားများသည်	-11.3077
အာဏာပိုင်	-11.3077
▁မိန့်ခွန်း	-11.3079
ရှိသည့်အနက်	-11.3079
▁သူငယ်ချင်း	-11.3079
▁အဝိုင်း	-11.3079
ရမည်၊	-11.3079
▁ရှူ	-11.3079
ဆုံးရှုံး	-11.3079
သွားမည်	-11.3083
ဖြို	-11.3083
ငင်း	-11.3084
▁ဇာတ်လမ်းတွဲ	-11.3093
ဘိုင်း	-11.3093
▁ကုန်းမြင့်	-11.3094
▁စတု	-11.3094
▁အဖို	-11.3095
▁ချွန်	-11.3095
red	-11.3095
▁အနန္တ	-11.3097
▁မပြတ်	-11.3097
အလေးချိန်	-11.3099
za	-11.3101
▁အရေးပါသည့်	-11.3102
ထုတ်ဝေခဲ့သည်။	-11.3103
▁မေရီ	-11.3104
▁ဒေဝ	-11.3105
အချက်အလက်များ	-11.3105
တို့ဖြစ်ကြသည်။	-11.3105
ရှိခြင်း	-11.3105
ချက်မှာ	-11.3106
လုပ်ထုံးလုပ်နည်း	-11.3109
နိုင်လောက်အောင်	-11.3109
ကျန်းမာရေးဌာနခွဲ	-11.3112
▁အကျိုးကျေးဇူး	-11.3112
▁မိမိအား	-11.3114
ဝန်ကြီးအဖြစ်	-11.3116
ကွေ့ရွာ	-11.3116
▁တရားတော်	-11.3117
▁ဘွဲ့ရ	-11.3117
▁ကျွန်းကြီး	-11.3118
▁စာမူ	-11.3118
▁တပ်မတော်မှ	-11.3121
▁၂ဝဝဝ	-11.3122
dy	-11.3122
ဌာနမှ	-11.3123
▁ပဉ္စ	-11.3123
▁ခရီးထွက်	-11.3127
san	-11.3133
သတည်း။	-11.3135
▁၁၈၅၁	-11.3135
▁နေရာများတွင်	-11.3135
▁နွေး	-11.3135
▁ကင်ဆာ	-11.3136
ကျင်းပသော	-11.3136
book	-11.3137
စစ်သား	-11.3137
▁မဟာယာန	-11.3139
▁လွှင့်	-11.314
▁ရေလဲ	-11.3141
သံ၊	-11.3142
ာ့ခ်	-11.3142
▁ရိုက်နှိပ်	-11.3142
အတု	-11.3143
men	-11.3149
ding	-11.315
▁ရဟန်းတို့သည်	-11.3151
က္ကာ	-11.3151
နယ်မှ	-11.3154
ဗဲ	-11.3155
▁ရူပ	-11.3155
ရှိပေသည်။	-11.3156
ဆင်းတု	-11.3156
လျက်ရှိ၏။	-11.3159
▁ကြွယ်ဝ	-11.316
▁တစ်ရက်	-11.3161
ပြစ်မှု	-11.3163
ခဲ့သလို	-11.3165
ကူးပြောင်း	-11.3166
ကဲ့	-11.3166
ွာ	-11.3167
ပင်မျိုး	-11.3169
တောက်ပ	-11.317
▁ရောမမြို့	-11.3171
▁မှား	-11.3171
▁ကြို့ကုန်း	-11.3172
▁ဒုံးပျံ	-11.3172
▁ကျောင်းစုရွာ	-11.3173
တစ်ခုစီ	-11.3174
ခဲ့ဘူး	-11.3176
▁နတ်မောက်	-11.3179
အီရန်	-11.3179
ခြင်းအတွက်	-11.318
▁ال	-11.318
▁ကြမ်း	-11.318
▁၁၈၅၃	-11.3187
သူနှင့်	-11.3188
our	-11.3189
-1	-11.319
▁သမ္မတအဖြစ်	-11.3191
▁အထူးပြု	-11.3194
▁အသုံးပြုသူများ	-11.3195
55	-11.3196
မူဝါဒ	-11.3197
ညဉ့်	-11.3197
▁စာတိုက်	-11.3198
BS	-11.3199
▁ဝိဇ္ဇာဘွဲ့	-11.3199
▁အိရှိ	-11.3202
▁တွေကို	-11.3202
ဆေးဝါး	-11.3206
▁နိမ့်	-11.3207
▁ဇီးပင်	-11.3207
▁သတိပြု	-11.3209
▁သရေခေတ္တရာ	-11.321
ဖောင်း	-11.3211
ဟပ်	-11.3212
သုံးဦး	-11.3212
▁စူးစမ်း	-11.3212
ပျစ်	-11.3213
ကိုဖြစ်စေ၊	-11.3213
▁Htan	-11.3215
ငုတ်	-11.3216
ပါ၏။	-11.3216
▁သမား	-11.3218
▁သီဟသူ	-11.3219
▁သင်္ဂြိုဟ်	-11.322
လက်ရာများ	-11.3221
ks	-11.3221
▁တို့မှာ	-11.3223
ဟော့	-11.3226
▁အထောက်အထားများ	-11.3228
▁သူနှင့်	-11.3232
▁ချောက်	-11.3232
ထင်ရှားသော	-11.3232
ဟိုက်	-11.3233
▁အပင်မျိုး	-11.3234
▁ဘူမိဗေဒ	-11.3236
ထိရောက်	-11.3237
သလား	-11.3237
စုံစမ်း	-11.3241
▁ထိုနေရာ	-11.3243
▁သက်သက်	-11.3249
စွပ်စွဲ	-11.3249
ဆီကို	-11.325
▁စားသုံးသူ	-11.3252
စပ်ဆို	-11.3252
▁ကောင်းမွန်စွာ	-11.3253
▁ဖြတ်တောက်	-11.3253
ဖျင်	-11.3254
ō	-11.3255
大	-11.3255
·	-11.3255
▁အပြီးသတ်	-11.3257
ွင်း	-11.3257
▁သဘောတူညီ	-11.3259
▁အီလက်ထရောနစ်	-11.326
စတီ	-11.326
▁စီးပွားရေးအရ	-11.3261
▁အလံနီ	-11.3262
▁ကမ္ဘာကြီး	-11.3262
▁၁၇၉၅	-11.3262
="85	-11.3263
နယ်မြေများ	-11.3264
ဆေ	-11.3265
▁စစ်ပွဲများ	-11.3265
▁ထိုကျောင်း	-11.3267
▁ကြီးမားသည့်	-11.3268
ရှယ်	-11.3269
North	-11.3269
▁၃ဝဝ	-11.3271
လာခဲ့ရာ	-11.3272
သို့ပြန်	-11.3273
▁၁၉၀၉	-11.3274
တစ်နိုင်ငံ	-11.3275
▁စာဖတ်	-11.3278
▁ကျော်ကြားသော	-11.3279
မည့်အကြောင်း	-11.328
ကင်ဆာ	-11.3282
▁ရှိတတ်သည်။	-11.3284
အက်ဖ်	-11.3284
အနှစ်	-11.3286
IP	-11.329
အတိုင်းအတာ	-11.3291
သားတို့သည်	-11.3291
▁၉၃	-11.3291
ခွင့်ပေး	-11.3293
▁ပဒေသရာဇ်	-11.3294
ဌာနများ	-11.3296
လေ့လာမှု	-11.3297
▁ညောင်ပင်ကြီး	-11.3299
နက္ခတ်	-11.3299
နှော	-11.3299
▁အရွက်များ	-11.33
▁ပတ်သက်	-11.33
▁သူနာပြု	-11.3301
တော်၊	-11.3302
▁ခုတ်	-11.3304
ه	-11.3304
▁ပန်ခမ့်မြို့နယ်	-11.3304
▁ဟော်	-11.3305
▁အကြောင်းကြား	-11.3305
▁Ru	-11.3306
▁ထန်းတော	-11.3308
တွင်းမှ	-11.3308
▁Lel	-11.3309
▁ကျောက်ဆောင်	-11.3309
▁ကွဲပြားသော	-11.331
▁ထင်မြင်	-11.3313
▁အင်္ဂတေ	-11.3313
▁ဝဲဒေါင့်	-11.3314
တို့ထက်	-11.3314
မှို	-11.3315
ရေတွက်	-11.3315
ဌာန၊	-11.3316
▁၂၀၉၃	-11.3317
တွင်တည်ရှိသည်။	-11.3317
မှောင်	-11.3321
▁အောင်နိုင်	-11.3321
mu	-11.3322
▁စည်းစိမ်	-11.3324
▁နှာ	-11.3325
▁ကြီးပွား	-11.3325
▁ကျင်လည်	-11.3328
▁ကြောက်ရွံ့	-11.3329
▁လွတ်မြောက်ရေး	-11.333
စကို	-11.3331
▁ပြိုကွဲ	-11.3333
▁အဆောက်အဦးများ	-11.3333
▁ဖွင့်ဆို	-11.3334
အစုံ	-11.3334
ရန်လည်း	-11.3337
မဖြစ်မီ	-11.3339
ရှိုး	-11.334
▁နှစ်ပါး	-11.3345
▁အသုံးပြုပြီး	-11.3345
▁ဒီပဲယင်း	-11.3348
▁ထုထည်	-11.3349
▁အာဂျင်တီးနား	-11.3353
▁သိပ္ပံနှင့်	-11.3353
ညံ့	-11.3353
တပ်များကို	-11.3353
▁အရေးတော်ပုံ	-11.3355
ဟောင်းများ	-11.3355
▁စုံစမ်းစစ်ဆေး	-11.3356
တော့၊	-11.3358
ဆိုပြီး	-11.3361
▁ခူ	-11.3362
▁ယေရှု	-11.3362
▁လာဘ်	-11.3363
▁ပရို	-11.3363
သီဟ	-11.3366
▁မြို့တွင်း	-11.3367
ology	-11.3368
De	-11.3369
ပွက်	-11.3369
▁ဘီလျံ	-11.3372
▁မြင်းစီး	-11.3372
▁တောကြီး	-11.3372
ခဲ့တာ	-11.3374
ကွန်ရက်	-11.3375
▁မျိုးရင်း	-11.3376
▁တစ်ဦးချင်း	-11.3378
ရောမ	-11.3379
ဘဝတွင်	-11.3381
=78	-11.3383
▁ကျယ်ပြန့်သော	-11.3385
ရည်ရွယ်	-11.3386
▁ကျောင်းကုန်း	-11.3387
▁ဆော့ဖ်ဝဲ	-11.3387
▁အကျိုးအမြတ်	-11.3394
ness	-11.3394
▁၂၁၁၆	-11.3395
▁အပေါင်း	-11.3395
၅ဝ	-11.3396
▁ဂိမ်း	-11.3397
▁ရာဇာဓိရာဇ်	-11.3397
▁လုပ်ငန်းစဉ်	-11.3398
ခဲ့။	-11.3401
ဖိနပ်	-11.3402
ပရိုဂရမ်	-11.3402
▁record	-11.3403
တောင်ကုန်း	-11.3404
သီးခြား	-11.3407
မီယာ	-11.3407
▁မြစ်ဖျားခံ	-11.3408
ချက်များအရ	-11.341
လေကြောင်း	-11.341
▁နှိပ်စက်	-11.3411
▁၁၈၄၈	-11.3411
▁ထွက်ခွာသွား	-11.3413
တစ်နှစ်	-11.3415
▁ရသ	-11.3416
အလုပ်လုပ်	-11.3416
▁ဖီဂျီ	-11.3417
▁အသင်တို့သည်	-11.3417
▁ပရ	-11.3418
ရှုံး	-11.3419
fi	-11.3422
▁Mon	-11.3422
▁တရုပ်	-11.3423
ကြီးသော	-11.3424
ဒေသကို	-11.3424
ပြုသော	-11.3424
သံကို	-11.3424
▁စီးပွားရေးနှင့်	-11.3426
▁ကိရိယာများ	-11.3428
ပေါ်လာ	-11.3429
ချဲ့ထွင်	-11.3429
▁ကျယ်ဝန်း	-11.3431
▁သီးနှံ	-11.3431
တော်မူခြင်း	-11.3432
▁ကြိယာ	-11.3434
ပြိုင်ပွဲများ	-11.3435
▁ပြဿနာများ	-11.3436
▁ထိုင်းနိုင်ငံ၏	-11.3436
▁ဘိုးတော်	-11.3436
▁အရေ	-11.3439
ors	-11.3439
▁ရေပြင်	-11.3439
အစဉ်အလာ	-11.3441
▁ဧည့်သည်	-11.3442
▁သာယာဝတီမင်း	-11.3443
▁တစ်ကောင်	-11.3443
ဂေါ့	-11.3446
ill	-11.3446
▁မျိုးပွား	-11.3447
▁သက်သေခံ	-11.3448
ဒေသသည်	-11.3448
၌ကား	-11.3448
▁ကူကီး	-11.3448
ဘက်၌	-11.3449
▁အညီ	-11.345
▁တစ်စိတ်တစ်ဒေသ	-11.3453
အမြောက်အမြား	-11.3454
▁သားသမီးများ	-11.3454
ဇရပ်	-11.3455
▁လူနည်းစု	-11.3457
ဉ္ဇ	-11.3457
▁hardcore	-11.3457
အေဂျင်စီ	-11.3458
မြို့မ	-11.3459
မြောင်ရွာ	-11.346
▁ဆုတံဆိပ်	-11.346
▁မော်တော်ကားလမ်း	-11.346
ချဲ့	-11.346
နေရင်း	-11.346
▁ဘန်း	-11.346
လက်အောက်ခံ	-11.3461
▁မြို့တော်မှာ	-11.3463
tro	-11.3463
ဇန	-11.3464
နှုန်းဖြင့်	-11.3464
ဘာသာစကားဖြင့်	-11.3465
▁သင်္ကြန်	-11.3465
ကျမ်းများ	-11.3465
ိယထေရ်	-11.3467
ပုံစံကို	-11.3468
▁မဏိပူရ	-11.347
▁အိမ်ရှေ့မင်း	-11.347
၂၀၁၆	-11.3471
▁အတူတူ	-11.3471
လုပ်ငန်းနှင့်	-11.3472
▁မည်သူမဆို	-11.3474
▁ရှိသည်	-11.3475
ဝိုက်	-11.3475
▁Per	-11.3477
▁ပြန့်ပွား	-11.3478
▁အသင်းကြီး	-11.3478
ခေါင်းစဉ်	-11.348
▁အတိုင်ပင်ခံ	-11.348
▁မေးခွန်း	-11.348
မော်လမြိုင်မြို့	-11.3482
▁အာသာ	-11.3482
ခေး	-11.3485
ကြီ	-11.3487
ကာလများတွင်	-11.3489
တောင်ထိပ်	-11.349
သားရေ	-11.3491
လာပြီးလျှင်	-11.3492
=48	-11.3495
၂၀၀၀	-11.3495
tra	-11.3496
နန့်	-11.3498
စစ်သည်	-11.3499
ata	-11.35
ညွှန်ကြား	-11.3501
ဟူ၍လည်းကောင်း၊	-11.3503
▁လျှော်	-11.3505
▁တွန်း	-11.3506
တချို့	-11.3506
▁ကဗျာအမျိုးအစား	-11.3507
▁အရင်းရှင်	-11.3508
▁သို့ဖြစ်ရာ	-11.3509
▁မုံရွာမြို့နယ်၊	-11.3511
ဖျော်	-11.3513
▁မြိတ်	-11.3513
▁အဆစ်	-11.3513
="86	-11.3514
St	-11.3514
▁ဆရာတော်၏	-11.3514
▁မြန်မာနိုင်ငံမှ	-11.3515
▁၁၈၃၀	-11.3517
န္န	-11.352
အသင်းများ	-11.3521
▁နံ	-11.3522
▁၂၁၁၇	-11.3524
ကာလက	-11.3524
▁နေထိုင်သူ	-11.3526
▁သို့နှင့်	-11.3526
၂၀၁၄	-11.3527
▁လျှော့ချ	-11.3527
ue	-11.3528
▁အစပြု၍	-11.3528
တာဝန်များကို	-11.3529
▁အခန်းကဏ္ဍ	-11.3531
မိုင်ရွာ	-11.3532
နှစ်ရပ်	-11.3532
▁တမာ	-11.3534
▁တစ်ဆူ	-11.3536
ကိုလိုနီ	-11.3537
ဗန်း	-11.3537
မဟုတ်။	-11.3537
54	-11.3539
=67	-11.3543
▁ဂုံညင်းတန်း	-11.3543
▁ဘန်ကောက်မြို့	-11.3544
▁ကျမ်းများ	-11.3547
▁စည်ပင်	-11.3549
▁အဆောင်အယောင်	-11.3551
ပူရ	-11.3553
▁server	-11.3553
▁နယ်သာလန်နိုင်ငံ	-11.3554
▁ကျွမ်းကျင်သူ	-11.3554
▁ကူးယူ	-11.3555
ကြေငြာ	-11.3555
ရာမှာ	-11.3557
▁တောင်အာရှ	-11.3557
ရှုပ်ထွေး	-11.3558
ပွဲစဉ်	-11.3559
သောနေရာ	-11.3559
▁အကြီး	-11.356
လွတ်မြောက်	-11.3561
▁တာဝန်ပေးအပ်	-11.3563
▁စီးပွားဖြစ်	-11.3563
▁ဖုံးလွှမ်း	-11.3564
MS	-11.3567
ခရီးသွားလုပ်ငန်း	-11.3573
▁ခိုင်	-11.3575
=91	-11.3576
▁သတ်မှတ်သည်။	-11.3577
▁မပြုလုပ်	-11.3578
ကိုမျှ	-11.3579
▁အလုံး	-11.3581
စည်းစိမ်	-11.3581
မစား	-11.3588
▁သားမွေး	-11.3589
=55	-11.359
▁ထန်	-11.3591
အောက်ရှိ	-11.3591
ခန့်မှန်း	-11.3595
ကောင်စီက	-11.3597
▁မိုးရေချိန်	-11.3598
ပြခန်း	-11.3598
ထားခဲ့	-11.3599
▁ကွေ့	-11.3601
တစ်ခုဖြစ်သော	-11.3602
▁နက္ခတာရာ	-11.3603
အောက်တိုဘာ	-11.3603
န်ရွာ၊	-11.3604
▁မြောက်လတ္တီတွဒ်	-11.3604
▁အဂ	-11.3604
▁သတ်မှတ်ကြသည်။	-11.3606
နှိုင်း	-11.3606
▁စမ်းချောင်း	-11.3607
q	-11.3608
ထရာ	-11.3609
အံ့၊	-11.3609
▁has	-11.361
▁သရုပ်	-11.361
NA	-11.361
မေးမြန်း	-11.3611
West	-11.3611
ချိုင်း	-11.3612
▁တိုက်ပွဲဝင်	-11.3615
▁အဆက်မပြတ်	-11.3617
▁မီးသွေး	-11.3617
▁စာရေးသူ	-11.3617
▁၁၈၆၂	-11.362
▁Thi	-11.3623
ဟာရ	-11.3624
▁မနက်	-11.3626
▁ဂွ	-11.3628
ဂေး	-11.3628
▁ဝတ္ထုများ	-11.3628
ပြီးသား	-11.363
▁ဂရိနိုင်ငံ	-11.3633
ဝိန်း	-11.3633
သမင်	-11.3635
ကြသေးသည်။	-11.3635
ဖင်	-11.3639
ဖြစ်နေသည်။	-11.3645
▁ဈေးနှုန်း	-11.3647
စေရမည်။	-11.3647
▁အနောက်တောင်	-11.365
အပင်များ	-11.3655
တစ်မျိုးမှာ	-11.3656
▁၁၉၂ဝ	-11.3656
▁နခ	-11.3658
▁၉၉	-11.3661
▁ဒုတိယသမ္မတ	-11.3663
ညောင်း	-11.3665
သေတ္တာ	-11.3666
▁ချေမှုန်း	-11.3666
တိုးတက်လာ	-11.3667
▁Long	-11.367
▁ခေါ်ဆိုသည်။	-11.3671
တွာ	-11.3672
▁သုတေသနပြု	-11.3672
▁အငွေ့	-11.3672
ယူခြင်း	-11.3676
▁အဖြစ်သို့	-11.3677
ပြောင်းလဲမှု	-11.368
စကြာ	-11.3681
မှုအား	-11.3681
ွိုက်	-11.3681
ပို့ဆောင်	-11.3681
▁ဆုတ်	-11.3682
Ka	-11.3682
ဘိက္ခုနီ	-11.3683
▁ကျော်လွန်	-11.3683
နိုင်ငံများသို့	-11.3686
လက်အောက်တွင်	-11.3686
ရေးတွင်	-11.3686
▁ဟိုး	-11.3687
▁ဟိုပန်	-11.3687
▁မည်သို့ပင်	-11.3688
▁စစ်တွေမြို့	-11.369
▁ကြားဖြတ်	-11.3691
ဖြ	-11.3693
="206	-11.3695
▁တဘက်	-11.3696
ယူနိုက်တက်	-11.3699
ဟုပင်	-11.3701
▁ရွာကြီး	-11.3701
လိုသူ	-11.3701
so	-11.3701
▁ရေးခဲ့သည်။	-11.3703
ခန္ဓာ	-11.3704
▁လှုပ်	-11.3704
▁လတ်တလော	-11.3705
ဝင်၍	-11.3705
▁တနိုင်းမြို့နယ်	-11.3705
▁Kyon	-11.3705
▁နိုင်ငံပိုင်	-11.3706
▁black	-11.371
ဆရာများ	-11.371
ဂုတ်	-11.3712
▁တနင်္သာရီတိုင်း	-11.3716
▁ဗဟိုဌာနချုပ်	-11.3723
ဖျော်ဖြေ	-11.3724
ကိစ္စများ	-11.3724
အော	-11.3724
ကြည်ညို	-11.3726
ကြောင့်ဖြစ်သည်။	-11.3727
ညီညွတ်	-11.3728
တပ်များသည်	-11.3729
ခဏ	-11.3729
▁ဖော်ပြပါ	-11.3729
ကြသောကြောင့်	-11.373
ရာအရပ်	-11.3731
စနစ်များ	-11.3732
ဘက်ကမ်း	-11.3732
ရုံမက	-11.3734
လမ်းညွှန်	-11.3735
အသင်းသည်	-11.3735
အမြတ်	-11.3738
ခံနေရ	-11.3739
လှည့်လည်	-11.3741
pi	-11.3744
▁ကယ်ဆယ်ရေး	-11.3744
=107	-11.3744
လာနိုင်	-11.3745
အသင်းကြီး	-11.3745
▁မီးဖို	-11.3746
▁အကုန်	-11.3746
တြ	-11.3747
=51	-11.3749
ဖောက်လုပ်	-11.375
▁ဒဿန	-11.375
တဲ့အတွက်	-11.375
ဇေ	-11.375
ပါရှိ	-11.3753
▁သရက်ပင်	-11.3753
ပရာ	-11.3754
▁မတိုင်မီ	-11.3756
ဟန်း	-11.3757
▁ပေးထားခြင်း	-11.3757
▁Seik	-11.3758
▁Yan	-11.3759
▁ရရှိခဲ့	-11.3759
▁မုဒုံမြို့နယ်	-11.3759
လူ့	-11.376
▁ပါရှိသော	-11.3761
="75	-11.3761
▁ရွတ်ဆို	-11.3762
▁Maung	-11.3762
che	-11.3763
ဂီရိ	-11.3764
အခြေချ	-11.3766
▁ယနေ့အထိ	-11.3767
▁ငါးနှစ်	-11.3768
အနောက်စု	-11.3768
▁၅ဝဝ	-11.377
မိုင်ခန့်	-11.377
နှိပ်	-11.3772
တစ်စီး	-11.3773
gy	-11.3775
▁အတော်အတန်	-11.3775
▁အိမ်ထောင်ပြု	-11.3775
▁အစီရင်ခံ	-11.3776
သိမြင်	-11.3779
▁ပြန့်	-11.3783
▁ခေါင်းစဉ်	-11.3784
မျိုးနွယ်စု	-11.3784
▁နက္ခတ္တဗေဒ	-11.3785
ဝဲလ်	-11.3787
တာတွေ	-11.3788
ကတည်းကပင်	-11.3789
SA	-11.3789
အသုံးပြုသော	-11.3789
▁ပြေ	-11.3791
▁အဘယ့်ကြောင့်	-11.3791
▁ပဋိသန္ဓေ	-11.3792
▁100	-11.3792
▁တွေ့ရှိခဲ့သည်။	-11.3795
▁ဒြပ်	-11.3796
▁အကြော	-11.3797
ham	-11.3798
▁ပြင်သစ်တို့	-11.3798
နေသူများ	-11.38
▁Award	-11.3801
တစ်ခုနှင့်	-11.3801
▁ခန့်အပ်ခဲ့သည်။	-11.3802
▁Star	-11.3803
ရှိသောကြောင့်	-11.3803
▁သူပုန်	-11.3803
လုပ်ရန်	-11.3804
▁မအူ	-11.3805
မရောက်	-11.3807
ပလီ	-11.3807
▁တော်ကီးန်	-11.3808
ဘာသာရေး	-11.3809
▁ကျွဲနွား	-11.3809
▁ရေနှင့်	-11.3811
ထူးချွန်	-11.3813
▁အထက်တွင်	-11.3813
စောင့်ရှောက်ရေး	-11.3814
▁ဖရန့်	-11.3815
▁၁၈၄၁	-11.3815
မှုများ၊	-11.3815
▁သလိပ်	-11.3815
▁အလယ်တန်းကျောင်း	-11.3815
ရဟတ်	-11.3817
ဆမ်	-11.3818
ပြီဖြစ်သည်။	-11.3818
▁သိမ်းသွင်း	-11.3818
▁သွပ်	-11.3819
နီယမ်	-11.382
▁ကြီးစိုး	-11.382
ဆွေး	-11.382
▁သပြု	-11.3822
ကြိုးပမ်းမှု	-11.3822
=93	-11.3822
မြစ်နှင့်	-11.3823
ပုတ္တ	-11.3823
=54	-11.3823
▁သန်းခန့်	-11.3826
သယ်ဆောင်	-11.3827
▁စာရင်းအရ	-11.3829
▁အာဖဂန်နစ္စတန်	-11.383
▁မြင့်တက်လာ	-11.3831
ပြူး	-11.3833
▁မာန်	-11.3835
▁လှမ်း	-11.3836
▁ဒဂုန်	-11.3836
ချိုင်	-11.3838
▁မောင်နှမ	-11.3841
မရှိပါ။	-11.3844
▁စန်း	-11.3845
▁ကတည်းက	-11.3847
▁၁၈၇၄	-11.3849
▁မော်ဒယ်	-11.3849
▁တက္ကသိုလ်တွင်	-11.385
▁နေထိုင်ကြ	-11.3851
▁ကွဲလွဲ	-11.3856
▁နွေရာသီတွင်	-11.3856
လေးဆယ်	-11.3858
မူ၊	-11.3859
မရှိပဲ	-11.386
မောင်းနှင်	-11.386
▁ချိုးဖောက်	-11.3861
▁တပ်များ	-11.3862
အတွင်းဝန်	-11.3864
များတွင်မူ	-11.3864
▁တစ်နည်းအားဖြင့်	-11.3864
ပန်ဝိုင်မြို့နယ်	-11.3869
တိုင်ရွာ	-11.3871
▁Am	-11.3872
▁မရှိတော့	-11.3872
▁တိုင်းရင်း	-11.3872
▁မြေမျက်နှာပြင်	-11.3873
ဘာသာစကားကို	-11.3874
နီးစပ်	-11.3874
ခဲ့သည့်အတွက်	-11.3876
နှေး	-11.3877
▁ပုရပိုက်	-11.3877
ထို့အတွက်ကြောင့်	-11.3877
▁၁၈၇၅	-11.3879
ကထာ	-11.3879
▁တာဝန်များကို	-11.388
ဒေသများသို့	-11.3881
▁သတ်မှတ်ပေး	-11.3882
စည်းမျဉ်း	-11.3882
တကျ	-11.3882
▁ဆောင်ရွက်ချက်	-11.3883
▁ပြုလုပ်နိုင်	-11.3883
▁သေဆုံးသူ	-11.3885
all	-11.3885
▁စေ့	-11.3888
▁အားကိုး	-11.389
ဟောကြား	-11.389
low	-11.3891
ကမ္ဘာလုံးဆိုင်ရာ	-11.3895
ling	-11.3895
▁ဝါရှင်တန်	-11.3896
▁အသီးအသီး	-11.3898
▁လူဝီ	-11.3898
▁ဟစ်	-11.39
အရင်းအမြစ်	-11.3902
▁မိစ္ဆာ	-11.3905
အောက်စု	-11.3905
ရန်ပုံငွေ	-11.3905
▁မုံ	-11.3907
▁သတ်မှတ်ချက်	-11.3908
▁၁၆၉၉	-11.3909
မျိုးတို့	-11.391
▁တပ်ဦး	-11.3911
上	-11.3912
▁ဟိမဝန္တာ	-11.3912
▁သနား	-11.3912
တ္ထိ	-11.3912
တားမြစ်	-11.3913
▁မသေ	-11.3913
▁အစီအစဉ်များ	-11.3915
▁ငွေစက္ကူ	-11.3915
▁had	-11.3919
သစ်ရွာ၊	-11.3921
▁ခမာ	-11.3922
တိုက်တွင်	-11.3923
နိုင်ငံများ၏	-11.3924
တည်၍	-11.3925
မကင်း	-11.3927
နှိမ်နင်း	-11.3927
▁ပဲ့	-11.3932
▁ပြည်နယ်နှင့်	-11.3933
▁သမ	-11.3934
▁မြတ်နိုး	-11.3934
ငတ်	-11.3934
▁12	-11.3935
▁ဖောင်ဒေးရှင်း	-11.3935
▁အလွတ်	-11.3935
▁စစ်တွေ	-11.3936
▁၁၇၈၉	-11.3937
ical	-11.3938
မှတ်ပုံတင်	-11.3938
▁၁၈၇၀	-11.3939
တော်၏	-11.3939
▁ဗျ	-11.3939
ရာ၌လည်း	-11.394
▁ဖျော်ဖြေရေး	-11.394
▁ဆစ်	-11.394
အနွယ်	-11.394
▁ပုပ်ရဟန်းမင်း	-11.3943
▁လူသူ	-11.3944
▁အလေး	-11.3944
="88	-11.3949
ean	-11.3952
ွီ	-11.3953
ရောက်ရှိလာ	-11.3954
တရုပ်	-11.3954
▁၁၈၂၅	-11.3955
နိုင်တဲ့	-11.3955
▁ကျန်စစ်သား	-11.3956
အကွာအဝေး	-11.3957
▁၁၈၂၇	-11.3957
ခဲ့လေ	-11.3958
▁တစ်ဦးတည်း	-11.3961
အလို့ငှာ	-11.3962
о	-11.3964
မဏ္ဍိုင်	-11.3964
ပညာရှိ	-11.3964
ပေးခဲ့ပြီး	-11.3966
war	-11.3968
har	-11.3971
▁တစ်နေ့လျှင်	-11.3974
၄၉။	-11.3974
▁နိုင်ငံတွင်း	-11.3976
အိုလံပစ်	-11.3976
ရှော့	-11.3976
▁ဟား	-11.3976
စည်းကမ်း	-11.3978
▁အတော်ပင်	-11.3979
▁အင်ဒို	-11.3979
အဂ္ဂ	-11.398
▁ဟွန်း	-11.3981
ပရိသတ်	-11.3983
▁စေတီတော်ကို	-11.3986
ကြိမ်မြောက်	-11.3986
▁နက်ဗျူလာ	-11.3987
ကျက်စား	-11.3987
ort	-11.3987
▁မမြင်	-11.3988
▁ဤအ	-11.3988
ck	-11.3988
တော့မည်	-11.3988
တည်ထား	-11.399
▁တာဝန်ပေး	-11.3991
ep	-11.3991
▁ယေ	-11.3991
▁မွေးသည်။	-11.3993
▁ဒုံ	-11.3994
▁ရှေးရိုး	-11.3995
▁၁၆၈၄	-11.3996
▁နှုန်း	-11.3996
▁အကြမ်း	-11.3996
▁လုံ့လ	-11.3997
▁၁၆၈၂	-11.3998
မလုပ်	-11.4
ပိုင်ဆိုင်မှု	-11.4001
▁တည်ဆောက်ရေး	-11.4002
▁ခုနှစ်ကတည်းက	-11.4006
▁%	-11.4007
▁ပန်းပွင့်	-11.4008
▁ချထား	-11.4008
၂၀၀၈	-11.401
▁ဗုံးကြဲ	-11.4013
ဘ၀	-11.4015
ထွက်ပြေး	-11.4017
▁ဝိုင်းဝန်း	-11.4018
ခန	-11.4019
နန္ဒာ	-11.4019
▁ကြိုဆို	-11.402
▁name	-11.4021
▁မိမိကိုယ်တိုင်	-11.4021
ပုံစံဖြင့်	-11.4022
▁ဖြန့်ဖြူး	-11.4023
သေးငယ်	-11.4024
လယ်ရွာ	-11.4025
▁အာလူး	-11.4026
▁အကျုံးဝင်	-11.4026
စမ်းရွာ	-11.4027
▁၁၄။	-11.4029
ပင်ဖြစ်	-11.403
အောက်သို့	-11.4031
ဖြတ်သန်း	-11.4033
▁၁၈၉၀	-11.4034
▁ဆင်းသက်လာ	-11.4035
▁ဆွန်	-11.4035
▁ရေချိုး	-11.4035
လိုင်ရွာ	-11.4037
ph	-11.4037
▁ရှန်	-11.4037
▁ခွက်	-11.4043
▁ကျွဲခြံ	-11.4044
▁စာပေနှင့်	-11.4044
ငါးရာ	-11.4046
▁အတတ်	-11.4046
▁၁၈၄၆	-11.4047
▁ပျော်ဝင်	-11.4048
ပလင်	-11.405
ore	-11.4051
▁အိဝ	-11.4051
ယေး	-11.4051
မိသည်။	-11.4051
▁ဦးချို	-11.4051
အနီး၌	-11.4052
သင်္ဘောများ	-11.4052
▁ဆင်းရဲသား	-11.4054
▁အလုံ	-11.4057
▁တိုင်းသူပြည်သား	-11.4057
▁မော့	-11.4058
002	-11.4058
တစ်မျိုးဖြစ်ပြီး	-11.4058
ဂျေား	-11.4059
▁ပတ်လည်	-11.406
▁တရားအားထုတ်	-11.406
ဆရာတော်ကြီး	-11.406
▁အဖြစ်လည်း	-11.4063
CE	-11.4063
▁ထာဝရ	-11.4064
ဟူ၍၎င်း၊	-11.4066
▁7	-11.4066
ဂွန်း	-11.4068
▁နာဝီးမြို့နယ်	-11.4069
ဓုတင်	-11.4071
▁zone	-11.4071
စီးတီး	-11.4071
▁လက်နက်များ	-11.4072
စရိုက်	-11.4072
အဘိဓာန်	-11.4073
▁ဆောင်ရွက်နိုင်	-11.4075
▁ချိတ်	-11.4075
▁အပန်းဖြေ	-11.4077
ဖော်ပြထားသည်။	-11.4078
▁အမြန်ဆုံး	-11.4078
ဖြင့်လည်းကောင်း	-11.4078
▁ရှုံးနိမ့်	-11.4079
▁ထုတ်ကုန်	-11.4079
▁ရွာတွင်	-11.4081
▁ပါဝင်လေသည်။	-11.4082
▁ဝါးတော	-11.4083
▁ပြိုင်ဘက်	-11.4085
အခြေပြု	-11.4086
▁ဇယား	-11.4088
လွှမ်းမိုးမှု	-11.4089
စာအုပ်ကို	-11.4089
▁ကြွရောက်	-11.4092
သို့လည်း	-11.4095
ခြင်းပင်ဖြစ်သည်။	-11.4095
▁Sh	-11.4099
▁ထွက်သော	-11.41
အင်ဂျင်	-11.41
▁ယူအက်စ်	-11.4102
မျိုးနှင့်	-11.4104
▁လွတ်လပ်ရေးရ	-11.4106
အလုံး	-11.4107
▁အလွန်ပင်	-11.4107
ိန္ဒ	-11.4108
▁ရှိပါတယ်။	-11.4108
009	-11.4108
▁Dr	-11.4111
▁ဘုတ်	-11.4112
ပြန့်ပွား	-11.4113
▁လက်ဝှေ့	-11.4114
လာပြီးနောက်	-11.4115
ထက်မြက်	-11.4117
port	-11.4118
▁ဤကန်	-11.4119
qu	-11.412
ဇူး	-11.4121
▁ပြည်နယ်များ	-11.4122
၌ရှိသော	-11.4123
▁Mawlamyine	-11.4123
山	-11.4123
▁ဘုရားကုန်း	-11.4124
▁လူတစ်ဦး	-11.4126
▁အထင်အရှား	-11.4126
▁United	-11.4126
▁အလေးထား	-11.4127
▁ဒဏ်	-11.4128
▁သုံးဆောင်	-11.4129
▁မြန်မာတို့၏	-11.4129
တည်ရှိရာ	-11.413
စန္ဒာ	-11.4131
▁သဘောကျ	-11.4133
ဏီ	-11.4134
▁ပဓာန	-11.4136
▁ကင်မရာ	-11.4136
▁အင်္ဂ	-11.4137
▁ဘာသာတရား	-11.4138
▁အရှေ့အလယ်ပိုင်း	-11.414
701505	-11.414
ဟရ	-11.4144
ကပြ	-11.4146
ကြွယ်ဝ	-11.4146
▁အမိန့်ပေး	-11.4149
ကုန်းတန်း	-11.4149
ဇေယျာ	-11.415
▁စိတ္တ	-11.415
▁နည်းလမ်းများ	-11.4152
▁ကျော်ကို	-11.4152
ဖောင်ဒေးရှင်း	-11.4152
ဥပဒေကို	-11.4153
▁ဆီးရီးယား	-11.4153
▁Sp	-11.4153
ပြီးတော့	-11.4154
ွိ	-11.4155
မင်းတို့	-11.4156
▁တပ်ပေါင်းစု	-11.4156
တစ်ဦးသည်	-11.4156
ဗွေ	-11.4157
▁သင်တန်းများ	-11.4158
▁အချိုး	-11.4158
▁သံပုရာ	-11.4158
ခြင်းမျိုး	-11.416
သည့်အနေဖြင့်	-11.416
ကိစ္စကို	-11.4162
▁ဂွေးကုန်း	-11.4164
▁ဟစ်တလာ	-11.4165
▁တောက်ပ	-11.4166
▁ရှေ့သို့	-11.4166
▁၁၈၂၂	-11.4166
အကြောင်းအရာများ	-11.4167
ရှိဘူတာ	-11.4168
68	-11.4168
▁ဖလမ်းမြို့နယ်၊	-11.4171
▁ဘူတာ	-11.4171
▁ထုံ	-11.4172
ကဗျာများ	-11.4172
မှန်သမျှ	-11.4175
တည်ရှိနေ	-11.4176
▁ထိရောက်စွာ	-11.4179
တုံ့ပြန်	-11.4179
▁days	-11.418
▁ငြင်းဆန်	-11.4181
သင်တန်းကျောင်း	-11.4182
သုံးနှုန်း	-11.4184
တွမ်	-11.4185
="84	-11.4186
▁ကြေညာချက်	-11.4187
မျိုး၊	-11.4187
နေချိန်တွင်	-11.4188
▁တတိယအကြိမ်	-11.4189
▁အညာ	-11.419
▁အစချီ	-11.419
▁အထောက်အကူပြု	-11.419
▁ဖိတ်ကြား	-11.4191
▁အငြင်းပွား	-11.4192
ဖစ်	-11.4193
▁ရေငုပ်သင်္ဘော	-11.4194
▁လွန်ခဲ့သည့်	-11.4194
ပေးထားသည်။	-11.4194
▁သတ္တမ	-11.4195
▁ကန်တော့	-11.4196
▁ပင်လယ်ပြင်	-11.4196
▁အကောင်း	-11.4196
▁မှတ်တမ်းတင်ထား	-11.4199
ဖြစ်လာပြီး	-11.4199
ယယ်	-11.42
▁တစ်စု	-11.4201
▁ထင်ရှားစွာ	-11.4202
▁အအေး	-11.4204
ရည်ရွယ်ချက်ဖြင့်	-11.4204
lon	-11.4205
▁ဘန်ကောက်	-11.4205
သီး၊	-11.4205
▁စားပွဲ	-11.4206
▁ထိုရွာသည်	-11.4207
ခြင်းမရှိပေ။	-11.4208
▁သာလွန်	-11.421
တစ်ပိုင်း	-11.4211
တစ်ချို့	-11.4211
AN	-11.4213
▁သံသယ	-11.4213
အထက်ပိုင်း	-11.4215
▁Nga	-11.4215
▁ကော်မတီဝင်	-11.4216
ပြင်ပ	-11.422
▁တိုက်ပွဲများ	-11.422
bar	-11.422
▁death	-11.4222
နိုင်ဘဲ	-11.4223
▁နာရီတွင်	-11.4223
မြန်မာအမျိုးသမီး	-11.4224
ခြားနား	-11.4225
▁Shan	-11.4225
▁ဟိုက်	-11.4225
ရသည်မှာ	-11.4226
▁ရေယာဉ်	-11.4229
ဘွတ်	-11.4229
=135	-11.423
▁အမရပူရမြို့နယ်၊	-11.4231
▁ရသော	-11.4232
မိဖုရားခေါင်ကြီး	-11.4233
▁ဗျိုင်း	-11.4233
ative	-11.4236
▁၁၈၁၂	-11.4237
မြှင့်တင်	-11.4237
▁တစ်စုံတစ်ရာ	-11.4237
မျိုးဖြင့်	-11.4238
▁မြင်သာ	-11.4238
▁နေရ	-11.4238
▁စတင်ခဲ့ပြီး	-11.424
▁ပိ	-11.4241
▁၁၈၂၃	-11.4243
▁ပျောက်ဆုံး	-11.4244
▁ကျန်ရစ်	-11.4244
="135	-11.4244
▁Tu	-11.4247
▁လက်ဆက်	-11.4247
▁သိရှိရသည်။	-11.4248
▁တနင်္ဂနွေ	-11.4248
ကြီးငယ်	-11.4248
▁အုံး	-11.4248
▁ခေါ်ဝေါ်ကြသည်။	-11.4249
▁အိန္ဒိယ၊	-11.425
▁ခေါ်ဆိုကြသည်။	-11.425
▁ပင်လုံ	-11.4254
နှစ်ဆယ်	-11.4256
▁ထောပတ်	-11.4256
ပုပ္ဖိယထေရ်	-11.4256
မှတ်တမ်းတင်	-11.4257
▁ဟိုင်	-11.4259
▁ဆိုက်ရောက်	-11.4259
ဇူလိုင်	-11.4259
တော်တွင်	-11.4259
လက်ဝဲ	-11.426
▁သူကိုယ်တိုင်	-11.426
▁၇၀၀	-11.4261
ကလောင်	-11.4264
▁ညွှန်းဆို	-11.4265
နေခဲ့	-11.4265
ဗူ	-11.4266
ဖယ်ရှား	-11.4267
ပေပြီ။	-11.4267
ရှောက်	-11.4267
▁စာသင်	-11.4268
gan	-11.4268
▁တရုတ်တို့	-11.427
ရောဂါများ	-11.4274
▁သင်္ခါရ	-11.4274
▁စစ်သူကြီး	-11.4275
▁ယူဇနာ	-11.4275
ste	-11.4275
par	-11.4275
▁သုံးဦး	-11.4276
ဆိုရှယ်လစ်	-11.4278
▁ဩဝါဒ	-11.4278
ဂျော့	-11.4279
သူပုန်	-11.428
day	-11.4282
▁ဇာတ်ကောင်	-11.4282
▁ဖျက်	-11.4283
တွင်ပါဝင်	-11.4283
ပါဝင်မှု	-11.4285
▁ခရစ်ယန်	-11.4286
ဇမ်	-11.4288
တစ်နိုင်ငံလုံး	-11.4288
တို့ထံမှ	-11.4289
ဖျင်း	-11.429
▁သူရ	-11.429
နွန်	-11.429
လှံ	-11.4291
▁ကွေး	-11.4291
ပျ	-11.4291
များအနေဖြင့်	-11.4293
ကလေးကို	-11.4295
ft	-11.4295
▁ခဲယဉ်း	-11.4297
လီယာ	-11.4298
▁ဇနီးဖြစ်သူ	-11.43
မီက	-11.43
▁၁၈၅၅	-11.43
▁အသုံးများ	-11.4301
▁အသုံးပြုပုံ	-11.4301
ဖြစ်သည်၊	-11.4303
▁စက်ဝိုင်း	-11.4304
▁သုံးဆယ်	-11.4304
▁၁၇၈၈	-11.4305
▁တု	-11.4307
▁စာသင်ကျောင်း	-11.4308
ခါနီး	-11.4308
▁ပြည်သူ့ရဲဘော်	-11.4309
▁ဖြစ်နေသည်။	-11.4309
▁ဗေ	-11.4309
▁ရေအားလျှပ်စစ်	-11.4311
လှာ	-11.4311
▁အမှတ်လက္ခဏာ	-11.4312
▁ကျင်းပသည်။	-11.4312
▁နေရောင်	-11.4312
ိတ်	-11.4312
အမေရိက	-11.4314
▁ခေါင်းဆောင်မှု	-11.4315
▁Maw	-11.4316
▁ခဏ	-11.4316
သည်ဖြစ်စေ	-11.4317
အလီ	-11.4317
အဖွဲ့ဝင်များ	-11.4318
ပြောကြားခဲ့သည်။	-11.4318
ဝူ	-11.4318
▁ငှက်ဖျားရောဂါ	-11.432
အထောက်အပံ့	-11.4321
ဿာ	-11.4322
ငါသည်	-11.4323
အိပ်မက်	-11.4324
အစိုးရမှ	-11.4325
မြတ်နိုး	-11.4327
▁အကြီးဆုံးမြို့	-11.4327
နောက်ခံ	-11.4329
▁အဋ္ဌမ	-11.4329
ယ့်	-11.433
▁သွယ်	-11.433
အဝင်	-11.4331
သုံးယောက်	-11.4331
=208	-11.4331
▁တပ်မတော်ကာကွယ်	-11.4332
▁၃၀၀၀	-11.4334
▁လု	-11.4335
=137	-11.4335
ပေ၏။	-11.4335
;5	-11.4336
ခိုင်မာ	-11.4337
▁မုံရွာမြို့	-11.4338
အဆောင်	-11.4341
▁ဤသုတ္တန်	-11.4341
ထန်ရွာ	-11.4342
▁ကနေ	-11.4345
="137	-11.4345
ဘဝက	-11.4345
▁အယူ	-11.4346
▁၁၅ဝ	-11.4346
▁နောက်လိုက်	-11.4346
▁ကျန်း	-11.4347
ဆရာအဖြစ်	-11.4349
▁ခန့်ရှိသည်။	-11.4349
ခန့်သာ	-11.4349
▁ထားဝယ်မြို့	-11.435
ခဲ့ကြသည့်	-11.4351
▁အောက်လွှတ်တော်	-11.4351
တော်မူရာ	-11.4351
ပင်ပန်း	-11.4353
van	-11.4354
သည်ဟူ၍	-11.4356
လိုကြောင်း	-11.4358
▁၁၇၆၉	-11.4359
▁လမ်းများ	-11.4363
ဖြစ်ခဲ့ပြီး	-11.4364
စမစ်	-11.4364
ခန့်ထား	-11.4365
▁စစ်ကြောင်း	-11.4367
▁နာဇီ	-11.4367
အမိန့်ကြော်ငြာစာ	-11.4368
ပြစ်ဒဏ်	-11.4372
▁ရေးသားခဲ့သော	-11.4372
▁ဟုခေါ်သည့်	-11.4373
ဟူသည်မှာ	-11.4374
ရန်လိုအပ်	-11.4374
▁ဘုရားသခင်၏	-11.4375
ဝီး	-11.4375
ပညာသင်	-11.4375
▁un	-11.4376
ဝင်ရိုးစွန်း	-11.4378
ပရို	-11.4378
▁အထပ်	-11.4379
Al	-11.438
ရေကြောင်း	-11.438
▁အရည်ပျော်	-11.4381
▁၉၄	-11.4382
ဆန္ဒပြ	-11.4382
သွားလျှင်	-11.4382
ပဲခူး	-11.4383
ern	-11.4386
▁up	-11.4387
▁ရွှေတံဆိပ်	-11.4388
▁သဏ္ဌာန်	-11.439
အရှိဆုံး	-11.4393
▁two	-11.4393
ဟိုတယ်	-11.4393
▁သမိုင်းပညာရှင်	-11.4394
▁ပထမဦးစွာ	-11.4394
▁Google	-11.4396
ထုတ်လုပ်ခြင်း	-11.4398
▁ငါးပိ	-11.4399
ကြီးကြပ်	-11.44
▁ဆရာကြီးသည်	-11.44
▁နေထိုင်သော	-11.44
ဗန်းမော်မြို့နယ်	-11.4401
▁သဗ္ဗ	-11.4402
ကျယ်ပြန့်	-11.4402
ရေကို	-11.4402
သက်ရောက်မှု	-11.4404
▁တန်ချိန်	-11.4404
ထရို	-11.4405
▁ထူးခြားချက်	-11.4406
သီတာ	-11.4406
▁ပျဉ်	-11.4406
ခွဲများ	-11.4408
အနောက်ဘက်	-11.4408
59	-11.4408
ထွက်သော	-11.4409
ပြုပြီး	-11.441
ast	-11.441
ဘောလုံးအသင်း	-11.4411
အူး	-11.4412
▁၁၆၇၇	-11.4412
▁ပုံ။	-11.4414
၍လည်း	-11.4415
▁တောင်းခံ	-11.4415
▁ချောင်	-11.4417
▁ထပ်ဆင့်	-11.442
အစေ့	-11.4422
▁အသေ	-11.4422
တောင်းရွာ	-11.4424
▁၁၈၃၉	-11.4424
ဖွဲ့ဆို	-11.4425
ဖက်သို့	-11.4426
တွင်ကား	-11.4426
▁ဖော်ပြချက်	-11.4427
▁အာဏာကို	-11.4428
ပေးလေသည်။	-11.4428
▁၁၇၆၄	-11.4428
▁ဒဂုံ	-11.4429
သတ္တဝါများ	-11.4431
အချို့မှာ	-11.4431
သာရှိသည်။	-11.4433
စားခြင်း	-11.4433
▁ဝံပုလွေ	-11.4435
စနစ်သည်	-11.4436
▁ပေါ်လစီ	-11.4439
▁သုံးမျိုး	-11.4439
ရှိခြင်း၊	-11.444
ယန်ကျေးရွာအုပ်စု	-11.4441
ယစ်	-11.4441
▁စစ်ချီ	-11.4442
▁အမည်နာမ	-11.4443
ရှိ၍၊	-11.4443
▁နှစ်ခန့်	-11.4443
▁မက္က	-11.4444
▁El	-11.4444
▁ရု	-11.4446
မယ်တော်	-11.4447
▁ယူအေအီး	-11.4448
▁စကြဝတေးမင်း	-11.4448
▁ခန့်အပ်ခြင်း	-11.4448
▁အိန	-11.4449
▁များမကြာမီ	-11.445
▁ဆော	-11.4451
▁ဂျွန်ဆင်	-11.4453
▁အခြားသူများ	-11.4453
နှင့်တူ	-11.4454
ကြူး	-11.4456
တည်ဆောက်ရေး	-11.4456
▁အိန္ဒိယနိုင်ငံ၏	-11.4456
သွားသဖြင့်	-11.4457
▁ထီးနန်းကို	-11.4458
▁အနိစ္စ	-11.4459
▁ချိုင့်ဝှမ်း	-11.446
▁ဆက်မြောက်	-11.4462
▁ရဲတိုက်	-11.4462
တတ်သဖြင့်	-11.4464
▁ကုဋေ	-11.4464
▁အဘိုး	-11.4466
▁သိုလှောင်	-11.4466
ဖရုံ	-11.4467
စစ်ကိုင်း	-11.4467
▁မရနိုင်	-11.4468
▁တံတားဦး	-11.4468
ပြောင်းလဲခြင်း	-11.4468
တစ်ချပ်	-11.4468
▁၁၈၁၁	-11.4468
▁new	-11.4469
မူကြမ်း	-11.4473
▁ဗန်	-11.4473
▁အာသံ	-11.4474
ရပ်ဝန်း	-11.4474
လိယ	-11.4474
▁စက်ရုံများ	-11.4474
ဇလုပ်	-11.4475
▁ပါတီဝင်	-11.4476
ome	-11.4478
ဇာတ်တော်	-11.4479
▁နေထိုင်ခဲ့သည်။	-11.448
▁မြင့်တက်	-11.448
နတ်သမီး	-11.448
▁အပ	-11.4481
▁ပါလာ	-11.4482
အရာရှိများ	-11.4484
="111	-11.4484
▁ကမ္မဋ္ဌာန်း	-11.4485
▁လွှဲပြောင်းပေး	-11.4485
▁ကီး	-11.4487
▁သဘာဝဓာတ်ငွေ့	-11.4488
▁ဆရာစံ	-11.4488
လယ်ကျေးရွာအုပ်စု	-11.4488
တက်လာ	-11.4489
ဂိမ်း	-11.449
▁သမ္မာ	-11.449
မုခ်	-11.4491
▁တောင်တန်းများ	-11.4492
အနု	-11.4492
▁ဆင်ခေါင်း	-11.4492
ပြုလုပ်၍	-11.4493
▁ပါဠိဘာသာ	-11.4493
ပညတ်	-11.4493
▁ပါဝင်ယှဉ်ပြိုင်	-11.4496
▁Inn	-11.4497
လက်နက်များ	-11.4498
န္ဓ	-11.4499
▁ကြီးကျယ်	-11.45
▁ကျတီ	-11.45
ဘွဲ့ဖြင့်	-11.4501
▁လက္ခဏာများ	-11.4503
▁နေထိုင်သူများ	-11.4504
▁လိုအပ်သလို	-11.4505
ကြိမ်တိုင်တိုင်	-11.4506
မည်သည့်	-11.4506
ပျင်း	-11.4508
▁ရှမ်းစု	-11.451
ကောင့်	-11.4512
▁လောဘ	-11.4513
တစ်ပင်	-11.4513
▁one	-11.4514
န်းရွာ၊	-11.4515
▁ဖာရင်ဟိုက်	-11.4516
▁စစ်ဆေးခြင်း	-11.4516
▁အစာကို	-11.4516
▁လိုချင်	-11.4517
▁လေ့လာမှု	-11.4518
ကြရာတွင်	-11.4522
၂၀၁၃	-11.4524
▁၁၇၉၂	-11.4525
▁ဆူပူ	-11.4526
▁ကျောက်တောင်	-11.4527
▁ထင်မှတ်	-11.4527
တည်ရာ	-11.4527
ပဲ။	-11.4528
နှစ်များတွင်	-11.453
ဖိန်း	-11.4532
▁အမျိုးအစားများ	-11.4532
▁၁၈၃၃	-11.4534
▁ဟိုင်း	-11.4535
▁တစ်ခုဖြစ်ပြီး	-11.4535
▁အရှေ့အာရှ	-11.4537
▁မန်ကျည်း	-11.4537
နံ့သာ	-11.4537
▁စာရွက်စာတမ်း	-11.4539
▁ပို့ဆောင်ရေး	-11.4539
ဖြင်	-11.4541
သျှင်	-11.4542
▁ရရှိခဲ့ပြီး	-11.4544
▁တည်ဆောက်ရန်	-11.4545
▁ပရိယတ္တိ	-11.4545
စတား	-11.4546
အောင်၊	-11.4547
▁ဟင်	-11.4547
▁လိမ်	-11.455
▁ရောင်ခြည်	-11.455
▁လူသိများသော	-11.4551
▁တို့ဗမာ	-11.4553
ပေးသူ	-11.4553
အရာကို	-11.4554
ရွှေ့ပြောင်း	-11.4557
ခလုတ်	-11.4557
▁အင်္ကျီ	-11.4557
ကျွန်းများ	-11.4558
တောင်တန်းများ	-11.4559
▁အင်ဆူလင်	-11.4559
မွ	-11.4561
56	-11.4562
▁ယင်းတို့အနက်	-11.4566
▁၁၈၁၅	-11.4566
အမျိုးသမီးများ	-11.4568
▁ထုတ်ပြန်ခဲ့သည်။	-11.4569
▁လျှပ်စစ်သံလိုက်	-11.4569
အသုံးပြုမှု	-11.457
://	-11.4572
▁၁၆၆၄	-11.4572
ထားလျှင်	-11.4572
▁သေဒဏ်	-11.4573
ဒေသ၏	-11.4574
▁အလှူခံ	-11.4574
▁စတင်တည်ထောင်ခဲ့	-11.4574
▁မြန်မာ့သမိုင်း	-11.4575
▁ရေးသားထားသော	-11.4576
▁အခေါ်အဝေါ်	-11.4577
▁မွေးမြူရေး	-11.4579
ပန်းပင်	-11.4581
▁အိန္ဒိယနိုင်ငံ၊	-11.4583
▁ပါဠိတော်	-11.4584
လျှက်ရှိ	-11.4587
▁ဝမ်းနည်း	-11.4587
အမှတ်အသား	-11.4589
▁နှစ်အောက်	-11.4589
▁ဦးဖိုး	-11.459
▁ငြိမ်းချမ်း	-11.459
▁ဒလ	-11.4591
▁ဇေယျ	-11.4591
မဏိ	-11.4592
▁ချော	-11.4594
▁ကမ်းလှမ်း	-11.4595
▁တည်ထောင်ခဲ့ပြီး	-11.4595
▁ကလောင်အမည်	-11.4595
▁အသုံးပြုခွင့်	-11.4597
အသစ်ကို	-11.4597
▁ထိုးဖောက်	-11.4598
ရေတွင်း	-11.46
;4	-11.4601
75	-11.4602
ခရိုင်ခွဲ	-11.4602
▁တီးဝိုင်းသည်	-11.4602
▁တိုင်အောင်	-11.4604
▁မတွေ့ရ	-11.4604
▁Sun	-11.4606
ဆက်စပ်	-11.4606
ရှိရာသို့	-11.4606
▁ပြည်မ	-11.4607
ပမ်း	-11.4608
အစ္စလာမ်	-11.4609
ဖြင့်ပင်	-11.4612
ကြားရှိ	-11.4612
iv	-11.4613
ဒေသ၌	-11.4614
ကဒ်	-11.4614
ဇိုး	-11.4614
▁အီကွေတာ	-11.4615
ِ	-11.4615
=110	-11.4615
▁ထိုအကြောင်းကို	-11.4616
▁တယ်လီဖုန်း	-11.4616
▁ကျွန်တော့်	-11.4618
ဘရ	-11.4618
rit	-11.462
အချို့သည်	-11.4621
▁ဂွေးပင်	-11.4622
▁တင်စား	-11.4622
ara	-11.4624
▁အကောင်အထည်	-11.4625
▁တူသည်။	-11.4625
▁ထုတ်လုပ်သော	-11.4626
▁ဟောတော်မူ	-11.4628
တိုက်ရိုက်	-11.4632
ပြသည်။	-11.4632
တွတ်	-11.4633
▁နဖူး	-11.4635
▁ဆိပ်သာ	-11.4637
tri	-11.4637
▁ကြို့ပင်	-11.4637
ပါဟု	-11.4637
▁ဖြစ်ရာ	-11.4639
▁ဖလား	-11.4639
နေတာ	-11.464
▁၁၇၅၈	-11.464
▁ဆိုပြီး	-11.464
▁ယူဆရသည်။	-11.4641
▁အင်းဝမြို့	-11.4641
▁အဆက်	-11.4641
ကျောင်းသို့	-11.4641
မြို့မှာ	-11.4644
▁ကလေးငယ်	-11.4644
▁လောင်ကျွမ်း	-11.4644
▁ဂျပန်ခေတ်	-11.4645
လျှို	-11.4645
မည်၊	-11.4645
ရှေ့လောင်ဂျီတွဒ်	-11.4646
အဝတ်	-11.4646
နေစဉ်အတွင်း	-11.4646
58	-11.4649
လုံးတွင်	-11.4649
▁ဂျိုး	-11.4649
▁Bar	-11.465
▁ကြုံတွေ့	-11.4656
▁မပေး	-11.4656
law	-11.4657
▁ဘရာဇီးနိုင်ငံ	-11.4657
▁ယင်းကဲ့သို့	-11.4658
▁သတိုး	-11.4658
▁We	-11.4661
တည်ထောင်ခဲ့သည်။	-11.4661
▁ကညင်ကုန်း	-11.4661
ထောက်လှမ်းရေး	-11.4663
65	-11.4663
ရခဲ့သည်။	-11.4665
▁ပုံတူ	-11.4665
ကွန်ဂရက်	-11.4667
▁ပစိဖိတ်သမုဒ္ဒရာ	-11.4667
▁အသင်းဝင်	-11.467
▁ကမ္ဘာဦး	-11.4671
▁မတူညီသော	-11.4671
▁တောတွင်း	-11.4673
တက	-11.4674
များအကြောင်း	-11.4674
▁ကြားရ	-11.4676
အမှတ်မှာ	-11.4679
▁ဝတ္ထုတိုများ	-11.468
line	-11.468
တောင်ကြား	-11.4682
▁ရုပ်သံလိုင်း	-11.4683
▁ရှိကြောင်း	-11.4683
ဠာ	-11.4684
ပေးကြသည်။	-11.4687
▁၁၇၅၂	-11.4688
tal	-11.4688
▁ကြားတွင်	-11.469
ဂိုဏ်းဝင်	-11.469
▁မှီခို	-11.4691
ဘစ်	-11.4693
▁ရှိကြ	-11.4693
စဉ်အတွင်း	-11.4694
တ္	-11.4696
▁လက်တွဲ	-11.4697
▁လျော်	-11.4698
▁ဒါပေမယ့်	-11.4701
အထည်	-11.4702
tter	-11.4704
▁ဩစတြေးလျနိုင်ငံ	-11.4705
▁၎င်းအား	-11.4705
="87	-11.4705
▁သတ်မှတ်ခြင်း	-11.4707
="110	-11.4707
gar	-11.4708
▁စုပ်ယူ	-11.4711
unt	-11.4713
အထိမ်းအမှတ်	-11.4714
▁အမှုန့်	-11.4714
▁အနော်ရထာ	-11.4714
▁ချစ်သူ	-11.4716
▁ကျနော်	-11.4719
gi	-11.4719
အကယ်ဒမီ	-11.472
ဖေဖော်ဝါရီ	-11.472
သူများ၊	-11.4721
yn	-11.4721
▁သံဃာတော်များ	-11.4723
▁အချမ်းသာဆုံး	-11.4723
၂၀၁၂	-11.4725
မြေပုံ	-11.4725
▁တည်ရှိရာ	-11.4727
▁Billboard	-11.4727
တရားတော်	-11.4729
▁မိန့်တော်မူ	-11.4729
▁ရစ်ချတ်	-11.4731
ဂါမ	-11.4731
▁၈၁	-11.4732
သိဒ္ဓိ	-11.4732
ကောက်ခံ	-11.4733
▁ပြန်သွား	-11.4733
▁၁၇၉၃	-11.4735
ရောင်ခြင်း၊	-11.4735
▁စာအုပ်တွင်	-11.4735
▁မိုင်းပတ်	-11.4735
လက်သို့	-11.4736
မှုပြု	-11.4737
▁အာရ	-11.4739
ဍ	-11.4739
နန်းတက်	-11.474
▁သုတ	-11.4741
▁မျှော်	-11.4741
▁ချောင်းဖျား	-11.4742
ခြင်းဖြစ်	-11.4742
လျူ	-11.4743
▁မျက်မှောက်ခေတ်	-11.4743
အခြေအနေကို	-11.4745
▁King	-11.4745
▁၁၈၇၇	-11.4747
▁ခင်ပွန်း	-11.4748
▁သုံးသည်။	-11.4748
▁ရပ်စောက်	-11.475
▁မကောင်းမှု	-11.4751
▁ထိုစာအုပ်	-11.4753
▁နယ်ခြား	-11.4753
လည်းဖြစ်	-11.4754
နိုင်၊	-11.4755
▁၁၇၅၉	-11.4756
ပင်၏	-11.4758
▁ဒူ	-11.4758
▁ဘုရားချောင်း	-11.4759
▁ပြုတ်	-11.476
▁ငဖဲမြို့နယ်	-11.476
စေရာ	-11.4761
တစ်ခုအနေဖြင့်	-11.4761
ဆောင်းပါးများ	-11.4761
ရှိပါတယ်။	-11.4762
လိုအပ်သော	-11.4763
▁အောင်း	-11.4766
▁ညွန့်ပေါင်း	-11.4769
များဖြစ်ပြီး	-11.4769
ယူရန်	-11.4769
ဆွန်း	-11.4769
▁တန်ဆောင်မုန်း	-11.477
IC	-11.477
▁မလို	-11.477
လာသောကြောင့်	-11.4774
ကာလ၌	-11.4774
▁ရောင်းဝယ်	-11.4776
▁ပြောင်းလဲလာ	-11.4777
▁ဂျီဩမေတြီ	-11.4778
သူမ	-11.4779
▁ဖြုတ်	-11.478
ဧပြီ	-11.4781
ကသိုဏ်း	-11.4784
▁alternative	-11.4784
▁ဂျော်ဂျီယာ	-11.4784
▁ကမ္ဘာအနှံ့	-11.4785
▁Hs	-11.4785
လျှို့ဝှက်	-11.4785
▁ဖွံ့ဖြိုးဆဲ	-11.4786
ဇာတ်လမ်းများ	-11.4786
ချောင်းဖျား	-11.4787
▁ဆိုလျှင်	-11.4788
▁လုပ်သား	-11.4789
▁တရားကို	-11.479
ဆန်ဆန်	-11.479
▁အံ့ဩ	-11.4791
အနွယ်ဝင်	-11.4791
▁ချောင်းဝ	-11.4792
▁၁၈၄၇	-11.4792
ရပါ	-11.4792
="89	-11.4793
▁၉ဝ	-11.4794
အခွေ	-11.4794
ရေးဦးစီးဌာန	-11.4795
ထိမ်း	-11.4795
ပို့ဆောင်ရေး	-11.4795
▁လမ်းမကြီး	-11.4796
▁အထူးပင်	-11.4798
kin	-11.4799
▁၁၇၆၃	-11.4799
ငရဲ	-11.4799
ထိတွေ့	-11.48
▁ဆက်နွယ်	-11.4801
ငြား	-11.4803
ဖြစ်နေသော	-11.4803
▁တွန်းလှန်	-11.4804
▁မိတ်ဆက်	-11.4804
အားကစားကွင်း	-11.4805
ဘိန်း	-11.4806
အရှေ့စု	-11.4808
ဖော်ပြထားပါသည်။	-11.481
▁တင်ပို့ရောင်းချ	-11.481
▁ယူခဲ့သည်။	-11.4813
▁၁၇၆၀	-11.4814
▁ရေစီး	-11.4815
ပိုင်းခြား	-11.4815
ငွေကို	-11.4816
မှာကား	-11.4817
စီးရီး	-11.4819
=52	-11.4819
▁ဖြစ်ကြ၏။	-11.4819
ဘိက္ခုနီမ	-11.482
အရေးကြီး	-11.4823
▁ဖုဂျိ	-11.4823
▁ဂီတကို	-11.4824
▁US	-11.4824
ရဟန်းတို့	-11.4829
▁ရင်းမြစ်	-11.4829
ကြကြောင်း	-11.4831
▁ဧချင်း	-11.4831
ဒဏ်ရာ	-11.4831
▁လွှဲ	-11.4832
▁နိုင်ငံရေး၊	-11.4832
လမ်းကို	-11.4834
▁ရွာသာ	-11.4835
fa	-11.4836
လုံးဝ	-11.4837
သည်လည်းကောင်း၊	-11.4839
е	-11.4841
▁have	-11.4842
▁တရားလွှတ်တော်	-11.4842
နံ့	-11.4842
ဘားမား	-11.4844
ဝေးသော	-11.4846
အနည်းဆုံး	-11.4847
▁ရွှေ့	-11.4848
▁အင်္ဂလိပ်အစိုးရ	-11.4849
ကျောက်တိုင်	-11.4849
▁နံ့သာ	-11.4851
ုပ်သံဇာတ်လမ်းတွဲ	-11.4851
▁ဇရပ်	-11.4852
တင်၊	-11.4853
▁မန္တ	-11.4853
▁သင်ကြားပို့ချ	-11.4854
▁၈၂	-11.4855
နှိပ်စက်	-11.486
ရသည်ဟု	-11.486
ight	-11.486
▁ကန်း	-11.486
များမှာမူ	-11.486
မျှား	-11.4862
ဂရီ	-11.4863
လောက်က	-11.4863
▁၎င်းမှာ	-11.4865
▁အသုံးဝင်ပုံ	-11.4866
▁ဂျပ်	-11.4867
▁ခမ်း	-11.4868
▁ပါဝင်ခဲ့ပြီး	-11.4869
ဖော်ပြခဲ့သည်။	-11.4872
ရလဒ်	-11.4874
မှတ်တမ်းများ	-11.4875
▁ဝန်ကြီးအဖြစ်	-11.4876
ဘုရားသည်	-11.4876
▁ထိုကျွန်း	-11.4877
Na	-11.4877
▁ရည်ရွယ်ချက်မှာ	-11.4878
EC	-11.4878
light	-11.4878
▁ပညာဆည်းပူး	-11.4879
ပေးရမည်။	-11.488
▁နေအဖွဲ့အစည်း	-11.4881
မလဲ	-11.4881
▁သက်ဆိုင်သည့်	-11.4884
▁၁၅။	-11.4885
ကို၎င်း၊	-11.4886
▁ဇွဲ	-11.4887
လုပ်ငန်းစဉ်	-11.4887
အွန်း	-11.4887
▁ခင်မောင်	-11.4887
ပြည်သူ	-11.4888
▁ပူး	-11.4888
▁အနီးရှိ	-11.4889
▁နူးညံ့	-11.4889
မောင်၊	-11.4889
ကြည်လင်	-11.489
တန်ချိန်	-11.4891
▁ပန်းခြံ	-11.4894
လောက်သာ	-11.4894
▁ဦးခင်မောင်	-11.4895
▁အင်းမ	-11.4895
▁စည်းလုံး	-11.4898
▁မလိုလား	-11.4898
▁mainstream	-11.4899
ကောင်းများ	-11.4899
▁ဝါဂွမ်း	-11.4899
▁နောက်ခံသမိုင်း	-11.4899
အရှေ့ဘက်	-11.4901
▁ရဟန်းတော်	-11.4901
▁ရရှိသည့်	-11.4903
▁၁၇၉၁	-11.4905
▁ဆမ်	-11.4906
ory	-11.4906
▁နယ်သာလန်	-11.4908
▁၁၆၄၄	-11.491
▁ကိုးကွယ်မှု	-11.491
တယ်ဆိုတာ	-11.491
▁စနေ	-11.491
▁ကျွမ်းကျင်မှု	-11.4911
▁လူပျို	-11.4912
▁ဖုန်	-11.4912
ဖြစ်ကြသည်။	-11.4913
▁သံဘို	-11.4914
ney	-11.4915
70350	-11.4919
▁မီလီမီတာ	-11.4919
လုပ်ပိုင်ခွင့်	-11.492
ွင်	-11.4921
ဂုဏ်ပြု	-11.4921
▁ချောင်းဆိုး	-11.4922
▁မြောက်ကိုရီးယား	-11.4922
▁ယခုခေတ်တွင်	-11.4923
▁အစ္စလာမ်ဘာသာ	-11.4924
▁စီးပွားရေး၊	-11.4924
ကွာဝေး	-11.4924
လီရှော	-11.4924
▁ကျွန်းကလေး	-11.4924
အစိုးရကို	-11.4925
ရွန်း	-11.4926
ရရှိသည့်	-11.4927
▁ခွင့်	-11.4927
▁ဟုဆိုသည်။	-11.4928
စေတီကို	-11.4928
▁ဆင်ယင်	-11.4931
▁တာဝန်ကို	-11.4931
▁ပြည်တော်သာ	-11.4933
မရွာ	-11.4937
▁၁၂၀	-11.4937
▁တွေ့ဆုံဆွေးနွေး	-11.4938
စ္	-11.494
▁BD	-11.4942
တတ်ပြီး	-11.4944
▁အမှုထမ်းခဲ့သည်။	-11.495
အချိန်က	-11.495
တော်စပ်သူ	-11.495
▁အစေး	-11.4951
▁အသက်မွေးဝမ်း	-11.4952
▁ကျန်ရှိ	-11.4953
လက်ပန်	-11.4955
လေ့ရှိ၏။	-11.4955
▁ဖြစ်လာလေသည်။	-11.4956
ရင်းနှီးမြုပ်နှံ	-11.4956
▁guitar	-11.4957
▁အီတာလျံ	-11.4957
ရာ၏၊	-11.4957
ren	-11.4959
▁၁၁၀	-11.496
▁ချပ်	-11.4961
▁နမ့်ဖိုင်	-11.4962
မို့၊	-11.4963
▁မိုးလေဝသ	-11.4963
▁၁ဝဝဝ	-11.4964
="64	-11.4964
▁ရက်ကန်း	-11.4965
▁ဆင်ကူး	-11.4966
▁၁၈၄၂	-11.4966
သမာ	-11.4967
အာဏာကို	-11.4967
▁သာမန်အားဖြင့်	-11.4969
▁သက္ကတ	-11.497
=62	-11.497
ကြွေး	-11.4971
မိဘ	-11.4971
ရှားပါး	-11.4971
▁၇ဝ	-11.4971
▁၁၈၄၉	-11.4972
▁အဓမ္မ	-11.4974
မချိဘူတာ	-11.4975
▁မိခင်ဖြစ်သူ	-11.4975
▁၁၆၈၃	-11.4976
လောကသို့	-11.4976
▁ရေနွေး	-11.4976
▁အဖမ်း	-11.4978
စွတ်	-11.4978
▁ရေသွင်း	-11.4978
▁(5)	-11.4979
သက်သေ	-11.4979
▁Than	-11.4984
▁စူဠ	-11.4985
ိန်း	-11.4985
▁လျော့	-11.4986
▁တယ်	-11.4987
▁တောင်ဘက်သို့	-11.4987
နယ်များ	-11.4988
▁လေးနှစ်	-11.4988
ခဲ့ခြင်းကြောင့်	-11.4989
ith	-11.499
စက်တင်ဘာ	-11.4991
လွမ်	-11.4993
▁ကျူတော	-11.4994
အားလည်း	-11.4994
ရိုင်းတိရစ္ဆာန်	-11.4997
သူလည်း	-11.4997
▁ဟန်ဂေရီ	-11.4998
▁မြန်	-11.4998
="93	-11.4998
ကြမည်	-11.5002
▁၈၆	-11.5003
နိုင်သမျှ	-11.5003
ခြင်းခံရသော	-11.5005
▁စိ	-11.5009
▁နေရာဒေသ	-11.5009
ုန်း	-11.5011
ဂျောင်	-11.5013
▁Naruto	-11.5015
=133	-11.5015
ပြီးသည့်	-11.5015
▁ကောက်ညှင်း	-11.5016
▁Let	-11.5017
ဒီဇင်ဘာ	-11.5018
တတ်လေသည်။	-11.5019
လောက်သော	-11.502
▁ကွာဝေး	-11.502
▁တစ်ပြိုင်နက်	-11.502
▁နွားနို့	-11.5021
▁အင်ပိုင်ယာ	-11.5022
▁သေချာစွာ	-11.5023
▁၁၈၄၃	-11.5023
▁၎င်းတွင်	-11.5024
▁၇၆	-11.5027
▁ဖြန့်ဝေ	-11.5028
တစ်ဝိုက်တွင်	-11.5029
▁မျိုးနွယ်စု	-11.5029
▁ကျိုင်း	-11.5031
▁၁၇၀၆	-11.5032
ကြီးများနှင့်	-11.5032
လမ်းမ	-11.5032
ဒေသနှင့်	-11.5033
ack	-11.5033
ဂျာမန်	-11.5035
▁ညီမျှ	-11.5036
▁အပြိုင်	-11.5036
သည်ဟုဆို	-11.5038
▁အောင်မြေ	-11.5039
မမြင်	-11.504
'()	-11.504
▁ကြမ်းတမ်း	-11.5041
▁နေသည်။	-11.5041
="133	-11.5042
သိမ်းဆည်း	-11.5042
စစ်ဆင်ရေးက	-11.5043
ရာသီတွင်	-11.5043
ဝူး	-11.5045
အဝေး	-11.5045
▁အုပ်ချုပ်သည်။	-11.5046
▁Sha	-11.5046
ာန်	-11.5046
နယ်ပယ်တွင်	-11.5046
မင်းများ	-11.5047
▁ဂျာမန်တို့	-11.5047
မြို့အနီး	-11.5047
▁ဘူမိ	-11.5048
bin	-11.5049
▁ဝီရိယ	-11.5051
▁နပိုလီယန်	-11.5052
နယ်သည်	-11.5052
▁ကျွန်းချောင်း	-11.5057
▁ဆိုလိုသည်မှာ	-11.5058
▁တိုကျိုမြို့	-11.5058
▁ထူထပ်	-11.506
ဂုဏ်ရည်	-11.5063
▁တရားခံ	-11.5064
တရ	-11.5064
▁အလွန်အမင်း	-11.5064
၏အဓိက	-11.5065
ချစ်ခင်	-11.5065
▁module	-11.5065
▁ကိုယ်စား	-11.5065
နတ်သား	-11.5066
▁ကျောင်းသူ	-11.5067
▁အောက်မေ့	-11.5068
len	-11.507
▁စားသောက်ဆိုင်	-11.5071
▁ရှည်သည်။	-11.5072
ّ	-11.5073
▁တယ်လီစကုပ်	-11.5073
▁အတိအလင်း	-11.5073
▁ပြောက်ကျား	-11.5073
▁Kyaung	-11.5074
ဇန်း	-11.5074
နိုင်ငံအဖြစ်	-11.5075
▁ဥရောပတိုက်တွင်	-11.5076
▁လှူဒါန်းခဲ့သည်။	-11.5076
▁လှပသော	-11.5076
အင်တာနက်	-11.5077
▁Metal	-11.5077
▁အလှအပ	-11.5079
▁မည်သို့မျှ	-11.5079
▁အလုပ်အမှုဆောင်	-11.5079
ခြင်းဆိုင်ရာ	-11.5081
ဝိတ်	-11.5083
ဇတ်	-11.5084
▁တံတိုင်း	-11.5084
အဖြေ	-11.5085
▁ဗောဓိပင်	-11.5085
လာပြီ	-11.5088
ပေါင်းစည်း	-11.5088
ပျား	-11.5088
ခြစ်	-11.5089
▁အယ်လ်ဘမ်	-11.5089
တွင်လည်းကောင်း	-11.5091
▁၁၇၆၅	-11.5092
ကျမ်းတွင်	-11.5092
ပညာသည်	-11.5092
ဝန်ထောက်	-11.5094
out	-11.5094
ဖွားမြင်	-11.5094
nes	-11.5096
ခဲ့ပုံ	-11.5096
▁ပြောင်းလဲခြင်း	-11.5098
ယုန်	-11.5098
ဥမင်	-11.5099
▁Africa	-11.5099
pho	-11.5099
စိတ်ဝင်စား	-11.5102
▁အဲဒါ	-11.5102
▁ပျောက်ကွယ်	-11.5103
▁၁၈၀၇	-11.5104
▁ဘာသာပြန်ဆို	-11.5104
ဝန်ထမ်းများ	-11.5104
ပြည့်ဝ	-11.5104
▁ဖွဲ့စည်းထား	-11.5105
Po	-11.5105
လှချေ။	-11.5107
တပ်ကို	-11.511
▁တည်တံ့	-11.5114
ဘုရားရှိခိုး	-11.5114
ဆောင်ရွက်ရေး	-11.5118
▁၁၆၇၂	-11.5119
▁စန္ဒာ	-11.512
▁ဝိတိုရိယ	-11.5121
og	-11.5124
▁ကျန်းမာရေးနှင့်	-11.5125
▁၁၈၄၅	-11.5125
ဆင်းတုတော်	-11.5127
ကျွန်း၏	-11.5128
▁(1	-11.5128
ay	-11.5128
▁တိုက်ခိုက်ရေး	-11.513
▁ဖြစ်ခဲ့ပြီး	-11.5131
ပါရှိသော	-11.5131
pan	-11.5131
▁ချေ။	-11.5132
=130	-11.5132
ဆင်းသက်	-11.5134
▁နေထိုင်ကြသော	-11.5134
ဒရာ	-11.5134
▁အနိုင်	-11.5135
▁သောကြောင့်	-11.5136
▁ပွားများ	-11.5137
▁ဃ	-11.5137
▁ပိုက်ဆံ	-11.5138
▁ဖောက်ပြန်	-11.5138
▁IV	-11.514
နိုဝင်ဘာ	-11.514
64	-11.5141
ပသ	-11.5142
▁၁၇၃၁	-11.5143
zi	-11.5144
▁တံငါ	-11.5145
မျိုးဖြစ်၍	-11.5145
▁တန်ဆောင်မုန်းလ	-11.5147
နမူနာ	-11.5147
လိုစိတ်	-11.5148
ကောင်ရေ	-11.5148
sang	-11.5149
=96	-11.515
ြန်မာနိုင်ငံတော်	-11.5152
နှီး	-11.5152
="212	-11.5152
tin	-11.5153
▁တရုတ်နိုင်ငံ၊	-11.5155
နေပြီဖြစ်သည်။	-11.5156
▁ပြောသည်။	-11.5156
▁အဆိုရှိသည်။	-11.5156
မရှိ။	-11.5156
ဓာတ်တော်	-11.5157
▁ရောက်သည်။	-11.5161
နိုင်လျှင်	-11.5164
▁တိရိစ္ဆာန်	-11.5166
▁ပဲခူးတိုင်း	-11.5166
="130	-11.5167
▁ထားသည်။	-11.5168
▁pre	-11.5169
သမျှသော	-11.5171
ရတော့သည်။	-11.5172
ug	-11.5173
▁ဥပဒေများ	-11.5173
▁ထုံးစံ	-11.5173
▁ဟားခါးခရိုင်	-11.5174
▁16	-11.5174
ဂမ်	-11.5174
ရှိသူများ	-11.5175
;1	-11.5175
▁နှစ်သား	-11.5178
သင်္ချိုင်း	-11.5178
▁စစ်သည်	-11.5178
▁အသိအမှတ်	-11.518
▁ချော်	-11.5183
▁အသုံးပြုထားသည်။	-11.5183
▁တပ်မြို့	-11.5186
နိပါတ်	-11.5186
▁အကောက်	-11.5187
▁ဂေါတမ	-11.5188
▁ဖြာထွက်	-11.5188
နောက်တွင်	-11.5189
▁ပေးသည်။	-11.5189
▁နောက်ဆုံး၌	-11.5189
▁ဘားမား	-11.5189
▁တန်ဆောင်း	-11.5191
ညွှတ်	-11.5191
▁language	-11.5191
▁နဂါးငွေ့တန်း	-11.5191
အရာ၌	-11.5191
ချူပ်	-11.5193
စေခြင်းဖြင့်	-11.5193
▁music	-11.5193
▁တပည့်တော်	-11.5194
ပြုလုပ်ခဲ့သည်။	-11.5194
ညီညွတ်ရေး	-11.5194
▁Tar	-11.5197
▁ရှိနေသည်။	-11.5198
▁အသုံးအဆောင်	-11.5198
▁ဤကား	-11.5198
▁ဗားရှင်း	-11.5199
▁၂၁၅၉	-11.5199
သို့ပြောင်းရွှေ့	-11.5199
▁တပေါင်းလ	-11.5201
▁အစုံ	-11.5203
ဘယ	-11.5203
▁Br	-11.5204
▁ပုံနှိပ်တိုက်	-11.5207
နေရသော	-11.521
▁အိန္ဒိယနှင့်	-11.521
▁၁၇၀၅	-11.521
မှူးအဖြစ်	-11.521
▁မှော်ဘီ	-11.5211
တခုခု	-11.5211
▁ရေးဖွဲ့	-11.5212
ဂုဏ်ထူး	-11.5213
ပြည်ကို	-11.5213
များအားလုံး	-11.5214
▁ဇာတ်ညွှန်း	-11.5214
အောက်၌	-11.5217
▁ရွာသွန်း	-11.5218
▁၁၆၈၈	-11.5218
▁ဖောင်း	-11.522
ခုတွင်	-11.5222
ဆိုလို	-11.5222
▁တည်ဆောက်မှု	-11.5222
ခေါ်ယူ	-11.5223
▁သဘောတူညီမှု	-11.5224
နာယက	-11.5224
အရက်	-11.5224
ကျန့်	-11.5227
တဲ့၊	-11.5228
▁အလ္လာဟ်	-11.5231
▁ကုမ္ပဏီ၏	-11.5231
နှင့်အခြား	-11.5233
▁ဘွဲ့အမည်	-11.5234
▁other	-11.5235
▁အတုယူ	-11.5236
▁သုတေသီ	-11.5236
နျ	-11.5237
RC	-11.5237
▁သီချင်းကို	-11.5237
Sa	-11.5238
ပန္န	-11.5238
▁မော်စကိုမြို့	-11.524
▁မိုးရေ	-11.524
မြတ်သော	-11.524
▁ပေးရန်	-11.5242
အုပ်ချုပ်ခဲ့သည်။	-11.5243
ဘဝသို့	-11.5244
အရေးပါ	-11.5245
ချိုင့်ဝှမ်း	-11.5246
တမံ	-11.5249
▁လက်ထပ်ခဲ့သည်။	-11.5249
ဎ	-11.5251
▁first	-11.5251
▁လျော့ချ	-11.5251
တတ်၍	-11.5252
ကလောင်ဖာမြို့နယ်	-11.5252
အိမ်ထောင်	-11.5253
▁ရေးသားထားသည်။	-11.5254
ဖြူး	-11.5257
▁အသံကို	-11.526
လျက်ရှိပါသည်။	-11.526
▁ကောင်းမွန်သော	-11.526
ဂေ	-11.5261
▁ဝတ်ပြု	-11.5263
တပ်သား	-11.5263
တစ်ဦးနှင့်	-11.5263
အပြား	-11.5263
▁မြင့်သည်။	-11.5263
▁အာဏာရ	-11.5266
▁ကထိက	-11.5266
▁ဝေါဟာရကို	-11.5266
▁UTC	-11.5269
▁ခူး	-11.5269
▁ပျက်ပြား	-11.527
▁ကိစ္စရပ်များ	-11.5271
▁မအူပင်	-11.5275
ရို့	-11.5275
▁ကရင်နီ	-11.5275
bit	-11.5276
▁တစ်မြို့	-11.5277
ရေးမှူး	-11.5277
နှစ်ကြာ	-11.5278
▁စူပါ	-11.5279
▁လိုအပ်ချက်	-11.528
အမြဲ	-11.5282
▁ဝိညာဉ်	-11.5282
▁မြန်မာအစိုးရ	-11.5282
▁ရွှေပြည်	-11.5283
▁ဟုဆို	-11.5284
လက်ထက်က	-11.5287
▁သံဃ	-11.529
အကြောင်းရင်း	-11.5292
cho	-11.5293
▁၁၆၉၂	-11.5294
eng	-11.5295
▁ကန်၏	-11.5295
မြိတ်	-11.5296
▁ရွာသာယာ	-11.5297
▁ခြုံ	-11.5297
ပေ၊	-11.5297
ပုံရွာ	-11.5299
ရုတ်	-11.5299
▁ချွေး	-11.5299
ဝတ္ထုများ	-11.5299
လျှ	-11.5299
▁သံဃာတော်	-11.53
တီးဝိုင်းများသည်	-11.5301
▁လေးမျက်နှာ	-11.5302
▁သံဖြူ	-11.5303
မှအစ	-11.5304
သူတို့အား	-11.5304
▁လေးခု	-11.5304
▁သည်းခြေ	-11.5304
▁ကွာရှင်း	-11.5305
▁အိမ်ထောင်ကျ	-11.5305
သလင်း	-11.5306
▁ကြိုက်	-11.5306
▁ကက်သလစ်	-11.5306
အင်္ဂလိပ်လူမျိုး	-11.5308
အသုံးပြုခြင်း	-11.5309
ကြားမှ	-11.531
▁ကိုးကွယ်ယုံကြည်	-11.5311
▁ဆေးလိပ်	-11.5311
▁Pyay	-11.5312
ကလူ	-11.5313
မင်းသားသည်	-11.5313
လေးကျေးရွာအုပ်စု	-11.5316
▁ချွတ်	-11.5318
▁အညိုရောင်	-11.5318
ရှိတဲ့	-11.5318
▁ဂရု	-11.532
ခဲ့ကြသည်	-11.5321
နိသျ၊	-11.5321
အဖြစ်အပျက်	-11.5321
ကိုင်တွယ်	-11.5321
▁မရိုး	-11.5324
▁တောတောင်	-11.5324
▁၂၀၂၉	-11.5325
▁ပေါ်ထွက်	-11.5326
ကျင်းပခဲ့သည်။	-11.5326
လျက်ရှိကြသည်။	-11.5326
▁နှော	-11.5327
ဖြစ်ပါတယ်	-11.5327
ွမ်း	-11.5328
တို့တွင်လည်း	-11.5328
မင်းခေါင်	-11.5329
▁ဇင်	-11.5329
▁လွင်ပြင်	-11.533
တစ်စုံ	-11.5331
▁ထွန်းကားခဲ့သည်။	-11.5331
▁စီမံခန့်ခွဲရေး	-11.5331
▁ဘုရင်၏	-11.5332
ins	-11.5332
▁ပြည်ပြေး	-11.5334
ခန္ဓာကိုယ်	-11.5334
▁ဒိ	-11.5334
သမာဓိ	-11.5334
▁ဤသည်မှာ	-11.5334
▁၂၁၀၁	-11.5335
▁k	-11.5336
▁ပြုလုပ်သည်။	-11.5336
ဗွန်	-11.5336
ဖွင့်ဆိုချက်	-11.5337
▁ပေါ်ထွန်းလာ	-11.5338
▁လွတ်လပ်မှု	-11.534
▁၁၈၁၄	-11.5341
ချိတ်ဆက်	-11.5342
တံခွန်	-11.5344
လက်အောက်ရှိ	-11.5346
▁Paung	-11.5346
ခုနှစ်အထိ	-11.5348
ရိုသေ	-11.5351
ငှက်မျိုး	-11.5351
အလား	-11.5352
▁မွန်တို့	-11.5352
▁ယူနိုက်တက်ကင်းဒ	-11.5353
မ္ဘ	-11.5354
ပိုင်းကို	-11.5355
ဖတ်ရှု	-11.5355
တပ်ပေါင်းစု	-11.5356
▁ရရှိနိုင်သည်။	-11.5356
စော်	-11.5356
▁ဗိုလ်ကြီး	-11.5356
▁ယူဆောင်လာ	-11.5357
▁ပျက်ကွက်	-11.5358
လွှ	-11.5361
နယ်၏	-11.5362
မြစ်၊	-11.5363
မြန်မာပြည်	-11.5363
▁၁၇၀၀	-11.5363
သင်ကြားပေး	-11.5363
=212	-11.5364
▁15	-11.5369
▁မဲပေး	-11.5369
▁who	-11.5372
အသုံးပြုကြသည်။	-11.5373
တာဝန်ခံ	-11.5373
▁ကျည်	-11.5373
▁အတို	-11.5374
▁၁၉၈ဝ	-11.5374
▁အဖေ	-11.5377
IT	-11.5377
▁အလွန်တရာ	-11.5378
ချိန်း	-11.5379
▁၁၇၉၆	-11.538
▁ဒေတာများ	-11.5381
▁dis	-11.5383
▁ပြုလုပ်ထားသည်။	-11.5385
ဟူ၍လည်းကောင်း	-11.5385
စေရ	-11.5385
ိပ်	-11.5388
▁ဂရမ်	-11.539
▁အကြီးဆုံးသော	-11.5392
ev	-11.5393
▁အပြစ်ပေး	-11.5396
အများစုကို	-11.5396
သိပ်သည်း	-11.5396
ကန့်သတ်	-11.5396
▁စော်ဘွားကြီး	-11.5398
သော်၎င်း	-11.5398
▁၁၇၅၇	-11.5399
▁Can	-11.54
ted	-11.54
▁များပြားလာ	-11.54
ရှေ့နေ	-11.54
▁ဦးဆောင်မှု	-11.54
▁လမု	-11.54
လိမ္မာ	-11.5404
lay	-11.5405
ပြောပြ	-11.5406
သာယာကုန်းရွာ	-11.5408
ဖြစ်တယ်။	-11.541
▁မြောင်	-11.541
ဆယ်ပါး	-11.541
လုပ်ခြင်း	-11.5411
သင်တန်းများ	-11.5413
▁သိုးမွေး	-11.5414
မုံရွာ	-11.5415
ကြသူ	-11.5415
▁စွန့်စား	-11.5416
ပေါ်ထွက်လာ	-11.5416
▁အဓိ	-11.5416
ဖွံ့ဖြိုးမှု	-11.5416
▁စတာလင်	-11.5416
off	-11.5417
ဂေါင်	-11.5417
▁စောင့်ထိန်း	-11.5418
စံချိန်	-11.5421
ရောက်မှ	-11.5421
ကြခြင်းဖြစ်သည်။	-11.5422
▁ချီးမြှောက်	-11.5422
=142	-11.5422
နှစ်အကြာ	-11.5422
▁ကျောက်စိမ်း	-11.5423
▁ဘုရားကြီးကုန်း	-11.5423
▁သိက္ခာပုဒ်	-11.5424
ဒေသများ၌	-11.5425
▁ဆင်သေ	-11.5425
▁အထောက်အကူ	-11.5426
ကြသောအခါ	-11.5427
▁ကိုယ်စားပြုသည်။	-11.5428
▁နီပေါနိုင်ငံ	-11.5429
▁out	-11.543
ကညင်	-11.5432
▁ဗိုလ်သက်ထွန်း	-11.5432
▁ကင်းဝန်မင်းကြီး	-11.5433
▁စံပယ်	-11.5434
▁၁၈၃၅	-11.5434
စိုးရိမ်	-11.5434
လုံးကြီး	-11.5435
ရေးသားသော	-11.5435
ခြင်းဟု	-11.5435
များထံ	-11.5436
ပါကြောင်း	-11.5436
မိဘူတာ	-11.5436
▁၁၉၃ဝ	-11.5437
အရှိန်	-11.5437
▁ဆေးကြော	-11.5438
ခါဝါ	-11.5439
ပြုလုပ်သော	-11.5439
▁နို့တိုက်သတ္တဝါ	-11.5441
ကွပ်ကဲ	-11.5443
အစွမ်း	-11.5445
သည်ဖြစ်၍	-11.5445
ြောက်အမေရိကတိုက်	-11.5445
▁မီးသတ်	-11.5446
▁စာသားများ	-11.5446
ဥပဒေအရ	-11.5447
▁၁၇၈၃	-11.5447
▁တခါ	-11.5448
▁ပြုလုပ်၍	-11.5448
▁သာသန	-11.5448
နှယ်	-11.5449
▁Wi	-11.545
ဂျုံ	-11.545
▁တနေ့	-11.545
▁ပေါင်မြို့နယ်၊	-11.5452
လွတ်လပ်	-11.5453
▁တစ်ဦးတစ်ယောက်	-11.5454
▁မဟာဗောဓိ	-11.5454
နေအောင်	-11.5454
ဘွန်	-11.5454
▁အညို	-11.5454
သီးနှံ	-11.5455
ဏှ	-11.5455
ပေးထားသော	-11.5455
▁ကမ်	-11.5458
▁စီးဝင်သည်။	-11.5458
▁မြှုပ်နှံ	-11.5459
▁သုတေသနလုပ်ငန်း	-11.5459
အဆောက်အအုံများ	-11.546
ဖြစ်ရကား	-11.546
▁ဒါန	-11.5461
="142	-11.5462
ius	-11.5462
များသာမက	-11.5462
▁သို	-11.5462
[...]
