<unk>
<s>
</s>
▁
၊
="
doc
>
▁<
)
▁(
သည်
"
d
/
တွင်
ကို
?
curi
▁title
url
▁id
ရွာ၊
နှင့်
▁ဖြစ်သည်။
၌
ကျေးရွာအုပ်စု
.
▁ဦး၊
၏
▁မ
▁တည်ရှိသည်။
က
▁ရွာနေရာကုတ်မှာ
မြို့နယ်
မှ
များ
▁သ
သော
ရွာ
▁()
မှာ
-
▁၂၀၁၄
န်းခေါင်စာရင်းအရ
▁ကျား
▁လူဦးရေ
▁စုစုပေါင်း
ကြီး
၍
▁ဦးနေထိုင်သည်။
(
များကို
သည်။
ခဲ့သည်။
;
မြို့နယ်၊
ပြီး
▁နှင့်
အား
&
▁သည်
မ
သို့
သည့်
၁
ကာ
▁ထို
။
ခြင်း
ရန်
ဖြင့်
▁အ
ရှိ
,
▁ရှမ်းပြည်နယ်
လည်း
တိုင်းဒေသကြီး၊
ဖြစ်သည်။
▁ခုနှစ်
▁ဦး
▁ခုနှစ်တွင်
lt
အ
ရာ
gt
▁"
တောင်
ပင်
အဖြစ်
▁MMR
ဟု
တို့
မြောက်
▁ကို
သာ
s
▁-
▁တွင်
ရ
၂
မှု
ပါ
ရေး
▁က
အရှေ့
အတွက်
▁ရက်။
()
တ
ဝ
သူ
တော်
▁ဤ
များသည်
မြို့
ကြသည်။
လာ
▁ရှိသည်။
တို့ကို
▁သို့မဟုတ်
▁&
အောင်
▁အခြား
စ
များနှင့်
များတွင်
'
▁စစ်ကိုင်း
တို့သည်
▁မြန်မာနိုင်ငံ
ကုန်းရွာ၊
၃
ခရိုင်၊
တို့၏
▁မြန်မာ
၏။
▁ဟု
ခြင်း၊
တာ
ဦး
လ
▁မန္တလေး
▁ယင်း
လျှင်
▁the
လေသည်။
”
ပုံ
ခဲ့ပြီး
▁၂
ခ
ကား
နေ
▁မှ
;/
ပေါင်း
လေး
▁ရေ
▁ပဲခူးတိုင်းဒေသ
▁သို့သော်
▁“
အနောက်
▁အဖြစ်
▁၏
▁၁
▁ရက်နေ့တွင်
သား
▁နှစ်
ဖြစ်သော
၄
စွာ
မင်း
သ
▁တ
များ၊
▁နေထိုင်သည်။
နီ
ခဲ့ကြသည်။
ကုန်း
▁of
▁၃
သဖြင့်
ချောင်း
အတွင်း
ဆိုင်ရာ
တစ်ခု
▁အမေရိကန်
▁လူ
ကြောင့်
id
▁'
၅
ထက်
ပ
နိုင်သည်။
နိုင်
များမှာ
ဖြစ်
ရေ
လျက်
▁မကွေး
ထားသော
▁သည်။
▁ခုနှစ်၊
▁Ward
နာ
ဖြစ်ပြီး
း
▁၄
▁သူ၏
မျိုး
ကြောင်း
တဲ့
နိုင်ငံ
▁ကျိုင်းတုံ
စီ
▁ရှိ
တိုင်း
ရှိသည်။
နှစ်
ခေါ်
ရသည်။
အထိ
▁စတင်
ပြီးနောက်
▁ရွှေ
ကောင်း
ခဲ့သော
ကန်
ရင်း
တင်
တစ်
▁နိုင်ငံ
တန်း
အရ
▁အမှတ်
▁။
▁၅
စ်
များ၏
ရာတွင်
လေ
သွား
▁ရက်
သစ်
သုံး
ထား
▁တောင်
နဲ့
မူ
ကျွန်း
▁အဓိက
ပေး
တွေ
ပေါက်
▁အသက်
စာ
▁ပြန်လည်
နေသော
▁ဒုတိယ
ထားသည်။
▁သော
စား
န
▁Town
လိုက်
လ်
ဟာ
ကျော်
:
လို
ဝါ
2
တိုက်
မာ
့
ခံ
တော
ဝင်
သော်လည်း
ကိုလည်း
▁ဖြစ်
ဂ
၆
▁အမျိုးသား
လုံး
3
တို
▁အလွန်
ဘဲ
▁၆
လီ
လက်
ကျောင်း
ရှင်
▁၎င်း
၇
ကျ
ခဲ့
ဟူ၍
▁−
▁မင်း
▁ထို့နောက်
▁တည်ရှိသည့်
▁and
ရီ
1
▁ခု
▁တစ်
အားဖြင့်
သည်ဟု
ကလေး
သောအခါ
ရှိသော
▁ဤရွာ
4
▁လက်
မိ
ကြ
ဖြစ်၍
လူ
▁လ
ချက်
▁၇
▁ပထမဆုံး
▁အတွက်
များက
ရက်
▁စီးပွားရေး
မြို့တွင်
ပန်း
ခဲ့လေသည်။
▁ကျောက်
ပြင်
မီ
▁အိမ်
t
▁၁၀
စု
ရွှေ
▁အစိုးရ
ငယ်
▁ပထမ
များဖြင့်
▁ဂျပန်နိုင်ငံ၊
တက်
ချင်း
တို့တွင်
စုရွာ၊
▁စစ်
▁၁၅
ခြင်းကို
▁ထို့ကြောင့်
တော့
တပ်
ဒ
e
▁နောက်
ပြန်
ပြီးလျှင်
▁နိုင်ငံရေး
မျှ
ကွင်း
▁စ
▁ပေ
▁ထိုသို့
စစ်
ကဲ့သို့
▁ရ
တိုင်
၈
▁ရေး
ဆင်
▁အထိ
နယ်
▁သူသည်
ဒီ
▁ရန်ကုန်
ဘ
▁ရပ်ကွက်
အောက်
y
▁ပါဝင်
▁ပ
ပဲ
▁မိမိ
စဉ်
ဆုံး
ဖြူ
နည်း
▁တိမ်ကောသွားပြီ
တန်
▁ငါး
▁ပြည်ထောင်စု
ယူ
လူဦးရေစုစုပေါင်း
များအား
▁၁၂
▁နေ
ရင်
▁တို့
▁ကျော်
လှ
▁ကချင်ပြည်နယ်၊
မှုကို
▁ဆောင်ရွက်
▁ဝ
လမ်း
▁မြေ
▁၁၄
▁ခေါ်
ဆို
ထားသည့်
မြေ
ခွဲ
▁အသုံးပြု
စေ
ထွက်
သံ
ရိုး
ရပ်ကွက်
၁၈
▁၈
▁=
▁တရုတ်
▁နေရာ
▁အင်္ဂလိပ်
▁၃၀
ဒါ
▁နောင်
▁မတ်လ
ယ
ပေါ်
▁ဘူတာတစ်ခု
▁ဖြစ်ပြီး
5
▁၂၅
ယာ
ပါသည်။
မှုများ
ဆောင်
▁အား
ခန့်
ခဲ့သည့်
ချောင်းရွာ
▁ဆရာ
နား
▁ကျောင်း
▁၂၄
တီ
အဖွဲ့
ချ
▁တက္ကသိုလ်
၁၂
ပေ
▁အဲခိ
6
▁သုံး
▁ကိုယ်ပိုင်
▁A
၁၉
▁စာ
တို့က
▁နိုင်ငံတော်
▁ပြုလုပ်
ပိုင်း
သောကြောင့်
သော်
▁ပါ
တူ
▁စိတ်
▁ဘုရား
▁၉
ဘုရား
▁အာ
လုပ်
၉
▁ပန်
ဒေသ
▁၁၁
▁ပါဝင်သည်။
▁သို့
ပြ
ဆာ
များမှ
ခဲ့ရာ
8
စေရန်
ရဲ့
▁အချို့
in
ရပ်
▁အထူး
ဆန်
▁ဆက်လက်
▁ဆင်
▁မဟာ
လုပ်ငန်း
▁The
ရာ၌
▁ကောင်း
ဆေး
ပေါ်တွင်
0
ဘာ
▁အတွင်း
ပြု
ပွဲ
▁ကမ္ဘာ့
▁၂၂
▁မိုင်
လို့
၁၀
▁in
အို
ခေတ်
သည်လည်း
▁ဝင်ရောက်
ing
▁S
▁")
တတ်
▁၂၃
▁များ
▁၁၆
စိတ်
▁No
ဆ
▁သူ
ဟောင်း
駅
▁၂၇
▁မောင်
ဆီ
7
နိုင်သော
ခုနှစ်တွင်
▁နား
▁၂၆
ကုန်
)"
▁ခန့်
ဇ
ကျောက်
၁၁
’
ဟန်
သိ
▁မေလ
နေရာ
ချိန်
▁လေ
ထုတ်
မြင့်
▁ရေးသား
ဆက်
▁ထိုအခါ
▁အရှင်
▁မြို့
လဲ
▁ငွေ
ထ
သီး
▁ရုပ်ရှင်
▁သူ့
မည့်
မြစ်
ခုနှစ်
▁to
9
ဖို့
▁တနင်္သာရီ
al
▁ဂျပန်
▁ဒီ
များအတွက်
▁နမ့်
မန်
▁ကရင်ပြည်နယ်
ကြား
▁သမိုင်း
o
ချုပ်ခွင့်ရဒေသ
၁၅
ဖ
ဖြစ်သည့်
▁အောက်
ပညာ
▁တစ်ခု
ခဲ့ရသည်။
နှင့်အတူ
လောက်
လင်း
ရည်
ရသော
▁သို့ရာတွင်
နိုင်ရန်
▁သံ
n
အတိုင်း
▁ပညာ
▁ရှင်
ခဲ့၏။
▁လုပ်ငန်း
▁အခြေခံ
ခင်
လူမျိုး
▁ရက်တွင်
ငွေ
▁ဧပြီလ
ထိ
▁နတ်
▁စာပေ
▁ကိုယ်ပိုင်အုပ်
န်
▁ရောက်
▁ပန်း
မည်
သေ
▁ဖွဲ့စည်း
▁a
ဘူတာ
▁မိုး
မီး
ပန်
ပိုင်
အနေဖြင့်
▁မိုင်းပျဉ်း
▁အဆိုပါ
တွင်း
er
x
ဟူသော
ရစ်
▁ဗြိတိသျှ
၁၄
သူများ
▁၂၈
အပေါ်
၁၃
▁ဇွန်လ
၂၀
စက်
လုံ
ပါက
လျက်ရှိသည်။
52"
၁၇
53"
▁၂၀
▁ဖြစ်၏။
▁မန်
S
ဝန်
မောင်
▁ပိုမို
51"
61"
54"
စနစ်
▁မီး
72"
63"
62"
နို
နန်း
ခွင့်
%
ထိုး
၁၆
▁၁၃
▁သန်း
87"
▁ဩဂုတ်လ
48"
နောင်
▁ယခုအခါ
77"
69"
03"
55"
42"
94"
85"
46"
16"
83"
ထဲတွင်
73"
▁ဟူ၍
59"
93"
37"
71"
04"
67"
99"
74"
13"
86"
19"
89"
ခြင်းနှင့်
12"
44"
88"
64"
43"
28"
10"
ရောက်
79"
36"
33"
68"
09"
95"
78"
ဖြစ်၏။
58"
29"
66"
အိုင်
15"
82"
50"
65"
ခဲ့ပါသည်။
45"
▁ဆေး
97"
14"
07"
17"
ဆု
24"
40"
91"
30"
31"
r
ဟ
T
မြန်မာ
57"
84"
47"
11"
27"
i
တည်း
အကြောင်း
80"
08"
75"
41"
76"
60"
81"
49"
39"
21"
ပြည်နယ်
ed
32"
23"
▁စသည့်
02"
96"
▁တော်
18"
ခု
35"
01"
▁C
br
▁လွိုင်လင်ခရိုင်
ဇာ
25"
▁ဤသို့
92"
▁ယဉ်ကျေးမှု
34"
90"
▁ယခု
နတ်
70"
ပစ်
စေသည်။
▁ဇန်နဝါရီလ
ကုန်းရွာ
38"
▁အိန္ဒိယ
20"
06"
ဆိုင်
အင်း
▁သာယာဝတီခရိုင်
▁လေး
▁လုပ်
22"
ဆရာတော်
▁ဝမ်
05"
98"
များစွာ
ဝင်း
▁ဆို
▁ဟူသော
▁၁၈
▁မြန်မာ့
မိုး
▁အောင်
▁သမ္မတ
ခန်း
56"
▁ဥပဒေ
▁သား
ပါ။
လာသည်။
၀၀၀
▁တိုက်ခိုက်
▁သွား
လေ့
26"
▁ထို့ပြင်
နောက်
ပြည်
▁များစွာ
ဘုရင်
ရဲ
▁တော
အုပ်ချုပ်ခွင့်ရ
်
▁H
▁ပြန်
ရန်အတွက်
တို့မှ
▁ပြောင်းလဲ
သန်း
စီး
ခြင်းဖြင့်
ထို
စကား
လေ့ရှိသည်။
00"
▁အကြောင်း
▁အထက်
▁၂၉
▁ဇူလိုင်လ
▁အောက်တိုဘာလ
▁B
ရို
နက်
c
ကျမ်း
▁ဒေသ
တရား
လယ်
▁ပြု
ဗ
အိမ်
▁ဖြစ်ကြသည်။
▁စက်တင်ဘာလ
▁၎င်း၏
▁ဒေါ်
ရမည်။
ကင်း
▁ဒီဇင်ဘာလ
▁လည်းကောင်း၊
ကူး
▁င
▁သိ
ဘက်
ပုံစံ
ပါး
ရှာ
ဒ်
▁မည်သည့်
▁စသော
များကိုလည်း
▁အချိန်
▁ပြည်နယ်
▁‘
▁တရား
ပတ်
▁ဘ
ရောင်
ချီ
အထက်
ခဲ
▁ကိုယ်
စံ
ရော
ဥ
▁နိုဝင်ဘာလ
B
▁ဖြင့်
ဝမ်
ဆရာ
▁သက္ကရာဇ်
အာ
နိုင်ခဲ့သည်။
တို့မှာ
▁ရှမ်း
▁သွေး
မွန်
▁အမျိုးသမီး
၃၀
တိုင်း၊
▁စိုက်ပျိုး
ရှည်
သုတ်
▁ကန်
▁စကား
▁နောက်ဆုံး
လွယ်
တွင်လည်း
A
တို့နှင့်
▁အင်
တိုး
▁၁၉
ပါတယ်။
▁ရောဂါ
ငါး
▁အထူးသဖြင့်
a
လိုက်သည်။
▁မာ
▁တွေ့ရသည်။
ဘာသာစကား
▁ခ
င
▁ပို၍
နေသည်။
တို့ဖြင့်
▁လားရှိုးခရိုင်
တက္ကသိုလ်
▁စာအုပ်
▁ဆိုသည်။
▁ကွတ်ခိုင်
▁Ma
ဘီ
▁ဆ
လောင်း
▁၃၁
၂၄
▁ဂီတ
မဲ
၂၅
▁ကလေး
မှုကြောင့်
▁လေ့လာ
▁သတ်မှတ်
အုပ်
အထူးဒေသ
▁ဆိုသည်မှာ
ပို
▁လမ်း
တစ်ဦး
ခဲ့သော်လည်း
▁မြင်း
ကောင်
▁နိုင်ငံတကာ
ထောင်
▁ဗိုလ်
ာ
ပြား
▁ပြည်သူ့
▁အမည်
▁၁ဝ
ပစ္စည်း
▁ယူ
ဝေ
▁တိုက်
▁၁၇
သည့်အခါ
အိုး
ဖက်
▁အသံ
မ်
အပြင်
▁တပ်မတော်
ရုံ
C
ကပ်
▁M
ံ
နေ့
▁ပြော
ကွဲ
ကြ၏။
မှစ၍
▁အခြားသော
တို့အား
ချင်
▁တာ
▁ခေါင်းဆောင်
မိုင်
P
ချုပ်
▁မူလ
ဂါ
▁ဘုရင်
▁အနောက်
မဲ့
▁ပြင်သစ်
တတ်သည်။
များလည်း
▁ရာခိုင်နှုန်း
▁ပေါက်
အေး
နေသည့်
▁သခင်
လင်
ကံ
g
ဖူး
လွန်
▁ဥ
▁ဗိုလ်ချုပ်
တ်
နု
ခေါင်း
စရာ
ကလည်း
▁ဘဝ
▁ဖော်ပြ
ကာလ
▁ရန်ကုန်မြို့
ဓာတ်
▁နန်း
မယ်
▁ကျန်
အစိုးရ
▁တရားဝင်
▁မြောက်
ခို
▁ကမ္ဘာ
ဘဝ
▁ယောက်
▁လုပ်ကိုင်
▁န
ကြည့်
ရုံး
မှာလည်း
E
▁K
▁ပညာရေး
▁ရှေး
ဝါး
▁ဒေါက်တာ
ကြလေသည်။
▁မျိုး
ရောဂါ
၂၃
▁သစ်
▁အရ
▁မိုင်းမော
▁အများဆုံး
ပူ
▁ဥက္ကဋ္ဌ
▁သဘာဝ
ထံ
▁ဝါ
▁အဖွဲ့ဝင်
▁NGC
▁နေထိုင်
ပီ
▁ဟို
တော်မူ
▁ကိုးကား
▁စက်
▁မိမိတို့
ဆောင်ရွက်
▁ကျောင်းသား
ပြည်ထောင်စု
လာခဲ့သည်။
လန်
▁ရရှိ
ဘာသာ
▁D
ငှက်
၂၆
ည
တည်
▁ပြည်
▁လည်း
ခရိုင်
▁ပေး
က်
▁ပြည့်နှစ်
▁ကရင်
၄၀
ဖြစ်စေ
၂၁
▁ပါတီ
နိုင်သည့်
▁အလုပ်
ရှိပြီး
▁မြစ်ကြီးနား
တိ
▁ဥရောပ
▁ပင်လယ်
တန့်ယန်းမြို့နယ်
▁တော်လှန်ရေး
စိန်
ဌာန
▁အင်း
▁ဆောင်
▁၃၅
▁P
▁မိုင်းဆတ်
ကြာ
တွဲ
▁တပ်
ပါတီ
▁ရွေးချယ်
ရိ
▁လာ
▁အဖွဲ့
ကောက်
မော်
|
▁သူတို့
ဘွဲ့
၂၈
▁လက်ရှိ
သတ်
▁အုပ်ချုပ်ရေး
တီး
▁ခေါ်သည်။
တံ
၂၉
▁ဆာ
h
ns
▁မဲ
▁ပင်လောင်း
▁မော်လမြိုင်
မေ
အသင်း
▁ဗဟို
ပြော
သင်
▁အို
၀
စပ်
▁ရရှိခဲ့သည်။
အမည်
▁၂၁
▁F
▁၂၀၁၀
၂၇
L
ညို
ခါ
သကဲ့သို့
စာပေ
ဆိုသည်မှာ
အပြည်ပြည်ဆိုင်ရာ
ခဲ့ခြင်း
ဝိုင်း
▁ပဲခူးခရိုင်
ရေးသား
ဆင်း
▁ကုန်း
အဆင့်
▁တက်
ဂျီ
▁တောင်ငူခရိုင်၊
▁ချင်းပြည်နယ်၊
လည်းကောင်း၊
▁ဂ
တောင်း
▁ကျန်းမာရေး
▁သီပေါမြို့နယ်
▁ပုံ
▁ဝက်
လည်
▁များကို
▁E
▁ထည့်သွင်း
▁ပေါင်း
ဆန်း
၂၂
ဖြစ်သူ
▁ပအိုဝ်း
▁အဆင့်
စင်
▁လေသည်။
အင်
ရွက်
တောရွာ
▁စား
▁အောင်မြင်
K
▁ပါဝင်သော
▁တို့ကို
ထားပြီး
သက်
▁ထို့အပြင်
ဘူး
▁ဝါး
တောင်ကြီးခရိုင်၊
▁တည်
▁ပြည်တွင်း
▁ကွန်ပျူတာ
င်
▁အပင်
▁အမျိုးအစား
▁ဝင်
▁ရှိပြီး
▁ကာ
ဖွယ်
▁ဖြစ်လေသည်။
အမှတ်
▁ကျွန်း
▁အခါ
ထွန်း
▁ခုနှစ်မှ
▁လက်ခံ
သင့်
▁အမျိုးမျိုး
ပျက်
မြို့၊
m
များ၌
ပြည်ခရိုင်၊
ဆွဲ
▁တင်
▁မြစ်
ဒို
ရှိသည့်
ပြုလုပ်
နိ
▁သတင်းစာ
စော
▁မြို့တော်
▁ညောင်ရွှေ
▁ဗုဒ္ဓဘာသာ
လစ်
▁ဖြစ်သော
ကူ
ပိုး
or
ဖာ
ကိုယ်
▁ဆရာတော်
▁သတင်း
▁metal
▁အခန်း
တွေကို
အနက်
ခြောက်
▁ကျ
တစ်မျိုး
▁ထင်ရှားသော
▁တတိယ
ခင်း
ဖျား
▁၃၂
▁ပန်ဆန်း
မှူး
ဆိပ်
မြတ်
▁သမိုင်းကြောင်း
▁လွယ်
ကိုသာ
▁ကျောက်မဲခရိုင်
ကော်
▁ခု၊
ပု
သမိုင်း
သီ
ထဲသို့
▁ရာစု
▁နောက်ပိုင်းတွင်
စေခဲ့သည်။
D
▁အောက်ပါအတိုင်း
▁သွားရောက်
မို
p
▁ရခိုင်
it
စုံ
▁ထွက်
k
▁သေ
time
▁အပါအဝင်
▁အိန္ဒိယနိုင်ငံ
▁၂၀၁၅
ခြင်းသည်
ဗာ
▁အရှေ့
ဝယ်
▁တာဝန်
▁မွန်
ခြင်းဖြစ်သည်။
ပ်
၅၀
▁လည်းကောင်း
▁ဘာ
ရသည့်
▁နာရီ
▁မှတ်တမ်း
H
ရုပ်
▁အချို့သော
စေတီ
ေ
ရိုက်
လား
ဆိုး
▁ဆီ
▁ဘာသာစကား
၄၅
▁ဝန်ကြီးချုပ်
▁တိုင်းပြည်
M
ဖြစ်စေ၊
စတင်
ဝါဒ
▁တိုင်းရင်းသား
▁မွန်ပြည်နယ်၊
▁တိုးတက်
▁ရက်နေ့
▁ပူးပေါင်း
▁ဖြစ်ပါသည်။
G
ခေါင်းဆောင်
▁၅၀
လည်းကောင်း
လတ်
▁ဘီစီ
လားရှိုးမြို့နယ်
ပါဝင်
ထားခြင်း
▁ထပ်မံ
ရာမှ
▁၎င်းသည်
▁မေ
▁ဘားအံမြို့နယ်
▁သင်္ဘော
တယ်
▁၂၀၁၆
နေစဉ်
▁သီချင်း
▁နှစ်ပေါင်း
ရက်နေ့တွင်
ကြိုး
အပ်
မြင်
▁အနုပညာ
F
မတ်
▁အင်တာနက်
ကိုင်
▁ရှေးဟောင်း
မရှိ
▁ယခင်
▁စော
ခြင်းကြောင့်
U
▁ကံ
▁သာ
th
တို့၌
▁ဆန်
ဖတ်
ရေးအတွက်
ရုပ်ရှင်
ရ်
လော
▁ငှက်
တုံး
ပြည့်
မှန်
▁ခေါင်း
=
▁ဆက်
ကြီးကို
၃၃
တစ်ခုကို
▁ဗုဒ္ဓ
▁ကိုယ်စားလှယ်
ပန်ခမ်း
▁ပုံစံ
▁အက်
▁ထိုကြောင့်
▁အိမ်ခြေပေါင်း
သမား
▁အုပ်ချုပ်
▁သူတို့၏
တယ်။
▁ကွန်
▁တည်ဆောက်
▁ပစ္စည်း
format
နမ့်
၃၆
▁၃၃
▁သို့သော်လည်း
▁၄၀
ပေသည်။
▁မင်းသား
အလယ်
▁မြင်
သွားသည်။
ယား
▁တောင်ကြီး
▁ထောင်
▁သရုပ်ဆောင်
မြ
▁အလယ်
▁လိုက်
▁အနည်းငယ်
အမျိုးသား
▁မီတာ
ပေးခဲ့သည်။
▁ကြာ
▁သားတော်
▁ပြောဆို
စခန်း
text
▁၁။
၉၉
ပွင့်
▁ထိုနောက်
▁ခေတ်
▁၂၀၁၁
▁တာဝန်ထမ်းဆောင်
▁အောက်ပါ
စိုး
ီ
တွေ့
▁အာရှ
ခုံ
ရှိ၍
▁ရဟန်း
▁ချောင်း
▁အကြီးဆုံး
ဟို
ဆဲ
၈၅
▁လွတ်လပ်ရေး
▁ပြောင်း
▁၂၀၀၈
သဘော
▁ရွှေဘိုခရိုင်၊
▁အင်အား
▁ကိုယ်တိုင်
စာအုပ်
ကြည်
▁ပါး
▁ရွှေတောင်
များကြောင့်
ဖွဲ့
▁အခြေအနေ
ချေ။
wiki
▁တစ်ဦး
ကြီးများ
မြို့သည်
အလိုက်
ချောင်
▁ပြောင်းရွှေ့
▁ရှိကာ၊
၉၅
ခြေ
၉၈
သို့မဟုတ်
ကောင်စီ
▁လူထု
▁ဗ
၃၂
▁ကဗျာ
▁တက်ရောက်
၃၄
မျိုးကို
၃၉
၎င်း
model
တိုက်ခိုက်
▁ဗမာပြည်
၇၅
▁အကောင်းဆုံး
တောင်ရွာ၊
ကိုင်း
လာကြသည်။
l
▁G
ကန်ရွာ
▁သင်ကြား
ကြရသည်။
▁ကား
▁အီ
ခတ်
၅၉
ချစ်
▁တည်ထောင်
ပြောင်း
ဘို
သီချင်း
ပေးရန်
▁တိုင်း
ဝိ
၈၆
▁တွေ့
▁ဟာ
▁ကျေးသီးမြို့နယ်
▁ဝတ္ထု
၈၈
ထဲ
▁အလုပ်သမား
ရလေသည်။
ချိန်တွင်
▁များသောအားဖြင့်
ဝတ်
ဆယ်
ကြပြီး
▁ဥပမာ
၉၆
အမျိုးမျိုး
u
▁ယခင်က
▁T
တဲ
▁ဘားအံခရိုင်
မဟာ
ရွာသစ်ရွာ၊
▁ပခုက္ကူခရိုင်၊
နေထိုင်
▁ကော့
ly
▁ထင်ရှား
▁အရောင်
▁မိသားစု
▁လက်နက်
မင်းသား
▁ကီလိုမီတာ
မကွေးခရိုင်၊
လိ
▁မိမိ၏
stamp
▁၂၀၁၂
▁နည်းပညာ
contributor
အမျိုးအစား
၃၁
▁ဟ
▁၂။
အသုံးပြု
ရှင်း
သွေး
ကျင်း
၄၂
၄၆
▁ကုမ္ပဏီ
▁ထိန်းသိမ်း
▁၎င်းတို့၏
၈၉
၆၉
▁လျှပ်စစ်
▁နှစ်စဉ်
စသော
ချို
ခိုင်
▁ကာလ
၆၈
▁အနက်
▁ရွေးကောက်ပွဲ
▁rock
▁ဖြစ်လာ
▁လုံး
▁အစိတ်အပိုင်း
ဥပဒေ
▁မူဆယ်ခရိုင်
▁လုပ်ဆောင်
ဘုံ
လာသော
O
▁I
▁လွှတ်တော်
▁ကြိုးစား
နီး
အတွင်းရှိ
▁ငါ
ထဲမှ
ar
၇၃
ဿ
▁လူမျိုး
▁ထိုင်း
ရံ
▁၂၀၁၇
▁သမီး
ကျေးရွာ
အုပ်စု
၀၀
▁ရှိသော
▁လွိုင်ကော်
ကွက်
▁တို့သည်
လွန်း
ဈေး
၅၄
▁L
၄၉
၇၄
ဇာတ်
▁အဖွဲ့အစည်း
ကီ
၃၅
▁လက်မ
၃၇
ကိုး
▁ရာသီဥတု
▁၃၄
▁စိန်
▁ရှာဖွေ
▁၃၈
▁စလင်းမြို့နယ်
၈၀
▁အသင်း
ရှိ၏။
▁လှိုင်းဘွဲ့
ဂူ
နွယ်
▁ဒေါ်လာ
၅၇
⁠
မက်
ခဲ့သူ
▁သုံးစွဲ
parent
▁ဓာတ်
▁နိုင်ငံခြား
▁တီထွင်
▁ပြည့်နှစ်တွင်
▁မြန်မာပြည်
၉၀
ဆောင်ရွက်ခဲ့သည်။
▁မိုင်း
သေး
ပေ။
၃၈
ထီး
▁ယင်းသို့
▁အာဏာ
▁လာရောက်
၅၅
▁ဓမ္မ
username
▁စီ
ခဲ့သည်ဟု
ဝက်
ခ်
ထပ်
သွင်း
▁ဖြစ်ပွား
▁ထိုင်းနိုင်ငံ
▁for
▁ချင်း
ကယ်
▁မင်းလှမြို့နယ်
သိန်း
f
ဆိုင်း
▁ကင်း
ခဲ့သည်
ရှား
၇၉
လိပ်
▁ည
on
▁ခြေ
တူး
စွဲ
၆၃
▁ထ
မည်ဟု
et
ကြသော
၉၂
လိုင်း
ma
၆၄
▁၁၉၉၀
▁ကြက်
▁ကာကွယ်
၇၀
၆၇
၆၂
▁ဖေဖော်ဝါရီလ
ဖြစ်ပါသည်။
ရယ်
▁ဆက်သွယ်
▁သီးခြား
▁ကြောင့်
၀၇
မား
စေ့
▁မြတ်စွာဘုရား၏
၄၈
▁မိုင်းကိုင်
▁သရက်ခရိုင်
ကမ္ဘာ
၀၈
▁R
▁ကမ္ဘာပေါ်တွင်
▁အိုင်
▁တွေ့ရှိ
ပေါင်းများစွာ
▁ဒီမိုကရေစီ
▁၂၀၀၇
၉၃
▁အရွက်
တစ်ခုဖြစ်သည်။
▁မတ်
▁အများအပြား
ကပင်
▁ရေးဆွဲ
▁ခုနှစ်အထိ
▁ဒုတိယကမ္ဘာစစ်
လု
▁မိုင်းယန်း
▁အထွေထွေ
၀၄
▁၂၀၀၉
▁၂ဝ
N
▁ပြင်ဦးလွင်
▁ကောင်းစွာ
▁ဒ
▁တိုက်ရိုက်
ပြီ
▁အတူ
]
မှတ်
စွန်း
▁ညောင်
▁ဂျာမန်
▁၂၀၁၃
၇၇
▁အိုး
မန်း
ပေးသည်။
သာလျှင်
ရမည်
ဖို
▁ပြုပြင်
၇၈
▁မိတ္ထီလာခရိုင်၊
ဖြတ်
၀၉
ကော့
▁ဂေါတမမြတ်စွာ
▁ပြ
နှစ်ခု
ဤ
▁နေ့
▁၃။
▁ငွေကြေး
လုပ်ကိုင်
ကလေးများ
ကိန်း
၅၂
ပေါင်
၄၄
တပ်မတော်
ထူး
▁ရှာဖွေတွေ့ရှိ
၆၆
၈၃
ကျန်
▁မိဖုရား
▁အသား
▁ဆောက်လုပ်
အပါအဝင်
ခဲ့ကာ
ဖြစ်ကာ
▁ခရိုင်
မြန်မာနိုင်ငံ
မှုများကို
▁အပြင်
ရှ
ကျောက်ပန်းတောင်း
အချိန်
▁ရဲ
စိုက်
လေ့လာ
လုပ်ငန်းများ
ဂီတ
၈၄
▁ရှေ့
ပြန်သည်။
▁ယုံကြည်
▁ဖြစ်ပေါ်
▁တူ
▁အောက်တိုဘာ
▁N
ပို့
ကွန်
ထု
▁အင်ဂျန်းယန်
၈၂
ရု
▁ဖန်တီး
▁ပုဂံ
▁မိခင်
▁ဝန်ကြီးဌာန
w
▁ချစ်
▁အေ
နံ
▁ဖ
ဂို
လွတ်
▁ခုတွင်
▁စနစ်
▁မြောက်ပိုင်း
၅၆
▁ဆား
အားလုံး
မော
ဗီ
▁စာရေးဆရာ
▁ကျောက်တံခါး
▁တောင်တွင်းကြီး
▁၃၇
ယဉ်ကျေးမှု
▁ဒါရိုက်တာ
▁ပုဒ်မ
▁ကျင်းပ
အဖွဲ့အစည်း
▁၎င်းတို့
▁ထိုစဉ်က
နယ်မြေ
၅၈
တစ်ရပ်
▁ဟုမ္မလင်း
▁ဒီဇင်ဘာ
အေ
ကြီးရွာ
ဇ်
ဒင်
▁ဆွမ်ပရာဘွမ်
အတွင်း၌
ခေါင်
ယင်း
▁၃၆
၇၆
▁ဆိုဗီယက်
▁မရှိ
▁လေယာဉ်
▁မော်
▁အနက်အဓိပ္ပာယ်
လပ်
Z
အိ
▁ကြား
၅၃
▁သက်ဆိုင်ရာ
၉၇
ဝေး
▁ခြောက်
နှင့်တကွ
le
▁သဲ
▁မူ
ဂိုဏ်း
တား
▁ယောင်
ထင်
ခဲ့ကြ
၈၇
ခဲ့၍
ဖန်
၆၀
▁၂၀၀၀
▁မင်းဘူးခရိုင်
▁In
ညီ
▁လုံးဝ
လွှတ်တော်
▁အမြင့်
▁စသည်တို့
▁၂၀၁၈
ရှမ်း
▁ရောက်ရှိ
▁ရဟန်းတို့
▁ကိုး
▁သံတောင်ကြီး
၀၆
▁ဝန်ကြီး
ra
▁ပျော်ဘွယ်
▁သဘော
မြို့တော်
ပြေး
ကျောက်မဲမြို့နယ်
သဲ
▁ယူဆ
မိုင်း
ပညာရှင်
es
▁အမှုထမ်း
တေး
မင်းကြီး
တွင်မူ
ယောင်
တင်း
▁ပို
▁ရှိကြသည်။
၄၇
▁ထုတ်လုပ်
▁အမိ
မှုနှင့်
ဖော်ပြ
လူး
စည်း
▁နွား
ညွန့်
▁သုတေသန
).
▁ဆုံးဖြတ်
▁တာဝန်ယူ
လော့
ပိတ်
▁အသီး
အချို့
၄၃
▁မှန်
▁ကျုံ
▁စသည်ဖြင့်
en
ချေ
ကေ
▁နာ
ကော
ဆီး
မှု၊
ဝမ်း
အရှင်
၄၁
နတ်တလင်းမြို့နယ်
▁တဖြည်းဖြည်း
မောင်း
ဓမ္မ
▁Ka
ပုံကို
▁ကော်
▁ဆိုင်ရာ
ဘေး
▁နည်း
၅၁
▁လွိုင်လင်
▁၁၉၈၀
▁တောင်ပိုင်း
▁တာချီလိတ်
မဟုတ်
စာရင်း
ခုနှစ်၊
ရမည့်
လျှက်
▁၂၀၀၆
▁အုပ်စု
အရာ
an
ဖွဲ့စည်း
၀၅
နစ်
နိုင်ငံ၏
▁၄၅
▁တို့၏
▁နမ့်စန်မြို့နယ်
▁အမည်ဖြင့်
အစ
ကြီး၏
▁မြတ်စွာဘုရားသည်
▁ဖြူးမြို့နယ်
▁ပတ်ဝန်းကျင်
ang
▁နယ်
▁မွေးဖွား
▁အရှေ့တောင်အာရှ
တစ်ယောက်
တစ်ပါး
▁စက်တင်ဘာ
▁တောင်ဘက်
ခမ်း
▁မျက်နှာ
ဖြစ်ကြောင်း
ခါး
ဖိုး
ြန်မာဆိုရိုးစကား
▁ဟိုပုံးမြို့နယ်
▁ပြုစု
ဆူ
ဃ
ခြင်းများ
▁အစီအစဉ်
၉၄
▁မြောက်ဘက်
ဏ
အန်
င့်
မြို့၌
ဒိုး
၆၁
▁ဆီဆိုင်မြို့နယ်
]]
စိမ်း
ဇင်
▁အသီးသီး
▁ချက်
ကျား
▁ပေါ်
▁သစ်ပင်
များအနက်
ဖော်
၇၂
စိုက်ပျိုး
W
ယန်
အသစ်
▁ဖြစ်ခဲ့သည်။
ဝတ္ထု
သလို
▁တင်ပြ
▁ကြိုး
▁တရုတ်နိုင်ငံ
ရေတာရှည်မြို့နယ်
▁U
▁ဘာသာရေး
ကိစ္စ
▁သတ္တု
ဂျာ
▁ကျွဲ
▁သိမ်းပိုက်
ရှေ့
▁ရုရှား
ကျိုး
▁ကွယ်လွန်
လူမျိုးများ
ယို
▁ဖြစ်စေ
လေ၏။
▁ဝိ
ကု
▁နောင်ချို
ဖြစ်သည်
ကန်ကျေးရွာအုပ်စု
▁နယ်မြေ
ဉာဏ်
ဖွံ့ဖြိုးတိုးတက်
▁ကုလသမဂ္ဂ
us
▁ဆယ်
▁လှေ
ဖြစ်သည်ဟု
▁ပဲ
▁ထုတ်ဝေ
▁သင်
▁မြိုင်မြို့နယ်
အက်
ကျပ်
▁ထိ
▁ဖြစ်လာသည်။
ပင်ဖြစ်သည်။
▁၁၉၄၇
▁Kone
The
တိုင်းဒေသကြီး
လောက
ခွက်
များသို့
b
ကဲ့သို့သော
နာရီ
▁ဘာသာ
▁၁၉၄၅
▁တိရစ္ဆာန်
▁ဘယ်
▁စ၍
▁စိုက်ပျိုးရေး
▁ဌာန
▁ဖွင့်လှစ်
ကုမ္ပဏီ
ဝဝဝ
▁၁၀၀
၆၅
▁ရာစုနှစ်
▁မကြာခဏ
▁ရေးသားခဲ့သည်။
မင်
▁ရဟန္တာ
လမ
▁ဂျွန်
▁ထိုး
လွင်
ထောက်
▁ဇန်နဝါရီ
▁မက်
▁ပြင်ဆင်
na
တော်မူသည်။
အလုပ်
နန်
▁မိုင်းယောင်း
comment
စေတီတော်
နိုင်ပါသည်။
▁ပွဲ
▁ပုဂ္ဂိုလ်
▁၄။
▁သဲကုန်းမြို့နယ်
R
၉၁
ပြောဆို
သိမ်း
▁မြ
▁ကုန်
▁ဖွဲ့စည်းပုံ
▁မဂ္ဂဇင်း
▁မူဆယ်မြို့နယ်
အီ
ဖြစ်လာသည်။
တောင်ပိုင်း
အလွန်
▁ကျပ်
▁သို့တည်းမဟုတ်
လောင်
စမ်း
▁မိန်းမ
စီးပွားရေး
▁မြတ်စွာဘုရား
▁နိုဝင်ဘာ
ပစ္စည်းများ
နှုန်း
▁စီမံကိန်း
▁ဖြစ်၍
▁ကျောက်ဆည်
အားကစားပြိုင်ပွဲ
▁အာဖရိက
▁သာမန်
▁ကျောက်ကြီး
ရက်နေ့
▁ပဲခူး
▁အသိအမှတ်ပြု
▁မယ်
လန်း
▁ဟံသာဝတီ
ကျောင်းတော်
▁ရဲဘော်
▁ဖမ်းဆီး
▁ပလက်ဝမြို့နယ်
▁ဇူလိုင်
▁လက်ပံတန်း
ု
▁ထီး
I
ခွန်
▁အကယ်၍
ရေးရာ
၇၁
▁နာမည်
▁အင်ဒိုနီးရှား
▁ပန်းချီ
▁အရွယ်
▁ပတ်သက်၍
မြဲ
တတ်သော
သုံးစွဲ
ိ
လှိုင်
▁လောက
+
ထောင့်
▁မိ
▁၄၄
▁ဖြစ်လာခဲ့သည်။
▁စာရင်း
st
▁မိုးမောက်
ထံမှ
▁Ta
အုပ်ချုပ်
▁ကုန်းကြမ်း
တောက်
▁ဆူ
el
▁ဦးဆောင်
▁မန္တလေးမြို့
မွေး
တု
▁ပါလီမန်
▁ဝမ်း
▁မံစီမြို့နယ်
စောင့်
သမ္မတနိုင်ငံ
တော်လှန်ရေး
ော
ခဲ့ပြီးနောက်
▁စပါး
ဝန်ကြီး
ကင်
လည်းဖြစ်သည်။
ခဲ့ပါတယ်။
▁ဖေဖေါ်ဝါရီလ
▁၄၂
▁လုံ
▁ရမည်းသင်း
ပြာ
▁တစ်ယောက်
အတွင်းသို့
▁ဂရိ
ပေါ
ပုဂ္ဂိုလ်
▁မှတ်
▁၎င်းကို
▁တန်
▁ရိုးရာ
္
▁မျက်စိ
▁လောက်ကိုင်
▁အေဒီ
▁ကန့်ဘလူမြို့နယ်
▁အနောက်ဘက်
ဘက်မှ
▁ကြိုးပမ်း
▁၂၀၀၅
▁အားလုံး
▁ပေါ်ပေါက်လာ
▁ကြာအင်းဆိပ်ကြီး
ဖွင့်
▁ဥယျာဉ်
▁[[
▁စစ်ရေး
▁ဒါ
▁ငြိမ်းချမ်းရေး
▁စေတီ
ပင်လယ်
▁အရည်
ကတော့
ကျင်းပ
▁အုတ်
▁ဇာတ်
ထိပ်
နဲ
▁ဖာပွန်မြို့နယ်
▁ထုတ်
▁mg
▁အင်းဝ
▁တွဲ
ကစား
▁ပတ်
▁လှုပ်ရှား
▁ဆရာကြီး
ရှု
ပြန်လည်
▁ဧပြီ
သ်
▁ပိုး
ယော
တရုတ်
ရ၏။
ဝန်း
▁ရာထူး
ပယ်
ပိုင်းတွင်
▁ပူတာအိုခရိုင်
▁ကွန်မြူနစ်
▁စတုရန်းမိုင်
အပ်သော
▁ဈေး
▁ပြည့်
တခု
▁ရတနာ
v
▁is
▁မဟုတ်
▁ကျမ်း
▁သာသနာတော်တွင်
▁ပေါင်းစပ်
များအဖြစ်
▁ဆု
▁အဲ
လက်ထက်
▁ကြောင်း
တေ
ဘတ်
▁O
ကတည်းက
ဘိ
သု
ဗေဒ
▁ကြိမ်
ကျင်
▁စက်မှု
▁ဖိလစ်ပိုင်
▁ဖာ
သမျှ
ဝန်ကြီးဌာန
▁အဓိပ္ပါယ်
▁ကုလား
မြောက်ပိုင်း
ဆစ်
အဲ
▁အေး
တုံ
ia
▁ခရစ်ယာန်
အခြေခံ
▁တီးဝိုင်း
ဖ်
မျှသာ
▁၁၉၄၈
▁နောက်ပိုင်း
အကြား
ရူး
▁အော်
ပြင်ရွာ
ကုလား
▁ဖခင်
▁စံ
ဒီး
▁ဗန်းမော်ခရိုင်
▁လှုပ်ရှားမှု
▁၂၀၀၄
၍၊
▁Gyi
မြင်း
▁၁၉၆၀
▁ဂူ
အခန်း
▁ကော့ကရိတ်
▁မိုင်းခတ်
▁ဖေဖော်ဝါရီ
▁ပျက်စီး
နင်း
▁ဧက
၀၃
ဗိုလ်
▁ဖန်
ဝဲ
▁ပူ
ချက်များ
▁ပင်
un
လာပြီး
at
ကွင်းရွာ
ညောင်
▁အဆောက်အအုံ
ထား၍
ရှိရာ
▁–
ဟုလည်း
▁ဘေး
▁မင်္ဂလာ
z
▁၁၉၈၈
▁၄၃
▁အသုံးချ
ရခြင်း
တိုင်းရင်းသား
▁၂၀၁၉
▁အရှေ့ဘက်
▁စသည်တို့ကို
ဖြစ်လေသည်။
▁ရပ်
ce
ရတနာ
▁Tha
စောင်း
ta
▁ကူညီ
မြို့သို့
စတုရန်းကီလိုမီတာ
၈၁
ထိန်း
ရိုင်း
▁မက်မန်းခရိုင်
▁ရှိနေ
▁ကြည့်
▁ခဲ
ic
ငြိမ်း
ထွေး
▁မျှ
▁ကစား
▁၁၉၆၂
▁သားသမီး
အခြေအနေ
▁ဒီဂရီ
▁စီး
▁punk
ဘဏ်
▁မင်းသမီး
ထုံး
▁ခံယူ
▁မင်းတုန်း
▁သိရှိ
▁၂၀၂၀
ခဲ့ခြင်းဖြစ်သည်။
ဖြစ်ပွား
သူ၏
▁ခွေး
န်း
▁ဟိုပန်မြို့နယ်
ဆည်
တည်း။
▁တာချီလိတ်ခရိုင်
▁အသုံးပြုကြသည်။
▁ထား
▁ပုံမှန်
လွှာ
လာသောအခါ
ရီး
၀၁
ခဲ့သဖြင့်
▁အတွင်းရေးမှူး
ကိုယ်တိုင်
ဆုံ
▁ခရစ်
ကြီးသည်
▁Pa
NGC
အနည်းငယ်
အုပ်ချုပ်ရေး
▁ဆွေးနွေး
▁အများအားဖြင့်
▁တွေ့ရ
မကြီး
▁ပညာသင်ကြား
မြို့ကို
သင်း
ရေးနှင့်
ခဲ့ကြောင်း
စဉ်က
▁မိုင်းပေါက်
မှာမူ
▁လေဆိပ်
▁လူငယ်
▁သက်
me
ပေးခြင်း
▁ဟန်
▁ဖြစ်ပေသည်။
နိုင်ခြင်း
အသက်
▁ပဲခူးမြို့နယ်
▁တစ်ဖန်
မောက်
▁စစ်ဆေး
လမ်းကြောင်း
ပုတ်
ပိုက်
▁အရပ်
▁နောက်ထပ်
▁ကြို့ပင်ကောက်
▁ဖတ်
to
▁ပြင်သစ်နိုင်ငံ
▁မွေး
၀၂
ဟော
▁ပါဝင်ခဲ့သည်။
▁2
ယန်း
ရေးကို
အောင်မြင်
ချာ
▁ရောမ
ကိုမူ
▁ခွဲခြား
▁အဆို
▁၂၀၀၂
သည်မှာ
ကြမ်း
▁ဝယ်ယူ
လျင်
ဆင့်
▁ဘီ
ဖြစ်ခဲ့သည်။
ယခု
▁သီရိလင်္ကာ
▁တန့်ဆည်မြို့နယ်
ယံ
▁လယ်
▁ကော်မတီ
▁ပေါင်းတည်
▁အလင်း
ကဗျာ
ခိုင်း
ne
တံတား
အများဆုံး
▁ထိုအချိန်တွင်
▁အစ
▁၂၀၀၃
▁J
▁အစာ
မြိုင်
ထူ
တာဝန်
ir
▁တစ်ခါတစ်ရံ
နေရာတွင်
▁အကျိုး
တုတ်
မင်္ဂလာ
▁ရည်ညွှန်း
▁ရန်သူ
အက္ခရာ
▁တည်ရှိပြီး
င်း
▁အမြင့်ဆုံး
...
အဖွဲ့ဝင်
re
ကြိမ်
မိတ္ထီလာမြို့နယ်
▁ဝိုင်းမော်
မှတစ်ဆင့်
▁တိုးချဲ့
သည့်အတွက်
▁ခင်
တည်ဆောက်
▁ရိုက်ကူး
၌လည်း
▁အုတ်တွင်း
▁ချီးမြှင့်
▁အနည်းဆုံး
▁အမြဲ
▁ခေတ်သစ်
▁ပခုက္ကူမြို့နယ်
လှသော
▁အီရန်
▁အပိုင်း
▁ဗမာ
▁၁၉၅၈
▁on
ဓ
▁f
▁ဇ
▁W
သတင်း
ရောင်း
ရရှိ
ပျံ
▁ပင်လည်ဘူး
▁တွဲဖက်
ဘော
▁ဧကရာဇ်
▁အက္ခရာ
▁၁၉၄၆
▁လူတို့
ဖေ
▁၁၉၅၃
တောင်ရွာ
▁was
မျက်နှာ
တိုက်ပွဲ
ရွာမရွာ
▁အစောပိုင်း
ကမ်း
▁ဝေဖန်
▁ကြယ်
▁ထူထောင်
ation
▁ယ
အနီး
▁Kan
▁ဖဆပလ
▁ပြဋ္ဌာန်း
ရာဇာ
▁ရုံး
န့်
▁အဖ
▁လုပ်ငန်းများ
ချက်အရ
▁မိုင်းရယ်
▁မြန်မာနိုင်ငံ၏
▁1
▁လွှမ်းမိုး
▁အလျား
▁ပေါက်ခေါင်း
▁ပစ်
▁ကလောမြို့နယ်
ပေါ့
▁သေဆုံး
ကော်မတီ
ပွား
▁နိုင်ငံ၏
▁ခန္ဓာကိုယ်
▁ဇာတ်လမ်း
▁ဘွဲ့
▁အသစ်
ခံရ
ပြသ
လက်ထက်တွင်
▁သထုံခရိုင်
▁၆၀
ထည်
▁ကယားပြည်နယ်၊
▁အပေါ်
ခွေ
ခြံ
ဘော်
အရေး
အပိုင်း
▁ဟွေ
ပြောင်းလဲ
သည်အထိ
▁စစ်တပ်
ကျောက်ဆည်ခရိုင်၊
ညာ
▁album
ပေါ်၌
▁မိုင်းရှူး
▁လက်တွေ့
▁စပိန်
▁တိုင်
▁နယ်နိမိတ်
ur
မည်။
ဇီ
ကြယ်
▁၁၉၆၃
▁ဆက်သွယ်ရေး
▁ပေါင်
ချော
▁ကြောင်
amp
▁ရှိ၏။
▁ပုံသဏ္ဌာန်
ဒေသတွင်
စည်
မြို့မှ
အသံ
0&
သမ္မတ
▁de
လှုပ်ရှားမှု
V
▁၂၀၀၁
▁နေ့စဉ်
များဖြစ်သည်။
il
▁ချ
လွှတ်
▁နန်းတော်
–
▁၁၉၅၄
▁ချမ်းသာ
▁ပြည့်စုံ
မရ
ချမ်းသာ
▁တို
သဖွယ်
▁ဓား
သာမက
ပိ
ြ
▁ရေနံ
▁ဝန်
တင့်
ကိုပင်
▁တောင်သာမြို့နယ်
ဇင်း
▁စီစဉ်
ယောက်
▁ခန့်မှန်း
▁ဝင်း
▁ဝေ
ပြည်သူ့လွှတ်တော်
▁အတည်ပြု
လုပ်ဆောင်
▁ဆန့်ကျင်
▁ဝေါဟာရ
um
ထံသို့
ဟူ
ခိုး
ရမ်း
▁re
▁ဝမ်းတွင်း
ine
▁သု
ဖြစ်လာခဲ့သည်။
▁ရေစကြိုမြို့နယ်
▁ရွက်
ခရီး
သောင်
▁သတ္တဝါ
မြင်းခြံခရိုင်၊
▁ရောင်
အကြောင်းကို
▁မေး
ရရှိခဲ့သည်။
▁by
▁ကသာခရိုင်
▁မွေးဖွားခဲ့သည်။
ဒူး
▁ကျေးရွာ
သူသည်
မှသာ
နိုင်ငံ၊
သောက်
ဒုတိယ
▁ထုတ်ပြန်
အင်အား
▁၁၉၅၉
▁အောင်လံမြို့နယ်
အာဏာ
ပြီး၊
▁သူမ၏
▁သစ်သား
▁ထပ်
▁ကျယ်ဝန်းသည်။
ါ
▁မြန်မာနိုင်ငံ၊
ပေါ်သို့
▁ပီ
လှေ
ရာထူး
▁နဲ့
▁အရေးပါသော
နိုင်ငံရေး
▁My
သတ်မှတ်
ရန်ကုန်တက္ကသိုလ်
▁၃ဝ
man
▁မြစ်သားမြို့နယ်
▁ထမ်းဆောင်
▁ကာကွယ်ရေး
▁ခုနှစ်၌
ရက်မြောက်
ဝပ်
စက်ရုံ
te
▁စစ်ပွဲ
▁သာယာဝတီမြို့နယ်
▁၁၉၄၉
▁ဆက်စပ်
သရုပ်ဆောင်
နေပြီး
▁လင်းခေးခရိုင်
▁အာကာသ
စစ်ပွဲ
▁၁၉၇၀
ဘောင်
နည်းပညာ
ခံရသည်။
မိုက်
▁ထင်
ချိ
ဟိ
ရာသီ
လက်ခံ
▁အခွင့်အရေး
ခိ
am
▁သီးသန့်
▁ပြည်ပ
▁ပွင့်
▁၃၉
▁ရောင်းချ
ကြေး
▁၅။
တော့သည်။
▁တောင်ငူမြို့နယ်
▁Re
▁မြိတ်ခရိုင်
ဘက်သို့
အစား
▁တို့တွင်
▁ပါဠိ
ပွဲတော်
ဘိုး
▁ရှစ်
ကြောင်
▁မလှိုင်မြို့နယ်
လိုင်
▁အမိန့်
▁တောင်းဆို
▁အလယ်ပိုင်း
▁၁၉၅၆
▁အင်ဂျင်နီယာ
▁ခရီး
▁လင်
▁အုပ်
နှင့်အညီ
▁ဦးခေါင်း
မေး
လေ့ရှိကြသည်။
ရား
▁အရေး
▁အထက်တန်းကျောင်း
▁သိရသည်။
▁လျှောက်ထား
▁လဲချားမြို့နယ်
▁ဂျပန်နိုင်ငံ
ဂြိုဟ်
▁ဝက်လက်မြို့နယ်
ကတ်
▁ယင်းမာပင်ခရိုင်
▁as
▁ယိုးဒယား
ချပ်
▁စမ်းသပ်
အတွင်းတွင်
▁ပထမဦးဆုံး
အောက်တွင်
ရှီ
အော်
▁ဟိဂရှိ
▁အပြစ်
အခါ
▁မှတ်သား
▁တစ်နှစ်
▁with
▁အီဂျစ်
ကျယ်
▁ရုပ်
▁အကြောင်းအရာ
အမေရိကန်
မ်း
▁လက်ထက်တွင်
ဂုဏ်
▁တန်ဖိုး
▁လိုအပ်
▁ကိုးကွယ်
▁တွေ့ဆုံ
▁:
▁ဆီး
ယာဉ်
▁အလုပ်လုပ်
ခြင်း။
သေးသည်။
▁၁၉၅၂
▁ညောင်ဦးမြို့နယ်
ဒေါ
▁ဘာသာပြန်
▁မိနစ်
▁ဖြစ်သည်ဟု
▁မိုးညှင်း
▁ပြဇာတ်
တင်ပြ
▁နံနက်
▁တည်ရှိ
ဒိ
ပြိုင်
လံ
la
ဘ်
ယု
▁ဇာတ်ကား
မှာပင်
မှီ
▁အရာ
▁မုံရွာခရိုင်
▁သိန္နီမြို့နယ်
▁၄၁
▁ကျရောက်
▁မိုးကောင်း
▁စင်ကာပူ
▁၄၆
ဖြစ်သော်လည်း
တိုင်အောင်
▁ခေါ်ဆို
နိုင်အောင်
အမျိုးသမီး
မဂ္ဂဇင်း
▁သာသနာ
▁အုတ်ဖိုမြို့နယ်
ဆွေ
▁ပေါ်ပေါက်
▁၁၉၆၈
▁ဘီးလင်းမြို့နယ်
ရဟန်း
▁ကျောက်စာ
▁ထိုပြင်
ပြင်း
မင်းဆက်
ပြုစု
မင်းသမီး
▁ရေဒီယို
လုံရွာ
▁ဩဂုတ်
▁be
▁ခန့်အပ်
▁ကောလင်းခရိုင်
▁ပါဝင်သည့်
းရွာ၊
ကိုက်
ro
▁သူမသည်
▁ခုနစ်
▁အင်္ဂလိပ်ဘာသာ
▁၀
စသည့်
▁ကူ
▁သိပ္ပံ
▁အမျိုး
▁လူသား
▁ပြဿနာ
ဆောင်း
▁အဓိပ္ပာယ်
▁ဇနီး
ဖီ
ဝင်ရောက်
ဖြစ်လာ
ကရင်
▁သစ်တော
တံခါး
သွားသော
သာယာ
▁မင်းတုန်းမင်း
ပြင်ဆင်
မန္တလေး
▁ကွမ်း
▁ဘုံ
▁ဖြစ်ပေါ်လာ
ဘုရား၏
သူများသည်
ကြသည့်
ကွန်မြူနစ်ပါတီ
အနေနှင့်
ရေးဆွဲ
▁ရှိခဲ့သည်။
▁အမေရိကန်နိုင်ငံ
ခွေး
▁သက်တမ်း
ers
▁ယနေ့
ယ်
▁ဇွန်
▁၈၀
▁မိုင်းဆတ်ခရိုင်
▁အီတလီ
▁အနာ
ဥယျာဉ်
▁s
▁ပြသ
▁ခေါ်ဝေါ်
▁လင်း
▁ကောက်
ထိုင်
ကိုယ်စားလှယ်
▁အစေ့
▁၁၉၄၂
▁ဗန်းမောက်
▁လူမှုရေး
▁သီဆို
▁တောင်ငူ
▁ဗီယက်နမ်
ရှိသူ
ပေးသော
▁အပူချိန်
▁ရိုက်
သန်
▁စပ်လျဉ်း၍
▁ချမှတ်
လေဆိပ်
မူး
ထဲ၌
အရောင်
▁နေ့တွင်
▁၁၉၅၀
ဆပ်
▁နေပြည်တော်
▁လက်ဝဲ
ဂျ
▁တိုင်းဒေသကြီး
ပြေ
▁အိ
ခံခဲ့ရသည်။
▁လွန်စွာ
▁အန်
▁or
ရူ
▁၁၉၉၉
▁စု
လျှင်၊
▁လက်နက်ကိုင်
လှုပ်ရှား
▁အောင်မြင်မှု
လှည့်
မိဖုရား
ရပ်စောက်မြို့နယ်
ရှစ်
ဘု
▁သူမ
ရွေးချယ်
▁စာရေး
ရခိုင်
▁ကျင့်သုံး
▁...
▁ပူးတွဲ
နိုင်ပြီး
နှင့်ပတ်သက်၍
▁အမည်ရှိ
▁ဆရာတော်သည်
▁လှူဒါန်း
▁လူ့
နော်
▁ချောက်မြို့နယ်
ကြသဖြင့်
▁ယှဉ်ပြိုင်
ဒန်
ပါသော
ကြရာ
▁အများပြည်သူ
▁ရှာ
ပေါ်ရှိ
မှုသည်
တောင်တန်း
ထေရ်
▁ထန်း
ထိုက်
တည်ထောင်
▁အရိုး
ဖောက်
▁ရာဇဝင်
▁၁၉၇၂
▁သတ်
▁အိပ်
▁လက်ထက်
▁ပစ္စည်းများ
တောကျေးရွာအုပ်စု
ထည့်
▁3
▁V
▁တိုင်းတာ
▁ပန်းတောင်း
▁သဘောတူ
▁လို
▁တရုတ်ပြည်
သည့်အပြင်
တပ်ဖွဲ့
▁ဆိုကြသည်။
▁ဧရာဝတီမြစ်
▁ဖော်ပြထားသည်။
▁Man
ဒါး
ရေး၊
ပိုင်းဆိုင်ရာ
▁ကြည့်ရှု
▁Min
▁ခေါ်ကြသည်။
▁ရွှေ့ပြောင်း
ကြက်
▁လီ
▁ကျောင်းသားများ
▁အသုံးပြုသည်။
ဖြစ်ပေါ်
▁စွမ်းအင်
▁ဟုလည်း
သင်္ဘော
ခဲ့ပေ။
၌ပင်
ငူ
ent
▁လိပ်
ဂန်
▁အဖြစ်ဖြင့်
▁Co
သောင်း
စီမံကိန်း
ခြား
တစ်လုံး
သူများကို
▁မိုင်းဖြတ်
အောင်ဆန်း
▁ဉာဏ်
▁တန်း
ဗား
ခဲ့ကြပြီး
▁အပူ
▁စနစ်တကျ
▁တို့က
ဖား
▁၁၉၅၅
▁အသုံး
▁ကောလိပ်
အုန်း
▁ကမ်း
▁ခေါင်လန်ဖူး
▁တပ်ရင်း
တွေက
▁အဆင့်ဆင့်
▁တိုက်ပွဲ
ဒူ
▁ဟိုပန်ခရိုင်
▁ရှေးခေတ်
▁မင်းတပ်မြို့နယ်
ခုန်
▁ခုနှစ်မှစ၍
စေသော
များထဲမှ
▁ပေါက်မြို့နယ်
▁ရှိလေသည်။
▁စုဆောင်း
▁Taung
ပြိုင်ပွဲ
▁ဘောလုံး
စာချုပ်
အဖြစ်သို့
ကြသော်လည်း
▁မေတ္တာ
▁၁၉၆၁
▁ဘီလီယံ
▁အမတ်
ပျောက်
လျက်ရှိသော
▁ဖြတ်
ရော့
▁အထက်ပါ
ရထား
▁ပြင်
အခြား
အမြင်
▁၁၉၆၄
▁ရင်
▁b
町
ဇော်
▁ခံရသည်။
အရပ်
ong
လာသည့်
ဖျက်
ကောလိပ်
▁Su
▁တွင်း
▁အဲဒီ
နိုင်ပေသည်။
ကြပါသည်။
▁လူအများ
▁ခံ
▁နည်းလမ်း
▁ဆိုင်
▁သူ့အား
▁ဖယ်ခုံမြို့နယ်
သဏ္ဌာန်
စောင့်ရှောက်
ကဏ္ဍ
ပါဝင်သည်။
ယက်
▁ဧရိယာ
ပြောင်
ခဲ့ရ
▁အနေဖြင့်
▁ဦးစီး
▁အူ
▁ဖြစ်ပါတယ်။
ဆွတ်
သခင်
▁ယင်းမာပင်
▁၁၉၇၅
se
တံဆိပ်
▁အားပေး
စနစ်ကို
▁ခါး
▁ဒုတိယမြောက်
ထင်ရှား
▁လန်ဒန်
▁ကိုးကန့်
သီရိ
▁လွတ်လပ်စွာ
wa
များရှိ
▁ရေဦးမြို့နယ်
▁နဂါး
▁ထိုင်ဝမ်
ဘူ
ga
သွယ်
▁ဘက်
ကန်း
မှတ်တမ်း
▁မန်တုံမြို့နယ်
ကဲ
ရောင်းချ
ပညာရေး
မဆို
▁တံတား
▁၄၇
အရာရှိ
▁ယင်းသည်
▁အစိုးရက
▁၄၈
▁နှစ်သက်
ပြတ်
▁ကိုယ့်
အစီအစဉ်
ဖြစ်သဖြင့်
▁စားသောက်
ထုတ်လုပ်
▁ရသည်။
▁မိုင်းတုံ
▁၁၉၄၁
ion
ခေါက်
▁La
▁ကွဲပြား
ပက်
▁အချက်
▁၅၅
▁နားလည်
▁လျှို့ဝှက်
▁အားကစား
အိပ်
revision
▁သရက်
▁အာရှတိုက်
▁ထည့်
▁ကောလင်းမြို့နယ်
▁မိဘ
များအရ
▁Chaung
▁၁၉၉၇
ဖု
▁ကေ
သိပ္ပံ
▁ပုဂံခေတ်
ခြင်းအားဖြင့်
▁ခို
▁ဆောက်
နိုင်၏။
▁Bo
ch
▁ရှ
မြို့စား
▁၁၉၉၃
များဖြစ်သော
တိုးတက်
ပြီးမှ
▁ရေနံချောင်း
▁တစ်မျိုး
▁မီ
ဟုခေါ်သည်။
▁ဝန်ဆောင်မှု
▁၁၉၉၁
▁၁၉၉၆
▁အမ်
စုရွာ
ဖြစ်အောင်
နိုင်ငံများ
▁သာသနာပြု
▁ထွန်းကား
▁ဖြစ်သည့်
▁ထောက်ခံ
မြို့၏
▁စုပေါင်း
သိမ်
▁၄၉
မိသားစု
is
၎င်း၊
▁ဗြိတိန်
သူတို့
▁ပို့
▁သင်္ချာ
ဂျိ
▁ဆူး
▁ပေးအပ်
ဖွယ်ရာ
နွဲ့
j
▁မြို့မ
ကြရ
▁that
▁တည်ရှိသော
ရိုးရွာ၊
သို
▁စီမံ
ဋ္ဌ
▁ဖြစ်ကြောင်း
▁အရာရှိ
▁လုံခြုံရေး
ခြင်းတို့
▁ရထား
▁တိုး
ဝီ
သတင်းစာ
တန်ဖိုး
ပွင့်ဖြူမြို့နယ်
▁ဖော်ထုတ်
▁ပညာရှင်
ri
J
ချွန်
▁သာယာ
သမီး
ခက်
ol
▁ဘိုး
မျိုးစုံ
▁ရောက်ရှိလာ
ဂိုး
▁အများ
▁ပုလဲမြို့နယ်
▁အယ်လ်
▁သမုဒ္ဒရာ
ရန်ကုန်
▁[
▁ပု
▁စက္ကူ
ချည်
▁မှတ်တမ်းတင်
▁ထိုနှစ်
▁အတိုင်း
နာမည်
ဗ်
▁များသည်
▁စက်ရုံ
သင်တန်း
မွန်း
▁မတူပီခရိုင်
▁ရဟန်းတစ်ပါး
ကြော
▁မိမိတို့၏
▁၁၉၇၄
▁စုစည်း
သွားခဲ့သည်။
▁များစွာသော
▁ကနီမြို့နယ်
▁ညောင်လေးပင်
▁Pin
▁ဖြစ်နေ
▁အားဖြင့်
▁၁၉၈၉
▁ကိစ္စ
အရွယ်
▁နွားထိုးကြီး
▁ဒု
▁လိုက်နာ
▁ထင်ရှားသည်။
▁ခရီးသွား
လျက်ရှိ
နေကြ
▁အကြီးအကျယ်
ဖမ်း
ဘက်တွင်
မှတဆင့်
▁ခုနှစ်က
▁သမီးတော်
ဆေးရုံ
က္ခ
▁သွားလာ
ခုတ်
သားများ
▁အင်္ဂလန်နိုင်ငံ
▁ယင်း၏
▁လွန်
▁ညောင်ပင်
▁အုပ်စိုး
▁ရှေးအခါက
ခရစ်
ပေးရသည်။
▁ကလေးများ
▁+
ရာစု
▁စီးဆင်း
▁အချင်းချင်း
ထားလေသည်။
▁ထက်
▁မင်းကြီး
▁အမှု
▁စေလွှတ်
ရွာသစ်
ငယ်များ
▁ပမာဏ
ဖိုင်
▁သင်ယူ
စေခြင်း
▁၁၉၉၅
▁၁၉၅၇
▁ချီ
▁ရယူ
ပထမ
တမ်း
▁ဂျီ
▁ပုံနှိပ်
▁ကြံ
▁ယာယီ
လိုက်သော
▁မြတ်
▁အုန်း
▁ရှင်းလင်း
▁သီတင်းသုံး
▁၁၉၉၂
မြို့ရှိ
▁ဒေသခံ
ti
▁ဆိုင်း
ry
မည်ဖြစ်သည်။
ဒေါင့်
▁စကားလုံး
▁ဈေးကွက်
▁ကျင်းပသော
▁တီ
▁လည်ပတ်
▁၁၉၆၅
▁လည်
▁ဇာ
ပုံမှာ
နတ်မောက်မြို့နယ်
ပီး
▁မြို့ပြ
ကိုလည်းကောင်း၊
▁တပည့်
ချမှတ်
ခဲ့ပေသည်။
▁စတင်ခဲ့သည်။
▁မိုးညိုမြို့နယ်
▁ဆောင်းပါး
▁ဒိုက်ဦးမြို့နယ်
▁အထက်တန်း
▁ဒုတိယအကြိမ်
တွန်
▁ဆိုသည့်
▁ဖော်
▁ယာ
နိုင်ငံတွင်
အနုပညာ
▁၁၉၉၈
▁စောင့်ရှောက်
▁အဆိပ်
လွဲ
▁ရက်ပေါင်း
▁ဒီးမော့ဆို
▁ပရိသတ်
▁ဆိုရှယ်လစ်
▁Ba
▁ညောင်ဦးခရိုင်
▁မတ္တရာမြို့နယ်
▁ထိုကဲ့သို့
▁သိန်း
▁ပါမောက္ခ
▁စိုက်
▁ကြေး
▁မြန်မာစာ
တော်မူ၏။
▁အပွင့်
▁ကမ္ဘောဒီးယား
▁၁၉၆၉
ဆား
ဒိုင်း
ဆောက်
▁ကောင်
▁နိ
▁4
ခိုက်
▁၅၂
▁ကပ်
ung
ဗုဒ္ဓ
ကြ၍
▁ဦးစီးဌာန
▁အမြီး
တော်ကို
▁၁၉၅၁
▁နံပါတ်
▁ပျံသန်း
ကနေ
▁အမြင်
▁သတင်းအချက်အလက်
▁ဟော
▁အာရပ်
ချက်ကို
▁ကွန်မြူနစ်ပါတီ
▁ကဲ့သို့သော
ဟီ
▁အနောက်တိုင်း
▁p
▁သီလ
▁၁၉၃၉
▁၁၉၆၇
▁ခပ်
▁မပြု
လုပ်ငန်းကို
မု
▁ဖောင်းပြင်
▁သောက်
အားလုံးကို
တည်ရှိ
ဇာတ်လမ်း
▁ဆေးရုံ
▁လင်းခေးမြို့နယ်
လှသည်။
လှိုင်း
Y
▁အပြန်အလှန်
ချိုး
နှစ်ဦး
▁၆။
သလောက်
သော်လည်းကောင်း၊
စေပြီး
▁မစ္စတာ
ခွင်
▁ဘုတလင်မြို့နယ်
ကွယ်
ဟင်း
▁ဟဲ
စတာ
▁ဘန်
နောက်ပိုင်းတွင်
ခြင်းမှာ
▁ကျွန်တော်
အမ်
▁ထီ
▁အသုံးပြု၍
▁အစည်းအဝေး
▁နောက်ဆုံးတွင်
▁ဆင်း
ပြု၍
▁လူမှု
ရမည်းသင်းခရိုင်၊
ပြုပြင်
▁သစ္စာ
▁မြောက်ဘက်တွင်
အူ
လက်ရာ
▁အင်္ဂလန်
ရွှေကျင်မြို့နယ်
▁သူတို့သည်
▁မကြာမီ
▁တည်ထောင်ခဲ့သည်။
နင်
▁ခါ
▁ဆွဲ
များတွင်လည်း
▁၁၉၈၅
▁ထိုအ
ပူဇော်
အစု
▁ကွန်ဟိန်း
တွေဟာ
သက်တမ်း
ခွံ
▁ဘုန်းတော်ကြီး
▁၁၉၉၄
မင်းကင်းမြို့နယ်
ရအောင်
ရွေးကောက်ပွဲတွင်
ဆောက်လုပ်
ton
များထဲတွင်
လိုသော
▁ယခုခေတ်
ဖွား
အများအပြား
▁တော်ဝင်
ဒေ
ဟူသည်
ကြွ
▁တိုးမြှင့်
ပမာဏ
son
▁ဘာသာရပ်
ပြီးသော
ဥပမာ
▁အနှစ်
ဖန်တီး
▁ဝန်းသိုမြို့နယ်
▁ရို
တို့အတွက်
▁ကဝမြို့နယ်
လုပ်ငန်းများကို
▁ယင်းတို့
▁ဆည်
ရှန်
▁ဓာတ်ငွေ့
▁အရှေ့ဘက်တွင်
▁ရင်း
▁ပူဇော်
▁မိုင်းပန်
▁Taw
ကလပ်
▁ကြေညာ
▁ဘောလုံးအသင်း
ကျူ
▁ဒဏ္ဍာရီ
မသိ
မွှေး
▁စားသုံး
တိုင်းပြည်
ဖြစ်ရာ
▁ကိုင်း
လွှဲ
▁ရာသီ
နိုင်လေသည်။
▁ကချင်
▁ခံစား
နေသည်ကို
ပန်းချီ
အဖွဲ့ချုပ်
▁အသုံးပြုနိုင်
သူများက
▁စာချုပ်
ဘုတ်
ခဲ့တဲ့
▁ကနေဒါ
win
တတ်ကြသည်။
၁ဝ
▁သူ့ကို
com
▁၅၆
▁မို
▁စေ
▁အထိမ်းအမှတ်
မရွာ၊
▁De
▁သထုံမြို့နယ်
စင်း
▁စဉ့်ကိုင်
▁မြောင်း
▁ဆေးပညာ
ရှာဖွေ
03
▁နမ္မတူမြို့နယ်
▁ရေခဲ
ထုပ်
▁လိုအပ်သော
ဂ်
▁မိုင်းလား
ဖွင့်လှစ်ခဲ့သည်။
▁ခေါ်တွင်
ကျုံ
▁စဉ်းစား
▁အန္တရာယ်
▁ထိပ်
▁လေကြောင်း
▁အယ်ဒီတာ
▁ဧ
▁၁၉၇၃
▁ခမည်းတော်
အကြီးဆုံး
▁ထုတ်ဝေခဲ့သည်။
▁တောင်တန်း
▁အလွယ်တကူ
ရန်နှင့်
စ္စ
▁ကြိုတင်
▁ဝတ်ဆင်
▁ကော့ကရိတ်ခရိုင်
▁ဝန်ထမ်း
▁၇၀
ဘား
ကြောင်းကို
အချင်းချင်း
မ္မ
poem
▁နိုင်
▁မီးရထားလမ်း
▁မြေအောက်
အပြီး
▁အဆိုတော်
ဆံ
▁၇၅
▁ကိုရီးယား
▁နာမည်ကျော်
ဝန်ကြီးချုပ်
မစ်
အင်္ဂလိပ်
▁ဖွဲ့စည်းခဲ့သည်။
ရှိသည်ဟု
▁မသိ
ထိန်းသိမ်း
▁ကုသ
ချန်
ium
▁တပ်ဆင်
ထဲမှာ
▁ဖျက်ဆီး
▁ဖက်
▁ပျမ်းမျှ
ဆီသို့
ထမ်း
အဖြစ်ဖြင့်
ng
▁အမြစ်
▁မယ်တော်
▁ခွင့်ပြု
▁အရသာ
နော
လက်နက်
▁မရှိပေ။
▁သကြား
▁ပျံ့နှံ့
ကြောင်း၊
▁မက်မန်းမြို့နယ်
ဝေါဟာရ
▁လောင်း
များဖြစ်သည့်
▁ဟော့ကိုင်းဒိုး
သတ္တု
▁ခံခဲ့ရသည်။
▁ကျင်းပခဲ့သည်။
▁ရွှေဘိုမြို့နယ်
က္က
ဟဲ
ဖြစ်ပေသည်။
▁အစရှိသော
▁အခြေစိုက်
ခံယူ
▁အမျိုးသမီးများ
▁လွတ်မြောက်
▁အသံထွက်
15
အဖွဲ့အစည်းများ
▁လူမျိုးစု
ထံတွင်
▁ပေါက်ရောက်
တိန်
အကျိုး
70250
▁တစ်ဆင့်
▁နွေရာသီ
မောက်မယ်မြို့နယ်
ဥက္ကဋ္ဌ
▁နှလုံး
▁သဘောတူညီချက်
ကွာ
▁ကျိုက်မရော
ခဲ့ကြလေသည်။
▁လက်ရာ
▁ဘုရင့်
▁ဖိုး
▁လို့
▁ဇာတိ
▁ဘော
▁သင်း
▁အကြံပေး
▁မျောက်
▁ထိန်းချုပ်
−
▁ဒုက္ခ
▁ယော
▁မျက်နှာပြင်
▁လက်ထပ်
▁အာဖရိကတိုက်
လက်မ
ant
ဂျာနယ်
▁ဒေါ
လှူဒါန်း
▁တံတားဦးမြို့နယ်
ဧရိယာ
ကီး
▁ညွှန်ကြား
တစ်လျှောက်
▁ငလျင်
),
▁Sa
▁ယောက်ျား
▁နယ်ချဲ့
▁ဗိုလ်ချုပ်ကြီး
▁မူရင်း
▁ဆက်ဆံရေး
ကုန်၏။
ထားကြသည်။
X
ဆိပ်ရွာ
▁့
▁ကန့်ကွက်
ဒေါ်
နိုင်စွမ်း
▁ဝဲ
▁ဆွမ်း
ရာဇဝင်
▁နေ့ရက်
▁သာစည်မြို့နယ်
▁ကိုလည်း
ကွန်း
ပျက်စီး
ရွာသစ်ရွာ
▁အားထုတ်
▁ထောက်ပံ့
သော်လည်းကောင်း
ik
မှုန့်
▁ဥရောပတိုက်
▁ဗီ
တစ်ခုတွင်
လျှောက်
▁အနောက်ဘက်တွင်
များရှိသည်။
ဂါးရွာ
▁သပြေ
▁ဇီး
▁၂၀၀
လျက်၊
▁ကျော်ကြား
▁စာတမ်း
▁ချုပ်
▁နှစ်ခု
▁မကွေးမြို့နယ်
▁•
▁ကောင်စီ
▁စေတီတော်
ဖုန်း
ဆိုက်
▁အမ
ဆော်
▁Shwe
အနီးတွင်
li
တောင့်
▁အစားထိုး
လက္ခဏာ
▁တောင်ကိုရီးယား
စန်း
လေရာ
ဘန်
▁ဒေသအခေါ်မှာ
အုံး
တင်မြှောက်
▁ဗိုလ်မှူး
▁ရည်ရွယ်
▁အဆောက်အဦး
▁ရောက်လာ
ခြင်းခံရသည်။
▁အချက်အလက်
▁တင်သွင်း
သင်ကြား
အရေအတွက်
▁လေကြောင်းလိုင်း
▁နားဖန်းမြို့နယ်
ဂီ
▁အပ်
တုန်း
▁ကျေးလက်
▁ပေးပို့
▁၁၉၇၁
ခြုံ
ခု၊
▁ပြည်သူ
တော်ကြီး
▁ဟင်း
▁ဖြစ်သော်လည်း
▁ဂျ
▁ဗိုလ်မှူးကြီး
နိုင်ငံများတွင်
ဆိတ်
°
ကြို
ရတ်
ရှေး
▁သီး
ရာ၊
▁မိတ္ထီလာ
▁Thar
▁၅၁
▁ကျေး
ဒီမိုကရေစီ
ကျောင်းသား
▁၂၀၂၁
ပါဝင်သော
▁တစ်ခုဖြစ်သည်။
အနေအထား
▁ဂျာမနီနိုင်ငံ
ကွယ်လွန်
သိုက်
▁ဆက်ခံ
ထော်
ဒီပဲယင်းမြို့နယ်
▁စတုတ္ထ
▁စတင်၍
များထက်
▁ဂြိုဟ်
သွားပြီး
းကျေးရွာအုပ်စု
ကြံ
▁ပြန်လာ
▁သေနတ်
▁ပလောင်
▁ဆိတ်
ဒု
▁ဗာ
▁ဟုခေါ်သည်။
▁ဆိုလိုသည်။
▁၁၉၈၃
နီးပါး
▁To
ယဉ်
ကြသည်
ပါတယ်
ပေးသည့်
တို့ကိုလည်း
▁ပယ်
နန်းတော်
▁လျှောက်
▁အသုံးပြုသော
▁ပုဂ္ဂလိက
▁အမြဲတမ်း
▁ကျွန်
ခွဲခြား
▁တောင်ဘက်တွင်
နေကြသည်။
▁မောင်း
နောက်ပိုင်း
ဦးစီးဌာန
များကဲ့သို့
နေခြင်း
13
▁ပြောကြား
▁၅၈
▁မောင်းထောင်
▁စစ်ဆင်ရေး
▁တို့ဖြစ်သည်။
ဇန်
▁ပုဏ္ဏား
▁၁၉၈၆
ဗဟို
တို့ဖြစ်သည်။
ထန်
နမ်
▁ဓာတုဗေဒ
▁အရေအတွက်
▁ဘဝဇာတ်ကြောင်း
နိုး
စစ်တပ်
▁ရှမ်းပြည်
▁အသေးစိတ်
▁၁၉၃၈
▁တူးဖော်
14
▁ဆားလင်းကြီး
▁နန်းယွန်း
သည့်အတိုင်း
▁သဘောထား
▁မုန့်
ဒိုင်
▁ဤသို့ဖြင့်
ရပြီး
ကျောက်စာ
ပြွန်
သိမ်းပိုက်
▁အကျယ်
▁Kyauk
▁ဖြတ်သန်း
▁အယ်
▁စောင်း
ကြပ်
ကျင်းရွာ
▁ယာဉ်
▁ဧရိယာသည်
နိုင်ငံတော်သမ္မတ
▁အရှေ့ပိုင်း
ချီးမြှင့်
စစ်ဆေး
ဆိုသူ
▁မိုးနဲမြို့နယ်
တီထွင်
တွင်းသို့
အဓိက
ဒေး
▁ကော့သောင်း
တစ်ခုမှာ
de
ပုံ၊
စွမ်းအင်
▁ကလေးမြို့နယ်
▁အဆင့်မြင့်
ဘယ်
▁ဝတ်
▁မြို့သစ်
ထဲက
ဩ
▁တင်း
ဘီး
▁ကောင်းမွန်
ရက်တွင်
▁ကွင်း
▁၁၉၇၉
▁ဖား
▁အလေးချိန်
▁ကိုယ်စားပြု
ရှူး
▁ဖြေရှင်း
ရွေး
▁ကဲ့သို့
မှုဖြင့်
▁ပြိုင်ပွဲ
သား၊
ဒေသ၊
▁မည်သို့
ကမူ
▁နှုတ်
ယုံကြည်
▁ခရစ်နှစ်
နိမ့်
မဟုတ်ဘဲ
▁ဥပမာအားဖြင့်
▁အကူအညီ
25
▁ဦးဘ
lo
ဒစ်
ရင့်
▁စာမျက်နှာ
ရမ်
▁တီး
▁ကြီးမား
နိုင်ငံတော်
▁ကြီးမားသော
ရှန်း
▁မီးရထား
ပုန်း
▁သီရိ
ဘုန်း
လာခြင်း
ive
ဖြစ်သောကြောင့်
▁ပြည်မြို့နယ်
▁ငါ့
▁၁၉၃၆
▁အစားအစာ
▁အချို့က
▁ရှား
ဇာတိ
▁ကမ်းရိုးတန်း
လေးရွာ
▁ဟိ
▁Me
အချက်
လိုက်လေသည်။
တွေ့ရ
▁နောက်ဆုံးဘဝ
မြောင်း
ရပ်ကွက်တွင်
▁အကောင်အထည်ဖော်
▁အာသဝေါကုန်ခမ်း
ဆက်သွယ်ရေး
ဆွေးနွေး
▁ဖြစ်တော်မူ၏။
တိုင်းတွင်
▁သိမ်းယူ
▁တိုက်တွန်း
နည်းဖြင့်
ဗစ်
▁မွေးချင်း
▁အသုံးပြုခြင်း
ian
▁ဗဟိုကော်မတီ
ကွေ့
24
005
▁ပထမအကြိမ်
နိုင်ခဲ့
▁များတွင်
ter
▁သာသနာတော်ရှိ
▁́
11
ပုဒ်
ပြတိုက်
▁ရည်ရွယ်ချက်
_
ဆိုလျှင်
▁အနေနှင့်
▁ယနေ့ခေတ်
▁ဖွားမြင်သည်။
ထားပါသည်။
ary
ရှ်
လမ်
ဒက်
▁Ah
▁လှည့်လည်
▁အစား
အမြင့်
အထူး
မူကား
ကျသော
ရိုးရာ
▁ရွေးကောက်
▁မဟာမိတ်
▁ပုလောမြို့နယ်
▁လက်ပန်
ကိရိယာ
▁မြစ်ဝကျွန်းပေါ်
▁ပုသိမ်ကြီး
မှာတော့
▁လယ်ယာ
နမ့်ခမ်းမြို့နယ်
▁ငါန်းဇွန်
▁ဇီဝ
▁ချီတက်
▁အဖွဲ့အစည်းများ
လာကြ
▁ယေဘုယျအားဖြင့်
▁ယင်းကို
များဖြစ်ကြသည်။
21
▁ကွယ်လွန်ခဲ့သည်။
▁သတိ
ရောက်ရှိ
▁နိုင်ငံများ
▁ဂုဏ်ပြု
▁စည်းရုံး
လော်
▁ပင်စည်
▁ထားရှိ
▁ဘဏ်
သဘာဝ
နေသူ
နယ်ပယ်
အဖွဲ့၏
ဖြေ
ကာလတွင်
▁ဝတ္ထုတို
ကဲ့သို့ပင်
▁သပိတ်
▁Ye
ဆူး
▁ယင်းတို့၏
16
▁ကူးစက်
▁ဦးနှောက်
ဖွင့်လှစ်
▁တစ်ကြိမ်
▁အရာတော်မြို့နယ်
ငံ
▁ဆင်းရဲ
▁ဂျာမနီ
▁အနု
ရှိကြောင်း
အမျိုး
စာတမ်း
▁အရေပြား
များအပြင်
ရိပ်
▁အယူအဆ
အိတ်
▁ပိတ်
▁ငယ်
မှုအတွက်
▁တစ်ဖက်
▁အက်တမ်
▁ကော်မရှင်
▁အနိုင်ရ
သော်၎င်း၊
▁အရွယ်အစား
▁ညီ
ပြည်သူ့
▁နန်းတွင်း
▁နာမည်ကြီး
ပ္ပ
ကျင့်
▁အခွန်
ရီးယား
တစ်ခုအဖြစ်
ထိန်
▁ကျဆုံး
▁ထောက်
▁နှင့်အတူ
မှား
ဝဂ်
▁ထွက်ပြေး
ထိုင်း
▁ပုလဲ
▁ထားဝယ်
ဝန်ထမ်း
များအပေါ်
▁အကြိမ်ကြိမ်
▁ပိန်း
နှင့်စပ်လျဉ်း၍
▁ကံမမြို့နယ်
ရှောင်
▁ထမင်း
ငြိမ်းချမ်းရေး
ဒဏ္ဍာရီ
▁ဘို
ကျန်း
▁အောင်မြင်စွာ
▁from
နန္ဒ
▁တူရိယာ
ပင်း
▁လက်ထောက်
ဆိုတာ
▁နေရာတွင်
▁အရက်
ul
▁ရူပဗေဒ
မရှိသော
ရန်း
ကျွန်းရွာ
▁မန်း
▁စိုးရိမ်
များသာ
▁လက်မှတ်ရေးထိုး
▁၁၉၆၆
တွင်ရှိသော
ရှိပါသည်။
ဒေါင်း
တွေမှာ
▁တွက်ချက်
▁တီးဝိုင်းများ
▁တွေ့ရှိရသည်။
တွေနဲ့
လျှံ
▁အဖြူရောင်
ထားခြင်းဖြစ်သည်။
▁စခန်း
▁ခုနှစ်အတွင်း
▁ပြန်ဆို
▁သင်္ကန်း
စော်ဘွား
အလယ်ပိုင်း
ဇာတ်ကား
ရှိခဲ့သည်။
▁ကော
sh
▁ဟူ
▁တေ
▁ရောက်သောအခါ
ဝဝ
ဆိုသည့်
▁သံမဏိ
ူ
အင်္ဂါ
စေ၏။
▁19
▁၅ဝ
▁သရက်ချောင်း
▁၁၉၇၆
▁အခမ်းအနား
▁၁၉၇၈
▁ခန္တီးခရိုင်
အမည်ဖြင့်
ကျန်းမာရေး
သရ
▁ဥပ
▁၁၉၈၁
▁ကွန်ယက်
စလုံး
▁တေး
ကျောင်းတွင်
ရှိသော်လည်း
▁ဆိုသော
▁၁၉၈၄
ခဲ့သည်မှာ
ဘုရားထက်ထက်
တို့သည်လည်း
ဖယ်
▁သုံးသပ်
▁ဂုဏ်
▁တဦး
နော့
▁ငယ်ဘဝ
လိန်
▁ပိုင်ဆိုင်
▁ပေါ်ထွက်လာ
အချိန်တွင်
▁ပျူ
▁အစိုးရအဖွဲ့
ha
▁ဆင်ပေါင်ဝဲ
▁၇။
aung
▁ကူး
ak
▁Al
▁လွတ်လပ်သော
ထွန်းကား
▁X
land
▁ပတ္တမြား
▁လက်အောက်ခံ
▁၁၉၃၇
တ္တ
သူ၊
ပွ
▁သမ္မတနိုင်ငံ
ပိုင်ရှင်
ဒဲ
▁တော်လှန်
▁စိစစ်
▁မု
▁မှတ်ပုံတင်
လေ့ရှိ
အုံ
▁သင့်
ဂျစ်
ဂျင်
သိက္ခာပုဒ်
ပူး
▁ကျောက်မီးသွေး
ခြင်းတို့ကို
ا
နိုင်မှု
▁ဘုရားကျောင်း
▁ကလေးခရိုင်
▁စပ်
▁ဝင်ငွေ
ကာကွယ်
▁ကိုလိုနီ
▁ကြံစည်
▁ကိရိယာ
နိုင်ရန်အတွက်
▁ဩစတြေးလျ
စပါး
▁ဘုရားရှင်
မင်း၏
အဖွဲ့သည်
ကမ်းခြေ
▁ပြင်ပ
မိန်းမ
▁အစ္စလာမ်
ကာကွယ်ရေး
age
သူဖြစ်သည်။
သီလ
ခြင်းမှ
▁ညှိနှိုင်း
မရှိဘဲ
ဟွေ
▁မီးလောင်
ဟ်
▁မီလီယံ
▁အဆုံးသတ်
မဖြစ်
▁အချင်း
12
ဒေသများတွင်
ဇံ
▁စသည်
▁၁၉၄၄
နွား
▁၁၉၈၂
▁ကုန်းဘောင်ခေတ်
ရွတ်
▁မွေးဖွားသည်။
ရွန်
အယ်
အောင်မြင်ခဲ့သည်။
▁ဖြန့်ချိ
ဠ
ရပါသည်။
ပျော်
▁ချန်
ဆွ
▁ဘဝနိဂုံး
ies
ငါ
အမှု
ဆုတ်
မျဉ်း
be
နိုင်း
▁နည်းပါး
နိုင်ကြောင်း
ထမ်းဆောင်ခဲ့သည်။
ဇီး
အစိုးရက
▁ဤကဲ့သို့
▁အင်္ဂါ
ဒဏ်
ထုတ်ဝေ
▁ကွယ်လွန်သည်။
စာရေးဆရာ
22
▁အစိုးရ၏
ကိုင်းရွာ
▁ရှေးက
ဂဏန်း
we
▁ရရှိသည်။
▁ငရဲ
သဘင်
လျား
ဒေဝီ
pe
ဖုံး
ဟတ်
mo
ရှိန်
▁မြေပြင်
ရုံးစိုက်ရာမြို့
▁ကပြ
▁တိုကျို
“
ရွေးကောက်ပွဲ
▁တန်ခိုး
သာရ
▁အလားတူ
လိမ်
▁၆၄
04
▁ဝေါမြို့နယ်
▁ဆရာဝန်
▁ဧရာဝတီ
တပ်များ
op
ခုံး
▁ကုန်သွယ်ရေး
▁အကြား
ဖြစ်နေ
▁လူ့အခွင့်အရေး
ut
▁မျက်
လုပ်ကိုင်ခဲ့သည်။
စီမံ
စေ၍
▁အမြောက်အမြား
▁ခင်ဦးမြို့နယ်
▁ကျွမ်းကျင်
▁ရုတ်တရက်
▁ဓနု
ခြမ်း
တတ်၏။
▁လမ်းကြောင်း
ရသူ
ဖြစ်စဉ်
▁၂ဝဝ
စတန်
▁ပင်မ
ate
နှစ်ပါး
ပြုပြင်ပြောင်းလဲ
နှင်
များသည်လည်း
▁စည်းကမ်း
များနှင့်အတူ
▁ရိုးရိုး
▁ချီဖွေမြို့နယ်
▁ထုတ်လွှင့်
တ္ထ
007
▁`
မံ
▁နိဗ္ဗာန်
အီး
▁စာအုပ်များ
▁ရေကန်
▁ပြေး
စို
ဒေါ့
▁တောင်း
▁အဓိကအားဖြင့်
▁မင်းဘူးမြို့နယ်
▁နီ
▁၁၉၄၀
ကိုပါ
သရက်
ထားတဲ့
ွ
▁သင်္ကေတ
ကျေး
▁တစ်စတုရန်း
ချက်များကို
ment
▁တံခါး
▁w
▁သရက်မြို့နယ်
ိက
▁ဘိန်း
▁ထိုင်
▁ရှေးဦးစွာ
▁ကာဗွန်
▁သမဂ္ဂ
ကိုးကွယ်
▁စိတ်ဓာတ်
▁နို့
ကိ
စွယ်
လူထု
စစ်ဆင်ရေး
▁ရတနာပုံ
▁အရည်အသွေး
▁အယူဝါဒ
▁ပါရှိသည်။
တို့လည်း
▁မလေးရှား
▁ပညာရှိ
ဋ
▁ဖေါ်ပြ
ပျော့
ထီ
လုံကျေးရွာအုပ်စု
ချယ်
နေတဲ့
ကွေး
▁၁ဝဝ
ပိန်း
ကီလိုမီတာလျှင်
▁ရာဇ
ya
▁ဖွင့်
▁တို့မှ
no
▁အာရုံ
ပြည်နယ်၊
▁ရေတပ်
ထည့်သွင်း
ကျွန်းဆွယ်
▁အခြေခံဥပဒေ
▁လွန်ခဲ့သော
▁ဆောင်းပါးများ
▁အင်္ဂလန်ပြည်
တွေ့ရှိ
▁အစွဲပြု၍
ပစ္စည်းများကို
▁၁၉၇၇
▁မြို့နေလူဦးရေ
▁Ga
လူငယ်
ပုပ်
▁ရင်းနှီး
▁ဗြဟ္မာ
ဂ္ဂ
ပါဝင်သည့်
▁အပင်များ
လမ်းစဉ်
▁ဌာနချုပ်
▁မွေးမြူ
▁ရွေး
▁လူမျိုးများ
01
များပေါ်တွင်
ရမည်ဟု
05
▁သိပ္ပံပညာရှင်
▁ဒေါင်း
▁ကသာမြို့နယ်
▁လက်ပံ
လှုပ်ရှားမှုများ
▁လူနာ
▁ဘုရင်ခံ
▁ယင်းတို့ကို
ပင်ရွာ
တန်းရွာ
▁မော
စွမ်း
ကွမ်းလုံမြို့နယ်
▁သူက
ပညာရပ်
io
ယုတ်
ရော်
ဆရာကြီး
▁ကိန်း
မှန်း
ရှိလေသည်။
▁ထိခိုက်
▁သို့ဖြင့်
▁ကာတွန်း
▁ထိုအချိန်က
▁ညီလာခံ
မြို့ဟောင်း
▁Mo
go
တွင်းရှိ
▁ထားဝယ်ခရိုင်၊
ဝေဖန်
နေရာမှ
ကျင့်သုံး
▁နန်းတက်
အပြီးတွင်
▁၁၉၃၅
လာ၍
ယွန်
မြောင်
▁ကန့်ဘလူခရိုင်
▁ဖွဲ့
အင်းရွာ
အသီးသီး
▁၄ဝ
▁တည်နေရာ
▁၁၉၃၀
▁၁၉၈၇
ge
အပင်
ဘီလူး
တယ်လို့
အိုင်ရွာ
▁Ra
နေရ
▁လူတို့၏
တစ်ခုဖြစ်ပြီး
တွက်
ပြို
▁မူလက
သမိုင်းတွင်
▁နိုင်ငံခြားသား
▁ဖောက်
နိုင်သဖြင့်
▁ဖလမ်းခရိုင်
ဆန့်ကျင်
နှင်း
▁မြေကြီး
အဖွဲ့ကို
▁သတ်ဖြတ်
▁အနေအထား
▁အရေးပါ
ဆုံးဖြတ်
စေး
နှံ
ပေး၍
တော်မူခဲ့သည်။
ot
▁ပြတိုက်
▁ကောင်းကင်
မှနေ၍
▁လောက်
▁ရေးမြို့နယ်
▁အဆင့်အတန်း
▁ကန့်
ဗင်
▁မီဒီယာ
▁တွေ့ရှိရ
▁စာကြည့်တိုက်
တစ်မျိုးဖြစ်သည်။
ကြုံ
▁လှည်း
ဆိပ်ကမ်း
▁Le
ယပ်
▁ကြသည်။
အံ့
▁ထွန်း
▁တစ်နှစ်လျှင်
နိုင်ငံသည်
တည်ရှိသည်။
ဆက်လက်
မကျ
▁အုပ်ချုပ်မှု
ခြင်းမရှိ
ac
ပြဿနာ
ကျွဲ
အစိတ်အပိုင်းများ
ကိုယ်စားလှယ်များ
ကာတွန်း
သာရွာ
ကြည့်ရှု
▁တိုးတက်လာ
ဗတ်
▁ပုသိမ်
26
စောက်
ဝကျေးရွာအုပ်စု
စီရင်
အတွင်းမှ
အဖြစ်လည်းကောင်း၊
▁မြန်မာသက္ကရာဇ်
▁နောင်တွင်
ဖြင့်သာ
လာလေသည်။
▁ဆံပင်
ပြဇာတ်
ဧက
▁ရေတံခွန်
စာရေး
မျိုးဖြစ်သည်။
ဖဲ
▁တိ
တက်ရောက်
▁ကင်
ဆက်ဆံရေး
▁လူဦးရေသိပ်သည်းဆ
▁ရော
▁သို့ဖြစ်၍
▁သာသနာတော်
co
တစ်ကောင်
တော်မူသော
▁သံဃာ
▁အလင်းနှစ်
▁ပလက်ဝမြို့နယ်၊
▁ရှေ့နေ
▁ဖြေ
▁ဆင်းသက်
အချို့ကို
မျက်နှာပြင်
သာသနာ
▁အခြေ
ဆက်သွယ်
▁လျှပ်စစ်ဓာတ်
▁ဖောက်လုပ်
▁Ha
▁ကြော်ငြာ
▁မြင့်
ကောင်းသော
▁တဆင့်
ဆိုသော်
ဆော့လော်မြို့နယ်
▁ရွှေကျင်
17
လိုက်သောအခါ
ke
မို့
▁ညနေ
▁လေ့ကျင့်
တီးဝိုင်း
mi
da
▁ရောက်ရှိခဲ့သည်။
တော့ဘဲ
▁ဆိုတာ
▁ရွှေဘို
ရှိနေ
▁တူညီ
ယှဉ်ပြိုင်
ခံရခြင်း
▁အဆီ
ကာလအတွင်း
သီဆို
ဘင်
ာက်
▁ဝိုင်း
▁နယ်ပယ်
▁m
▁အကြိမ်
အကောင်းဆုံး
တရာ
▁ငယ်စဉ်က
ဂေါ
▁ထို့နောက်တွင်
▁Li
ပွဲများ
▁အချိန်ကာလ
ကမ္ဘာ့
▁Nyaung
သျှ
ကုတ်
▁ကမ်းခြေ
▁လွှတ်
▁တောင်ကုန်း
ပြစ်
မြင်းခြံမြို့နယ်
▁လုပ်ကြံ
▁မိတ်ဆွေ
▁လုပ်ငန်းများကို
ခဲ့ဖူးသည်။
မျိုးတွင်
သာကျေးရွာအုပ်စု
▁ပြည်မြို့
▁အဝတ်
ခန်
▁မြို့၏
▁မယား
▁ခေတ်မီ
▁အမှန်
▁ဆိပ်ဖြူမြို့နယ်
လှူ
▁ရှု
▁၁၉၄၃
23
▁တံဆိပ်
သွားလေသည်။
ဘုန်းကြီးကျောင်း
▁ဂျူး
▁အတွေးအခေါ်
02
▁ကျင်
အုတ်
တည့်
ဟီး
▁နေထိုင်ကြသည်။
▁လက္ခဏာ
စေသည့်
▁အနောက်ပိုင်း
ဝရွာ
▁လှိုင်း
▁ပြည်သူလူထု
လင့်
▁လောင်
လူမျိုးတို့သည်
လိမ့်မည်။
လွတ်လပ်ရေး
ကက်
▁သိမ်
ဗုဒ္ဓဘာသာ
19
▁အတ္ထုပ္ပတ္တိ
▁ဟောပြော
မော့
▁လယ်ယာမြေ
▁ဒေ
▁၁၉၂၃
▁ပုဒ်မခွဲ
ခွ
ဂု
သိရှိ
ယွန်း
ကြီးများကို
10
ဟေ
▁New
▁ပါးစပ်
▁အစ္စရေး
မုန့်
▁ရပ်တည်
▁ဟောကြား
▁ကမ္ဘာပေါ်ရှိ
▁ပျက်
ie
▁အဖျား
ဘောလုံး
▁ဖွားမြင်ခဲ့သည်။
▁ဒိုင်
va
မြန်မာနိုင်ငံရှိ
35
ပွတ်
ဆွန်
▁ထုံး
စောင်
ချည်း
▁အိမ်ထောင်
ဟင်
ဒင်း
▁၁၉၂၀
ကောင်းမွန်
▁နုတ်ထွက်
▁ကဏ္ဍ
ကျော
▁ရောနှော
▁နယ်စပ်
နှစ်ယောက်
ချမ်း
▁ဆုံးဖြတ်ချက်
▁စိန့်
▁ချက်ချင်း
▁ဇီးကုန်း
▁အမှုဆောင်
ဝေါ
▁ပင်းတယမြို့နယ်
ဟူး
▁၈။
ကွမ်း
ကျရောက်
▁ခမိ
▁အလံ
▁ဆိပ်ကမ်း
ကူညီ
▁သဲဖြူ
သိုင်း
▁အစည်းအရုံး
အပေါ်တွင်
အမည်မှာ
▁ဖြစ်သည်
▁ပထဝီဝင်
▁ဘီး
ချောက်
▁လွယ်ကူ
▁တီးတိန်မြို့နယ်
▁အီတလီနိုင်ငံ
မီတာ
ဖြိုး
ဌေး
ပေါ်မှ
▁လွတ်
ကျိုင်းရွာ
▁၁၉၂၄
▁Mi
ခဲ့ရာမှ
အင်ဂျင်နီယာ
ဆုကို
▁အရှည်
နုတ်
မုန်း
သူမှာ
နိုင်မည်
▁ရေကြောင်း
ပိုမို
အလို
မူလ
▁ဂရီဂေါရီးယန်း
▁အမေရိကန်ဒေါ်လာ
ရောင်ခြည်
▁မြို့တစ်မြို့
▁လှ
သတ္တဝါ
ယင်
ရ၍
▁ပြုလုပ်ခဲ့သည်။
ခဲ့တယ်။
▁တို့နှင့်
ခဲ့သောကြောင့်
ညွတ်
▁ဗကပ
▁အက
▁ထိုဒေသ
▁အခမဲ့
စကားလုံး
▁မြိတ်မြို့နယ်
▁သခင်သန်းထွန်း
ကြီးမား
ပညာကို
▁တစ်နေ့
▁ဓာတ်ပုံ
▁ရုရှ
▁ထန်းတပင်
▁ပျံလွန်တော်မူ
ရသဖြင့်
ဝတီ
▁ကိုက်
▁အကျယ်အဝန်း
as
ကုသ
▁ဝါဒ
▁ရှည်
ကေး
▁၁၉၁၈
18
တို့ကြောင့်
သစ္စာ
▁သန်းခေါင်စာရင်း
▁စကားပြော
▁သားရေ
▁ကန်ပက်လက်
▁၉၀
ပြီးသည့်နောက်
ဘာသာဖြင့်
မာန်
▁အချက်အလက်များ
▁ပို့ဆောင်
▁10
▁အတွဲ
▁စဉ့်ကူးမြို့နယ်
▁အမည်ကို
▁လူတိုင်း
▁ပင်လယ်ရေ
များအကြား
▁ရောင်း
ခဲ့ရလေသည်။
ဖြာ
▁ပါဝင်ပြီး
▁အကြောင်းကို
▁လူသိများ
▁အိမ်ခြေ
အဖွဲ့က
ပြောက်
အန္တရာယ်
▁ပါရှိ
▁ဟောင်ကောင်
ပုံသဏ္ဌာန်
▁နှင်း
ဝန်ဆောင်မှု
31
အဆုံး
စင်တာ
▁ရုပ်ပွားတော်
ပေးပြီး
နူး
20
လေယာဉ်
▁ပျား
တက္ကသိုလ်မှ
▁အခု
အက
▁မတ်လတွင်
ရယူ
ခေတ်တွင်
▁ဂျေ
▁ရှိ၍
▁ခေတ္တ
လိမ့်မည်
ကြရန်
▁(2)
ညွှန်ကြားရေးမှူး
▁၎င်းတို့မှာ
om
သူတို့၏
ပြီးနောက်တွင်
▁ကြီးကြပ်
သန့်
များကိုသာ
ပြီ။
▁မြင့်မား
▁စီးပွား
ဂျပန်
▁အနီရောင်
▁လိင်
စိ
▁g
▁မြွေ
▁ယူဆကြသည်။
ကွဲပြား
ve
one
▁တူး
▁ဆန်စပါး
▁ယခုအခါတွင်
▁ပညာရပ်
▁ထောင့်
ခွင့်ရ
မြို့နှင့်
ခွင့်ပြု
ခွာ
ဘာသာရပ်
▁သော်လည်း
▁ရခိုင်ပြည်နယ်
ထွေ
▁စည်
▁ပေါ
▁ကြယ်စုတန်းမှ
▁စက်မှုလုပ်ငန်း
ကြွယ်
▁တောင်ပေါ်
နှစ်သက်
အင်းတော်မြို့နယ်
ပြက္ခဒိန်အရ
အခွင့်အရေး
သစ်များ
ကျီး
အစည်းအဝေး
▁အတိအကျ
▁(1)
နိုင်သည်ဟု
▁ဗန်းမော်
နည်းကို
30
▁ရဲ့
အသွင်
▁ခိုး
▁၅၉
ပေးခြင်း၊
ယုံ
ဗန်
▁တည်ဆောက်ခဲ့သည်။
▁အဖွဲ့ချုပ်
▁ပိုင်
▁အီး
▁ဒီဇိုင်း
▁တတိယမြောက်
ဓား
▁ဦးအောင်
▁တရားမဝင်
တဦး
▁နက်
▁ရှိပါသည်။
▁အလင်းရောင်
▁ဆဲ
pa
▁၎င်းတို့သည်
▁ထီးချိုင့်
▁ဆောင်း
သေဆုံး
▁အစောဆုံး
နေဆဲ
▁၅၀၀
▁ဣ
ခဲ့သေးသည်။
▁Na
▁သမိုင်းဝင်
ခုနစ်
နီးယား
ဒုံ
အတတ်
ပြုခြင်း
▁ထုတ်ယူ
▁စင်း
တိမ်း
ni
များအတွင်း
ဦးရေ
▁စီရင်
▁စင်
▁ပိုင်း
▁ကျီး
▁သူရဲကောင်း
ကိုလည်းကောင်း
▁နမ့်ဆန်မြို့နယ်
▁ကြည်
▁ဦးတည်
▁၎င်းရွာ
29
▁လိုက်ပါ
တစ်နှစ်တာ
▁အလိုအလျောက်
▁မင်
တစ်ဦးဖြစ်သည်။
သူများ၏
▁လင်္ကာ
▁ဆန္ဒ
▁မုံရွာမြို့နယ်
ကျွန်းလှမြို့နယ်
ထားသည်ကို
▁ခံရ
▁ဖလမ်းမြို့နယ်
▁ဆေးဝါး
▁ကျွန်ုပ်တို့
▁ဒိုင်း
▁တူးမြောင်း
▁နှစ်ဦး
ā
▁ဘုရားသခင်
ဘူး။
▁မရ
လို့၊
▁ဂလက်ဆီ
တယ်၊
သင့်သည်။
▁ထုတ်လုပ်မှု
ရှင်းလင်း
▁ရရှိသော
100
ခဲ့ပြန်သည်။
▁ပြောပြ
vi
▁ခရီးသည်
သူကို
▁ကားလမ်း
▁အဖြူ
▁သင်တန်း
စားသောက်
သူများအား
ရေတံခွန်
ဖြစ်ပါတယ်။
ပေါင်းစုံ
▁သဘောတရား
ဘေ
အဖို့
▁၅၄
အမတ်
▁အဆုံး
ဂါး
ဇို
▁are
▁ထိုအချိန်
▁မည်မျှ
▁နောက်ခံ
ပူးပေါင်း
▁လွှမ်းမိုးမှု
မှုများကြောင့်
▁ဖိုင်
လီး
ဆိုသော
ကချင်
▁ဗိသုကာ
▁ကိုယ်ခန္ဓာ
တွေ့ရသည်။
hi
ဂျက်
▁ချောင်းဆုံ
▁ဘဏ္ဍာရေး
▁(;
လွှမ်းမိုး
မှုမှာ
အမိန့်
ရိုက်ကူး
▁ဖွားမြင်
ျ
▁အောက်ဆီဂျင်
▁မိုးကုတ်
စသည်တို့
▁San
ဒတ်
▁ကလေးဝမြို့နယ်
▁ဘုရားကြီး
ကျက်
များစွာကို
တ္တာ
ပွဲတွင်
မှလည်း
▁ဦးနု
▁ဓာတု
▁လဲ
gyi
လာသဖြင့်
နပ်
ကြခြင်း
▁အမှန်တကယ်
ဘီစီ
▁၆၉
▁ပုံမှန်အားဖြင့်
▁ကျင့်
သူတစ်ဦး
▁ဟောကြားတော်မူ
▁နိုင်ငံရေးသမား
ညီနောင်
▁ကွမ်
မှော်
ကူးသန်းရောင်းဝယ်
▁ထူးခြား
▁တဖန်
▁ခုကို
ဆတ်
▁၁၉၂၂
▁၁၉၂၇
ဘွဲ့ကို
▁အဝေး
▁ပေါ်လာ
▁လူများ
▁ငါတို့
▁အထောက်အပံ့
▁ချောင်းဦး
ထား၏။
ယောက်ျား
▁ခေါ်သော
▁ပေါက်ကွဲ
ား
အတွင်းရေးမှူး
▁ဘော်
အဆိုတော်
▁မတူ
013
▁Yar
သေးသော
့်
▁ရုပ်မြင်သံကြား
▁ကု
▁သောင်းကျန်းသူ
▁လေယာဉ်ပျံ
နည်းပညာတက္ကသိုလ်
▁ကယ်လီဖိုးနီးယား
အက်စ်
▁ချိတ်ဆက်
▁ပေါ်တူဂီ
▁ကျယ်ပြန့်
အလင်း
▁၁၉၂၈
▁သန့်ရှင်း
▁ဒြပ်စင်
▁ယနေ့တိုင်
လုပ်ငန်း၊
နည်းလမ်း
▁အကြံ
မည်း
▁ခက်ခဲ
▁ကိုင်
▁Se
▁ကလောင်
▁ပေါ်တွင်
▁မဖြစ်
▁ကျိုက်
လောက်တွင်
ဟုတ်
▁၆၇
em
▁အမရပူရမြို့နယ်
▁စက်တင်ဘာလတွင်
▁နှစ်အရွယ်
နယ်တွင်
▁ဂို
သူ့
▁၃၀၀
▁ပုန်ကန်
▁အထောက်အထား
ပေါင်းစပ်
▁ရင်ဆိုင်
▁အခေါက်
တိမ်
▁သတ်မှတ်ထားသော
နိုင်မည့်
▁မုန်တိုင်း
ist
ی
ပင်လျှင်
▁သရ
▁စတင်တည်ထောင်
ဲ
East
▁စိတ်ဝင်စား
▁အနံ့
▁စင်စစ်
မဟုတ်သော
▁အချို့မှာ
အထက်တန်းကျောင်း
ကုံး
▁ရေဖြူမြို့နယ်
နားလည်
ig
လုံးကို
ဓာတ်ငွေ့
ဒုက္ခ
ကြွေ
▁ပူတာအိုမြို့နယ်
▁အသုံးပြုသူ
▁ပထမဆုံးသော
ဒီဂရီ
▁အနား
ပင်ကျေးရွာအုပ်စု
▁နတ်ရွာစံ
▁မိမိကိုယ်ကို
yun
▁မျက်လုံး
▁လော
▁e
မခံ
▁ရှင်းလင်းချက်
▁ကျူးကျော်
▁ရှိသည့်
နိုင်ကြ
▁လော့
စွန်
way
ချွတ်
▁အချိန်ဇုန်
စေကာမူ
နေကြောင်း
စံနစ်
▁ကချင်ပြည်နယ်
ity
တစ်ခု၏
မြှင့်
▁နယူး
▁ညီတော်
▁မိုးညှင်းခရိုင်
နံပါတ်
os
▁တခြား
▁အခက်အခဲ
▁အကြီးအကဲ
▁သော်
▁မေးမြန်း
ဖျက်ဆီး
နည်းပါး
အမည်ကို
သပြေ
37
▁စာလုံး
▁အမျိုးမျိုးသော
တလျှောက်
တစ်ထောင်
ညီလာခံ
ကြော်
▁တံခွန်တိုင်
ငွေ့
auk
အိန္ဒိယ
▁တင်ပို့
▁အများစုမှာ
ဖောင်
▁အဘယ်
ထူထောင်
ပွဲကို
ဖီး
▁ဒေသဆိုင်ရာ
အစိုးရအဖွဲ့
ပို၍
▁အထည်
▁အဘယ်ကြောင့်ဆို
▁ကုန်စည်
▁အကွာတွင်
ဌာနချုပ်
▁လျင်မြန်စွာ
ဈေးကွက်
▁ဝေး
▁တရုတ်ပြည်သူ့
27
▁လက်နက်ချ
▁လျှပ်စစ်ဓာတ်အား
▁အီဂျစ်နိုင်ငံ
▁စာမေးပွဲ
▁အရာဝတ္ထု
တစ်ဦးဖြစ်ပြီး
▁၁၀၀၀
အဆောက်အအုံ
▁ပွဲတော်
▁၉။
▁စွပ်စွဲ
သုံးသပ်
▁Bu
▁ဆက်လက်၍
ဒါယကထေရ်
▁အသုံးပြုခဲ့သည်။
▁ဘုရင့်နောင်
စုစည်း
အများ
နိုင်သော်လည်း
ကွန်ပျူတာ
▁မြန်မာနိုင်ငံ၌
▁မြက်
ဘွဲ့ခံ
ခေါ်ဝေါ်
ကျွန်
ရှေးဟောင်းသုတေသန
▁သိမ်း
ခြင်းတို့ကြောင့်
▁ဟူသည့်
▁အတွင်းတွင်
▁အောက်တွင်
▁Da
တစ်ဖက်
င်္ဂ
▁ဂျို
▁ရွာသစ်
့စ်
ah
ချေး
bo
▁စည်း
▁အများစု
▁အနီး
▁အသည်း
ငို
▁ပေါက်တော
▁ပြည်တွင်းစစ်
▁မော်တော်ယာဉ်
▁ပြည်သူများ
စွာဖြင့်
ကြိုးစား
▁သီပေါမင်း
သုတေသန
06
able
▁ရှိသေးသည်။
▁ထူး
▁အဖြေ
▁အမြောက်
ငါးပါး
▁တပ်မဟာ
မကောင်း
▁မျိုးစိတ်
သို့ရောက်
ကော်မရှင်
▁တီးခတ်
မှုန်
▁အဘိဓာန်
▁ကတ်
▁ဖြစ်သွားသည်။
▁ဘုရားရှိခိုး
▁သမင်
အရည်
▁သစ်တောများ
▁၆၅
▁ဒေသတွင်း
▁အရေးကြီး
ရာခိုင်နှုန်း
▁ပရိုဂရမ်
▁ဗြိတိသျှတို့
ယူ၍
ကြီးက
နောက်ဆုံး
▁ပစ်ခတ်
▁စိတ်ကူး
တစ်ကြိမ်
ခပ်
လာခဲ့
စာအုပ်များ
န္ဒ
tha
▁ဖြစ်စေ၊
▁ဆောင်ရွက်သည်။
များကလည်း
08
သုံးပါး
▁ခန်း
ism
▁ဂယ်လက်ဆီ
▁ပြည့်နှစ်၊
မျက်
သူအား
▁ယမ်း
နေသဖြင့်
တပ်ရင်း
ကြိတ်
▁တရားရုံး
▁၁၉၁၁
ခဲ့ဖူး
▁at
▁အနောက်နိုင်ငံ
07
ဧ
ပြုတ်
▁သင်ကြားပေး
▁ပြား
ချဉ်
▁ပိုက်
▁ရဟန်းတော်များ
▁အာကာသယာဉ်
▁သိုး
ပဲ့
လက်မှတ်
ကိုယ်ပိုင်
မျှင်
တွေရဲ့
လေ့ရှိသော
ပွန်
▁ဆောမြို့နယ်
▁ပြီးစီး
▁မူပိုင်ခွင့်
နိုင်စေရန်
▁ကျောက်တန်း
တို့နှင့်အတူ
▁ချို
မျိုးသည်
▁သံတမန်
စုတ်
Dagon
မင်းသည်
ဟုခေါ်သော
▁အတိုကောက်
▁မဟုတ်ဘဲ
ဒမ်
လူမျိုးတို့
▁ပထမဆုံးအကြိမ်
▁Myoth
▁ကြေးနီ
▁Ho
တစ်ခုတည်း
ထိန်းသိမ်းရေး
▁မက္ကဆီကို
▁ဂဏန်း
အလံ
ဆော့
▁ဖျက်သိမ်း
▁စေတုတ္ထရာ
မတိုင်မီ
ငလျင်
▁၁၉၂၁
ip
▁ကျော
est
▁ဗဟုသုတ
▁အဖိုးတန်
▁ဟုခေါ်သော
မြူ
ru
▁အချစ်
ခေါင်းဆောင်များ
▁လူတို့သည်
ကြည့်လျှင်
▁ရသေ့
ပြဋ္ဌာန်း
▁အောက်ခြေ
▁နာဂကိုယ်ပိုင်
ဆင်းရဲ
▁တောင်သူလယ်သမား
၁၀၀
▁ဘုတ်ပြင်း
▁ဩဇာ
▁၁၉၂၉
ub
အစာ
▁၁၉၁၇
▁ဖရူဆိုမြို့နယ်
ပြန့်
▁အနှံ့အပြား
ဦးဆောင်
တင်သွင်း
ဝိုင်
▁ခရီးစဉ်
▁ဂျာနယ်
▁လူဦးရေမှာ
▁၁၈၈၅
ရေးအဖွဲ့
▁ဖက်ဒရယ်
▁လာအို
ဇု
▁၁၉၂၅
မြို့သစ်မြို့နယ်
သဘောတရား
ယန်ရွာ
▁မရမ်း
မွေးဖွား
နေရာကို
▁ကုန်ဆုံးရန်
ထုံ
▁တွေ့မြင်
ပေးပို့
▁သဖြင့်
▁စစ်မှုထမ်း
▁မြို့ဟောင်း
▁ညောင်ပင်သာ
ကွန်ယက်
▁ကျက်စား
ပုဂံ
▁ဂျုံ
▁ချည်
နိုင်သည်
▁မှို
ka
ပါတ်
▁လူကြီး
▁အကောင်
▁အဆက်အသွယ်
ထန်း
▁သီဟိုဠ်
▁Be
ခဲ့ပြီး၊
▁ကွဲပြားခြားနား
စိုင်း
ရာဇ
တစ်နှစ်တာ၏
▁စော်ဘွား
▁ကွယ်လွန်ချိန်
▁လယ်ယာစိုက်ပျိုး
လှပေသည်။
▁အဆောက်အအုံများ
▁သရုပ်ဖော်
မြန်
▁စက်မှုလက်မှု
တရားရုံး
ညင်း
▁ဂန့်ဂေါမြို့နယ်
ဟူ၍လည်း
▁အကျိုးသက်ရောက်
▁များနှင့်
ပါသည်
▁သက်တော်
▁Mar
▁၆ဝ
▁၁၉၁၉
အပေါင်းတို့
ကျိုင်း
▁Ya
▁ယူနက်စကို
▁ထွက်လာ
▁နိုင်ငံခြားရေး
▁ဆက်ဆံ
▁စိုး
▁အာဆီယံ
▁Ku
▁စုံစမ်း
▁လေးစား
▁မောင်းနှင်
▁ဂျက်
ဖော်ထုတ်
ပေးအပ်
▁မြန်မာတို့
ခီးရွာ
တူရိယာ
နှီးမြှုပ်နှံမှု
▁နိုင်ငံရေးပါတီ
▁မြို့ရိုး
ဓိ
▁အသိ
▁အနောက်မြောက်
လိုက်နာ
▁ထင်ရှားသည့်
အကျင့်
▁War
ရိပ်သာ
▁မြန်မာလူမျိုး
▁ပြောင်းရွေ့
▁အလုပ်အကိုင်
ဒယ်
မျှော်
▁ဖွံ့ဖြိုးရေး
the
ညှင်း
ချောင်ရွာ
ရုပ်တု
▁သိပ္ပံပညာ
ခူ
ရာသီဥတု
▁မချမ်းဘော
▁သေချာ
▁သူရိယ
ဟိုင်း
လောကတွင်
လူမျိုးတို့၏
▁ဒသမ
▁ဒေါ်ခင်
▁ဟာသ
▁အရွယ်တွင်
▁နိုင်ငံသား
ဖွံ့ဖြိုး
▁မံ
ဲ့
▁အတိုင်းအတာ
အခြေစိုက်
▁အဆောက်အဦ
008
နှင့်ဆိုင်သော
လျှော့
▁အာမခံ
နေပြည်တော်
Ma
▁ကြယ်စုတန်း
လာရာ
မြုပ်
ကန့်
သောင်းကျန်းသူ
▁တားမြစ်
▁ရီ
di
▁၅၃
=87
▁Lu
▁ခန့်မှန်းခြေ
ဇ္ဇ
09
တယောက်
▁မော်တော်ကား
ရာ၏။
ပုံပြင်
▁သနပ်ပင်မြို့နယ်
▁အဆုတ်
ကြိုက်
သည်ဟုဆိုသည်။
▁ထိပ်တန်း
မှတ်သား
▁ဒီလို
တစ်ရပ်ကို
မျိုးဆက်
▁ကျုံး
▁လမ်းစဉ်
▁အင်္ဂလိပ်စာ
▁ယင်းအား
▁ရှင်သန်
▁အော့
▁အလှ
သင်္ကေတ
▁ချီးကျူး
▁ဆုံးရှုံး
▁Y
ဝံသ
ပြင်းထန်
▁Di
န္
သက်သက်
တစ်ခုခု
ဖြစ်ပေါ်လာ
minor
ကျူး
▁ဘား
▁ဝေဒနာ
အားကစား
▁ဆုံး
▁ဌာပနာ
▁ဖော်ပြထား
ဝန်းကျင်
▁လူကြိုက်များ
အသား
▁Myo
ho
▁သီအိုရီ
လိုအပ်
▁အနီ
ဝယ်ယူ
▁သဘာဝပတ်ဝန်းကျင်
အမှုထမ်း
▁Aung
▁ပညတ်တော်မူခဲ့
မွေးမြူရေး
45
ဆန္ဒ
▁စည်းမျဉ်း
▁ဂါ
ရေကန်
▁နန့်
ချ်
သမားများ
ဘန်း
ကျောင်းများ
▁အချိန်တွင်
▁အနာဂတ်
▁Ch
▁ချုပ်ဆို
▁ရန်ပုံငွေ
▁တိရစ္ဆာန်များ
ဌ
▁သခင်စိုး
ကွ
ဌာနခွဲ
▁ပြာ
▁Windows
▁World
▁ဖားကန့်မြို့နယ်
▁ဥက္ကဋ္ဌအဖြစ်
သူအဖြစ်
န္တ
▁ထွက်ခွာ
အရှေ့ပိုင်း
701501
ခဲ့ကြ၏။
▁လက်မှတ်
ထုတ်လုပ်မှု
▁သပိတ်မှောက်
▁၁၅၀
▁လှပ
▁Vi
▁လောင်းလုံး
▁ပါသည်။
▁ဘီလူး
ထက်ပို၍
ဖြစ်ခြင်း
ခဲ့ရပြီး
လင်္ကာ
▁အသက်မွေး
▁ဘိုးတော်ဘုရား
▁မေလတွင်
လေတော့သည်။
▁ဟူသည်မှာ
ရရှိသော
▁ဟိန္ဒူ
ခြင်း၏
▁ဆည်းပူး
▁လှူ
▁အခြေခံပညာ
▁မဟုတ်ပေ။
▁ဝိန်းကောင်
▁ဖွံ့ဖြိုး
▁ဖြစ်ရပ်
▁ဦးရွှေ
ထားခဲ့သည်။
လုံခြုံရေး
▁၆၁
701502
၂ဝ
▁လဟယ်မြို့နယ်
ခံရသော
ညက်
စကားကို
ဆော
▁ခရု
သွားလာ
စာရင်းတွင်
ဖွံ့ဖြိုးရေး
ခန်းမ
▁မတူပီမြို့နယ်
▁လှံ
017
▁အွန်လိုင်း
▁ယခုတိုင်
▁ဆင်ခြင်
▁အမှတ်အသား
40
နေခဲ့သည်။
စီစဉ်
မျိုးစိတ်
▁လွတ်လပ်
▁တစ်ခုတည်းသော
▁အကျဉ်း
▁အစ်
▁တဲ
ပလ္လင်
ဟော်
▁ပေါင်းစည်း
မြို့ပေါ်ရှိ
▁အောက်တိုဘာလတွင်
▁ထို့
းရွာ
▁ရထားလမ်း
▁တောက်
▁ဦးထွန်း
▁တောင်အာဖရိက
▁နောင်အခါ
▁စစ်ဘက်
▁မင်းတပ်ခရိုင်
▁အပ်နှင်း
ကျွန်းစုမြို့နယ်
▁ပညာသင်
▁လူပေါင်း
▁ပစ္စည်းများကို
012
do
နေ့တွင်
▁သာသနာရေး
ကျဲ
▁အရှိန်
လာရောက်
ချီး
မြန်မာ့
အော့
▁ဖြစ်သဖြင့်
▁အု
▁ကနေဒါနိုင်ငံ
တွင်သာ
▁အိုလံပစ်
▁ပြောကြားခဲ့သည်။
ကြူ
နှုတ်
သမုဒ္ဒရာ
▁တစ်ပါး
မီဒီယာ
28
▁ထားဝယ်မြို့နယ်
▁အမည်ပေး
▁Do
▁ကန့်သတ်
ဝံ့
▁ဘုန်းကြီး
▁အောင်ဆန်း
လောက်အောင်
ရသ
ငွေကြေး
ထုတ်ပြန်
ပြီးသောအခါ
ဥပ
ပေလိမ့်မည်။
စုစုပေါင်း
▁ခွဲ
ဂရက်
အသုံး
ခမ်းရွာ
▁ရေကျော်
▁ရှောက်
ဖလား
▁အမှတ်တံဆိပ်
▁သံဖြူဇရပ်
▁တံ
▁ထုတ်ပေး
▁ဖွား
ရာဇ်
▁ကျေးဇူး
▁ဝင်ရောက်လာ
ပတ်ဝန်းကျင်
▁၁၉၁၄
အစိတ်အပိုင်း
သီချင်းများ
ပြည့်စုံ
ပါရှိသည်။
ite
▁were
▁သီချင်းများ
ဘို့
▁Ne
အမည်ရှိ
▁အနံ
▁လိုင်
▁ခုခံ
▁Wa
▁ဩ
ဗီး
ပေးနိုင်
▁ညောင်ကုန်း
ဆရာဝန်
▁ပြဋ္ဌာန်းချက်
▁ခေါ်ယူ
ပင်များ
ဗမာ
▁ရခဲ့သည်။
▁ယင်းတို့သည်
လျှပ်စစ်
▁အနားယူ
▁နျူကလီးယား
ယှဉ်
▁ပြင်းထန်
▁၁၉၁၂
▁ဖြစ်ပြီး၊
▁တစ်နိုင်ငံလုံး
မရွေး
သန
အချက်အလက်များကို
▁တွေ့နိုင်သည်။
တုန်းက
!
▁နှိုင်းယှဉ်
▁ဆို၏။
ညှိ
အယူအဆ
▁ရန်ကုန်မြို့၊
ဖြစ်လျှင်
အစည်းအရုံး
▁ပေးခဲ့သည်။
▁ရှားပါး
လျော့
▁ခရုပတ်ပုံစံ
လိတ်
▁အရည်အချင်း
ဝှက်
သိုး
မှိုင်း
▁ဖူ
ဆုံးသော
▁ပတ်သက်သော
နေ၍
36
▁ဥစ္စာ
▁ထင်း
▁ရွာသစ်ရွာ၊
ဂန့်ဂေါခရိုင်၊
▁စေတနာ
33
▁အိုင်ယာလန်
လျှက်ရှိသည်။
ထားကာ
▁မန္တလေးခရိုင်၊
ဝါဒီ
ကျောင်းတိုက်
▁သစ်သီး
▁စမ်း
▁စာဆို
▁လင်ဟော်မြို့နယ်
▁အကြောင်းမှာ
သူတို့သည်
ဒေါ်လာ
▁နိုင်ငံတော်၏
ရမည်ဖြစ်သည်။
▁ရစ်
စမ်းသပ်
တွင်း၌
▁ခန္တီးမြို့နယ်
ကြကုန်၏။
▁ဝိဇ္ဇာ
များကိုပါ
ထားရာ
လှည်း
▁မှတ်ချက်
▁အဝါရောင်
▁ရက်လုပ်
▁ကြပ်
နာစောင့်ထိန်းရန်
ဗို
▁ဖော်ပြခဲ့သည်။
ခရီးစဉ်
▁၁၈၈၆
▁စောင့်
▁ဂေါ်
ကြီးနှင့်
ဇော
ပေမယ့်
ဗူး
ide
▁ကျူးလွန်
ကြချေ။
▁ရှောင်
လည်ပတ်
▁ဂျော့
▁အမတ်ကြီး
▁၆၂
▁ရှေးဦး
ဝိဇ္ဇာ
▁ကွန်ရက်
မုံ
မည်ကို
▁သိက္ခာ
ဘာသာပြန်
နိုင်ခဲ့ပြီး
▁လုပ်ပိုင်ခွင့်
ချိတ်
▁ရဟန်းသည်
သူများမှာ
တစ်စု
ထောင်း
ှ
ca
▁ကေအင်န်ယူ
▁အကြောင်းရင်း
▁ယုံကြည်မှု
သူက
▁ဗြ
▁an
▁ရေချို
အဆို
▁၁၉၃၁
နတ်ဘုရား
လူဦးရေ
▁လားရှိုး
ဒေသရှိ
ရာနေရာ
int
▁အိုက်
ခါးရွာ
တုန်
ကွတ်
တောင်ပေါ်
ဗေး
ကြပေ။
▁၅၇
▁ဖြစ်စဉ်
▁အဝ
အများစု
သည့်အခါတွင်
▁ဆုံ
▁မြင်းခြံ
▁ခန့်ထား
စာလုံး
လိုက်ပါ
မောင်မောင်
▁ပုဂ္ဂိုလ်များ
ကုန်သော
တစ်ခုလုံး
▁အီလက်ထရွန်
မိုးမိတ်မြို့နယ်
▁၁၉၁၆
လှုပ်
▁ရွေ့လျား
▁ကမာ
▁ဇွန်လတွင်
နှစ်မျိုး
▁အစဉ်အလာ
ဒေါက်တာ
အာရုံ
အကြားတွင်
▁စပိန်နိုင်ငံ
ခုံရွာ
▁မြတ်စွာဘုရားအား
အနီးရှိ
▁ကျန်သေး
▁မကောင်း
▁စိုးစံ
oke
ဂဲ
အစိုးရ၏
▁တောင်းပန်
▁ပြစ်ဒဏ်
▁အခါတွင်
မိနစ်
▁ဟင်္သာ
▁ခံတပ်
ဇိ
▁လယ်သမား
ဂင်
ကမ်းရိုးတန်း
▁ကျိုက်ထို
▁တိမ်ကောသွားသည်။
▁စာပေဗိမာန်
မြို
▁(3)
▁ဖောင်
ဗျ
ထားရှိ
▁ဦးဆောင်သော
▁သည်လည်း
▁အရေးပေါ်
ဟိုး
▁သက်ရှိ
im
▁အလယ်ခေတ်
မိခင်
နို့
ထိန်းချုပ်
▁လွိုင်
▁ဝီလျံ
အသီး
34
သေးပေ။
လိမ့်မည်ဟု
ရှိသဖြင့်
▁လက်အောက်တွင်
con
▁ဘဲ
နိုင်သူ
ဝိဟာရ
▁ငါသည်
ခူး
နိုင်ငံမှ
အကြောင်းအရာ
▁သူဌေး
ပိုင်ခွင့်
▁ရေကို
ခေတ်က
▁ရုပ်ရှင်ဇာတ်ကား
▁တစ်ခုကို
▁ကေအိုင်အေ
▁အလို
ကျောင်းသားများ
▁အမည်တွင်
▁လောကီ
သုံးခု
▁ရွှေကူမြို့နယ်
▁အနေ
▁အရေးအသား
ညောင်ပင်
▁ဆုတောင်း
▁နှစ်အရွယ်တွင်
▁ချိန်
သွားရာ
သုခ
▁ပုဒ်
▁အမိန့်တော်
▁Pe
ဒေသမှ
▁ကာမ
မေတ္တာ
▁အလောင်းမင်းတရား
▁နိုင်ငံပေါင်း
▁လက်ယာ
မည်ဖြစ်ကြောင်း
▁မိန်းကလေး
▁ဒီဇင်ဘာလတွင်
ပိန်
▁အစီရင်ခံစာ
မိမိ
▁Chan
ရွှင်
▁ကျွန်းစု
▁တချို့
▁စပ်ဆို
▁International
▁အံ
▁ဆက်တိုက်
မျာ
=76
▁ရှားတောမြို့နယ်
ရိုင်
ဂိ
ပြီးသော်
▁သူတစ်ပါး
▁ဟီ
▁ဒေသများ
နေပြီ
အရင်း
ကျုံး
အမ
ပုလဲ
ဒီပ
▁တွန်းဇံမြို့နယ်
▁ကာကွယ်ဆေး
ကထောင်ရွာ
စိမ့်
▁အိမ်ထောင်စု
စွန့်
les
▁တတ်
အပေါင်း
ley
▁အစရှိသည့်
=73
စွပ်
▁ဩဂုတ်လတွင်
ခဲ့သည်ကို
နှင့်လည်း
▁ဘူး
ထာ
▁အမည်ရင်းမှာ
▁၄၀၀
▁Ri
▁အနော်ရထာမင်း
းဦးကျော်လှ
▁တုတ်
သွားခြင်း
▁ဦးဘိုး
နံရံ
▁ထုတ်ဖော်
▁တခု
မြီး
အသံထွက်
▁ရက်၊
▁pro
▁သီ
စကားပြော
▁၁၉၂၆
▁ထိုသူ
▁စွန့်ပစ်
▁ရန်ကုန်မြို့၌
32
▁တည်ရှိနေ
စိုင်
▁ဂိုး
▁ရုက္ခဗေဒ
44
ပေါ်ပေါက်လာ
▁ရဟန်းပြု
နေရာ၌
▁အာဏာပိုင်
ဥရောပ
ကွန်မြူနစ်
ခံရပြီး
▁ရုပ်တု
▁ပရိ
ကလေးများကို
▁ပြန်၍
▁၁၉၃၂
ခန့်အပ်
လမ်း၊
Re
ကြားတွင်
နိုင်ပေ။
သူကြီး
▁ပိတ်ဆို့
▁ဒေါသ
မိုးကုတ်မြို့နယ်
▁အတိုက်အခံ
▁ကုန်သွယ်မှု
▁စောင့်ကြည့်
▁200
▁ပျော်
ကျွန်းစု
ဆက်ဆံ
တန်ဆာ
▁အသက်ရှူ
▁ဖာပွန်ခရိုင်
▁country
ကြဲ
ကြပါတယ်။
ညှပ်
bi
▁ဖြစ်နိုင်သည်။
▁ဗြိတိသျှအစိုးရ
ခံစား
▁ရှီ
▁အမည်မှာ
▁ညွှန်ကြားချက်
▁ယွန်း
နယ်စပ်
50
▁Microsoft
▁သောင်
sa
▁ထိုခေတ်
▁ကြေညာခဲ့သည်။
▁လျှာ
▁ကျွန်တော်တို့
▁ဘေးအန္တရာယ်
▁အငြိမ်းစား
▁အတ္တ
ထောက်ပံ့
အဖွဲ့မှ
ရာမ
ပါဘူး။
▁မူလတန်း
▁တုံ
▁အဘိဓမ္မာ
▁ချဉ်းကပ်
▁ကျန်းမာ
▁အမေရိက
ယခင်
▁အစဉ်
စွ
▁တွက်
စေရန်အတွက်
▁တို့ဖြစ်ကြသည်။
မြစ်သည်
ဒါရိုက်တာ
▁ရုပ်သံ
စက်များ
tab
▁နေရာများ
တော့ပေ။
▁မြေထဲပင်လယ်
သိက္ခာပုဒ်၊
▁မှတ်ယူ
▁၎င်းတို့ကို
▁St
မုန်
▁သက်ဆိုင်
▁ဖမ်း
လှောင်
▁ထိန်
အပူချိန်
အမှန်
ပြီးဆုံး
အင်ပါယာ
▁အင်းစိန်
awng
▁မြေပုံ
နဂါး
▁ကျောင်းတော်
▁သာယာကုန်း
ကိုလိုက်၍
▁သက်သာ
▁သထုံ
▁Tan
အယူ
ဖမ်းဆီး
တူညီ
မြှောင်
▁တောင်ယာ
▁ရှယ်ယာ
▁တည်ထား
စို့
▁အိပ်မက်
▁နှိမ်နင်း
▁ကောက်ယူ
များပါဝင်သည်။
ခံရသူ
ရရှိသည်။
ကြီးမှာ
▁မဖြစ်နိုင်
tu
▁အသွင်
▁သုတ်
▁ခွင့်ပြုချက်
▁လမ်းပန်းဆက်သွယ်
ငန်း
ပွန်း
မြောက်ဘက်
အမြင့်ဆုံး
▁သွင်း
ကျမ်းကို
နယ်နိမိတ်
▁ခြင်္သေ့
▁သားဖြစ်သူ
▁အဖိုး
သစ်ပင်
▁၇၃
သစ်ကို
အိုက်
ထားရသည်။
▁ရှင်း
အများစုသည်
တတ်သူ
ပေါ်ပေါက်
▁ကမ္ဘာ့အမွေအနှစ်
ခြည်
၌သာ
လိုက်လျှင်
မ္
▁ဟေ
▁ပေါင်မြို့နယ်
▁သတ္တုတွင်း
▁ဟင်နရီ
ပမာ
▁Pan
▁ရှိသည်ဟု
010
▁နောက်ဆက်တွဲ
▁ကုသိုလ်
▁အကွာအဝေး
သလဲ
ပျို့
ထောက်ခံ
▁ကြောက်
ထရီ
အဖွဲ့တွင်
ba
▁ဇော်
▁အီရတ်
▁နေအိမ်
▁မစ်
အရပ်တွင်
လာစေရန်
▁Th
▁ဖိအား
▁ဗမာ့
▁လုပ်ဆောင်ချက်
အဖွဲ့များ
လာလျှင်
▁ကညင်
▁Myanmar
ကြကုန်
▁သတ်မှတ်ခဲ့သည်။
ယာမ
▁ခွဲစိတ်
▁ဖြစ်ကာ
▁ကြွေ
=65
▁ကျဆင်း
အထွေထွေ
▁ထီးလင်းမြို့နယ်
ပြည့်နှစ်
ကြရလေသည်။
ဇိုင်း
▁ကောင်းသော
▁အကြောင်းအရာများ
▁ဖြူ
▁လန်
▁တင်မြှောက်
▁မော်ကွန်း
38
▁ဒီမိုကရက်တစ်
▁ကိုင်တွယ်
နေကြသော
▁နို
▁ဆွီဒင်
မျော
َ
စိပ်
▁ပိုင်းခြား
▁China
▁ကြွက်
▁ကနဦး
ထုတ်ယူ
လဲ့
သူများနှင့်
ကိုယ်စားပြု
▁မြို့စား
701503
အနေနဲ့
▁အရင်
ရကား
မြတ်စွာဘုရား
▁အာနန္ဒာ
စရိတ်
စုဆောင်း
ဇွန်
ပညာရှင်များ
ဂျင်း
ဘောလုံးသမား
ဇူ
တာဝန်ယူ
▁ခေါင်းလောင်း
ကျမ်း၊
▁သတ်မှတ်ထား
ပြီဟု
ယမ်
▁ဖိ
ဝရ
ဟွန်း
▁Java
▁Po
▁ကျမ်းဂန်
တတ်သည့်
▁ထိုခေတ်က
39
▁ဘင်္ဂလား
ရသည်
▁တုံး
▁ဆိုသူက
▁ထေရဝါဒ
▁ကမ္ဘာကျော်
▁University
▁အလျောက်
▁Ro
▁အတူတကွ
▁Pyin
ပင်သည်
မှုရှိ
ရွာမ
ner
▁နိုင်ငံများတွင်
ရှီး
သားတော်
မှလွဲ၍
ပတ်လည်
ငင်
42
▁အမေ
မပြု
ure
▁ဖယ်ရှား
▁ရေးထိုး
တော့ချေ။
ရွယ်
ဉ္စ
ပြင်သစ်
တပည့်
ap
▁မူဝါဒ
လေးပါး
▁ဘူ
▁ထီးနန်း
▁Mong
တွယ်
▁ထူးချွန်
▁လက်ဖက်
▁နမ်
ကွမ်
အကြိမ်
တာဝန်ထမ်းဆောင်
▁၆၆
%)
ခဲ့ကြသော
▁အကယ်ဒမီ
ဦး၊
▁အက်ဆစ်
တော်မူ၍
မိတ်
ကျော်ကြား
▁အရှေ့တောင်ဘက်
မွတ်
ကောင်စီ၏
▁သေးငယ်သော
စာစောင်
တစ်မျိုးကို
▁သဒ္ဒါ
ဘုရားကြီး
ဇုန်
▁အဖြစ်အပျက်
အာရှ
▁ဧပြီလတွင်
ting
▁အသုံးအနှုန်း
ကြေညာ
▁အရေးယူ
နှ
သို့သော်
▁ရလဒ်
▁အခြေခံ၍
▁Te
ထင်ရှားကျော်ကြား
▁မိုင်းလင်း
▁ပြင်းထန်စွာ
တော်များ
နေရာများ
▁စသဖြင့်
han
▁သိမြင်
uk
▁ကွယ်လွန်သွား
▁၁၉၀၀
ဘုရားကျောင်း
▁Gu
လာကာ
▁အကြောင်းပြု၍
▁ပဲခူးရိုးမ
▁ပယ်ဖျက်
မထား
ဖိ
▁ဝယ်
▁အိမ်နီးချင်း
▁ဖျော်ဖြေ
စန်
▁အပြည့်အဝ
▁ပန်းပု
▁pop
ဗလ
▁အစိမ်းရောင်
ပုံး
ဒုံး
ခံတပ်
▁အပူပိုင်း
▁သတိပေး
▁ကြိမ်မြောက်
▁ကျောက်တိုင်
အောင်း
သောအခါတွင်
=77
ster
မည့်သူ
▁အတွေ့အကြုံ
▁Pang
▁ခဝ
▁Nan
ယောင်း
▁ယို
▁မြို့ကြီး
he
ok
တို့အကြား
▁ဝိနည်း
ရင်းမြစ်
ပြောကြား
တဘူတာ
ဟိန်း
▁ကြားခံ
▁ဒေသများတွင်
မလာ
ယမ်း
ရေးမှူးချုပ်
▁မောက်
▁အကျင့်
▁သောင်း
လာ၏။
▁ယုံကြည်ကြသည်။
▁Si
ပထမဆုံး
▁အတ္တလန္တိတ်
ဟုခေါ်
▁၁၉၁၅
ရသေ့
▁ထန်တလန်မြို့နယ်
ဗုံး
အရသာ
▁သိမ်းဆည်း
သမဂ္ဂ
ရပြန်သည်။
ကျဆုံး
ဂျေ
▁ဆိုး
နိုဘူတာ
▁တူရကီ
ကြောက်
ကိုယ်စား
အလုပ်သမား
ကြပေသည်။
▁သတ္တဝါများ
▁စီမံခန့်ခွဲမှု
▁စီမံခန့်ခွဲ
47
အရပ်၌
မည်သော
▁ဒေါင့်ကြီး
▁အာဏာသိမ်း
▁ကျမ်းစာ
▁မုန်း
ပလာ
▁တစ်လ
▁အရှေ့မြောက်ဘက်
▁Pro
▁ရည်မှန်းချက်
▁မော်လိုက်
ဓလေ့
ခွါ
▁ကေအင်န်ဒီအို
▁ပါကစ္စတန်
▁ကျူ
ဖြေရှင်း
ခဲ့လျှင်
▁ပို့ချ
ခဲ့သူဖြစ်သည်။
ခြင်းမပြု
▁ကုန်သည်
▁ဖမ်းယူ
▁ထောင်ဒဏ်
▁အမရပူရ
သင်ယူ
▁ရေတွင်း
▁ဆွေ
တစ်စင်း
လန့်
▁စုံ
သက်သာ
▁ပိတ်ပင်
▁ယှဉ်
Bot
လွင်ပြင်
▁ထိုမှ
▁တာဝန်ခံ
ပျို
▁ဗြိတိန်နိုင်ငံ
▁မဟုတ်ပါ။
လှန်
▁မရှိချေ။
▁သေးငယ်
အကျဉ်း
▁ပြစ်မှု
မော်ရွာ
ပါဝင်ပြီး
တာကို
▁ပေပင်
▁ကွမ်းခြံကုန်း
မျိုးနွယ်
မပေး
▁ဦးစွာ
▁ကော်ပိုရေးရှင်း
နေ၏။
ရ။
▁ဆောင်ရွက်ရန်
▁အန်း
▁Group
စက
လေ့ရှိပြီး
006
နူ
မှောက်
▁ချိုး
ဏာ
လှသဖြင့်
▁လွှမ်းခြုံဧရိယာ
▁web
▁ထိုအချိန်မှစ၍
လာခဲ့ကြသည်။
—
အရေးအသား
▁ဓ
▁တူညီသော
▁ကေအင်န်ယူပါတီ
မြှုပ်
▁အကြမ်းဖက်
▁ပြိုင်
▁Pu
ေန
▁အဋ္ဌကထာ
▁မွတ်
▁ခွန်
သွားသောအခါ
▁သုံးနှစ်
▁ရတု
အယူဝါဒ
▁လက်ရှိတွင်
မြင့်မား
နိုင်ငံရှိ
▁စကားကို
▁An
▁အသင့်
lan
နှဲ
▁သက်ဆိုင်သော
အလွှာ
မျိုးမှာ
စွမ်းရည်
▁တစ်ဦးဖြစ်သည်။
ခဲ့ချေ။
▁စွဲ
▁ဟတ်
▁For
▁ပဉ္စမ
နိုက်
▁အားကစားကွင်း
▁သဘင်
▁တစ်ခါ
▁ရှိသော်လည်း
▁တိုးတက်မှု
ရိတ်
▁ခြားနား
စီရင်စု
များပြား
der
မယား
ဉ်
အခမ်းအနား
ထံ၌
အမျိုးမျိုးကို
▁ဖတ်ရှု
နေသည်ဟု
▁၁၉၆ဝ
▁နာဂ
po
ခဲ့ကြရာ
ည်း
အရှည်
▁ရခိုင်ပြည်
မရှိပေ။
အုပ်စိုး
နှစ်ဖက်
du
ပါပဲ။
▁ဒူး
ဖွဲ့စည်းခဲ့သည်။
ဖူးသည်။
ကြည်း
ဖေါ်ပြ
▁နိုဝင်ဘာလတွင်
▁မောင်မောင်
ထပ်မံ
ဆန့်ကျင်ရေး
▁ဒိုး
▁ညာ
▁လွယ်ကူစွာ
▁ဘုရင်မ
လျ
လိမ့်
ဩဇာ
ဖြစ်ရပ်
ရပေမည်။
▁အရှေ့မြောက်
▁အရေးကြီးသော
နည်းတူ
ရပေသည်။
▁တို့ပါဝင်သည်။
မပါ
▁ခေါင်းဆောင်များ
▁it
ကြိုင်
▁co
ကွီ
▁ခြေထောက်
ဗက်
မှုတ်
ဇွန်း
▁ကမ္မ
ဆရာမ
ပေးရ
▁အတွင်းရှိ
▁မိုက်
ဖြန့်ချိ
▁များပြား
▁ကယ်
သည်ကား
▁လက်တင်
စီးဆင်း
▁သမဝါယမ
နေရာသို့
hu
▁ဓာတ်ဆီ
နိုင်ရေးအတွက်
▁အစောပိုင်းတွင်
▁မွေးစား
▁5
▁သရက်တော
▁ငန်း
cha
ပြည်နယ်၏
နားရွာ၊
အရပ်ရပ်
=72
နေတတ်သည်။
အစိုးရသည်
▁မြန်မာစာပေ
နာဂ
လူသား
▁ဂေါ့
ရခြင်းမှာ
▁စွန့်လွှတ်
▁အပြောင်းအလဲ
▁စတုရန်း
ဒေသများ
▁ရွာတစ်ရွာ
In
▁နှစ်မျိုး
အကြီးအကဲ
▁သက်သေ
▁Car
လျှောက်ထား
▁ဆယ်စုနှစ်
ish
South
▁မတ္တရာမြို့နယ်၊
▁အော
ငဲ့
▁အသုံးပြုရန်
▁လန်ဒန်မြို့
ထွင်း
▁မီးရှို့
နိုင်ပါတယ်။
▁လက်ဆောင်
▁ဆိုတဲ့
▁စာနယ်ဇင်း
é
ပုံအခြေခံဥပဒေ
▁ဖြစ်သောကြောင့်
▁ရာစုတွင်
နေချိန်
တလင်း
▁ရေနွေးငွေ့
lu
▁နှစ်ကြိမ်
▁ရန်ကုန်သို့
မတူ
လွမ်း
▁အောက်ပိုင်း
▁သမာဓိ
တမျိုး
ji
▁ရေတွက်
▁ကာတာ
▁ထူးခြားသော
▁၁၀။
▁ဘုန်း
ခွဲ၍
ထုတ်လုပ်ရေး
ကတော်
▁တေးဂီတ
သဘောထား
ဖြစ်တဲ့
▁အိန္ဒိယပြည်
စေခြင်း၊
▁အထက
▁ပင်း
အစ်
▁ခွဲထွက်
41
▁အဆိုအရ
ဟုန်
မြှောက်
▁ဘယ်လို
▁မိဘများ
တပ်ဆင်
တစ်ချောင်း
▁စံပြ
▁မြင်းမူမြို့နယ်
တစ်ဆူ
▁နန်
မှအပ
▁၁၈၉၆
လာသည်ကို
▁ဖို
▁အသက်ရှင်
si
▁ပိဋကတ်
▁ဖခင်ဖြစ်သူ
ဂွ
သွားရောက်
▁ရက်နေ့မှ
ai
▁သယ်ယူ
▁Ar
▁စစ်သား
သားတို့
မယ့်
▁မကျီး
▁အရုပ်
▁ဆတ်
မနေ
က္
ell
စစ်ဌာနချုပ်
ပြန်လေသည်။
▁အခွံ
▁ဆိုလေသည်။
▁စွမ်းအား
▁ထို့အတူ
▁ဖြစ်ပေါ်စေ
▁Sin
IA
နေး
per
▁နှစ်တွင်
▁တောခို
▁မည်သူ
gon
ဂျို
▁ရုရှားနိုင်ငံ
▁အသံလွှင့်
▁ကုန်းမြေ
စားသုံး
ဝေဒနာ
နိုင်၍
လက်ရှိ
မျက်စိ
သွားသည့်
▁ကွာ
အောက်ပိုင်း
ဝတ်ဆင်
▁ကျောက်တုံး
▁ဆင်နွှဲ
ဆဲလ်
▁တွင်လည်း
▁လျှင်
သက္ကရာဇ်
နှစ်အရွယ်
▁ပျောက်
အပြစ်
စူး
မင်းလက်ထက်
ဘုန်းတော်ကြီး
စာဆို
လျှော
▁အရင်း
တကာ
အသုံးချ
▁အမွှေး
ဆိုရင်
ဇာတ်လမ်းတွဲ
စေနိုင်သည်။
ဦးစီး
▁အပြင်းအထန်
နှင့်ပတ်သက်ပြီး
ဒေဝ
▁လက်မခံ
ပြီးစီး
/&
▁၁၉၁၃
▁ပဋိပက္ခ
▁not
▁အမြန်
▁ခြိမ်းခြောက်
▁ရှေးအကျဆုံး
▁လှိုင်
ရာတွင်လည်း
▁သိသာ
▁တိုက်ခိုက်မှု
▁ဦးကျော်
▁ဟုတ်
တိုက်ခိုက်မှု
▁အဆောင်
ဧကရာဇ်
သီအိုရီ
▁တရားသူကြီး
ဋီကာ
▁စည်ကား
နှောင်းပိုင်း
▁ပထမကမ္ဘာစစ်
ချိုင့်
စေလွှတ်
ကျီ
ဒါန
▁အတွင်း၌
▁ညောင်ဝိုင်း
mer
▁ဖု
သူများအတွက်
▁တားဆီး
▁သိကြားမင်း
▁ဆန်း
=68
▁ဆုံးမ
မလေး
▁ဝန်းကျင်
တက္ကသိုလ်တွင်
▁ခရမ်း
ရှက်
▁ငယ်စဉ်ကပင်
ဗ္ဗ
▁ရောဂါပိုး
ဟမ်
▁ကြေးနန်း
စက္ကူ
▁ဝူ
ချုံ
တွင်လည်းကောင်း၊
ပျံသန်း
လာအောင်
▁တစ်ခုခု
သေနတ်
▁ဖြစ်ကြ
▁အစု
မပျက်
မရှိ၊
▁ညဉ့်
▁ဆိုလို
တွင်ပင်
▁ထိုစဉ်
ဒီဇိုင်း
ရာစုနှစ်
တစ်ရာ
ဆွမ်း
▁လူတန်းစား
စိတ်ဓာတ်
သေချာ
=64
▁မိဖုရားကြီး
▁ကိုလိုနီခေတ်
▁Z
သွန်း
▁ဒဏ်ရာ
▁ကုက္ကို
▁သယ်ဆောင်
ခေါ်ဆို
‡
▁ဇူလိုင်လတွင်
▁Ywar
တစ်လျှောက်တွင်
ပေးခြင်းဖြင့်
တစ်ဦးအဖြစ်
ရေးသားခဲ့သည်။
၃ဝ
သင်္ကန်း
မှုတွင်
▁မြေး
စာကြည့်တိုက်
ထွတ်
ous
ကြပြန်သည်။
ပြုကာ
▁ပခုက္ကူ
▁တိမ်
▁စာစောင်
အနား
▁အယ်လ
▁တက္ကသိုလ်မှ
မကျေးရွာအုပ်စု
▁ခုနှစ်များတွင်
▁ပက်
ပါစေ
▁လိုက်၍
▁ပုန်း
▁အစာအိမ်
နေလေသည်။
▁ပါဝင်သရုပ်ဆောင်
ထားသည်
ကျဆင်း
▁ထိန်းသိမ်းထား
▁ဖေဖော်ဝါရီလတွင်
▁ကိုက်ညီ
▁ကမ္ဘာစစ်
ဇေယျ
ရလျှင်
ach
ဟုန်း
အကူအညီ
▁ရုပ်သိမ်း
အတည်ပြု
▁နှောင်းပိုင်း
▁ဆပ်
လူငယ်များ
▁ကျယ်ပြန့်စွာ
▁ကမ္ဘာ့ဖလား
▁Web
▁အတိတ်
ence
လူမျိုးစု
ဆေး၊
ဂွန်
▁ကူးပြောင်း
▁စေ့စပ်
ငှား
▁အတော်
▁Ja
▁နာယက
ရန့်
အနာ
▁ဖက်ဆစ်
ဖှ
ن
▁ကြုံ
ညှာ
▁တစ်ကမ္ဘာလုံး
▁သျှင်
▁ဂျင်
ပင့်
▁ဆီးချို
▁Ni
ခဲ့ရသော
▁မုဆိုး
▁အနောက်မြောက်ဘက်
မာလာ
▁ဂုဏ်ထူးဆောင်
မိန့်
▁စကြာဝဠာ
▁ခိုင်း
မြောက်ပိုင်းတွင်
▁အငြိမ့်
သောသူ
▁မိုင်းဖျန်
သွားကြ
▁မတရား
▁ငါ့သျှင်တို့
▁ပြည့်စုံသော
ပလောင်
ရှင်သန်
▁အဝါ
▁၁၉၃၄
▁မြို
▁အနိုင်ရရှိ
▁မလေးရှားနိုင်ငံ
aw
▁လူငယ်များ
လာခဲ့ပြီး
▁အပြုအမူ
ဖြစ်ထွန်း
▁လွမ်း
သည့်ပြင်
▁အင်္ဂလိပ်တို့
▁သောအခါ
▁နောက်တွင်
တူးမြောင်း
▁which
yan
ကုန်သည်
▁ဒါကြောင့်
▁အကူအညီဖြင့်
▁အက်ဥပဒေ
▁အပေါက်
လိုက်ပြီး
တတိယ
▁ဘုရားလောင်း
တို့ကား
▁တတ်မြောက်
ဘော့
▁ခရစ်တော်
စဉ်းစား
မက
အပါး
▁နောင်တော်
▁လမ်းညွှန်
▁အရွယ်ရောက်
ပါဠိ
▁ခုန်
ခံရသည့်
▁လွှဲပြောင်း
▁အတော်များများ
▁၁၉၁၀
▁Mu
▁ပကတိ
ov
▁မွမ်းမံ
တို့ကဲ့သို့
တံတိုင်း
▁Thit
ဘောင်း
ဟား
▁ကြေငြာခဲ့သည်။
▁ခုံ
ကျူးလွန်
▁လောက၌
▁ဂိုဏ်း
▁မှန်ကန်
▁တိဗက်
ညစ်
ယ်ယူပို့ဆောင်ရေး
▁မြောက်အမေရိက
သူငယ်
ဘုရင်၏
ဟိုင်
▁သက္က
ဟောင်
▁စာပေများ
▁မော်လိုက်ခရိုင်
▁ကွပ်ကဲ
ဟစ်
ချီတက်
▁ပြီးဆုံး
တရားကို
ခြ
▁၂၀ဝ
▁နှမ်း
ရေစီအဖွဲ့ချုပ်
မဟုတ်၊
ကျော့
▁နှစ်ယောက်
▁အတွင်းပိုင်း
အသုံးအနှုန်း
▁မင်းလှ
▁အစိုးရမှ
▁ကျင်း
လိုက်ခြင်း
▁ကတိ
တွေ၊
▁သတ်မှတ်ထားသည့်
တန်ခိုး
▁ဖြေဆို
▁ငြင်းပယ်
▁ထမ်း
ဏ္ဍ
▁ပေါများ
ယိုင်
▁ပုံဖော်
ဝင်ငွေ
ွီး
▁အမျိုးသားဒီမိုက
▁ထု
နိုင်သောကြောင့်
တစ်ဦးက
▁၁၈၉၄
▁ဗုဒ္ဓသာသနာ
မထေရ်
▁ဇန်နဝါရီလတွင်
▁ဆောင်းရာသီ
▁လူသိများသည်။
ရက်ထပ်နှစ်ဖြစ်
▁ခန္ဓာ
▁လိပ်ပြာ
▁ထိန်းသိမ်းရေး
▁၇၂
ပါသည့်
အခြေ
▁ချစ်ခင်
▁ပထဝီ
▁ကမ္ဘာမြေ
=207
ဌာနတွင်
▁သက်ရောက်
▁ဘိ
အဖွဲ့နှင့်
▁တွေ
▁အင်ဂျင်
ရတု
လိန်း
▁ကြာအင်း
များမှာလည်း
စေနိုင်
▁ကရင်အမျိုးသား
43
▁နံရံ
▁အနောက်တောင်ဘက်
mon
up
သင့်ကြောင်း
▁ချက်ပြုတ်
▁အမေရိကတိုက်
ရှိလျှင်
▁၉၅
ko
လုပ်ငန်းများတွင်
ဂျွန်
▁သဲကုန်း
▁အတွင်းဝန်
အားထုတ်
▁နှာခေါင်း
ဖွဲ့စည်းပုံ
ten
၌မူ
▁ဆန္ဒပြ
ခေါ
▁ပါရမီ
▁ခေါင်
ပင်များကို
▁Lay
▁တယောက်
▁တယော
▁၁၈၈၄
ဆိုတဲ့
▁ဝိန်း
လွိုင်
လက်ထပ်
▁ခံစားရ
ထားသဖြင့်
▁စန္ဒရား
▁ဟိုတယ်
▁လူသားများ
▁တည်းဖြတ်
[
ဓာ
=138
▁အစားအသောက်
အ်
ဇီးကုန်းမြို့နယ်
▁၁၉၇ဝ
▁ထိတွေ့
ချူး
ရွာဟောင်းရွာ
▁အဆိုပြု
▁ဂြိုဟ်တု
နှင့်ပတ်သက်သော
ဖြစ်ပြီး၊
▁သာသနာ့
နေသည်
ကျောင်း၌
ပတ်လုံး
ဘွဲ့ရ
အဆင့်အတန်း
ရိန်း
ဆုံးဖြတ်ချက်
▁ဖြတ်ကျော်
စုကျေးရွာအုပ်စု
တစ်ဝက်
▁အနောက်ဖက်
▁ပြွန်
▁ယင်းတို့မှာ
▁ရံဖန်ရံခါ
▁စွန့်
လွှင့်
ဘွား
▁ခလုတ်
ေး
ဈ
▁ဘင်
သောအားဖြင့်
နေရသည်။
ကုန်၏၊
▁တင်ဆက်
▁ပန်းချီဆရာ
=89
▁သီဟိုဠ်ကျွန်း
▁ရေကြည်
တွေ့ဆုံ
▁အလုပ်သမားများ
▁သုံးခွ
ကြာမြင့်
၏သား
▁၁၁။
ဆုပ်
တို့ကလည်း
ကစ၍
▁John
▁တို့ဖြင့်
▁Nar
အဆင်း
ဆောင်ရွက်မှု
ထွက်သည်။
ဝတ်စုံ
နိုင်စွမ်းရှိ
▁နေမျိုး
တွေး
▁ဟူး
▁မြဝတီ
စွမ်းအား
ရတဲ့
▁ဗိုလ်မှူးချုပ်
▁ပိုမို၍
▁တရားဟော
အဖြစ်လည်း
အဖြစ်မှ
▁တက်ရောက်ခဲ့သည်။
နိုင်ချေ။
▁စတင်ဖွဲ့စည်း
▁နှစ်ဖက်
ခရီးသွား
လူနာ
လိုသည့်
ဝံ
ဆွယ်
လူတန်းစား
▁မျဉ်း
လူမျိုးများသည်
ကစားသမား
=90
▁ဓာတ်တော်
▁အလယ်တန်း
ပုံနှင့်
ဆက်ခံ
နှစ်လုံး
စကာ
▁He
ငုံ
▁ရပ်တန့်
▁မျိုးဆက်
ကြသူများ
▁ကြိုးပမ်းမှု
▁အရိပ်
▁ကျွန်မ
▁အစ်ကို
ခဲ့ပြီ
ခုခံ
▁ဒေးဗစ်
▁အသျှင်
အဆောက်အဦ
▁ဝန်ခံ
ဂရိ
ဇီဝ
▁ဟိုက်ဒရိုဂျင်
ခြယ်
▁Hpa
act
▁ဖြည့်စွက်
▁၁၈၉၅
▁ဖွဲ့စည်းထားသည်။
▁ပြန်ကြားရေး
ရှေ
ကြီးမားသော
▁ပြုလုပ်သော
48
▁သာယာဝတီ
တစ်ခုလုံးကို
ဂျီး
don
▁ကျောက်ဖြူ
တပ်ဖွဲ့များ
ဝါဒကို
သမ
▁စာအုပ်ကို
ci
ဒိန်
▁ဥပဒေအရ
ဟယ်
ထမင်း
မွေ
▁အိုက်ချန်
လျန်
▁ယောကျာ်း
စည်းရုံး
▁လူတစ်ယောက်
▁Za
ဂတ်
လှော်
ဒပ်
တိုးချဲ့
▁သပြေကုန်း
tic
လေ။
ကျို
▁အမျိုးသားဥယျာဉ်
တစ်ခုဖြစ်
ဗိမာန်
▁ဖူး
နိုင်ငံနှင့်
▁သံလွင်
ဆောင်းပါး
၂၀၁၀
ဖော
▁လှည့်
ရသော်လည်း
လျှင်လည်း
ဖြစ်၍၊
လှမ်း
အဖြစ်လည်းကောင်း
▁ဟိုတောင်း
▁ဗုဒ္ဓဘာသာဝင်
ကျေးဇူး
▁ဖုန်း
▁အရှေ့တိုင်း
ရာဒေသ
ကျွမ်းကျင်
နှလုံး
▁မား
▁အဆင်း
ကျကျ
▁သာမက
▁ထုတ်ဝေသော
▁ကွဲ
▁ကဗျာဆရာ
52
▁ကီ
▁မန့်
လုံးဆိုင်ရာ
▁သံလွင်မြစ်
တင်၍
▁တစ်ရပ်
မွေးမြူ
▁ရက်နေ့အထိ
လိုက်ရာ
▁ဒုံး
ကြံစည်
ဂျ်
ရုံး၊
ဒြပ်စင်
နှောင်း
gen
▁ရက်မှ
ဗြိတိသျှ
▁ယန်း
▁ဉာဏ်တော်
▁ပြဆို
▁လုပ်ငန်းတာဝန်
701504
အယ်လ်
▁၁၉၅ဝ
▁အမွေး
=83
=66
▁သမိုင်းတွင်
▁system
အလ္လာဟ်အရှင်မြတ်
ကစ်
▁ဘင်္ဂလားဒေ့ရှ်
▁တီးမှုတ်
သက်ရောက်
တလန်
ချား
သွားရန်
ဒဏ်ကို
▁ပျို့
▁အဖွဲ့ဝင်နိုင်ငံ
▁သာစည်
▁ကုန်သွယ်
ချေား
အရိုး
▁ဆောင်ရွက်ခဲ့
ဇောင်း
ရုပ်ပွားတော်
▁ခြင်
▁heavy
▁ကြာမြင့်
▁ပူးပေါင်း၍
▁ရွာငံမြို့နယ်
အုပ်ချုပ်ရေးမှူး
ရှိကြသည်။
သို့ရောက်ရှိ
▁မရှိဘဲ
▁ဘောင်
▁အသေးစား
▁၁၈၅၂
▁ကျောက်မဲ
▁ဖေ
သည်ထက်
ထားသော်လည်း
▁con
▁ကစားသမား
လုတ်
သွန်
ss
▁ဝက်ဝံ
နည်းမှာ
ို
▁အငြိမ်းစားယူ
ပျံ့နှံ့
များပင်
ခံ၍
မြန်မာနိုင်ငံသား
ပိုင်ဆိုင်
▁အပူပိုင်းဒေသ
▁အတတ်ပညာ
▁ရန်ကုန်တိုင်း
စ္ဆ
▁တုံ့ပြန်
▁ရှားတော
ဆရာတော်ဘုရားကြီး
ယေ
▁မြောင်မြို့နယ်
ခံခဲ့ရ
၅၀၀
▁အကျယ်အဝန်းမှာ
ကောင်းစွာ
▁မီးတောင်
Pa
▁နှစ်နှစ်
▁ကြေငြာ
▁မူတည်၍
သွား၍
ရည်ရွယ်ချက်
ခြင်းငှါ
▁အသုံးပြုသည့်
ဗိုလ်ချုပ်
▁ရွာသစ်ကုန်းရွာ
▁မြို့နယ်တစ်ခု
ပါမောက္ခ
ို့ဗမာအစည်းအရုံး
ကြသည်ဟု
နှစ်ခုကို
▁မြေဩဇာ
▁ပုံနှိပ်ထုတ်ဝေ
▁မင်းဆက်
ရာထူးကို
ဒါယက
▁အခြေပြု
▁ဗောဓိ
▁သပိတ်ကျင်း
▁pa
ပုံပြင်များ
လေးစား
မယ်။
▁စာရင်းတွင်
ထူးခြား
တိန်း
ထုတ်လွှင့်
▁စလင်း
သိပ်
▁၁၈၈၂
မြို့ရိုး
▁ကျွန်ုပ်
▁18
▁လေထု
ကြီးတစ်ခု
▁On
▁လိုင်း
▁ဖိတ်ခေါ်
▁အခြေချ
ard
ရဲဘော်
ပိုဒ်
▁ဥပဒေပြု
▁အဘ
လှယ်
▁Black
အဆင့်ဆင့်
▁ငှက်ပျော
ထွက်လာ
ر
နိုင်ငံများနှင့်
▁မူး
ထန်းတပင်မြို့နယ်
▁ကွက်
▁ဒုတိယဥက္ကဋ္ဌ
▁ဆံတော်
▁ကြည်ညို
▁မိကျောင်း
▁လိုက်လံ
တစ်ခုမှ
▁ဘုရင်မင်းမြတ်
▁၈၈
▁ဖိနှိပ်
မှန်ကန်
ပေါက်ရောက်
ပေးနိုင်သည်။
▁အတောင်
ကွပ်
မြက်
▁ဦးတင်
ရည်ညွှန်း
ချိန်၌
ဥစ္စာ
ty
▁အစွန်း
ကျောင်း၊
▁ဇင်းမယ်
▁သက်ရောက်မှု
ရွဲ
vo
ကြီးတွင်
ပြန်ရာ
သာဖြစ်သည်။
▁မိုင်ခန့်
▁ထွက်ပေါ်လာ
ts
▁အနက်ရောင်
▁ဈာန်
▁အတန်း
▁ယေဘုယျ
▁သဲကန္တာရ
စာများ
▁ဖြစ်နိုင်
▁ဗီဒီယို
အတွင်းက
▁မျိုးရိုး
▁အသုံးဝင်
မဝင်
▁Burma
▁ဆောင်ဖမြို့နယ်
ရှဲ
ပေးထား
▁မလေး
and
▁ကြ
53
စာကို
▁နီးပါး
ဖြစ်သွား
▁ဂါထာ
ချထား
▁လစ်
ris
ရိယ
py
လားဟူ
ကန့်လန့်
သိမ်းယူ
ထူထပ်
▁အသိုက်
ဂေါင်း
သယ်
ကြင်
အများစုမှာ
မူပိုင်ခွင့်
▁အကွာ
den
▁အလီ
▁တစ်ခုနှင့်တစ်ခု
▁တွေ့ရသော
မုနိ
▁ကြွ
တွန့်
▁တည်ထားကိုးကွယ်
ပြိုင်ပွဲတွင်
▁Lar
▁ဂျာ
▁ဒစ်ဂျစ်တယ်
▁မကျေနပ်
▁ထွက်သည်။
အန်း
ကျွမ်း
အကျယ်
▁ချစ်ကြည်ရေး
▁နောက်မှ
ပါဒ
လျှော်
ဗားရှင်း
▁ဆိုနိုင်သည်။
သန့်စင်
မြို့ဖြစ်သည်။
ဓဇ
▁တစ်နိုင်ငံ
သွားကြသည်။
ab
▁ရက်နေ့၌
ကျယ်ဝန်း
တရားလွှတ်တော်
▁အဘယ်ကြောင့်
ုတ်
=69
▁ပေါက်ရောက်သည်။
မှုဆိုင်ရာ
ပေါ်မှာ
▁ရောစပ်
sk
▁အထင်ရှားဆုံး
▁အုံ
ရပ်တည်
▁မွတ်စလင်
ဂုံ
▁ကိုယ်ဝန်ဆောင်
ခြင်းများကို
▁စိုင်
▁တစ်လုံး
ထားကြ
▁အားလုံးကို
ေယျ
▁ကွန်ဂရက်
▁သာစည်မြို့နယ်၊
လမ်းမကြီး
ဂိတ်
တိရစ္ဆာန်
▁ကာယ
နှိုက်
ကျောင်းမှ
ပြည်ထောင်စု၏
▁ဆိုသူ
တရားဝင်
▁တိဘက်
တစ်ခါ
ဖြင့်လည်း
▁တောင်ထိပ်
▁ကယားပြည်နယ်
▁ဂုဏ်ထူး
▁ကောင်း၊
▁ဒါး
ki
ဒွန်း
▁တည်ထောင်သူ
au
တောင်းဆို
▁ကစားနည်း
ice
ပင်ကို
▁Kha
ရေကျော်
လိုက်၍
ပြည်ထောင်စုသမ္မတ
သော်လည်း၊
▁ရာထူးမှ
▁ဒင်္ဂါး
မြစ်၏
ဖန်း
▁ဗုံး
▁l
ကွေ
သားကို
nic
▁ညို
▁ထုလုပ်
လေးများ
▁နစ်
ရေတပ်
▁ဆွတ်
▁အပေါ်တွင်
▁တပ်မှူး
▁ပြည်မြို့နယ်၊
▁နှစ်နိုင်ငံ
ပေမည်။
ee
▁လိုလား
▁တင့်တယ်
▁စွန်
▁သယ်ယူပို့ဆောင်
▁အလှူ
ဖြစ်ရန်
▁ကောင်မင်ဆန်း
ll
ချန်း
များဖြစ်
ကျန်ရစ်
ကြေ
ထစ်
အတူ
နိမိတ်
▁နည်းဥပဒေ
▁ဘဒ္ဒန္တ
ခရစ်ယာန်
▁တိမ်ကောသွား
▁အစိမ်း
အွန်
▁ကက်
▁ဝီ
="207
▁အုတ်ဖို
▁အလိုရှိ
▁မျှော်စင်
▁ဆင်တူ
▁နတ်ဘုရား
ထိခိုက်
▁ကလပ်
▁ဆိုက်
▁ဆွဲဆောင်
=92
သန့်ရှင်း
▁အမြတ်
▁ဗီတာမင်
▁ကြီးထွား
chi
မြွေ
ye
▁ဝန်ဆောင်မှုများ
မုန်တိုင်း
ဟုဆို
▁၁၈၇၈
▁သာယာကုန်းရွာ
▁ပြုလုပ်ထားသော
အကြံ
▁အီရန်နိုင်ငံ
ခဲ့ကြပါသည်။
▁၁၈၉၈
လိုက်ကြသည်။
BC
ဆင်ခြင်
▁၁၈၉၂
တလုံး
▁ရှိကာ
▁မုတ္တမ
▁စုဝေး
တပါး
ယိမ်း
▁ချား
▁အရပ်ရပ်
ဇနီး
စိုက်ပျိုးကြသည်။
49
▁၆၈
▁ကာကွယ်ရန်
များသော
=95
မျ
မှပင်
▁ပိုင်ဆိုင်မှု
ဆန့်
မှသာလျှင်
▁ဦးစိန်
သေးချေ။
=58
▁အကွက်
▁ပြက္ခဒိန်
▁တွေ့ရလေသည်။
▁ကဗျာကို
▁Con
ix
လျာ
▁ဖဲ
▁အရှေ့တောင်
တ္တိ
▁ခုနှစ်မှာ
ရှို
▁မှော်
▁ပြင်သစ်၊
▁ကျိုး
လှပ
ကုပ်
ကျွေး
▁also
ရေးဦးစီးချုပ်
▁နိမိတ်
▁Pauk
▁ဘတ်
▁Ph
ပေးခဲ့
ချွန်း
▁National
▁ညီညွတ်
ခန့်တွင်
015
ကြွင်း
၄ဝ
▁များ၏
ဂယ်
▁ဂျိမ်း
ည်
▁အခြေအနေကို
သင်္ချာ
ning
▁နမူနာ
▁စောင်
=149
စာမေးပွဲ
ad
လိုက်၏။
ခြင်းခံခဲ့ရသည်။
နေအိမ်
="149
▁ရှုပ်ထွေး
▁ကျီ
▁ရာဇဝတ်မှု
ပုံစံများ
နေသောကြောင့်
▁ဖြစ်ခဲ့
▁နှုတ်ခမ်း
လေ့ရှိကြ
နိုင်ငံကို
▁ဆင့်
▁သံချို
ဂါထာ
▁Pi
▁ရှက်
▁၁၈၉၁
ဇယား
▁နယူးယောက်
▁ဖြစ်သွား
ဖုတ်
▁အကြီးမားဆုံး
မွဲ
▁ပညာရှင်များ
ဘွယ်
ated
အလျား
ကျဉ်း
▁ဂျူ
ပြက်
ိုင်းစစ်ဌာနချုပ်
ယော်
▁Nam
တော်ဝင်
▁ပြုလုပ်ခြင်း
တစ်ခုသည်
ပညာသင်ကြား
▁လူမျိုးရေး
▁ဝီလီယံ
ဆောင်ရွက်ရန်
▁ဦးစံ
တိတ်
▁စည်းရုံးရေး
▁ကာလအတွင်း
▁ဖီ
ဖြင့်လည်းကောင်း၊
တင်ပို့
နည်း၊
▁ကွာဝေးသည်။
မပါဘဲ
▁ခိ
ဇက်
▁သံလိုက်
▁ဦးစားပေး
▁ညီအစ်ကို
▁တိုင်ပင်
▁အဖွဲ့၏
▁မှူးမတ်
▁x
အချက်များ
ထမ်းဆောင်
▁ဟူ၍လည်း
ရှူ
▁ရွာမ
▁သိုင်း
46
▁အုန်းပင်
လူများ
▁ချီးမွမ်း
ကြပြီးလျှင်
▁လှုံ့ဆော်
▁ကိလေသာ
ဆွေးနွေးပွဲ
လိုလျှင်
စိုက်ပျိုးရေး
東
ဖေါက်
▁စန္ဒ
စာမျက်နှာ
▁ယုန်
▁အိုင်ဖုန်း
▁အာဏာရှင်
ဖက်မှ
လွင့်
▁ဆင်ဖြူ
တွင်းရွာ၊
▁၁၈၈၇
▁၁၉၀၁
▁ဆောက်လုပ်ရေး
နိုင်ကြသည်။
နေထိုင်ကြ
တစ်ပုဒ်
▁မိုးမိတ်
ထွက်ရှိ
သူဌေး
ယူး
▁ရာမ
ရှေ့တွင်
▁ထိန်း
ရေးဆိုင်ရာ
▁ဂျပန်တို့
▁တစ်နေရာ
▁ဒို
▁ဖီဖာ
စကီး
▁ကျွန်းဆွယ်
▁စက္ကန့်
ဖိအား
▁အစိုးရသည်
my
▁ပြီးလျှင်
ဂေါ်
▁၁၉၀၅
စီးပွား
ပေါ်မူတည်၍
ဇယ်
▁n
ခက်ခဲ
ိယ
▁လှည့်ပတ်
▁မော်စကို
▁Har
ဗု
▁ရောက်သွား
▁တကောင်း
▁ချင်
ပြည်ထောင်စုတွင်
▁ချာ
ပေါများ
သပ်
▁ဖြတ်၍
အလှ
▁စကော့
ဗယ်
▁ဆေးတက္ကသိုလ်
ထွန်
င်္
ရွေ့
ron
ကျွတ်
▁ခိုင်မာ
ခေ
▁ကတော့
▁ဆင်ဖြူရှင်
တုပ်
▁စနစ်ကို
ဒဘူတာ
*
တစ်ဦးဖြစ်သူ
သဒ္ဒါ
▁ထန်းပင်
အခေါ်
▁ဆီမီး
▁ထွက်ရှိ
▁ချင်းပြည်နယ်
▁ဆုတ်ခွာ
▁Rock
လေ့ကျင့်
ယာမဘူတာ
▁ထိုသို့သော
ဖြည့်
▁ဝါးရုံ
▁ပန်းချီကား
▁ပြုလုပ်ပေး
by
▁ဆဲလ်
▁ဆွေမျိုး
▁နမ်ခမ်းဝူး
ဘုန်းကြီး
▁စစ်ကိုင်းခရိုင်
နေထိုင်ရာ
▁အတွင်းသို့
▁မြင်ရ
▁နှစ်ကြာ
▁မဲဆန္ဒနယ်
▁တပ်ဖွဲ့
မျိုးရိုး
▁ရှိခိုး
ပုံများကို
▁သုည
ger
ငြိမ်
▁ထုတ်လွှတ်
ချောင်းဖျားရွာ
▁ဝတ္ထုရှည်
▁ပန်ဝိုင်
ဗြ
▁အကျိုးရှိ
နှစ်တွင်
အခွန်
စည်သူ
အကျဆုံး
▁ပါဝင်ဆောင်ရွက်
▁မအောင်မြင်
ပညာရှင်များက
ပျဉ်
▁သုံးကြိမ်
စသည်တို့ကို
ဖခင်
မိန်း
▁ကုန်ပစ္စည်း
ance
lin
▁တွေ့ရ၏။
▁အကြင်
ရရှိရန်
ဂမုန်း
ဖက်တွင်
ဒိုက်
မပြတ်
▁လူး
မှတစ်ပါး
▁ဆပ်ပြာ
ကြီးအား
ခုနှစ်မှ
▁Nat
ခြင်းခံရ
▁၉၆
=205
အောင်ဆန်းစုကြည်
မှုများနှင့်
န္တိ
ပါဝင်ခဲ့သည်။
သူတော်
▁အင်ပါယာ
▁လောင်စာ
ဘက်က
သတိ
▁လိုအပ်သည့်
▁ဘူတာရုံ
▁ဖြစ်ထွန်း
သူတွေ
▁ရွာသစ်ရွာ
▁ရုပ်ရှင်ကား
▁၁၉၀၃
▁၁၈၂၄
▁ရှိသဖြင့်
▁၁၈၅၇
=88
သည့်အလျောက်
▁အရံ
▁ဘိုင်
▁အမိုး
▁ပြုလုပ်ကြသည်။
▁ပွား
▁အချုပ်အခြာအာဏာ
ဆန်သော
▁သုံးခု
နိယ
ဆောင်ရွက်ခြင်း
တစ်ဦး၏
▁စီးဝင်
core
ကာရ
▁သင်ကြားခဲ့သည်။
▁မျှော်လင့်
ကစားနည်း
သနည်း
▁သာမဏေ
သတ်ဖြတ်
တာဝန်ကို
king
▁နီး
ဖျာ
ယ်ကျယ်ပြန့်ပြန့်
▁ဖားဆောင်း
ja
ပြောင်းလဲခဲ့သည်။
▁Go
▁သတ်မှတ်ထားသည်။
ရွာဟောင်း
နေထိုင်ကြသည်။
သဘောကို
အစစ်
▁formula
ငါ့
နှင့်တူသော
ကျောင်းတော်တစ်ခု
▁ဆောင်ရွက်ပေး
ရှိကာ
ဆိုသည်။
▁ခွဲဝေ
▁၁၈၅၉
▁သိပ်
▁(4)
ဒ္ဓ
▁ထူ
လာသည့်အခါ
အလုပ်ကို
မဟုတ်သည့်
▁မည်
တဲ့အခါ
သေး၏။
▁ဂေါ
▁ပစိဖိတ်
▁အင်မတန်
ou
▁ဝပ်
ပုဂ္ဂိုလ်များ
▁power
▁ရုပ်ပုံ
ဂန်း
▁မြောက်ဖက်
="138
ဘုရား၊
▁ခြ
တွက်ချက်
ရရန်
▁အသုံးမပြု
ပတ်လမ်း
▁၁၉၀၆
ပေါင်းချုပ်
ွှ
ပုံများ
ဖော့
▁ကုန်ကျစရိတ်
ven
ပြောင်းရွှေ့
အသိုင်းအဝိုင်း
ပြုလုပ်ခြင်း
▁အားနည်း
▁စိုးမိုး
ခဲ့ကြရသည်။
▁ခန့်က
lic
ပျိုး
▁အခိုင်အမာ
နွေး
ow
▁ဆည်မြောင်း
သည်ဟူသော
များပါ
▁ဆံ
တည်းဟူသော
ဒွန်
ل
▁ရင်ဖန့်မြို့နယ်
▁ဗျည်း
ဓာတ်ပုံ
နယ်၊
ရသောကြောင့်
▁ပိုင်ရှင်
အံ
သည့်အချိန်
=63
▁လူ့အဖွဲ့အစည်း
▁ချင်းတွင်းမြစ်
လိမ်း
▁ရိုး
▁ရှေ့တန်း
ရက်၊
▁၁၈၂၁
▁မရှိခဲ့ပေ။
▁အနုပညာရှင်
▁ပြင်းထန်သော
အမျိုးအစားများ
နိုင်ငံသား
▁အပတ်စဉ်
လှရွာ
▁အမွေ
▁အစပြု
အပူ
▁ပုဂံမင်း
▁ပြောင်းလဲသွား
▁ယု
ိမ်း
▁ဘေ
တားဆီး
▁ဂြိုဟ်ရံလ
ver
▁ကျယ်
kan
ဟိတ်
▁အခွင့်အရေးများ
▁တဏှာ
▁ကိုယ်ထည်
▁ထိုကဲ့သို့သော
ဝစ်
▁နေထိုင်ရာ
တူးဖော်
▁အဓိပ္ပါယ်ရသည်။
ခြင်းမရှိဘဲ
▁စာသား
ကလေးရွာ
ကြီးထွား
နေပါသည်။
▁အဓိပ္ပာယ်ရသည်။
သုံ
▁၁၂။
=60
▁ရေကူး
▁ကဗျာများ
ဖြောင့်
ကြရ၏။
▁ရရှိနိုင်
လဟာ
punk
ရှပ်
▁အပိုဒ်
▁တည်ရှိ၍
ဖိတ်
▁နိုင်ငံအတွင်း
▁အပြား
▁ပြတ်
အနေ
▁ရေအောက်
အသိ
▁ရှောင်ကြဉ်
ဘဝကို
=59
min
လျက်ရှိပြီး
▁ကျနော်တို့
ဓာတု
တိုင်းတာ
Ch
▁ဟက်
▁အနုပညာရှင်များ
▁အာဟာရ
▁၁၈၈၁
▁တစ်ချို့
▁၁၈၈၈
▁လယ်တီ
▁ပျံ
တော့၏။
ဟက်
▁ဟောင်း
▁အမှား
ရန်ဖြစ်သည်။
နိုင်ခွင့်
ူး
▁နီးစပ်
▁ပြန်ရောက်
မှာပဲ
▁Lan
▁Jo
တောင်ဘက်
▁လိုအပ်သည်။
အမျိုးမျိုးဖြင့်
လုပ်ငန်းသည်
အသစ်များ
လွတ်မြောက်ရေး
▁နှဲ
စည်ကား
▁၁၈၆၄
ခေါင်းဆောင်သော
▁တွေ့မြင်နိုင်
▁ခုမြောက်
▁ယူကေ
ကျေ
▁စတင်ဖွင့်လှစ်
▁၁၉၃၃
ပြုလုပ်ရန်
▁ကျင်းပသည့်
▁၁၉၀၇
▁ဆော်
▁အလောင်းတော်
▁လက်ခံကျင်းပ
▁မြူ
▁ပြဒါး
▁အာနိသင်
▁အနည်းငယ်သာ
▁၇၄
▁၁၈၈၉
▁မြောက်မြားစွာ
▁ခေတ်စား
▁ကျောင်းတွင်
သေခိယသိက္ခာပုဒ်
ထားရန်
ရဏ
▁သာဓက
လွှား
▁တပင်ရွှေထီး
သေန
မှုမရှိ
အချို့က
▁အသုံးပြုကြ
ထက်သန်
ွိုင်
▁ညောင်ကုန်းရွာ
လိုး
60
و
ကြသည်ကို
ny
▁ဆင်စွယ်
ဝ်
ea
▁၁၈၉၃
▁နု
ထဲရှိ
▁သံသရာ
အတိုင်းပင်
ခွင့်ကို
▁၁၈၉၉
▁ကျောက်ကပ်
ပြည့်ရှင်
မြစ်ဝှမ်း
▁ယင်းနောက်
▁တလိုင်း
▁၁၈၇၂
ဟောက်
▁နွယ်
များဟု
ကြိုးပမ်း
▁၁၈၆၇
ပရိ
အယ်လ်ဘမ်
အရွယ်အစား
ဖော်ပြထား
▁မုံရွာ
▁တစ်ပတ်
ဘုရင်သည်
▁မူလတန်းကျောင်း
▁ယူနိုက်တက်
▁အထက်ပိုင်း
▁ဆွေးနွေးပွဲ
ညှစ်
သံတူကြောင်းကွဲ
▁ပိုလန်
ပေးကာ
ချ၍
▁ပေသည်။
▁ကောင်းမှု
▁အခွင့်
▁Asia
▁ရုပ်သေး
▁ဘာသာစကားများ
▁၈၅
="213
တတ်ကြ
▁ကန်တော်
▁အမည်ပြောင်း
▁သုံးနှုန်း
▁၁၈၈၃
ick
လုပ်ကြံ
သတ္တိ
▁ပြုလုပ်ရန်
လာသည်နှင့်အမျှ
ဒီမိုကရက်တစ်ပါတီ
အလျောက်
▁ကယ်တင်
▁အလွှာ
▁Ko
ခဲ့ရ၏။
▁20
လျက်ရှိရာ
▁တကယ်
▁ဟုခေါ်
▁စာပေဆု
ကိရိယာများ
▁ထောက်ပံ့ပေး
ကျိုက်
ပေးလိုက်
ag
ပြပွဲ
ထိုက်သော
▁Du
▁အမှတ်တရ
ဖူ
▁ပြုလုပ်ထား
▁post
များဖြစ်ကြသော
▁ရဟန်းမိန်းမ
▁သမုတ်
လာသည်
ထားသည်မှာ
▁ထိပ်ဆုံး
ler
လုလင်
Mir
ကသာ
ဖြန့်
သည့်နေရာ
▁ကျေနပ်
▁နော်
မဟုတ်ပေ။
daung
▁ယခုလက်ရှိ
▁ဆန့်ကျင်ဘက်
ချောင်းဝရွာ
ပုဏ္ဏား
•
ဇား
တာက
=202
▁System
▁ကိုလံဘီယာ
▁တရုတ်လူမျိုး
▁မြေဆီလွှာ
=94
▁၈ဝ
သဘောတူညီချက်
▁အကြံပြု
လိုက်ရ
▁၁၈၁၉
မင်းတရားကြီး
▁မရောက်
ရပါတယ်။
▁သန့်စင်
="202
▁မှစ၍
▁၁၈၉၇
▁တရားစီရင်ရေး
▁နတ်ပြည်
မည်ဆိုပါက
val
ဆင်နွှဲ
▁ဇီဝဗေဒ
နိုင်ရေး
▁အက်စ်
၌လည်းကောင်း၊
အတတ်ပညာ
▁မြိုင်
နည်းသော
င္
▁ခြောက်သွေ့
▁နွေ
ထွင်
ဏ်
အေဒီ
▁သရက်ကုန်း
ဒေါင်
ကြီးများသည်
▁တစ်စတစ်စ
ကြပါ
▁၆၃
▁ဖော်ပြသည်။
▁အကျွန်ုပ်
▁အခ
တော်မူလေသည်။
▁အရှေ့ဖက်
ပို့ချ
ဒေသသို့
တိုးတက်မှု
အု
=213
ze
ပြန်၏။
ဟူသည့်
နိုင်ငံသို့
နွမ်း
ဝှ
▁ပါဝင်၍
ရှိသည်ကို
▁ပျိုး
=209
▁ရေးသားသော
ယူဆ
▁ကုန်ကျ
▁နယူးယောက်မြို့
▁ရေးစပ်
▁ခက်
▁စကားပြေ
▁ဓလေ့
ရည်ကို
စနစ်ဖြင့်
▁အောက်သို့
ဟွမ်
ဂျူ
တောရ
▁School
=136
▁တစ်ဝက်
အဓိပ္ပါယ်
▁လေတပ်
▁နက္ခတ်
▁ငါ၏
="136
orn
နိုင်ငံများမှ
၂၀၁၅
▁သားငယ်
ဟောကြားတော်မူခဲ့
ထွက်၍
▁တည်ငြိမ်
၏ဟု
▁မနော
လိုက်ရသည်။
ဘုရင်မ
ရှည်လျား
အစဉ်
▁သင်္ဘောများ
ပေါက်ရွာ
▁ရှင်းပြ
▁ခေါ
51
▁ဖိနပ်
▁ခွာ
ကောက်ယူ
▁အဆ
စဲ
ial
ပြုရန်
▁မဟုတ်ချေ။
▁အဘိ
ဗျည်း
စက်မှု
အားလုံး၏
▁အရေးအခင်း
▁ဟားခါးမြို့နယ်
▁မြန်မာဘာသာ
ဒါယကာ
▁အချက်အချာ
ဂျန်
=74
▁စဝ်
▁ပင့်
▁ချိ
▁အလောင်း
▁ပုဂံပြည်
▁သိသိသာသာ
ရောက်လာ
သည့်တိုင်အောင်
▁လမ်းလျှောက်
နိုင်ငံတို့
▁ဂန္ထဝင်
="65
▁အမြင့်ပေ
▁တစ်ခုအပါအဝင်
အဆောက်အဦး
▁လက်ဖြင့်
▁Lin
▁မိုက်ကယ်
▁တန်ဆာဆင်
▁သစ်စေး
▁အုပ်ချုပ်သူ
▁မြို့ကြီးများ
အာဖရိက
▁ဤသို့သော
နာ၊
▁၁၈၅၀
အုပ်ချုပ်မှု
▁ရေပေါ်
အကြံပေး
=139
မြင့်သော
မော်ကွန်း
ပြည်တွင်း
▁ပွတ်
▁ရပ်နား
ပင်လယ်အော်
နောင်း
="139
011
▁ပုံရိပ်
▁တရားဥပဒေ
gu
အားလုံးသည်
▁အသင်တို့
▁သုတ်သင်
▁ကြိတ်
ရုံသာမက
▁ကုန်းဘောင်
▁နည်းစနစ်
စုန်
▁ငြင်းဆို
▁ဂဠုန်
တီးခတ်
▁ပျဉ်းမနား
▁ရှည်လျား
▁၁၈၇၉
▁အသက်အရွယ်
=206
▁အပြင်ဘက်
အသိအမှတ်ပြု
▁ဘု
ပြည်သို့
ရေနံ
▁ပြည်ခရိုင်
လွှမ်း
▁ခေါင်းဆောင်သော
▁ပြည်သူတို့
=84
▁ရှုံး
လုပ်ဆောင်ခဲ့သည်။
ဂယ်လက်ဆီဖြစ်ပြီး
▁နိုင်ငံရေးအရ
▁လေရှီးမြို့နယ်
အင်္ကျီ
▁ဩစတြီးယား
နိုင်ခဲ့လေသည်။
▁မပါဝင်
▁ညွှန်ပြ
အသင်း၏
ရပ်စ်
သူရဲကောင်း
▁အနိစ္စရောက်
▁အကိုင်း
သူရိယ
သစ်တော
▁ကျောင်းဆရာ
လှသည့်
▁ဆရာတော်ကြီး
ပါဠိတော်
ညွှန်း
▁ဂျင်း
▁သာသနာပိုင်
▁နယူးဇီလန်
ယူကာ
ပါလ
▁လူ၏
ဂြိုဟ်ရံလ
▁ရေတွင်းကုန်း
ကျမ်းစာ
▁၁၈၆၈
လေးခု
နေလျှင်
=57
စေဘဲ
▁လုပ်ငန်းကို
▁၂၀၂၂
အားပေး
▁ထမ်းရွက်
▁နားထောင်
ဖြစ်ပါက
004
မင်းက
စေကာ
အလယ်တွင်
အထွက်
▁ခေတ်ပေါ်
▁သီဟ
▁ခေါက်
▁နန္ဒ
▁အပြာရောင်
▁၁၈၀၀
ွပ်ကဲမှုဌာနချုပ်
res
ကျော်ထင်
pro
သာသနာပြု
▁သားကောင်
▁တက်ကြွ
▁၁၉၀၄
ညှိနှိုင်း
▁အငယ်ဆုံး
စဉ်တွင်
▁အသုံးပြုမှု
ခရိုင်တွင်
ရှစ်ပါး
လက်ပံ
▁ဝိုင်
▁တဖက်
▁ပင်းယ
▁တစ်ပင်
▁တကွ
▁Kyun
ယူပြီး
▁ရေးသားပြုစု
သပိတ်
▁ဒေသတွင်
ဆိုဒ်
▁စိမ်း
tor
▁ကာကွယ်ပေး
▁မြတ်သော
ရေးဌာန
▁အိုးဘို
ခမိ
အနှံ့
ကျိ
▁အမည်ရင်း
if
▁ရေရှည်
တရပ်
▁အဝတ်အစား
▁တမန်တော်
▁အိတ်
▁မိုင်ပေါင်း
တတ်မြောက်
ကုန်သွယ်ရေး
▁အာရုံစိုက်
လည်းရှိသည်။
ိတ
▁တိုးပွားလာ
▁မြဝတီမြို့နယ်
▁အစည်း
▁သူရဲ
တိတိ
ဗင်း
န္တာ
▁ဖြစ်ခဲ့၏။
▁စိုင်း
▁Zay
▁ကဲ
▁၁၇၁၇
ကြတယ်။
▁မဒညတ
▁၇၁
=82
ခ်ျ
▁ဒန်
ဒေါက်
▁Day
အုပ်ချုပ်ပုံ
ထွဋ်
▁တွေး
တင့်တယ်
ကျည်း
တန့်
ကလို
▁မွန်ဂို
ဗျာ
ရှော
▁မြင့်မားသော
▁မိန်
နယ်ကို
▁ရပ်ဆိုင်း
mar
မြား
▁တည်မြဲ
ဇန်နဝါရီ
▁၁၈၃၇
▁ဒိန်းမတ်
▁၁၈၂၆
▁၁၈၃၆
▁ကုမ္ပဏီများ
▁ကရာတေး
စကားပုံတစ်ခု
▁ကဗျာလင်္ကာ
ထယ်
▁မပြော
▁နတ်သမီး
နဝ
▁ပြည်ထဲရေး
ဘဝမှ
ဂျား
ကြောင့်လည်း
လေတပ်
▁တာဝန်ယူခဲ့သည်။
▁ဘရာဇီး
="83
▁၁၇၈၄
▁မှည့်ခေါ်
▁Par
ဆုံးမ
▁ဗီယက်နမ်နိုင်ငံ
ပြန်၍
▁အကျိုးဆက်
ကော်ရွာ
အနောက်ပိုင်း
▁မဂ္ဂဇင်းတွင်
▁ရှိရာ
▁မိုဟာမက်
▁ပြောင်းလဲမှု
ရွှေ့
သွင်
▁တိုက်ခတ်
ဖြစ်စေရန်
အသုံးပြုသည်။
▁သိုက်
▁ရည်
▁မြှောက်
တဲရွာ
▁ဥပဒေကို
▁ဆွတ်ခူး
မေ့
ပါရမီ
စေခဲ့
ဘောလုံးပြိုင်ပွဲ
ရေယာဉ်
▁ရှည်လျားသော
▁၁၆၇၅
▁စရိတ်
▁သတ္တိ
▁သူငယ်
ဦးခေါင်း
An
ဟိန်
▁နေရာကို
▁စကော့တလန်
▁ပင်ပန်း
ိဿ
▁ဝါသနာ
များထံမှ
ရတယ်။
ကြီးများတွင်
ကောင်ရွာ
▁မွန်ပြည်နယ်
အရွက်
▁ဖြစ်ပွားခဲ့သည်။
ran
လှဲ
တစ်စိတ်တစ်ပိုင်း
ရေးလုပ်ငန်း
▁ပင့်ဆောင်
▁စိတ်ကူးယဉ်
ဖြစ်ခဲ့
▁ဖြစ်ကြသော
=50
▁မဲဇလီ
နိဗ္ဗာန်
အတွေးအခေါ်
ပျံ့
▁၁၈၇၆
▁အဝင်
စိစစ်
▁အဖွဲ့ဝင်များ
▁ပဋိ
▁ရူ
▁ချေ
ကူးစက်
aing
▁စိတ်မ
▁ပလ္လင်
=86
ဖျံ
▁အဖွဲ့ဝင်အဖြစ်
▁၁၈၆၁
=98
▁ဖြန့်
▁ဦးသာ
▁တရုတ်၊
▁အသိပညာ
ငျ
▁အနီးတွင်
▁မျိုးချစ်
▁ဘရူနိုင်း
▁ကွင်းကြီး
ဝိုး
▁မင်းဘူး
သရေ
တို့အပြင်
▁အိမ်ရှင်
ဘွေ
မင်းလှ
MA
▁နမ့်ဟူး
▁မြား
su
▁နေရောင်ခြည်
▁အမဲလိုက်
စံတော်ချိန်
ကလေးများသည်
▁၁၉၀၈
▁ဟီရိုရှီးမား
▁ရပ်စဲ
▁ဆိုသူမှ
▁စိတ်ကို
▁အစွမ်း
▁စင်ကာပူနိုင်ငံ
▁ဟင်္သာတ
▁တရားစွဲဆို
▁ပညတ်
များသည်။
ပ္
မတက်
ပန်းခြံ
ဆေးများ
▁Ex
▁အမျိုးသားရေး
သော်၊
▁ဖြစ်သူ
▁မင်းတရားကြီး
▁စစ်အစိုးရ
▁ဖုံးအုပ်
ကြကာ
ဇုံ
▁တပ်မ
▁ချုံ
▁အဆင်ပြေ
▁အေဂျင်စီ
အဖျား
အဝ
ထားသူ
▁ရည်ရွယ်၍
▁ဓနိ
ထွက်ခွာ
ရန်သူ
а
▁နိုင်ငံတွင်
▁ဆိုရပေမည်။
▁စတင်ကာ
▁ကော်ဖီ
▁သောက်သုံး
▁ဝတ္ထုကို
ဗြဟ္မာ
▁ဖွဲ့ဆို
▁လည်ပင်း
အောင်မြင်မှု
ear
အတော်များများ
▁ယုံ
ise
ပြုံး
ခဲ့ကြသော်လည်း
▁no
70
▁လုပ်ကိုင်ကြသည်။
မျောက်
အပ်နှင်း
▁ပေါ့
တော်လှန်
အဓိပ္ပာယ်
ပြည်နယ်တွင်
▁ဆက်သ
▁အပို
▁ယူရို
ဝု
သွား၏။
▁လစဉ်
▁နောင်မွန်း
စေမည့်
တောင်အမေရိကတိုက်
သွားကာ
ခြင်
တလုပ်
Me
▁ရိက္ခာ
▁အလျင်
ပါလီမန်
အကြာတွင်
အစောပိုင်း
အစားအစာ
▁ခေတ်ပြိုင်
▁Paing
▁ခတ်
မှုတို့ကို
▁၁၉၀၂
▁Ca
သုံးမျိုး
ခြင်းပင်
▁တပ်သား
၂၀၀
မှုများသည်
မထွက်
▁အရင်းအမြစ်
▁တစ်နည်း
▁ကောက်ခံ
ဝယ်၊
▁အငြင်းပွားမှု
▁ဟင်းသီးဟင်းရွက်
▁အလယ်တွင်
▁သင့်လျော်
မ့်
daw
▁မဆို
စသည်ဖြင့်
▁ပျောက်ကင်း
▁သိရ
▁၁၈၈၀
▁ချဲ့ထွင်
▁လစာ
ဘူး၊
သည်ရှိသော်
▁မိန့်တော်မူ၏။
▁ထည့်၍
▁ကံကြီး
ဟောပြော
▁ဝိပဿနာ
▁its
အဋ္ဌကထာ
▁စတုတ္ထမြောက်
▁Hu
▁ညောင်ပင်သာရွာ
လောင်းရွာ
▁အင်းဝခေတ်
ဘိုင်
▁ကလေးသူငယ်
မြို့များ
▁သတင်းထောက်
▁အလုံးစုံ
တွေ့ရှိရ
ပုံနှိပ်
အကြီး
▁ဗေဒင်
▁လက်ရာများ
ခိဘူတာ
လေပြီ။
ရကြောင်း
ကြီးစွာ
▁ကွယ်
တစ်ခုခုကို
တစ်ခုဖြစ်သည့်
စသည်
=75
tion
▁ဗက်
အရပ်သို့
၃၀၀
=132
▁တောင်ဖက်
ံ့
ကျစ်
▁Law
▁ဆက်သွယ်မှု
▁station
ဒန်း
▁ရောဂါများ
net
▁စင်တီမီတာ
=56
ီး
▁ချေား
ST
ဟိဂရှိ
▁Cha
ရင်းနှီး
ရာသို့
▁ကုန်းသာ
သမုတ်
kg
တစ်နေရာ
▁အလေ့အထ
ခဝ
▁လက်မခန့်
အသင်းတော်
="132
▁ကိုယ်ဝန်
=97
▁ရာဇဝတ်
မျို
▁ရေးသားထား
=46
ယျ
▁ညီညွတ်ရေး
အပြည့်
မျက်နှာသွင်ပြင်
စူ
တက်၍
မရှိချေ။
yo
="210
▁It
▁ပျောက်၏။
▁မြေပြန့်
ယှက်
▁တာကော်
▁လဲလှယ်
▁ကလည်း
▁၁၈၅၄
ဉာဏ
▁တမူးမြို့နယ်
▁သုခ
ကရိယာ
▁သိကြ
Q
▁၁၈၆၃
အစွန်း
ကုသိုလ်
▁ကြူ
▁မကျီးကုန်း
▁ငှားရမ်း
ချိန်မှာ
▁၁၈၆၆
▁ဗဒုံမင်း
▁၉၇
▁အမရပူရမြို့
လုပ်ငန်းရှင်
▁အသင်းတော်
▁ပီတာ
▁အင်ကြင်း
များကိုမူ
▁Chinese
နေရာများတွင်
မွန်းရွာ
=111
အရေးတော်ပုံ
▁ထိုမြို့
▁မကောင်းသော
▁သုတ္တန်တစ်ခု
▁အယ်ဒီတာချုပ်
▁ပုံပြင်
▁၁၃။
စောင့်ရှောက်မှု
ကောင်းကင်
သွားရ
၂၀၁၁
၎င်း၏
ငြားအံ့၊
▁ဝေါ
003
လျှာ
ခဲ့စဉ်က
လျော်
▁ဝန်းရံ
▁ပုသိမ်မြို့
ယိ
Cl
ထော
▁ပတ်သက်သည့်
▁ထိုနေ့
▁ခရစ်ယာန်ဘာသာ
အထူးသဖြင့်
▁နှုတ်သီး
▁မိုးမိတ်ခရိုင်
▁ကမ္ဘာတွင်
▁အဓိကထား
သုံးဆယ်
▁သစ်ပင်များ
▁မင်းကြီးသည်
▁ဘာလူစကိုနီ
ب
=201
ပါယ်
▁တောင်ကြား
▁လေးထောင့်
▁မာလာ
တက်ကြွ
အက်ဥပဒေ
စေတတ်သော
▁ပါတီ၏
▁ငယ်မည်မှာ
▁သတင်းမီဒီယာ
▁ထိုနေရာတွင်
▁၁၇၈၅
ပစ်ခတ်
ကြသည်မှာ
▁၁၈၆၅
စေလို
▁ဖွံ့ဖြိုးမှု
▁မင်းကွန်း
▁ပတ်သက်ပြီး
ကော်ပိုရေးရှင်း
▁ဇော်ဂျီ
ဈာန်
▁တောင်သူ
ဖျက်သိမ်း
မုတ်
▁တိုးပွား
ဖေါ်
▁ဝင်ရောက်ခဲ့သည်။
လုပ်သား
▁ရှိပေသည်။
▁ပြုမူ
ဂျူး
ကြီးများ၏
လုပ်ငန်းတွင်
▁လော်
နေသော်လည်း
ခံစားရ
လတ်သော်
▁လျှပ်
▁Kaw
ခရာ
="205
▁ကုန်ဆုံး
▁အစိုးရနှင့်
▁မဘိမ်းမြို့နယ်
▁ဆရာမ
ဖြစ်၏
တိုးမြှင့်
▁ပွဲဦးထွက်
တစ်ဝိုက်
▁အာဇာနည်
▁ဂလက်ဆီဖြစ်ပြီး
▁ရက်နေ့က
▁၂၅၀
▁Yae
▁ရွှေရောင်
▁ထိုအပင်
အုပ်စုတွင်
▁များမှာ
▁ဗိုင်းရပ်စ်
▁အကာအကွယ်
▁ရောင်စုံ
▁ကျွန်းတော
▁So
▁ခန့်တွင်
▁လက်ကိုင်
▁ဆောက်တည်
001
▁ဓာတ်အား
ထက်ပင်
▁၆၀၀
▁အသိဉာဏ်
ထကြွ
▁ငို
▁အကူအညီပေး
▁၁၈၃၄
▁စွမ်းရည်
ကထေရ်
ဖေး
အမွေအနှစ်
▁တစ်ခါတစ်ရံတွင်
ခံခဲ့ရပြီး
▁အများက
▁ယူဆောင်
-2
▁လိုင်စင်
တစ်စောင်
▁ဖြစ်ပေါ်လာသော
တမ်
ထားကြောင်း
▁၁၈၇၁
▁ပါဝင်ကြသည်။
▁မြေယာ
ခဲ့သော်
▁ဒါယကာ
လေလေ
▁အကျိုးပြု
▁ပဲခူးမြို့
bu
▁အောက်ဖော်ပြပါ
▁လွယ်လုံ
တစ်ခုလည်း
▁အရောင်းအဝယ်
▁ဖြစ်ပျက်
▁ဖယ်
▁Lo
ဖျောက်
ပုဒ်မ
ကား၊
▁အလက်
▁ဖန်ဆင်း
=210
▁ရွှံ့
ခီ
▁ဝဲကြီး
▁ရှုမြင်
▁ခြံ
▁ကြည်လင်
လိုက်သည့်
ana
▁ဖြန့်ချိခဲ့သည်။
▁နော့
▁နာမ်
ဗေ
က်စ်
▁အနိမ့်ဆုံး
တွန်း
▁ခွဲထုတ်
▁၁၈၆၉
م
▁သွတ်သွင်း
▁ကျောင်းတိုက်
▁တခါတရံ
မျက်နှာပြင်အထက်
▁မြို့ကို
ထည့်၍
မရမ်း
▁ချီးမြှင့်ခြင်း
▁မြစ်ဝ
▁Kyaukta
▁ပါရဂူဘွဲ့
▁အကြားတွင်
▁လူသားတို့
▁တစ်ခုတည်း
=108
▁အချုပ်
ကိုမဆို
▁ကျောင်းများ
▁မည်သူမျှ
="108
▁ကန်ကြီး
▁အမြောက်အများ
လွယ်ကူ
▁ဘုရားဖူး
8&
▁၁၈၂၈
▁Music
▁ပြောင်
▁မလုပ်
oc
လူကြီး
▁၁၈၅၆
ထွား
ကမ္မ
အရည်အချင်း
▁သစ်ရွက်
▁ကွန်း
▁ကလေးသူငယ်များ
အရည်အသွေး
▁မီးခိုး
ရှေးဟောင်း
▁ဒတ်ချ်
tta
IS
▁ကဲ့ရဲ့
ပြက္ခဒိန်
ဆေးပညာ
=85
အစားထိုး
▁အီလက်ထရွန်းနစ်
▁သန်းကျော်
▁မှားယွင်း
သင့်သော
▁ရှင်သာမဏေ
တြာ
▁ဘွဲ့ကို
▁၁၈၇၃
သံဃာ
▁ချန်ပီယံ
mm
▁တောင်ကြီးမြို့
▁မြို့ရွာ
သားများသည်
အာဏာပိုင်
▁မိန့်ခွန်း
ရှိသည့်အနက်
▁သူငယ်ချင်း
▁အဝိုင်း
ရမည်၊
▁ရှူ
ဆုံးရှုံး
သွားမည်
ဖြို
ငင်း
▁ဇာတ်လမ်းတွဲ
ဘိုင်း
▁ကုန်းမြင့်
▁စတု
▁အဖို
▁ချွန်
red
▁အနန္တ
▁မပြတ်
အလေးချိန်
za
▁အရေးပါသည့်
ထုတ်ဝေခဲ့သည်။
▁မေရီ
▁ဒေဝ
အချက်အလက်များ
တို့ဖြစ်ကြသည်။
ရှိခြင်း
ချက်မှာ
လုပ်ထုံးလုပ်နည်း
နိုင်လောက်အောင်
ကျန်းမာရေးဌာနခွဲ
▁အကျိုးကျေးဇူး
▁မိမိအား
ဝန်ကြီးအဖြစ်
ကွေ့ရွာ
▁တရားတော်
▁ဘွဲ့ရ
▁ကျွန်းကြီး
▁စာမူ
▁တပ်မတော်မှ
▁၂ဝဝဝ
dy
ဌာနမှ
▁ပဉ္စ
▁ခရီးထွက်
san
သတည်း။
▁၁၈၅၁
▁နေရာများတွင်
▁နွေး
▁ကင်ဆာ
ကျင်းပသော
book
စစ်သား
▁မဟာယာန
▁လွှင့်
▁ရေလဲ
သံ၊
ာ့ခ်
▁ရိုက်နှိပ်
အတု
men
ding
▁ရဟန်းတို့သည်
က္ကာ
နယ်မှ
ဗဲ
▁ရူပ
ရှိပေသည်။
ဆင်းတု
လျက်ရှိ၏။
▁ကြွယ်ဝ
▁တစ်ရက်
ပြစ်မှု
ခဲ့သလို
ကူးပြောင်း
ကဲ့
ွာ
ပင်မျိုး
တောက်ပ
▁ရောမမြို့
▁မှား
▁ကြို့ကုန်း
▁ဒုံးပျံ
▁ကျောင်းစုရွာ
တစ်ခုစီ
ခဲ့ဘူး
▁နတ်မောက်
အီရန်
ခြင်းအတွက်
▁ال
▁ကြမ်း
▁၁၈၅၃
သူနှင့်
our
-1
▁သမ္မတအဖြစ်
▁အထူးပြု
▁အသုံးပြုသူများ
55
မူဝါဒ
ညဉ့်
▁စာတိုက်
BS
▁ဝိဇ္ဇာဘွဲ့
▁အိရှိ
▁တွေကို
ဆေးဝါး
▁နိမ့်
▁ဇီးပင်
▁သတိပြု
▁သရေခေတ္တရာ
ဖောင်း
ဟပ်
သုံးဦး
▁စူးစမ်း
ပျစ်
ကိုဖြစ်စေ၊
▁Htan
ငုတ်
ပါ၏။
▁သမား
▁သီဟသူ
▁သင်္ဂြိုဟ်
လက်ရာများ
ks
▁တို့မှာ
ဟော့
▁အထောက်အထားများ
▁သူနှင့်
▁ချောက်
ထင်ရှားသော
ဟိုက်
▁အပင်မျိုး
▁ဘူမိဗေဒ
ထိရောက်
သလား
စုံစမ်း
▁ထိုနေရာ
▁သက်သက်
စွပ်စွဲ
ဆီကို
▁စားသုံးသူ
စပ်ဆို
▁ကောင်းမွန်စွာ
▁ဖြတ်တောက်
ဖျင်
ō
大
·
▁အပြီးသတ်
ွင်း
▁သဘောတူညီ
▁အီလက်ထရောနစ်
စတီ
▁စီးပွားရေးအရ
▁အလံနီ
▁ကမ္ဘာကြီး
▁၁၇၉၅
="85
နယ်မြေများ
ဆေ
▁စစ်ပွဲများ
▁ထိုကျောင်း
▁ကြီးမားသည့်
ရှယ်
North
▁၃ဝဝ
လာခဲ့ရာ
သို့ပြန်
▁၁၉၀၉
တစ်နိုင်ငံ
▁စာဖတ်
▁ကျော်ကြားသော
မည့်အကြောင်း
ကင်ဆာ
▁ရှိတတ်သည်။
အက်ဖ်
အနှစ်
IP
အတိုင်းအတာ
သားတို့သည်
▁၉၃
ခွင့်ပေး
▁ပဒေသရာဇ်
ဌာနများ
လေ့လာမှု
▁ညောင်ပင်ကြီး
နက္ခတ်
နှော
▁အရွက်များ
▁ပတ်သက်
▁သူနာပြု
တော်၊
▁ခုတ်
ه
▁ပန်ခမ့်မြို့နယ်
▁ဟော်
▁အကြောင်းကြား
▁Ru
▁ထန်းတော
တွင်းမှ
▁Lel
▁ကျောက်ဆောင်
▁ကွဲပြားသော
▁ထင်မြင်
▁အင်္ဂတေ
▁ဝဲဒေါင့်
တို့ထက်
မှို
ရေတွက်
ဌာန၊
▁၂၀၉၃
တွင်တည်ရှိသည်။
မှောင်
▁အောင်နိုင်
mu
▁စည်းစိမ်
▁နှာ
▁ကြီးပွား
▁ကျင်လည်
▁ကြောက်ရွံ့
▁လွတ်မြောက်ရေး
စကို
▁ပြိုကွဲ
▁အဆောက်အဦးများ
▁ဖွင့်ဆို
အစုံ
ရန်လည်း
မဖြစ်မီ
ရှိုး
▁နှစ်ပါး
▁အသုံးပြုပြီး
▁ဒီပဲယင်း
▁ထုထည်
▁အာဂျင်တီးနား
▁သိပ္ပံနှင့်
ညံ့
တပ်များကို
▁အရေးတော်ပုံ
ဟောင်းများ
▁စုံစမ်းစစ်ဆေး
တော့၊
ဆိုပြီး
▁ခူ
▁ယေရှု
▁လာဘ်
▁ပရို
သီဟ
▁မြို့တွင်း
ology
De
ပွက်
▁ဘီလျံ
▁မြင်းစီး
▁တောကြီး
ခဲ့တာ
ကွန်ရက်
▁မျိုးရင်း
▁တစ်ဦးချင်း
ရောမ
ဘဝတွင်
=78
▁ကျယ်ပြန့်သော
ရည်ရွယ်
▁ကျောင်းကုန်း
▁ဆော့ဖ်ဝဲ
▁အကျိုးအမြတ်
ness
▁၂၁၁၆
▁အပေါင်း
၅ဝ
▁ဂိမ်း
▁ရာဇာဓိရာဇ်
▁လုပ်ငန်းစဉ်
ခဲ့။
ဖိနပ်
ပရိုဂရမ်
▁record
တောင်ကုန်း
သီးခြား
မီယာ
▁မြစ်ဖျားခံ
ချက်များအရ
လေကြောင်း
▁နှိပ်စက်
▁၁၈၄၈
▁ထွက်ခွာသွား
တစ်နှစ်
▁ရသ
အလုပ်လုပ်
▁ဖီဂျီ
▁အသင်တို့သည်
▁ပရ
ရှုံး
fi
▁Mon
▁တရုပ်
ကြီးသော
ဒေသကို
ပြုသော
သံကို
▁စီးပွားရေးနှင့်
▁ကိရိယာများ
ပေါ်လာ
ချဲ့ထွင်
▁ကျယ်ဝန်း
▁သီးနှံ
တော်မူခြင်း
▁ကြိယာ
ပြိုင်ပွဲများ
▁ပြဿနာများ
▁ထိုင်းနိုင်ငံ၏
▁ဘိုးတော်
▁အရေ
ors
▁ရေပြင်
အစဉ်အလာ
▁ဧည့်သည်
▁သာယာဝတီမင်း
▁တစ်ကောင်
ဂေါ့
ill
▁မျိုးပွား
▁သက်သေခံ
ဒေသသည်
၌ကား
▁ကူကီး
ဘက်၌
▁အညီ
▁တစ်စိတ်တစ်ဒေသ
အမြောက်အမြား
▁သားသမီးများ
ဇရပ်
▁လူနည်းစု
ဉ္ဇ
▁hardcore
အေဂျင်စီ
မြို့မ
မြောင်ရွာ
▁ဆုတံဆိပ်
▁မော်တော်ကားလမ်း
ချဲ့
နေရင်း
▁ဘန်း
လက်အောက်ခံ
▁မြို့တော်မှာ
tro
ဇန
နှုန်းဖြင့်
ဘာသာစကားဖြင့်
▁သင်္ကြန်
ကျမ်းများ
ိယထေရ်
ပုံစံကို
▁မဏိပူရ
▁အိမ်ရှေ့မင်း
၂၀၁၆
▁အတူတူ
လုပ်ငန်းနှင့်
▁မည်သူမဆို
▁ရှိသည်
ဝိုက်
▁Per
▁ပြန့်ပွား
▁အသင်းကြီး
ခေါင်းစဉ်
▁အတိုင်ပင်ခံ
▁မေးခွန်း
မော်လမြိုင်မြို့
▁အာသာ
ခေး
ကြီ
ကာလများတွင်
တောင်ထိပ်
သားရေ
လာပြီးလျှင်
=48
၂၀၀၀
tra
နန့်
စစ်သည်
ata
ညွှန်ကြား
ဟူ၍လည်းကောင်း၊
▁လျှော်
▁တွန်း
တချို့
▁ကဗျာအမျိုးအစား
▁အရင်းရှင်
▁သို့ဖြစ်ရာ
▁မုံရွာမြို့နယ်၊
ဖျော်
▁မြိတ်
▁အဆစ်
="86
St
▁ဆရာတော်၏
▁မြန်မာနိုင်ငံမှ
▁၁၈၃၀
န္န
အသင်းများ
▁နံ
▁၂၁၁၇
ကာလက
▁နေထိုင်သူ
▁သို့နှင့်
၂၀၁၄
▁လျှော့ချ
ue
▁အစပြု၍
တာဝန်များကို
▁အခန်းကဏ္ဍ
မိုင်ရွာ
နှစ်ရပ်
▁တမာ
▁တစ်ဆူ
ကိုလိုနီ
ဗန်း
မဟုတ်။
54
=67
▁ဂုံညင်းတန်း
▁ဘန်ကောက်မြို့
▁ကျမ်းများ
▁စည်ပင်
▁အဆောင်အယောင်
ပူရ
▁server
▁နယ်သာလန်နိုင်ငံ
▁ကျွမ်းကျင်သူ
▁ကူးယူ
ကြေငြာ
ရာမှာ
▁တောင်အာရှ
ရှုပ်ထွေး
ပွဲစဉ်
သောနေရာ
▁အကြီး
လွတ်မြောက်
▁တာဝန်ပေးအပ်
▁စီးပွားဖြစ်
▁ဖုံးလွှမ်း
MS
ခရီးသွားလုပ်ငန်း
▁ခိုင်
=91
▁သတ်မှတ်သည်။
▁မပြုလုပ်
ကိုမျှ
▁အလုံး
စည်းစိမ်
မစား
▁သားမွေး
=55
▁ထန်
အောက်ရှိ
ခန့်မှန်း
ကောင်စီက
▁မိုးရေချိန်
ပြခန်း
ထားခဲ့
▁ကွေ့
တစ်ခုဖြစ်သော
▁နက္ခတာရာ
အောက်တိုဘာ
န်ရွာ၊
▁မြောက်လတ္တီတွဒ်
▁အဂ
▁သတ်မှတ်ကြသည်။
နှိုင်း
▁စမ်းချောင်း
q
ထရာ
အံ့၊
▁has
▁သရုပ်
NA
မေးမြန်း
West
ချိုင်း
▁တိုက်ပွဲဝင်
▁အဆက်မပြတ်
▁မီးသွေး
▁စာရေးသူ
▁၁၈၆၂
▁Thi
ဟာရ
▁မနက်
▁ဂွ
ဂေး
▁ဝတ္ထုများ
ပြီးသား
▁ဂရိနိုင်ငံ
ဝိန်း
သမင်
ကြသေးသည်။
ဖင်
ဖြစ်နေသည်။
▁ဈေးနှုန်း
စေရမည်။
▁အနောက်တောင်
အပင်များ
တစ်မျိုးမှာ
▁၁၉၂ဝ
▁နခ
▁၉၉
▁ဒုတိယသမ္မတ
ညောင်း
သေတ္တာ
▁ချေမှုန်း
တိုးတက်လာ
▁Long
▁ခေါ်ဆိုသည်။
တွာ
▁သုတေသနပြု
▁အငွေ့
ယူခြင်း
▁အဖြစ်သို့
ပြောင်းလဲမှု
စကြာ
မှုအား
ွိုက်
ပို့ဆောင်
▁ဆုတ်
Ka
ဘိက္ခုနီ
▁ကျော်လွန်
နိုင်ငံများသို့
လက်အောက်တွင်
ရေးတွင်
▁ဟိုး
▁ဟိုပန်
▁မည်သို့ပင်
▁စစ်တွေမြို့
▁ကြားဖြတ်
ဖြ
="206
▁တဘက်
ယူနိုက်တက်
ဟုပင်
▁ရွာကြီး
လိုသူ
so
▁ရေးခဲ့သည်။
ခန္ဓာ
▁လှုပ်
▁လတ်တလော
ဝင်၍
▁တနိုင်းမြို့နယ်
▁Kyon
▁နိုင်ငံပိုင်
▁black
ဆရာများ
ဂုတ်
▁တနင်္သာရီတိုင်း
▁ဗဟိုဌာနချုပ်
ဖျော်ဖြေ
ကိစ္စများ
အော
ကြည်ညို
ကြောင့်ဖြစ်သည်။
ညီညွတ်
တပ်များသည်
ခဏ
▁ဖော်ပြပါ
ကြသောကြောင့်
ရာအရပ်
စနစ်များ
ဘက်ကမ်း
ရုံမက
လမ်းညွှန်
အသင်းသည်
အမြတ်
ခံနေရ
လှည့်လည်
pi
▁ကယ်ဆယ်ရေး
=107
လာနိုင်
အသင်းကြီး
▁မီးဖို
▁အကုန်
တြ
=51
ဖောက်လုပ်
▁ဒဿန
တဲ့အတွက်
ဇေ
ပါရှိ
▁သရက်ပင်
ပရာ
▁မတိုင်မီ
ဟန်း
▁ပေးထားခြင်း
▁Seik
▁Yan
▁ရရှိခဲ့
▁မုဒုံမြို့နယ်
လူ့
▁ပါရှိသော
="75
▁ရွတ်ဆို
▁Maung
che
ဂီရိ
အခြေချ
▁ယနေ့အထိ
▁ငါးနှစ်
အနောက်စု
▁၅ဝဝ
မိုင်ခန့်
နှိပ်
တစ်စီး
gy
▁အတော်အတန်
▁အိမ်ထောင်ပြု
▁အစီရင်ခံ
သိမြင်
▁ပြန့်
▁ခေါင်းစဉ်
မျိုးနွယ်စု
▁နက္ခတ္တဗေဒ
ဝဲလ်
တာတွေ
ကတည်းကပင်
SA
အသုံးပြုသော
▁ပြေ
▁အဘယ့်ကြောင့်
▁ပဋိသန္ဓေ
▁100
▁တွေ့ရှိခဲ့သည်။
▁ဒြပ်
▁အကြော
ham
▁ပြင်သစ်တို့
နေသူများ
▁Award
တစ်ခုနှင့်
▁ခန့်အပ်ခဲ့သည်။
▁Star
ရှိသောကြောင့်
▁သူပုန်
လုပ်ရန်
▁မအူ
မရောက်
ပလီ
▁တော်ကီးန်
ဘာသာရေး
▁ကျွဲနွား
▁ရေနှင့်
ထူးချွန်
▁အထက်တွင်
စောင့်ရှောက်ရေး
▁ဖရန့်
▁၁၈၄၁
မှုများ၊
▁သလိပ်
▁အလယ်တန်းကျောင်း
ရဟတ်
ဆမ်
ပြီဖြစ်သည်။
▁သိမ်းသွင်း
▁သွပ်
နီယမ်
▁ကြီးစိုး
ဆွေး
▁သပြု
ကြိုးပမ်းမှု
=93
မြစ်နှင့်
ပုတ္တ
=54
▁သန်းခန့်
သယ်ဆောင်
▁စာရင်းအရ
▁အာဖဂန်နစ္စတန်
▁မြင့်တက်လာ
ပြူး
▁မာန်
▁လှမ်း
▁ဒဂုန်
ချိုင်
▁မောင်နှမ
မရှိပါ။
▁စန်း
▁ကတည်းက
▁၁၈၇၄
▁မော်ဒယ်
▁တက္ကသိုလ်တွင်
▁နေထိုင်ကြ
▁ကွဲလွဲ
▁နွေရာသီတွင်
လေးဆယ်
မူ၊
မရှိပဲ
မောင်းနှင်
▁ချိုးဖောက်
▁တပ်များ
အတွင်းဝန်
များတွင်မူ
▁တစ်နည်းအားဖြင့်
ပန်ဝိုင်မြို့နယ်
တိုင်ရွာ
▁Am
▁မရှိတော့
▁တိုင်းရင်း
▁မြေမျက်နှာပြင်
ဘာသာစကားကို
နီးစပ်
ခဲ့သည့်အတွက်
နှေး
▁ပုရပိုက်
ထို့အတွက်ကြောင့်
▁၁၈၇၅
ကထာ
▁တာဝန်များကို
ဒေသများသို့
▁သတ်မှတ်ပေး
စည်းမျဉ်း
တကျ
▁ဆောင်ရွက်ချက်
▁ပြုလုပ်နိုင်
▁သေဆုံးသူ
all
▁စေ့
▁အားကိုး
ဟောကြား
low
ကမ္ဘာလုံးဆိုင်ရာ
ling
▁ဝါရှင်တန်
▁အသီးအသီး
▁လူဝီ
▁ဟစ်
အရင်းအမြစ်
▁မိစ္ဆာ
အောက်စု
ရန်ပုံငွေ
▁မုံ
▁သတ်မှတ်ချက်
▁၁၆၉၉
မျိုးတို့
▁တပ်ဦး
上
▁ဟိမဝန္တာ
▁သနား
တ္ထိ
တားမြစ်
▁မသေ
▁အစီအစဉ်များ
▁ငွေစက္ကူ
▁had
သစ်ရွာ၊
▁ခမာ
တိုက်တွင်
နိုင်ငံများ၏
တည်၍
မကင်း
နှိမ်နင်း
▁ပဲ့
▁ပြည်နယ်နှင့်
▁သမ
▁မြတ်နိုး
ငတ်
▁12
▁ဖောင်ဒေးရှင်း
▁အလွတ်
▁စစ်တွေ
▁၁၇၈၉
ical
မှတ်ပုံတင်
▁၁၈၇၀
တော်၏
▁ဗျ
ရာ၌လည်း
▁ဖျော်ဖြေရေး
▁ဆစ်
အနွယ်
▁ပုပ်ရဟန်းမင်း
▁လူသူ
▁အလေး
="88
ean
ွီ
ရောက်ရှိလာ
တရုပ်
▁၁၈၂၅
နိုင်တဲ့
▁ကျန်စစ်သား
အကွာအဝေး
▁၁၈၂၇
ခဲ့လေ
▁တစ်ဦးတည်း
အလို့ငှာ
о
မဏ္ဍိုင်
ပညာရှိ
ပေးခဲ့ပြီး
war
har
▁တစ်နေ့လျှင်
၄၉။
▁နိုင်ငံတွင်း
အိုလံပစ်
ရှော့
▁ဟား
စည်းကမ်း
▁အတော်ပင်
▁အင်ဒို
အဂ္ဂ
▁ဟွန်း
ပရိသတ်
▁စေတီတော်ကို
ကြိမ်မြောက်
▁နက်ဗျူလာ
ကျက်စား
ort
▁မမြင်
▁ဤအ
ck
တော့မည်
တည်ထား
▁တာဝန်ပေး
ep
▁ယေ
▁မွေးသည်။
▁ဒုံ
▁ရှေးရိုး
▁၁၆၈၄
▁နှုန်း
▁အကြမ်း
▁လုံ့လ
▁၁၆၈၂
မလုပ်
ပိုင်ဆိုင်မှု
▁တည်ဆောက်ရေး
▁ခုနှစ်ကတည်းက
▁%
▁ပန်းပွင့်
▁ချထား
၂၀၀၈
▁ဗုံးကြဲ
ဘ၀
ထွက်ပြေး
▁ဝိုင်းဝန်း
ခန
နန္ဒာ
▁ကြိုဆို
▁name
▁မိမိကိုယ်တိုင်
ပုံစံဖြင့်
▁ဖြန့်ဖြူး
သေးငယ်
လယ်ရွာ
▁အာလူး
▁အကျုံးဝင်
စမ်းရွာ
▁၁၄။
ပင်ဖြစ်
အောက်သို့
ဖြတ်သန်း
▁၁၈၉၀
▁ဆင်းသက်လာ
▁ဆွန်
▁ရေချိုး
လိုင်ရွာ
ph
▁ရှန်
▁ခွက်
▁ကျွဲခြံ
▁စာပေနှင့်
ငါးရာ
▁အတတ်
▁၁၈၄၆
▁ပျော်ဝင်
ပလင်
ore
▁အိဝ
ယေး
မိသည်။
▁ဦးချို
အနီး၌
သင်္ဘောများ
▁ဆင်းရဲသား
▁အလုံ
▁တိုင်းသူပြည်သား
▁မော့
002
တစ်မျိုးဖြစ်ပြီး
ဂျေား
▁ပတ်လည်
▁တရားအားထုတ်
ဆရာတော်ကြီး
▁အဖြစ်လည်း
CE
▁ထာဝရ
ဟူ၍၎င်း၊
▁7
ဂွန်း
▁နာဝီးမြို့နယ်
ဓုတင်
▁zone
စီးတီး
▁လက်နက်များ
စရိုက်
အဘိဓာန်
▁ဆောင်ရွက်နိုင်
▁ချိတ်
▁အပန်းဖြေ
ဖော်ပြထားသည်။
▁အမြန်ဆုံး
ဖြင့်လည်းကောင်း
▁ရှုံးနိမ့်
▁ထုတ်ကုန်
▁ရွာတွင်
▁ပါဝင်လေသည်။
▁ဝါးတော
▁ပြိုင်ဘက်
အခြေပြု
▁ဇယား
လွှမ်းမိုးမှု
စာအုပ်ကို
▁ကြွရောက်
သို့လည်း
ခြင်းပင်ဖြစ်သည်။
▁Sh
▁ထွက်သော
အင်ဂျင်
▁ယူအက်စ်
မျိုးနှင့်
▁လွတ်လပ်ရေးရ
အလုံး
▁အလွန်ပင်
ိန္ဒ
▁ရှိပါတယ်။
009
▁Dr
▁ဘုတ်
ပြန့်ပွား
▁လက်ဝှေ့
လာပြီးနောက်
ထက်မြက်
port
▁ဤကန်
qu
ဇူး
▁ပြည်နယ်များ
၌ရှိသော
▁Mawlamyine
山
▁ဘုရားကုန်း
▁လူတစ်ဦး
▁အထင်အရှား
▁United
▁အလေးထား
▁ဒဏ်
▁သုံးဆောင်
▁မြန်မာတို့၏
တည်ရှိရာ
စန္ဒာ
▁သဘောကျ
ဏီ
▁ပဓာန
▁ကင်မရာ
▁အင်္ဂ
▁ဘာသာတရား
▁အရှေ့အလယ်ပိုင်း
701505
ဟရ
ကပြ
ကြွယ်ဝ
▁အမိန့်ပေး
ကုန်းတန်း
ဇေယျာ
▁စိတ္တ
▁နည်းလမ်းများ
▁ကျော်ကို
ဖောင်ဒေးရှင်း
ဥပဒေကို
▁ဆီးရီးယား
▁Sp
ပြီးတော့
ွိ
မင်းတို့
▁တပ်ပေါင်းစု
တစ်ဦးသည်
ဗွေ
▁သင်တန်းများ
▁အချိုး
▁သံပုရာ
ခြင်းမျိုး
သည့်အနေဖြင့်
ကိစ္စကို
▁ဂွေးကုန်း
▁ဟစ်တလာ
▁တောက်ပ
▁ရှေ့သို့
▁၁၈၂၂
အကြောင်းအရာများ
ရှိဘူတာ
68
▁ဖလမ်းမြို့နယ်၊
▁ဘူတာ
▁ထုံ
ကဗျာများ
မှန်သမျှ
တည်ရှိနေ
▁ထိရောက်စွာ
တုံ့ပြန်
▁days
▁ငြင်းဆန်
သင်တန်းကျောင်း
သုံးနှုန်း
တွမ်
="84
▁ကြေညာချက်
မျိုး၊
နေချိန်တွင်
▁တတိယအကြိမ်
▁အညာ
▁အစချီ
▁အထောက်အကူပြု
▁ဖိတ်ကြား
▁အငြင်းပွား
ဖစ်
▁ရေငုပ်သင်္ဘော
▁လွန်ခဲ့သည့်
ပေးထားသည်။
▁သတ္တမ
▁ကန်တော့
▁ပင်လယ်ပြင်
▁အကောင်း
▁မှတ်တမ်းတင်ထား
ဖြစ်လာပြီး
ယယ်
▁တစ်စု
▁ထင်ရှားစွာ
▁အအေး
ရည်ရွယ်ချက်ဖြင့်
lon
▁ဘန်ကောက်
သီး၊
▁စားပွဲ
▁ထိုရွာသည်
ခြင်းမရှိပေ။
▁သာလွန်
တစ်ပိုင်း
တစ်ချို့
AN
▁သံသယ
အထက်ပိုင်း
▁Nga
▁ကော်မတီဝင်
ပြင်ပ
▁တိုက်ပွဲများ
bar
▁death
နိုင်ဘဲ
▁နာရီတွင်
မြန်မာအမျိုးသမီး
ခြားနား
▁Shan
▁ဟိုက်
ရသည်မှာ
▁ရေယာဉ်
ဘွတ်
=135
▁အမရပူရမြို့နယ်၊
▁ရသော
မိဖုရားခေါင်ကြီး
▁ဗျိုင်း
ative
▁၁၈၁၂
မြှင့်တင်
▁တစ်စုံတစ်ရာ
မျိုးဖြင့်
▁မြင်သာ
▁နေရ
▁စတင်ခဲ့ပြီး
▁ပိ
▁၁၈၂၃
▁ပျောက်ဆုံး
▁ကျန်ရစ်
="135
▁Tu
▁လက်ဆက်
▁သိရှိရသည်။
▁တနင်္ဂနွေ
ကြီးငယ်
▁အုံး
▁ခေါ်ဝေါ်ကြသည်။
▁အိန္ဒိယ၊
▁ခေါ်ဆိုကြသည်။
▁ပင်လုံ
နှစ်ဆယ်
▁ထောပတ်
ပုပ္ဖိယထေရ်
မှတ်တမ်းတင်
▁ဟိုင်
▁ဆိုက်ရောက်
ဇူလိုင်
တော်တွင်
လက်ဝဲ
▁သူကိုယ်တိုင်
▁၇၀၀
ကလောင်
▁ညွှန်းဆို
နေခဲ့
ဗူ
ဖယ်ရှား
ပေပြီ။
ရှောက်
▁စာသင်
gan
▁တရုတ်တို့
ရောဂါများ
▁သင်္ခါရ
▁စစ်သူကြီး
▁ယူဇနာ
ste
par
▁သုံးဦး
ဆိုရှယ်လစ်
▁ဩဝါဒ
ဂျော့
သူပုန်
day
▁ဇာတ်ကောင်
▁ဖျက်
တွင်ပါဝင်
ပါဝင်မှု
▁ခရစ်ယန်
ဇမ်
တစ်နိုင်ငံလုံး
တို့ထံမှ
ဖျင်း
▁သူရ
နွန်
လှံ
▁ကွေး
ပျ
များအနေဖြင့်
ကလေးကို
ft
▁ခဲယဉ်း
လီယာ
▁ဇနီးဖြစ်သူ
မီက
▁၁၈၅၅
▁အသုံးများ
▁အသုံးပြုပုံ
ဖြစ်သည်၊
▁စက်ဝိုင်း
▁သုံးဆယ်
▁၁၇၈၈
▁တု
▁စာသင်ကျောင်း
ခါနီး
▁ပြည်သူ့ရဲဘော်
▁ဖြစ်နေသည်။
▁ဗေ
▁ရေအားလျှပ်စစ်
လှာ
▁အမှတ်လက္ခဏာ
▁ကျင်းပသည်။
▁နေရောင်
ိတ်
အမေရိက
▁ခေါင်းဆောင်မှု
▁Maw
▁ခဏ
သည်ဖြစ်စေ
အလီ
အဖွဲ့ဝင်များ
ပြောကြားခဲ့သည်။
ဝူ
▁ငှက်ဖျားရောဂါ
အထောက်အပံ့
ဿာ
ငါသည်
အိပ်မက်
အစိုးရမှ
မြတ်နိုး
▁အကြီးဆုံးမြို့
နောက်ခံ
▁အဋ္ဌမ
ယ့်
▁သွယ်
အဝင်
သုံးယောက်
=208
▁တပ်မတော်ကာကွယ်
▁၃၀၀၀
▁လု
=137
ပေ၏။
;5
ခိုင်မာ
▁မုံရွာမြို့
အဆောင်
▁ဤသုတ္တန်
ထန်ရွာ
▁ကနေ
="137
ဘဝက
▁အယူ
▁၁၅ဝ
▁နောက်လိုက်
▁ကျန်း
ဆရာအဖြစ်
▁ခန့်ရှိသည်။
ခန့်သာ
▁ထားဝယ်မြို့
ခဲ့ကြသည့်
▁အောက်လွှတ်တော်
တော်မူရာ
ပင်ပန်း
van
သည်ဟူ၍
လိုကြောင်း
▁၁၇၆၉
▁လမ်းများ
ဖြစ်ခဲ့ပြီး
စမစ်
ခန့်ထား
▁စစ်ကြောင်း
▁နာဇီ
အမိန့်ကြော်ငြာစာ
ပြစ်ဒဏ်
▁ရေးသားခဲ့သော
▁ဟုခေါ်သည့်
ဟူသည်မှာ
ရန်လိုအပ်
▁ဘုရားသခင်၏
ဝီး
ပညာသင်
▁un
ဝင်ရိုးစွန်း
ပရို
▁အထပ်
Al
ရေကြောင်း
▁အရည်ပျော်
▁၉၄
ဆန္ဒပြ
သွားလျှင်
ပဲခူး
ern
▁up
▁ရွှေတံဆိပ်
▁သဏ္ဌာန်
အရှိဆုံး
▁two
ဟိုတယ်
▁သမိုင်းပညာရှင်
▁ပထမဦးစွာ
▁Google
ထုတ်လုပ်ခြင်း
▁ငါးပိ
ကြီးကြပ်
▁ဆရာကြီးသည်
▁နေထိုင်သော
ဗန်းမော်မြို့နယ်
▁သဗ္ဗ
ကျယ်ပြန့်
ရေကို
သက်ရောက်မှု
▁တန်ချိန်
ထရို
▁ထူးခြားချက်
သီတာ
▁ပျဉ်
ခွဲများ
အနောက်ဘက်
59
ထွက်သော
ပြုပြီး
ast
ဘောလုံးအသင်း
အူး
▁၁၆၇၇
▁ပုံ။
၍လည်း
▁တောင်းခံ
▁ချောင်
▁ထပ်ဆင့်
အစေ့
▁အသေ
တောင်းရွာ
▁၁၈၃၉
ဖွဲ့ဆို
ဖက်သို့
တွင်ကား
▁ဖော်ပြချက်
▁အာဏာကို
ပေးလေသည်။
▁၁၇၆၄
▁ဒဂုံ
သတ္တဝါများ
အချို့မှာ
သာရှိသည်။
စားခြင်း
▁ဝံပုလွေ
စနစ်သည်
▁ပေါ်လစီ
▁သုံးမျိုး
ရှိခြင်း၊
ယန်ကျေးရွာအုပ်စု
ယစ်
▁စစ်ချီ
▁အမည်နာမ
ရှိ၍၊
▁နှစ်ခန့်
▁မက္က
▁El
▁ရု
မယ်တော်
▁ယူအေအီး
▁စကြဝတေးမင်း
▁ခန့်အပ်ခြင်း
▁အိန
▁များမကြာမီ
▁ဆော
▁ဂျွန်ဆင်
▁အခြားသူများ
နှင့်တူ
ကြူး
တည်ဆောက်ရေး
▁အိန္ဒိယနိုင်ငံ၏
သွားသဖြင့်
▁ထီးနန်းကို
▁အနိစ္စ
▁ချိုင့်ဝှမ်း
▁ဆက်မြောက်
▁ရဲတိုက်
တတ်သဖြင့်
▁ကုဋေ
▁အဘိုး
▁သိုလှောင်
ဖရုံ
စစ်ကိုင်း
▁မရနိုင်
▁တံတားဦး
ပြောင်းလဲခြင်း
တစ်ချပ်
▁၁၈၁၁
▁new
မူကြမ်း
▁ဗန်
▁အာသံ
ရပ်ဝန်း
လိယ
▁စက်ရုံများ
ဇလုပ်
▁ပါတီဝင်
ome
ဇာတ်တော်
▁နေထိုင်ခဲ့သည်။
▁မြင့်တက်
နတ်သမီး
▁အပ
▁ပါလာ
အရာရှိများ
="111
▁ကမ္မဋ္ဌာန်း
▁လွှဲပြောင်းပေး
▁ကီး
▁သဘာဝဓာတ်ငွေ့
▁ဆရာစံ
လယ်ကျေးရွာအုပ်စု
တက်လာ
ဂိမ်း
▁သမ္မာ
မုခ်
▁တောင်တန်းများ
အနု
▁ဆင်ခေါင်း
ပြုလုပ်၍
▁ပါဠိဘာသာ
ပညတ်
▁ပါဝင်ယှဉ်ပြိုင်
▁Inn
လက်နက်များ
န္ဓ
▁ကြီးကျယ်
▁ကျတီ
ဘွဲ့ဖြင့်
▁လက္ခဏာများ
▁နေထိုင်သူများ
▁လိုအပ်သလို
ကြိမ်တိုင်တိုင်
မည်သည့်
ပျင်း
▁ရှမ်းစု
ကောင့်
▁လောဘ
တစ်ပင်
▁one
န်းရွာ၊
▁ဖာရင်ဟိုက်
▁စစ်ဆေးခြင်း
▁အစာကို
▁လိုချင်
▁လေ့လာမှု
ကြရာတွင်
၂၀၁၃
▁၁၇၉၂
▁ဆူပူ
▁ကျောက်တောင်
▁ထင်မှတ်
တည်ရာ
ပဲ။
နှစ်များတွင်
ဖိန်း
▁အမျိုးအစားများ
▁၁၈၃၃
▁ဟိုင်း
▁တစ်ခုဖြစ်ပြီး
▁အရှေ့အာရှ
▁မန်ကျည်း
နံ့သာ
▁စာရွက်စာတမ်း
▁ပို့ဆောင်ရေး
ဖြင်
သျှင်
▁ရရှိခဲ့ပြီး
▁တည်ဆောက်ရန်
▁ပရိယတ္တိ
စတား
အောင်၊
▁ဟင်
▁လိမ်
▁ရောင်ခြည်
▁လူသိများသော
▁တို့ဗမာ
ပေးသူ
အရာကို
ရွှေ့ပြောင်း
ခလုတ်
▁အင်္ကျီ
ကျွန်းများ
တောင်တန်းများ
▁အင်ဆူလင်
မွ
56
▁ယင်းတို့အနက်
▁၁၈၁၅
အမျိုးသမီးများ
▁ထုတ်ပြန်ခဲ့သည်။
▁လျှပ်စစ်သံလိုက်
အသုံးပြုမှု
://
▁၁၆၆၄
ထားလျှင်
▁သေဒဏ်
ဒေသ၏
▁အလှူခံ
▁စတင်တည်ထောင်ခဲ့
▁မြန်မာ့သမိုင်း
▁ရေးသားထားသော
▁အခေါ်အဝေါ်
▁မွေးမြူရေး
ပန်းပင်
▁အိန္ဒိယနိုင်ငံ၊
▁ပါဠိတော်
လျှက်ရှိ
▁ဝမ်းနည်း
အမှတ်အသား
▁နှစ်အောက်
▁ဦးဖိုး
▁ငြိမ်းချမ်း
▁ဒလ
▁ဇေယျ
မဏိ
▁ချော
▁ကမ်းလှမ်း
▁တည်ထောင်ခဲ့ပြီး
▁ကလောင်အမည်
▁အသုံးပြုခွင့်
အသစ်ကို
▁ထိုးဖောက်
ရေတွင်း
;4
75
ခရိုင်ခွဲ
▁တီးဝိုင်းသည်
▁တိုင်အောင်
▁မတွေ့ရ
▁Sun
ဆက်စပ်
ရှိရာသို့
▁ပြည်မ
ပမ်း
အစ္စလာမ်
ဖြင့်ပင်
ကြားရှိ
iv
ဒေသ၌
ကဒ်
ဇိုး
▁အီကွေတာ
ِ
=110
▁ထိုအကြောင်းကို
▁တယ်လီဖုန်း
▁ကျွန်တော့်
ဘရ
rit
အချို့သည်
▁ဂွေးပင်
▁တင်စား
ara
▁အကောင်အထည်
▁တူသည်။
▁ထုတ်လုပ်သော
▁ဟောတော်မူ
တိုက်ရိုက်
ပြသည်။
တွတ်
▁နဖူး
▁ဆိပ်သာ
tri
▁ကြို့ပင်
ပါဟု
▁ဖြစ်ရာ
▁ဖလား
နေတာ
▁၁၇၅၈
▁ဆိုပြီး
▁ယူဆရသည်။
▁အင်းဝမြို့
▁အဆက်
ကျောင်းသို့
မြို့မှာ
▁ကလေးငယ်
▁လောင်ကျွမ်း
▁ဂျပန်ခေတ်
လျှို
မည်၊
ရှေ့လောင်ဂျီတွဒ်
အဝတ်
နေစဉ်အတွင်း
58
လုံးတွင်
▁ဂျိုး
▁Bar
▁ကြုံတွေ့
▁မပေး
law
▁ဘရာဇီးနိုင်ငံ
▁ယင်းကဲ့သို့
▁သတိုး
▁We
တည်ထောင်ခဲ့သည်။
▁ကညင်ကုန်း
ထောက်လှမ်းရေး
65
ရခဲ့သည်။
▁ပုံတူ
ကွန်ဂရက်
▁ပစိဖိတ်သမုဒ္ဒရာ
▁အသင်းဝင်
▁ကမ္ဘာဦး
▁မတူညီသော
▁တောတွင်း
တက
များအကြောင်း
▁ကြားရ
အမှတ်မှာ
▁ဝတ္ထုတိုများ
line
တောင်ကြား
▁ရုပ်သံလိုင်း
▁ရှိကြောင်း
ဠာ
ပေးကြသည်။
▁၁၇၅၂
tal
▁ကြားတွင်
ဂိုဏ်းဝင်
▁မှီခို
ဘစ်
▁ရှိကြ
စဉ်အတွင်း
တ္
▁လက်တွဲ
▁လျော်
▁ဒါပေမယ့်
အထည်
tter
▁ဩစတြေးလျနိုင်ငံ
▁၎င်းအား
="87
▁သတ်မှတ်ခြင်း
="110
gar
▁စုပ်ယူ
unt
အထိမ်းအမှတ်
▁အမှုန့်
▁အနော်ရထာ
▁ချစ်သူ
▁ကျနော်
gi
အကယ်ဒမီ
ဖေဖော်ဝါရီ
သူများ၊
yn
▁သံဃာတော်များ
▁အချမ်းသာဆုံး
၂၀၁၂
မြေပုံ
▁တည်ရှိရာ
▁Billboard
တရားတော်
▁မိန့်တော်မူ
▁ရစ်ချတ်
ဂါမ
▁၈၁
သိဒ္ဓိ
ကောက်ခံ
▁ပြန်သွား
▁၁၇၉၃
ရောင်ခြင်း၊
▁စာအုပ်တွင်
▁မိုင်းပတ်
လက်သို့
မှုပြု
▁အာရ
ဍ
နန်းတက်
▁သုတ
▁မျှော်
▁ချောင်းဖျား
ခြင်းဖြစ်
လျူ
▁မျက်မှောက်ခေတ်
အခြေအနေကို
▁King
▁၁၈၇၇
▁ခင်ပွန်း
▁သုံးသည်။
▁ရပ်စောက်
▁မကောင်းမှု
▁ထိုစာအုပ်
▁နယ်ခြား
လည်းဖြစ်
နိုင်၊
▁၁၇၅၉
ပင်၏
▁ဒူ
▁ဘုရားချောင်း
▁ပြုတ်
▁ငဖဲမြို့နယ်
စေရာ
တစ်ခုအနေဖြင့်
ဆောင်းပါးများ
ရှိပါတယ်။
လိုအပ်သော
▁အောင်း
▁ညွန့်ပေါင်း
များဖြစ်ပြီး
ယူရန်
ဆွန်း
▁တန်ဆောင်မုန်း
IC
▁မလို
လာသောကြောင့်
ကာလ၌
▁ရောင်းဝယ်
▁ပြောင်းလဲလာ
▁ဂျီဩမေတြီ
သူမ
▁ဖြုတ်
ဧပြီ
ကသိုဏ်း
▁alternative
▁ဂျော်ဂျီယာ
▁ကမ္ဘာအနှံ့
▁Hs
လျှို့ဝှက်
▁ဖွံ့ဖြိုးဆဲ
ဇာတ်လမ်းများ
ချောင်းဖျား
▁ဆိုလျှင်
▁လုပ်သား
▁တရားကို
ဆန်ဆန်
▁အံ့ဩ
အနွယ်ဝင်
▁ချောင်းဝ
▁၁၈၄၇
ရပါ
="89
▁၉ဝ
အခွေ
ရေးဦးစီးဌာန
ထိမ်း
ပို့ဆောင်ရေး
▁လမ်းမကြီး
▁အထူးပင်
kin
▁၁၇၆၃
ငရဲ
ထိတွေ့
▁ဆက်နွယ်
ငြား
ဖြစ်နေသော
▁တွန်းလှန်
▁မိတ်ဆက်
အားကစားကွင်း
ဘိန်း
အရှေ့စု
ဖော်ပြထားပါသည်။
▁တင်ပို့ရောင်းချ
▁ယူခဲ့သည်။
▁၁၇၆၀
▁ရေစီး
ပိုင်းခြား
ငွေကို
မှာကား
စီးရီး
=52
▁ဖြစ်ကြ၏။
ဘိက္ခုနီမ
အရေးကြီး
▁ဖုဂျိ
▁ဂီတကို
▁US
ရဟန်းတို့
▁ရင်းမြစ်
ကြကြောင်း
▁ဧချင်း
ဒဏ်ရာ
▁လွှဲ
▁နိုင်ငံရေး၊
လမ်းကို
▁ရွာသာ
fa
လုံးဝ
သည်လည်းကောင်း၊
е
▁have
▁တရားလွှတ်တော်
နံ့
ဘားမား
ဝေးသော
အနည်းဆုံး
▁ရွှေ့
▁အင်္ဂလိပ်အစိုးရ
ကျောက်တိုင်
▁နံ့သာ
ုပ်သံဇာတ်လမ်းတွဲ
▁ဇရပ်
တင်၊
▁မန္တ
▁သင်ကြားပို့ချ
▁၈၂
နှိပ်စက်
ရသည်ဟု
ight
▁ကန်း
များမှာမူ
မျှား
ဂရီ
လောက်က
▁၎င်းမှာ
▁အသုံးဝင်ပုံ
▁ဂျပ်
▁ခမ်း
▁ပါဝင်ခဲ့ပြီး
ဖော်ပြခဲ့သည်။
ရလဒ်
မှတ်တမ်းများ
▁ဝန်ကြီးအဖြစ်
ဘုရားသည်
▁ထိုကျွန်း
Na
▁ရည်ရွယ်ချက်မှာ
EC
light
▁ပညာဆည်းပူး
ပေးရမည်။
▁နေအဖွဲ့အစည်း
မလဲ
▁သက်ဆိုင်သည့်
▁၁၅။
ကို၎င်း၊
▁ဇွဲ
လုပ်ငန်းစဉ်
အွန်း
▁ခင်မောင်
ပြည်သူ
▁ပူး
▁အနီးရှိ
▁နူးညံ့
မောင်၊
ကြည်လင်
တန်ချိန်
▁ပန်းခြံ
လောက်သာ
▁ဦးခင်မောင်
▁အင်းမ
▁စည်းလုံး
▁မလိုလား
▁mainstream
ကောင်းများ
▁ဝါဂွမ်း
▁နောက်ခံသမိုင်း
အရှေ့ဘက်
▁ရဟန်းတော်
▁ရရှိသည့်
▁၁၇၉၁
▁ဆမ်
ory
▁နယ်သာလန်
▁၁၆၄၄
▁ကိုးကွယ်မှု
တယ်ဆိုတာ
▁စနေ
▁ကျွမ်းကျင်မှု
▁လူပျို
▁ဖုန်
ဖြစ်ကြသည်။
▁သံဘို
ney
70350
▁မီလီမီတာ
လုပ်ပိုင်ခွင့်
ွင်
ဂုဏ်ပြု
▁ချောင်းဆိုး
▁မြောက်ကိုရီးယား
▁ယခုခေတ်တွင်
▁အစ္စလာမ်ဘာသာ
▁စီးပွားရေး၊
ကွာဝေး
လီရှော
▁ကျွန်းကလေး
အစိုးရကို
ရွန်း
ရရှိသည့်
▁ခွင့်
▁ဟုဆိုသည်။
စေတီကို
▁ဆင်ယင်
▁တာဝန်ကို
▁ပြည်တော်သာ
မရွာ
▁၁၂၀
▁တွေ့ဆုံဆွေးနွေး
စ္
▁BD
တတ်ပြီး
▁အမှုထမ်းခဲ့သည်။
အချိန်က
တော်စပ်သူ
▁အစေး
▁အသက်မွေးဝမ်း
▁ကျန်ရှိ
လက်ပန်
လေ့ရှိ၏။
▁ဖြစ်လာလေသည်။
ရင်းနှီးမြုပ်နှံ
▁guitar
▁အီတာလျံ
ရာ၏၊
ren
▁၁၁၀
▁ချပ်
▁နမ့်ဖိုင်
မို့၊
▁မိုးလေဝသ
▁၁ဝဝဝ
="64
▁ရက်ကန်း
▁ဆင်ကူး
▁၁၈၄၂
သမာ
အာဏာကို
▁သာမန်အားဖြင့်
▁သက္ကတ
=62
ကြွေး
မိဘ
ရှားပါး
▁၇ဝ
▁၁၈၄၉
▁အဓမ္မ
မချိဘူတာ
▁မိခင်ဖြစ်သူ
▁၁၆၈၃
လောကသို့
▁ရေနွေး
▁အဖမ်း
စွတ်
▁ရေသွင်း
▁(5)
သက်သေ
▁Than
▁စူဠ
ိန်း
▁လျော့
▁တယ်
▁တောင်ဘက်သို့
နယ်များ
▁လေးနှစ်
ခဲ့ခြင်းကြောင့်
ith
စက်တင်ဘာ
လွမ်
▁ကျူတော
အားလည်း
ရိုင်းတိရစ္ဆာန်
သူလည်း
▁ဟန်ဂေရီ
▁မြန်
="93
ကြမည်
▁၈၆
နိုင်သမျှ
ခြင်းခံရသော
▁စိ
▁နေရာဒေသ
ုန်း
ဂျောင်
▁Naruto
=133
ပြီးသည့်
▁ကောက်ညှင်း
▁Let
ဒီဇင်ဘာ
တတ်လေသည်။
လောက်သော
▁ကွာဝေး
▁တစ်ပြိုင်နက်
▁နွားနို့
▁အင်ပိုင်ယာ
▁သေချာစွာ
▁၁၈၄၃
▁၎င်းတွင်
▁၇၆
▁ဖြန့်ဝေ
တစ်ဝိုက်တွင်
▁မျိုးနွယ်စု
▁ကျိုင်း
▁၁၇၀၆
ကြီးများနှင့်
လမ်းမ
ဒေသနှင့်
ack
ဂျာမန်
▁ညီမျှ
▁အပြိုင်
သည်ဟုဆို
▁အောင်မြေ
မမြင်
'()
▁ကြမ်းတမ်း
▁နေသည်။
="133
သိမ်းဆည်း
စစ်ဆင်ရေးက
ရာသီတွင်
ဝူး
အဝေး
▁အုပ်ချုပ်သည်။
▁Sha
ာန်
နယ်ပယ်တွင်
မင်းများ
▁ဂျာမန်တို့
မြို့အနီး
▁ဘူမိ
bin
▁ဝီရိယ
▁နပိုလီယန်
နယ်သည်
▁ကျွန်းချောင်း
▁ဆိုလိုသည်မှာ
▁တိုကျိုမြို့
▁ထူထပ်
ဂုဏ်ရည်
▁တရားခံ
တရ
▁အလွန်အမင်း
၏အဓိက
ချစ်ခင်
▁module
▁ကိုယ်စား
နတ်သား
▁ကျောင်းသူ
▁အောက်မေ့
len
▁စားသောက်ဆိုင်
▁ရှည်သည်။
ّ
▁တယ်လီစကုပ်
▁အတိအလင်း
▁ပြောက်ကျား
▁Kyaung
ဇန်း
နိုင်ငံအဖြစ်
▁ဥရောပတိုက်တွင်
▁လှူဒါန်းခဲ့သည်။
▁လှပသော
အင်တာနက်
▁Metal
▁အလှအပ
▁မည်သို့မျှ
▁အလုပ်အမှုဆောင်
ခြင်းဆိုင်ရာ
ဝိတ်
ဇတ်
▁တံတိုင်း
အဖြေ
▁ဗောဓိပင်
လာပြီ
ပေါင်းစည်း
ပျား
ခြစ်
▁အယ်လ်ဘမ်
တွင်လည်းကောင်း
▁၁၇၆၅
ကျမ်းတွင်
ပညာသည်
ဝန်ထောက်
out
ဖွားမြင်
nes
ခဲ့ပုံ
▁ပြောင်းလဲခြင်း
ယုန်
ဥမင်
▁Africa
pho
စိတ်ဝင်စား
▁အဲဒါ
▁ပျောက်ကွယ်
▁၁၈၀၇
▁ဘာသာပြန်ဆို
ဝန်ထမ်းများ
ပြည့်ဝ
▁ဖွဲ့စည်းထား
Po
လှချေ။
တပ်ကို
▁တည်တံ့
ဘုရားရှိခိုး
ဆောင်ရွက်ရေး
▁၁၆၇၂
▁စန္ဒာ
▁ဝိတိုရိယ
og
▁ကျန်းမာရေးနှင့်
▁၁၈၄၅
ဆင်းတုတော်
ကျွန်း၏
▁(1
ay
▁တိုက်ခိုက်ရေး
▁ဖြစ်ခဲ့ပြီး
ပါရှိသော
pan
▁ချေ။
=130
ဆင်းသက်
▁နေထိုင်ကြသော
ဒရာ
▁အနိုင်
▁သောကြောင့်
▁ပွားများ
▁ဃ
▁ပိုက်ဆံ
▁ဖောက်ပြန်
▁IV
နိုဝင်ဘာ
64
ပသ
▁၁၇၃၁
zi
▁တံငါ
မျိုးဖြစ်၍
▁တန်ဆောင်မုန်းလ
နမူနာ
လိုစိတ်
ကောင်ရေ
sang
=96
ြန်မာနိုင်ငံတော်
နှီး
="212
tin
▁တရုတ်နိုင်ငံ၊
နေပြီဖြစ်သည်။
▁ပြောသည်။
▁အဆိုရှိသည်။
မရှိ။
ဓာတ်တော်
▁ရောက်သည်။
နိုင်လျှင်
▁တိရိစ္ဆာန်
▁ပဲခူးတိုင်း
="130
▁ထားသည်။
▁pre
သမျှသော
ရတော့သည်။
ug
▁ဥပဒေများ
▁ထုံးစံ
▁ဟားခါးခရိုင်
▁16
ဂမ်
ရှိသူများ
;1
▁နှစ်သား
သင်္ချိုင်း
▁စစ်သည်
▁အသိအမှတ်
▁ချော်
▁အသုံးပြုထားသည်။
▁တပ်မြို့
နိပါတ်
▁အကောက်
▁ဂေါတမ
▁ဖြာထွက်
နောက်တွင်
▁ပေးသည်။
▁နောက်ဆုံး၌
▁ဘားမား
▁တန်ဆောင်း
ညွှတ်
▁language
▁နဂါးငွေ့တန်း
အရာ၌
ချူပ်
စေခြင်းဖြင့်
▁music
▁တပည့်တော်
ပြုလုပ်ခဲ့သည်။
ညီညွတ်ရေး
▁Tar
▁ရှိနေသည်။
▁အသုံးအဆောင်
▁ဤကား
▁ဗားရှင်း
▁၂၁၅၉
သို့ပြောင်းရွှေ့
▁တပေါင်းလ
▁အစုံ
ဘယ
▁Br
▁ပုံနှိပ်တိုက်
နေရသော
▁အိန္ဒိယနှင့်
▁၁၇၀၅
မှူးအဖြစ်
▁မှော်ဘီ
တခုခု
▁ရေးဖွဲ့
ဂုဏ်ထူး
ပြည်ကို
များအားလုံး
▁ဇာတ်ညွှန်း
အောက်၌
▁ရွာသွန်း
▁၁၆၈၈
▁ဖောင်း
ခုတွင်
ဆိုလို
▁တည်ဆောက်မှု
ခေါ်ယူ
▁သဘောတူညီမှု
နာယက
အရက်
ကျန့်
တဲ့၊
▁အလ္လာဟ်
▁ကုမ္ပဏီ၏
နှင့်အခြား
▁ဘွဲ့အမည်
▁other
▁အတုယူ
▁သုတေသီ
နျ
RC
▁သီချင်းကို
Sa
ပန္န
▁မော်စကိုမြို့
▁မိုးရေ
မြတ်သော
▁ပေးရန်
အုပ်ချုပ်ခဲ့သည်။
ဘဝသို့
အရေးပါ
ချိုင့်ဝှမ်း
တမံ
▁လက်ထပ်ခဲ့သည်။
ဎ
▁first
▁လျော့ချ
တတ်၍
ကလောင်ဖာမြို့နယ်
အိမ်ထောင်
▁ရေးသားထားသည်။
ဖြူး
▁အသံကို
လျက်ရှိပါသည်။
▁ကောင်းမွန်သော
ဂေ
▁ဝတ်ပြု
တပ်သား
တစ်ဦးနှင့်
အပြား
▁မြင့်သည်။
▁အာဏာရ
▁ကထိက
▁ဝေါဟာရကို
▁UTC
▁ခူး
▁ပျက်ပြား
▁ကိစ္စရပ်များ
▁မအူပင်
ရို့
▁ကရင်နီ
bit
▁တစ်မြို့
ရေးမှူး
နှစ်ကြာ
▁စူပါ
▁လိုအပ်ချက်
အမြဲ
▁ဝိညာဉ်
▁မြန်မာအစိုးရ
▁ရွှေပြည်
▁ဟုဆို
လက်ထက်က
▁သံဃ
အကြောင်းရင်း
cho
▁၁၆၉၂
eng
▁ကန်၏
မြိတ်
▁ရွာသာယာ
▁ခြုံ
ပေ၊
ပုံရွာ
ရုတ်
▁ချွေး
ဝတ္ထုများ
လျှ
▁သံဃာတော်
တီးဝိုင်းများသည်
▁လေးမျက်နှာ
▁သံဖြူ
မှအစ
သူတို့အား
▁လေးခု
▁သည်းခြေ
▁ကွာရှင်း
▁အိမ်ထောင်ကျ
သလင်း
▁ကြိုက်
▁ကက်သလစ်
အင်္ဂလိပ်လူမျိုး
အသုံးပြုခြင်း
ကြားမှ
▁ကိုးကွယ်ယုံကြည်
▁ဆေးလိပ်
▁Pyay
ကလူ
မင်းသားသည်
လေးကျေးရွာအုပ်စု
▁ချွတ်
▁အညိုရောင်
ရှိတဲ့
▁ဂရု
ခဲ့ကြသည်
နိသျ၊
အဖြစ်အပျက်
ကိုင်တွယ်
▁မရိုး
▁တောတောင်
▁၂၀၂၉
▁ပေါ်ထွက်
ကျင်းပခဲ့သည်။
လျက်ရှိကြသည်။
▁နှော
ဖြစ်ပါတယ်
ွမ်း
တို့တွင်လည်း
မင်းခေါင်
▁ဇင်
▁လွင်ပြင်
တစ်စုံ
▁ထွန်းကားခဲ့သည်။
▁စီမံခန့်ခွဲရေး
▁ဘုရင်၏
ins
▁ပြည်ပြေး
ခန္ဓာကိုယ်
▁ဒိ
သမာဓိ
▁ဤသည်မှာ
▁၂၁၀၁
▁k
▁ပြုလုပ်သည်။
ဗွန်
ဖွင့်ဆိုချက်
▁ပေါ်ထွန်းလာ
▁လွတ်လပ်မှု
▁၁၈၁၄
ချိတ်ဆက်
တံခွန်
လက်အောက်ရှိ
▁Paung
ခုနှစ်အထိ
ရိုသေ
ငှက်မျိုး
အလား
▁မွန်တို့
▁ယူနိုက်တက်ကင်းဒ
မ္ဘ
ပိုင်းကို
ဖတ်ရှု
တပ်ပေါင်းစု
▁ရရှိနိုင်သည်။
စော်
▁ဗိုလ်ကြီး
▁ယူဆောင်လာ
▁ပျက်ကွက်
လွှ
နယ်၏
မြစ်၊
မြန်မာပြည်
▁၁၇၀၀
သင်ကြားပေး
=212
▁15
▁မဲပေး
▁who
အသုံးပြုကြသည်။
တာဝန်ခံ
▁ကျည်
▁အတို
▁၁၉၈ဝ
▁အဖေ
IT
▁အလွန်တရာ
ချိန်း
▁၁၇၉၆
▁ဒေတာများ
▁dis
▁ပြုလုပ်ထားသည်။
ဟူ၍လည်းကောင်း
စေရ
ိပ်
▁ဂရမ်
▁အကြီးဆုံးသော
ev
▁အပြစ်ပေး
အများစုကို
သိပ်သည်း
ကန့်သတ်
▁စော်ဘွားကြီး
သော်၎င်း
▁၁၇၅၇
▁Can
ted
▁များပြားလာ
ရှေ့နေ
▁ဦးဆောင်မှု
▁လမု
လိမ္မာ
lay
ပြောပြ
သာယာကုန်းရွာ
ဖြစ်တယ်။
▁မြောင်
ဆယ်ပါး
လုပ်ခြင်း
သင်တန်းများ
▁သိုးမွေး
မုံရွာ
ကြသူ
▁စွန့်စား
ပေါ်ထွက်လာ
▁အဓိ
ဖွံ့ဖြိုးမှု
▁စတာလင်
off
ဂေါင်
▁စောင့်ထိန်း
စံချိန်
ရောက်မှ
ကြခြင်းဖြစ်သည်။
▁ချီးမြှောက်
=142
နှစ်အကြာ
▁ကျောက်စိမ်း
▁ဘုရားကြီးကုန်း
▁သိက္ခာပုဒ်
ဒေသများ၌
▁ဆင်သေ
▁အထောက်အကူ
ကြသောအခါ
▁ကိုယ်စားပြုသည်။
▁နီပေါနိုင်ငံ
▁out
ကညင်
▁ဗိုလ်သက်ထွန်း
▁ကင်းဝန်မင်းကြီး
▁စံပယ်
▁၁၈၃၅
စိုးရိမ်
လုံးကြီး
ရေးသားသော
ခြင်းဟု
များထံ
ပါကြောင်း
မိဘူတာ
▁၁၉၃ဝ
အရှိန်
▁ဆေးကြော
ခါဝါ
ပြုလုပ်သော
▁နို့တိုက်သတ္တဝါ
ကွပ်ကဲ
အစွမ်း
သည်ဖြစ်၍
ြောက်အမေရိကတိုက်
▁မီးသတ်
▁စာသားများ
ဥပဒေအရ
▁၁၇၈၃
▁တခါ
▁ပြုလုပ်၍
▁သာသန
နှယ်
▁Wi
ဂျုံ
▁တနေ့
▁ပေါင်မြို့နယ်၊
လွတ်လပ်
▁တစ်ဦးတစ်ယောက်
▁မဟာဗောဓိ
နေအောင်
ဘွန်
▁အညို
သီးနှံ
ဏှ
ပေးထားသော
▁ကမ်
▁စီးဝင်သည်။
▁မြှုပ်နှံ
▁သုတေသနလုပ်ငန်း
အဆောက်အအုံများ
ဖြစ်ရကား
▁ဒါန
="142
ius
များသာမက
▁သို
▁အရာများ
မှစတင်၍
▁မြန်မာစကားပုံ
သွားအောင်
▁ချူ
tan
▁၁၇၆၇
တစ်ဦးလည်း
ခြံရံ
စထ
စုပေါင်း
▁မျက်နှာဖုံး
လျက်ရှိသည့်
▁နိုင်ငံကို
▁ဤနည်း
=148
ဖွ
ရွေးကောက်
ထွာ
▁ဤမျှ
▁Kar
▁ဗုဒ္ဓ၏
▁ဟိုနမ့်
="148
▁ပေါ်လွင်
အချစ်
ထုတ်၍
▁ကြို
▁၂၀၂၅
▁အိမ်တွင်း
ခေါ်သည်။
မိုတို
မယ်၊
▁ကျော်ကြားလာ
စတင်ခဲ့သည်။
▁သင့်တော်မည်ထင်
▁ဗား
▁ဆိုဒီယမ်
▁ဘုရားရှင်၏
▁ယနေ့ခေတ်တွင်
ပါတီ၏
▁ဝင်းဒိုး
ပင်ဖြစ်၏။
▁တည်ဆောက်ထား
ကြုတ်
တောင်ကြီး
▁ထိုမှတစ်ဆင့်
လန်းရွာ
မတိုင်ခင်
တုံရွာ
▁သင့်လျော်သော
▁အုန်းသီး
ကောင်စီသည်
▁ဘွဲ့တံဆိပ်
ရတာ
ခရမ်း
▁စတဲ့
▁၂၁၁၀
▁ကျောင်းတော်ကို
▁၉၈
မီးလောင်
▁ဓာတ်ပြား
▁သာသနာနှစ်
▁၁၈၆၀
ခေါင်းဆောင်အဖြစ်
▁ပြုလုပ်ရာတွင်
▁ယင်
မသွား
▁ဖွဲ့နွဲ့
▁ဒက်
▁သင်ယူခဲ့သည်။
▁ဝန်ဆောင်မှုပေး
မှဆင်းသက်လာ
▁၁၈၅၈
သီဟသူ
▁အင်ဒရိုမီဒါ
▁အာရုံကြော
▁ရုံတင်
▁၁၆၆၉
ပီယာ
▁တိကျစွာ
▁ကွာခြား
လော့၊
Mo
▁သေဆုံးခဲ့သည်။
ခရု
▁စာဆိုတော်
အကောင်
▁မရှိသော
▁ကျော်ခန့်
▁လျော့နည်း
ei
▁ဖြုတ်ချ
ရထားလမ်း
ပွားများ
▁ဟုခေါ်ဆို
▁သီပေါ
▁ဆန့်ကျင်ရေး
▁ကောင်းကျိုး
▁၇၈
▁ဘကြီးတော်
▁အတက်
စေချင်
▁လစ်ဘရယ်
▁အလိုက်
▁ရှုမဝ
▁ဒေါ်အောင်ဆန်းစု
▁ပိုပြီး
ဝတ္တရား
တို့အပေါ်
▁စွန့်ခွာ
ُ
▁Company
အမြစ်
▁စာတည်း
ထူထပ်သော
တစ်ခုသို့
ဝဏ္ဏ
▁မိုးဗြဲ
▁ရွှေနန်း
ကြောင်းနှင့်
▁နိုင်ငံခြားသို့
ရောဂါ၊
ပိုင်နက်
▁သရော်
▁စင်္ကာပူ
="214
နှစ်ခုလုံး
▁ဒဏ်ရာရ
ပတိ
ပွဲတော်ကို
▁တက်လာ
▁၈၃
အလောင်းစည်သူမင်း
ခဲ့ရာ၊
▁ယုဒ
မလား
နိုင်ငံတကာ
အက်တမ်
သရုပ်
▁မည်၏။
ပြည်ထောင်
PP
▁ရွေ့ပြောင်း
▁လိပ်စာ
ဝတ္တု
ခွင့်၊
သနည်း။
▁၁၇၀၈
အရောက်တွင်
▁ဗြိတိသျှတို့၏
▁ဟူသည်
▁စင်ကြယ်
▁နှစ်ပတ်လည်
▁ရွေ့လျားမှု
▁ထိုအဖွဲ့
ဟိုင်းရွာ
ound
▁တရုတ်ဖြူ
▁ကြိုးကြာ
▁၁၇၉၀
▁မလွယ်ကူ
ဂံ
နွံ
▁မိုက်ခရိုဆော့ဖ်
▁ပါဝင်မှု
သည်ဟုလည်း
▁သွန်းလုပ်
ကျောင်းရွာ၊
▁ထောင်စု
▁၄၂၇
▁မှည့်
="107
▁ခုနှင့်
▁ပါလက်စတိုင်း
သေးသည့်
▁Dis
BA
ရေးဝန်ကြီးဌာန
ပြီးနောက်ပိုင်း
▁နေရာသို့
▁ဤကဗျာခေါင်းစဉ်
▁label
▁မြောက်ဦး
ရရှိခဲ့
သွားပြီ
▁ဧရာဝတီတိုင်း
များကား
ကျေးရွာစီမံကိန်း
▁သဘာပတိ
တပ်များက
ဖြစ်နိုင်သည်။
ငါးမျိုး
▁ကြက်ဥ
▁၂၁၄၉
▁folk
▁ပညာပေး
▁အချို့သည်
ပီပီ
▁စုရုံး
▁အရှင်သခင်
▁၁၇၆၂
▁ဝန်ထောက်
သမီးတော်
သိန်
တောင်ပိုင်းရှိ
▁အခြေချနေထိုင်
ရိန်
▁မှန်ဘီလူး
▁Ge
▁စွယ်စုံကျမ်း
▁တိုင်းပြည်၏
▁လက်ဖက်ရည်
လက်ဆောင်
▁အလုပ်ရှင်
ဂါဝါ
▁ရနိုင်
အယ်ဒီတာ
▁ဂျန်
▁မှောင်
▁~
▁ဉာဏ်ပညာ
ဂရမ်
စစ်ဆေးခြင်း
500
ချန်ပီယံ
=214
လာပါက
▁သေဆုံးသွား
▁ဖြစ်တတ်သည်။
များဖြစ်ကြ
▁အပ်နှံ
ခဲ့ရသည့်
▁အချဉ်
▁ရေတွင်
ထို့ကြောင့်
အဆုံးသတ်
▁အကြီးစား
▁အရာရှိများ
ual
ek
▁Or
မဟာမိတ်
▁မြန်မာ့ရုပ်ရှင်
တည်နေရာ
စစ်စစ်
သံစဉ်
▁မရရှိ
ကုန်းကြီးရွာ
▁ပေါ်ထွန်း
▁Tr
▁ဖော့
ကိုကား
▁ဖော်ဆောင်
စိတ်ကူး
ဖွန်
川
="54
တစ်ရပ်ရပ်ကို
▁အပျို
ျက်နှာချင်းဆိုင်
သုပ်
ခွင့်ရှိသည်။
▁မာကျော
▁ပြန်လည်ရောက်ရှိ
အတွက်လည်း
▁များက
▁Shi
▁ခေတ်မှီ
▁ပုထိုး
yin
အခါတွင်
▁ဖြူး
မင်းနှင့်
▁ရန်ကုန်မြို့ရှိ
တွင်ပါဝင်သော
အုပ်စုများ
▁ဥရောပနိုင်ငံ
အဖွဲ့ကြီး
တို့ပါဝင်
ex
၂၀၁၇
ကွိုင်
ita
▁ရောဘတ်
ရိဘူတာ
▁ကျွမ်းကျင်သော
ဖုံ
▁ဝန်ထမ်းများ
ခဲ့သည်၊
▁မိတ်
▁လန်း
ဘရာ
▁ဤတွင်
▁လက်ခံရရှိ
▁ကိ
▁၁၇၄၆
▁ခနောင်
▁သယ်
လှ၏။
▁but
▁အကျဉ်းထောင်
လေးပင်
ဒိဋ္ဌိ
မိန့်ခွန်း
ဗီဒီယို
▁အသွား
▁စံချိန်
စစ်သားများ
စေတနာ
ကန့်ကွက်
▁မတော်တဆ
▁ရုရှနိုင်ငံ
နက်စ်
▁ကင်ညာ
နှစ်အရွယ်တွင်
▁၁၆၈၉
cy
ကိတ်
her
့ချ်
မြို့ကြီး
▁နိဒါန်း
ကမာ
▁ထွန်
▁အစ်မ
▁အယူခံ
▁နမ့်ခမ်း
စိတ်ကို
တစ်လုံးကို
တလျှောက်တွင်
ပြီး၍
▁နုတ်
သတ်မှတ်ချက်
▁ခိုက်
▁cr
$
▁York
အလျင်
ဂင်း
▁ဖရန်
▁အဓိကရုဏ်း
▁ဆိုခဲ့သည်။
▁Gra
▁၃၈၀
ဂျိဘူတာ
▁အဖွဲ့သည်
ဆွစ်ဇာလန်နိုင်ငံ
ဝှမ်း
▁သခင်ချစ်
▁၁၇၉၈
▁၂၀၈၃
▁အချို့ကို
သွားနိုင်သည်။
▁တက္ကသိုလ်များ
▁မည်ကဲ့သို့
▁ယူနန်ပြည်နယ်
▁ပြောင်းပြန်
ရမယ်
စခန်းများ
▁ဓာတ်ခွဲခန်း
နှင့်ပင်
အတက်
နီးကပ်
▁ပေါ်ပေါက်ခဲ့
ဘဲ၊
▁ကယား
ကျူးကျော်
▁ညီမ
▁တြိဂံ
▁ဉာဏ
သုံး၍
ဗိသုကာ
မည်ဆိုလျှင်
▁သူကြီး
="72
`
▁မြင်တွေ့
မန့်
မုဆိုး
မည်မျှ
မှိန်
▁ဟက်တာ
ဖရာ
▁American
ဉ်း
၂၀၁၈
▁ထိခိုက်စေ
မင်းလက်ထက်တွင်
နှစ်သားအရွယ်တွင်
ဘုရားရှင်
▁တာဝန်များ
▁You
▁အရပ်သား
▁လွှတ်တင်
ပြဿနာများ
ယန္တရား
အင်းဝ
ညွှန့်
前
=134
▁တပ်မတော်က
▁တစ်နှစ်ပတ်လုံး
=47
သုံးဆင့်
▁ပိဋကတ်တော်
ကင်းမဲ့
ku
ဝန်ကြီးဌာန၏
▁ဂရုစိုက်
▁အနွယ်
ထည့်ကာ
▁Fa
▁ဖြစ်ရ
▁ရန်ကင်း
▁ကာလကတ္တား
ဘိသကဲ့သို့
▁တစ်နာရီ
ခြင်းငှာ
▁၁၈၄၀
မတင်
▁ဝန်ကြီးများ
▁ကသည်း
လတာ
="134
▁ပင်တိုင်
သတ်မှတ်ခြင်း
▁စီတပ်
▁ကုမ္ပဏီမှ
=106
မျိုးချစ်
▁၁၇၅၅
လယ်ယာ
သင်္ဂြိုဟ်
ပြုလုပ်ခဲ့
▁အလုပ်ကို
▁ပြန်လည်တည်ဆောက်
နိတ်
မြေပြင်
▁လျင်မြန်
▁မြန်မာဘာသာဖြင့်
နိုင်ငံရေးသမား
ust
လိုသဖြင့်
▁အနှောင့်အယှက်
လမ်းနှင့်
ဂတ
လုပ်ဆောင်ချက်
▁ကြားနေ
▁နိုဘယ်ဆု
မနိုင်
Co
ဖြူ၊
အာရ်
ပြသော
▁အသီးများ
▁ဆွစ်ဇာလန်
AS
အပေါ်၌
▁ကျူး
ရေသောက်
ဆုတောင်း
မီးရထား
ကောက်ရွာ
▁ဆရာတော်ကို
▁ပြန်လည်ဖွဲ့စည်း
ဋ္ဌာန
▁၁၇၅၀
တည်ဆောက်ရေးအဖွဲ့
ခဲ့သူမှာ
▁တိုက်ကြီး
▁လာအိုနိုင်ငံ
▁သီတင်းကျွတ်
▁အသတ်ခံရ
▁၁၉၄ဝ
▁မြန်မာပြည်တွင်
ob
▁၁၈၄၄
မှုအောက်တွင်
▁၁၈၃၈
ဖြစ်နိုင်
ခြင်းခံရသူ
▁လေ့လာခြင်း
ကိုးကွယ်မှု
များကဲ့သို့ပင်
တစ်ရွာ
▁ဆန်းသစ်
အတ်
၈ဝ
right
ဒီမိုကရက်တစ်
နေ့ကို
အိဘူတာ
▁တို့နှင့်အတူ
သကြား
▁မြန်မာဘုရင်
▁သက်ကြီး
ရှည်ရွာ၊
▁ဂီတာ
cu
မ္ဗ
စီမံခန့်ခွဲမှု
▁၁၈၁၆
▁သူ့ရဲ့
▁ဂုံ
-19
အလှူ
ဝင်း၊
ွက်
အခင်း
▁over
ခူးရွာ
▁မှေးမှိန်
▁Ab
▁ရက်နေ့မှစ၍
နေဝင်း
▁All
▁ဝင်လာ
နေတတ်
တ္တံ
နှစ်ကောင်
▁လူနေမှု
တိုင်ပင်
တော်ရွာ
▁၁၈၁၀
▁စာရေးဆရာမ
▁ပလတ်စတစ်
သလော
အတွေ့အကြုံ
="56
▁မဟုတ်သော
သို့သွားရောက်
မည်၏။
တာပါ။
▁ကြွက်သား
မြတ်စွာဘုရားရှင်
▁ရော့
▁သင်္ဘောဆိပ်
▁စိုက်ထူ
▁ဖြေကြား
▁ရိုသေ
▁အသွင်အပြင်
နေ့စဉ်
▁၁၆၅၀
uch
ဟေး
မြူး
▁အိန္ဒိယသမုဒ္ဒရာ
၀၀၀၀
▁အအိချိခရိုင်
▁နနွင်း
မြုံ
ဗျူရို
="82
▁အပြာ
▁တိုက်ခိုက်ရန်
ဟုဆိုကာ
▁၁၇၃၇
ညီး
မြစ်ကို
▁တိကျ
▁တန်ပြန်
▁ဆဋ္ဌမ
အမေ
▁ဟိရ
▁၁၈၀၆
▁ရေးသားခဲ့
▁အာရေဗျ
=61
▁ကဿပ
▁အခြေအနေများ
57
▁ပေ။
▁များသော
ရင်ဆိုင်
▁၃၆၀
ပေတည်း။
▁လုပ်ဆောင်မှု
ura
▁ထွက်သွား
ပါပြီ။
များလည်းရှိသည်။
ပါကစ္စတန်နိုင်ငံ
ပထမဆင့်
▁တစ်လျှောက်
အချို့တွင်
ဖလ
▁၁၆။
▁အပြီးတွင်
▁ပညာကို
နှစ်ချောင်း
▁လျှင်မြန်စွာ
ပရ
▁မြေပေါ်
▁၁၈၀၉
ခင်မောင်
▁အတင်း
▁ထိုအရပ်
▁သားအိမ်
ကုမ္ပဏီများ
uring
ဗျူ
ွိုင်း
ဆိုးရွား
ကြီးများ၊
ကတိ
စကားများ
▁အရိယာ
▁ခြောက်သွေ့သော
ယုံကြည်မှု
▁ကနောင်မင်းသား
▁ထောက်ပြ
▁ပရာ
▁မြန်မာ့အလင်း
ier
တော်သည်
Se
▁ကျွန်းကုန်း
ညှိုး
▁အင်ပင်
သောအခါ၊
د
အဖွဲ့၊
▁ကျော်စွာ
▁အင်္ဂါဂြိုဟ်
▁မန်နေဂျာ
▁ဆည်းကပ်
well
ရွှန်း
ဆွေမျိုး
▁အသင်း၏
တည်ငြိမ်
အောင့်
▁တယ်ပင်
▁လူကို
▁၁၈၁၃
ယှ
▁per
▁အင်အားစု
▁အကျဉ်းချုပ်
ရင်ပြင်
▁ကြွတော်မူ
▁ပြစ်မှုထင်ရှား
လူတို့
ဂျယ်
ော့
ခွမ်
ပါမူ
၍လည်းကောင်း၊
▁လား
လက်တွေ့
▁ပညာတတ်
▁တစ်ကိုယ်တော်
▁Gi
များကမူ
La
ထားနိုင်
▁သွားရောက်၍
▁ဦးမောင်မောင်
▁ဦးလေး
62
▁ဟန်း
မြစ်တို့
▁ဆွီဒင်နိုင်ငံ
မြောက်ပိုင်း၊
▁၁၇၆၆
တွ
လင်းရွာ
▁ပစ္စယော
▁ထိုဒေသတွင်
▁သတိရ
ပေါ့။
▁ရေးသားခြင်း
▁ဖွဲ့စည်းထားသော
ကိစ္စရပ်များ
▁ပြိုကျ
▁OS
▁ဌာနခွဲ
ino
အမျိုးမျိုး၊
ငန်
ဂလင်း
▁ကျောင်းကုန်းရွာ
▁အရေးပိုင်
▁ကောက်ပဲသီးနှံ
▁တွန်
တည်မြဲ
LA
ally
▁ဇီ
အဖြူ
အောက်မှ
ရုပ်မြင်သံကြား
▁ထိုသူသည်
လှကျေးရွာအုပ်စု
နယ်နှင့်
80
ရှိုက်
▁စွမ်းဆောင်
နိုင်ပါ။
ဗိုက်
side
▁အဖွဲ့မှ
လို၍
ပြင်ဦးလွင်ခရိုင်
=114
▁သက်သေပြ
▁sound
အချက်မှာ
▁ကြောက်မက်ဖွယ်
ဆိုသလို
ယိုယွင်း
▁ကုန်းလမ်း
▁ဂျီဒီပီ
▁အခက်
နေထိုင်သော
့ဒ်
▁ကျောက်ဖျာ
စေရေး
တွေ့ရှိနိုင်သည်။
▁ရှေးရှု
▁ဝံသာနု
▁သတင်းစာဆရာ
အိမ်တော်
▁ဂီ
▁စိတ်နှလုံး
▁၁၈၃၂
▁အချက်အခြာ
▁မြေနေရာ
▁၁၇၂၉
▁၁၇၂၃
လိင်
▁လှည်းကူး
▁စိတ်ပညာ
ရွှေတောင်
ထုတ်ဖော်
ပြည်နယ်ရှိ
နေခိုက်
Sc
ထုတ်ပေး
▁များဖြင့်
တပ်ဦး
▁အနည်းငယ်မျှ
▁မြင့်သော
▁တွင်းထွက်
="114
ဤသို့
တင်ဆက်
▁နိုင်ငံသားများ
ခြင်းဖြစ်ပြီး
▁ရှည်လျားသည်။
▁အဓိပ္ပါယ်မှာ
ပြူ
ဇာတ်ကောင်
နှုန်းမှာ
ဂါတ်
▁ဇနီးသည်
မရှိတော့
▁၁၈၀၅
▁ဗုဒ္ဓရုပ်ပွား
▁ဦးလှ
▁ပျက်စီးသွား
▁ထိပါး
▁အဆင့်မြှင့်တင်
▁အစ္စရေးနိုင်ငံ
တံခွန်တိုင်
▁ပြန်လည်ထူထောင်
ass
▁ဝမ်ကောင်း
▁တပ်မတော်သည်
▁ရိုက်ကူးခဲ့သည်။
▁အကြောင်းပြချက်
▁ဝါဆို
အဆိပ်
န္တရ
အရေးယူ
သည
▁ပဌမ
▁ကင်းထောက်
ကြွက်
သောအရာ
▁မိဖုရားခေါင်
▁ပျော့
တက္က
ညွန်
ခန့်ရှိသည်။
ile
ရဘူတာ
လူမှု
▁Hla
ထိုးခြင်း
တဏှာ
▁အစုအဝေး
▁ဥမင်
▁သုံးပါး
▁ခိုလှုံ
လီယို
▁ကွပ်မျက်
ကျောင်းနှင့်
▁ကလေးများကို
ပြဲ
yl
www
▁ဆန့်
▁Nawng
▁အကြမ်းဖက်မှု
▁ပညာရှင်များက
▁ဝင်ရောက်ယှဉ်
▁လောင်စာဆီ
ကျေးလက်
▁မီးဖွား
▁တောအုပ်
▁တရားမ
▁Qu
▁ဘွဲ့တံဆိပ်တော်
နည်းများ
ရီယာ
▁စစ်ကိုင်းတိုင်း
ME
▁အေမာမ်
▁အပိုလို
သို့ရောက်သောအခါ
▁ခန်
ကြီးဖြစ်သည်။
▁၁၇၁၄
ပါဝင်၍
▁သေး
ပါးပါး
▁su
▁Red
ဗမာပြည်
▁နျူ
သညာ
▁တောင်ပံ
▁၁၆၅၅
ပေါ်ပေါက်ခဲ့သည်။
ဒရစ်
လက်စ
▁#
ဦးဘ
▁၁၇၈၇
▁ဦးပုည
သန်စွမ်း
ရတနာပုံ
▁ဗဟိုဌာန
▁မြောင်းမြ
စစ်ကြောင်း
▁အစုကြီး
▁ဥသျှစ်
ခွန်း
▁အမည်နှင့်
▁ထုတ်ပယ်
ိုင်းတွန်း
▁ခေါ်၏။
စာသား
ပါတဲ့
SS
▁ပြသခဲ့သည်။
▁စာပေများကို
▁မျိုးစေ့
ပုထိုး
▁သဲချောင်း
ဩဂုတ်
▁မကြာမီပင်
▁စိမ့်
▁ဗုဒ္ဓဘာသာကို
သုံးလုံး
အဖွဲ့ဝင်အဖြစ်
▁တပ်ဆင်ထား
▁လာသည်။
▁လျှပ်စီး
လူမျိုးများ၏
▁Sch
▁ဒဿနိကဗေဒ
▁မျိုးခွဲ
▁ပိတောက်
ကုန်းပြင်မြင့်
သရဖူ
ae
ကလဲ
တစ်လျှောက်လုံး
▁ရေအိုင်
ake
▁မြို့ဝန်
ဖော်ပြချက်
=131
SE
နန်းမတော်
ပြင်းပြင်းထန်ထန်
▁တိတိကျကျ
и
▁ထိုအချိန်ဇုန်
အကျိုးကို
▁အချိုးအစား
ဲလ်
▁Hlaing
▁ကုန်ပစ္စည်းများ
▁ဗမာ့လွတ်လပ်ရေး
ကူးရွာ
▁၎င်းဒြပ်စင်
ရှုပ်
=29
ဘောက်
တို့သို့
▁နေ၍
▁*
စိုးစံ
▁ကြီးထွားလာ
▁နှောင့်ယှက်
▁ပွင့်တော်မူ
တပ်မှူး
ထားမှု
မှစကာ
ပျူ
▁al
▁ပိုင်းခြားထား
▁ဗြိတိသျှတို့က
▁နီပေါ
သိမ်းသွင်း
▁၁၈၁၈
များနည်းတူ
များအပါအဝင်
▁အိပ်ရာ
▁အုပ်စုများ
▁မင်းခေါင်
ဖြူရွာ
ဒမ်း
နားတွင်
ဘုရင်ခံ
▁စာရင်းသွင်း
="131
ွယ်
▁ကာမဂုဏ်
▁တို့ကြောင့်
နိုင်ငံခြား
ခွဲခြားမှု
▁၂၀၇၂
ကွက်များ
▁ဝမ်နောင်
နာရဒ
▁မြန်မာပြည်သို့
ခရိ
▁Ban
▁ဖြစ်ပွားသော
▁သူတို့ကို
သူရ
▁he
▁တန်ဆာ
သမ္မတနိုင်ငံ၏
ဟွေ့
▁ထပ်မံ၍
အဆက်ဆက်
ဟွာ
▁တန်ခိုးကြီး
ကြိမ်ချောင်းကြီး
▁လေ့ကျင့်ရေး
▁ဖြစ်လျှင်
▁ဖြစ်စေသည်။
မင်းကြီးသည်
▁ချိပ်
သင်္
▁မူးယစ်ဆေးဝါး
ey
ရွာကလေး
အဆိုပါ
▁လုံလောက်
▁ရပ်ရွာ
▁တတ်ကျွမ်း
▁မှုတ်
▁တို့အား
▁ကျော်မျှ
အမူအရာ
▁အသုဘ
သည့်အချိန်တွင်
ခါစ
များ၌လည်း
▁ဟိန္ဒူဘာသာ
▁ဘွဲ့လွန်
▁ထုတ်လုပ်ရေး
▁၁၇၁၆
နော်ရထာ
▁ကိုယ်ကျင့်တရား
▁ဤဥပဒေအရ
▁ပြိုင်ပွဲတွင်
▁၁၈၃၁
▁သနပ်ခါး
စကားဖြင့်
နတ်မင်း
ကြောင့်ပင်
များစာရင်း
လမ်းရွာ၊
▁စီရင်စု
▁တစ်ပြည်လုံး
▁၂၁၂၄
အကြားရှိ
▁ကျွန်းများ
▁ပြည့်တန်ဆာ
▁ရှိခဲ့
ဆိုသူက
စယ်
ပြန့်ပွားရေး
▁ဂိုရှယ်
များဖြစ်ကြသည့်
vel
အစရှိသော
="209
▁လီနင်
▁၁၆၅၆
▁မင်းပြု
တန်ဆောင်
ပြည်သူများ
ရူပဗေဒ
OS
▁ကြားနာ
▁၁၈ဝ
▁ထိုပုဂ္ဂိုလ်
▁၄ဝဝ
စေပါသည်။
▁အများစုသည်
▁၂၀၃၃
▁၇၉
▁ပညာသင်ယူ
▁၂၀၃၉
အကွက်
ချိုင်ရွာ
▁နာမည်ကျော်ကြား
ina
ထားဝယ်
အပ်၏။
▁စီးရီး
ပိဋကတ်
▁မဟာဗျူဟာ
▁၂၀၃၄
▁သွန်သင်
ကုလားရွာ
▁အရှုံး
နှစ်များအတွင်း
kh
ဒွတ်
ဋိ
ံ၊
လင်္ကာရ
▁အကဲဖြတ်
▁၁၈၁၇
▁ဒီပလိုမာ
▁ရှေးမြန်မာ
ber
▁၁၇၃၅
ဆောင်ရွက်ချက်
▁ရိုက်ခတ်
တည့်၊
▁တွေ့ရှိရပါသည်။
▁တကယ့်
မွာလ်
ရေလက်ကြား
▁စဉ့်ကူးမင်း
▁မြစိမ်းရောင်
▁single
▁Power
ဝိညာဏ်
▁ခိုးယူ
▁ဖလံ
▁ငယ်စဉ်ဘဝ
အိမ်စောင့်အစိုးရ
▁မြင့်မြတ်
▁မရမ်းကုန်း
▁ငွေရေးကြေးရေး
▁၂၁၄၁
AC
ယသ
ကျွန်တော်
▁၁၇၉၉
▁၈၄
▁ကျောက်ဂူ
▁နိုင်ငံတစ်
ပူးတွဲ
သမျှကို
ကားလမ်း
ပါဘူး
▁ဖိအားပေး
ဝင်စား
▁နက္ခတ္တပညာရှင်
▁ပုန်ကန်မှု
▁Time
သောစိတ်
aungmya
မချိ
▁ရယ်
300
▁ဒေသန္တရ
ရန်ကုန်မြို့သို့
ဖြစ်ခြင်း၊
▁ယူး
▁တပ်မတော်၏
ေ့
▁၁၇၀၇
▁Han
ရမည်ကို
▁ရှင်ဘုရင်
ပေးစာ
▁မှိုင်း
ular
▁comp
ခွဲဝေ
ာဘိ
နိုင်ခြင်း၊
▁လူဆိုး
▁တင်ဆောင်
▁မှီ
▁လိမ်း
▁၁၆၅၇
▁မချိ
လျှပ်
ကျသည့်
▁အောက်ခံ
▁စစ်ကိုင်းမြို့
နည်
▁တစ်ဦးတည်းသော
▁အစောင့်
မျိုးရင်းဝင်
="58
မွှား
ရခြင်း၊
ပလွေ
▁ဂျိမ်းစ်
▁မယ်ဇလီ
▁ထိုမှတဆင့်
▁အကုသိုလ်
၏အမည်
▁၁၇၂၅
▁ရွေ့
▁၁၈၀၃
▁မရှိပါ။
▁စိတ်ချ
▁ဂု
▁နှင်းဆီ
▁စုပေါင်း၍
ပွဲများတွင်
ဗိ
▁မေမြို့
▁se
ပုံဖော်
▁ပြန်လည်ပြင်ဆင်
▁ho
ဌာန၏
▁ဗမာ့တပ်မတော်
အင်အားစု
တို့ပါဝင်သည်။
Ó
▁၁၅၀၀
▁သင်္ချာပညာရှင်
မှည့်
▁Hop
▁ဦးပု
▁ဝူဟန်
▁ကျီးပင်
▁ကျောက်မြောင်း
▁မစား
ပဒ
▁ဖခင်မှာ
ပါလျက်
▁ကျန်စစ်သားမင်း
▁၁၇၂၁
ပတ်လည်တွင်
ရှိပါက
▁တည်ဆောက်ထားသည်။
ဝါ့
▁Yin
▁လျှော့
လက်စွဲ
မျက်လုံး
လေးမျိုး
▁၇၈၁
အချက်အလက်
ref
▁As
▁ဩစတေးလျ
လျှား
အပ်နှံ
▁လသာ
▁ရွှေတိဂုံ
▁တပင်
ပွဲစား
လား။
▁၁၆၆၂
▁Mac
▁ဝင်ရိုး
မြန်မာနိုင်ငံ၏
သတင်းထောက်
▁စိတ်အား
▁၁၆၅၉
=115
လောင်စာ
▁စွယ်တော်
▁တိုးတက်ရေး
▁ဘဝကို
▁နည်းပြ
တည်ဆောက်ပုံ
▁စည်းလုံးညီညွတ်
ကျောင်းဆရာတော်
▁သဘာ၀
ont
▁အရပ်ဒေသ
ကိုဖြစ်စေ
ပါမည်။
ချွဲ
▁စာရင်းအင်း
နေရာမှာ
ပါရဂူ
ရုန်း
▁ဖောက်ဖျက်
သောအခါ၌
နတ်ဘုရားမ
မတိုင်မီက
ဟူ၍၎င်း
တဝိုက်
▁ဖြစ်ကြပြီး
လက်နက်ကိုင်
▁ရေပူ
▁ယူ၍
▁ပျော်ရွှင်
▁Wake
▁ငှက်သိုက်
သော့
မှူးကြီး
section
▁မှန်းဆ
▁၂၁၆၀
စဉ့်
▁အနီးဆုံး
▁အောက်ဘက်
▁၁၇၉၇
▁တွဲဖက်၍
။ပ။
▁၁၇၃၈
▁ရေသိုး
ရုံးများ
▁အနီးအနားရှိ
▁စက်ဆန်း
▁ကရုဏာ
▁အသက်ရှည်
ဃောသ
▁ပရိုတွန်
ဗောဓိ
▁ဗလ
ပုံနှိပ်တိုက်
▁သဒ္ဓါ
လက္ခဏာများ
Ar
▁အနိမ့်
▁မြို့များ
▁ထက်သန်
နွေ
စနစ်တွင်
ပါလျှင်
▁အရောင်မှာ
မှရသော
သဘောဖြင့်
▁သရက်ကုန်းရွာ
▁UK
qui
တာရာ
▁အခကြေးငွေ
▁ပုဂံမြို့
▁လူသတ်မှု
▁မြန်မာ့ရိုးရာ
ထင်း
▁တောင်ခြေ
လာဘ်
▁ငါ့ကို
7&
▁အစွဲပြု
တည်ရှိသည့်
▁ဒွန်
▁မိုးကြိုး
="60
စား၍
▁အသုံးပြုခဲ့ကြ
Th
မြို့ဟု
▁mo
လာသည်ဟု
▁ဗျာဒိတ်
လ္လာ
▁ဦးဆောင်၍
ိုး
▁ပုလင်း
▁မွန်း
▁ဥပုသ်
▁အပေါ်ယံ
ရရှိခဲ့ပြီး
ပြုသည်။
ခဲ့ရာတွင်
အတတ်ကို
▁ထားရှိသည်။
စတက်
ခေတ်ဦး
▁ဥတု
▁ရမ်း
▁အကာအကွယ်ပေး
▁ပြီးမြောက်
▁ပဏာမ
တို့ထံ
▁စကြဝဠာ
ဒဿန
▁အပျော်တမ်း
ရှည်၍
▁မတွေ့
တစ်ရပ်ရပ်
▁ပိုးသတ်ဆေး
▁တူရကီနိုင်ငံ
▁အမည်သည်
▁ထွက်ပေါ်
ခြင်းဖြစ်သည်ဟု
▁ဤသို့လျှင်
▁ဆင်ဖြူတော်
▁အဓိပ္ပာယ်ရ
▁ထွန်းကားလာ
▁number
▁ဝမ်းဗိုက်
▁ဇန္နဝါရီလ
▁မင်းရဲကျော်စွာ
▁စာအုပ်များကို
IANA
▁နောင်လုံ
▁သီပေါမင်းလက်ထက်
ker
ထုတ်ကုန်
အဆင့်တွင်
စည်ပင်
▁လေးလံ
▁ယား
cer
▁ကော်ဇော
▁စီးနင်း
="78
လှေကား
▁ပို့ပေး
ထို့နောက်
▁ရေပန်းစား
▁လက်မောင်း
▁ပြင်သစ်နှင့်
▁ရောက်ရှိသွား
▁မိုက်ခရို
▁၁၆၆၀
တော်မူပြီး
လူမျိုးစုများ
▁၁၈၀၄
▁မြှင့်တင်
▁၁၆၇၆
မိလျှင်
▁သဘောပေါက်
▁အမျက်
▁အားထား
▁နိယာမ
▁စတီး
▁ပိုမိုများပြား
▁လျာထား
▁sa
သစ်များကို
▁နီးကပ်
▁သီတာ
▁စစ်ဌာနချုပ်
▁ငှက်မျိုး
▁တနင်္ဂနွေနေ့
art
▁အိမ်ရှေ့
ဝန်ကြီးဌာန၊
ship
▁တနှစ်
ရှိနေသည်။
▁၁၈၀၈
ဗိုး
စက်ကို
▁ရွှေတိဂုံစေတီ
ဆော့ဖ်ဝဲ
▁ဂမုန်း
မယ်လို့
▁ဒစ်
ရောက်သော်
မှုအပေါ်
မောင်နှမ
▁လျှို
များပါဝင်
▁လေးပါး
▁အထ
▁ကူးစက်ရောဂါ
▁စံတော်ချိန်
မည်ဖြစ်ပြီး
ရုပ်ပုံ
ဖြစ်သည့်အတွက်
▁လူများသည်
လိုလား
▁လုပ်ငန်းခွင်
▁ကျေးရွာများ
၂၀၀၉
▁တိုင်းမှူး
▁ဗလီ
▁အုပ်ဖို
▁ရုံးပင်
သေးဘဲ
▁ယဉ်ကျေး
တိုင်းပြည်များ
▁ဒေါက်တာဘမော်
▁Japan
▁ပန်လောင်း
▁အရာထမ်း
လူမျိုး၊
CC
▁ဆယ်တန်း
▁ရဲဘော်သုံးကျိပ်
;2
ရရှိနိုင်
▁လာရောက်လည်ပတ်
▁စတော့
လျော
▁သန်
ရခြင်းဖြစ်သည်။
အချင်း
▁၂၀၆၉
၆၀၀
ဖြုတ်
အစီရင်ခံစာ
▁မနှစ်သက်
▁ကညင်ချောင်း
ရုရှား
အရာရှိအဖြစ်
▁ခွဲခြမ်းစိတ်ဖြာ
အခန်းကဏ္ဍ
လိုက်သဖြင့်
ကြ၊
▁ဇီးတော
ပြောင်းလဲမှုများ
ချော်
▁ဓာတ်ပြု
တော်များကို
ခွဲခြားနိုင်သည်။
င်းနှီးမြှုပ်နှံ
▁၁၈၀၂
▁တုန်
▁နယ်စပ်ဒေသ
▁ဖင်လန်
သနား
▁ရုံးချုပ်
▁အချက်ပြ
နေကြသည့်
မင်းကို
စင်ကြယ်
ယခင်က
=140
ဒီးယား
▁မြစ်ကြောင်း
ရီယို
ကူးတို့ဆိပ်
ရချေ။
▁ကိုယ်ရေး
ရွာသစ်ကုန်းရွာ
တိုက်ပွဲများ
ရှိခြင်း။
နှင်းဆီ
ုပ္
▁၁၇၅၃
ယတ်
▁ဘယ်သူ
▁ကြေးမုံ
▁ပြေးဆွဲ
▁အောင်ပွဲ
▁ပိန္နဲ
ကလေးသည်
▁အထွက်
▁ရော်
မြို့များသို့
=200
အသင်းကို
တွေလည်း
▁ဂျီစီဘီအေ
▁II
တို့ဖြစ်ကြ
ရယူရန်
▁အမည်ပြောင်းလဲ
တမာ
ပြီးလျှင်၊
▁လက်ရွေးစင်
▁သေဆုံးမှု
ဒိုင်အောက်ဆိုက်
▁နမ့်တစ်မြို့နယ်
ign
▁ရေဦး
▁အမှတ်စဉ်
sion
="95
ထိပ်တွင်
hla
▁ပခုံး
="140
▁သမီးဖြစ်သူ
▁လုပ်ငန်းဆောင်တာ
များဖြစ်၍
▁လေထီး
PA
ဒံ
သဘောတူ
▁စံနစ်
ကြော်ငြာ
စီရင်စု၊
လိဂ်
ဘာသာစကားများ
▁ခံရလေသည်။
▁ဂရင်း
အင်န်
အကောင်အထည်ဖော်
▁ပဉ္စမမြောက်
▁နိုင်ငံ့
▁ဇာတ်ကားတွင်
စည်းရုံးရေး
ခွပ်
▁ကုန်းကြီး
ယဲ
▁17
ပေါက်ကွဲ
နှံ့
="62
တစ်ဦးကို
▁ဒါဟာ
▁နှစ်ပိုင်း
ကြတဲ့
▁မထေရ်
▁အင်အားကြီး
လိုရာ
အကြိုက်
▁နင်း
ser
ထိုင်းနိုင်ငံ
စေရ။
▁အသာ
အာကာသ
▁ကျန်ရစ်ခဲ့သည်။
▁ဆယ့်နှစ်
▁သောကြာ
▁မျှသာ
ုပ်
န္တု
▁မြန်မာတို့က
လျော့နည်း
ခဲ့သည့်အပြင်
စုပ်
▁တွေ့မြင်ရ
နိုင်သေး
လာအို
=102
▁ကာရန်
▁ခေတ်ကာလ
တော်တော်များများ
▁ဆိုသော်လည်း
▁ဝေလငါး
အနိုင်ရ
▁အုတ်ဂူ
▁သေတ္တာ
▁ဒယ်
▁မတူပီမြို့နယ်၊
▁တိုင်းပြည်ကို
သင့်သည်
▁ပါဝါ
▁ကူးသန်း
=154
Le
▁ပျောက်ကွယ်သွား
▁၁၆၇၉
▁ထူးဆန်း
▁Institute
အရဟတ္တဖိုလ်
အရှေ့တောင်ပိုင်း
▁ရခိုင်ပြည်နယ်၊
▁ခက်ဆစ်
သွားနိုင်
▁အမွေအနှစ်
▁ငါးပါး
▁အရောက်
ys
▁စည်ပင်သာယာရေး
▁အထက်မြန်မာပြည်
▁ထိုင်းနိုင်ငံ၊
စက်၊
▁တရုတ်နှင့်
▁၁၇၃၆
ယူနစ်
▁၂၀၈၈
သည်သာမက
▁၁၇၈၂
▁၈၀၀
▁သက်ရှိများ
▁အပြန်
ations
စကုပ်
ခဲ့သည့်အတိုင်း
▁ရူး
မေးခွန်း
▁စစ်တက္ကသိုလ်
ရောနှော
မျှော်စင်
▁တိကျသော
ကျမ်းဂန်
▁ပိုးမွှား
နှုတ်သီး
တက်ခြင်း
ညောင်ပင်သာရွာ
’’
နိမ်
▁At
တီးဝိုင်းများ
▁၁၆၆၁
အတွဲ
ခေါ်သော
ပေးပါ။
အင်အားစုများ
▁လက်အောက်သို့
ဂူဘုရား
လီးယား
▁၂၀၆၈
▁၂၀၆၇
ရိုင်းများ
နည်းစနစ်
သူတို့ကို
အိုင့်
▁ညီနောင်
▁ပစ္စယာ
ခဲ့ပါ။
▁၁၇၈၆
▁၁၈၀၁
=104
▁ဆိပ်ကမ်းမြို့
▁နှမ
▁လွှ
▁၇၇
မမှန်
အချို့သော
▁ပါဝင်ခဲ့
fer
အနုပညာရှင်
▁နိုင်ငံမှ
မိန်းကလေး
▁ဈာပန
ဝန်အဖြစ်
▁ဓာတ်သတ္တု
သာယာရေးအဖွဲ့
="57
အမြောက်
ကျိတ်
▁သက္ကယ်
ပညာ၊
="102
ကျောက်တုံး
အများစုတွင်
▁မတူညီ
▁ယန်
▁ဆိုနီ
▁မသန်စွမ်း
▁စစ်အတွင်း
▁ဆင်းတုတော်
ရက်စ်
▁ဗိုက်
အခြေခံဥပဒေ
▁လက်ပံပင်
▁ပျဉ်းမ
▁ဂွေး
ef
="104
ဂါးကျေးရွာအုပ်စု
=81
▁ကျင်းပပြုလုပ်
77
▁မွေ
=124
▁ဒေတာရင်းမြစ်
▁မြေပဲ
▁သဘာဝအလျောက်
အမတ်ကြီး
▁စစ်ကြီး
63
▁ရှေးနှစ်ပေါင်း
▁အပိုင်းအခြား
ဆောက်တည်
လဆန်း
▁ဦးအုန်းမောင်
မြင့်အောင်
▁Records
▁ထုံးကျောက်
▁သာဓု
သာရှိ
▁သိပ္ပံနည်းကျ
▁ပထမအဆင့်
ညောင်ကုန်းရွာ
ချေသည်။
ဖြစ်ရုပ်ကြွင်း
▁ဆိုကြ
တက္ကသိုလ်ဝင်တန်း
အလောင်း
▁သီလရှင်
နိုင်။
မရှိလျှင်
▁၁၆၄၈
တစ်ဦးဖြစ်
▁ရေငံ
▁ထိုသူတို့
lock
▁၁၈၂၉
ပိုင်း၌
▁အညစ်အကြေး
▁အကြွေး
="124
▁၁၇၂၆
ဖွတ်
▁၁၇၅၆
တည်တံ့
ဝန်ကြီးဌာနမှ
▁ဤဥပဒေ
▁ထကြွ
▁ကျင်းပခဲ့သော
▁နေပူ
▁ပြုပြင်မွမ်းမံ
▁ပုလိပ်
▁ဖွင့်လှစ်ပေး
ကိစ္စများကို
အမျိုးမျိုးတို့
မျှော်လင့်
ညိ
▁၁၇၉၄
▁ပြည်နယ်၏
ခရစ်နှစ်
▁ဒီးဒုတ်
မာန
▁အိမ်သာ
▁၁၇၅၁
▁ဦးရေ
တိုင်းကို
ကောင်းမှု
▁ခေါ်ဆိုခြင်း
▁သစ်ပုတ်
▁မူတည်
ကျင့်စဉ်
ခရီးစဉ်များ
▁၂၀၄၀
▁ကျောင်း၊
▁ကြာရှည်
▁ငယ်ဘဝနှင့်
ရေးလုပ်ငန်းများ
▁သရက်တပင်
▁ဖျော်ဖြေတင်ဆက်
▁ကမ္ဘာစစ်ကြီး
▁အပြိုင်အဆိုင်
ကစားခြင်း
▁၁၇၁၃
▁အခြားနိုင်ငံ
▁ပွင့်လင်း
▁ပထမဦးဆုံးသော
သူများလည်း
▁မွေးဖွားခဲ့ပြီး
▁လွတ်ငြိမ်း
▁အစိုးရကို
▁လူရွှင်တော်
ကျော်စွာ
▁မြို့တည်
သုံးစွဲမှု
မြု
ဒိုးရွာ
▁ဒါပေမဲ့
ယနေ့
▁ဥရောပသမဂ္ဂ
67
▁ဆိုကာ
▁အတွေး
အစောပိုင်းတွင်
▁ဆူးလေ
ဂုံး
စိမ်
▁အလေ့အကျင့်
▁ကျို
▁Burmese
အဆီ
▁အလယ်အလတ်
မအဲဘူတာ
လက်ရုံး
▁ရိုးသား
▁ပုဇွန်တောင်
ရာကို
▁ဗဟိုကော်မတီဝင်
သွားများ
အချိန်မှာ
မြင့်၊
တစ်ဦးဖြစ်သော
အပြောင်းအလဲ
ကြီးကျယ်
▁ခိုင်ခံ့
▁၁၆၆၅
ဘာဝ
▁Win
="115
တိုက်ပွဲတွင်
တော်၌
▁၁၆၆၃
▁ကင်ညာနိုင်ငံ
ရွာမှ
▁လွှဲအပ်
သိက္ခာ
▁ဦးသန့်
▁ပန်းတင်
သူတို့က
▁အရှင်မြတ်
အစိုးရနှင့်
▁ရွှေလှေ
▁အမှောင်
နှင့်သက်ဆိုင်သော
ox
▁ဝါသနာပါ
▁ထိုအခါက
▁ပေါ့ပါး
▁Computer
ခွဲခြားခြင်း
ငြိမ်းချမ်း
▁တောင့်တင်း
ပြည်နယ်များ
ဘေးတွင်
ဖွဲ့၍
ပိတ်ဆို့
▁မာရီ
ပြည်နယ်လွှတ်တော်
ဟုခေါ်တွင်
▁ယဉ်
ယူသည်။
▁တပ်မြို့စည်ပင်
ပန့်
▁အခွင့်အလမ်း
ထိမ်းအမှတ်တံဆိပ်
▁ခြေလျင်
ဒုတ်
▁အားကစားပွဲတော်
အသုံးပြုနိုင်
စတိုင်
လှိုင်းများ
လိုင်စင်
ကျောင်းစုရွာ
▁ချေး
အမြန်
▁တစ်ခုလည်း
ထွက်ကုန်
ခြင်းလည်း
▁God
ကမ်းပါး
▁Wan
ဟန်တူသည်။
ပုန်ကန်
သိပ္ပံပညာရှင်
▁သတ္တ
▁Kun
▁ဗိ
▁နယ်နမိတ်
မဂ္ဂဇင်းတွင်
တိုင်း၌
အခါ၌
▁အောက်စဖို့
▁မပါ
▁ပုတ်
▁တွေ့ကြုံ
▁လာသော
▁သူခိုး
စေလေသည်။
ရုံမျှမက
▁ပစ္စည်းဥစ္စာ
▁ဗန္ဓုလ
ဝေါ်
ရကာ
iz
▁ဗျာ
▁ပျားရည်
▁ဦးဆောင်သည့်
▁ပင်ကိုယ်
▁အက်ဖ်
ရောက်သောအခါ
▁အလံနီပါတီ
▁အမှိုက်
▁ခင်ခင်
ပြဋ္ဌာန်းထားသည်။
အတောအတွင်း
▁ပြည်သူပိုင်
▁ထိုပစ္စည်း
မလို
▁ထိုနိုင်ငံ
▁၁၇၃၀
ပါသေးသည်။
▁၂၀၄၃
▁Miss
မရှိဟု
ပြာသာဒ်
▁ဂျပန်ပြည်
နှစ်အတွင်း
တို့သာ
▁ပေါက်ကွဲမှု
နည်းပြ
▁ဘောလုံးသမား
board
ထိုသို့
▁ခေါ်သည့်
ဆေးတက္ကသိုလ်
ရုံနှင့်
ဝမ်းကွဲ
ဖြစ်လျက်
စက်ရုံများ
ဆင်တူ
▁လိုရာ
တာဝန်များ
put
▁ဦးစော
ထားပြီးလျှင်
ပြည့်နှစ်တွင်
▁ဝတ္တု
ထားပါတယ်။
စောင့်နတ်
▁အိမ်တွင်
ိန်
▁အဖွဲ့ကို
▁၉၀၀
▁လောင်းကစား
သွားရောက်ခဲ့သည်။
▁ပညာတော်သင်
လုပ်၍
▁စူးစမ်းရှာဖွေ
အဆက်
▁အထက်သို့
လတ္တံ့။
▁စစ်မြေပြင်
ဦးရေမှာ
▁ပျက်စီးစေ
ထိုးစစ်
rs
ခေတ်ကာလ
▁ကြီးပြင်း
ဘုရားကို
ကျ၍
▁ဖွင့်ပွဲ
ကျောင်းသူ
▁ရေဝေ
အုပ်စု၌
▁ဂုံမင်း
စေပြီးလျှင်
▁ဒြပ်ဆွဲအား
▁၁၁၅
▁တည်း
▁ဥပဒေကြမ်း
▁စစ်ကဲ
▁ဗိဿနိုး
▁ကျွေးမွေး
▁အဂ္ဂမဟာပဏ္ဍိတ
ဘုရင်များ
▁တာဝန်ထမ်း
▁လေယာဉ်ကွင်း
သန့်သန့်
ငယ်များကို
ငယ်ကို
ဘွဲ့နှင့်
▁ယဉ်ကျေးမှုနှင့်
▁တွေ့ရှိခဲ့
т
▁ခေတ်အဆက်ဆက်
▁မျှဝေ
uck
▁ပရဟိတ
ဖောင့်
▁ဆော့ဖ်ဝဲလ်
▁တည်ရှိကာ
▁ခိုင်မြဲ
▁တောင်ငူမြို့
ပါလိမ့်မည်။
ဦးရွာ
ကြလေ
မှစပြီး
ကျောင်းကို
▁၂၁၄၂
ကျသည်။
▁၃၅၀
ကွန်မြူနစ်ပါတီ၏
▁တွေ့ရတတ်သည်။
အလယ်စု
▁လေ့လာရေး
ဆွမ်
များအဖို့
ဘွဲ့ထူး
ရန်မှာ
▁ပြုလုပ်သည့်
မပေါ်မီ
="48
ပြည်ထောင်စု၊
▁ဒိဋ္ဌိ
များနှင့်အညီ
ခန်ရွာ
တြိဂံ
ဝိပဿနာ
▁ရန်သူများ
စတုတ္ထ
▁အေးချမ်း
အကျဉ်းထောင်
ခွင့်ပြုချက်
ရီယမ်
▁ဓမ္မာ
▁ဗြဟ္မ
လက်မှတ်ရေးထိုး
▁ရိုင်း
=99
တာ၊
ကျွန်းတွင်
နင့်
▁၁၆၉၈
▁1.
▁တွံတေး
ထရစ်
▁ခုရှိသည်။
▁၅၀၀၀
ပွေ
▁ပန်းသီး
▁ကျွတ်
▁ခြောက်လ
အဆင့်သို့
အာမခံ
▁စိတ်ဝင်စားဖွယ်
ဘွဲ့၊
လေးတွေ
▁သန်လျင်
ros
ပုည
▁Tw
▁အလည်
▁အပြော
လေး။
ali
▁ခံခဲ့ရ
▁ချဉ်
ခဲ့ကြခြင်း
လူမှုရေး
ရာဇဝင်ကျမ်း
ဖင်း
▁ဂရိတ်ဗြိတိန်
▁College
▁လောကုတ္တရာ
ချမ်းမြေ့
ငွေများ
▁ISP
တောင်ငူ
လျှပ်စစ်စွမ်းအား
▁တစ်ဘက်
▁ခြေလက်
ဟုန်းရွာ
ess
လ္လ
▁One
၄၀၀
သံရုံး
မျိုးစေ့
သားတို့၏
▁..
▁ex
let
▁အထည်အလိပ်
▁ရေထဲတွင်
▁နေရာယူ
ခပ်သိမ်း
▁တေးသီချင်း
▁ခုမှ
▁ပြောဆိုကြသည်။
▁sub
▁ထိုအခါမှစ၍
70151
▁လုံခြုံ
▁သိနိုင်
="208
ပြန်ဆို
▁၂၀၃၀
pu
▁စေတီတော်၏
ချခြင်း
▁ဒြပ်ပေါင်း
▁စတင်တွေ့ရှိ
▁အုပ်ချုပ်သော
▁ရခိုင်တိုင်း
▁၁၆၈၅
▁She
လမ်းစဉ်ကို
▁အသင့်အတင့်
▁လူနေ
ထားရှိသည်။
ဝိညာဉ်
▁မနီလာ
ခေါင်းလောင်း
ဖြန့်ဖြူး
တိုက်တွန်း
▁တရားစီရင်
ငှက်များ
▁စစ်ရေးအရ
▁ကျေးလက်ဒေသ
မင်း၊
များအထိ
▁သိကြသည်။
▁နောက်ကျ
▁ဗိုလ်ချုပ်မှူး
နံနက်
▁တောင်တန်းဒေသ
▁အိမ်တော်
▁Che
ens
▁၂၁၈၉
စိုးမိုး
▁ကြည်း
ဉာ
▁၁၇၆၈
နေထိုင်မှု
▁နေရာမှ
ဗီးယား
အထိမ်းအမှတ်အဖြစ်
အသုံးဝင်
▁Un
ဖြစ်သည်ကို
အကုန်
▁၂၀၅၃
▁လက်အောက်ရှိ
▁ဘက်တီးရီးယား
▁ပုဂ္ဂိုလ်ကြီး
▁လွိုင်လုံ
နာမ်
▁မေ့
▁ဗြိတိသျှတို့သည်
▁အဖွဲ့တွင်
အနက်မှ
▁ကြည့်မြင်တိုင်
▁နော်ဝေး
▁အရိုင်း
▁ဖြစ်တယ်။
▁စစ်တိုက်
▁အဆင်
▁Is
ပုတ်ရွာ
▁ကရိ
▁Pri
▁ရှေ့ပြေး
Eleven
▁Forbes
▁ရရှိရန်
ပုံရိပ်
▁ပြပွဲ
▁အံ့ဖွယ်
▁မန်ချူး
အပိုင်းတွင်
၁၉၄၈
▁၈၇
▁ပေါက်ဖွားလာ
▁မှတ်မိ
ire
၂။
▁ထိတ်လန့်
▁မဂ္ဂဇင်း၊
လဲရွာ
▁လူပုဂ္ဂိုလ်
ပုဆိုး
ခဲ့ပါ
ps
▁ဗိုလ်တထောင်
ဘယ်လ်
ထည့်ပြီး
အရောက်
ထားရ
▁သပြေပင်
ပြုလုပ်နိုင်သည်။
▁၂၀၂၃
သည်ဖြစ်စေ၊
▁၁၃၀၀
▁ထုတ်လုပ်ခြင်း
▁သမ္မာကျမ်းစာ
▁ပင်လယ်ကွေ့
နိုင်ခဲ့ခြင်း
▁ဆောင်းရာသီတွင်
▁ကျုံက
ချေရွာ
မင်းမြတ်
rock
သစ်တောများ
▁သိမ်မွေ့
▁တပေါင်း
ကြီးအဖြစ်
▁နှစ်စဉ်နှစ်
စာပေများ
ရက်လုပ်
▁ရက်နေ့မှာ
ဖုံးလွှမ်း
ခေမာ
သွားစေ
▁၁၇၃၃
▁ပုဂ္ဂိုလ်ရေး
▁၁၆၅၈
မင်းကြီး၏
ric
▁စကားရပ်
▁နားလည်မှု
▁ငယ်စဉ်
▁လိ
▁မြင့်မြတ်သော
သင်္ခ
▁တစ်ခုလုံး
▁အဖွဲ့ကြီး
="74
လိုပါက
▁တစ်ထောင်
▁Ad
ယီ
ဇ္ဈ
ပြ၍
ဆိုရာ၌
="69
▁အစပိုင်းတွင်
▁သိပ်သည်း
မအဲ
▁မြန်မာစကား
နယ်စား
မြင်ကွင်း
ရှုး
▁နေရာတစ်ခု
▁ရိုက်ကူးသော
▁ဆုတ်ယုတ်
စစ်ရေး
▁လွတ်လပ်ရေးရပြီး
့စွယ်စုံကျမ်း
ဆယ့်
လာသူ
ပဋိပက္ခ
▁၁၇၅၄
▁ရိုးရာဓလေ့
rom
ကြော့
နီယာ
▁ထိုင်း၊
ညှ
လေသော်
▁သည်းခံ
▁this
▁အကောက်ခွန်
ကိုယ်တော်မှိုင်း
eth
တည်သော
▁သူတပါး
ပဋိ
▁ထိုကိစ္စ
ပါ၍
▁အိမ်ထောင်ရေး
ဂွေး
▁နိဂုံး
အဖွင့်
▁ရွာသစ်ကြီး
▁ဓလေ့ထုံးစံ
▁၁၄၄
▁နောင်အခါတွင်
▁ဂစ်တာ
လိုချင်
မူရင်း
▁၂၂၁၀
စစ်ပွဲများ
▁ဆုံကုန်း
▁နှစ်အတွင်း
ကီလိုမီတာ
အားနည်း
head
▁၂၀၃၆
▁၁၇၂၄
စာချုပ်ကို
▁နှင်ထုတ်
▁မြို့တော်ဝန်
▁can
မိန်
▁ဝန်ကြီးဌာန၏
▁Kh
▁၂၀၄၆
အနည်းငယ်သာ
ရိုးရွာ
▁မျက်မှောက်
▁၁၇၀၄
▁၁၇၄၃
▁မြန်မာမှု
▁ရုပ်လုံး
ဗဟိုကော်မတီ
▁ကာလတွင်
▁စုတ်
▁ဝေးကွာ
▁ဂျင်မီ
စေ့စပ်
61
tes
ala
▁ဤအက်ဥပဒေကို
▁ပါရဂူ
▁Mony
▁end
ကံစု
စေတီ၊
▁အောင်ချမ်းသာရွာ
CP
တရားသူကြီး
ဋ္ဌာ
▁inter
ရဲတိုက်
▁ကျင်းပရာ
▁၁၇၆၁
ခေါင်းဆောင်ကြီး
ပြိုကွဲ
▁သရဖူ
▁တပ်ခွဲ
▁အချက်များ
▁ရှားပင်
ပေးနိုင်ခဲ့သည်။
ဩဝါဒ
တပ်မ
▁ဖန်တီးပေး
▁ခုနှစ်အတွက်
▁ဝမ်လုံ
ရရှိရေး
▁used
▁၁၆၆၈
ဟံ
သုတ်သင်
▁တကမ္ဘာလုံး
ဟန့်
ဂယက်
ရှိနေသော
▁၁၇၄၀
ပြည်နယ်နှင့်
▁၂၀၅၀
ချင့်
▁လေယာဉ်များ
▁တစ်ခုသော
လပ်စ်
▁ယူနစ်
▁ဝါဒဖြန့်
▁တစ်ကိုယ်လုံး
အနံ့
ယူကြသည်။
ator
လကြာ
နေပါတယ်။
၏အ
ယူရသည်။
လာဘ
တီဗီ
▁သုံးလ
ပစ်လိုက်
▁လုံးချင်း
ပဒေါင်
တစ်ဖန်
ale
▁အမှန်စင်စစ်
ရဲတပ်ဖွဲ့
အင်ဒိုချိုင်းနား
ဘဏ္ဍာ
田駅
ငေါ့
သမာပတ်
လက်အောက်မှ
တာကြောင့်
မရှိသည့်
ကျမှ
▁ပေါင်းသင်း
နေကျ
▁၂၁၃၁
သိန်းတန်
ကျော်သူ
ရေးဆရာ
စစ်တမ်း
ဒေါသ
ကြတော့
လုပ်ရ
မြို့တော်ဝန်
▁State
▁၎င်းတို့အား
▁ပင်လယ်ကမ်းခြေ
▁ရောဂါကူးစက်
ခန့်က
▁ဆုတောင်းပြည့်
▁ဓနသဟာယ
▁ညာဘက်
တိုက်ခိုက်ခြင်း
တောင်ခြေ
▁အောင်ဇေယျ
▁စစ်တောင်းမြစ်
▁ရင့်
တွေ့ရှိရသည်။
ကျယ်သော
▁မုခ်
ညီမ
ဒ္ဒ
ခံရမှု
▁ဖြတ်သန်းစီးဆင်း
ငါးဆယ်
Da
▁ဝေါဟာရသည်
သုန်
▁၁၇၄၉
ြန်မာ့ဆိုရှယ်လစ်
▁ပါရာ
သစ်သား
cus
ခီး
▁နမ်း
▁ထီးတော်
▁မောဟ
▁Sar
ဣ
လက်ဝှေ့
မှုများတွင်
▁ဥပစာ
▁သွေးသောက်
▁အကျိုးစီးပွား
ဒီယမ်
▁ရဲရင့်
▁နည်းဗျူဟာ
စွန့်လွှတ်
ထားတာ
▁၁၈၂၀
▁နောင်လိုင်
▁ဆော့
▁သမားတော်
▁၉၁
အမှတ်တံဆိပ်
TV
▁၂၁၂၈
▁ထိုငှက်
▁ဟုအမည်
ful
အဟောင်း
▁ဖုခု
သားများကို
နဒီ
▁အားလုံးသော
▁သန်းထွန်း
▁space
ဖန်ဆင်း
အငူ
▁ထိုမင်း
▁သင်ရိုး
ရေခဲ
မှု၏
▁မဝင်
▁နဂို
▁ထရီ
gg
မပါသော
els
▁သုံးထပ်
ဆူးတောင်
လိုက်သည်
ငုံး
=113
▁မြေလွတ်၊
ွံ
▁အကြွင်းမဲ့
▁အထောက်
▁ဇင်း
▁သောတာပန်
▁အမျှ
▁Union
▁လမိုင်း
ခွဲထွက်
▁ဟိုနား
▁ကျွန်းသာယာ
▁ခမောင်း
ယဘူတာ
▁ဖုတ်
▁သိသာစွာ
▁ဂြ
▁Ti
▁ရှေးယခင်က
▁ဖောင်တော်
▁၁၂ဝ
မန်တွန်းမြို့နယ်
တော်မူပါ
▁ထိုသူကို
တောင်စု
လျက်ပင်
ဟုခေါ်ကြသည်။
များအတိုင်း
▁ဆင်မ
▁အသိပေး
အိန္ဒိယကျွန်းစု
SO
လာရသည်။
▁အသုံးပြုကာ
▁ပြသည်။
တခုကို
▁ချင်းလူမျိုး
▁ထိုနောက်တွင်
သုံးရပ်
▁ထုတ်ပြန်ကြေညာ
▁ထယ်
▁ပြောခဲ့သည်။
▁အမှုန်
ရှိခြင်းကြောင့်
padaung
ကားများ
ရာထူးဖြင့်
ရီးယန်း
သာသာ
▁ဖက်ဆစ်ဂျပန်
ဘေးမှ
="113
▁TV
ဟာသ
▁အမှန်တရား
▁အဖွဲ့က
▁ဤအချက်
တစ်ခုချင်းစီ
▁နန်းစံ
▁စနေနေ့
▁စံကား
▁ပေးလှူ
▁ဆိပ်
▁၁၇၃၉
▁ရောက်ခဲ့သည်။
ပေါင်းများစွာကို
▁စစ်ဖြစ်
ပွဲများကို
▁၂၁၉၄
top
ထားသည်ဟု
▁ဒလက်
ချက်ဖြင့်
သို့လည်းကောင်း၊
တည်ဆောက်မှု
▁ဘောလခဲခရိုင်
လွယ်သော
▁ယူနီကုဒ်
▁ကွမ်းလုံ
lat
၏ဖခင်
▁သိကြား
▁၁၇၁၈
▁British
▁ခေါင်းဆောင်ကြီး
▁သုဝဏ္ဏ
▁ပေခန့်
▁Sc
▁ကြွေးကြော်
ပိုင်းရှိ
▁တိမ်းရှောင်
အဖြစ်သတ်မှတ်
▁၈၄၂
▁ပြုခဲ့သည်။
ပါရှိသည့်
တစ်ခွင်
ဗိုလ်ချုပ်ကြီး
▁အရေးကြီးသည့်
နိယာမ
▁မြေတိုင်း
▁အခမ်းအနားကို
▁ဂွေးတောက်
မိန့်တော်မူ၏
--
ရှိ၏၊
တည်ရှိသော
နိုင်ပါ
▁မြေလပ်နှင့်
=123
ချေမှုန်း
▁ကယ်ဆယ်
ဗော
▁ရှိလာ
▁ရက်သတ္တပတ်
▁၁၉၉ဝ
သူရဲ
▁ကြက်သွန်နီ
▁ကြက်သွန်
▁မိုးရွာ
▁အတု
▁ရေးသည်။
တစ်ဆင့်
▁အပြီး
▁မဆလ
▁အမဲ
▁အဆုံးအဖြတ်
▁သီချင်းများကို
စောင်းတန်း
▁သန္ဓေသား
ထိုး၍
▁ကွယ်လွန်ခြင်း
လာရ
▁his
cle
▁ဇီးဖြူကုန်း
အိဝ
လှီး
▁အဖော်
▁တုန်လှုပ်
▁၁၇၄၇
နှစ်ဆူ
▁နှလုံးသွင်း
ose
ကျောင်းရှိသည်။
="123
ကြည့်ရာ
▁လက်မမှ
မည်သို့ပင်ဖြစ်စေ
ချမ်းသာခွင့်
▁Mor
▁ဘာသာရေးဆိုင်ရာ
အတွင်းမှာပင်
▁၁၇၄၈
မန
▁၁၆၇၃
ွပ်
နှစ်များ
ဖန့်
▁ကျောင်းမှ
▁စည်သူ
နယ်ရှိ
▁မဟာမိတ်တို့
▁၁၇။
▁လူအင်အား
▁ကမ္ဘာမြေမှ
လုံချည်
▁ဦးနေဝင်း
AR
▁ဝမ်းမြောက်
sp
▁ဤနည်းဖြင့်
▁ဖြစ်ပွားခဲ့သော
အခိုက်
▁အစောပိုင်းဘဝ
old
▁h
▁၁၆၅၁
▁ရယူနိုင်
▁ကျောက်ခဲ
▁နှစ်လုံး
ပိုင်ခွင့်ရှိ
ဒိန်း
အဆ
ဖြစ်သည့်အလျောက်
တည့်တည့်
que
▁ဖြစ်၏၊
မနာ
="47
▁မေဂျာ
ဟံသာဝတီ
ward
ပစ်ရန်
လာခဲ့ကြ
▁စုန်း
ဖြစ်ကြောင်းကို
▁ခုနှစ်များ
▁၁၆၆၆
▁ဂီတ၏
အရေးပါသော
▁ဗဟိုဘဏ်
လာခဲ့သော
အခါက
နားရွာ
▁လက်သည်း
ဆက်သ
▁ဌ
အသွင်ဖြင့်
အက်ဆစ်
ကောင်များ
သားနှင့်
▁၁၇၂၀
မျိုးရင်းတွင်
▁ပြန်လည်ပြုပြင်
ကျန်းမာ
ပလ
BM
ပစ္စည်းကို
▁၁၆၇၄
=160
▁အလယ်ချောင်း
▁ကျော်ကြားသည်။
ع
▁Association
野
伊
ပြသာဒ်
▁တစ်ဦးနှင့်တစ်ဦး
ဓာတ်ဆား
▁သားပေါက်
▁ပုံပြင်များ
ဆို့
တော်နှင့်
▁အုန်းတော
▁ဟော့
▁Mun
ကွပ်ကဲမှု
ပြုလုပ်ရာတွင်
▁သခင်ဇင်
ဒါန်း
▁ပစ္စ
မူကွဲ
▁ဖြစ်အောင်
▁မှန်ကန်သော
▁ငြိမ်းချမ်းစွာ
▁သညာ
▁ဖုခုရှီးမား
၍မရ
▁ပျက်စီးခြင်း
▁မန္တလေးတိုင်း
▁ကလ
▁ခံတွင်း
▁မျက်ရည်
ကျော်ခန့်
ဘုရားသခင်
▁ဖူးမြော်
မယ်ဆိုရင်
ကုန်သွယ်မှု
ရေးသမား
▁ပင်လယ်အော်
▁ဆရာတင်
▁ဘာမှ
ာဘိဝံသ
တစောင်
တောင်းပန်
တွေ့မြင်
တာနဲ့
ဗိုလ်မှူးကြီး
တော်မှ
▁လူသိ
ms
▁မွှေး
▁အနာရောဂါ
▁ကြေ
▁အလားအလာ
၏သားတော်
▁ဆိုပါသည်။
ေါ
▁၄၀၀၀
ရုပ်များ
▁မြန်မာ့တပ်မတော်
▁မဟာဗန္ဓုလ
▁၁၆၇၀
▁အပြည့်
ရသောအခါ
▁En
စိန်း
ပ၊
ကိုဖြတ်၍
ထွက်သည့်
မြစ်ဝ
ခန်းများ
▁ရေးသားဖော်ပြ
▁Oke
▁ဝင်စား
ဒြပ်
▁မိုင်အကွာ
ky
▁စန်
▁၂၀၇၉
▁တူးဖော်ရရှိ
သက္ကယ်
ထေ
▁ဖြစ်ပေါ်စေသည်။
▁စက်မှုဇုန်
▁ဤကိစ္စ
ကလန်
▁၂၁၆၈
တိုက်နယ်
ထုတ်ခြင်း
des
▁cl
ဆီက
ကုဋေ
▁ယူနန်
▁တောင်းဆိုချက်
hat
ရှိခဲ့ပြီး
▁ညောင်ချောင်း
ဗေဒင်
▁ဘဏ္ဍာ
အရုပ်
ပြည်မှ
အရာဝတ္ထု
▁စူးစမ်းလေ့လာ
▁အားကစားသမား
=70
▁အကန့်အသတ်
မြေခြား
နမ်း
မဂ္ဂ
▁Pre
ညံ
▁ကံကလေး
ဟုလည်းခေါ်
ကြည့်ပါ။
▁လက်ထက်က
▁14
▁နှိုင်း
▁အကျဉ်းသား
ကြီးပွား
▁သင့်တော်
▁Bi
▁မြင်နိုင်
▁ပေါက်ဖွား
▁ကျောင်းသားသမဂ္ဂ
ဒရို
▁ပြင်သစ်လူမျိုး
ကြရာမှ
▁လူ့ဘဝ
ခမောက်
▁သော်လည်းကောင်း၊
အားလုံးတွင်
▁ဘုရင်မကြီး
အလို့ငှါ
▁မီးပုံးပျံ
=112
သီးသန့်
နိုင်ခဲ့ကြသည်။
မတွေ့
▁Love
▁လူမှုဝန်ထမ်း
ျု
▁been
▁အရွေးခံ
▁ဆွစ်
▁သမားရိုးကျ
ကိစ္စများတွင်
▁ဘိုးဘွား
သာဖြစ်
ပျော်ရွှင်
လိုအပ်ချက်
ရန်ကြိုးစား
▁ထို့ကြောင့်လည်း
▁အလိုအရ
▁ကီလိုမီတာအကွာ
▁လေ့လာဆည်းပူး
အပိုင်
ဘွမ်
▁ကဒူးကြီး
▁မိုင်းကိုး
▁ဖော်ပြကြသည်။
အရေးအခင်း
▁ဒေါ်စိန်
▁ကျောင်းအုပ်ကြီး
နှင့်ပတ်သက်သည့်
▁မြစ်ရေ
▁လုပ်အား
တိုင်းမ်
ves
▁၁၆၄၉
ကုန်းရပ်ကွက်
ချုပ်အဖြစ်
▁၂၁၆၂
ပင်လယ်ကွေ့
▁၁၇၄၂
▁မြစ်များ
မဟုတ်ပါ။
ကျဉ်
▁၂၀၉၅
▁ကျွန်းသစ်
ပေါ်က
ဖြစ်စေသော
ပျက်ပြား
စန္ဒ
▁စာရင်းဝင်
ခံရပြီးနောက်
▁ပေးအပ်ခဲ့သည်။
▁ဆောင်ယူ
▁အသိုင်းအဝိုင်း
800
▁ရဲတပ်ဖွဲ့
="61
မာရီ
▁fa
သည်ဖြစ်ရာ
▁၂၁၉၆
▁လူနှင့်
="112
▁ရွာရှည်
▁လှော်
အရပ်မှ
▁ပြောဆိုခဲ့သည်။
▁လွတ်လပ်ခွင့်
▁အွန်
အစွဲ
▁၁၃၉၂
ရုံး၏
ave
▁သင်ခန်းစာ
သွားပြီးနောက်
▁နိုင်ငံခြားမှ
နေထိုင်ခဲ့သည်။
▁လေကို
ပိုမိုကောင်းမွန်
▁ဂုဏ်သတ္တိ
အေးချမ်းသာယာရေး
နေမှု
▁exp
ကျင့်ကြံ
ခဲယဉ်း
နည်းလမ်းများ
▁ဒဏ္ဍာရီများ
▁ဥရောပတိုက်သား
ကြကုန်သော
ထွက်ပေါက်
▁ရာထူးကို
လိုဏ်
ပြုလုပ်ထားသော
▁သုံး၍
▁ဆက်၍
▁ဋီကာ
ပင်တည်း။
▁ထုတ်လုပ်နိုင်
▁ဖြစ်ပေါ်လာသည်။
၏ဇနီး
စွယ်စုံကျမ်း
▁၁၇၂၇
▁50
န္ထ
ဂူး
ဂရု
မကျီး
မှုမှ
္စ
မှုတို့ကြောင့်
▁ချန်ကေရှိတ်
▁ကောဇာသက္ကရာဇ်
▁စီးကရက်
▁ဥရောပတွင်
▁တမ်း
▁ဂေါတမဗုဒ္ဓ
ဝေးကွာ
▁ပွတ်တိုက်
▁အကျော်ကြားဆုံး
▁၂၁၄၃
▁Khin
▁ထွင်
▁၂၀၆၁
အပြင်ဘက်
▁ရေငွေ့
တန
နှိမ်
▁ပုဂ္ဂိုလ်တစ်ဦး
▁၂၀၇၃
▁၂၄၀
▁မှတ်တမ်းများ
နားကောင်မြို့နယ်
ပုံမှန်
စွဲကိုင်
ဝင့်
▁၁၂၇၈
▁Internet
သွ
▁နှစ်ခြိုက်
စ၍
▁အနီးကပ်
lli
မြစ်ကမ်း
era
▁နှစ်ခုစလုံး
cent
ဈေးနှုန်း
▁၁၆၈၇
မယူ
▁ပြည်ကြီး
ဝင်ရိုး
▁ဂန္ဓ
သွားလာနိုင်
▁ကင်ဆာရောဂါ
▁ပွင့်သည်။
▁လူ့ဘောင်
▁၂၀၉၈
lla
▁၁၃၅
▁ကြိုက်နှစ်သက်
မျိုးရင်း
မိ၍
ဓာတ်အားပေးစက်ရုံ
ရွိုက်
▁တီထွင်မှု
▁သတင်းစာတွင်
▁တခ
▁ထိုသူ၏
ပေမဲ့
▁သင်ကြားရေး
ဆို၍
ထ်
▁စကြာ
တုံ့
ပြည်ပ
▁လူဝီဘုရင်
ဩဝါဒစာ
ကောင်းမွန်သော
▁ပထမဆု
▁ကျောက်မျက်
▁တလ
▁ငွေတောင်
▁၁၇၀၉
စာများကို
မှုနှုန်း
▁အာရုံခံ
မြိုက်
▁Mc
မြို့နယ်ရှိ
▁ငြိမ်း
တိုးတက်ရေးပါတီ
▁le
မန္တ
▁တက်ကြွစွာ
ရုံးတွင်
ရူပ
မဂ်
▁မဏိ
iya
400
▁ဗူး
▁ကြွေး
ဖြည့်စွက်
ဗြိတိန်
▁နိမ့်ကျ
ကဿပ
သီကုံး
▁လိုက်လျော
ral
၌လည်းကောင်း
zz
car
ကွဲရွာ
▁၁၇၂၂
▁လိုက်စား
ချဉ်းကပ်
▁မှုခင်း
SP
သင်္ဂါယနာ
ရမယ်။
▁ပခုက္ကူမြို့
▁ကြက်သား
▁၂၁၀၀
▁ခွေ
ုတ္တရာ
▁၎င်းနောက်
ရော့စ်
ပါးသော
▁ပူပြင်း
▁ဆီဆုံ
ခဲသည်။
中
▁နိုက်ထရိုဂျင်
72
▁အင်္ဂါနေ့
▁Party
▁ကူဝိတ်
▁စမ်းသပ်မှု
▁လှည်းဆိပ်
အစ်ကို
ဗိုလ်ချုပ်နေဝင်း
▁ပြည့်လွန်နှစ်
sta
▁ကျက်သရေ
ခွင့်ရရှိ
▁ဗိုလ်လုပွဲ
▁ဩဇာအာဏာ
တစ်ခုသာ
သရွေ့
ပုဂ္ဂလ
တပ်သားများ
တမန်
▁၂၁၄၇
▁ရေကာတာ
မှန်ပြောင်း
▁အခေါ်
ဘရီ
▁high
▁ယဉ်ကျေးမှုများ
▁၁၆၄၇
မဟုတ်ပဲ
▁၂၀၃၂
▁ကြီးပြင်းလာ
ဏ္ဏ
ကြပါ။
▁ဆွေး
ဒရီ
ဓာတုဗေဒ
▁Nu
▁မျိုးရိုးဗီဇ
ဘင်း
နောက်လိုက်
သစ်၊
▁သင်တို့
▁၂၀၄၂
▁သူမကို
▁ဘဏ်လုပ်ငန်း
အောင်မြင်မှုများ
လွှတ်တော်ဥက္ကဋ္ဌ
▁ဒေါ်မြ
လာခဲ့လေသည်။
▁နိုင်ငံရေးနှင့်
▁ထန်းလျက်
▁၂၀၄၈
ဆေးရုံကြီး
▁၁၆၄၅
▁နှစ်မျှ
အုပ်ချုပ်ရေးစနစ်
="98
မုံရွာ၊
ကြာအောင်
▁ယောက်မြောက်
▁ကျောင်းစု
▁၂၁၃၃
▁၂၁၀၉
မတွေ့ရ
▁ထောက်ခံမှု
▁အချိန်အခါ
▁ဖျော်
သောင်ရွာ
လိုလို
သာသနာပိုင်
ition
ever
နေထိုင်သူ
▁မြန်မာအမျိုးသား
ces
သတ္တ
နှိုင်းယှဉ်
▁ဖြည့်
ုမ်း
▁ရန်သူကို
▁သိမ်းပိုက်လိုက်
▁ရေနံမြေ
▁ကျွန်းပင်
▁ကျင်းပကြသည်။
▁လွှတ်တော်အမတ်
နှင့်သာ
စဉ်ကာလ
▁ကိုသာ
▁တမျိုး
=71
မြို့ဝန်
ကိုအသုံးပြု
▁all
018
▁ဒေး
▁ဖုံး
▁11
▁ထုတ်ဝေသည်။
မည
များစွာရှိသည်။
▁အတည်ပြုခဲ့သည်။
ွတ်
ဝက်ဝံ
ချကာ
ပိုင်းနှင့်
▁စာပို့
701506
စုံလင်
tical
ပေသေးသည်။
မကြာမီ
သဖန်း
▁ဆိုရ
တက္ကသိုလ်၊
▁၁၈။
စေခဲ့ပြီး
▁၂၀၇၁
မပြော
ပုပ္ဖိယ
▁ဤဘဒ္ဒကမ္ဘာ
▁စင်တောရိ
▁အသေအချာ
▁အလျင်အမြန်
▁Harris
တော်မမူ
▁ဖော်စပ်
▁ဗေဒ
....
RI
▁ကက္ကူ
▁နိုင်ငံနှင့်
▁ထွက်ကုန်
ကျောင်းစု
သွင်ပြင်
ပေးမှု
▁ရှိသောကြောင့်
▁ဒက္ခိဏ
▁အားကစားနည်း
လွီ
▁၂၁၇၃
ဇစ်
▁လက်စွပ်
▁တစ်ချက်
▁၂၁၃၇
taw
▁မာရ်နတ်
ဓာတ်ကို
▁ဇေတဝန်ကျောင်း
ုံ
▁ဒေသအလိုက်
▁၁၇၁၅
▁၁၆၄၃
ကိုးပါး
▁သိမ်းဆည်းထား
▁မိုးရာသီ
▁လူမှုအဖွဲ့အစည်း
▁IP
▁အမြတ်ဆုံး
▁၁၆၄၆
▁နတ်ဘုရားများ
▁အလယ်ဗဟို
▁ငု
ထွက်သွား
အဖွဲ့သို့
▁အိုးအိမ်
ငြိ
▁ခတ္တိယ
▁အဓိဋ္ဌာန်
ရက်ထပ်နှစ်
▁ပြေလည်
ဘီယာ
ပြသခဲ့သည်။
▁နေရာ၌
တိရစ္ဆာန်များ
နှင့်ဆက်စပ်
▁ဇေ
တစ်လွှား
▁ဆောင်ရွက်ခြင်း
▁၂၀၅၂
▁Ke
eo
="76
▁နောင်ခမ်း
စတစ်
▁ရှုတ်ချ
▁ငှက်ပျောတော
▁ကင်းလွတ်
ညု
▁ထိုကျမ်း
▁ဗင်
▁ကခုန်
အကြောင်းကြောင့်
ပြဆို
▁ဗွိုင်ယေဂျာ
ဂုချိဘူတာ
ပြီ၊
ပိတ်ပင်
▁အလုံးစုံသော
နေပါက
သင့်သည်ဟု
▁ဖြစ်ကြလေသည်။
ကောင်စီမှ
cro
▁ဗွီ
သည့်နောက်
စီး၍
ဖှာ
▁အမည်း
▁နယုန်လ
▁ဒီဇင်ဘာတွင်
NG
ကတိုး
▁Vo
ပဉ္စ
▁သော်လည်းကောင်း
ခေတ်သစ်
▁ဆန်းကြယ်
▁ဘေးရန်
▁မြစ်ကမ်း
▁သူများ
၂ဝဝ
▁လေ့လာသော
▁လူမျိုးစုများ
▁ဘုရားပွဲတော်
▁ဒေသနာ
စာရင်းအရ
မဘူတာ
အင်ပိုင်ယာ
▁တည်ထောင်ခဲ့
ဗျိုင်း
ယောကျာ်း
▁st
ပတ္တမြား
▁တစ်ဆက်တည်း
▁ပန်းချီကားများ
▁မဂ်
နွတ်
နှောင်
ကွီး
▁နီကို
လန်ဒန်
▁မကျီးပင်
▁နိုင်ငံတော်က
ဟူသမျှ
ပေါ်လွင်
▁ရေလက်ကြား
▁ဝိုင်အမ်ဘီအေ
ရိုနာဗိုင်းရပ်စ်
▁ယခုထက်တိုင်
▁အစပျိုး
▁ဓမ္မာနံ
နေကြရ
▁အမည်ခံ
vis
ပုံတစ်ပုံ
▁ကြံခင်း
လောင်ရွာ
▁အိုင်ကြီး
ပံ
014
▁လျှောက်တင်
ုတိ
▁မြန်မာ့အသံ
▁သူ၏ဖခင်
▁၁၆၈၀
မိသော
အခြင်းအရာ
▁ငါးရာ
▁ဇာတ်တော်
ဂရစ်
▁ကြော်
▁၉၇၇
မှတ်ယူ
▁အက်စ
▁၂၁၅၀
▁ကွမ်းသီး
မျိုးခွဲ
ာလင်္ကာရ
▁အရောင်း
▁Her
တလိုင်း
▁စသည်တို့ဖြင့်
စာရင်းဝင်
▁သတင်းပို့
စက်မှုလုပ်ငန်း
စူးစမ်း
▁ခင်း
▁၁၇၀၂
▁၂၂၂၀
▁အကြာတွင်
စဉ်ဆက်
မ္ပ
▁အများကြီး
▁သစ်ခွ
ပေး၏။
▁ဖော်ပြထားသော
တစ်ဘက်
end
95
ပြုလုပ်ထား
▁တည်ထောင်ခဲ့သော
▁ဆေ
ဘာသာကို
tle
ရှည်သည်။
▁မှီဝဲ
ese
▁အလုပ်လက်မဲ့
▁၁၆၇၈
thumb
▁ဘေးမဲ့တော
ဆံ့
လတ္တံ့
▁တစ်ချိန်က
ထို့
တိုက်ကြီး
ကျွန်း၊
ဖါး
▁၁၀၃
ရခြင်း၏
▁အရင်းအနှီး
▁ကျိုတို
သတ်မှတ်ထားသော
▁၁၉။
▁တွေ့နိုင်
▁ထနောင်း
တည်းဖြတ်
ထရွန်
အိုခဘူတာ
မဂ်ဖိုလ်
အားကစားသမား
▁ပြုံး
▁Inc
▁ဒရယ်
="106
▁Art
▁ပတ်ဝန်းကျင်တွင်
ကယား
မြည်
Pro
▁နယ်စား
လေးဦး
tain
▁ကြယ်တံခွန်
ီးယပ်စ်
▁ဆောင်ပုဒ်
ခရိုင်၏
ဇေတဝန်
▁ဖြတ်သန်းသွား
ခြေထောက်
၅ဝဝ
နိုင်နင်း
သည်နှင့်အမျှ
▁အစီအစဉ်ကို
▁ပယ်ချ
▁၂၁၂၁
▁အရောင်တင်
ခြင်္သေ့
ခိုလှုံ
နိဂုံး
ကာယ
▁ရှီအာ
▁ပါရစ်မြို့
သော်ငြားလည်း
▁ခုံကြီး
များကိုပင်
▁Com
▁software
=116
ပန်းကန်
တိုက်တိုင်းအောင်
▁မင်္ဂလာဒုံ
ကိုးကန့်အထူးဒေသ
wi
ကာကွယ်ဆေး
တောင်းခံ
Bo
▁၂၀၉၂
▁ခါနာဂါဝါခရိုင်
ရုံးစိုက်ရာ
▁ကျွဲတလင်း
ုး
▁ကမ္ဘာ့အကြီးဆုံး
▁နောက်နှစ်
▁တပ်မြို့အတွင်း
လျှက်ရှိသော
="116
▁တန့်
▁ရွာငံမြို့နယ်၊
▁အဖြစ်လည်းကောင်း
▁ဒြပ်ထု
▁0.
▁သန္ဓေ
▁၁၇၂၈
▁ခုနှစ်ထိ
▁၁၇၄၄
ဉာဏ်။
▁ရှေ့ဆောင်
ဝါဒီများ
▁လည်ချောင်း
▁သခင်တင်
ကြွပ်
▁အနုပညာလက်ရာ
▁ဆင်ဆာ
▁ဝေဒ
▁မင်းရဲ
မာလ
▁ဦးမောင်
ရောဂါဖြင့်
ဖြစ်လာခဲ့
▁လက်ဝါး
▁စတင်ထုတ်ဝေ
ပြုမူ
ဟုခေါ်၍
ရောင်းဝယ်ရေး
သီတင်းသုံး
ခုံရုံး
▁စတင်အသုံးပြု
▁General
▁UN
▁ဓန
▁မဂ္ဂ
နိုင်ခြင်းမရှိ
▁Dan
▁၁၇၄၅
ထက်ပို
▁၁၆၉၁
တတ်ပါသည်။
▁အေဝမ်း
▁နာမည်ကို
▁ရှုခင်း
▁၉၂
ကိုတော့
လေယာဉ်ပျံ
▁ခေါင်းပေါင်း
="66
▁ဘုန်းတော်
▁အင်တိုင်း
ကုမ္ပဏီမှ
▁နစ်နာ
သားများက
▁အစောပိုင်းကာလ
▁open
နှင့်ပူးပေါင်း
▁me
ခြင်းအား
▁ဆရာကြီးဦး
▁ထုံးဘို
▁၂၀၉၄
တစ်ရပ်ဖြစ်သည်။
▁၃၈၉
▁အလာ
79
▁ဖွတ်
▁ပလာ
ာရာမ
2016
ဝင်ရောက်လာ
▁လုံလောက်သော
ရသကဲ့သို့
▁၉၇၂
ud
အကျိုးသက်ရောက်
=80
▁၂၁၁၂
▁ဓားပြ
▁ခန့်အထိ
=79
သူများတွင်
▁အခွန်တော်
လုပ်သော
တက်ရွာ
ဂတိ
▁ကျန်ရှိနေ
စက္ကန့်
မန်နေဂျာ
▁ရုံးသုံး
late
တည်း၊
လုပ်ငန်းများ၊
အငယ်
=204
▁စွယ်စုံ
▁ပိုများ
ကြီးစိုး
▁အထက်ဖော်ပြပါ
▁ဖြစ်ခြင်း
▁ကမ္ဘာ့ကုလသမဂ္ဂ
▁ကျွနု်ပ်တို့
▁ကမ္ဘာကို
စိတ်ချရ
▁အရေးနိမ့်
▁ဧည့်ခံ
စာလုံးများ
▁ချိဘခရိုင်
less
File
▁ကော်ဖတ်
▁မောင်းမ
▁အောင်မြင်သည်။
▁ကွင်းကောက်
သမိုင်းကြောင်း
▁ပါရီမြို့
▁ပြည့်ဝ
="204
ဘရှိဘူတာ
အခက်အခဲ
ER
▁မာကျူရီ
ဟုဆိုသည်။
စောမွန်
အပိုင်းအခြား
▁၂၀၆၀
▁၂၀၇၀
▁မြစ်ချောင်း
ics
▁၃၂၀
ထူးကဲ
ကုံ
ould
▁ဥပဒေများကို
ဒြ
▁Pyaw
မညီ
ဟုမ်း
သခွတ်
▁၂၀၉၇
၂၀၁၉
="67
▁News
နီရွာ
လေးအိမ်
AP
ခိုရွာ
အကြာ
order
ဝတ်ပြု
▁ငြိမ်ဝပ်ပိပြား
ပေါင်းစု
Ba
ကိုယ်ထည်
▁မလိုအပ်
ရှင်မ
ခြာ
ပမာဏမှာ
▁ခန
▁စက်ဖြင့်
သွားပြီးလျှင်
သုတ
gas
▁South
▁အလွယ်
ယူခဲ့သည်။
▁၁၇၀၁
ကြိုးကို
▁၂၀၈၆
▁အဲဒီလို
စာရွက်စာတမ်းများ
အချိန်ကာလ
ert
▁၂၀၅၉
ငြင်း
ကြီးနေဝင်း
ဌာန်
▁ဂျာမနီ၊
arm
▁ဧည့်
ration
နှစ်ပေါင်း
▁အဝတ်အထည်
ခုနစ်ပါး
▁တို့ကိုလည်း
▁ပန့်ခ်
အချိန်၌
▁ဘာသာရပ်များ
ကမ္ဘာစစ်အတွင်းက
▁သတင်းစာတိုက်
▁ဝေဖန်ရေး
ကတုတ်
နယ်သို့
တင်မောင်
မိတ်ဆွေ
▁စိတ်ပျက်
ပြုကြ
တော်သို့
ရေးကော်မတီ
74
▁သတင်းများ
ရွာသို့
ကျိပ်
▁ပါစိတ်အာပတ်
▁ကျောက်ပုံ
ခဲ့၏
▁ရေးဆွဲခဲ့သည်။
ေတာ
အခြားသော
နှာ
▁ပလေးစတေရှင်
0130207015
▁website
▁three
▁ကညင်ငူ
အတွင်းမှာ
▁အရေးအကြီးဆုံး
pol
ထို့အပြင်
▁Shey
▁လူတွေ
များသောအားဖြင့်
▁ယင်းမှာ
▁စဉ့်
အုပ်ချုပ်သော
▁ပုံသေ
dra
▁အမက
▁မတည်
ညွှန်ပြ
▁ထောက်ခံအားပေး
ပါ့
=53
စကားရပ်
ရည်မှန်းချက်
ရှင့်
နားထောင်
▁၂၁၃၈
▁တောင်အမေရိက
▁၂၀၈၁
သယ
▁အတွင်းက
ရုပ်သံ
▁လူမည်း
မထင်
▁၁၆၀
▁ကာရံ
▁Em
ခဲ့ကြပါတယ်။
▁ဂျုံ၊
အချိုး
ကျန်းမာရေးဌာန
လုပ်ကိုင်ကြ
အဖြစ်နှင့်
အတော်
▁အခွင့်အာဏာ
ညည်း
▁အထင်ကရ
သွားရသည်။
▁၂၀၀၈ခုနှစ်
▁ဗုဒ္ဓဝင်
တင်မြှောက်ခြင်း
ရက်မှ
▁ရွှေဘုံသာ
တျာ
နွဲ
သုံးသော
▁လပြည့်ကျော်
▁စစ်တမ်း
ဆေးအဖြစ်
၇ဝ
▁စစ်ပြီးခေတ်
▁ဇို
ထီးနန်းကို
▁မဲနယ်
တမော့
▁ထဲတွင်
gra
သွာ
ther
▁မြေနီ
▁၂၁၀၆
▁သူဌေးကြီး
▁ကျိန်
ကဝိ
ရောဂါကာကွယ်ဆေး
ကုန်းမြေ
▁လွန်ခဲ့သောနှစ်
ပုရ
▁ဦးမြ
▁နာရ
▁ညစ်ညမ်း
ကပ္ပ
="63
တစ်ခု၌
▁ထိုးစစ်
▁ကုသမှု
▁မှောင်ခို
▁ကွမ်းသီးပင်
▁ပါမောက္ခချုပ်
သံစုံ
မွမ်း
▁ညောင်ရမ်းခေတ်
▁Yu
ချိန်မှ
အကျယ်အဝန်း
လုပ်သားများ
▁Maha
▁ဤအမျိုးအစား
▁မှောက်
▁အလုပ်ရုံ
▁မူလအစ
▁ဆန်းစစ်
ဆိုင်များ
▁ငြိမ်းအေး
▁အောက်ပါတို့
▁မရှိခြင်း
မွမ်းမံ
▁အချုပ်အခြာ
ရုပ်ရှင်ကား
ဋာ
▁ဆွ
ဖါ
▁ပူးပေါင်းကာ
ရွေ့လျား
ခဲ့သူများ
ခြင်းထက်
ဟာရီ
▁မကြာသေးမီက
▁လက်မှု
▁၁၇၁၂
အသုံးပြုခဲ့သည်။
▁နန်းတက်စ
ယန
လှျင်
▁ပဲရယ်လ်မန်
н
ထုတ်လုပ်သူ
=203
ပျဉ်း
▁Kya
▁အိုင်းရစ်
▁အပြည့်အစုံ
▁ကြို့
▁ဓာတ်ပုံရိုက်
▁ကွန်မြူနစ်များ
Myanmar
▁ဂျပန်၊
fr
▁la
rus
အစီအစဉ်များ
ဖြစ်ပေါ်စေ
▁သိမ်ကုန်း
သောင်းကျန်းမှု
▁States
▁Times
ဖြစ်ပြီးလျှင်
အင်္ဂလန်
▁ပြည်ပပြန်
▁ထိုထက်
▁၂၀၇၇
▁၂၀၃၇
ဖေါင်း
▁လုပ်ကိုင်သည်။
▁၂၁၄၄
▁ထိုကာလ
ုတ္တ
ဆီယမ်
▁တိန်း
▁နောက်တစ်နေ့
▁ပယင်း
="51
တန်ဆောင်း
▁လေသာ
ဖေါ်ပြထား
▁ပြည်နယ်တစ်ခု
je
▁ဆောင်ရွက်မှု
စရာမလို
▁ထိုထို
▁၂၁၀၅
▁ပြုလုပ်ရာ၌
ရေးဖွဲ့
▁ကျန်ရစ်သည်။
="203
▁ခေါ်၍
ယွမ်
▁အမိဒေါ်
ple
▁လှေကား
▁ရေးမှတ်
▁ပုစ္ဆာ
▁လုပ်ဆောင်နိုင်
="55
ဂိရိ
▁Bra
▁၁၆၇၁
ဖို့အတွက်
▁လူဖြူ
ခဲ့ကြသည်ဟု
71
▁ထက်မြက်
▁မဲခေါင်မြစ်
▁သရုပ်ပြ
▁ဂုဏ်ယူ
▁သိရှိရ
▁ဝေသာလီ
▁၂၀၈၄
▁ပါဝင်လာခဲ့သည်။
▁တောင်ကလေး
▁အစားအစာများ
ဆောင်ရွက်မှုများ
နေသေးသည်။
ထင်ရှားသည်။
နောင်လုံ
စေနိုင်သော
ကျူးကျော်မှု
▁နှစ်ထပ်
rop
▁High
▁ရေမ
▁မျိုးနွယ်
▁တို့၌
▁ဆူနာမီ
ရှိစေရန်
▁ဥပဒေနှင့်
▁အီသီယိုးပီးယား
သံအမတ်ကြီး
လမ်းများ
အားကစားရုံ
ကြွား
▁၂၁၄၀
တိုက်၊
လာတဲ့
အီဂျစ်
မိသားစုဝင်
ပဲ၊
ပညာရပ်များ
နောင်မို
▁ခုခံတိုက်ခိုက်
▁တည်းခို
နေဆဲဖြစ်သည်။
တက္ကသိုလ်၌
ရှင်းပြ
▁ဒေသတစ်ခု
mber
အေးအေး
▁ပြင်ဆင်ဖွဲ့စည်း
▁တိုးလာ
▁Ó
▁ကရင်သောင်းကျန်း
ပေးခဲ့သော
ကြန်
ပြုခဲ့သည်။
ت
နဗီတမန်တော်
▁service
lam
▁Tri
လက်ပံတောင်းတောင်
ဘာ့ဂ်
▁ကတ်ထိုက်
ခြယ်လှယ်
▁ပျဉ်ထောင်
▁ပန်းရောင်
69
▁ပဒုမ
▁ကြက်သွန်ဖြူ
▁မဟာမိတ်တပ်များ
ဖျန်း
အာဏာပိုင်များ
အလင်းရောင်
▁စိန်ခေါ်
ကျော်၊
မကြာခဏ
နှစ်သားအရွယ်
သေးသော်လည်း
အမြောက်အများ
တစ်ရှူး
ကာမ
ပေးနိုင်သော
▁ကျီးကန်း
သံမဏိ
▁ပိုးထည်
▁တွေးတော
နေပေသည်။
▁၂၀၇၆
အထောက်အထား
▁ထိုနှစ်တွင်ပင်
ကြေးနန်း
ရှိသေးသည်။
▁သိပ္ပံပညာရပ်
လမ်းတွင်
ကုန်ဆုံး
နိုင်ငံများသည်
▁ရန်သူ့
▁ရေမျက်နှာပြင်
▁အီရန်သည်
▁ဝင်ခွင့်
▁ရုပ်ပိုင်းဆိုင်
▁မရှိ။
ငှ
▁ရာဇဂြိုဟ်ပြည်
▁ဂျပန်နိုင်ငံ၏
ချုပ်ချယ်
▁အဖွဲ့များ
▁တီထွင်ခဲ့သည်။
▁၂၁၂၃
▁ဝါကျ
မင်းကျော်
▁အခက်အခဲများ
မသင့်
DP
ထုတ်လုပ်သော
▁ဘီ၊
အောက်ရွာ
▁စေတီတော်ကြီး
▁၁၇၄၁
▁တရုတ်နိုင်ငံမှ
စရာကောင်း
ချင်း၊
▁ဘိသိက်
▁Sam
ပုတီး
ငယ်နှင့်
▁ma
▁လုယက်
▁ကျဆင်းလာ
မြို့ကြီးများ
ao
PI
ဝါးရုံ
ရရှိရေးအတွက်
▁ဓမ္မာစရိယ
▁ရောမတို့
အိုင်း
လား၊
နေ့ည
▁ကျောက်တလုံး
▁ပုစွန်
▁ချောမွတ်
ဖရက်
စနစ်နှင့်
များစွာရှိ
အထဲတွင်
များတွင်သာ
အပြန်
▁ရေအား
မျှတ
ဂျမ်း
တွင်းထွက်ပစ္စည်း
▁ထိုနည်း
▁အထီး
▁roll
▁မန္တလေးမြို့၊
▁ပျံ့နှံ့သွား
တစ်သန်း
သမ္မ
▁ပညာရေး၊
▁မင်းညီမင်းသား
ich
၍လည်းကောင်း
▁Son
ဖြစ်သည့်အပြင်
▁ရှိဇုအိုခ
ပဝရ
▁ပြည်သူ့စစ်
အများအပြားကို
▁နဂ
တို့အနက်
▁အရှည်ဆုံး
▁ဘုရားရှင်က
hy
ပါဌ်
▁အတော်အသင့်
▁၂၁၂၅
▁ကျောက်မျက်ရတနာ
ကျိုးခံစားရခြင်း
စိန်ဝင်း
ရပ်နား
▁ငှက်များ
အလိုရှိ
အစပ်
▁၂၀၂၇
ခန့်ရှိ
▁၂၁၅၁
ရွေ
ပက်လက်
▁ပဋိပက္ခများ
အာနန္ဒာ
ရိုးရိုး
▁အလ
ကျင့်ဝတ်
▁စစ်မက်
ကင်ပွန်း
အောက်မေ့
အမှုဆောင်
▁စစ်ပြီး
လေသည်
ဖြစ်မည်
▁၂၃၄
▁မူဆလင်
▁သက်ရောက်မှုများ
▁နိုင်ငံရပ်ခြား
▁ဘောဂဗေဒ
နိုင်သေးသည်။
▁နက်နဲ
▁ပြီးစီးခဲ့သည်။
▁စစ်သားများ
အာဏာသိမ်း
လင်ရွာ
▁၂၀၆၄
ဒွေး
▁ရစ်ပတ်
▁၂၁၉၅
▁ဂျိုးဇက်
▁ရာစုမှ
▁၂၁၉၈
▁သင်သည်
များအပေါ်တွင်
▁ကြံတော
▁ဆိုးရွား
▁အမှုတော်
▁code
ဒီမိုကရေစီပါတီ
rate
▁ခစား
ပညာဖြင့်
ဖောက်ပြန်
Ra
▁၁၆၅၂
ထူးချွန်ဆု
ပိန္နဲ
▁အဆုံးစီရင်
▁သစ္စာဖောက်
▁တား
▁ဗိုလ်မြ
▁သခင်စိုး၏
▁အမျက်ထွက်
▁ရွှေဘိုမြို့
ရှိပြီး၊
ပြုလုပ်ခဲ့ကြသည်။
▁လက်မှုပညာ
လမု
▁လေ့လာခဲ့သည်။
▁အဆိုး
▁လကမ္ဘာ
▁David
ပုံစံများကို
▁စေတီပုထိုးများ
▁30
ခဲ့စဉ်
ကြည့်ပါက
သာဝက
များနှင့်လည်း
လောက၌
▁ခြား
▁မြစ်ချောင်းများ
sha
▁သေဆုံးခဲ့
ကြတော့သည်။
▁နယ်မြေများ
▁သွားလာနိုင်
▁ရေလမ်း
▁၂၀၅၁
ညွှန်းကိန်း
အခွံ
▁ပုံစံများ
▁လေ့လာရန်
ကရ
▁၁၄၀
▁အဖွင့်
တွဲဖက်
▁ပြီးတော့
▁ကမ်းပါး
▁သမ္မ
▁အဓိပ္ပာယ်မှာ
▁ပဒေသာ
▁ညှပ်
မဟုတ်ချေ။
gue
▁ပြည်ပမှ
▁ဦးထုပ်
လာမည့်
ဖွင့်ဆို
▁အအို
▁ပီတိ
ငယ်ကျေးရွာအုပ်စု
▁ဂမ်ဘီယာ
တည်ရှိပြီး
▁ထောက်လှမ်းရေး
="73
သည့်အရာ
▁တယ်လီ
▁ထိုနယ်
1%80%
အမွေ
▁ခြစ်
မြို့များတွင်
▁ဒေါက်
▁ရေများ
ဗြဲ
စာအုပ်တွင်
အခွင့်
▁၁၆၅၃
▁အထင်
▁ဆိုင်သော
ထုတ်လုပ်ရန်
▁ဟန်ဂေရီနိုင်ငံ
တိဿ
ဘက်ခြမ်း
ပေါက်တော
▁Death
▁ရှောင်ရှား
▁အခြေခံသော
▁ပုဇွန်
▁မခံ
▁လောကတွင်
ဖျော့
▁ကလော
ဒြဗ်
▁ကျောင်းတော်သည်
▁ကိုင်းတော
▁TDS
▁ဩစတြေးလီးယား
▁Entertainment
▁အခါအားလျော်စွာ
▁ဆေးဖက်ဝင်
▁ရွေးချယ်ခြင်း
▁အမူအရာ
▁ကျောက်ပြား
ရရှိပြီး
ဖြစ်ခြင်းကြောင့်
▁နီးကပ်စွာ
▁လက်ပံကုန်း
▁၁၆၉၀
တစ်ယောက်သည်
▁Fu
ဖြန်း
▁ပြုပြင်ပေး
တိုးတက်လာခဲ့သည်။
▁စစ်ဦးစီးချုပ်
▁ကံသာ
ဖြစ်လာမည့်
▁ပြဇာတ်များ
မျိုးစိတ်များ
▁Cor
▁တွဲဘက်
▁ချမ်း
ဖြစ်ပါသည်
▁၂၁။
▁၁၇၃၂
oss
ကွန်ဖရင့်
ဝိသေသ
ယူဇနာ
ပေးချေ
ပထမဦးဆုံး
▁ခေါ်ဆိုကြ
▁အမျိုးမျိုးကို
ဖဲ့
ငယ်လေး
▁၂၀၈၅
တက္ကသိုလ်၏
လေကြောင်းလိုင်း
FA
▁ကျိန်း
စာတန်း
▁ကမ္ဘာလှည့်
လီယန်
▁ထိုအထဲတွင်
တို့မှာလည်း
▁အတွင်းမှ
▁ကြည့်၍
သတင်းအချက်အလက်
ချဲ
ဝန်းရံ
အဖြစ်သာ
ပင်စည်
ရှည်သော
▁ပေါက်ကုန်း
▁၂၁၀၃
▁၂၀၉၆
▁မဟာဘွဲ့
ပြန်လာ
ခန်းတွင်
ပင်ရင်း
၌၎င်း၊
ဝေါ့
ဆွဲအား
▁ခွဲခြား၍
▁နေတိုး
▁မြို့မကျောင်း
MI
▁၂၀၈၉
▁မြန်မာတို့သည်
▁ငါးဖမ်း
▁ဗုံ
သောသူသည်
▁စာချုပ်ကို
▁ခေတ်တွင်
▁English
ခမ်
▁အေသင်
▁အသံသွင်း
အမှား
ute
ချူ
▁တည်ရှိခဲ့သည်။
လုံခြုံ
▁အလေးပေး
▁မွေးနေ့
▁သစ္စ
▁ခေါ်ကြ
▁နေထိုင်ခဲ့
90
▁ထိမ်းမြား
တစု
▁၂၀၈၀
▁မှန်ကန်စွာ
▁မြစ်ဝှမ်း
▁ကျွန်ုပ်တို့သည်
66
အိမ်သို့
Mi
▁ကဗျာ၊
ကွက်လပ်
တစ်ရပ်အဖြစ်
▁ဤစာအုပ်
၆ဝ
▁ဥက္ကဋ္ဌ၊
▁ထံမှ
▁စိတ်၏
01600
▁အဖမ်းခံရ
▁ပေးဆောင်
▁စုံလင်
▁ကိုလံဘိုမြို့
▁ဆန်တက်
▁ပေါက်လာ
▁အအောင်မြင်ဆုံး
ကြီးမှ
ပစ္စည်းများ၊
▁ကွန်ဖရင့်
အနီ
▁တောင်ကုန်းများ
▁ဆုံးဖြတ်ခဲ့သည်။
DC
▁မျိုးရင်းတွင်
မျိုးလည်း
▁ကျွေး
▁ဗုဒ္ဓဟူးနေ့
▁သခင်စိုးသည်
ဆောင်ရွက်ခဲ့
ကုလ
နည်းအတိုင်း
ဟုံ
ဆည်းပူး
ကင်းသော
ပေးလျှင်
▁ရတန
uan
า
▁electronic
原
▁စွဲကပ်
▁ဆော်ဒီအာရေဗျ
▁ဖခင်၏
ရီယန်
▁လွိုင်မွေ
▁ရှော
▁ဓမ္မစကြာ
▁ပေါလု
သွယ်သွယ်
▁မီးချောင်း
▁ကြေညာသည်။
ကျွန်းနှင့်
ပြည်၊
အမည်များ
▁တစ်နာရီလျှင်
▁ထိုရောဂါ
▁ကုန်းပြင်မြင့်
▁၁၇၁၀
တစ်ခုလုံး၏
ဘဝနှင့်
▁၁၃၀
▁အလယ်ပိုင်းတွင်
ကုသိုလ်ကောင်းမှု
▁25
ခြင်းမရှိခဲ့ပေ။
▁၂၀၆၂
မိမိတို့
ပါသော်လည်း
အေးချမ်း
▁ဩစတြေးလျတိုက်
▁၁၇၁၁
သံလိုက်
အငြိမ်းစား
ကိုယ့်
▁၁၀၁
ခင်းကျင်း
▁စာရွက်
နှမ်း
ထားသောကြောင့်
ပုံတို့ကို
သည်နောက်
စုကို
▁အကယ်
▁ဘုရင်က
ပုသိမ်
▁စီစဉ်ထား
တိုက်ခိုက်ရန်
▁အထက်လွှတ်တော်
▁ပရောဂျက်
▁ရုံ
▁ဖြောင့်မတ်
▁ကျေးဇူးပြု
▁ပုံစံအားဖြင့်
မှထွက်သော
▁အိုင်း
▁အဖြစ်မှ
လုပ်ငန်းအတွက်
▁၁၃၈၁
လတွင်
▁than
ND
ဘွန်း
▁Hot
▁ရှင်ပြု
▁ချီး
▁စစ်တောင်း
att
▁ချို့ယွင်း
shi
▁မလွန်
▁၂၁၈၂
▁အိုဆာကာခရိုင်
အားလုံးနီးပါး
လိမ့်မယ်
တိုင်တိုင်
▁လိမ္မာ
▁စာချ
တွေအတွက်
▁၂၁၂၉
ထမ်းရွက်
ဗွီ
နေစဉ်တွင်
ပွေး
▁တစ်နေရာမှ
▁ဘီးလင်း
▁Shenzhen
▁အကျိုးကို
ပေါ်မူတည်
▁လိုဏ်ဂူ
▁မရှိမဖြစ်
မှုအရ
တပ်မှ
လုပ်ငန်းမှာ
အတွက်မူ
စားကြသည်။
▁စာမေးပွဲကို
ရှစ်ဆယ်
▁မြေးတော်
▁ရေထွက်
တစ်လက်
bel
▁ဆိုထားသည်။
▁သူတို့က
▁စစ်ဆေးစီရင်
▁ဖလှယ်
▁စတင်ဝင်ရောက်
▁ငှက်ကြီး
▁ဒီရေ
အနီးသို့
▁နိုင်ငံတစ်ခု
အိမ်တွင်
အသင်းမှ
တေဇ
ပါပဲ
▁ကိုသိန်းဖေ
သန်းကျော်
လိုက်ကြ
နေဟန်
▁ပရိတ်သတ်
▁ကျွမ်း
သိုလှောင်
နှစ်ဘက်
▁ရွှေပန်း
▁အနောက်ဘက်ကမ်း
▁ကျင်းပရန်
ထင်မြင်ချက်
တောင်တန်းဒေသ
တီးကျေးရွာအုပ်စု
ပန်းချီကား
သုံးပြီး
ရသေးသော
▁Science
▁၂၁၁၁
ရှိခဲ့သော
▁သက်ဝင်
▁Center
field
အသင်းနှင့်
▁ဘီဘီစီ
▁ဖုန
▁အရမ်း
▁ယမ်းမိုင်
▁ပါရီ
▁အကြမ်းအားဖြင့်
▁မကြီးကုန်း
လစာ
စစ်ပွဲတွင်
ကွာခြား
▁နောက်တစ်ကြိမ်
▁မယုံကြည်
ဘာ့
▁Kale
▁လမ်းမတော်
▁စစ်ကိုင်းမင်း
ုက္က
လွတ်လပ်ခွင့်
▁ချုပ်ငြိမ်း
▁အချိန်ပြည့်
▁၂၀၆၃
▁ရှိသေး
▁အောင်မြင်သော
▁သခင်နု
တိုင်းသည်
▁ပန်းကန်
▁ကိုလံဘို
တထောင်
▁သံကြိုး
ဘွဲ့တံဆိပ်တော်
▁သတိထား
ပညာရေးဝန်ကြီးဌာန
▁၂၀၂၈
▁မိနစ်တွင်
▁ကြားသိ
▁၁၃၂၆
သုမန
တောင့်တင်း
ဇွဲ
ရောင်၊
▁အပင်များကို
ဆယ့်တစ်
▁မြန်မာမင်း
မှူးမတ်
ဂွေးချို
ဆန်းကြယ်
▁လွန်ကဲ
ene
▁Stone
သရုပ်ဖော်
▁م
နေရာတစ်ခု
▁မစင်
▁ရုံးတော
တွေကတော့
▁လွတ်ကင်း
တစ်သင်း
ရွတ်ဆို
▁ပန်းတော
▁မတင်
ပညာရပ်များကို
ဖွဲ့စည်းမှု
▁၂၁၈၈
ဒယ
▁ကိစ္စများ
ပြိုင်း
ဆန်းစစ်
▁တစ်ဖက်နိုင်ငံ
နီ၊
mil
▁အဓိပတိ
ဘဝ၌
မုံ့
စေရေးအတွက်
lit
▁ဟယ်
ချောင်းဝ
စိန်၊
တို့ကြား
ရှော်
▁၂၁၃၄
▁ပေါင်းထည့်
တိုတို
တက္ကသိုလ်များ
လှုပ်ရှားသူ
မြန်တပ်မဌာနချုပ်
▁ဥများကို
လက်အောက်သို့
ယူသော
ရန်မလို
▁ယက်
▁Loi
▁မျှတ
▁ရောဂါလက္ခဏာ
▁အချို
ပင်။
သို့လည်းကောင်း
ထွက်ပေါ်လာ
▁ဖြစ်တတ်
▁လုံးပတ်
ကြိုင်ရွာ
တော့ပဲ
တတ်သည်
▁ပြုလုပ်ပြီး
▁ဂေ
▁မြင်ကွန်း
fe
▁အထပ်ထပ်
ထက်မပိုသော
တိုက်ခတ်
▁အကြောင်းပြ
အမြီး
▁စူ
▁သတ္တုများ
▁ထိန်ပင်
▁မြို့နယ်အတွင်း
လစ်လမ်းစဉ်ပါတီ
၁၉၆၂
▁သတို့သမီး
▁ပါတီတွင်း
′
،
р
▁ကြောက်လန့်
▁လျှပ်စစ်မီး
▁ဆီးနှင်း
▁ဘတ်ဖတ်
ဆယ့်ငါး
ဆု၊
▁အသံတိတ်
▁Kyar
ဖျ
▁ဗီဇ
ရောက်ပြီး
ဆိမ့်
နှစ်မျိုးရှိသည်။
▁ကမ္ဘာ၏
ဆုံရွာ
ရှုံ့
▁သွေးကြော
များရရှိ
သူငယ်ချင်း
▁၂၁၃၆
▁ကိုယ်ကို
ဆိုသူသည်
▁ရသေ့ကြီး
▁မင်းရွာ
▁အမည်ရှိသော
aya
▁အိုးစည်
▁၂၀၃၁
▁ယောင်လင်း
ယွင်း
အစည်း
သီချင်းများကို
▁တိုက်ခိုက်ခြင်း
lone
ပဒေသာ
မတ်လ
▁ထီးဖြူ
သူတစ်ယောက်
▁ဘီအိုင်အေ
▁အင်္ဂလန်၊
▁မြို့နယ်၏
လူကြိုက်များ
ခွင့်ပြုခဲ့သည်။
ဝတ္ထုကို
ဂျိမ်း
မဲပေး
ဖြင့်၎င်း၊
▁၂၁၁၄
ကျသွား
စပ်ကြား
ဘာဝနာ
ပရက်
အကျိုးပြု
ကျည်
ချီ၍
▁(6)
ပျောက်ကင်း
▁ရာစုအတွင်း
▁ခုခံကာကွယ်
▁ဆူဒန်
▁ငါးမျိုး
▁ညောင်ရမ်း
▁ပြာသာဒ်
eik
ဆေးရည်
▁မင်းတို့
▁နှစ်ဆ
ဘုတ်ရွာ
ကုန်းမြင့်
အလေး
▁Va
▁၁၆၅၄
▁၂၀၄၁
▁အော်ပရာ
▁ရှိခဲ့ပြီး
▁အရန်
အားကောင်း
မြှ
ပဿ
သဲဖြူ
▁၁၆၈၁
ရောဂါကို
▁အစဉ်အဆက်
▁မေတ္တာစာ
ဂျု
▁ဆည်ကြီး
နွဲ့ရွာ
ဘူရီ
ဖြစ်တယ်
▁နီလာ
▁ရွတ်ဖတ်
▁၆၁၀
key
▁ကရိယာ
မရနိုင်
ပျောက်ကွယ်
▁ခန့်သာ
ဝင်လာ
နေသကဲ့သို့
▁ထိရောက်
▁အရာဝတ္ထုများ
▁အလုပ်လုပ်ကိုင်
စတိတ်
အတ္တ
လမ်းရှိ
▁အထွတ်
▁နမ့်ပန်
အုပ်ချုပ်ရေးကို
▁part
ထည့်သွင်းခဲ့သည်။
ခဲ့သည်။ထို
▁ပြိုင်ပွဲများ
▁ကျုပ်
ခန့်ရှိ၍
ဇင်ကျေးရွာအုပ်စု
▁၁၇၀၃
▁သုဒ္ဓ
မဟာဝိဇ္ဇာ
▁မြောက်များစွာ
▁tra
▁စီမံအုပ်ချုပ်
▁ကျောက်သား
ဘုရင့်
▁အခဲ
နှင့်ပြည့်စုံ
AD
▁ဖမ်းမိ
▁များမှ
များဖြစ်ကြပြီး
▁Wh
▁Development
▁blues
▁ကီလိုဂရမ်
▁အထွတ်အမြတ်
▁စတုတ္ထအကြိမ်
▁လင်းနို့
မည်မဟုတ်
ization
▁အိမ်ရာ
▁ပဲရစ်
မှူ
သည့်တိုင်
▁ထုတ်ဝေသည့်
သတင်းများ
စွမ်
ဓန
▁မိဘများမှာ
တဖက်
▁မှတ်တိုင်
▁၂၀၈၇
ဝမ်းမြောက်
▁ရက်စွဲပါ
▁ငြင်းခုံ
▁အင်တာဗျူး
▁ရှန်း
▁၃၉၂
ခင်ကျေးရွာအုပ်စု
mat
ဂေဟာ
▁လူစု
▁၂၁၀၄
၇၈၂
▁ဆယ်နှစ်
မဟုတ်ဟု
▁North
▁လွဲ၍
သန်းခန့်
ဝီလျံ
ပစ္စည်းများနှင့်
ချုံး
သွတ်
ွေ့
ဖြစ်ကြ
ပင်ဆိပ်ရွာ
▁ဧရာမ
▁စစ်ပညာ
ရွှေဘို
ဂန္ဓ
Ta
▁ဟင်းလျာ
▁နေဝင်
▁မြေကို
▁ကိုင်ဆောင်
app
လျောင်း
▁ဆင့်ကဲ
FC
▁ထင်ပေါ်
▁အမ်း
▁၂၀၈၂
ထန်းပင်
စေရန်နှင့်
ထိုက်သူ
အချုပ်
လှပ်
အချိန်အထိ
▁ကြံ့
▁ယင်းသို့ဖြင့်
▁နိုင်းမြစ်
ကြောင်းတွေ့ရသည်။
ငြိမ်သက်
တို့ရဲ့
မှတပါး
▁မိုးနဲ
လှပေ။
ကွင်းဆက်
စဉ်အခါက
တစ်နေ့
▁ဂျူးလူမျိုး
ဖို့လို
ရွ
▁၂၀၂၆
ဂနိုင်
ပြည်နယ်သည်
တရားရုံးက
▁ထိုရေ
▁၁၇၃၄
မှတ်ချက်
▁ရောက်ရှိနေ
▁အောင်ပန်း
▁တရုတ်နိုင်ငံ၏
▁ထိုရဟန်း
မိဿ
▁မန်ပြိန်း
ဒေသနာ
နယ်ချဲ့
ခုနှစ်၌
ပြိုကျ
ဦးအနက်
ရေကြည်
▁ဘန့်ဘွေးကုန်း
ဏိ
င်ရွာ၊
ဆိုင်းရွာ
၁၉၇၂
ပေရာ
အိချိ
နှစ်ထပ်
မြိုင်ရွာ
သီချင်းကို
စကေး
တတ်၏၊
▁အံ့ဩဖွယ်
စတို
မယ
86
တောင်ကြားလမ်း
▁ရရှိခဲ့သော
လက္ခဏ
နေပုံ
▁Hta
တဲကျေးရွာအုပ်စု
ကုန်ကူး
သွားတတ်သည်။
▁ရည်ရွယ်သည်။
မာတင်
▁မြတ်စွာဘုရားထံ
▁ဝက်သား
OC
á
လုပ်ဖော်ကိုင်ဖက်
▁Earth
▁Hpyu
▁islands
▁ရဟတ်ယာဉ်
▁လူ့လောက
▁မိုင်းလွေ
ဘိတ်
ဗရီ
▁အောက်မြန်မာပြည်
တန်းစား
▁ဥရောပနှင့်
▁လတ်
မြင့်မြင့်
▁မြေငလျင်
▁အနောက်သို့
▁အထွေထွေအတွင်း
▁ရွှင်
နိုင်သောနေရာများ
▁di
သိရှိရ
▁ဦးဥတ္တမ
▁ပရိဘောဂ
▁Japanese
pp
ဆိုဒ်များ
▁မတိုင်မီက
ဆင်နွဲ
ဖိစီး
▁၂၁၂၇
ွန့်
ခရိုင်ရှိ
ချေားဘူတာ
▁၂၁၅၅
▁ပထမနှစ်
▁ပြန့်နှံ့
▁ဓညဝတီ
="92
ဂျော
သောနေ့
▁ဦးမြတ်
သုံးသည်။
ဥပဒေများ
▁ကျော်ဖြတ်
သူဖြစ်ပြီး
▁နှေးကွေး
▁၁၂၀၀
81
▁ပါဏဗေဒ
▁တိုင်ကြား
အောင်လုပ်
သပြု
▁ခန့်မှန်းရသည်။
▁fe
တိုးပွား
▁ယောဂီ
▁အပါအဝင်ဖြစ်သည်။
▁ကိုးကွယ်ရာ
▁စစ်တုရင်
▁ဗို့အား
bal
ံ။
ကြဘဲ
▁၂၂၀၀
▁စတူဒီယို
▁တပ်မတော်သား
▁ကုန်သည်များ
တွင်ကျယ်
ခြင်းသို့
▁၂၁၉၉
ကောင်းသည့်
▁ရေးသားထုတ်ဝေ
▁ရမ်
▁၂၁၀၇
▁အနီးအနား
လိုက်ပါသည်။
▁ကုန်းတန်း
ရဟန္တာ
▁ခရီးသည်များ
▁၄၆၆
▁မလုံလောက်
ထေရီ
▁စာဖြူစုရွာ
▁ပျဉ်း
အာဟာရ
▁အရွယ်ရောက်ပြီး
ဘက်ရှိ
▁တံခွန်
ခဲ့ဘူးသည်။
ဆုတ်ခွာ
▁စီမံကိန်းကို
▁ဆက်သွယ်ထားသည်။
ငှက်သည်
▁Open
လေ့လာရေး
▁နှစ်လ
▁ခွ
ဂိုဏ်းချုပ်
ပြိုင်ပွဲဝင်
ဆိုင်ရွာ
ထုတ်လုပ်သည့်
လုနီးပါး
▁ကိုးကွယ်ကြသည်။
ျူး
အချက်ကို
▁စေခိုင်း
▁ပုဆိုး
▁၂၁၆၆
စုန်း
တောင်ပိုင်းတွင်
▁တစ်နေရာသို့
ရာဌာန
မျိုးပေါင်း
▁ရန်ကုန်မှ
ပုလင်း
▁အင်းဝသို့
သတ္တုတွင်း
▁စသည်တို့သည်
တော်ဘုရား
ီရိလင်္ကာနိုင်ငံ
▁ယူဆကြ
▁ဖြစ်ရပ်များ
တစ်ထပ်
▁သနပ်
▁Kin
ီးယား
အဘို့
▁ထိုရဟန်းသည်
▁အသေး
▁ဒဿမ
▁၃ဝဝဝ
▁Ann
သေးပါ။
▁ပေါ်ပေါက်လာသည်။
ထုံးစံ
▁ရှင်စောပု
နရီ
မှုတွေ
▁ခွန်အား
▁ရန်ကုန်မြို့မှ
▁ပိရမစ်
▁လက်အောက်
သာစည်
MB
မြေး
▁၂၀၇၄
▁ဒေတာ
င်းကျေးရွာအုပ်စု
အဆင့်ရှိ
▁Chi
လျက်ရှိကြ
များအနက်မှ
နှက်
▁တောထွက်
ချိန်အထိ
ဟေ့
Ca
▁၇၇၆
ရှိပြီးလျှင်
ရုပ်၊
ရေးသားခြင်း
အဆင့်ဖြင့်
ဝင်များ
ဇာတ
ပါရှိပြီး
▁သုံးယောက်
AI
ခစား
ပေးမည်ဟု
▁Mrauk
▁ဆိုးရော့စ်
နှုံး
▁စီအိုင်အေ
▁စစ်တကောင်း
▁Christian
▁၂၁၂၂
org
လေးလုံး
▁၂၁၃၅
အရေအတွက်မှာ
လိုက်စား
▁တရားသူကြီးချုပ်
▁လေးချိုး
▁လမ်းမ
ထားသကဲ့သို့
AA
မတန်
▁နေဝင်း
ရလေ
1&
ဗဲ့
ကျံ
▁၂၀၆၅
▁မိုင်းစံ
တစ်ခုဖြစ်၍
သောစကား
▁အဆက်ဆက်
▁ဗော
ဒေသမှာ
▁ကျောက်ဆည်ခရိုင်
ရန်သာ
▁ရုပ်ပုံများ
▁သီကုံး
ငယ်ကလေးများ
မိဖုရားကြီး
mb
▁ဆက်နွယ်မှု
လည်းပါဝင်သည်။
▁၂၀၂၄
ying
yu
တစ်သောင်း
မြင်သာ
▁မျှော
း၊
▁program
▁ပေပေါင်း
ပေါက်စ
အောင်မြင်ခဲ့ပြီး
တွင်သာမက
သဲကျေးရွာအုပ်စု
▁နင်
ဖြန့်ချိခဲ့သည်။
▁တောင်ရိုး
▁သံယောဇဉ်
▁အယုဒ္ဓယ
ထွက်ခြင်း
စတိုးဆိုင်
pha
▁လေးနက်
မိဘများ
ခင်ပွန်း
အောက်ခြေ
▁သိပ်မ
▁they
ကျောင်းတော်ကြီး
▁West
▁တံဆိပ်တော်
▁ဘရောက်ဆာ
တစ်သိန်း
စက်ဆုပ်
▁စာတမ်းများ
ထည့်သွင်းစဉ်းစား
col
▁sh
မိပါက
▁နဂါးမင်း
▁နားမွန်
▁တစ်ဦးလျှင်
လိုင်းများ
စာပေဆု
▁စနစ်များ
▁တည်ဆောက်ခဲ့ပြီး
▁ကူမင်တန်
▁လျို
▁ဆရာတော်ဦး
နိုင်တော့
▁ခုနစ်ရက်
ရှည်ရှည်
▁ကျားသစ်
▁အကြို
ထိမှန်
▁မည်သို့ပင်ဆိုစေ
▁သိလို
ည့်
မတတ်
▁ဓာတ်တော်များကို
ပညာနှင့်
▁သီတင်း
wan
▁ကျော်စော
▁၂၂၁၇
အဖု
▁ဤဥပဒေပါ
▁ရှမ်းလူမျိုး
▁ပံ့ပိုးပေး
▁တေးရေး
▁နိုင်ငံဖြစ်သည်။
▁ကန်တစ်ခု
▁လျော်ကြေး
ပုန်ကန်မှု
များမှတဆင့်
ခြင်းကိုလည်း
ဥပဒေပြုလွှတ်တော်
ဒရယ်
▁တရားမျှတ
▁စလေ
၁၉၆၅
hen
အလံကို
အောက်ဆိုက်
▁အေးမြ
ပုန်
▁ဖက်ရှင်
▁သံတွဲ
ခင်ဗျား
▁ဟူ၍လည်းကောင်း၊
မိုဟမ္မဒ်
ح
▁မက်ဆာချူးဆက်
ö
▁ရွာဟောင်း
▁လျစ်လျူရှု
ကောင်စီကို
၃၀၈
▁ဗိုလ်ရန်အောင်
ရေးသူ
▁work
▁Namh
▁အဆင်သင့်
▁ထိုနည်းတူစွာ
လပြည့်နေ့
ပြီးဖြစ်သည်။
တစ်သက်တာ
▁ဟပ်
▁သက္ကယ်ပြင်
ထိပ်ဖျား
▁ဂုံမင်းကွင်း
ဘွဲ
ကျာ
▁Green
ဋ္ဌိ
လိုပင်
▁သုံးစွဲသူ
self
▁ကော့က
မြောက်ပိုင်းရှိ
ကောင်းကောင်း
▁ဇရပ်လှ
လေ့မရှိ
▁တောကျောင်း
မက္ကဆီကိုနိုင်ငံ
▁၂၀၃၈
ကမ်
▁ကျန်ရစ်ခဲ့
▁လူသားတို့၏
▁မန်ချက်စတာ
ဂဝ
▁မင်းတပ်
▁ဗမာပြည်ကွန်မြူ
မျိုးစုံကို
=152
▁ကွန်ပြူတာ
သေးသေး
▁စစ်မျက်နှာ
အသုံးပြုနိုင်ရန်
▁anti
ကာဗွန်
ပေးရေး
▁ထောက်ပံ့မှု
▁မိသားစုဘဝ
▁အက်ဒွပ်
▁၂၂၁၂
▁သက်ကယ်
ခံရ၍
▁Trans
▁ဆေးကုသ
▁ကိုယ်တော်
ချခဲ့သည်။
အပွင့်
ထုလုပ်
အရင်
▁ဗွီဒီယို
ခန်း၊
▁အနည်း
အလျှောက်
she
▁၂၁၅၆
mission
3&
▁နေ၏
ပင်မ
တေးဂီတ
▁This
မြစ်ဝကျွန်းပေါ်
▁lo
="152
▁Park
▁ပွေး
▁ပြည်ပနိုင်ငံ
ချစ်သူ
▁နေ၏။
ext
ယာဉ်များ
▁မဇ္ဈိမ
byu
တေးသံ
ဆက်သွယ်မှု
▁၂၀၅၈
RT
စာမူ
လေရာ၊
▁နိုဘယ်
တစ်ဦးဖြစ်သည့်
ဘူမိ
ပွဲကြီး
▁၁၂၅
သုံးဆောင်
ပါးစပ်
▁ခုတ်မောင်း
ေဟိ
ခြံရွာ
ဝဏ်
▁စွမ်းဆောင်နိုင်
▁အချိန်မှစ၍
bra
▁သီချင်းဆို
အရပ်ကို
▁ဆေးရုံကြီး
▁တည်ဆောက်ခြင်း
ယော့
▁၃၆၅
စီးဝင်
▁၂၁၉၇
▁စေတီပုထိုး
82
မကြာ
မကျန်
ပြုကြသည်။
ဘုရင့်နိုင်ငံ
▁မောင့်
▁ပြင်း
ယူငင်
▁ရက်အထိ
လမ်းပေါ်တွင်
▁ပြုသည်။
▁နှစ်မှ
▁ယွန်းထည်
ပြီးနောက်၊
▁၁၆၆၇
▁မောင်ဘ
▁၈၈၆
gh
တွား
zon
ကြေငြာခဲ့သည်။
▁ဧကန်
ခြင်းခံရသည့်
▁သည်း
နိုင်သည်၊
ဂီး
ငု
နိုင်သကဲ့သို့
▁အပျော်
ပရဝုဏ်
▁တိတ်တဆိတ်
▁ဘယ်လ်ဂျီယမ်
島
=126
▁အဇာတသတ်မင်း
▁ဖြစ်ပေါ်ခဲ့သည်။
ပူဇကထေရ်
▁နာတာရှည်
မြတ်စွာ
ဖိုင်မှ
လောင်ကျွမ်း
▁ရက်စက်
အတိ
အပေါက်
▁ဇာတ်သဘင်
▁ဂရိဒဏ္ဍာရီ
မြွာ
▁ပေးလိုက်
▁အစွမ်းကုန်
ကျောင်းကြီး
တဖန်
▁စာပေလောက
▁သစ်မွှေး
ရှိသမျှ
အတော်ကြာ
ထန်ကျေးရွာအုပ်စု
ano
▁မြေစေး
▁မှန်မှန်
လှစွာသော
▁သစ္စာလေးပါး
▁ထိုအကြောင်း
တာပဲ။
▁Air
▁ထုတ်လုပ်သည့်
လက
="126
၎င်းတို့
ဝါစာ
မင်းတရားကြီး၏
▁into
ဂုဏ်ကျေးဇူး
bon
▁မဂူ
ဆုပေးပွဲ
▁ဆီဇာ
သားများ၏
▁လေထဲတွင်
▁တရားဓမ္မ
▁ယခုအချိန်တွင်
▁တပ်ကုန်း
▁မိုဘိုင်း
▁အချို့နေရာများ
▁လာခဲ့သည်။
▁မိန့်ကြား
▁အိမ်ရှင်အဖြစ်
▁စခန်းချ
▁ထောက်ကြံ့
▁အမေရိကန်သမ္မတ
ခံစားခွင့်
▁တည်ခဲ့သည်။
ဆုန်
စဉ်ကပင်
လာပြန်သည်။
ရသည်ကို
ပါစေ။
တစ်မျိုးမျိုး
ကာကွယ်ရေးဝန်ကြီး
▁တမင်
▁ကုန်ကြမ်း
▁တည်ထောင်သည်။
▁ဆက်ကပ်
▁အသွားအလာ
▁ဂရိတို့
▁(19
ရသော်
များအားလုံးကို
▁၅၄၆
ပြောသော
▁ဇာတ်ကားများ
▁သတ္တဝါတို့
▁နည်းပညာများ
▁ကဝိ
ဒီယာ
▁အရင်းအမြစ်များ
▁ရာစုနှစ်တွင်
▁ဂန္ဒီ
ဖြစ်ခဲ့သော
▁ဟိုနောင်
▁အရုဏ်
PS
တတ်ခြင်း
▁မခင်
ပြည်တွင်
ဒေးဗစ်
▁အိမ်ယာ
မျိုးစိတ်ပေါင်း
▁စာပေကျမ်းဂန်
▁ကမ္ဘာလှည့်ခရီး
▁အလွမ်း
▁ရွေးကောက်ခံ
▁၅၅၀
ade
▁၂၁၃၉
ပြုခဲ့
▁တိုတောင်း
အတိုကောက်
ထွက်လာသည်။
ခဲ့ခြင်းဖြစ်ပြီး
▁ပညာရေးနှင့်
ဓူ
▁ငြိမ်သက်
လေထု
sen
▁မန်ဆန်
▁လျှောက်လွှာ
▁ဂီတပညာ
▁ပေးနိုင်
မော်လီကျူး
▁ချီးမြှင့်သော
CD
ကျေနပ်
▁တီထွင်သူ
ဆွဲဆောင်
တောင့်တ
▁ခန့်ရှိ
▁ရွာသာကုန်း
၁၅၀
▁မိဘများက
▁ရွှေငွေ
▁စရိုက်
▁တည်ဆောက်ပုံ
တစ်ရပ်မှာ
▁၂၁၁၃
ပေါင်းများစွာသော
မြာ
▁တည်ဆောက်ထားသော
ဝန်ရာထူး
ပျော်ဝင်
▁အစေ့များ
▁ညောင်ဦး
အက်တလီ
=109
▁ရှောက်ချောင်း
သင့်သည့်
▁မျက်နှာမူ
▁ဒေါ်တင်
▁ရက်စွဲ
▁၃၃၀
တော့သဖြင့်
စခမ်း
▁ကာဂျစ္စတန်
ْ
▁တစ်ပြိုင်တည်း
▁မဖြစ်မနေ
▁ရွက်ညှာ
▁ထိုသူအား
▁မိုင်းယွန်း
လှိမ့်
ကရား
ဂိုင်
▁သင်၏
▁ကိုယ်တွင်း
▁တည်ရှိခဲ့
▁၅၆၈
နိသျ
ဒရာမာ
ြဖစ်
▁၂၁၄၈
▁စာရေးဆရာကြီး
ခေါင်းလောင်းကြီး
▁Soyuz
▁၂၁၁၅
ဘိုကျေးရွာအုပ်စု
ပေါ်ထွန်း
တပုဒ်
ပါမည်
အဘိညာ
▁ဆရာဦး
ထိုအခါ
တော်ကြီးကို
▁အရပ်အခေါ်
▁၂၁၆၄
▁တပ်ဆင်ထားသည်။
မွှေ
ဆေးကို
▁မီးပြတိုက်
ove
▁သဘာဝအတိုင်း
▁စတင်ရေးသား
သမ္ဘာ
ကုမာရ
ကျော်ဇော
ပန်းများ
lor
မအောင်မြင်ခဲ့ပေ။
ပန်းပွင့်
▁တပြိုင်နက်
အတွက်ကြောင့်
▁Act
Ja
တစ်ယောက်၏
၉ဝ
▁၂၁၀၂
▁ရှေးကျသော
▁စက္ခု
နိုင်ငံတို့တွင်
ဆိုခြင်း
ခြင်းဖြစ်ပါသည်။
နိုင်ငံ၌
IF
▁ဆိုရင်
▁၂၀၅၆
▁စားနပ်ရိက္ခာ
သမယ
ကျပ်တန်
ခြောက်ပါး
ွစ်
စိုက်ပျိုးခြင်း
ပေးဖို့
ယိုး
▁စက်ရုပ်
▁အစရှိသည်တို့
ဂွတ်
▁ဆင်တူသည်။
▁အားကစားပွဲ
သရက်ပင်
▁မယူ
ashio
လက်အောက်
လုပ်ကိုင်ကြသည်။
▁သခင်အောင်ဆန်း
ခဲ့ပြီးလျှင်
▁ဖော်ပြခြင်း
တည်ထောင်သူ
ဗဟုသုတ
အမျိုးသားပြတိုက်
သိသော
ကုန်ကျစရိတ်
ib
▁၂၀၄၅
▁တေးရေးဆရာ
ari
ရော၊
▁၃၃၃
▁နဝတ
ရောက်လျှင်
can
▁အဲလ
ပြုမှု
နေရခြင်း
▁ထိန်းသိမ်းရန်
ပြဒါး
▁၁၃၆
▁နှိပ်
လိုက်နာကျင့်သုံး
ကံရွာ
▁ရာဇဂြိုဟ်
▁တာဝန်ရှိ
▁ခွဲခြားထား
▁သက်မွေး
နေထိုင်ခဲ့ကြသည်။
▁အမည်ပေးခဲ့သည်။
▁ပေးခဲ့
စေသည်
နည်းနှင့်
များပါရှိသည်။
▁သူလျှို
ဝတ္ထုတို
▁ဆိုးကျိုး
တွက်နည်း
ွံ့
လှည့်ပတ်
anda
="109
▁တစိတ်တပိုင်း
▁Ste
=49
ဆိုရသော်
ica
တိုက်ဖျက်ရေး
ကတုံး
စေလျက်
ဆဲ့
အဖွဲ့တစ်ဖွဲ့
▁မန်ကောင်း
အသီးသီးတွင်
များအကြောင်းကို
▁Ben
▁ဒုက္ခသည်များ
▁တို့အတွက်
▁၂၆၀
ချို့တဲ့
လျောက်
လတ္တီတွဒ်
▁Corporation
▁ဆန်ဖရန်စစ္စကို
▁ပနားမား
}
ร
=125
▁crew
▁Society
▁‘‘
ာယ
▁နော်မန်
▁ဗုဒ္ဓအယူဝါဒ
ဝန်းကျင်တွင်
▁ကိုယ်အလေးချိန်
မကိုဋ်
91
▁ဘဝသစ်
ingyan
▁ကျယ်ပြန့်လာ
▁ယင်ကောင်
လှသည်
တဲလ်
▁ခုနစ်နှစ်
သတ်မှတ်ခဲ့သည်။
▁ကြင်
ှာ
▁Fo
ras
▁ပြည်ထောင်
ဖို့ဒ်
အောင်ဆန်းသည်
▁မည်သူ့
စနစ်၏
mit
▁ရုံးစိုက်မြို့
▁၅၈၈
အတန်း
="125
တွေးခေါ်
တို့၌လည်း
စာရင်းကို
နဉ္စ
stan
▁ကမ္ဘာ့နိုင်ငံ
▁ကုလ
ဓာတ်များ
zo
▁သီတင်းသုံးနေ
မတည်
အောက်ဆိုဒ်
ကြာကြာ
▁ဆံထုံး
ဩဘာ
▁ကြက်တူရွေး
▁ကတ်ဖ
ရုံ၊
မတ
နံဘေး
အမျိုးမျိုးရှိ
▁ပေါက်ရောက်သော
▁ရေငန်
၇၀၀
ထီးနန်း
ဖူလုံ
▁ဆက်စပ်နေ
▁ထူထောင်ခဲ့သည်။
▁ကွယ်လွန်လေသည်။
▁ခြောက်နှစ်
ဟင်းလျာ
▁Sky
မျှသော
၄၈။
နျူ
▁လူမ
▁မကြား
▁သာဂရ
▁အမူ
▁၂၀၉၉
▁တောင့်တ
ခဲ့ကြပေ။
မော်လမြိုင်
ရသေး
▁ဘဲဥပုံ
ဂရိတ်
ရှုတ်ချ
▁နိုင်ငံတော်မှ
လျှပ်စစ်စွမ်းအင်
▁ဟင်္သာတမြို့
▁ခေါ်ဆောင်
ထည်များ
နီးပါးမျှ
▁တင်ပြခဲ့သည်။
ကြံ့
ရာထူးမှ
ဦးဆောင်သော
▁၃၆၉
▁အသွင်ပြောင်း
▁အမွေဆက်ခံ
မှုံ
▁ကလောင်အမည်ဖြင့်
▁ကင်းဝေး
ဇဲ
ဖရန်
▁အစွယ်
▁ဇန်
ပန်းချီဆရာ
ရွိုင်
ကောင်းမွန်အောင်
အခဲ
Su
အာပတ်
ray
စာ၊
စွန့်ပစ်
ကြောင်းဖြင့်
Ph
တစ်ဦးအား
▁မခံနိုင်
တပ်များနှင့်
▁ပတ်လမ်း
▁ကိုယ်လက်
▁စည်ပင်သာယာ
ဖြစ်စေသည်။
▁တောင်စောင်း
▁တစ်လက်မ
ထုထည်
အခံ
ပါရဂူဘွဲ့
▁၁၆၈၆
နန်းစံ
▁အဆုံးအမ
လာမှု
▁ချည်မျှင်
အိမ်များ
▁သံစဉ်
▁ပိုင်ဆိုင်သည်။
နာခံ
ထွက်ကာ
ym
လေ့ကျင့်မှု
▁၇၆၈
▁အင်းတော်
ကြီးများက
س
အဖုံဖုံ
▁Country
=121
ကြပုံ
ထိမ်းသိမ်း
▁အောက်စဖို့ဒ်
ပတ္တ
▁အိုဘားမား
▁သံဃာ့
▁ကံကုန်
▁data
▁တပို့တွဲလ
▁ရလေသည်။
ယပ်စ်
ပြဋ္ဌာန်းချက်
▁ကူကီးလူမျိုး
အထပ်
▁IM
ထွမ်း
အံ့။
▁စွမ်း
တဆူ
▁Yet
▁ငှက်ဖျား
▁လက်မှတ်ထိုး
အမျိုးပေါင်း
ကျန
နိုင်မည်ဖြစ်သည်။
▁ပညာသည်
ပြောင်မြောက်
▁လီယို
ဘဲ့
ရောက်အောင်
▁ဇော
▁နော
မိတ္တ
▁ကူညီပေး
▁လွတ်လပ်ရေးကို
▁ကျဉ်းမြောင်း
▁အဆိုပြုချက်
▁ကြွင်းကျန်
▁ထိုမြစ်
▁ထိန်းချုပ်ထား
▁ခါးပတ်
အားလျော်စွာ
▁ဆေးထိုး
စံပြ
ဘွဲ့တံဆိပ်
စနေ
▁ထိုစကား
ထုတ်ပြန်ချက်
mic
ဒီပနီ
တည်ဆောက်ခြင်း
လေ့ရှိသည့်
အလုပ်သမားများ
▁အကူ
▁တည်ထောင်သော
▁နတ်ကွန်း
▁စေတီတော်သည်
ထူထဲ
ော်
▁ခရာ
sur
နိုမြို့
စခန်းသို့
ကောင်းသည်။
="121
လုပ်သူ
▁ဒေသကြီး
▁အငူ
အားဖြည့်
စင့်
▁စီစဉ်ပေး
▁ဝတ်ဆင်ကြသည်။
အထက်စု
▁နှောင်း
▁အားကောင်း
သဘောအရ
များပြုလုပ်
မွေးဝမ်းကျောင်း
▁လျှောက်ထားချက်
▁ဆိုပါက
▁ဇမ္ဗူ
▁၁၃၉၄
▁ထိုအရာ
ဒူလာ
▁အမေရိကန်နှင့်
▁လျှို့ဝှက်စွာ
မင်္ဂလ
တစ်နည်း
တပင်
▁ဂရိတ်
ဟိတ
▁လမ်းခွဲ
ကလိ
သေး။
စုံစမ်းစစ်ဆေးရေး
▁မရှိခဲ့
စိတ္တ
▁စစ်ပြေး
▁မိနမိ
ချင်းစီ
▁လယ်မြေ
စိုစွတ်
▁ဘုရားပွဲ
of
အပြုအမူ
▁အသက်ကြီး
လွ
▁ကွင်းချောင်း
▁ထွေ
ရှေ့နေချုပ်
▁မင်းသားကြီး
▁၄၄၀
မှုန်း
▁13
▁ရောင်းချခြင်း
တစ်ခုအတွင်း
▁ကျုပ်တို့
ဒိုင်းနက်
▁ရောက်အောင်
▁တစ်ဦးဖြစ်ပြီး
ပါသည်ဟု
▁မြင်းခြံခရိုင်
စီရင်ပိုင်ခွင့်
▁ဝု
▁ပြုကြသည်။
တစ်ဦးတည်း
▁စီရင်သည်။
ုံး
ဝါဆို
င်္က
ရက္ခ
▁၅၄၀
="201
ရပ်တွင်
▁လက်ျာ
ပြခြင်း
အသျှင်
▁ကျွန်မတို့
ဂုဏ
▁Cra
▁ရွေးချယ်ခဲ့သည်။
ယခုအခါ
▁နှစ်အကြာ
dam
သက္က
▁ဂူဘုရား
=141
▁၁၅ဝဝ
▁ရော့ခ်
အဆွေ
▁အချိန်ပိုင်း
▁Pon
▁ကျင့်ဝတ်
သည့်နေရာတွင်
ာ။
စိတ်ဖြင့်
ကဏ္ဍတွင်
▁တသ
MP
ခြင်းစသော
တခွင်
ကျခြင်း
▁မြိတ်မြို့
▁ကျုံတုံး
စစ်ဆေးရေး
လက်ထက်၌
▁Tra
▁မတွေ့ရှိ
င်ရိုးညွှန်းတမ်း
▁Texas
▁ဘီအိုစီ
▁အဆင်မပြေ
ရေးနည်း
▁ချဲ့
▁ပြည်တွင်းပြည်ပ
ခနဲ
▁ဦ
ဗိုင်းရပ်စ်
bwe
အရိပ်
▁ဖျားနာ
▁ဌာနမှူး
▁အဋ္ဌ
▁သဖန်းချောင်း
အေးမောင်
▁ဆက်စပ်မှု
▁ငရုတ်
▁စေလွှတ်ခဲ့သည်။
▁hard
▁သူတော်ကောင်း
▁ရေအေး
▁ပြန်ကြား
သည့်နေ့
▁ယုံကြည်ချက်
▁၂၁၅၇
တင်းတိမ်
ငါးဆူ
▁ထိခိုက်မှု
လပြည့်ကျော်
▁သစ်ကိုင်း
▁ကုမ္ပဏီသည်
မှုအခြေအနေ
Ro
▁ကြီးမှူး
၏သမီး
▁မာယာ
မသတ်
▁Twin
xi
လျက်ရှိလေသည်။
Ha
တာပဲ
နိုင်သလို
▁ခြေရာ
▁နှစ်မျိုးစလုံး
▁၂၀၄၄
မသေ
ပင်ဖြစ်လေသည်။
ပေသည်
စေဖို့
▁ပန်းဘဲ
=227
▁တစ်ဖွဲ့
စဉ်း
▁Cup
လှုံ
လူဦးရေ၏
ထိန်းချုပ်မှု
▁Dar
▁၂၀၅၄
မြက်ခင်းပြင်
သွားခဲ့
2017
▁စစ်ကူ
="141
ရှည်ကြီး
▁မြူနီစီပယ်
▁၂၀၄၇
▁ထိန်းချုပ်မှု
▁ဆွဲငင်
▁စကားလုံးများ
▁ဒိန်း
လျှိုး
▁နွေဦး
မပေးဘဲ
▁သရေ
▁၂၂၀၂
လှန်း
ပုဏ္ဏ
ဖွဲ့စည်းထားသော
ဟူသောအမည်
▁ဖခင်ကြီး
▁သဘောတူစာချုပ်
နှစ်စင်း
တပ်ခွဲ
ရေးသားခဲ့သော
▁နရပတိ
သံသရာ
ကာလကို
▁တစ်စောင်
▁၂၁၂၆
တစ်မျိုးတည်း
နယ
လွှဲပြောင်း
▁သားဖြစ်သည်။
ကမ်းနား
အမျက်
▁ပြိန်း
▁နှိပ်ကွပ်
စတော့
ဌာနကို
ထုတ်ဝေသော
ကြေညာချက်
×
ဝင်ခွင့်
▁တိုက်ဖျက်
အခေါ်အဝေါ်
ဘိုရွာ
▁ရှိနေသော
၂၀၀၅
ရပ်တန့်
စိန့်
▁ဘာဝနာ
▁ဟောင်
IN
▁အင်္ဂလိပ်တို့က
ချမ်းအေး
▁နေရာအနှံ့အပြား
ကွဲပြားခြားနား
▁ကလေးငယ်များ
▁ငရုတ်သီး
▁ထုတ်ပစ်
ဗေဒပညာရှင်
သယ်ယူ
ဖြေဆို
▁state
pen
တလ
▁sp
▁စိတ်ဝင်စားမှု
yaw
နေထိုင်ခြင်း
အနီးအနား
▁ရုန်း
စီအီး
▁လွှတ်ပေး
၂၀၀၇
▁အခြားသူ
နာဂါ
လိုက်သည့်အခါ
ရွာကြီးရွာ
▁ဒေါ်သန်း
▁လယ်ပြင်
▁ရှေးယခင်
ကောလိပ်ကျောင်း
▁လယ်သမားများ
▁အပင်ငယ်
အနည်းငယ်အတွင်း
▁တောရိုင်း
▁အခွေ
600
▁လျော့ပါး
▁သွားရောက်ကာ
နှစ်စဉ်
▁တစိတ်တဒေသ
ī
ချက်တီး
သဏ္ဌန်
▁ဝါခါယာမ
▁ငွေတာရီ
▁နတ်ကြီး
▁သူမအား
▁လုံခြုံမှု
▁ဇီးဖြူ
川駅
▁ဇလုပ်ကြီး
ew
▁တစ်ခုစီ
▁၆၇၀
ဝင်းမောင်
cre
▁သိရှိရပါသည်။
စမြဲ
▁တည်ဆောက်ခဲ့
အိုင်းယွန်း
▁လှော်ကား
ဒမ်းရွာ
တကား
▁ထုတ်လုပ်ခဲ့သည်။
▁စီမံချက်
▁ပြောင်းရွှေ့လာ
ပုံအခြေခံဥပဒေအရ
ယောက်အနက်
တိုးတက်ရေး
ထွက်ရာ
▁လက်သမား
ပါတီဝင်
နမ့်လင်း
▁အမျိုးသားစာပေဆု
ပဗ္ဗ
▁စတင်မိတ်ဆက်
▁နှစ်ဦးစလုံး
ဠိ
ပြန်သဖြင့်
▁ထော
ရင်းရွာ
▁၂၀၇၅
▁အက္ခရာသင်္ချာ
▁တောင်ပိုင်းတွင်
ဇာတ်ရုံ
သူဟု
စစ်မျက်နှာ
ွား
▁ခန့်ကို
▁ပေကျင်း
▁ပမာ
အရပ်ရှိ
ဘုရင်က
▁တရားမျှတမှု
မရဘဲ
တို့ရှိ
=228
▁အဏုမြူ
လေးယောက်
လဒ်
ဟူ၍ပင်
▁အသုံးပြုခဲ့
▁၂၉၇
ဒဏ်ကြောင့်
▁အကျိုးဆောင်
နေရာချထား
▁သန်မာ
ကုဒ်
သာမန်
▁သထုံမြို့
sy
သောအချိန်
▁အင်းလေး
နေရသည့်
▁j
ခြားရေးဝန်ကြီး
ရေတွက်သော်
မြို့တစ်မြို့
ပွဲကျင်းပ
▁ထိန်းသိမ်းခြင်း
▁စတင်ပြီး
ဆောင်ရွက်ခဲ့ပြီး
ခုရ
ခြားနားချက်
▁လွဲ
ony
▁ဆင်ဖြူကျွန်း
▁အမည်များ
သည့်ပြင်၊
DA
▁မနေ
▁စီမံထား
▁ပေးထား
သူဖြစ်
▁အဖတ်
လုံးများ
▁Wil
▁ဤသည်ကို
▁ရေဆင်း
▁ရေသည်
ဖော်ကျူး
bus
ကုလသမဂ္ဂ
ခိုင်ခံ့
▁၂၂၁၆
▁တစ်ရာ
ဒုံးပျံ
▁ဝမ်းသာ
အနေဖြင့်လည်း
▁ထုတ်လုပ်သူ
သက
85
▁မှတ်စု
ခံယူချက်
▁လက်ရေး
ကုထုံး
▁ကတိပြု
▁ပေးကမ်း
▁မျှော်လင့်ချက်
ယဉ်ကျေး
▁၂၁၉၀
ကြကုန်၏၊
▁အောင်ချမ်းသာ
▁အရပ်ဘက်
လာကြလေသည်။
အရံ
၇၄၅၃
တျူ
▁ပြင်းအား
▁အာအိုစီ
lie
ring
▁တည်ဆောက်ခဲ့သော
▁ပိတ်ထား
ကြယ်ပွင့်
ချပြီး
သွင်း၍
၂၀၂၀
မြွှာ
ပြည်၌
ကြိုတင်
▁ပရိယာယ်
▁မိတ္တူ
ခေါင်းဆောင်တစ်ဦး
hon
▁မုန်
▁အလွန်ကောင်း
ဟုလည်းကောင်း၊
အပြတ်
ford
▁တရားတော်ကို
အဲဘူတာ
ဉာာဏ်
▁မေရိကန်
▁between
日
▁spacecraft
▁သုဝဏ္ဏဘူမိ
view
သုသာန်
▁Kyaik
ရှိုင်းယား
▁တိမ်မြုပ်
▁မုံရွေး
သတ္တာဟ
ဖွန်း
▁အတန်ငယ်
ကျောက်တန်းရွာ
▁များများ
poli
="1700
▁ခင်မင်
▁အပွင့်များ
▁Laung
မင့်
NO
တွေ့ရသော
ထဲဝင်
▁ကွမ်းခြံ
ဆီမှ
ဟူ၏။
လိုသည်။
▁Europe
NC
▁ပါဝင်ပတ်သက်
about
အဖွဲ
တခုခုကို
▁Pyi
▁၂၁၅၂
ငယ်ရွာ
တာဝါ
▁သံလျင်
စရိယ
ရှိသလို
▁ပေါက်တူး
▁၂၁၄၆
▁၂၁၇၀
▁ပတ္တလား
နယူး
▁ကြေးဝါ
▁အခင်း
=280
ကမ္ဘာထက်တွင်
ရုံသာ
လာမည်
▁သခင်မြ
▁တစ်ပုဒ်
▁ရတနာသုံးပါး
▁ဘေဘီလုံ
ec
▁၂၁၉၃
=349
ဆဲဖြစ်သည်။
SI
ဖြင့်ဖြစ်စေ၊
စာပေများကို
▁လေ့လာလိုက်စား
ပလူ
နိမ့်သော
ပုကျေးရွာအုပ်စု
▁ရရှိပြီး
▁ထူးခြားစွာ
▁သာဝက
စောင့်ရှောက်ရန်
▁ဓနုဖြူ
▁၂၁၄၅
အသုံးပြုသူ
ပျက်စီးဆုံးရှုံး
ဆီလျော်
ဝတ္တ
သံများ
လွန်းသော
▁ဒေါ်အေး
ပုဝါ
▁ကန္တာရ
ဇီးဖြူ
Dr
တာဟာ
▁အင်္ဂလန်သို့
▁And
သမ္မာ
လှဖေ
▁တပါး
▁IC
ပေါ့ပါး
ပေ့
▁ဘွဲ့ဖြင့်
▁၂၁၆၉
မချ
▁စပြီး
="71
▁သမိန်
▁ဗြဟ္မဏ
ခွဲစိတ်
▁ထိုဥပဒေ
ပါလို့
ju
▁ဘွဲ့မည်
▁၁၂၁
ါး
အလှူရှင်
▁အတီး
▁စစ်တရားရုံးက
▁တို့လည်း
pat
ရေပူစမ်း
▁အိမ
တောင်းဆိုခဲ့သည်။
▁under
ရင်းမြစ်များ
▁စသည်တို့တွင်
သင်္ကြန်
▁ဖင်လန်နိုင်ငံ
▁မမှန်
▁ရှန်ဟိုင်း
▁တရားသူကြီးများ
▁ဦးဖေ
▁ဂီတနှင့်
▁အလှဆင်
▁၉၆၇
▁ဘတ်ဂျက်
▁၂၂၂၁
တလီ
▁ရောင်းအား
ဖာလုံ
▁ပံ့ပိုး
စလီ
▁ကြည့်လျှင်
ခဲ့ကြရ
သဒ္ဓါ
လွှတ်တော်ချုပ်
ပထဝီ
▁ဗဟိုချက်
Internet
▁Don
ဆိုရလျှင်
ရောက်ရှိခဲ့သည်။
အခြေအနေများ
▁ရန်အောင်
▁ရေးသားသည်။
တီးမှုတ်
ခံထားရ
▁နှစ်ကာလ
ပိတောက်
ြိမ်ဝပ်ပိပြားမှု
▁ဆားတောင်
▁၃၅၅
▁လိုအပ်ချက်များ
▁မျိုးစု
ဆောင်ရွက်သည်။
ဖြည်းဖြည်း
ဝမ်မိုင်ရွာ
="59
ဝိသေသလက္ခဏာ
▁လုံးချင်းဝတ္ထု
▁လူ့ပြည်
▁သစ်လုပ်ငန်း
▁လမ်းပြ
မသာ
▁ca
ဂျုံး
ရပေ
ခေါ့
▁ပိတောက်ကုန်း
▁လဟာ
သမိုင်းကြောင်းအရ
▁Pinl
▁မရှိသေး
▁စံနှုန်း
▁ပါရှန်း
▁အရာရောက်
နှစ်ခုစလုံး
▁ဦးရီးတော်
016
▁ပထမပိုင်း
=129
84
ခြင်းပြု
sing
寺
本
▁ဆင်ဖြူမရှင်
ပြည်ထောင်စုနှင့်
မည်ဖြစ်
▁gothic
TM
▁ဆိုဗီယက်ယူနီယံ
ညား
▁ရှော်ချောင်း
ပုပ္ဖ
▁တန်ခူးလ
▁ဘုရားသုံးဆူ
▁တွေးခေါ်
▁ဦးဘဖေ
▁Pat
▁ဆောင်ရွက်လျက်
နေထိုင်သည်။
မှုများလည်း
▁ဂိတ်စ်
▁River
မြေ့
▁ဒီဇယ်
="79
▁မိဿလင်
စာဖြူစု
▁only
▁ကျစ်
▁ငုတ်
▁မဟုတ်၊
▁တွန်းအားပေး
▁ပရောဖက်
▁နာကျင်
▁၂၀။
ဒေသခံ
▁ဗိသုကာပညာ
=382
နယ်မြေတွင်
▁ဘေ့စ်
▁ဂျပန်တို့၏
တော်မြတ်
▁အာဖရိကန်
▁ဒုတိယအကြီးဆုံး
▁အဓိကကျသော
ခါးကျေးရွာအုပ်စု
=289
▁လိုက်ပါသွား
▁ဟွန်
▁Taing
မြင့်သည်။
တီထွင်မှု
▁အာဟာရဓာတ်
▁ထွင်း
vir
လိုသောအခါ
▁ရှေ့နောက်
▁ဘုရားရှင်သည်
NS
▁တစ်နေ့သောအခါ
▁ထိုအတောအတွင်း
▁ပတ်ဝန်းကျင်ရှိ
မြသန်း
သည်သာလျှင်
ကုန်သည်များ
မြောက်စု
▁၂၁၆၅
လွှဲအပ်
▁ပုဂ္ဂလိကပိုင်
▁ဝင်ရိုးစွန်း
ထိန်းသိမ်းမှု
▁ပြည့်နှစ်မှ
rat
တမန်တော်
▁၂၁၆၃
▁လမ်းခရီး
▁ဖမ်းဆီးခြင်း
ကရီ
ဖြစ်ပျက်
ျပ်
ကွက်သစ်ရွာ
▁ဂုဏ်သိက္ခာ
▁ကုလသမဂ္ဂ၏
▁အတွက်လည်း
၏အစိတ်အပိုင်း
▁မန္တလေးသို့
▁အနည်းငယ်မျှသာ
မြင့်မားသော
▁အုန်းပင်စုရွာ
ပေးမည့်
▁ခြေရာခံ
မှန်သမျှကို
▁ရွှေလောင်း
အတတ်၊
▁ပုဂ္ဂလိကကျောင်း
78
Mar
▁ပရိသတ်များ
▁ပလိပ်
အဆက်အသွယ်
လှုံ့ဆော်
အဖွဲ့ဝင်နိုင်ငံ
▁ရောဂါဖြစ်ပွား
ဘယ်ရီ
▁များလည်း
▁သောတ
lip
▁အေသင်မြို့
ဉ
▁ဥရောပတိုက်ရှိ
တစ်ဦးဖြစ်၍
▁မြတ်စွာဘုရားကို
▁၎င်းတို့တွင်
▁တစ်ဦးအဖြစ်
▁ပေးသွင်း
တီးရွာ
အသစ်များကို
▁သတ္ထု
▁သွယ်တန်း
သွေ
းနစ်
▁သုံးပုံ
▁ညှိ
ရက်နေ့မှ
▁စစ်တပ်မှ
ကော်မတီ၏
ခေါင်းရွာ
ဘိသိက်
▁ဆွမ်းခံ
မီးသွေး
▁ပို့ဆောင်ပေး
▁မော်တော်
▁ပြုစုခဲ့သည်။
အမှုန်
▁အိန္ဒိယသို့
▁၁၀ဝ
မျူ
▁တစ်လျှောက်တွင်
ဥဒေါင်း
ပတ္တိ
တာကတော့
▁ကျဉ်း
လုပ်ကိုင်ရန်
ကိုယ်တိုင်က
▁Robert
▁မြဲ
▁မည်မျှပင်
▁ဥက္ကဋ္ဌသည်
၍ရသော
▁Myin
ရပေ။
လှေး
ရေးကိစ္စ
ခက်ထန်
ပေခန့်
ကလေး၏
မှုနှင့်အတူ
▁ပေးခဲ့ခြင်း
▁လူဦး
ကုသမှု
▁ဘာသာဖြင့်
▁ပါတီကို
မှိတ်
▁2.0
၁၉၇၃
မိုက္ကရို
▁စိတ်ပါဝင်စား
စီးပွားရေးစနစ်
▁အွိုင်လာ
▁ပုံပန်းသဏ္ဌာန်
="1704
မ္မာ
လက်တင်
ရည်းစား
သမိုင်းကို
▁site
လေ့ကျင့်ရေး
ာင်း
▁ပထမတန်း
▁ငြီးငွေ့
နိကာယ
သုံးစွဲခြင်း
ဘုရားအလောင်းတော်
ပြုလျက်
ဘဝဖြင့်
▁ထိုဝတ္ထု
▁မသွား
▁ပြင်းစွာ
="129
=426
လိုသူများ
မျှော
▁2|1
=380
▁ခန်းမ
▁Chin
▁Phy
▁နှစ်ရှည်
▁ဟိုခို
မှီခို
ကြဉ်
ase
▁လဆန်း
▁နေအိမ်၌
erry
▁၁၃၆၄
=348
ခိတ
▁နမ့်တောင်း
တာမျိုး
ဝုဒ်
ဖူးသော
▁အချို့ကမူ
▁ရေမွှေး
ကလာ
▁ပိဋကတ်သုံးပုံ
ဗေဒါ
▁၂၁၃၀
▁တပ်မတော်နှင့်
အရာရှိချုပ်
နီတိ
▁၁၀၅
▁မိချောင်း
ကလစ်
မွေ့
▁Book
အီးစီ
▁ဓာတ်ပုံများ
သူတိုင်း
▁ထုံးတမ်းစဉ်လာ
လက်ယာ
▁၁၁၂၈
များနှင့်တကွ
ments
▁သမန်း
ထွန်း၊
သင့်ပေသည်။
▁မေး၏။
▁ဘွဲ့တော်
နေရန်
▁မြေဖြူ
▁အနိုင်ရရှိခဲ့
▁တော်တော်
ရှုံးနိမ့်
▁၂၀၅၅
▁အဂ္ဂ
▁စစ်တပ်များ
လုံလောက်
နှစ်ခန့်
▁ဦးသိန်း
▁တောက်ပသော
ရုပ်ရှင်ရုံ
ခဲ့ဖူးသော
▁တစ်ရွာ
စာသင်တိုက်
ဟင်္သာ
▁William
ပေးလိုက်သည်။
ကြိုးဝိုင်း
▁ကြေးစား
ရန်အလို့ငှာ
ရေးထိုး
စောင့်ကြည့်
ရရှိ၍
▁ထိုသီချင်း
▁more
▁May
ရေကျော်ရွာ
ရေလဲ
စပါယ်
အဆင်
▁ဘုရင်ခံချုပ်
ဆန်းရွာ
wet
စက်ဖြင့်
▁ကြွလာ
illa
ခန့်ခွဲမှုအဖွဲ့
▁ဆုကို
ပြည်ထောင်စုသည်
▁ရွှေညောင်ပင်
▁ကျေးကျွန်
▁မိဘနှစ်ပါး
▁စက်ဘီး
▁ဗဟိုအစိုးရ
▁တပ်ဖွဲ့များ
▁နစ်မြုပ်
▁နိရှိ
▁အရေးပါအရာရောက်
▁အရှိ
ဆမ်း
▁တစ်သိန်း
▁၂၀၅၇
▁ထူးခြားသည့်
ရပြီးနောက်
ဒေသများကို
စန့်
သိုင်းပညာ
▁Band
ပီသ
▁အဖွဲ့အစည်းတစ်ခု
အကြီးမားဆုံး
အဖွဲ့ချုပ်၏
တို့လူစု
▁၆၆၉
ဒေသနာတော်
▁Cu
▁ဖီး
ရေဒီယို
အမွေး
းနား
▁လက်ခုပ်
▁မိုးမခ
မီးပြတိုက်
hr
Sh
န္ဒာ
ဖြစ်ကြောင်း၊
▁အချိန်ကုန်
နဲ့အတူ
▁ပြုလုပ်ကြ
အသုံးပြုရန်
="94
EO
down
▁နန်းတင်
▁ဗြာဟ္မဏ
石
ပွဲလမ်းသဘင်
▁ဆူဟာတို
▁မန်မန်ဆိုင်
▁ဦးဗဆွေ
▁စံနစ်တကျ
▁ကပ္ပတိန်
="1708
ဒိတ်
▁နားရွက်
ပျောက်ဆုံး
tharya
▁သရဏဂုံ
▁လိမ်လည်
မတ်စ်
▁ဆိပ်ဖူး
▁မြင်စိုင်း
ကန်ကြီး
▁Mark
နှုန်းထား
▁ဦးဘိုးစိန်
မောင်ကြီး
ခြူး
▁မိအဲခရိုင်
▁ဖြစ်ကြောင်း၊
▁ဗိမာန်
▁အကူအညီများ
င္း
မျှပင်
အမိန့်တော်
▁ကျောင်းသုံး
▁၁၃၇၇
=422
ama
inme
ပုဒ်ကို
=288
▁တတ်နိုင်
ဖြစ်၏၊
▁၂၁၃၂
သပြေကုန်းရွာ
=381
▁ငါဘုရား
မှစတင်ကာ
▁စောင့်ကြပ်
▁သိ၏၊
▁ဒုစရိုက်
▁စခန်းကြီး
▁၂၂၀၁
ကျော်ကြားသော
ဆရာ၊
အတို
မြတ်စွာဘုရားသည်
▁ကသစ်
သေးသဖြင့်
ကရို
တိ၊
▁ခရီးသွားများ
▁အခေါင်း
ဖန်များ
ဖြတ်၍
ကျိန်း
လယ်ယာမြေစီမံ
ချက်ကြောင့်
▁Ngap
ပ်စ်
လိုက်ပါက
▁ရေဒါ
▁အသားအရေ
="81
▁မြို့ပေါ်
▁အက္ခရာများ
တောကြီးရွာ
၁၉၉၉
ရန်။
▁၁၂၇၄
အင်အားကို
ခံပြီး
မရဏ
အတိတ်
မိုနို
ကျောင်းများတွင်
▁ရွှေထီး
မျှတသော
▁စာအုပ်တစ်အုပ်
ဖော်ဆောင်
၂၀ဝ
▁စားစရာ
▁လိမ္မော်
▁၃၂၆
▁ပါဒ
▁စာရိတ္တ
ပမာဏကို
ကထိက
▁အနှစ်သာရ
သားသည်
အသေး
သူ့ကို
▁မဇ္ဈိမဒေသ
အချက်အလက်များအရ
cal
▁ထူးခြားချက်မှာ
▁ဖော
အမိုး
ပေးရလေသည်။
ပရမ
▁ကျင့်ကြံ
▁ဖိလစ်
▁ဓာတ်ခွဲ
တာဝန်ယူဆောင်ရွက်
နိုင်ငံဖြစ်သည်။
▁တည်နေ
ဆိုပါက
▁ကူးသန်းသွားလာ
▁ယောက်ျားလေး
▁သတ္တုရိုင်း
▁သားကြီး
▁ထုတ်လုပ်ပေး
ညီအစ်ကို
▁ဖဆပလအစိုးရ
သရက်ကုန်းရွာ
ခွင်း
▁ကံကြမ္မာ
ကြည့်ခြင်း
▁ဟိုးမား
▁ပါတီစုံ
မပေါ်
▁၆၂၃
ဦးတည်
ဖွဲ့စည်းတည်ထောင်
ကျော်မျှ
▁မိုင်းကာ
▁ဖွေ
▁အကြံဉာဏ်
သင်ပုန်း
▁၁၀၆
ရောစပ်
အမှီ
တူညီသော
▁ချေးငွေ
▁ကုလားအုပ်
ခန့်ကို
▁အိမ်ရှေ့စံ
▁ဆက်နွယ်နေ
ကိုးကွယ်ခြင်း
၂၀၀၃
တတ်သောကြောင့်
ဟင်နရီ
အခြေနေ
သို့ပို့
▁ဝိပဿနာတရား
▁နေကြ
ပြည်တွင်းစစ်
▁စက်ပစ္စည်း
အောင်ပြုလုပ်
ရဘဲ
ဖြစ်လေရာ
အဆီး
အလုပ်များ
▁သတ္တဝါတို့၏
သာသန
ဖြစ်ရ
၁၉၆၈
အသည်း
မကွေး
▁ဘုရားတစ်ဆူ
ဂန္ထဝင်
▁ကျုံ့
▁အိန္ဒိယမှ
▁ဖြစ်လေ
ရမန်
တစ်စုံတစ်ရာ
▁အများသုံး
▁ရဟန်းများ
ရုပ်သံလိုင်း
သုတ္တ
▁တန်ဖိုးရှိ
ခွင့်ရခဲ့သည်။
အားကိုး
▁အရှင်မင်းမြတ်
▁မိန်း
▁ရွှေကျောင်း
စီးနင်း
ရှာသည်။
ထဘီ
ဝိန်
▁သတ္တိရှိ
ဖြန့်ဝေ
၀ဝ၀
သံဃ
ခဲ့ကြ၍
ညှို့
▁ကုံး
ထက်၌
▁သက္ကယ်ကုန်း
ရင်းနှီးမြှပ်နှံ
▁after
▁daily
ဝက်သစ်ချ
▁ကျောင်းတောင်
="1709
="1706
ဇွန်လ
ပြောဆိုခဲ့သည်။
တစ်ရပ်လုံး
ခိုင်မြဲ
နိကာယ်
▁လိုအပ်ပါက
▁ဦးကျော်ငြိမ်း
▁မင်းမှုထမ်း
▁သေစေ
▁Blue
▁ဘယ်လောက်
▁some
ပါလာသော
▁Ok
▁စကားဝှက်
▁ဖျာပုံ
ငယ်သော
ဗျူဟာ
ပိုက်လိုင်း
▁ရောင်စဉ်
ရေးသားခဲ့
▁ဖြစ်ကာ၊
▁သန်းပေါင်း
▁Ve
=421
▁ရှိတတ်
အမိ
▁စစ်ကုန်း
oo
သွားပါက
▁တည်ရာ
▁large
ဆုရ
=347
လွင်၊
mas
အသင့်
အုတ်ကြွပ်
▁ကစားသူ
▁ကြွက်သားများ
▁အိုဆာကာ
ဖိုရမ်
▁ရေခဲပြင်
▁ကျောင်းထိုင်
▁၂၁၅၄
ပဉ္စင်း
▁အသဲ
▁ရှမ်းစော်ဘွား
ရုံများ
သည်ဆိုသော
▁ဒေါ်သိန်း
▁အချိန်ကို
ane
မီးရထားလမ်း
▁လေးမျိုး
▁သင်္ချိုင်း
သတင်းဌာန
▁ဒိုမိန်း
▁ပြည်သူတို့၏
▁ပန်လော့
▁ကြွေးကြော်သံ
▁နမ့်မော်
▁ဣသရေလ
ထရံ
▁သတင်းစာများ
တစ်ဦးချင်းစီ
▁စွဲလမ်း
ချိဘူတာ
▁ဝဏ္ဏ
စစ်သူရဲ
▁ဒွါရ
စဝ်
▁၁၂၉၃
အသွား
▁ဥတ္တရ
▁လူကြိုက်
မနော
▁ဆီဆိုင်
▁ပထမတွင်
ဘဒ္ဒ
▁ခမ်းနား
ဆရာတစ်ဦး
▁ပခန်း
ood
▁ပါသော
vers
▁ရွှေကူ
ငါးခု
▁တစ်ဦးအပါအဝင်
အခြေစိုက်စခန်း
ငှာ
▁Ver
▁ကွဲထွက်
▁မြို့ဖြစ်သည်။
သဘောမျိုး
▁စုပုံ
▁၇၉၇
အိုခ
▁ဖွားမြင်တော်မူ
▁ထွက်၍
စ္ဆာ
▁ဝေလ
ခဏ်း
▁သပ်
လုပ်သည်။
မျိုးစု
▁Je
▁ကုတ်
ဒေသများမှ
ချိုးဖောက်
ထုတ်လွှတ်
ခွကျေးရွာအုပ်စု
စစ်မှုထမ်း
ဖွင့်၍
▁Mr
▁၂၀၉၀
73
▁James
▁၈၉
စီမံချက်
▁တက္ကသိုလ်၏
▁သွေးထဲ
▁အပေါ်ပိုင်း
▁Kawa
▁၂၂၁၄
▁စိုက်ပျိုးသည်။
ဆက်တိုက်
ဝဝဝဝ
▁ကျေ
သန်းပေါင်း
▁နာခံ
တော့ပါ။
▁ကိန္နရာ
▁ပါးရှင်း
cover
▁ပြင်ဆင်ခြင်း
▁မေတ္တာရပ်ခံ
▁အများအပြားကို
သော်ကား
log
ဟူသမျှကို
▁စိမ်
တော်စပ်
လာစေ
ဟုယူဆ
▁နိဿယ
နီးယန်း
▁အင်္ဂလိပ်လို
မျက်နှာစာ
ဆွဲ၍
▁နေမှ
ဆွတ်ဘူတာ
tila
တစ်ကြောင်း
▁ရကန်
စီးဆင်းမှု
▁ကျောင်းရွာ
ဦးစီးဌာနရုံး
ရမှာ
မင်းထင်
ငေါ
▁စီမံကိန်းများ
ဘူတာရုံ
ဦးတင်
▁မြတ်ဗုဒ္ဓ
▁ခရမ်းရောင်
▁Bill
▁Ce
▁ရရှိလေသည်။
▁ဂေဟစနစ်
▁ဖြို
▁ကြာကန်
၁၉၈၈
="46
▁၂၁၇၁
မြှင့်တင်ရေး
ဘူတ
aga
▁ပရိနိဗ္ဗာန်
ရေးသားထားသော
▁အင်္ဂလိပ်စကား
ဆွေ၊
များမှလည်း
မြို့တည်
ပန်းတိုင်
▁သထုံပြည်
အုံကြွမှု
မဲဇလီ
ယူဆချက်
▁ပုဏ္ဏ
▁မိန့်
မှစတင်
▁အစ္စလာမ့်
▁သွန်း
▁နေပြည်တော်သို့
▁ဟံသာဝတီသို့
မြို့တို့
▁ဖွဲ့စည်းခဲ့ပြီး
▁Myit
ရှိမဘူတာ
နှပ်
ဘာဘာ
ized
မက်ထရိုပိုလစ်တန်
▁vowel
▁ဂရုတစိုက်
▁ပလူတို
▁အောက်စီဂျင်
=117
▁Apple
▁မိုင်းရှဲန်
="1703
▁အလယ်စုရွာ၊
▁ယုံကြည်ကိုးကွယ်
="1701
▁ပူအိုက်
မှုတစ်ခု
ှိ
▁မီးခိုးရောင်
▁ဥမှ
▁နှင်
အမှုကို
ကောင်းရွာ
=424
="117
ဖြစ်သကဲ့သို့
=284
တိုက်ရွာ
=425
ဖြတ်တောက်
လွဲမှား
▁သန္တာ
▁သက်ဝင်ယုံကြည်
▁တွင်ကျယ်စွာ
များကြားတွင်
ပါပြီ
ram
ကျရွာ
▁ညီညာ
▁သိမ်းပိုက်ထား
▁၂၁၅၈
မထားဘဲ
▁၁၀၈
သီးကို
▁မြန်မာလို
ဇောတိ
လက်ထောက်
နည်းသည်။
▁ဆီးချိုရောဂါ
▁ထားရှိခဲ့သည်။
▁တလုပ်ကုန်း
▁သုတ္တန်
ပါတယ်၊
RS
တဘောင်
▁မသင့်
▁ဂန့်ဂေါ
စေတတ်
သောက်သုံး
▁ငွေရောင်
▁အလိုအားဖြင့်
87
use
▁သံချောင်း
▁ခေတ်စားလာ
Fi
▁သဒ္ဓါတရား
နီးပါးခန့်
2&
,000
▁ထဲမှာ
တေ့
▁အပူဓာတ်
▁မဟာဓမ္မ
မရှိသော်လည်း
▁ဂျော့ချ်
ေမာမ်ဟိုစိုင်းန်
▁တစ်ခုမှာ
▁ဒီး
▁အိမ်သို့
▁ယီ
▁ဂျာမန်လူမျိုး
Ga
▁ဖွံ့ဖြိုးပြီး
ဗုဒ္ဓရုပ်ပွား
▁စေတီတည်
▁ပါး၊
ကျွန်မ
▁ရနိုင်သည်။
▁အနည်းအကျဉ်း
▁ကြက်ခြေနီ
▁နိုးကြား
97
▁၎င်းနှင့်
ဘာရီ
ရုံမျှ
▁ငယ်ရွယ်စဉ်
spect
▁ကားလ်
▁ဂီတသည်
▁တွေ့ရှိရသော
ult
▁၂၂၀၅
▁ဧတဒဂ်
▁2012
ကိုးကား
စက္က
▁ရည်ညွှန်းသည်။
▁ရာသီဥတုမှာ
သတင်းကို
▁၁၁၈၃
=182
▁ရေဖြူ
ဝိနိစ္ဆယ၊
▁အောက်ပါအချက်
▁မြန်မာ့ဆိုရှယ်
▁ကာနယ်
▁ဒိန်းမတ်နိုင်ငံ
▁၂၁၀၈
▁မပေါ်
▁၁၀၃၈
▁ဆောင်ရွက်ရာတွင်
▁ကျန်ရှိသော
ကြပြီး၊
Man
▁ဘွက်
ဆန်းသစ်
ခဲ့ရခြင်း
ရေပြင်
▁၂၃။
="182
ပဏ္ဍိတ
ရာ့
▁မစိုးရိမ်
hol
▁၂၂၇
▁အခြေတည်
▁သာပေါင်း
▁ခေါ်ဆောင်သွား
လီရွာ
▁စစ်ထုတ်ခြင်း
တစ်ခုဖြစ်ပါသည်။
ရပါမည်။
အဆိုကို
▁မွန်၊
▁မွတ်ဆလင်
ရယူနိုင်
ချောင်းနားရွာ
als
▁ရဟန်းတို့အား
ဝါသ
ပါရာဇိက
များလည်းရှိ
▁၂၂။
ဒုန်း
▁လက်ဆင့်ကမ်း
▁မြို့လှ
ID
ဝိန်းရွာ
တိုကျို
၁၉၆၇
အညွှန်း
200
▁ပြိုင်ပွဲဝင်
▁အခြေခံပြီး
▁ရွေ
ိက္ခ
▁ဆင်ဖြူရှင်မင်း
="409
လဲလှယ်
▁ပျဉ်းမနားမြို့
▁အစိုင်အခဲ
▁ဂျီ၊
▁အဟောင်း
သယ်ယူပို့ဆောင်
▁အကြံအစည်
ဦ
=143
ရှိစဉ်
▁မွေးဖွားခဲ့
nk
ဂါဝါဘူတာ
▁စစ်တရားရုံး
▁ခေါ်ပြီး
▁၂၇၅
▁Yon
▁အသေခံ
အသေးစား
ကလ
အနာဂတ်
▁စာအုပ်ဖြင့်
▁သုံ့ပန်း
▁သန့်ရှင်းသော
▁Yangon
အာရုံစိုက်
▁နေထိုင်လျက်
▁တာဝတိံသာ
ဘေးထွက်ဆိုးကျိုး
▁လူမှုဖူလုံရေး
▁အဆိပ်အတောက်
▁ခရိုအေးရှား
=128
="1707
ခြိမ့်
▁Ponna
အရွေးခံ
မြှား
ကောလိပ်တွင်
▁စေတီတစ်ဆူ
မြို့အနီးတွင်
▁ချီတက်လာ
ဂျေားဘူတာ
ပေးနိုင်ရန်
=427
▁Meik
▁ယနေ့ထက်တိုင်
▁တစ်ခေတ်
▁ယာမ
▁အဘူ
=383
▁ပြုလုပ်ထားသည့်
=384
=420
▁ဦးသိန်းစိန်
="375
▁Aye
="128
=225
▁ဝတ်လုံ
▁အသီးအနှံ
▁ဥက္ကံ
▁သပြေချောင်း
တူးဖေါ်
="366
▁သာဝတ္ထိပြည်
▁ရောဂါလက္ခဏာများ
▁ခရို
▁ရောင်းဝယ်ရေး
▁ယှဉ်တွဲ
အလဲ
ကျက်သရေ
▁အစည်းအဝေးတွင်
▁ဘိုကလေး
="143
တကား။
▁သတ္တုစပ်
▁ရှိ၏
စာရင်းကိုင်
▁အဖုံး
ရွှ
▁စပိန်တို့
ပတ်သက်
▁နိုင်ငံတကာမှ
yar
="370
▁စယ်
▁နောင်သော်
▁နေထွက်
အရေ
▁၁၃၃၉
▁အင်ဒိုင်း
▁ယော့
▁ကျောရိုး
ဝဂ္ဂ
အမိန့်ဖြင့်
▁နာဆာ
="373
များ။
cor
▁စစ်မှန်သော
ities
▁အသတ်
="404
="410
ဦးနှောက်
="280
သောင်းကျော်
▁သွား၍
▁ပါဝင်လာ
ခံကာ
gram
="367
ria
▁၁၂၅၇
▁အလက
ကိုင်၍
▁ကျောင်းအုပ်
ions
ရန်အောင်
ဗီယာ
▁ပုံစံဖြင့်
▁ဥဒ
="365
▁၂၀၃၅
▁မြည်း
▁အလေ့
▁အထား
ပေးလျက်ရှိသည်။
ဟန်၊
="227
လက်စွပ်များ၏
▁၂၂၀၄
▁ပန်းခိုင်
စကီ
▁သားတစ်ယောက်
▁ထိုနည်းတူ
="312
▁ရေမျက်
▁ခုမှာ
လူကြီးများ
ပြားရွာ
ရှာဖွေရေး
တော်မူပြီးနောက်
▁ရေဒီယိုသတ္တိကြွ
မသောက်
ပေးအပ်ချီးမြှင့်
▁အနေနဲ့
▁ကွဲပြားမှု
▁ကွန်မြူနစ်ဝါဒ
▁ကမ်းနီ
▁ဖြစ်စေခဲ့သည်။
▁အပင်၏
▁မူကွဲ
="259
="412
="254
▁ကိုယ်ခံပညာ
▁မြန်ဆန်
="372
="369
▁၂၁၆၁
လုပ်ပြီး
လျှော့ချ
▁အဝေးရောက်
="426
ညီမျှ
▁နေ့လယ်
▁တစ်ခုအဖြစ်
="376
▁ကပ်ခို
gn
▁နတ်သား
▁မိသားစုဝင်များ
▁သစ္စာခံ
▁ပန်မတ်
ဝန်ဆောင်မှုများ
="403
="277
အရပ်ဒေသ
ယူနိုင်
▁ဆွမ်
▁ထိုအချက်
တည်ကြည်
▁၁၃၈
▁ခံရပြီး
="160
lia
▁မိန်းမများ
▁ပျက်သုဉ်း
="262
▁ဂျိန်း
="263
အစီအစဉ်ကို
▁ပါဠိစာပေ
="378
▁ခွဲစိတ်ကုသ
="261
ကပ်၍
ပုံစံမှာ
▁ဘစ်
▁နှေး
▁လွန်း
="392
▁ဒုတိယဗိုလ်ချုပ်
▁မြက်ခင်း
လိမ်မာ
▁ထေရဝါဒဗုဒ္ဓဘာသာ
ို့
▁စစ်ရှုံး
="439
လိုလားသူ
="380
▁တပည့်များ
▁မြင်နိုင်သည်။
လာကြပြီး
="415
▁ထင်ရှားခဲ့သည့်
▁ရုတ်
="382
▁စာရေးဆရာများ
="264
="408
="417
dom
=1637
="1637
="435
နှစ်ခုမှာ
▁Kang
▁ထောင်စုနှစ်
=1766
="1766
=1747
ပိုင်းမှာ
="1747
ရရှိအောင်
="411
လောဟု
="399
▁ဘုရားရှင်အား
▁ညံ့ဖျင်း
="253
▁၁၆၉၇
ကို၎င်း
▁ဝိသေသ
▁၁၁၂
အချ
=1635
="1635
=1657
ရခြင်းသည်
="1657
အပြောင်း
▁လုပ်ရပ်
▁မနုဿဗေဒ
=1636
="1636
="257
▁အနီးစပ်ဆုံး
▁—
="414
အိရှိ
="395
=1612
▁ရေမြေ
="1612
="401
=1648
="1648
=1614
="1614
=414
=1644
="1644
=1768
="1768
ချက်နှင့်
▁စကားလုံးကို
▁အနိုင်ရခဲ့သည်။
="422
=1646
="1646
▁ရရှိလာ
▁Royal
=1750
=1770
ရှိကာ၊
="1770
=1912
="1750
=1746
="1912
="1746
=1796
="1796
ဖြစ်ရပ်များ
=1647
="1647
=1794
▁သာမန်လူ
=1651
="1794
="1651
=1643
="1643
="396
▁Steve
▁ဥယျာဉ်တော်
="391
▁နှောင့်နှေး
=1642
="1642
သက်ရှိ
="394
▁၁၈၀
tus
▁ပြာသိုလ
▁ကျောက်ခေတ်
=1753
="1753
="421
▁ဒေါ်လာသန်း
မရှိကြောင်း
မှုများပြုလုပ်
သုံးပုံ
စီးကြောင်း
▁စိုက်ပျိုးခြင်း
စာချုပ်အရ
▁AD
="368
=386
ق
တွင်းငါးကြောင်
ပွိုင့်
▁Council
▁Sittwe
▁company
▁ရိုဟင်ဂျာ
▁ပန်းတနော်
ဦးသန်းကြွယ်
="1705
စီဒီ
▁ရှဲ
="438
▁nu
▁လူသိအများဆုံး
▁orbit
▁ဆိုသည်
အကြီးအကျယ်
="2003
=1632
="1632
="274
=423
=385
ကြမ္မာ
ယာမမြို့
=1631
▁မက်ဆီ
=229
="1631
=1769
="1769
▁လေ့လာတွေ့ရှိ
=226
▁အအိ
ငှက်ပျော
="407
=1633
▁အသက်ကို
=1743
="1633
="1743
▁စိုစွတ်
▁ကွင်းယား
မြွက်
="402
စော်ကား
▁၉၃၉
▁အခြင်းအရာ
▁တပ်ရင်းမှူး
အဝါ
=338
သဒ္ဓမ္မ
="288
မှန်မှန်
▁အစုလိုက်
=2003
▁တွေ့ရပေသည်။
▁မှတဆင့်
နှုန်းကို
▁စကားသည်
▁ဖြန့်ကျက်
▁ရာဘာ
အစည်းအဝေးတွင်
-10
▁အာယု
▁နန်းသက်
အဖွဲ့အစည်း၏
▁ra
="250
တင်ကာ
တစ်လျောက်
ဌာ
▁နိဗ္ဗာန်ကို
="393
▁ဆရာဝန်များ
GC
▁Office
▁၈၉၆
သက်ဝင်
ကုန်သည်။
▁ကိုယ်လုံး
ရေတပ်မတော်
▁Str
▁မိုင်းကောင်
▁ပြဿနာများကို
▁ပြေပြစ်
ခမာ
▁Ki
="347
ဘေးအန္တရာယ်
="424
="289
တိုက်ခိုက်ရာ
ပြတ်တောက်
vil
gin
ခေါ်ဆောင်
lim
လွန်ကဲ
ဝါဒနှင့်
▁trans
သတ်ရန်
▁မြည်
သလွန်
ရိက္ခာ
▁ပိုလန်နိုင်ငံ
▁ပုပ္ပါး
ဖြစ်စေသည့်
="413
="270
="284
▁ခေါင်းကိုက်
="252
နောက်သို့
▁မောက်မယ်
ဗိုလ်မှူး
="433
အားထုတ်ခြင်း
ခင်မင်
="434
အပ
ကြာမျှ
ကြည့်ပြီး
ပေးခဲ့ကြသည်။
="425
▁သတ်ပစ်
▁ပါတော်မူ
="290
="436
ယာယီ
တစ်ပြည်
="256
ကြတာ
▁ပစ္စည်းကို
▁ဆရာတော်အား
ကောင်းလျှင်
▁Au
="397
="427
▁ဖြစ်ပါ
ခြင်းသဘော
မအူ
ကိုယ်ခန္ဓာ
▁မပျက်
ကာရီ
="416
▁ရွှေချ
="430
တယ်လ်
="1999
တည်းသာ
ဈေးကွက်တွင်
="383
▁စုတ်ယူ
▁လူမှုရေး၊
▁ယူဆချက်
္မာ
▁အိမ်သုံး
မကြား
▁အခြေပြု၍
="419
▁အလင်္ကာ
ဂလာ
="272
="431
နုတ်ထွက်
▁၄၈၀
ထားရှိပြီး
▁ယွမ်
="377
="384
ဂစ်
▁အာဖဂန်
="379
▁၂၀၆၆
="420
="398
="371
▁ကောလိပ်ကျောင်း
▁သို့အတွက်
▁ဖက်ဆစ်တော်လှန်
▁စုံတွဲ
▁ရှီး
▁အဓိကထား၍
မောင့်
="374
▁နဝမ
="400
လုပ်ကိုင်သည်။
အလှမယ်
သမ္ပ
▁ထောက်၍
=277
▁ထောက်လှမ်း
▁area
▁တစ်ခြား
မြန်မာစစ်ပွဲ
tis
ကြိုးများ
=1760
="1760
=1700
▁ပြစ်တင်
▁ရှည်၍
="258
တိုင်းမှူး
=312
▁လက်ဝဲဘက်
="405
="249
="437
▁ငြင်း
▁အရင်းခံ
=1732
="1732
=439
="278
=1639
="1639
=410
=262
=1898
="1898
="273
="1749
=1749
="432
=1704
=1818
="1818
=1817
="1817
=435
="304
=1730
="1730
=412
=1731
="1731
="381
ပေးခဲ့ရသည်။
ature
="1891
=1891
=1899
="1899
=1990
=261
=409
▁ဂျပန်တို့သည်
=264
=254
=263
▁သံတောင်
=366
▁ကြလေသည်။
=274
="1562
=1562
="406
=367
=250
="1991
=1991
▁လိင်ဆက်ဆံခြင်း
="423
="385
=370
="1734
=1734
=1640
="349
="1640
="1788
=1788
=375
=438
=259
="1616
=1616
=404
=1564
="1564
="228
="1615
=1615
=1708
=1741
="1741
=1815
=392
="1815
=1988
="1988
=1690
="1690
="1733
=1733
="1786
=1786
=417
="260
=1710
="1710
=365
=257
="1887
▁ဦးမောင်ကြီး
=1767
=1887
="1767
=372
=1992
="1787
=1787
="1670
=1670
="1962
=1962
=1649
=1987
="1987
="1649
=1904
="1904
မျှဝေ
=1652
="1652
=1587
="1587
=415
=1719
="1719
="1784
=1784
=1986
=1668
=373
="1668
="1554
="1667
=1554
=1667
=1717
=378
="1717
=1897
="1897
="229
="1678
=1678
="1735
=1735
=376
="1884
=1884
=1934
="1934
=270
="1936
=1936
="1857
=1847
=1857
="1847
="1862
=1588
=1862
="1588
=1514
=1761
="1654
="1761
="1514
=1654
=411
=1810
="1810
="1842
=1842
▁ဘော်တွင်း
▁အထူ
=1699
="1699
=369
="1659
=1659
=1689
="1689
="1687
=1687
=1696
="1696
=1598
="1598
="255
▁Thu
=408
="1979
=1979
=399
="1555
=1555
="1618
=1618
=1716
="1716
=1958
="1958
="226
=1592
="1592
=1840
="1664
=1664
="1840
=1997
="1872
=1872
=448
="1585
=1585
=395
=1789
="1789
="448
=1888
=450
="1888
="1762
=1762
=253
="450
=396
="1864
=1864
=1866
="1866
="1798
=1798
="1682
=1682
="1797
=1797
="1854
=394
=1854
=452
="251
="452
="1886
=1886
="1783
=1783
="1870
=1870
="1552
=1552
=1740
="1740
mann
="1684
=1684
=444
="1581
=1581
=1722
="1889
="1722
=1889
="1973
="444
=1868
=1973
=457
="1868
=1850
="1695
="457
=1695
=403
="1850
="1802
=1802
=1832
=1993
="1683
=1683
=1877
="1832
="1877
=1688
="1688
=1938
="1938
=391
="1537
="1665
=1665
=1510
=451
="1510
="1758
=1537
=1758
="451
=1954
="1954
="1686
=1686
=1792
=1865
=1720
="1792
="1865
="1885
="1720
=1885
=368
="1968
=1968
=1709
=434
=436
="1855
=1855
=1727
=1905
="1905
=1977
="1977
="1602
="1727
=407
="1556
=1556
="1673
=1673
=1596
="1596
="1669
=1669
=1916
="1916
=1914
="1570
="1914
=1570
=400
=1999
=1724
=1774
="1774
=1808
="1808
=1726
ဘဲလ်
="1724
="1726
▁၂၂၅
="1924
=1924
=1901
="1901
=1655
=401
="1655
=1804
="1804
=1921
="1939
=1939
="1921
=456
="1952
=1952
="456
=1679
="1679
=1836
=1925
="1836
="1925
=433
=1765
="1765
=441
="1518
=1518
="1984
=1516
=1984
="1516
="441
="1876
="1674
=1674
=1876
="1600
=402
=1611
="1611
="1828
=1961
=1828
="1542
=440
=459
=446
="1546
="1955
="2004
=1955
="459
="446
="440
="1871
=1871
="1513
="1811
=1513
=1811
=1927
=449
="1927
="449
=1625
="1625
="1522
=1677
="1677
=272
=1522
="1863
="1858
=1863
=252
=1858
=1756
="1756
=1599
="1599
=1933
=1826
="1826
="1933
=430
=445
="1937
=1937
="1584
=1584
="1694
="445
=1694
="1755
="1775
=1755
=1775
▁Big
="1617
="1945
=1617
=1945
=1715
="1715
=1966
="1966
=1920
=393
="1920
=1658
="1658
=1835
=455
="1553
=1553
="1835
=443
="455
=1701
="443
="1790
=1790
▁ပွဲတော်များ
▁မြို့ပိုင်
=1801
="1801
="1861
=1861
=1928
="1928
="1594
=1594
=1511
="1511
="1559
=1559
="1799
=1799
=1882
="1882
=397
="1873
=1629
="1629
="1711
=1711
=1873
="1759
=1759
=453
▁အကြီးကျယ်ဆုံး
="1805
=1805
="1953
="453
=1953
=1846
="1791
="1846
=1791
="1849
=1849
=1819
="1819
=1602
=413
=1751
="1751
=1839
="1825
="1883
=1825
=1883
="1839
=256
▁ဖော်ပြရန်
=431
=1970
="1970
=1721
="1721
=1779
="1779
=1703
အတောအတွင်းတွင်
="1821
=1821
=1681
="1681
=1875
="1875
=416
=1845
="1845
=1707
=1773
=1723
="1773
="1881
=1881
="1723
="1539
="1547
="2005
=454
="1583
=1583
="454
=1539
=1803
="1803
=1600
="1859
=1859
=1982
="1879
="1982
=1879
=1833
="1833
=278
=1520
=1980
="1520
=398
=1967
="1793
="1967
=1793
=1776
="1776
=437
=1713
="1713
=1831
="1831
=377
="1844
=1844
=1650
="1650
=432
="2001
=1519
▁၂၀၁၁ခုနှစ်
="1603
="1519
="1591
=1591
="1693
=1693
=419
="1563
=1563
=1613
=258
="1613
=1981
="1981
=1542
="1943
=1943
=1714
="1714
=1843
="1843
="1509
=273
=1509
=2004
=2000
=1676
="1676
="1573
=1508
="1508
=1573
="1521
=1521
လွတ်လပ်သော
=260
=374
="1529
=1529
=1705
=1744
="1744
စံပယ်
=1546
=1547
=442
="442
="1567
=1567
="1533
=1913
="1913
=1533
=1902
="1902
=371
သမဏဗြာဟ္မဏ
=222
=223
=283
=285
=286
=329
=341
=344
=387
=388
=389
=428
=429
Ninjastrikers
▁ထင်ထင်ရှားရှား
▁အာဆီယံမသန်စွမ်း
▁Network
▁thrash
▁နအဖ
အာရိယန်
="388
="1702
="387
=379
="418
="428
="386
="286
="1675
=122
=1675
=406
=1994
="344
="285
="222
="389
="275
="341
="429
="283
="329
=405
▁ပူဇော်ပသ
=1814
လူဝင်မှုကြီးကြပ်
="1814
="223
=418
=1946
="1946
=1702
=1738
="1738
=1737
="1737
=1880
="1880
="1949
=1949
=1507
=1812
="1507
="1812
="1571
=1571
=323
=255
="1931
=1931
="1661
=1661
="1764
=1764
=275
=1763
="1763
=249
=1903
="1903
="1662
=1662
=2005
=251
=1996
=1780
="1780
▁ဤငါးမျိုးတို့
=220
=1869
="1869
="1829
=1829
=1745
="1745
=290
=1603
=1995
=342
ဒုစရိုက်
▁၁၂၈
▁လက်ဦး
=1619
="1619
=2001
=1739
="1739
="1893
=1893
="352
="1781
=1781
▁တောထဲ
▁City
▁လုံးဝမ
▁ရေသတ္တဝါ
သံတမန်
▁တောင်တက်
▁လန်ဒန်မြို့၌
အမည်ရှိသော
▁တွယ်ကပ်
မီးရှို့
ချေပ
ခြင်းမပြုရ။
ဖီဆန်
▁မီဒီယာများ
▁လပ်
▁ကန့်သတ်ထား
ထားခဲ့သော
▁ဝမ်နား
="363
အချိန်ထိ
CA
စားပွဲ
▁မြေခွေး
▁ကက်စ
▁ကမ္ဘာ့ဘဏ်
သည်ဆို၏။
▁အမှန်မှာ
MT
စတုရန်းမိုင်
ဌာနသို့
▁သတင်းစာကို
ဆောင့်
uth
▁ဘုမ္မ
▁၂၀၇၈
▁Zh
ဖြေကြား
▁မသုံး
▁၈၁၀
▁ရိုးမ
CR
ထွက်၏။
▁တရုတ်ပြည်တွင်
▁ဖြေရှင်းရန်
="1993
▁တနည်း
▁ငါတို့၏
တစ်သက်
ဂုရု
▁အောင်သာ
now
▁ထည့်ပေး
="1986
ရေးသားထား
▁ပိန်းအင်း
လာကြသော
="1992
တောင်ရိုး
နစ်နာ
="1961
▁grunge
များရှိရာ
▁ရိုက်နှက်
ရီယယ်
နှံ့စပ်
="1994
="313
▁×
ကပ္ပလီ
ခဲ့ရသည်
ငွန်
▁သတိပြုမိ
ေရ
▁သံအမတ်
ဆိုကြသည်။
ပညာရှင်တစ်ဦး
ကျောင်
▁အိချိ
="2000
သင်ပုန်းကြီး
="1990
="122
▁ဗစ်
▁ကွန်ဆာဗေးတစ်
တည်းဟု
="1995
="1996
="1997
▁ဟိုက်ဒြိုဂျင်
aff
▁ကွဲပြားသည်။
▁၁၅၅၀
="1980
▁လုပ်ကျွေး
▁ဗို
▁ကော်မရှင်၏
mid
▁မဟုတ်ပါ
ဘရှိ
▁လက်ချောင်း
တိကျ
TA
▁အမည်စာရင်း
="271
▁မြတ်လေး
▁၁၂၉၀
▁ပစ်လွှတ်
▁ဂေါ်ရခါး
ထုတ်သည်။
ကြံ့ခိုင်
▁စစ်ထုတ်
ရဝ
ကြွယ်ဝသော
▁အချိန်အထိ
လုံးရွာ
▁သာစည်ရွာ
နှစ်ခုကြား
▁အင်းအိုင်
သိပ္ပံနှင့်
▁၂၀၄၉
.0
တိုဘူတာ
ညွှန်ကြားချက်
ယဲ့
တိုက်ပွဲဝင်
ကျပ်တည်း
▁ဖယောင်း
တိုက်ခိုက်ခဲ့
="364
ကျွန်းသို့
ငယ်ကလေး
▁ဆုံးဖြတ်ချက်ကို
ကြီးများဖြင့်
media
▁ထင်ရှားခဲ့သည်။
လွှတ်တော်၏
▁ဂျပန်ဘာသာစကား
သတ္တဝါတို့
▁အဆောက်အဦများ
▁နရ
▁နတ်မင်း
တည်ခြင်း
▁ကမ္ဘာတစ်ဝှမ်း
▁ကွင်းပြင်
▁၂၂၁၅
▁မိဖ
▁၁၂၆၅
▁စေတနာ့ဝန်ထမ်း
="225
▁၂၁၁၈
="323
▁ဟားဗတ်
=1638
="1638
▁ကျေးဇူးတင်
▁တေးထပ်
စီရင်ခြင်း
ada
▁ကျွန်းငယ်
▁ထိုအချိန်၌
▁လျှောက်ထားသူ
သည့်ကာလ
▁နှလုံးရောဂါ
▁သရသံ
pur
="1816
=1816
▁တရားနာ
▁ပေးသော
▁ကုမ္ပဏီကို
="220
=1627
="1627
ဝိစာရ
="1974
=1974
=304
=1998
အဆင့်မြင့်
="1566
=1566
="1944
=1944
မက်စ်
▁အချိန်က
=1922
="1922
=1672
=1706
="1672
="1610
=1610
="268
မြန်မာနယ်စပ်
သေးမီ
=447
="305
="447
="1867
=1867
="1848
=1848
="1932
=1932
▁ရွှေနန်းတော်
=1948
="1948
▁ကျယ်ဝန်းပြီး
=1985
="1985
=1621
="1621
=1671
="1671
ကြီးပင်
▁ဖျက်ဆီးခြင်း
=1935
="1935
=352
▁၂၇၀
="1777
=1777
="1837
=1837
="1752
="1772
=1772
=1752
=1900
="1900
▁ကြယ်များ
▁မျိုးကို
=1517
="1517
ရေးစနစ်
=1989
=1590
=1956
="1590
="1956
=458
="458
ဖန်တီးမှု
="1827
=1827
="1778
=1778
=1976
="1976
▁ဘာသာဝင်
=1471
="1471
=1923
="1923
=1560
="1560
=1841
="1841
=1807
="1807
=1834
="1834
=1595
="1595
=1820
="1820
=1728
=1623
="1728
▁Service
="1623
="1530
=1530
=271
="1506
=1506
▁Nor
=1915
="1915
="1582
=1582
ရိယာ
=1830
="1830
▁မဟုတ်ကြောင်း
▁သုံးစွဲမှု
="1653
=1653
="1463
=1463
=1622
="1622
▁ဆာဗာ
=363
="1896
=1896
=1634
▁ဘီအေ
="1634
=1929
="1929
ရှယ်ယာ
=1971
ero
="1983
=1983
=268
=364
="1691
=1691
ကိုရီးယား
မှုန်များ
=1630
="1630
လို့ရ
▁ကောင်တီ
ဍ္ဎ
ف
▁ပြိတ္တာ
▁ဗျင်းညား
▁အပါယ်လေးဘုံသို့
=230
=287
=327
▁ကားသေ့
市
0100200
▁စကျင်ကျောက်
▁ဒိုင်အာခီ
ပိုလို
="287
="357
="267
="327
form
="230
="291
▁ဖြစ်ကုန်
=305
▁အထီးကျန်
=267
▁ခွင့်ပြုမိန့်
=357
မှအစပြု၍
=330
▁Thong
ငွေများကို
▁စုံထောက်
▁ဦးဘိုးလှိုင်
▁သေဒဏ်ပေး
▁သရက်တောရွာ
▁တင်ပြချက်
=281
=1645
=282
="1645
=326
▁ခင်ပွန်းဖြစ်သူ
သားဖြစ်သည်။
ဗ္ဘ
ဟန်တူ
▁နမ့်ရှို
ကာကွယ်ရန်
ဗီယက်နမ်
စံနစ်ကို
struction
အဝန်း
=322
▁ကြည်းတပ်
လိုက်တယ်။
စက်များကို
="1813
=1813
="1605
▁Sub
▁ဝဘ်
ပါမောက္ခအဖြစ်
▁ထွန်းလင်း
▁ဇရပ်ဆိပ်
▁၁၀၄
970
ပါစိတ်အာပတ်
=1605
ခံလိုက်ရ
ဒီပလိုမာ
ပရိတ်သတ်
အချမ်းသာဆုံး
▁ရွှေပြည်သာ
ဝင်းအတွင်း
▁ဒန်း
စာနယ်ဇင်း
▁အဆပေါင်း
မျက်မှောက်
▁ဘောလခဲမြို့နယ်
အတိုက်အခံ
ပိုင်ဆိုင်သော
▁Zi
▁ရေးသားသူ
ပန်းပု
ကျွေးမွေး
▁ဆင့်ခေါ်
▁နန်စီ
▁ကီလို
=291
▁၁၁၃
▁စံချိန်တင်
▁စစ်ဆေးမှု
၁၉၆၄
▁ကိုယ်အင်္ဂါ
ကွဲလွဲ
ဖလံ
နွေရာသီ
▁ရိတ်သိမ်း
▁သမိန်ဗရမ်း
▁စစ်ဘက်ဆိုင်ရာ
လောရင့်
▁ဇရပ်ကွင်း
▁ကြုံတွေ့ရ
▁၇၀၄
မရှိသဖြင့်
အာကာသယာဉ်
▁Zee
▁ဇနီးမောင်နှံ
ကြေးမုံ
▁မင်းကြီးက
▁ထိုစဉ်အခါက
အလိုအရ
ခူရွာ
▁ဠ
▁စက်ကိရိယာ
▁သက်သေအထောက်အထား
▁အထူးထင်ရှား
များကြား
▁၁၂၆၆
01001
အငြိမ့်
ဘိုက်
ief
▁အမည်းရောင်
ပုံတော်
▁မသိရ
▁သယံဇာတ
ခြင်းသာ
▁war
နှုတ်ခမ်း
ဘုရားဟု
▁၁၂၄၅
ဖွဲ့စည်းခြင်း
="1998
အစိုးရလက်ထက်တွင်
▁Pra
မြင်နိုင်သော
01530
▁အခြေခံကာ
ရေးသားသူ
▁တန်ဖိုးထား
▁(7)
ြွ
ပီတာ
▁အားလုံးသည်
▁ဒေသခံများ
▁လားဟူ
ဖြစ်နေသည်ကို
▁ထိုမှတစ်ပါး
▁ဗညား
ရာဇဝတ်မှု
တပ်မဟာ
ဖဝါး
တန်းအထိ
▁၁၁၂၉
မနေရ
="306
▁မရောက်မီ
တခြား
▁တစ်ကြောင်း
="1989
ထက်ပိုသော
0170170
▁မျှော်မှန်း
="350
သည်မဟုတ်၊
အာရပ်
မဆွတ်
▁အလှည့်ကျ
ဗန္ဓ
လုပ်ဆောင်မှုများ
▁အမြစ်များ
▁တည်ရှိကြသည်။
▁ပန်းတိုင်
="266
အလာ
▁ဂတ်
="354
ပလို
▁စာရေးဆရာ၊
▁အပြစ်ဒဏ်
----
▁ထို့ကြောင့်ပင်
ပေါလ်
="342
▁ယခုကဲ့သို့
သမားများသည်
▁၂၀၉၁
▁ပုသိမ်ခရိုင်
▁imp
▁ဆက်သွယ်ပေး
▁ကန်သာ
ပြင်ဆင်ချက်
အုပ်ချုပ်သူ
လိပ်စာ
="361
BB
မင်းသား၏
မိဘုရား
▁ဖြစ်တဲ့
▁၂၁၈၁
▁ဖရန်စစ်
▁အာဏာသိမ်းမှု
ယူဆောင်
ထုတ်လွှင့်မှု
="1971
▁စတင်တီထွင်
▁ထိုနှစ်တွင်
▁ဂီတပညာရှင်
ိစ္ဆာ
▁အသက်ဆုံးရှုံး
သွမ်း
▁အထက်အောက်
box
▁နက္ခတ္တ
▁ဏ
သိပ္ပံပညာ
၈၀၀
တရားတို့ကို
ယူထား
▁လူအများက
ဆောင်ရွက်နိုင်
▁ကာကွယ်နိုင်
▁ဝါဆိုလ
▁ပန်းပင်
▁ဆွာ
နိင်
ဖွဲ့ကာ
ဆေးခန်း
022
မျှလောက်
▁၃၉၀
="330
▁Pop
ျာ
=1748
="1748
ဆဲဘူတာ
▁စစ်ပြီးခေတ်တွင်
▁ကြံ၏
=313
▁ပျံ့
ချုပ်ဆို
မရှိစေရန်
▁၅၆၀
အခေါက်
="281
ဦးဆောင်သည့်
="282
▁တင်ထား
▁ပြည့်စုံခြင်း
▁ဗာရာဏသီ
olar
="326
▁ဌာနများ
="1568
=1892
=1568
="1892
ရုံးမှ
▁တောင်ဘက်ပိုင်း
=1960
="1960
="1462
=1462
ယူရ
ဓမ္မရာဇာ
639
မျဉ်းကြောင်း
ရမည်ဖြစ်ပြီး
▁Los
▁Rathe
="348
="1558
=1558
=1957
="1957
▁ကစ်
="1536
▁အလုပ်မှ
▁စစ်အုပ်ချုပ်ရေး
လုံး၏
=1536
ရှိတယ်။
=1838
="1838
=1950
="1950
လောက်သည့်
=1978
="1978
▁ပစ္စုပ္ပန်
="1534
=1534
="1975
=1975
လုပ်ငန်း၏
="1561
=1561
=1800
="1800
=1910
="1910
▁ဘာလင်မြို့
="1806
=1806
IU
သက်ရောက်မှုများ
=1911
="1911
="1624
=1624
=1515
="1515
ရောင်ရောဂါ
="1851
=1851
zan
="1535
="1641
=1641
=266
="1540
=1535
=1795
=306
="1795
=1620
ဇဝန
="1620
="1680
=1680
ချိန်မှစ၍
=1771
၁၉၅၆
="1771
မက်မော
▁QID
=1919
="1919
=1597
="1597
=1565
=1729
="1565
="1729
=1809
="1809
="1656
=1656
="1874
=1874
="1742
=1742
="1685
=1685
=1550
="1550
=1712
="1712
=1725
="1725
=2002
="1604
နိုင်သည့်အပြင်
နှစ်သား
▁Mem
▁အရှိန်အဟုန်
test
မြို့ပြ
=361
စာမေးပွဲကို
ubin
=1951
="1951
="1959
=1959
=1540
=1853
="1853
=1692
▁ပေါင်း၍
="1692
jpg
=224
▁Language
▁အစဉ်တစိုက်
▁အေဘရာမိုဗစ်ချ်
=231
=333
=334
=345
ရောင့်ရဲ
▁ဒါမှမဟုတ်
အဖြာဖြာ
▁ခြုံငုံ
="1523
=1604
=1523
="248
="1782
▁ဒူဘိုင်း
=1782
0120090
="334
="224
▁ကလိုရင်း
="345
=320
="333
="231
▁အရောင်အသွေး
="1969
=1969
▁ဘော့
=248
▁အနောက်ဘက်သို့
▁အတန်
▁လင်ကွန်း
=337
▁ပေါလ်
▁မောင်းထုတ်
▁ဆောင်ရွက်ရသည်။
ငြှ
▁ဝမ်ဖွီး
▁ပေမှ
▁သို့မှသာ
▁ကျေညာ
="338
ညွန့်၊
▁ရည်ရွယ်ချက်များ
ဇဝ
▁ကဆုန်လ
အင်အားမှာ
▁Yat
ိန္ဒု
▁သရက်အုပ်
▁အဲ့
▁အကြီးအမှူး
ပျမ်းမျှ
=324
စကြာဝဠာ
လိုက်ကာ
အစုအဝေး
▁ရောက်၍
ကြယ်စုတန်း
နတ်ရွာစံ
ခွဲခန့်
▁ချက်လုပ်
▁ကျက်
▁သတ္တမမြောက်
မာတာ
---
▁အစင်း
▁အန်ဒ
သောကြာ
▁နမ္မတူ
ဆိုသည်
00
တာရှည်
rin
သွပ်
CI
ပျို့၊
▁ကောင်းကောင်း
▁သုံးသော
ခေတ်မှ
▁လင့်
ဆူပူ
ပြေပြစ်
▁ရေလွှမ်းမိုး
ကြာပြီးနောက်
ကျအောင်
အဖြစ်၎င်း၊
ဆည်ရွာ
ရဲရွာ
သူဖြစ်၍
▁Out
▁ယုံကြည်သူ
▁ပပျောက်
သေးကြောင်း
▁အကြာ
▁ပါတယ်။
▁White
▁မရှိသော်လည်း
▁ငုံ
▁တပ်ဆင်ထားသော
▁အီရတ်နိုင်ငံ
▁အယ်ဒီတာအဖြစ်
ဇိတ
▁၁၄၂၂
သောကမင်း
▁ဦးသောင်း
အထ
▁သဖန်း
သင်္ဘောကျင်း
▁အနောက်ဥရောပ
▁စိုက်ခင်း
="318
▁စာအုပ်စာတမ်း
▁စာရေးဆရာတစ်ဦး
ရွှေနန်း
▁တည်ရှိပါသည်။
▁ဆင်းသက်လာသည်။
▁မုတ်
="307
ရောဂါပိုး
အသင်းက
ကျမ်းစာအုပ်
▁ခရစ်ယာန်ဘာသာဝင်
▁ခြေစစ်ပွဲ
▁သက္ကယ်ကျင်း
အသေ
ခြမ်းတွင်
အုပ်ချုပ်ခွင့်
ကျွန်းတော
စစ်ပွဲအတွင်း
ဝိတက်
▁အရှေ့အိန္ဒိယ
▁ဖလန်
▁မြေပေါ်တွင်
▁နားပွဲ
▁ဇာတာ
▁ပါရှိသည့်
ရန်ကြိုးပမ်း
="276
Or
တင်းကျပ်
▁၁၃ဝ
▁ဟိုက်ဒရို
▁မရှိ၊
▁မောင်တော
▁ဦးချစ်
စကိုင်း
▁မာရှယ်
▁အားနည်းချက်
▁ယုတ္တိ
ဟုခေါ်သည့်
ပြည်ထောင်စုသို့
ကျမ်းများကို
▁၂၂၁၈
fore
ဆိ
="2002
မှု့
▁ကြေငြာချက်
နေကြပြီး
ခွဲကာ
▁ဟော့ဘစ်
▁လုံလောက်စွာ
▁ဧရာ
▁လွှမ်းခြုံ
="322
▁ဤသို့အားဖြင့်
၆၄၉၆
မိကျောင်း
ကျင်းပသည့်
▁သာလျှင်
▁အခါ၌
▁ကျောက်စရစ်
စောစော
▁မဟာမုနိ
ခဲ့ကြသဖြင့်
ခီးကျေးရွာအုပ်စု
တစ်ခုက
="320
▁၁၂၈၈
▁မွေ့
▁သူတော်စင်
တော်မူခဲ့
▁သတင်းထောက်များ
▁ကင်မွန်း
▁နတ်သျှင်နောင်
လုပ်ဆောင်မှု
Ho
▁တစ်စိတ်
▁စစ်သင်္ဘော
▁မာ့ခ်
စာဆိုတော်
▁မီးတောက်
ခဲ့ရပါသည်။
▁ပျောက်ကင်းစေ
များစွာတွင်
ဖြစ်ပွားခဲ့သည်။
="360
Wa
=350
▁ပါတီမှ
=354
နည်းအရ
nan
▁ဆရာများ
ble
▁ကျောက်ချောင်း
="337
ဖျက်စီး
="303
="390
=1460
="1460
="315
=1908
="1908
ဂေါတမ
wing
=1785
="1785
="1718
=1718
▁လေးမြို့
=1666
="1666
▁လေးယောက်
▁အဖွဲ့အနွဲ့
=1512
="1512
▁ပြည်သူပြည်သား
▁မျိုးချစ်စိတ်
=1926
="1926
▁အရှို
="1947
=1947
ဝန်ကြီးဌာနက
=318
="1757
=276
=1757
▁ဖိုလ်
="1663
=1663
နွန်း
="1601
▁အဖြစ်အပျက်များ
=1906
="1906
=1572
="1572
balu
="1593
=1593
▁စာလုံးပေါင်း
▁နွားမ
=1577
="1577
ီယာ
▁ပေါင်းဆုံ
="717
▁တိမ်ကောသွာ
sis
ဘက်ကို
=1586
="1586
=1601
=1551
="1551
အသုံးအဆောင်
=717
="1569
=1569
ဆုံရာ
=328
▁04.11.2010
=321
=331
=346
▁ခလရ
▁ရမ်းဗြဲ
="328
="346
▁မနု
▁အစိုးရဌာန
▁version
=315
="316
="314
="331
="321
="269
▁ဝါးခယ်မ
="215
▁Fe
▁စနေဂြိုဟ်
=303
="358
▁indie
=325
=316
=314
▁ကာယဗလ
=1736
="1736
▁တောင်ငူခရိုင်
အသံလွှင့်
▁ရွှေဟင်္သာ
=215
=269
▁တယ်ပင်ဆိပ်
နှုန်းသည်
▁အမည်ရ
လာခြင်း၊
▁By
▁သားဖွား
▁မိုင်းမန်း
တတ်တဲ့
တတ်သည်ဟု
west
တရုတ်နိုင်ငံ
ငုပ်
▁ဘန့်ဘွေး
▁ဒေါင်
▁သတ်မှတ်သည့်
▁တစ်ဦးက
▁တစ်ည
▁ရှာဖွေခြင်း
hang
▁Awards
238
ပေါ်လစီ
ပုဂ္ဂလိက
International
နူးညံ့
မိယ
▁တရုတ်အစိုးရ
စက်ဝန်း
နေခြင်းကို
="308
▁၂၂၁၁
ဒဂုံ
▁ဗယ်
pon
ထမ်
မော်ဒယ်
▁ရုပ်ပြောင်
▁ဘာလင်
▁ရိုင်ဖယ်
တိလောက
▁သူကြွယ်
ငယ်တို့
စေတီတော်ကြီး
▁စစ်ဖက်
▁၁၂၈၂
▁၇၆၉
▁ပြသထားသည်။
ထုတ်ဝေခဲ့
ဆုရရှိ
▁ကျွဲ၊
GB
နိုင်သည်ကို
ယာန
ငယ်တစ်ခု
ML
သီတင်းသုံးတော်မူ
="353
▁ပွန်
▁မမြင်နိုင်
▁သေခြင်း
▁တာဝန်ဝတ္တရား
စွဲလမ်း
လုပ်ငန်းရှင်များ
▁ခန့်အပ်ခြင်းခံရ
▁နောက်သို့
ရာမြို့
ပျော်ပါး
="356
မာ့
AT
▁တေးသွား
▁၁၄၃၁
▁ချင်းတောင်
၂၀၀၄
▁အွမ်
ခရီးသည်
သွန်းလောင်း
▁အပေါ်သို့
▁ကမ္ဘာတစ်ဝန်း
pin
▁စက္က
▁ပေးအပ်သော
▁ဈ
▁ငယ်ရွယ်
တက်သည်။
ကုံးရွာ
="362
las
▁ဂျာဗား
▁လုပ်ပေး
9&
▁သခင်စိုးက
▁၁၉ဝ
နိုင်မည်ဟု
▁လီဆူ
▁Fin
▁ဟေဂျားဘ်
▁လက်ကောက်
▁မရှိကြောင်း
လုပ်ရပ်
▁ရပြီး
▁နူ
▁ဘယ်ဘက်
ခံရသူများ
အပ်သည့်
▁အစိုးရအဖွဲ့၏
▁တနင်္လာ
▁ကြောင်းကို
▁အမေရိကန်လူမျိုး
="325
Car
လိပ်ချောင်း
ban
သို့ရောက်လျှင်
=307
link
ဌာနက
ဆုများ
ထင်မြင်
နူနာ
▁ရေးသားခဲ့သည့်
▁Bon
tation
="359
ရုပ်ပွားတော်ကြီး
ဥက္က
ရာစုတွင်
ဦးမည်
ကြည်နှင့်
ခွဆုံ
▁၆ဝဝ
လူမျိုးတို့က
ဟုဆိုနိုင်သည်။
▁မြေရိုင်းများ
=390
တစ်ခုဖြင့်
=358
=360
▁ပစ်ချ
▁ထပ်တူ
="1856
=1856
▁တိုက်ဆိုင်
ကျမ်းဂန်များ
="1532
ပါတော့သည်။
=1532
ငါးဦး
ဗယ်ရီ
="1531
=1531
=1972
▁သတ္တမတန်း
="1754
=1754
ကောဇာ
▁သန်းမျှ
="1501
=1501
အစတွင်
တပင်ရွာ
="1965
=1965
တာလဲ
=356
▁တစ်နှစ်တာ
ကောင်းစား
▁အသင်းသား
▁500
ကယ်တင်
=362
အရိုက်အရာ
▁ဆိပ်ကြီး
▁၂၄။
;10
=1860
="1860
DF
ó
▁major
▁ကူရိုဆာဝါ
▁မည်သို့မည်ပုံ
=343
с
=127
0120030
▁တဆက်တည်း
▁ဆက်နွှယ်သည့်
="343
▁မွန်းလွဲ
▁အရာဝတ္တု
ထက်မနည်း
▁KNU
▁စည်းကြပ်
ဒိုင်အောက်ဆိုဒ်
တစ်ခုရှိသည်။
=359
="309
▁Post
ခြင်းမပြုဘဲ
▁တုန်ဟုန်း
▁လက်ဖက်ခြောက်
ယေား
▁acid
0170180
အခွင့်အရေးများ
▁ရေနံစိမ်း
▁လေဆိပ်အဆောက်အဦး
▁Islands
▁ဖာပွန်
▁လုပ်ခဲ့သည်။
▁မကွေးတိုင်း
ဟရဘူတာ
▁ညီဖြစ်သူ
▁ရေနံ့သာ
ကာတာ
မြန်မာစာ
▁၆၃၉
ဒိုင်းဘူတာ
တယော
▁အိပ်စက်
ကန
ကုမ္မာ
အခြေအနေအရ
kar
▁အထူးတလည်
▁ရော၍
ဂျော်
▁ကောက်ရိုး
▁ဆန္ဒခံယူပွဲ
မီးတောင်
▁ဒိုင်ယာ
▁၂၁၈၀
▁ခွဲခြားထားသည်။
▁ပျ
▁ဧရာဝတီတိုင်းဒေသ
▁Muse
▁စူး
place
▁ဖြစ်ကုန်၏။
▁သဘောမတူ
▁ခိုင်လုံသော
ငယ်က
သဲကန္တာရ
အပြန်အလှန်
▁၁၂၄၇
▁ကမ္ဘာနှင့်
ဂန္ဓာ
▁၁၂၄၄
ထားရှိရန်
ဒွမ်
ဟာလည်း
▁အိပ်ပျော်
▁၁၂၆၉
="292
▁ဧရာဝတီမြစ်၏
▁၂၉၈
▁၁၂၈၃
="1972
itt
သမားတစ်ဦး
▁ပင်ဖြစ်သည်။
နယ်ပယ်များ
▁၂၁၂၀
ခြောက်ဆယ်
▁ကိုယ်စားပြုသော
▁ခတ
▁Hall
အငြင်းပွားမှု
▁Sal
လောက၏
▁ဆင်တဲ
ရေးပါတီ
ကြီးကွင်း
0170150
="319
▁Zin
ရော့ခ်
ထူးခြားသော
▁ရှေးကျ
▁၈၄၉
▁နှစ်သိမ့်
▁Gar
ဆယ့်နှစ်
▁တကြိမ်
▁ဆုံးရှုံးမှု
meter
ဆယ့်ရှစ်
▁၁၆၃
အာဏာပိုင်အဖွဲ့
▁ခန့်မှန်းကြသည်။
ဂျိမဘူတာ
ပတီး
ဖြစ်လာ၍
▁ဖော်ပြသော
ဖော်ပြသည်။
လိုသောကြောင့်
▁ပဋိညာဉ်
ating
▁ပန်ဟုန်း
▁ရာဟု
▁သတ်မှတ်ချက်များ
▁ထင်မြင်ယူဆ
အဘ
ကြောင်းသိရသည်။
ပါနဲ့
▁သက်တမ်းမှာ
▁ရောဂါပိုးများ
Li
22896
ရက်စွဲ
ခဲ့ပြီးဖြစ်သည်။
တောင်ပိုင်း၊
တကောင်
ဂုတ္တ
မကွာ
နှိုင်းယှဉ်လျှင်
:1
="355
အထက်တွင်
တွင်တည်ရှိပြီး
နေကြဆဲ
My
▁မရှိသဖြင့်
ဥက္ကဋ္ဌအဖြစ်
▁so
▁ရှုပ်ထွေးသော
▁ဆင်းရဲဒုက္ခ
မတ်မတ်
ကြီးများမှာ
တဲစုရွာ
▁စပျစ်
နန်းတွင်း
စမ်းသပ်မှု
ခင်က
မြော
▁ချမ်းသာကြွယ်ဝ
တွက်ချက်မှု
၂၆၅၅
လျင်မြန်စွာ
▁တစ်ပုံ
လိပ်ပြာ
ရေဝတ
▁တိုက်ခန်း
="279
▁Cal
ဗော့
=308
ush
▁ပဒ
▁ဒုတိယဝန်ကြီး
ပျောက်ပျက်
ပြုလုပ်သည့်
ရိုးမ
▁၂၃၃
=183
="183
လည်ကောင်း
▁စာသားများကို
နှစ်ဆင့်
များမှတစ်ဆင့်
ရရှိသူ
မှန်နန်း
▁လိဂ်
ခဲ့ကြောင်း၊
EA
=1626
="1626
▁တူသော
တစ်ယောက်ကို
ဟန
=353
ပါတီမှ
▁Hen
▁အတွင်းဘက်
="1456
=1456
ခြောက်ခု
▁ဖွံဖြိုး
မဝ
▁ရုပ်နာမ်တို့
=309
▁မွေတော်
▁ရောက်သော
▁နန်းရင်းဝန်
▁အခြောက်
မ်ား
တို့ကိုပါ
=1852
="1465
="1852
=1465
=319
▁ကွယ်လွန်သူ
▁ငါးခု
▁အရှေ့ဘက်ကမ်း
ပေါင်းစပ်ထားသည်။
▁၉၈၀
နေလေပြီ။
="1541
▁ဗြိတိသျှအစိုးရက
သို့ဝင်
ဟုခေါ်၏။
နာမ်စား
တလျောက်
=336
▁second
▁အဆမတန်
="336
▁ရုပ်ရှင်လောက
▁Class
▁သုတ်လိမ်း
ဖလဒါယကထေရ်
=292
▁တားရော့
▁ရည်ညွန်း
▁အင်းတရော်
▁ပီကင်း
▁Temple
▁ခရစ်သက္ကရာဇ်
တာ။
▁အစရှိသဖြင့်
▁such
တစ်ချက်
ကိုဆိုလိုသည်။
▁မည်သည့်နေရာ
▁ဆေးဘက်ဆိုင်ရာ
▁မိုင်းဟဲ
ဖြစ်ထွန်းသည်။
▁လိုသလို
=1541
▁၂၀၁၈ခုနှစ်
တိုးတက်ဖွံ့ဖြိုး
▁ဟမ
▁အုံးပင်စု
▁ရေးခြယ်
▁မိုင်းနင်း
▁ဖော်ပြထားပါသည်။
လူသိများ
ele
ရာကျော်
ရိုးရာယဉ်ကျေးမှု
▁ပျဉ်းမကုန်း
▁ကရင်လူမျိုး
အွတ်
▁သန်လျက်
="127
▁wave
ဖြူဖြူ
သရော
▁စင်စစ်အားဖြင့်
▁မူးယစ်
▁ထံသို့
မှုစနစ်
▁ကုတင်
▁ထင်ရှားလာ
ကံပေါက်
PU
ထောက်ပံ့ပေး
နတ်ရုပ်
▁မိမိနှင့်
pet
▁0
ပါရှိလေသည်။
▁မိန့်ဆို
lum
မြတ်စွာဘုရား၏
▁ဖြတ်သွား
ရတော့
▁long
▁ဝိုင်းရံ
▁စည်းမျဉ်းများ
▁ဟန်လင်း
▁ရွက်နား
▁ပေစာ
▁မြတ်စွာဘုရားက
စောင့်ထိန်း
▁၁၉ရာစု
ပြားများ
တစ်ပွင့်
အိုင်ကြီး
သမ်း
ထိုင်းမှိုင်း
▁ပီး
ကာလီ
အံ့ဩ
▁မန်ကပ်
စာအုပ်များကို
cell
အကြား၌
▁လမ်းတွင်
▁အလားတူပင်
ရေညှိ
▁ရောထွေး
▁ပန်တျာ
▁၁၃၂၅
ချုပ်နှောင်
▁ဆိုးဆေး
▁တာရာ
▁သေးသွယ်
နည်းနည်း
စစ်သူကြီး
▁ဆန်စက်
တစ်ပတ်
▁ဘီယာ
အသီးသီးမှ
▁Men
သူများမှ
▁ကြားသိရ
vin
ပေးနိုင်သည့်
▁Loc
ရုပ်ကြွ
▁တစ်ဖက်တွင်
တစ်လမ်း
▁ပါတီသည်
▁ပါဝင်ခဲ့သော
ကိုးကွယ်သူ
▁မရှိသလောက်
▁ကမ္ဘာပေါ်၌
ခန့်အထိ
▁အာမခံချက်
ရပ်စဲ
▁၄၀၁
▁မနာလို
ရေပူ
ပြတ်ရွေ့ကြော
ကြီးထွားလာ
="351
ရွှေကျင်
တုံကျေးရွာအုပ်စု
▁Thin
ဆန္ဒပြပွဲ
▁သတ်မှတ်ပြီး
စာပေနှင့်
ံသ
▁ဟန့်တား
ဖွယ်ကောင်း
▁ပျော့ပျောင်း
ပွဲ၌
▁ပြည့်နှစ်အထိ
နေခဲ့ရသည်။
iss
ပန်ကော်
ကုက္ကို
ပါတီကို
ရက်နေ့အထိ
▁ဆားချက်
▁သရက်မြို့
ချက်လုပ်
ရာတွင်လည်းကောင်း
▁သန့်ရှင်းရေး
ပုခက်
▁ဖာဝေါ
ဒေသတို့တွင်
▁Pya
▁ကုန်းဆာရွာ
▁"'
ဆောင်ရွက်ပေး
▁ဖန်ခါး
▁လက်မအထိ
▁ဆိုလိုခြင်း
▁ပညာသင်ဆု
တောင်နှင့်မြောက်
▁Van
▁၂၂၀၉
▁ကာလပတ်လုံး
▁ဂျော်
▁ကနန်း
▁လယ်တီဆရာတော်
အတွေး
▁ကြာရှည်စွာ
▁ကိုရင်
ရှိတတ်သည်။
▁ချပေး
▁၁၀၇
▁နေထိုင်ရန်
▁အေးချမ်းသာယာရေး
လေးကို
▁ထိုသူတို့သည်
▁သော့
▁ဗကပနှင့်
▁Pen
မှီး
ခင်ညွန့်
▁ကျောင်းသို့
စစ်သည်များ
▁ဗော်
▁ရှိကြပြီး
▁အနတ္တ
နေသာ
ပြိုင်ပွဲကို
▁လမ်းဘေး
=279
နှစ်ခွ
▁၄၂၉
▁အရိ
တွင်ပါရှိသော
နုံ
ညျ
=180
="180
non
၁၂၀
ထားပေသည်။
rama
▁အရွက်ကို
▁လူကြိုက်များသော
ပတ်ပတ်လည်
=355
="1907
=1907
▁Paul
မုရ
မကျေ
tch
▁လယ်ကြီး
▁မကျည်း
လာတတ်သည်။
▁အစစ်
=1918
="1918
▁Charles
နေထိုင်သည့်
=1909
="1909
=1878
="1878
ပေးသောအခါ
▁Ton
▁အန
ညီလာခံတွင်
▁Record
▁ကျောင်းဆောင်
ets
rror
▁နည်းတူ
မဏ္ဍ
▁ထိုလူ
▁နှလုံးသား
=351
▁အယူအဆများ
သွားသည်ကို
မြော်
မနား
round
သောအသံ
လက်မခန့်
▁ရှိသည်ကို
လှု
‍
▁အတင်းအကျပ်
=339
▁Buthidaung
▁Kyaukpyu
▁ကွန်မြူနစ်ပါတီ၏
▁ပိုတက်ဆီယမ်
▁လက်ဝါးကြီးအုပ်
=119
▁အေအိုင်ဒီအက်စ်
နှိုး
ဖျဉ်း
▁မေဆွိ
="339
▁ကြယ်တာရာ
▁most
▁ပြည်လုံးကျွတ်
▁will
▁စော်ကား
▁ပြစ်ဒဏ်ချမှတ်
="310
ဂေဇက်
▁ဘဲဥပုံစံ
▁မဟာဝိဇ္ဇာဘွဲ့
▁သတ်သေ
ware
▁ဆုံးပါး
ဓာတ်အား
baung
tar
တွင်းရွာ
▁အဖူး
▁အဆက်အနွယ်
▁ပင့်ကူ
▁ပုရိ
▁ရာစုနှစ်အတွင်း
နီးနီး
▁မအဲဘူတာ
မပြေ
▁အဝန်း
▁ဂုဏ်တော်
▁မှတ်ဉာဏ်
▁ဥပဒေနှင့်အညီ
ခြောက်သွေ့
▁မန္တလေးမြို့၌
ထိတ်
၁၉၉၇
နေမျိုး
haw
မှာလဲ
တျ
▁back
▁မှီငြမ်း
နားတောင်း
▁ဖေါ်
▁သွားသည်။
ိံ
ောက်
၏မြို့တော်
တော်သူ
အာခါ
▁ဖြစ်ရမည်။
ဘက်ဆိုင်ရာ
မိတ်ဆက်
အစဉ်အလာအရ
▁နတ်ချောင်း
ခုတ်လှဲ
ဆုံးနှင့်
တိုက်ခိုက်သည်။
▁Q
▁၃၃၁၁
အမျိုးအမည်
▁ခံနိုင်
▁၁၂၉၇
▁Glo
ings
▁နွေအခါ
မည်သို့
နီနီ
အကဲ
ဗီဇာ
နိဿယ
▁မာလ
▁သာရ
▁တိမ်တိုက်
▁ဆေးရွက်ကြီး
စုဝေး
မိုးရေချိန်
▁တွင်းနက်
အတ္ထုပ္ပတ္တိ
ညွန့်ပေါင်း
အသီးအသီး
▁ဗညားဒလ
ပါလိမ့်
မလေးရှား
▁၁၂၁၃
New
▁ကျီဝန်
▁၁၈၁
အကျော်
အငယ်စား
▁ဖြိုဖျက်
ပြည်သူလူထု
▁သင်္ဘောဖြင့်
မန္တလေးတက္ကသိုလ်
▁ဂီတစာဆို
လှ၍
တရော်
▁စေတီတော်တစ်ဆူ
▁မီးယပ်
ပြေးဆွဲ
အစီအမံ
မိပြီး
ဦးထုပ်
ဇီးကုန်းရွာ
ငိုက်
▁ဘုရင်စနစ်
ထုတ်လုပ်နိုင်
မင်းဆက်၏
▁မြစ်ဆုံ
နည်းများကို
လက်ဖြင့်
ငင်းရွာ
မြို့နယ်ခွဲ
ဝိုင်းကြီး
▁Mil
▁နောက်ပါ
▁ဝတ်ဆံ
အသျှင်ဘုရား
▁မြန်မာမင်းများ
▁သတ်ဖြတ်ခြင်း
ံး
="302
▁လူတစ်ဦးချင်း
နေမည်
▁ဟူ၏။
ောင်း
▁ဗဟန်း
မဂ္ဂင်
▁မအူကုန်း
ပေါင်းသင်း
▁မြို့တော်ကို
မှားယွင်း
ကျောင်းဆောင်
ဥတု
▁CS
▁အရာများကို
▁အရွက်များသည်
▁၂၁၇၂
▁အသုံးပြုပါသည်။
▁Pale
ကန်တော့
▁ဤကျမ်း
▁ရှေးခေတ်က
▁ထူးချွန်ဆု
▁လုပ်ပိုင်ခွင့်၊
ဖွယ်ကောင်းသော
လတ်၊
="324
သာမိ
="311
ဂျပန်နိုင်ငံ
="317
ရေးဆွဲခြင်း
▁တောင်ထူထပ်
▁ဝဋ်
တို့ထံတွင်
▁၂၆၈
▁ရခိုင်ရိုးမ
ပြထားသည်။
သမ္မတနိုင်ငံ၊
▁တိုက်ထုတ်
:5
အမျိုးသားကျောင်း
▁ပလပ်
မြီ
▁လိန်
kha
=172
မွေးမြူခြင်း
="172
ကျင်းပလေ့ရှိသည်။
▁လုပ်နေ
=175
=177
EP
▁တကသ
="177
ress
="175
ရပ်ရွာ
သတ်မှတ်ထား
သွားခဲ့ရသည်။
sky
▁တစတစ
ကော်ဇော
=310
ဒွါ
▁ယိုးဒယားနိုင်ငံ
▁စသည်များ
cin
▁ခိတ
အနုပညာရှင်များ
=1015
="1015
▁ဒုတိယအဆင့်
ဒီဂရီကောလိပ်
မပြ
▁မပြုနိုင်
မျိုးကွဲ
▁စာပေဆိုင်ရာ
အဖြစ်ပြောင်းလဲ
ရုပ်ကို
ပေးပါ
oma
▁အင်းကြီး
မှတ်တိုင်
▁အမျိုးသမီးတစ်ဦး
လော့။
▁ဂျပန်နိုင်ငံရှိ
ikkyi
ကုန်ထုတ်လုပ်ငန်း
ဝိနည်း
=302
ကြေညာစာတမ်း
=317
=1930
="1930
="1455
=1455
ကောင်းအောင်
လူမျိုးနှင့်
ကျိန်
="488
▁အစိတ်
ဖြန်
▁ပြန်မ
ဆိုပိုတေးမီးယား
▁ဂျားဗားကျွန်း
▁ဝိုင်းလ်ဒ်
=332
WHO
▁စဉ်ဆက်မပြတ်
▁အမြဲတစေ
=488
ပရိက္ခရာ
▁ကွန်ကရစ်
▁တံသမ္ပယုတ္တကာ
▁စုန်ဆင်း
နေသေး
="332
အစိုးရအဖွဲ့၏
▁မန်ချူးရီးယား
▁ပင်လယ်ဓားပြ
ပြင်းထန်သော
=1469
▁စောင့်ရှောက်မှု
="1469
▁ဇာတိမာန်
▁ဖွံ့ဖြိုးလာ
တရဖျား
▁ဖွဲ့စည်းရန်
▁အခါက
ipaw
▁ဖျက်ဆီးပစ်
▁ဝါတ
စိုထိုင်း
▁ရွာပုလဲ
="119
သို့ဝင်ရောက်
▁ဖတ်ကြား
▁ရာသီအလိုက်
တက္ကသိုလ်သည်
ming
▁လက်နက်ခဲယမ်း
▁ညောင်ဝန်း
▁ဦးဝင်း
ဂ္ဂါ
ခြင်းစသည့်
▁ကီလိုမီတာခန့်
▁ကျမ်းပြု
အမှတ်အသားများ
▁မဂို
မရှိသူ
▁နှစ်ထောင်
▁ဒပ်ချ
▁အမည်ပေးထား
▁year
ငယ်လေးများ
ဥပဒေပုဒ်မ
တိုး၍
▁ကူညီရန်
▁ထိုစာ
ထိန်းချုပ်ရေး
▁အနောက်ဖက်တွင်
▁စပ်လျဉ်းသော
▁Sir
▁ပေါင်းစပ်၍
တစ်မြို့
▁တည်ကြည်
itis
▁ငယ်မည်
စသည်တို့ဖြစ်သည်။
သဗ္ဗညု
▁ဖြည့်ဆည်း
မွေးနေ့
▁ထိုင်နေ
ဂျဲ
ဘု၊
လှူဒါန်းခဲ့သည်။
ရပ်စဲရေး
▁ခရီးလမ်း
လာပါသည်။
▁မမြင်ရ
ကြပြီးနောက်
▁အမဲသား
▁ဆေးဝါးများ
ဟွတ်
▁ဒိုးတန်း
တိုးပွားလာ
မြို့သစ်
read
▁သပွတ်
ဆုံးရှုံးမှု
▁မှာကြား
▁ရဟန်း၏
▁ချုပ်ကိုင်
အပတ်
mes
သဲကုန်းရွာ
သက်ရှည်
▁၁၇၀
ပြောရလျှင်
ock
▁ဒေသအတွင်း
▁သီချင်းသည်
လေးဆူ
▁ကိုယ်တွေ့
▁ဖေါင်
ချိဂို
ရက်စက်ကြမ်းကြုတ်
▁၄၅၃
▁7-
▁ကထိန်
ကမ္မဋ္ဌာန်း
▁အစ္စ
၏မြောက်ဘက်
▁ကလေးမြို့
တွန်းလှန်
ကြောက်ရွံ့
နှီးမြှုပ်နှံသူ
▁စသည်တို့မှာ
ခြေတော်ရာ
စီမံကိန်းကို
ခံစားခဲ့ရ
▁နမ္မ
ပြုကျင့်
▁ခန့်မျှ
ရစေရန်
▁လက်တံ
ခြိမ်းခြောက်
▁ဘတ်စ်ကား
▁နေစဉ်
နိုင်ဖို့
▁သဇင်
ပြောဆိုခြင်း
▁ဖြ
▁မူဝါဒများ
ပွင့်လင်း
ကောင်းကျိုး
ကြ။
▁ရွှေတိဂုံဘုရား
▁အဝိဇ္ဇာ
▁စားကျက်
အောင်နိုင်
ဧပြီလ
ခွာ၍
ယီး
အလယ်စုရွာ၊
မိအောင်
ခြင်းတို့ဖြင့်
▁ဗုဒ္ဓမြတ်စွာ
နှမ
▁ရွံ့
▁ယင်းသူတို့
▁မဟုတ်ပဲ
သေဆုံးပြီး
▁ဥပဒေပြုရေး
အလတ်
ိုင်
ရရှိပြီးနောက်
ဆင်ဖြူ
နေထိုင်သူများ
▁လက်ထက်၌
သံလွင်
▁ဂုဏ်သတ္တိများ
▁ဌာနေ
▁Ber
ark
ဗီဇ
စိုက်ထူ
▁ဥဿ
▁6
သို့ပြန်လာ
▁အရေးကြီးဆုံး
▁ပိုင်ဆိုင်ထား
▁နွား၊
▁အလုပ်အကျွေး
စေတီတော်သည်
▁အလို့ငှာ
▁ခွဲခြားသတ်မှတ်
▁Top
ကြာသော်
စမှတ်
▁ပြန်ရောက်လာ
▁သန်လျင်မြို့
ရောင်းဝယ်
▁emo
▁၁၁၆၄
▁ရောက်လျှင်
▁အရွက်သည်
လာရွာ
▁မြန်မာပြည်ကို
ဖျော်ဖြေမှု
ဆိန်
▁၉၅၉
▁၁၄၀၀
▁၁၁၁
▁ရခိုင်လူမျိုး
▁၂၁၆၇
ဝမ့်
▁ဝတ်စုံ
ပြဿနာကို
▁နုတ်ထွက်ခဲ့သည်။
▁ခရစ်စမတ်
▁ဖွဲ့စည်းသော
ပေးခြင်းနှင့်
▁အလွန်အကျွံ
=179
တို့အဖို့
=311
="179
ပြုစုခြင်း
လက်လွတ်
=1036
▁ညဘက်
▁ကုဗ
▁လွတ်လပ်ရေးရရှိ
="1036
▁ထိုစစ်ပွဲ
="1698
=1698
▁တစ်နှစ်အတွင်း
▁ကျခတ်
မလွတ်
ကြကုန်သည်။
▁ချို့တဲ့
▁ဖြစ်လာခဲ့ပြီး
တ္တော
▁ဖုံ
▁ဖစ်
အင်ဒီ
သားဖြင့်
▁Ran
=1450
="1450
▁ဦးမင်း
="1059
=1059
▁၁၂၁၄
ခုမြောက်
ဂရင်း
▁ဆန့်ကျင်သော
ညီညီ
-4
="1940
=1940
ရည်း
▁ခိုင်းစေ
▁you
▁ဂင်္ဂါမြစ်
▁ဘန့်
ကွန့်
တဆင့်
▁ဝန်းကျင်တွင်
tkai
▁ကာလီဖိုးနီးယား
အကျော်အမော်
▁စတီဖင်
▁အစာရေစာ
ကော်မီတီ
0120020
▁ဒေလီ
Electro
0070030
Archive
နာမည်ပေးခဲ့ခြင်း
▁ကြခတ်
နေကြရသည်။
မြင့်၍
▁အော်ဟစ်
▁Kyet
ကမ္ဘာလုံးခြမ်း
အရပ်ရပ်ကို
အကြို
▁ဗြိတိသျှဘားမား
=221
ဘက်လိုက်မှု
▁Gyo
▁လွှတ်တော်တွင်
ခဲ့သူလည်း
▁အစဉ်အတိုင်း
နှစ်ပင်
▁ထီးနန်းဆက်ခံ
▁ဦးဘဂျမ်း
mus
▁ဝမ်းဘဲ
▁၃၅၉
▁Hol
▁2|2
▁တောင်တွင်း
▁ဒေါင်းဒင်္ဂါး
ဇစ်မြစ်
ကျော်လွှား
သုန္ဒရ
▁နောင်တ
စည်းကမ်းချက်များ
▁၂၅။
action
▁ဦးထွန်းရှိန်
လျင်မြန်
ပေါက်သော
သားသမီး
လှိုက်
▁ဖြစ်ခဲ့လေသည်။
▁လေလံ
▁ယဇ်ပူဇော်
▁လောင်းရှည်
▁သနပ်ပင်
ဘုတ်အဖွဲ့
=144
▁အတည်တကျ
▁ဦးအေး
▁မရမ်းချောင်း
▁မြို့မရပ်ကွက်
ရှမ်းစုရွာ
▁အိုင်တီ
▁အသိုက်ကို
ခန့်မျှ
▁ထိုးသတ်
▁ဦးတို
ထားသည့်အတိုင်း
▁သုဓမ္မာ
ကောင်းသူ
▁သံချပ်ကာ
မှာရှိတဲ့
ရူပီး
အားလုံးအတွက်
▁သတင်းဌာန
၌ဖြစ်စေ၊
▁ကွင်းကလေး
▁နားမလည်
နယ်အတွင်း
lus
လာသည်နှင့်
▁ဇာစ်မြစ်
▁ပူတာအို
▁ထင်ဟပ်
▁သင့်မြတ်
▁ခံရသော
▁ဘုရင်သည်
▁စာရေးသား
ဆရာတို့
▁၆၁၂
▁ကမော့
များဆီသို့
▁Hill
▁ကန
▁အပြေး
▁မုဆိုးမ
မပေးနိုင်
တစ်ခြမ်း
တခုလုံး
ငါ့သျှင်
အရင်းအနှီး
တံကို
▁there
လုံ့လ
ပစ္စယော
▁ဤနေရာ
မွတ်စလင်
▁ကျုံဖါး
ဖွေး
ကြိယာ
တည်ဆောက်ရန်
▁၂၅ဝ
အဆိုအရ
ခိမြို့
ထေး
နောက်ကျ
▁ဘာမျှ
▁ဘုရင်များ
ကုမ္ပဏီ၏
ပြိုင်ခဲ့သည်။
▁၂၈၀
လ်တန်
▁တမံ
အတွင်းပိုင်း
သင့်တော်
▁ဖြစ်ပေါ်လာပုံ
ists
▁ဘောဂ
ဆုတံဆိပ်
မရှိခြင်း
▁သွင်းကုန်
မြစ်ဝှမ်းဒေသ
ကြမ်းတမ်း
စစ်တွေ
လိုဏ်ဂူ
SC
ထွက်လာသော
▁ကျောင်းသားဘဝ
လိုက
▁သေးသည်။
▁Buddhist
Master
▁မြေပြင်ပေါ်
▁ဇာတ်ကွက်
▁ဆင်းသက်လာသော
▁ပြောင်ချော
▁ဆေးခန်း
▁8
▁လွန်မြောက်
သေဆုံးမှု
ရုပ်ရှင်ပွဲတော်
မွန့်
▁နေရာဖြစ်သည်။
▁နည်းပြဆရာ
▁use
▁စာချုပ်ချုပ်ဆို
▁အောက်တိုဘာတွင်
▁ဆူပါနိုဗာ
MC
အိုင်အေ
မြှော်
▁ရေထု
▁ပါဝင်ပါသည်။
▁သိပ္ပံဘွဲ့
▁ဖွဲ့စည်းပြီး
ဦးဖြင့်
ကွဲပြားမှု
talin
၍သော်လည်းကောင်း
▁နေအိမ်တွင်
စပီ
၂၀၀၆
▁ဖါ
▁Er
ကျယ်ကျယ်
▁အလယ်ကျွန်း
လမ်းမှ
▁ငွေကျပ်
▁အကယ်ဒမီဆု
▁၈ဝဝ
▁မည်။
အသံကို
▁ရုန်းကန်
mail
မွန်ရွာ
▁သုံးရက်
▁လက်တင်ဘာသာ
လာရီ
▁စွပ်
cept
▁သောင်ကြီး
="221
▁ဟန
▁နောက်တစ်
▁နှုတ်ထွက်
▁ထံတွင်
ကလာပ်စည်း
ချိုက်
▁လင်းတ
▁ကွယ်လွန်ခဲ့
မြေအောက်
▁တစ်သောင်း
▁ဒွေး
AO
စုံတွဲ
▁ကြီးကြပ်မှု
="1468
=1468
များဖြစ်၏။
ဂလ
သိမ်းပိုက်ရန်
ဒင်္ဂါး
များရှိ၍
ality
သောအခါမှ
▁ပြည်ပသို့
bb
▁အစစ်အမှန်
▁ယိမ်း
ဗရာ
▁သဒ္ဒ
ဇေး
▁သေနာပတိ
တစ်ယောက်အဖြစ်
▁၁၅၉၄
သုံးထောင်
▁ဂါး
="710
ကွန်ဗင်းရှင်း
ပရိဗိုဇ်
▁ပါလောပါကယ်
=118
လျော်ကြေး
▁အမြင့်မားဆုံး
▁Project
▁နျူထရွန်
ပေတရု
ဥဇနာ
▁Ltd
အပြန့်သရ
▁begin
ပျောက်သွား
▁လူနေအိမ်ခြေ
▁ဘန်းယဉ်
▁မိခင်၏
=710
▁မသိရပေ။
▁ရွေ့ရှား
▁၎င်းက
▁စည်းကမ်းချက်
ယဉ်ပါး
="118
များအကြားတွင်
▁Australia
▁ဒစ်ကင်း
ချိုးဖောက်မှု
လှိုင်၊
▁မြင်ကွင်း
တိုင်းလိုလို
For
▁ကောင်းကင်ဘုံ
▁ကြီးသော
အရှိန်အဝါ
▁ဘုရားဖြူ
▁သူ့ဖခင်
ကျင့်ထုံး
▁တင်းနစ်
ကိုပြန်လည်
ဂိဘူတာ
▁တနည်းအားဖြင့်
▁မိုင်းသောက်
▁မိုင်းဇင်း
▁ဓလေ့ထုံးတမ်း
▁ပန်ကြူ
▁ဓမ္မတာ
▁ဆက်သွယ်ရန်
သွားသောကြောင့်
ဝေရ
ဇီးယား
ခေါင်းပါး
▁အားရ
▁၅ဝဝဝ
ကြည့်ရန်
▁ဟိုက်ပါ
▁မန်ကျောင်း
▁အမှန်အားဖြင့်
အတူတူ
ပြီးပါက
လုံးမှာ
▁အရှင်အ
▁ဆင်ခြေဖုံး
▁သွေးတိုး
▁ဝက်တိုး
▁ပေါက်ကုန်းရွာ
လှသောကြောင့်
▁အံ့
▁လူကြီးများ
;&
OR
▁ပြေးလမ်း
▁စက်တင်ဘာတွင်
ဝင်ဆံ့
ရုပ်အလောင်း
▁ကပ်လျက်
လူမျိုးများက
▁ပညာရပ်ဆိုင်ရာ
ဆုံးဖြစ်သည်။
▁Shin
နေကာ
ပြိန်း
▁အညွှန်း
ရွှေဝါ
▁မြေနု
▁ရှိသမျှ
▁စိတ်ထဲ
▁စီ၊
▁ကတိုး
="1002
မြင့်တက်
ရရှိစေရန်
တည်ဆောက်ခဲ့ခြင်း
လက်မှတ်များ
ပြခဲ့သည်။
မြင်းမိုရ်
▁ဖြောင့်
ဧကပေါင်း
▁အထောက်အပံ့ပေး
▁နရပတိစည်သူ
▁မာရ်
တစ်စောင်ကို
▁ဗောင်း
▁ဘလော့
ချမ်
▁ဖိတ်
နုဂ္ဂဟ
▁တစ်ချိန်တည်း
သာသနာ့
▁ထိုဘုရား
mor
uri
▁မြောက်ဘက်သို့
ယိုးဒယား
ဌာပနာ
▁အစိုးရအား
▁Inter
ချီးကျူး
▁တစ်ခါက
▁ချောင်းကြီး
ဘမ်
▁မြို့တော်အဖြစ်
▁ထိုက်
▁Im
ဒေသဆိုင်ရာ
▁စကော့တလန်ပြည်
သည်မှစ၍
▁၇၄၇
▁ငါးကြီး
ပ္ပါ
ပူဇော်ပွဲ
၁၉၈၉
တစ်ဆောင်
ခဲ့မှု
လက်ခုပ်ပင်
အကာ
ပတ်လမ်းကြောင်း
ခြွေ
▁၂၀၁၉ခုနှစ်
ကုလားအုပ်
ပြားပြား
▁မြေကွက်
▁သမန္တ
▁ကျောင်း၌
▁Bay
ရရှိနိုင်သော
▁အင်းဝဘုရင်
88
▁တွယ်
သမားများက
စက်ကွင်း
အားကစားနည်း
ထွန်းအောင်
တောအုပ်
▁ပိုးကောင်
▁စစ်ပြေငြိမ်း
▁ဘွဲ့ကြို
နေသည်မှာ
လူ့အဖွဲ့အစည်း
၁၉၄၅
သင်တန်းများကို
bur
▁သောကြာနေ့
▁ဘာကြောင့်
ရှိမ
_1
▁အခြေအနေမှာ
▁ပြန်သည်။
ရပ်ဆိုင်း
ျဲ
ရုံဖြင့်
▁ဝိနယ
လုပ်ငန်းများမှာ
701507
▁ဘုရင်အဖြစ်
▁Thing
▁ဝန်းသို
▁သူတို့အား
▁မာန
အလုပ်ရုံ
640
▁စာများ
တဲ့အခါမှာ
▁အရာရာ
▁အဖျက်
="265
▁သက်ဦးဆံပိုင်
အကျင့်ကို
▁လေးအိမ်တန်းရွာ
သင်္ခါရ
ဇေယ
ယွီ
ချေမှုန်းရေး
hara
ထိတွေ့မှု
စီပီ
စတုန်း
▁ဂျပန်လူမျိုး
▁Wund
ပြုပြင်ခြင်း
ခံရသဖြင့်
နားကျေးရွာအုပ်စု
▁ဝီကီပီးဒီးယား
ဂျွန်း
အဲလ်
sign
="200
▁ဤအကြောင်း
ရှိခိုး
ကြည်၊
မုခ
▁နှစ်ပြည့်
▁ကြို့ပင်သာ
လှ၊
▁ဆားပြင်
ချက်များနှင့်အညီ
မရှိပါက
▁ရေးသားခဲ့ပြီး
▁လုပ်ဆောင်ရန်
▁ပေတော
▁ဖရက်ဒရစ်
=1002
ကလေးများနှင့်
▁လက်ထပ်သည်။
▁ကေအမ်တီ
▁မန်းဘဇံ
=335
▁Magazine
▁ထူးထူးခြားခြား
▁သခင်ထွန်းအုပ်
▁အမြတ်တနိုး
▁အက်စ်အက်စ်အေ
သံဝေဂ
="335
ကြီးမျိုး
▁ဟမ်း
▁မြင်းဝန်
ဉာဏ်တော်
▁ဘုရားမြတ်စွာ
မွှန်း
="1424
=1424
▁ဍ
သူတဦး
ပါလို့၊
▁Naung
▁ဒါယန်း
▁ဖုခုအိုခခရိုင်
ချလိုက်
ပြုလုပ်ကြသည်။
အနိမ့်အမြင့်
▁ရက်အတွင်း
▁တောင်ပို့
ရင့်ကျက်
ထားလေ့ရှိသည်။
duction
when
▁နာမည်ရ
▁သာသာ
ဆိုးဝါး
ပုလွေ
သိုမှီး
ဟုခေါ်ဆို
udaw
▁၂၁၇၇
▁စသူတို့
▁ဗျူဟာ
▁မဟုတ်။
များထဲက
▁People
▁ဗမာနိုင်ငံလုံး
ပြီးသည်နှင့်
ဖေါ
▁ပြုစုရေးသား
အဝိုင်း
▁ရှေးလူ
▁ထန်းကုန်း
▁Thea
▁ချင်းတွင်း
▁မတတ်နိုင်
▁စကားများ
ိုက်
ect
တွင်၎င်း၊
▁Land
▁ကျောက်ဆစ်
▁အပူရှိန်
▁မဆွတ်
စာတိုက်
စကော့
▁တစ်ကြိမ်လျှင်
ညူ
ဒရိတ်
▁time
▁ပြစ်မှုကျူးလွန်
▁ပတ်ဝန်းကျင်သို့
နုရောင်
▁ကြေးနီ၊
▁ဘုရား၏
များဖြင့်သာ
▁ရန်ကုန်တွင်
▁http
တခါ
စင်စစ်
တံဆိပ်များ
ပေါ်ထွက်
မြို့ဟောင်း၏
▁ခုနှစ်ခန့်တွင်
မြို့တော်ခန်းမ
လုံးကျွတ်
ဖွဲ
▁အကျပ်အတည်း
▁ခွင့်မပြု
ပါးလွှာ
▁Kingdom
ဒကာ
မိတ်ဖက်
azole
▁ကျေးရွာပေါင်း
သော်ကြောင့်
ဆက်နွယ်
az
▁နတ်များ
▁တောင်စွန်း
▁၅၄၅
▁မာရီယာ
▁ညွှန်ကြားမှု
▁ပညာရပ်များ
▁လူနာများ
▁တမန်တော်မြတ်
အလယ်ပိုင်းတွင်
ector
သွေးကြော
▁မိုင်ခန့်အကွာ
▁မှတ်ချက်ပြု
ပုဇွန်
▁ဝေါ်
=157
သွက်
သလ
ကိုယ်တော်
▁အုပ်တွင်း
ထားရှိသော
▁ပရိုတက်စတင့်
ဟောကိန်း
မြောက်မြားစွာ
▁ပေးရသည်။
▁၁၃၀၆
ပိုကြီး
မလှ
နောက်ဆက်တွဲ
:2
ဆိုဗီယက်
▁ငုံး
▁အတွေ့ရ
▁ခေါ်ဝေါ်ကြ
based
နေကြပြီ
▁တူးချောင်း
မေလ
="971
="157
သန္တာ
လွှတ်တော်က
▁ထွက်ရှိခဲ့သည်။
ဖြစ်မြောက်ရေး
▁ယောက်အနက်
ရှုခင်း
▁အကြည်
မှတ်စု
ပြိန်ရွာ
▁ယူဆောင်သွား
rum
၁၉၉၀
ာနံ
▁ကွန်ဂို
▁လင်းယုန်
ပြုလုပ်ရာ၌
▁ဘရန်
ထွန်းကားလာ
ငယ်သည်
တစ်ယောက်က
▁၂၉၀
▁Ten
သေး၍
အစဉ်အဆက်
▁ပေါက်သည်။
▁ထိုးစစ်ဆင်
▁မော်တာ
RA
ဒေရွာ
အရှည်ဆုံး
ပလက်
▁min
ထွက်နေသော
▁အမျှင်
▁ကွယ်ပျောက်
▁စကော
သေဆုံးပြီးနောက်
ဗာရီ
▁George
▁ဆန်ကန်
▁၃၄၈
pre
▁ပညာရေးဆိုင်ရာ
▁တစ်ခုဖြစ်သော
▁၉၄၉
▁ဟူ၍ဖြစ်သည်။
▁ဦးဆောင်ခဲ့သည်။
ဝါသနာ
▁ယောက္ခမ
▁Object
▁တစ်ဦးလည်း
နိုင်ငံတော်၏
▁ဝါရင့်
▁ပထမကမ္ဘာစစ်ကြီး
▁စွမ်းဆောင်ရည်
တတ်ကျွမ်း
မေရီ
▁မွေ့လျော်
လွှတ်၍
▁ဥပါသကာ
0170140
ett
rich
▁America
▁၁၂၉
▁၃၆၈
အငြင်းပွားဖွယ်ရာ
ဟိရ
သည်ဟုဆိုကြသည်။
လူမျိုးပေါင်းစုံ
ကြည်နူး
He
6.
=265
အသစ်တစ်ခု
ခံစားမှု
တွင်းများ
▁Khan
▁ခိုအောင်း
လေ၏
▁မိုးခေါင်
▁ဥဩ
စလို
0170050
▁ကရ
▁နတ်တို့
လက်ဖက်
▁အချက်များကို
▁တစ်ပိုင်း
စေခိုင်း
▁၁၄၃၀
▁၁၁၉၄
▁အပ္ပ
ula
bil
▁ခေ
တစ်ဦးအနေဖြင့်
▁မလေးရှား၊
ပေါက်ဖွား
စိုက်ထုတ်
▁ဟီလီယမ်
▁တစ်စ
="992
▁India
ဗိသုကာလက်ရာ
▁Hk
ုင်
သိရှိနိုင်
တောင်ဝှေး
မဉ္ဇူ
▁မိုင်းဒခွန်
▁သတိုးမင်းဖျား
▁Linux
▁House
▁ရီနွဲ
▁ဆိုသည့်စကားရပ်
▁ကောက်ချက်ချ
▁နန်းပုလင်း
ညနေ
▁ကျိုင်းလွန်း
=992
တစုံတရာ
▁အထိန်း
▁Wide
ာင်
▁ချယ်ရီ
ဖွံ့ဖြိုးရေးပါတီ
▁မကြာခင်
▁လင်မယား
တစ်ယောက်ဖြစ်သည်။
▁အရှေ့မှ
▁နေရာများကို
▁ဟယေားဂိုးခရိုင်
▁နေကြသည်။
သဖြန်
▁Kyaw
▁အစဉ်လိုက်များ
▁၁၂၆
▁မြို့တော်၏
▁၄၃၈
▁card
လျက်ရှိနေ
▁Up
မတူချေ။
သက်ဆိုင်
လက်မှ
▁ဧတဒဂ်ရ
=100
မတူသော
▁ထိုနေ့တွင်
anghk
;6
▁အခြားထင်ရှားသော
▁၂၈။
▁ပျဉ်ပုံ
လီယံ
▁အပေါ်မှ
လာနိုင်သည်။
▁တီးဝိုင်း၏
ဗြူ
▁နန်းမွန်း
▁ကျောက်စာများ
SL
အဖြစ်အသုံးပြု
▁အသီးအရွက်
မြို့အဖြစ်
▁မိခင်မှာ
="80
▁ကဏန်း
▁40
▁ဆောက်လုပ်ထား
▁နိုင်၏။
နည်းလမ်းဖြင့်
ရှေ့တော်
ထောက်ရှာ
▁စည်းဝေး
▁၁၁၂၅
သမိုင်းဝင်
▁တစ်ပေ
ons
ပတ်ပျိုး
▁Bur
ပြီဖြစ်ကြောင်း
▁နေထိုင်ခဲ့ကြ
get
ဇိန်
မှန်ကန်သော
မြန်သော
▁ဂျပန်တပ်များ
မှုမရှိသော
▁ရူပဗေဒပညာရှင်
767
ဖျက်သိမ်းခဲ့သည်။
▁၂၂၀
ကျင်းပသည်။
▁ရောက်လာသည်။
သံဖြင့်
▁ရှမ်းစုရွာ
▁ထုတ်ဝေခဲ့သော
တော်မူသည့်
▁၁၂၉၁
▁Cas
▁တိုင်းပြည်များ
စေရမည်
ထက်တွင်
▁ပူးပေါင်းပါဝင်
▁အုပ်ချုပ်သည့်
က္ခာ
မှာကဲ့သို့
▁ရှိသည့်အနက်
ကုဋိ
▁form
▁၂၀၀၉ခုနှစ်
▁သင်္ဂ
အပိုဒ်
▁အဿ
▁ကြီးမားစွာ
▁စောက်
တုံ့ပြန်မှု
reg
မှန်ကို
▁ခြေချောင်း
▁ဘာသာရေးနှင့်
ရှိသည်၊
ဖလှယ်
▁အနောက်ဂျာမနီ
မီးယား
▁ရဟန်းခံ
▁တည်ရှိ၏။
ဇီးကုန်း
ကင်းရှင်းရေး
▁ဝယ်ယူခဲ့သည်။
▁တစ်ယောက်တည်း
တပိုင်း
ဗညား
အာနိသင်
▁နေနှင့်
ရဲအောင်
နှိမ့်
▁အခွင့်အရေးကို
ဆံပင်
▁အလောင်းဘုရား
▁ကျူးဘား
တန်ရွာ
မပါဝင်
▁၁၄၈
▁မတူပီ
တစ်လျှောက်၌
ချို့ယွင်း
▁ယောကျ်ား
▁ခြေလှမ်း
ကြည့်ပါ
▁သက္ကတဘာသာ
▁လုပ်ရန်
▁ရေနီ
▁နေရပ်
▁dec
ပေးသဖြင့်
သထုံ
▁အယ်လီ
ပေါင်း၍
စပိန်
မှီဝဲ
▁ပြည်ထောင်စုမ
မိစ္ဆာ
အကွာ
▁၂၁၈၄
ညင်
▁လေ၊
▁ရေ၏
တမြို့
သတ္တုများ
▁ဂျော်ဒန်
▁ဆိုသော်
စေတီတော်ကို
▁အမျိုးသားညီလာခံ
▁မြစ်ကြီး
တံခွန်စိုက်
00901
သိင်္ခ
ဗိုလ်မှူးချုပ်
အဇ္ဇ
လီဆူး
▁အလောင်းစည်သူ
၂၀၀၁
ခင်ရွာ
▁လမ်းဆုံ
▁စင်တာ
▁နယ်မြေဒေသ
စီမံအုပ်ချုပ်ရေး
ဘဏ္ဍာငွေ
ပြုသည့်
▁တားမြစ်ချက်
လုံး၊
ခြေရင်း
ုန်
ကြေးနီ
အမည်ခံ
▁၁၉၃
▁ဦးစီးချုပ်
▁ဆေးကျမ်း
ဖြတ်ကျော်
▁ပေကုန်း
LP
▁ညွှန်း
=195
▁ချယ်
ထားလေ့
="195
83
▁ဆက်လက်ဆောင်ရွက်
မီနီ
▁ကျယ်ဝန်းသော
▁ငှက်ပျောတောရွာ
▁လျော့ကျ
▁သူတို့ရဲ့
▁အမှီပြု
str
ပန
ချိန်က
ိကထေရ်
▁ထရိုဂျန်
ဟူသောစကား
="1447
▁ပလက်
▁ပြော၏။
▁ရဟန်းဘဝ
၈၈၄
မီကပင်
မည့်အစား
▁ပယောဂ
▁ကွာလာလမ်ပူ
▁သမိုင်းဆိုင်ရာ
သနည်းဟု
▁အကျ
ပေါက်တောရွာ
=1447
ache
▁၂၂၃
ပီးကျေးရွာအုပ်စု
="1449
="1557
=1557
▁ကစားခြင်း
▁အဆိုရှင်
ညှဉ်း
▁ခန့်ညား
▁နာရီခန့်
ဖြစ်လာသောအခါ
▁ပျိုးထောင်
ကျယ်၍
▁ထိုအခါမှ
▁အုပ်ရှစ်ကုန်း
စာရီ
▁ပိုးမွှားများ
▁ကျောင်းကြီး
▁ဇိုင်
▁တည်ထောင်ရန်
စည်းလုံး
စွမ်းအင်ကို
ပျက်၍
в
ရွပ်ရွပ်ချွံချွံ
=340
▁Engine
0130187015
=1449
အချိန်များတွင်
▁သင်္ဃန်းကျွန်း
▁အပြောအဆို
="340
▁ပရိုတိန်း
▁အမြတ်အစွန်း
▁1775
မတိုင်မှီ
▁Life
▁ရှင်အရဟံ
=120
▁သနပ်ဖက်
ဒုန်
ကြေးငွေ
သွက်လက်
▁ဇော်ဆိုင်း
▁အင်္ဂလန်တွင်
ခွင့်မရ
▁စန္ဒကူး
▁control
TC
၁၉၉၅
▁မဟာသက္ကရာဇ်
ule
▁ပွင့်ဖတ်
ရှိခဲ့
▁နောင်မွန်
▁years
▁radio
▁သမပိုင်း
ani
▁နားခိုက်
ဂျိုင်း
တော်မူ၏၊
မှန်ကင်း
▁ဝါတော်
▁၁၀၃၃
2011
▁ကာလကတ္တားမြို့
သတိပေး
ဝန်ကြီးများ
နာမည်ကြီး
▁ပြောင်းဖူး
ဂျေး
▁အမေရိကန်တွင်
▁ထုတ်လုပ်သည်။
▁ပေါ်ပေါက်လာသော
▁အရှင်ဘုရား
="1001
ဝင်ကာ
တောင်သူ
▁ထဲမှ
▁တမန်
▁ကျောင်းတက်
ပေးရမည်
▁အနိ
▁စိတ်ကြိုက်
▁ကြံဆ
အဝဝ
▁အလျားလိုက်
ဘောလုံးကွင်း
eau
▁၂၀၂၁ခုနှစ်
Bu
ထင်ပေါ်ကျော်ကြား
ပြီးချိန်တွင်
ထက်ပိုမို
▁ဤနေရာတွင်
အစင်း
▁ကျောင်းနေ
ခွင့်မရှိ
▁၁၇၁၉
ပေါက်ကွဲမှု
အစ်မ
ငွေစာရင်း
0120080
ပေးရာ
တိုက်ခိုက်ကြ
ဝင်္ဂ
▁တိဿ
▁အငှား
▁ရည်စူး
ထိန်းသိမ်းထား
▁စိုစွတ်သော
▁နိုင်ငံတော်င
▁လုပ်ငန်းရှင်
▁စမတ်
သစ်တောက်
▁အဆုပ်
ဦးစီးဌာန၏
ညီစွာ
▁တည်ရှိလေသည်။
ကင်းရှင်း
ပြီးပါပြီ
သို့ရောက်လာ
တိရစ္ဆာန်များကို
▁လူများစု
▁ဖော်ပြထားသည့်
▁အဘယ်သို့
▁၁၂၃၀
▁ယုဒသန်
လာတော့သည်။
မှာပါ။
အနီးမှ
▁ချာချီ
019
ific
ဒ္ဓိ
ပိုင်ဆိုင်သူ
အခမ်းအနားကို
အရှေ့ခြမ်း
lash
▁Py
▁တိုက်စား
ပိုင်းမှ
▁တွေ့ရပြီး
ဒဏ်ရာရ
ဝဘူတာ
▁မြောက်ဘက်ပိုင်း
ပြည်နယ်မှ
▁ဖန်တီးခဲ့သည်။
သန်းခေါင်စာရင်း
▁ငွေချေး
▁Cho
▁ကြီးကျယ်သော
▁အလက်ဇန္ဒား
▁၁၆၉၃
ပြည်ကြီး
ကုန်းလေးရွာ
▁နှစ်ခြင်း
မင်းတရား
▁၂၆။
▁ကိန်းဂဏန်း
▁၉၀၂
▁ပုံနှိပ်စက်
တတ်ကြ၏။
ထာဝရ
သန္ဓေ
▁Ny
ال
ငှားရမ်း
စနစ်တစ်ခု
▁ရောက်ခဲ့
▁ဗလာ
၁၉၉၂
▁တစ်နေ့တွင်
သစ်သီး
▁လုပ်ငန်းကြီး
▁သစ်သီးဝလံ
ပြောင်ပြောင်
ဂစ်တာ
▁ကန်နီ
▁လက်တက်
သတဲ့၊
ပျံသန်းမှု
ပြောဆိုသော
▁လျှပ်စစ်ဓာတ်စီး
ကြိုဆို
▁ရေးသော
ခန်းခြောက်
▁ဘွမ်
▁ကလေးများအတွက်
ဇလပ်
ပြောင်လက်
▁မဂ္ဂဇင်း၏
▁ဟွာ
▁သူတို့နှစ်ဦး
ရဲအဖွဲ့
▁တိုးတက်အောင်
ေးဗီးယား
▁မျော
ဗမာနိုင်ငံ
အတွင်း၌ပင်
▁မင်းကြီးလည်း
▁နေထိုင်သည့်
▁အချက်ကို
ဝါသနာပါ
ဖြစ်မှု
▁ဗန်းမော်မြို့
▁ရေးသားဖော်ပြထား
xy
စတိုး
ရှိရို
အသင်းချုပ်
▁ကျင်းပခဲ့ပြီး
စေ၏
▁၆၂၈
ရထားများ
ဖွဲ့စည်းထား
ကုမ္ပဏီက
ဖော်ပြထားသော
=187
▁သီချင်းကြီး
="187
▁ကပ္ပ
▁ဆရာ့
မူဝါဒများ
▁မြေဆီ
ဆိုဒါ
AF
လိပ်ကျောက်
▁computer
▁အန္တရာယ်များ
▁လိုသည်။
▁ပေ၊
▁ဖြစ်သကဲ့သို့
နိုင်ခဲ့ပေ။
▁ကုန်းကြီးရွာ
="1964
=1964
="1580
=1580
▁မြောင်းမြခရိုင်
▁ရရှိစေ
▁ကျင်းပခြင်း
▁၂၆၇၀
ျော
နုနယ်
▁တစ်ကျောင်း
▁၆၅၄
ရွံ့
အင်အားကြီးမား
▁ယဟူဒီ
▁ရဲဌာန
အာဘော်
▁ဘုတ်အဖွဲ့
လှသော်လည်း
▁၁၃၅၈
-18
=1528
="1528
ဝိမလ
▁ပေးသနား
▁အသံများ
="1548
▁မွန်လူမျိုး
ြူ
▁သိပ္ပံအမည်
ရာဂ
98
▁၆၃၈
▁အသျှင်ဥဒါယီ
▁people
▁ဆာလဖာ
▁တစ်ခါတရံ
▁Daily
=1548
▁Hkam
တခွန်တိုင်
▁ရုပ်သံလွှင့်
သညကထေရ်
=1001
▁လင့်ခ်
▁ရှောင်တိမ်း
ဖြိုခွင်း
▁Labu
▁နတ္ထိ
▁မြန်မာပြန်
▁စတင်ပေါ်ပေါက်
▁အသုံးပြုလေ့
▁ကုန်တင်
၁၉၆၆
▁ဇီးကွက်
ညိမ်း
▁ဖြစ်ကြသည့်
▁ဂျူရီ
▁အကြောင်းအရင်း
▁ဟူ၍လည်းကောင်း
▁လိုက်သည်။
စွယ်တော်
ဆုပ်ကိုင်
▁စို
=971
▁ဘီပိုး
▁Sta
▁မြန်မာရုပ်ရှင်
▁ဝမ်ဝပ်
ငါတို့
▁Michael
▁မိညို
▁ထုတ်ဝေသူ
▁နေမင်း
▁မုချ
▁ဖောက်ထွင်း
▁စွဲချက်တင်
လုပ်ငန်းမှ
▁ဟိမဝန္တာတောင်
="120
မြတ်စွာဘုရားသခင်
▁ကပိုင်
သဘောကျ
▁ဆိုးလ်
▁ဖြစ်လာသော
နှစ်ခု၏
▁ကြိုးစားခဲ့သည်။
ပိုလီ
▁၁၃၄၉
မြစ်လက်တက်
န္နာ
▁များသည်။
▁၁၆၃၇
▁မြေစွန်း
▁၈၅၉
▁၁၃၄၂
▁ထိန်းချုပ်နိုင်
TT
၁၉၆၁
မချင်း
ရရှိလာ
▁လုပ်သည်။
▁၁၂၄၉
▁ဦးနုသည်
▁ညောင်ပင်ဆိပ်
▁အလုံးအရင်း
▁တူတော်
▁ဆင်းသက်လာခြင်း
▁ပြောင်းသွား
▁လုပ်ဆောင်သည်။
▁ရှည်သော
▁အမေရိကန်ပြည်
ခတ
▁ကတ္တရာ
▁ကုရ်အာန်
▁တောမတ်
▁တချို့က
▁အညံ့ခံ
တပ်၍
▁သမ္
▁ဟာရှယ်က
ခြင်းမရှိသော
▁စစ်တပ်က
ပွဲ၊
="68
▁ဖက်ဆစ်ဆန့်ကျင်
ရုပ်ရှင်ဇာတ်ကား
စဉ်လာ
အဆောက်အဦးများ
▁အစားစား
▁Set
မနေဘဲ
▁အသုံးချနိုင်
အကြောင်းကြား
▁ပါဠိဘာသာဖြင့်
ဝေ့
ခ်စ်
▁သုံးပါတီ
▁စာဖတ်သူ
မိသောအခါ
▁point
▁စပျစ်သီး
▁ကုန်းဆာ
▁အရေးဆို
▁ရှိတယ်။
ထိန်းသိမ်းခြင်း
▁အခိ
▁သီးနှံများ
▁ထောက်ခံသူ
ခေတ်စား
▁ကံကွင်း
▁ခုဖြင့်
ကိုယူ၍
ဝါကျ
ဖေါင်
▁ကျည်ဆန်
▁အချိန်ကြာ
2012
▁လပ်တော့
ွါး
▁အနက်အဓိပ္ပါယ်
မြေကို
▁ရေကြီးမှု
▁၂၇။
▁ဂျာနယ်၊
လိုင်းရွာ
▁ကလေးဘဝ
▁တေးသီချင်းများ
ရှည်လျားသော
▁Plan
သိမ်မွေ့
ပုစ္ဆာ
တစ်ခါတစ်ရံ
ခေတ္တ
▁မြင်းတပ်
▁ငါးယောက်
▁သူဌေးကုန်းရွာ
▁နှိမ်နှင်း
ပြောက်ကျား
အထိသာ
▁သီချင်းတစ်ပုဒ်
ရရှိမှု
▁ကန်ချောင်း
▁ဆူညံ
ဟုံး
ခြင်းခံရပြီး
▁ဦးအုန်း
021
ရှာဖွေတွေ့ရှိ
osa
▁အခြေခံဥပဒေအရ
▁ရောက်ရှိခဲ့ပြီး
far
ဘုရား။
ရွာသွန်း
▁အခြံအရံ
▁တေးစီးရီး
၃၉၂၁
clo
သိရသည်။
အရှုံး
ကြရာ၌
ပင့်ဆောင်
▁အသင်းကို
0170060
▁၅၆၃
စစ်ဆေးမှု
သည့်နည်းတူ
ကောင်းတဲ့
▁ကျွန်ုပ်တို့၏
▁သုံးပိုင်း
▁တိုင်းထွာ
နက်နဲ
ကြိုက်နှစ်သက်
▁ထွက်လာသော
ချောင်းစောက်
စီမံခန့်ခွဲရေး
စဉ်အခါ
ရိမြို့
▁ကစားပွဲ
ထက်ဝက်
▁ကဒါ
▁ဟူမူ
စေရန်၊
တည်းသော
▁အခြေခံဥပဒေကို
မင်းများလက်ထက်
ကိုရရှိ
▁ဘဝင်
▁လာဘ်ကောင်
▁ကာတွန်းများ
▁စသည်တို့၌
သုတေသနဌာန
▁၇၆၃
▁ဂရိဘာသာ
=191
▁Val
="191
=159
ull
▁PC
▁ကမ်းနား
="159
ရှိတယ်
▁ကြိုတင်ပြင်ဆင်
မီးအိမ်
န်းရွာ
တိုင်း၏
lex
နှင့်ချီ၍
မှုများအတွက်
press
▁လမ်းစဉ်ကို
▁Kwe
▁စစ်ဆင်
တစ်ပါးဖြစ်သည်။
▁၁၃၅၅
ပြီဖြစ်၍
အခ
▁အခံ
▁အချို့ကလည်း
▁သိုလှောင်ထား
ဖက်ဆစ်
▁မိုင်းပွန်
သူတော်ကောင်းတရား
ခါမှ
▁ဂျာနယ်လစ်
တပ်ကြီး
အခြေခံသဘောတရား
▁ဒါရိုက်တာအဖြစ်
="1437
=1437
▁လေးဦး
တိယ
ရွှင်လန်း
nal
="796
▁နှစ်သစ်ကူး
="1574
=1574
▁ကယ်လီ
▁plan
▁အယောက်
ဗျား
အပင်မျိုး
▁ထာ
ယဉ်ကျေးမှုနှင့်
=796
နေကြ၏။
ပြည်ထောင်စုမှ
▁မကင်း
ကိုသာလျှင်
▁လွတ်လပ်ရေးအတွက်
ဇောတိက
田
▁၈၂၇
▁ဂွမ်
ခန့်အကွာ
over
ک
ကျောထောက်နောက်ခံ
▁ရွှေကြက်ယက်
▁ရှိတ်စပီးယား
л
အာနုဘော်
▁Club
▁စုဖုရားလတ်
▁Kywe
▁အိုင်းစတိုင်း
▁စာအုပ်ထုတ်ဝေ
အရဆိုလျှင်
▁ဦးပေါ်ဦး
0050070
နေရှင်နယ်လိဂ်
▁noise
▁ကြယ်အစုအဝေး
▁Church
သုဉ်း
ဖြစ်စဉ်များ
▁စိန်ဗေဒါ
▁2014
▁မည်းနက်
▁တပေါင်းလဆန်း
ဖျော့ဖျော့
▁ဟစ်ဟော့
▁ပေါ့အင်
▁ဇော်တူး
turn
▁လွှစင်
ချွေတာ
▁ဒေါင်လိုက်
မုန့်ဟင်းခါး
▁သဘာဝတွင်
▁ဟယ်ရီ
▁SSA
▁ဘက်မလိုက်
▁ပြန်လှန်
ats
▁ဖလင်
▁တန်းတူ
▁ဟေမန်
▁တင့်
Bar
▁နေရာမှာ
စတင်း
ဇောတ
ဂန္ဓာရုံ
ဖမ်းယူ
မှရရှိသော
▁မာရ
▁ခရီးသည်တင်
အမျိုးမျိုးနှင့်
လုပ်သည့်
▁ဦးအောင်မြတ်
ရရှိထားသော
▁ကုန်းညောင်
▁ကြိုးကိုင်
▁ကန်သာယာ
▁အောင်မင်္ဂလာ
ဖြတ်ပြီး
▁အီဂျစ်ပြည်
▁ပြယုဂ်
မာစတာ
▁ယုံကြည်ခြင်း
လျောက်ပတ်
▁အကြီးတန်း
ကံကုန်း
▁Way
▁နေထိုင်ကြပြီး
▁နည်းအမျိုးမျိုး
▁Shar
ခံကြရ
လေလျှင်
aka
ပေါ်တင်
အတန်းအစား
▁အပူပေး
▁၄၆၀
▁အီဂျစ်လူမျိုး
စည်ကြီး
▁နိုင်ငံများ၏
ရှိကြောင်းကို
သိ၍
▁၁၁၆၇
ကျွဲတဲ
ကျော်ဝင်း
ery
▁ဘုရားစေတီ
▁ဖွဲ့စည်းကာ
အကျ
▁၁၈၆
တင်စား
ရယူခြင်း
▁၁၄၈၁
▁မြို့နေ
▁ကိန်းစစ်
▁နှိုးဆော်
ထည့်သွင်းထားသည်။
ခွင့်မပြု
▁အကျင့်ပျက်
▁ဘုရားဟော
ကံပြင်
▁ရေတိမ်
ဖက်၌
▁ပေရွက်
▁အတ္ထ
▁ပန်းပဲ
အများစုက
▁၁၇၅
ရခက်
▁သတ္တဗေဒ
၇၁၁၃
▁ဒေါ်စော
▁ဖြစ်လာပြီး
▁အပါ
ပြည်၏
▁သတ်မှတ်ကာ
▁ရုပ်နာမ်
လောမ
▁ဝက်ဘ်ဆိုက်
ball
▁Heart
▁သွယ်ဝိုက်
▁ထည့်သွင်းဖော်ပြ
ခြင်းဟူသော
အရာရှိကြီးများ
အဲန်
▁ဆန့်ကျင်သည့်
တာရွာ
ကိုယ်ဝန်
ကူးယူ
▁အတားအဆီး
▁၂၂၀၃
▁နောက်ပြန်
သူဇာ
▁အသုံးစရိတ်
▁အဝတ်အစားများ
▁၃၄၅
စာတမ်းကို
▁တစ်ဖက်ကမ်း
▁မြို့သူမြို့သား
ကျပြီး
လေးပါးတို့
▁tri
▁2011
တွေ့ရှိခဲ့သည်။
ထားလျက်
▁တံတားကြီး
▁အမည်မသိ
စာအရေးအသား
အဖွဲ့ဝင်များသည်
ရွေးချယ်မှု
▁နှ
▁ငါ့သျှင်
အားဖြင့်လည်း
ED
ရာမန်
ရလောက်အောင်
မခံနိုင်
နေတယ်။
Burma
အင်ဒိုနီးရှား
နှစ်ပုဒ်
ဦးစားပေး
▁၂၀၁၀ခုနှစ်
▁စတင်ဆောင်ရွက်
ola
ဘတ်စ်
ဖုန်
ကစပြီး
အင်အားကြီး
▁မိုးကုတ်မြို့
အလားတူ
တောများ
သင်္ကေတများ
▁၁၀၀၀၀
ken
ပါဝင်ကာ
လက်စွပ်
▁တည်ရှိနေသည်။
▁ထန်းပင်ကုန်း
ဧည့်သည်
▁ကနောင်
▁ဒေသ၏
eu
▁မြန်မာရာဇဝင်
ဘွမ်ရွာ
▁ရှင်မဟာ
၁၉၇၄
သရက်တောရွာ
အင်္ဂါရပ်များ
ကိုင်ဆောင်
အတောင်
▁တရားရုံးများ
▁မြင်းခြံမြို့
▁ဋ
▁ထက်ဝက်
▁သီတင်းကျွတ်လ
၂၀၀၂
သူမ၏
▁ဖြူစင်
▁လူန
▁ရံ
လာပုံ
ခဲ့ပါသည်
▁စုစည်း၍
ကူးတံတား
▁လွင့်
▁လှန်
▁Anti
▁၂၀၅
▁၉၆၀
▁ထိုရဟန်းတို့
▁သခင်တင်မြ
ဟုလည်းကောင်း
ချန်ပီယံရှစ်
တည်ဆောက်ခဲ့သည်။
▁ကမူ
ဘသန်း
ထားပါက
▁နာမ
▁သဘာဝတရား
တော်မူသဖြင့်
ကရင်စု
▁သပြေတန်း
ဝါရီ
▁နဝဒေး
ညိုရောင်
▁၁၂၁၂
အဖွဲ့ခေါင်းဆောင်
လေ့ရှိသည်
▁သမ္မတရာထူး
တဝက်
▁ပျူလူမျိုး
alk
▁ပလ
=1917
="1917
▁အမွေခံ
စာရ
▁နှုတ်ဆက်
မတည့်
▁မပြောင်းလဲ
သင်္ဃန်း
လောကျေးရွာအုပ်စု
▁ပြည်နယ်အစိုးရ
▁တရပ်
ဝင်ရန်
=1033
="1033
မင်းသားအား
▁အအိဇု
ခုနှစ်က
အောက်ပါ
▁တရားရေး
▁ထို့အတွက်
ထိုစဉ်က
▁တစ်ကြိမ်၊
:4
▁source
ကျိုက္ခမီ
▁ဖြစ်စေသော
▁၂၂၁၃
▁ထင်းရှူး
▁တစ်စက္ကန့်
▁မိရိုးဖလာ
▁စီမံဆောင်ရွက်
▁အာရှမိုင်းနား
▁cluster
▁ဆစ်ဒနီ
▁၅၄၇
ကွန့်မြူး
▁Program
▁အိမ်ဖြူတော်
▁မုန်ညင်း
▁အစ္စလမ်
▁အားကစားသမားများ
="217
ြောက်မှတောင်သို့
▁ထည့်ဝင်
▁၁၀၉
attle
▁မကြာခဏဆိုသလို
=217
▁ဂန့်ဂေါ်
အစိုးရအား
▁မီးခြစ်
▁Myay
▁ရဲဘော်ဌေး
▁ချားလ်စ်
▁ဇုန်
▁သံပရာ
ရုံးနှင့်
လေသည်၊
ခြိမ်း
▁ဆဋ္ဌ
ကိုင်စွဲ
▁စကု
position
▁ဦးအောင်ဇေယျ
ses
▁မြို့သူကြီး
အိတ်ချ်
▁မိတ်ဆက်ပေး
ဋ်
TR
ဖြစ်ပါ
level
▁စီးဆင်းသည်။
▁သံသယရှိ
ပျောင်း
ကျွံ
▁အနှံ့
နိုင်ငံသားများ
[...]
