{"<unk>":0,"<s>":1,"</s>":2,"<pad>":3,"!":4,"\"":5,"#":6,"$":7,"%":8,"&":9,"'":10,"(":11,")":12,"*":13,"+":14,",":15,"-":16,".":17,"/":18,"0":19,"1":20,"2":21,"3":22,"4":23,"5":24,"6":25,"7":26,"8":27,"9":28,":":29,";":30,"<":31,"=":32,">":33,"?":34,"@":35,"A":36,"B":37,"C":38,"D":39,"E":40,"F":41,"G":42,"H":43,"I":44,"J":45,"K":46,"L":47,"M":48,"N":49,"O":50,"P":51,"Q":52,"R":53,"S":54,"T":55,"U":56,"V":57,"W":58,"X":59,"Y":60,"Z":61,"[":62,"\\":63,"]":64,"^":65,"_":66,"`":67,"a":68,"b":69,"c":70,"d":71,"e":72,"f":73,"g":74,"h":75,"i":76,"j":77,"k":78,"l":79,"m":80,"n":81,"o":82,"p":83,"q":84,"r":85,"s":86,"t":87,"u":88,"v":89,"w":90,"x":91,"y":92,"z":93,"{":94,"|":95,"}":96,"~":97,"£":98,"¥":99,"§":100,"«":101,"®":102,"°":103,"±":104,"²":105,"³":106,"´":107,"µ":108,"·":109,"¸":110,"¹":111,"»":112,"½":113,"Ä":114,"Å":115,"É":116,"Ó":117,"Ö":118,"×":119,"Ú":120,"Ý":121,"Þ":122,"à":123,"á":124,"â":125,"ã":126,"ä":127,"å":128,"æ":129,"ç":130,"è":131,"é":132,"ê":133,"ë":134,"ì":135,"í":136,"î":137,"ï":138,"ð":139,"ñ":140,"ò":141,"ó":142,"ô":143,"ö":144,"ø":145,"ù":146,"ú":147,"û":148,"ü":149,"þ":150,"Ā":151,"ā":152,"ć":153,"č":154,"Đ":155,"ē":156,"ě":157,"ī":158,"ł":159,"ŋ":160,"Ō":161,"ō":162,"Ś":163,"ś":164,"š":165,"ū":166,"ǎ":167,"ǒ":168,"ə":169,"ɛ":170,"ɡ":171,"ɪ":172,"ʃ":173,"ʊ":174,"ʒ":175,"ʰ":176,"ʲ":177,"ʿ":178,"ˈ":179,"ː":180,"˚":181,"́":182,"̈":183,"Δ":184,"Ι":185,"ά":186,"ί":187,"α":188,"β":189,"γ":190,"δ":191,"ε":192,"η":193,"θ":194,"ι":195,"κ":196,"λ":197,"μ":198,"ν":199,"ο":200,"π":201,"ρ":202,"ς":203,"σ":204,"τ":205,"υ":206,"φ":207,"ω":208,"ό":209,"ύ":210,"А":211,"Б":212,"В":213,"Д":214,"И":215,"К":216,"М":217,"Н":218,"П":219,"Р":220,"С":221,"а":222,"б":223,"в":224,"г":225,"д":226,"е":227,"ж":228,"з":229,"и":230,"й":231,"к":232,"л":233,"м":234,"н":235,"о":236,"п":237,"р":238,"с":239,"т":240,"у":241,"х":242,"ц":243,"ч":244,"ш":245,"ъ":246,"ы":247,"ь":248,"ю":249,"я":250,"א":251,"ה":252,"ו":253,"י":254,"ל":255,"מ":256,"ן":257,"ר":258,"ש":259,"،":260,"ء":261,"آ":262,"أ":263,"ؤ":264,"إ":265,"ئ":266,"ا":267,"ب":268,"ة":269,"ت":270,"ث":271,"ج":272,"ح":273,"خ":274,"د":275,"ذ":276,"ر":277,"ز":278,"س":279,"ش":280,"ص":281,"ض":282,"ط":283,"ظ":284,"ع":285,"غ":286,"ف":287,"ق":288,"ك":289,"ل":290,"م":291,"ن":292,"ه":293,"و":294,"ى":295,"ي":296,"ً":297,"َ":298,"ُ":299,"ِ":300,"ّ":301,"ْ":302,"ٰ":303,"ک":304,"ی":305,"۱":306,"ं":307,"अ":308,"ए":309,"औ":310,"क":311,"ग":312,"ज":313,"त":314,"द":315,"ध":316,"न":317,"प":318,"फ":319,"ब":320,"भ":321,"म":322,"य":323,"र":324,"ल":325,"व":326,"श":327,"स":328,"ह":329,"ा":330,"ि":331,"ी":332,"ु":333,"ू":334,"े":335,"ो":336,"्":337,"ন":338,"া":339,"்":340,"ක":341,"ද":342,"න":343,"ම":344,"ය":345,"ර":346,"ල":347,"ව":348,"ස":349,"හ":350,"්":351,"ා":352,"ි":353,"ු":354,"ก":355,"ข":356,"ค":357,"ง":358,"จ":359,"ช":360,"ญ":361,"ณ":362,"ด":363,"ต":364,"ท":365,"ธ":366,"น":367,"บ":368,"พ":369,"ภ":370,"ม":371,"ย":372,"ร":373,"ฤ":374,"ล":375,"ว":376,"ศ":377,"ษ":378,"ส":379,"ห":380,"อ":381,"ะ":382,"ั":383,"า":384,"ำ":385,"ิ":386,"ี":387,"ื":388,"ุ":389,"ู":390,"เ":391,"แ":392,"โ":393,"ใ":394,"ไ":395,"็":396,"่":397,"้":398,"์":399,"ນ":400,"་":401,"က":402,"ခ":403,"ဂ":404,"ဃ":405,"င":406,"စ":407,"ဆ":408,"ဇ":409,"ဈ":410,"ဉ":411,"ည":412,"ဋ":413,"ဌ":414,"ဍ":415,"ဎ":416,"ဏ":417,"တ":418,"ထ":419,"ဒ":420,"ဓ":421,"န":422,"ပ":423,"ဖ":424,"ဗ":425,"ဘ":426,"မ":427,"ယ":428,"ရ":429,"လ":430,"ဝ":431,"သ":432,"ဟ":433,"ဠ":434,"အ":435,"ဣ":436,"ဤ":437,"ဥ":438,"ဦ":439,"ဧ":440,"ဩ":441,"ဪ":442,"ါ":443,"ာ":444,"ိ":445,"ီ":446,"ု":447,"ူ":448,"ေ":449,"ဲ":450,"ဳ":451,"ံ":452,"့":453,"း":454,"္":455,"်":456,"ျ":457,"ြ":458,"ွ":459,"ှ":460,"ဿ":461,"၀":462,"၁":463,"၂":464,"၃":465,"၄":466,"၅":467,"၆":468,"၇":469,"၈":470,"၉":471,"၊":472,"။":473,"၌":474,"၍":475,"၎":476,"၏":477,"ၐ":478,"ၑ":479,"ၚ":480,"ၢ":481,"ၤ":482,"ၦ":483,"ၱ":484,"ၵ":485,"ၻ":486,"ၽ":487,"ၾ":488,"ၿ":489,"ႀ":490,"ႇ":491,"ႈ":492,"ႊ":493,"ႌ":494,"ႏ":495,"႑":496,"႓":497,"႔":498,"ន":499,"ា":500,"ḥ":501,"ḷ":502,"ṃ":503,"ṅ":504,"ṇ":505,"ṣ":506,"ṭ":507,"ệ":508,"ọ":509,"–":510,"—":511,"‘":512,"’":513,"“":514,"”":515,"‡":516,"•":517,"…":518,"′":519,"″":520,"›":521,"€":522,"₹":523,"↑":524,"→":525,"∆":526,"−":527,"≠":528,"≤":529,"⋅":530,"◌":531,"、":532,"。":533,"々":534,"「":535,"」":536,"あ":537,"い":538,"う":539,"え":540,"お":541,"か":542,"が":543,"き":544,"く":545,"こ":546,"さ":547,"し":548,"す":549,"せ":550,"た":551,"だ":552,"ち":553,"つ":554,"て":555,"と":556,"な":557,"に":558,"の":559,"は":560,"ひ":561,"ふ":562,"ほ":563,"ま":564,"み":565,"む":566,"や":567,"よ":568,"ら":569,"り":570,"る":571,"ろ":572,"ん":573,"ア":574,"イ":575,"ウ":576,"オ":577,"キ":578,"ク":579,"ケ":580,"コ":581,"サ":582,"シ":583,"ジ":584,"ス":585,"セ":586,"タ":587,"ツ":588,"テ":589,"ト":590,"ド":591,"ナ":592,"ニ":593,"ノ":594,"ハ":595,"ビ":596,"フ":597,"プ":598,"マ":599,"ミ":600,"ラ":601,"リ":602,"ル":603,"レ":604,"ン":605,"ヶ":606,"・":607,"ー":608,"一":609,"丁":610,"七":611,"万":612,"三":613,"上":614,"下":615,"不":616,"世":617,"丘":618,"中":619,"丸":620,"主":621,"久":622,"之":623,"九":624,"亀":625,"予":626,"二":627,"五":628,"井":629,"京":630,"人":631,"仁":632,"今":633,"仏":634,"代":635,"伊":636,"伏":637,"会":638,"住":639,"佐":640,"佛":641,"保":642,"俣":643,"倉":644,"備":645,"元":646,"先":647,"光":648,"入":649,"八":650,"公":651,"内":652,"円":653,"出":654,"分":655,"切":656,"刘":657,"別":658,"利":659,"前":660,"加":661,"動":662,"勝":663,"勢":664,"化":665,"北":666,"区":667,"十":668,"千":669,"南":670,"博":671,"厚":672,"原":673,"县":674,"取":675,"口":676,"古":677,"台":678,"司":679,"合":680,"吉":681,"名":682,"向":683,"和":684,"唐":685,"喜":686,"嘉":687,"四":688,"国":689,"國":690,"園":691,"土":692,"地":693,"坂":694,"城":695,"堀":696,"堂":697,"場":698,"塚":699,"塩":700,"士":701,"多":702,"大":703,"天":704,"太":705,"央":706,"奈":707,"女":708,"姫":709,"子":710,"字":711,"学":712,"孫":713,"學":714,"安":715,"宝":716,"宮":717,"家":718,"宿":719,"富":720,"寒":721,"寺":722,"小":723,"尻":724,"尾":725,"居":726,"屋":727,"山":728,"岐":729,"岡":730,"岩":731,"岸":732,"島":733,"崎":734,"川":735,"州":736,"巻":737,"市":738,"布":739,"帝":740,"師":741,"常":742,"幌":743,"幡":744,"平":745,"年":746,"広":747,"庄":748,"府":749,"廣":750,"延":751,"弘":752,"張":753,"当":754,"形":755,"役":756,"後":757,"御":758,"志":759,"急":760,"恵":761,"愛":762,"成":763,"我":764,"戸":765,"所":766,"手":767,"摩":768,"播":769,"放":770,"教":771,"文":772,"斐":773,"新":774,"方":775,"族":776,"日":777,"早":778,"旭":779,"明":780,"星":781,"春":782,"昭":783,"智":784,"曽":785,"月":786,"有":787,"朝":788,"木":789,"本":790,"李":791,"村":792,"条":793,"来":794,"東":795,"松":796,"板":797,"林":798,"柏":799,"柳":800,"校":801,"根":802,"桂":803,"梅":804,"森":805,"楽":806,"横":807,"橋":808,"機":809,"正":810,"武":811,"比":812,"毛":813,"民":814,"気":815,"水":816,"永":817,"江":818,"池":819,"沢":820,"河":821,"治":822,"沼":823,"泉":824,"法":825,"波":826,"洋":827,"津":828,"浅":829,"浜":830,"浦":831,"浪":832,"海":833,"深":834,"淵":835,"清":836,"温":837,"港":838,"湖":839,"湯":840,"滝":841,"漢":842,"瀬":843,"灣":844,"烏":845,"熊":846,"片":847,"牛":848,"物":849,"狩":850,"玉":851,"王":852,"理":853,"瑞":854,"生":855,"田":856,"甲":857,"町":858,"留":859,"番":860,"発":861,"白":862,"目":863,"相":864,"省":865,"県":866,"真":867,"矢":868,"知":869,"石":870,"磐":871,"磨":872,"磯":873,"社":874,"神":875,"福":876,"禪":877,"秋":878,"稲":879,"穂":880,"積":881,"穴":882,"空":883,"立":884,"笠":885,"第":886,"筑":887,"箱":888,"米":889,"系":890,"紀":891,"細":892,"組":893,"総":894,"線":895,"羅":896,"美":897,"群":898,"羽":899,"老":900,"者":901,"肥":902,"能":903,"自":904,"舟":905,"船":906,"良":907,"芦":908,"花":909,"芳":910,"芸":911,"英":912,"茂":913,"茶":914,"草":915,"荒":916,"荷":917,"菜":918,"華":919,"萩":920,"葉":921,"蒲":922,"蓮":923,"蔵":924,"藤":925,"行":926,"袋":927,"西":928,"見":929,"観":930,"角":931,"記":932,"語":933,"谷":934,"豆":935,"豊":936,"貝":937,"賀":938,"赤":939,"越":940,"足":941,"路":942,"輪":943,"辺":944,"通":945,"道":946,"達":947,"遠":948,"那":949,"郎":950,"郡":951,"部":952,"郷":953,"都":954,"里":955,"野":956,"金":957,"釜":958,"銀":959,"鎌":960,"長":961,"門":962,"開":963,"間":964,"関":965,"阪":966,"阿":967,"院":968,"陸":969,"陽":970,"際":971,"雄":972,"雲":973,"電":974,"霞":975,"青":976,"音":977,"須":978,"頭":979,"風":980,"飛":981,"飯":982,"館":983,"香":984,"馬":985,"駅":986,"騨":987,"高":988,"鳥":989,"鶴":990,"鹿":991,"黒":992,"黨":993,"龍":994,"국":995,"대":996,"동":997,"한":998,"（":999,"）":1000,"，":1001,"－":1002,"￼":1003,"း</w>":1004,"ု</w>":1005,"ာ</w>":1006,"်</w>":1007,"k</w>":1008,"စ</w>":1009,"က</w>":1010,"ေ</w>":1011,"ိ</w>":1012,"ဲ</w>":1013,"ō</w>":1014,"ြ</w>":1015,"ရ</w>":1016,"့</w>":1017,"ူ</w>":1018,"၁</w>":1019,"ါ</w>":1020,"ံ</w>":1021,"6</w>":1022,"ီ</w>":1023,"3</w>":1024,"n</w>":1025,"s</w>":1026,"ှ</w>":1027,"1</w>":1028,"y</w>":1029,"၉</w>":1030,"၄</w>":1031,"c</w>":1032,"၀</w>":1033,"၆</w>":1034,"5</w>":1035,"၈</w>":1036,"၇</w>":1037,"4</w>":1038,"၂</w>":1039,"0</w>":1040,"9</w>":1041,"ွ</w>":1042,"e</w>":1043,"2</w>":1044,"8</w>":1045,"7</w>":1046,"g</w>":1047,"T</w>":1048,"a</w>":1049,"ि</w>":1050,"d</w>":1051,"p</w>":1052,"S</w>":1053,"t</w>":1054,"ယ</w>":1055,"၎</w>":1056,"၃</w>":1057,"မ</w>":1058,"i</w>":1059,")</w>":1060,"သ</w>":1061,"h</w>":1062,"ပ</w>":1063,"လ</w>":1064,"၅</w>":1065,"A</w>":1066,"m</w>":1067,"C</w>":1068,"တ</w>":1069,"ခ</w>":1070,"ျ</w>":1071,"l</w>":1072,"ဒ</w>":1073,"န</w>":1074,"ဏ</w>":1075,"み</w>":1076,"ه</w>":1077,"r</w>":1078,"M</w>":1079,"ဓ</w>":1080,"ろ</w>":1081,"俣</w>":1082,"။</w>":1083,"ဝ</w>":1084,"L</w>":1085,"ဿ</w>":1086,"အ</w>":1087,"ဌ</w>":1088,"K</w>":1089,"\"</w>":1090,"o</w>":1091,"ا</w>":1092,"ِ</w>":1093,"/</w>":1094,"f</w>":1095,"ဘ</w>":1096,"u</w>":1097,"ထ</w>":1098,"ဆ</w>":1099,"ဋ</w>":1100,"P</w>":1101,"с</w>":1102,"ی</w>":1103,"b</w>":1104,"္</w>":1105,"ć</w>":1106,"R</w>":1107,"ُ</w>":1108,"ā</w>":1109,"ဦ</w>":1110,"ː</w>":1111,"า</w>":1112,"อ</w>":1113,"の</w>":1114,"v</w>":1115,"B</w>":1116,"ó</w>":1117,"ဥ</w>":1118,"(</w>":1119,"ဇ</w>":1120,"港</w>":1121,"″</w>":1122,"V</w>":1123,"ง</w>":1124,"x</w>":1125,"G</w>":1126,"N</w>":1127,"ဗ</w>":1128,"ဠ</w>":1129,"|</w>":1130,"ည</w>":1131,"H</w>":1132,",</w>":1133,"ー</w>":1134,"ン</w>":1135,"á</w>":1136,"O</w>":1137,"ဍ</w>":1138,"ဂ</w>":1139,"â</w>":1140,"र</w>":1141,"Z</w>":1142,"Y</w>":1143,"ë</w>":1144,"स</w>":1145,"z</w>":1146,"w</w>":1147,"ْ</w>":1148,"E</w>":1149,"X</w>":1150,"文</w>":1151,"၊</w>":1152,"ل</w>":1153,".</w>":1154,"ن</w>":1155,"F</w>":1156,"ဖ</w>":1157,"&</w>":1158,"َ</w>":1159,"I</w>":1160,"-</w>":1161,"こ</w>":1162,"_</w>":1163,"%</w>":1164,"ع</w>":1165,"W</w>":1166,"D</w>":1167,"ش</w>":1168,"ၐ</w>":1169,"昭</w>":1170,"ဟ</w>":1171,"Q</w>":1172,"ī</w>":1173,"์</w>":1174,"ь</w>":1175,"'</w>":1176,";</w>":1177,"၌</w>":1178,"鎌</w>":1179,"j</w>":1180,"م</w>":1181,"ّ</w>":1182,"င</w>":1183,"س</w>":1184,"?</w>":1185,"น</w>":1186,"[</w>":1187,":</w>":1188,"म</w>":1189,"ز</w>":1190,"غ</w>":1191,"ဤ</w>":1192,"孫</w>":1193,"む</w>":1194,"é</w>":1195,"q</w>":1196,"陽</w>":1197,"क</w>":1198,"…</w>":1199,"د</w>":1200,"ق</w>":1201,"ी</w>":1202,"ς</w>":1203,"°</w>":1204,"Ó</w>":1205,"ر</w>":1206,"U</w>":1207,"я</w>":1208,"ะ</w>":1209,"*</w>":1210,"ၾ</w>":1211,"ႌ</w>":1212,"à</w>":1213,"熊</w>":1214,"у</w>":1215,"’</w>":1216,"ŋ</w>":1217,"၏</w>":1218,"ب</w>":1219,"]</w>":1220,"丘</w>":1221,"ม</w>":1222,"仁</w>":1223,"႔</w>":1224,"н</w>":1225,"ě</w>":1226,"ค</w>":1227,"व</w>":1228,"光</w>":1229,"̈</w>":1230,"ย</w>":1231,"と</w>":1232,"年</w>":1233,"ط</w>":1234,"野</w>":1235,"刘</w>":1236,"ت</w>":1237,"朝</w>":1238,"η</w>":1239,"ح</w>":1240,"Ö</w>":1241,"条</w>":1242,"³</w>":1243,"ר</w>":1244,"士</w>":1245,"ν</w>":1246,"о</w>":1247,"и</w>":1248,"ႏ</w>":1249,"萩</w>":1250,"J</w>":1251,"ء</w>":1252,"芦</w>":1253,"ク</w>":1254,"→</w>":1255,"て</w>":1256,"ၤ</w>":1257,"−</w>":1258,"‘</w>":1259,"ラ</w>":1260,"ए</w>":1261,"台</w>":1262,"></w>":1263,"総</w>":1264,"ک</w>":1265,"き</w>":1266,"а</w>":1267,"+</w>":1268,"土</w>":1269,"放</w>":1270,"嘉</w>":1271,"ဃ</w>":1272,"ì</w>":1273,"ा</w>":1274,"”</w>":1275,"न</w>":1276,"ဧ</w>":1277,"ρ</w>":1278,"т</w>":1279,"ف</w>":1280,"さ</w>":1281,"ज</w>":1282,"д</w>":1283,"ဩ</w>":1284,"向</w>":1285,"小</w>":1286,"е</w>":1287,"í</w>":1288,"ก</w>":1289,"町</w>":1290,"Ä</w>":1291,"α</w>":1292,"ɪ</w>":1293,"法</w>":1294,"´</w>":1295,"ん</w>":1296,"²</w>":1297,"北</w>":1298,"ל</w>":1299,"ナ</w>":1300,"¹</w>":1301,"通</w>":1302,"）</w>":1303,"姫</w>":1304,"`</w>":1305,"厚</w>":1306,"ဈ</w>":1307,"よ</w>":1308,"æ</w>":1309,"φ</w>":1310,"磨</w>":1311,"ض</w>":1312,"з</w>":1313,"ɛ</w>":1314,"ニ</w>":1315,"พ</w>":1316,"央</w>":1317,"£</w>":1318,"梅</w>":1319,"阪</w>":1320,"ù</w>":1321,"浪</w>":1322,"会</w>":1323,"タ</w>":1324,"«</w>":1325,"•</w>":1326,"い</w>":1327,"筑</w>":1328,"ן</w>":1329,"肥</w>":1330,"й</w>":1331,"ၱ</w>":1332,"≠</w>":1333,"荷</w>":1334,"ด</w>":1335,"板</w>":1336,"穴</w>":1337,"ث</w>":1338,"“</w>":1339,"ί</w>":1340,"י</w>":1341,"ɡ</w>":1342,"な</w>":1343,"،</w>":1344,"治</w>":1345,"我</w>":1346,"»</w>":1347,"志</w>":1348,"郡</w>":1349,"ة</w>":1350,"р</w>":1351,"ṅ</w>":1352,"⋅</w>":1353,"ま</w>":1354,"太</w>":1355,"}</w>":1356,"ビ</w>":1357,"$</w>":1358,"ṭ</w>":1359,"塚</w>":1360,"天</w>":1361,"黒</w>":1362,"ル</w>":1363,"Р</w>":1364,"ē</w>":1365,"合</w>":1366,"が</w>":1367,"雲</w>":1368,"者</w>":1369,"ú</w>":1370,"瑞</w>":1371,"国</w>":1372,"ð</w>":1373,"ً</w>":1374,"ミ</w>":1375,"安</w>":1376,"ව</w>":1377,"幌</w>":1378,"林</w>":1379,"в</w>":1380,"司</w>":1381,"ນ</w>":1382,"部</w>":1383,"ヶ</w>":1384,"米</w>":1385,"‡</w>":1386,"や</w>":1387,"ว</w>":1388,"箱</w>":1389,"ọ</w>":1390,"่</w>":1391,"ي</w>":1392,"ဳ</w>":1393,"積</w>":1394,"<</w>":1395,"灣</w>":1396,"大</w>":1397,"ร</w>":1398,"輪</w>":1399,"學</w>":1400,"к</w>":1401,"家</w>":1402,"ū</w>":1403,"č</w>":1404,"巻</w>":1405,"۱</w>":1406,"δ</w>":1407,"ฤ</w>":1408,"၍</w>":1409,"υ</w>":1410,"∆</w>":1411,"أ</w>":1412,"王</w>":1413,"ü</w>":1414,"ႈ</w>":1415,"細</w>":1416,"省</w>":1417,"κ</w>":1418,"空</w>":1419,"オ</w>":1420,"。</w>":1421,"フ</w>":1422,"波</w>":1423,"之</w>":1424,"く</w>":1425,"ဪ</w>":1426,"य</w>":1427,"学</w>":1428,"ḥ</w>":1429,"ন</w>":1430,"出</w>":1431,"ド</w>":1432,"=</w>":1433,"た</w>":1434,"්</w>":1435,"化</w>":1436,"्</w>":1437,"ち</w>":1438,"प</w>":1439,"恵</w>":1440,"—</w>":1441,"è</w>":1442,"~</w>":1443,"組</w>":1444,"城</w>":1445,"ä</w>":1446,"遠</w>":1447,"風</w>":1448,"理</w>":1449,"ʒ</w>":1450,"м</w>":1451,"л</w>":1452,"و</w>":1453,"ה</w>":1454,"久</w>":1455,"σ</w>":1456,"語</w>":1457,"ö</w>":1458,"ා</w>":1459,"ය</w>":1460,"ญ</w>":1461,"谷</w>":1462,"া</w>":1463,"古</w>":1464,"ô</w>":1465,"漢</w>":1466,"比</w>":1467,"永</w>":1468,"に</w>":1469,"花</w>":1470,"亀</w>":1471,"˚</w>":1472,"ႇ</w>":1473,"下</w>":1474,"し</w>":1475,"泉</w>":1476,"え</w>":1477,"ج</w>":1478,"沼</w>":1479,"х</w>":1480,"–</w>":1481,"楽</w>":1482,"磐</w>":1483,"道</w>":1484,"津</w>":1485,"長</w>":1486,"Δ</w>":1487,"š</w>":1488,"角</w>":1489,"奈</w>":1490,"ल</w>":1491,"ч</w>":1492,"ล</w>":1493,"#</w>":1494,"岐</w>":1495,"@</w>":1496,"ふ</w>":1497,"伏</w>":1498,"宮</w>":1499,"コ</w>":1500,"銀</w>":1501,"り</w>":1502,"路</w>":1503,"ε</w>":1504,"ы</w>":1505,"ظ</w>":1506,"ш</w>":1507,"ひ</w>":1508,"水</w>":1509,"お</w>":1510,"河</w>":1511,"ウ</w>":1512,"ṃ</w>":1513,"知</w>":1514,"庄</w>":1515,"ê</w>":1516,"ල</w>":1517,"相</w>":1518,"藤</w>":1519,"ら</w>":1520,"達</w>":1521,"喜</w>":1522,"石</w>":1523,"三</w>":1524,"े</w>":1525,"保</w>":1526,"Ι</w>":1527,"越</w>":1528,"ǎ</w>":1529,"吉</w>":1530,"त</w>":1531,"金</w>":1532,"番</w>":1533,"笠</w>":1534,"خ</w>":1535,"›</w>":1536,"仏</w>":1537,"€</w>":1538,"飛</w>":1539,"動</w>":1540,"青</w>":1541,"（</w>":1542,"勢</w>":1543,"ã</w>":1544,"廣</w>":1545,"θ</w>":1546,"ʊ</w>":1547,"玉</w>":1548,"ဣ</w>":1549,"摩</w>":1550,"ス</w>":1551,"ツ</w>":1552,"γ</w>":1553,"イ</w>":1554,"ิ</w>":1555,"ト</w>":1556,"寒</w>":1557,"成</w>":1558,"柳</w>":1559,"羅</w>":1560,"ص</w>":1561,"ो</w>":1562,"λ</w>":1563,"春</w>":1564,"Å</w>":1565,"内</w>":1566,"穂</w>":1567,"堂</w>":1568,"鹿</w>":1569,"物</w>":1570,"Ý</w>":1571,"磯</w>":1572,"阿</w>":1573,"見</w>":1574,"П</w>":1575,"市</w>":1576,"羽</w>":1577,"โ</w>":1578,"う</w>":1579,"ဎ</w>":1580,"豆</w>":1581,"張</w>":1582,"常</w>":1583,"白</w>":1584,"李</w>":1585,"辺</w>":1586,"愛</w>":1587,"½</w>":1588,"丁</w>":1589,"￼</w>":1590,"須</w>":1591,"ं</w>":1592,"·</w>":1593,"×</w>":1594,"生</w>":1595,"、</w>":1596,"ذ</w>":1597,"↑</w>":1598,"「</w>":1599,"대</w>":1600,"ณ</w>":1601,"ह</w>":1602,"所</w>":1603,"蒲</w>":1604,"留</w>":1605,"新</w>":1606,"発</w>":1607,"月</w>":1608,"美</w>":1609,"ア</w>":1610,"®</w>":1611,"ω</w>":1612,"多</w>":1613,"\\</w>":1614,"切</w>":1615,"ṣ</w>":1616,"村</w>":1617,"浦</w>":1618,"老</w>":1619,"ำ</w>":1620,"取</w>":1621,"群</w>":1622,"山</w>":1623,"ジ</w>":1624,"ႊ</w>":1625,"å</w>":1626,"赤</w>":1627,"ə</w>":1628,"橋</w>":1629,"ж</w>":1630,"弘</w>":1631,"û</w>":1632,"か</w>":1633,"{</w>":1634,"п</w>":1635,"飯</w>":1636,"名</w>":1637,"万</w>":1638,"淵</w>":1639,"横</w>":1640,"形</w>":1641,"Ú</w>":1642,"ほ</w>":1643,"里</w>":1644,"陸</w>":1645,"線</w>":1646,"府</w>":1647,"塩</w>":1648,"ද</w>":1649,"แ</w>":1650,"プ</w>":1651,"ี</w>":1652,"г</w>":1653,"千</w>":1654,"世</w>":1655,"せ</w>":1656,"西</w>":1657,"あ</w>":1658,"南</w>":1659,"ช</w>":1660,"松</w>":1661,"蓮</w>":1662,"ٰ</w>":1663,"堀</w>":1664,"ハ</w>":1665,"茂</w>":1666,"富</w>":1667,"系</w>":1668,"族</w>":1669,"菜</w>":1670,"К</w>":1671,"先</w>":1672,"七</w>":1673,"¥</w>":1674,"С</w>":1675,"ケ</w>":1676,"В</w>":1677,"ื</w>":1678,"동</w>":1679,"§</w>":1680,"校</w>":1681,"マ</w>":1682,"明</w>":1683,"本</w>":1684,"四</w>":1685,"≤</w>":1686,"ම</w>":1687,"滝</w>":1688,"幡</w>":1689,"ά</w>":1690,"観</w>":1691,"雄</w>":1692,"ǒ</w>":1693,"芸</w>":1694,"和</w>":1695,"川</w>":1696,"ο</w>":1697,"்</w>":1698,"人</w>":1699,"曽</w>":1700,"民</w>":1701,"だ</w>":1702,"深</w>":1703,"袋</w>":1704,"洋</w>":1705,"江</w>":1706,"元</w>":1707,"भ</w>":1708,"上</w>":1709,"・</w>":1710,"б</w>":1711,"，</w>":1712,"浜</w>":1713,"教</w>":1714,"ò</w>":1715,"目</w>":1716,"海</w>":1717,"入</w>":1718,"記</w>":1719,"森</w>":1720,"ñ</w>":1721,"ç</w>":1722,"斐</w>":1723,"は</w>":1724,"分</w>":1725,"賀</w>":1726,"ศ</w>":1727,"頭</w>":1728,"甲</w>":1729,"唐</w>":1730,"セ</w>":1731,"县</w>":1732,"稲</w>":1733,"五</w>":1734,"浅</w>":1735,"中</w>":1736,"役</w>":1737,"郎</w>":1738,"船</w>":1739,"草</w>":1740,"リ</w>":1741,"円</w>":1742,"師</w>":1743,"備</w>":1744,"東</w>":1745,"開</w>":1746,"加</w>":1747,"関</w>":1748,"布</w>":1749,"騨</w>":1750,"有</w>":1751,"茶</w>":1752,"星</w>":1753,"公</w>":1754,"ဉ</w>":1755,"!</w>":1756,"華</w>":1757,"清</w>":1758,"න</w>":1759,"女</w>":1760,"龍</w>":1761,"ၚ</w>":1762,"田</w>":1763,"ئ</w>":1764,"한</w>":1765,"キ</w>":1766,"ï</w>":1767,"荒</w>":1768,"県</w>":1769,"真</w>":1770,"ø</w>":1771,"原</w>":1772,"坂</w>":1773,"第</w>":1774,"口</w>":1775,"^</w>":1776,"京</w>":1777,"居</w>":1778,"ၦ</w>":1779,"州</w>":1780,"後</w>":1781,"前</w>":1782,"日</w>":1783,"้</w>":1784,"レ</w>":1785,"ノ</w>":1786,"伊</w>":1787,"毛</w>":1788,"倉</w>":1789,"¸</w>":1790,"気</w>":1791,"電</w>":1792,"館</w>":1793,"正</w>":1794,"′</w>":1795,"貝</w>":1796,"द</w>":1797,"宿</w>":1798,"る</w>":1799,"±</w>":1800,"จ</w>":1801,"す</w>":1802,"岩</w>":1803,"当</w>":1804,"利</w>":1805,"那</w>":1806,"高</w>":1807,"ש</w>":1808,"場</w>":1809,"園</w>":1810,"א</w>":1811,"ʃ</w>":1812,"豊</w>":1813,"住</w>":1814,"蔵</w>":1815,"馬</w>":1816,"今</w>":1817,"ႀ</w>":1818,"自</w>":1819,"佛</w>":1820,"社</w>":1821,"神</w>":1822,"ၿ</w>":1823,"間</w>":1824,"宝</w>":1825,"方</w>":1826,"字</w>":1827,"ى</w>":1828,"テ</w>":1829,"鶴</w>":1830,"子</w>":1831,"μ</w>":1832,"々</w>":1833,"紀</w>":1834,"ၑ</w>":1835,"湯</w>":1836,"立</w>":1837,"つ</w>":1838,"丸</w>":1839,"別</w>":1840,"勝</w>":1841,"ต</w>":1842,"佐</w>":1843,"ၢ</w>":1844,"福</w>":1845,"木</w>":1846,"ន</w>":1847,"香</w>":1848,"九</w>":1849,"₹</w>":1850,"τ</w>":1851,"機</w>":1852,"柏</w>":1853,"急</w>":1854,"β</w>":1855,"А</w>":1856,"温</w>":1857,"代</w>":1858,"主</w>":1859,"際</w>":1860,"博</w>":1861,"ු</w>":1862,"戸</w>":1863,"Б</w>":1864,"桂</w>":1865,"音</w>":1866,"井</w>":1867,"－</w>":1868,"ษ</w>":1869,"播</w>":1870,"池</w>":1871,"平</w>":1872,"ʰ</w>":1873,"岸</w>":1874,"་</w>":1875,"都</w>":1876,"牛</w>":1877,"秋</w>":1878,"足</w>":1879,"矢</w>":1880,"◌</w>":1881,"旭</w>":1882,"ι</w>":1883,"御</w>":1884,"区</w>":1885,"尻</w>":1886,"國</w>":1887,"行</w>":1888,"手</w>":1889,"予</w>":1890,"根</w>":1891,"智</w>":1892,"狩</w>":1893,"舟</w>":1894,"尾</w>":1895,"黨</w>":1896,"サ</w>":1897,"地</w>":1898,"屋</w>":1899,"駅</w>":1900,"霞</w>":1901,"π</w>":1902,"英</w>":1903,"沢</w>":1904,"武</w>":1905,"延</w>":1906,"帝</w>":1907,"崎</w>":1908,"来</w>":1909,"良</w>":1910,"鳥</w>":1911,"」</w>":1912,"院</w>":1913,"郷</w>":1914,"二</w>":1915,"釜</w>":1916,"片</w>":1917,"八</w>":1918,"島</w>":1919,"芳</w>":1920,"門</w>":1921,"禪</w>":1922,"瀬</w>":1923,"十</w>":1924,"烏</w>":1925,"広</w>":1926,"能</w>":1927,"寺</w>":1928,"湖</w>":1929,"シ</w>":1930,"早</w>":1931,"葉</w>":1932,"一</w>":1933,"不</w>":1934,"ц</w>":1935,"岡</w>":1936,"И</w>":1937,"င်":1938,"ို":1939,"ော":1940,"သည":1941,"သည်</w>":1942,"န်":1943,"ား":1944,"က်":1945,"င်း":1946,"စ်":1947,"င်</w>":1948,"ပြ":1949,"မျ":1950,"ရွ":1951,"မြ":1952,"ည်":1953,"ရှ":1954,"ကြ":1955,"ဖြ":1956,"ပ်":1957,"ေး":1958,"တွ":1959,"င့":1960,"တ်":1961,"ို့":1962,"ကျ":1963,"ိုင်":1964,"နှ":1965,"မှ":1966,"န်း":1967,"ုံ":1968,"ို</w>":1969,"ား</w>":1970,"ောင်":1971,"ချ":1972,"တွင်</w>":1973,"ီး":1974,"ေါ":1975,"င့်</w>":1976,"များ":1977,"ဖြစ်":1978,"မ်":1979,"ဲ့":1980,"ုပ်":1981,"ကို</w>":1982,"ယ်</w>":1983,"ur":1984,"id</w>":1985,"do":1986,"ယ်":1987,"=\"</w>":1988,"doc</w>":1989,"ောက်":1990,"ရွာ</w>":1991,"နေ":1992,"ိုး":1993,"ရှိ":1994,"မြို့":1995,"က်</w>":1996,"ော်":1997,"နယ်</w>":1998,"ခဲ့":1999,"ရာ":2000,"ခြ":2001,"ရွာ":2002,"သေ":2003,"မ်း":2004,"စု":2005,"င်း</w>":2006,"ိုင်း":2007,"မြို့နယ်</w>":2008,"သော</w>":2009,"ောင်း":2010,"ီး</w>":2011,"ဦး":2012,"နိုင်":2013,"င့်":2014,"့်":2015,"ပါ":2016,"ပေါ":2017,"ကု":2018,"နှင့်</w>":2019,"ုံး":2020,"ti":2021,"ဖြစ်သည်</w>":2022,"မှာ</w>":2023,"ို့</w>":2024,"အုပ်":2025,"le</w>":2026,"tit":2027,"cur":2028,"=\"":2029,"title</w>":2030,"\"></w>":2031,"</</w>":2032,"url</w>":2033,"curid</w>":2034,"=\"?</w>":2035,"တစ်":2036,"ခု":2037,"စ်</w>":2038,"တည်":2039,"များ</w>":2040,"ကျေး":2041,"စာ":2042,"လူ":2043,"လည်":2044,"ိုက်":2045,"န်</w>":2046,"ရေး":2047,"ူး":2048,"ကျေးရွာ":2049,"ကို":2050,"ဦး</w>":2051,"ကွ":2052,"ကျေးရွာအုပ်":2053,"ကြီး":2054,"တို့":2055,"ခေါ":2056,"တော်":2057,"လာ":2058,"ရေ":2059,"ရှိသည်</w>":2060,"၂၀":2061,"လျ":2062,"ခဲ့သည်</w>":2063,"နိုင်င":2064,"မှ</w>":2065,"ပြည်":2066,"နှစ်":2067,"သူ":2068,"့်</w>":2069,"လွ":2070,"ိုင်</w>":2071,"လေ":2072,"သာ":2073,"ဖြင့်</w>":2074,"တော":2075,"ခရ":2076,"မှု":2077,"ဖွ":2078,"ပြီး</w>":2079,"သွ":2080,"လုပ်":2081,"မာ":2082,"သော":2083,"၁၉":2084,"တ်</w>":2085,"ည်း":2086,"ထား":2087,"လက်":2088,"နေရာ":2089,"ဒေ":2090,"ုတ်":2091,"စွ":2092,"လည်း</w>":2093,"စု</w>":2094,"အသ":2095,"သည်":2096,"မျိုး":2097,"ောက်</w>":2098,"ဆို":2099,"ပြု":2100,"သည့်</w>":2101,"ဘာ":2102,"မိ":2103,"အတွ":2104,"ထို":2105,"အစ":2106,"ရင်း":2107,"လှ":2108,"တည်ရှိသည်</w>":2109,"ပွ":2110,"နိုင်ငံ":2111,"ကြီး</w>":2112,"ေ့":2113,"န့်":2114,"()</w>":2115,"သို့</w>":2116,"သား":2117,"ခရိုင်</w>":2118,"ောင်း</w>":2119,"ခွ":2120,"ဝင်":2121,"တာ":2122,"၂၀၁":2123,"ကုတ်":2124,"အန":2125,"ရာ</w>":2126,"ပေါင်း</w>":2127,"ကျေးရွာအုပ်စု</w>":2128,"ဉ်":2129,"ရွာနေရာ":2130,"ကုတ်မှာ</w>":2131,"ရွာနေရာကုတ်မှာ</w>":2132,"ဂျ":2133,"ခြင်း":2134,"န်း</w>":2135,"များကို</w>":2136,"ထိုင်":2137,"ခံ":2138,"အရ</w>":2139,"စစ်":2140,"ပင်":2141,"တိ":2142,"အထ":2143,"တောင်":2144,"သန်း":2145,"နေထိုင်":2146,"တိုင်း":2147,"သမ":2148,"သိ":2149,"က္":2150,"သို့":2151,"ုရ":2152,"လျှ":2153,"ဆောင်":2154,"ဒေသ":2155,"ခြင်း</w>":2156,"ပျ":2157,"ပေး":2158,"မင်း":2159,"န္":2160,"လူဦး":2161,"ရိ":2162,"လေး":2163,"ခေါင်":2164,"စာရင်း":2165,"ကာ":2166,"ဖြစ်</w>":2167,"ပ်</w>":2168,"အား":2169,"မြန်":2170,"စုစု":2171,"တို့</w>":2172,"ရေ</w>":2173,"တ္":2174,"ထွ":2175,"စုစုပေါင်း</w>":2176,"နာ":2177,"စုတွင်</w>":2178,"၂၀၁၄</w>":2179,"အမ":2180,"ရှိ</w>":2181,"သန်းခေါင်":2182,"င်္":2183,"သန်းခေါင်စာရင်း":2184,"စေ":2185,"ပု":2186,"နေထိုင်သည်</w>":2187,"ကြသည်</w>":2188,"ကျေးရွာအုပ်စုတွင်</w>":2189,"တင်":2190,"သန်းခေါင်စာရင်းအရ</w>":2191,"စား":2192,"ကျား</w>":2193,"လူဦးရေ</w>":2194,"ယူ":2195,"ဲ့</w>":2196,"၏။</w>":2197,"အခ":2198,"မ္":2199,"ဝါ":2200,"ဘုရ":2201,"ည့်":2202,"ယာ":2203,"နှင့်":2204,"ဟု</w>":2205,"ရက်":2206,")၊</w>":2207,"နှစ်</w>":2208,"အချ":2209,"ဖွဲ့":2210,"သွား":2211,"ကုန်း":2212,"တရ":2213,"ိတ်":2214,"အား</w>":2215,"ောင်</w>":2216,"ရန်</w>":2217,"မြန်မာ":2218,"ခုနှစ်":2219,"ရပ်":2220,"ပည":2221,"ိုလ":2222,"ပြည်နယ်</w>":2223,"ကြော":2224,"မဟ":2225,"ရောက်":2226,"အိ":2227,"ပုံ":2228,"ည်</w>":2229,"ပေါ်":2230,"ဦးနေထိုင်သည်</w>":2231,"အာ":2232,"ကာ</w>":2233,"တီ":2234,"15":2235,"ရန်":2236,"ဆုံး":2237,"ပြီး":2238,"ိန်":2239,"မွ":2240,"တွင်":2241,"လေသည်</w>":2242,"ရှင်":2243,"နယ်":2244,"ရွှ":2245,"လို":2246,"17":2247,"ုံး</w>":2248,"ကျွ":2249,"ိုင်း</w>":2250,"အခြ":2251,"ဝန်":2252,"ရေး</w>":2253,"ိပ်":2254,"ဆက်":2255,"ချုပ်":2256,"လုံး":2257,"တပ်":2258,"မှတ်":2259,"တိုင်းဒေသ":2260,"ပညာ":2261,"ပေ":2262,"အကြ":2263,"19":2264,"က္က":2265,"မူ":2266,"တော်</w>":2267,"တိုက်":2268,"ဒီ":2269,"စ္":2270,"18":2271,"တိုင်းဒေသကြီး</w>":2272,"၁၈":2273,"ပြန်":2274,"သီ":2275,"16":2276,"ခုနှစ်</w>":2277,"ပြင်":2278,"ရသည်</w>":2279,"အဖြစ်</w>":2280,"နိုင်ငံ</w>":2281,"သည့်":2282,"သုံး":2283,"သူ</w>":2284,"ကြောင့်</w>":2285,"တာ</w>":2286,"အတွက်</w>":2287,"00":2288,"ကား":2289,"သစ်":2290,"စီ":2291,"ပင်</w>":2292,"ရှမ်း":2293,"လျှင်</w>":2294,"စည်း":2295,"ထုတ်":2296,"ပိုင်း":2297,"ဆိုင်":2298,"အရှ":2299,"ကိုယ်":2300,"ရွှေ":2301,"ွေ":2302,"ပန်":2303,"ကျောင်း":2304,"မ်း</w>":2305,"ကျောက်":2306,"ရီ":2307,"ော့":2308,"ချက်":2309,"အလ":2310,"ကောင်း":2311,"စီး":2312,"ကြား":2313,"an":2314,"ဇာ":2315,"ိုး</w>":2316,"ar":2317,"မိုင်း":2318,"ါး":2319,"ထောင်":2320,"သာ</w>":2321,"အမျိုး":2322,"မှု</w>":2323,"တွေ့":2324,"ကန်":2325,"လွှ":2326,"သက်":2327,"ဌာ":2328,"နေ့":2329,"ဆင်":2330,"လည်း":2331,"ပွဲ":2332,"in":2333,"အတ":2334,"ုတ်</w>":2335,"အောက်":2336,"ဆွ":2337,"အောင်":2338,"ခုနှစ်တွင်</w>":2339,"မည်":2340,"ကုန်":2341,"လိုက်":2342,"လမ်း":2343,"အဖွဲ့":2344,"အင်":2345,"များသည်</w>":2346,"အသုံး":2347,"ရုပ်":2348,"မြေ":2349,"ရော":2350,"ိုလ်":2351,"ခေါ်":2352,"နီ":2353,"နောက်":2354,"တက်":2355,"အဆ":2356,"စွာ":2357,"နည်း":2358,"တစ်ခု":2359,"သံ":2360,"ကမ္":2361,"ခု</w>":2362,"မြောက်":2363,"ပါဝင်":2364,"ရှမ်းပြည်နယ်</w>":2365,"တန်း":2366,"ဘူ":2367,"ဘော":2368,"ဆရာ":2369,"ခင်":2370,"မြို့</w>":2371,"တ္တ":2372,"င်္ဂ":2373,"ရှား":2374,"စက်":2375,"ခေ":2376,"တရား":2377,"သော်":2378,"ပါသည်</w>":2379,"တူ":2380,"၁၇":2381,"ုန်း":2382,"ဘုရား":2383,"14":2384,"အခါ</w>":2385,"ဖော်":2386,"ပန်း":2387,"လွန်":2388,"မြင်":2389,"များတွင်</w>":2390,"ိန်း":2391,"ရွက်":2392,"ဘက်":2393,"er":2394,"ပေါင်း":2395,"ချောင်း":2396,"ဓာ":2397,"ဏ်":2398,"တို":2399,"ပါး":2400,"အရ":2401,"ံ့":2402,"lt</w>":2403,"ပေါက်":2404,"ဒေါ":2405,"နား":2406,"ထွက်":2407,"သဖြင့်</w>":2408,"ငယ်":2409,"လီ":2410,"ဘာသာ":2411,"gt</w>":2412,"ကုန်းရွာ</w>":2413,"စဉ်":2414,"ဘွ":2415,"စွာ</w>":2416,"ရက်</w>":2417,"မီ":2418,"ပိုင်":2419,"ကျော်":2420,"ဟု":2421,"မ့်":2422,"ယင်း":2423,"ပွား":2424,"လေ့":2425,"ပတ်":2426,"on":2427,"ကောင်း</w>":2428,"မြစ်":2429,"သတ်":2430,"ဆေး":2431,"ကမ္ဘာ":2432,"ညီ":2433,"လုပ်င":2434,"သင်":2435,"ပါ</w>":2436,"ခွင့်":2437,"မိုး":2438,"ကား</w>":2439,"တို့သည်</w>":2440,"လင်း":2441,"အပြ":2442,"ဲခ":2443,"နောက်</w>":2444,"နစ်":2445,"နွ":2446,"မန်":2447,"မြောက်</w>":2448,"MM":2449,"န္ဒ":2450,"MMR":2451,"ဓိ":2452,"th":2453,"ရင်":2454,"10":2455,"လိ":2456,"ဥပ":2457,"ဒါ":2458,"en":2459,"ကြောင်း</w>":2460,"ပထ":2461,"ဖျ":2462,"ကွယ်":2463,"သော်လည်း</w>":2464,"၁၆":2465,"ခန့်":2466,"ုပ်</w>":2467,"စတ":2468,"ထို့":2469,"ဝေ":2470,"ချင်း":2471,"အိမ်":2472,"ရိုး":2473,"တံ":2474,"က္ခ":2475,"အစိုး":2476,"စိတ်":2477,"များနှင့်</w>":2478,"သား</w>":2479,"တို့ကို</w>":2480,"ငြ":2481,"ပူ":2482,"ပြောင်း":2483,"မ်</w>":2484,"စံ":2485,"အခြေ":2486,"ဟို":2487,"န္တ":2488,"အသုံးပြု":2489,"မြတ်":2490,"တယ်</w>":2491,"အကျ":2492,"သော်</w>":2493,"ဒ္":2494,"ပေ</w>":2495,"or":2496,"ဒု":2497,"ခေါင်း":2498,"ဆုံး</w>":2499,"တွင်း":2500,"ကျွန်း":2501,"လည်းကောင်း</w>":2502,"နတ်":2503,"ကိုင်း":2504,"ရရှိ":2505,"01":2506,"တောင်</w>":2507,"မီး":2508,"မရှိ":2509,"နိ":2510,"လယ်":2511,"ဂ္":2512,"လုပ်ငန်း":2513,"အုပ်ချုပ်":2514,"ေ့</w>":2515,"ကြာ":2516,"ကဲ့":2517,"တိုး":2518,"တတ်":2519,"အောင်</w>":2520,"မဟုတ်</w>":2521,"အတွင်း</w>":2522,"တင်း":2523,"on</w>":2524,"ပ္":2525,"စကား":2526,"အမည်":2527,"၂၀၀":2528,"မျှ":2529,"ပြော":2530,"ခဲ့ပြီး</w>":2531,"ီးယ":2532,"ကွန်":2533,"စိ":2534,"တ္ထ":2535,"ခေတ်":2536,"အပ်":2537,"မော်":2538,"အဓိ":2539,"နောင်":2540,"ခြား":2541,"un":2542,"ဖက်":2543,"စပ်":2544,"ရဲ":2545,"မည်</w>":2546,"အတွင်း":2547,"ကလေး":2548,"ဖြစ်ပြီး</w>":2549,"နန်း":2550,"အများ":2551,"ဆာ":2552,"၁၂":2553,"သီး":2554,"မှာ":2555,"ထင်":2556,"ပြုလုပ်":2557,"မြင့်":2558,"ဝင်</w>":2559,"သု":2560,"မျက်":2561,"အို":2562,"ညောင်":2563,"ပထမ":2564,"တန်":2565,"ဆီ":2566,"ဂါ":2567,"အင်္ဂ":2568,"ကော":2569,"ကိုင်":2570,"ဏ္":2571,"ရာဇ":2572,"အထိ</w>":2573,"လဲ":2574,"အားဖြင့်</w>":2575,"အဖြစ်":2576,"အမေ":2577,"၁၀":2578,"တိုင်":2579,"ကူ":2580,"ကူး":2581,"မူ</w>":2582,"ေး</w>":2583,"ပဲခ":2584,"အခြား":2585,"မို":2586,"ဇာတ်":2587,"ခွဲ":2588,"ဆောင်ရွက်":2589,"ညွ":2590,"ဉ်</w>":2591,"ဂ္ဂ":2592,"သိမ်း":2593,"ဖြူ":2594,"ပြည့်":2595,"ထဲ":2596,"တစ်ခု</w>":2597,"နိုင်သည်</w>":2598,"ထားသည်</w>":2599,"ဓာတ်":2600,"ဋ္":2601,"ငွေ":2602,"ပဲခူး":2603,"ငါး":2604,"အမေရိ":2605,"20":2606,"ကော်":2607,"အနေ":2608,"ွန်":2609,"၁၃":2610,"ပို":2611,"အရှေ့":2612,"ော</w>":2613,"လော":2614,"ရက်နေ့":2615,"မန္တ":2616,"လား":2617,"ခိုင်":2618,"ကောင်":2619,"အချိန်":2620,"လင်":2621,"အရေး":2622,"လုံ":2623,"အင်း":2624,"မဟာ":2625,"အမှ":2626,"ကြောင်း":2627,"မျိုး</w>":2628,"ော်</w>":2629,"နက်":2630,"တက္က":2631,"ပစ္":2632,"ရဟ":2633,"ဖြင့်":2634,"သင်္":2635,"ဆောက်":2636,"တီး":2637,"စိုက်":2638,"သေး":2639,"သည်ဟု</w>":2640,"စတင်":2641,"ဖြတ်":2642,"ဘီ":2643,"လူမျိုး":2644,"ရုံ":2645,"ta":2646,"အစိုးရ":2647,"ဟူ":2648,"တက္ကသ":2649,"သို့မဟုတ်</w>":2650,"စည်":2651,"မွေး":2652,"တိယ":2653,"ဗိုလ်":2654,"အရှေ့</w>":2655,"ကျင်း":2656,"ဆိုင်ရာ</w>":2657,"များမှာ</w>":2658,"ဟာ":2659,"ဉ်း":2660,"အီ":2661,"ရှေး":2662,"စော":2663,"te":2664,"ဗြ":2665,"ကောက်":2666,"၁၅":2667,"ထက်":2668,"ဒ်":2669,"ခြေ":2670,"လွတ်":2671,"ဌာန":2672,"ရည်":2673,"ဝိ":2674,"in</w>":2675,"အရာ":2676,"ရို":2677,"မံ":2678,"တော်မူ":2679,"ကျင်":2680,"ရှိသော</w>":2681,"ဘူတာ</w>":2682,"လိပ်":2683,"ိမ်း":2684,"ကိုး":2685,"စုံ":2686,"ုဒ္":2687,"70":2688,"မောင်":2689,"ဗျ":2690,"အကြောင်း":2691,"ရေးသား":2692,"ဖြစ်သော</w>":2693,"လ်":2694,"မြှ":2695,"န့်</w>":2696,"13":2697,"an</w>":2698,"ချီ":2699,"ဆိပ်":2700,"လွှတ်":2701,"အနောက်":2702,"ထားသော</w>":2703,"ro":2704,"ရာတွင်</w>":2705,"တွေ":2706,"ဟူ</w>":2707,"စစ်ကိုင်း":2708,"မန္တလေး":2709,"စင်":2710,"ဆင်း":2711,"၁၄":2712,"သမ္":2713,"ငှ":2714,"ပ္ပ":2715,"လာ</w>":2716,"ကိုလည်း</w>":2717,"ကိ":2718,"ရု":2719,"တုံ":2720,"သူ့":2721,"al":2722,"ထူး":2723,"မဲ":2724,"ိမ်":2725,"နမ့်":2726,"ဂျပန်":2727,"မု":2728,"မာ</w>":2729,"အဝ":2730,"လန်":2731,"re":2732,"မေ":2733,"တစ်ဦး":2734,"တီ</w>":2735,"အက်":2736,"မွန်":2737,"ခဲ့သော</w>":2738,"တည်း":2739,"တည်ရှိ":2740,"ထမ်း":2741,"တမ်း":2742,"ဖွဲ့စည်း":2743,"လပ်":2744,"ထပ်":2745,"ူး</w>":2746,"၁၉၅":2747,"ရွေး":2748,"၁၉၄":2749,"ကွေး":2750,"အထူး":2751,"၁၉၆":2752,"ဒေသ</w>":2753,"သောအခါ</w>":2754,"တော့":2755,"ထက်</w>":2756,"ယောက်":2757,"ဖော်ပြ":2758,"ကမ်း":2759,"ဘဲ</w>":2760,"ရိုက်":2761,"တာဝန်":2762,"ခဲ့</w>":2763,"ရပ်ကွ":2764,"သတင်း":2765,"သဘော":2766,"၁၉၉":2767,"ထောက်":2768,"ထိုး":2769,"ချိန်":2770,"ဥပဒေ":2771,"ရက်နေ့တွင်</w>":2772,"ရီ</w>":2773,"တု":2774,"ကဲ့သို့</w>":2775,"ပိုင်း</w>":2776,"အလုပ်":2777,"ရုံး":2778,"တဲ့</w>":2779,"စွဲ":2780,"တောင်း":2781,"ပို့":2782,"ပြိုင်":2783,"ခဲ့ကြသည်</w>":2784,"30":2785,"ကြည်":2786,"ပြား":2787,"ဏာ":2788,"မြန်မာနိုင်ငံ":2789,"ကြ</w>":2790,"ဖန်":2791,"၀၀</w>":2792,"သမီး":2793,"ကစား":2794,"များက</w>":2795,"25":2796,"ရှင်</w>":2797,"ဖြစ်လာ":2798,"အချို့":2799,"ဒေါ်":2800,"ပျက်":2801,"ရောင်":2802,"ကွဲ":2803,"Th":2804,"ပေသည်</w>":2805,"အခါ":2806,"မတ်":2807,"ဝမ်":2808,"ဘာလ</w>":2809,"ရှင်း":2810,"ရွယ်":2811,"ဆယ်":2812,"ဝန်း":2813,"ပြီ</w>":2814,"ခိုက်":2815,"စေ</w>":2816,"ဗုဒ္":2817,"ကြွ":2818,"နို":2819,"လျက်":2820,"စဉ်</w>":2821,"ပါတယ်</w>":2822,"ပြီးနောက်</w>":2823,"မကွေး":2824,"ကွင်း":2825,"မိမိ":2826,"လုံး</w>":2827,"မှန်":2828,"တရုတ်":2829,"ချိ":2830,"ခါ":2831,"ဘွဲ့":2832,"ဝန်ကြီး":2833,"ရဟန်း":2834,"သွယ်":2835,"ကြိုး":2836,"ဒုတိယ":2837,"အထက်":2838,"သတ်မှတ်":2839,"ည့်</w>":2840,"ကုန်း</w>":2841,"ပစ္စည်း":2842,"ကင်း":2843,"ဘုရင်":2844,"ဂီ":2845,"ထိ":2846,"is":2847,"ရှည်":2848,"er</w>":2849,"ရှာ":2850,"ချင်":2851,"သည်မှာ</w>":2852,"the</w>":2853,"ဝတီ":2854,"မ္မ":2855,"ပြည်ထောင်":2856,"သတ္တ":2857,"ကြည့်":2858,"သျ":2859,"၁၉၈":2860,"ပြင်</w>":2861,"မား":2862,"ခံ</w>":2863,"လွယ်":2864,"ရန်ကုန်":2865,"ခန်း":2866,"မျှ</w>":2867,"ထွန်း":2868,"ပီ":2869,";/</w>":2870,"စ္စ":2871,"၁၉၇":2872,"ပဲခူးတိုင်းဒေသကြီး</w>":2873,"ပုံ</w>":2874,"am":2875,"သွင်း":2876,"သို့သော်</w>":2877,"ချုပ်</w>":2878,"စီ</w>":2879,"သာယာ":2880,"မဟုတ်":2881,"28":2882,"စီးပွား":2883,"ard</w>":2884,"ပါး</w>":2885,"နီး":2886,"တိုင်း</w>":2887,"ဂျာ":2888,"ခံရ":2889,"es":2890,"ဗုဒ္ဓ":2891,"ကာလ":2892,"ကျမ်း":2893,"ရပ်ကွက်</w>":2894,"သမ္မ":2895,"ထိန်း":2896,"ကျင်းပ":2897,"အစည်း":2898,"သမိုင်း":2899,"ယခု":2900,"လေး</w>":2901,"စုရွာ</w>":2902,"ကျိုင်း":2903,"ic":2904,"26":2905,"စစ်ကိုင်းတိုင်းဒေသကြီး</w>":2906,"ဂု":2907,"ထင်ရှား":2908,"ည်း</w>":2909,"နံ":2910,"ဘဝ":2911,"အစား":2912,"သောကြောင့်</w>":2913,"စနစ်":2914,"လောက်":2915,"အိုင်":2916,"အလွန်":2917,"ပြု</w>":2918,"သာသ":2919,"သမား":2920,"ယာ</w>":2921,"စာပေ":2922,"လျက်</w>":2923,"ဆန်":2924,"ပြည်နယ်":2925,"ဖွဲ့</w>":2926,"27":2927,"24":2928,"စွမ်း":2929,"ပစ်":2930,"အလယ်":2931,"29":2932,"ချမ်း":2933,"၁၂</w>":2934,"36":2935,"ဗေ":2936,"အမှတ်</w>":2937,"ညွှ":2938,"39":2939,"အေ":2940,"အိန္ဒ":2941,"ဆု":2942,"al</w>":2943,"မြင်း":2944,"50":2945,"ီးယား":2946,"၁၀</w>":2947,"ဖွား":2948,"ောက်အ":2949,"ဗီ":2950,"ဆီး":2951,"34":2952,"ိုလ်</w>":2953,"အဆို":2954,"မြတ်စွာ":2955,"ပေါ်</w>":2956,"ing</w>":2957,"မှူး":2958,"ဆွဲ":2959,"တော့</w>":2960,"အမေရိကန်":2961,"38":2962,"ow":2963,"မင်း</w>":2964,"ပါတီ":2965,"ဂေါ":2966,"of</w>":2967,"tr":2968,"များကို":2969,"ခေါ်</w>":2970,"ိယ":2971,"အနောက်</w>":2972,"လောင်း":2973,"ရောဂါ":2974,"မျက်နှ":2975,"ဝါး":2976,"ကြီးရွာ</w>":2977,"ကီ":2978,"ဗြိ":2979,"ပေါ်တွင်</w>":2980,"တွေ့ရှိ":2981,"အပြင်</w>":2982,"ဘုရား</w>":2983,"လေ့လာ":2984,"ဝတ္ထ":2985,"ဝေါ":2986,"အမြ":2987,"ဗြိတိ":2988,"တည်ဆောက်":2989,"အချက်":2990,"ခဲ့ကြ":2991,"ကြီးမြို့နယ်</w>":2992,"ဘာ</w>":2993,"အဆင့်":2994,"ရစ်":2995,"as":2996,"ပွဲ</w>":2997,"ဖူး":2998,"သွေး":2999,"မြို့တွင်</w>":3000,"ခဲ":3001,"ကျယ်":3002,"37":3003,"ကံ":3004,"ဝိုင်း":3005,"မက်":3006,"ac":3007,"ညှ":3008,"ပြီးလျှင်</w>":3009,"ငါ":3010,"ပျိုး":3011,"ဇင်":3012,"ဝက်":3013,"ချောင်း</w>":3014,"ခါး":3015,"ဏ္ဍ":3016,"ကန်</w>":3017,"လူဦးရေ":3018,"အမျိုးသား":3019,"ပိ":3020,"ချောင်းရွာ</w>":3021,"မြူ":3022,"အကြီး":3023,"ကိုယ်ပိုင်":3024,"es</w>":3025,"ချေ</w>":3026,"om":3027,"ပြီ":3028,"စိုး":3029,"ကော့":3030,"35":3031,"ကျန်း":3032,"မှုကို</w>":3033,"စေတီ":3034,"ဆောင်</w>":3035,"ရင်း</w>":3036,"၂၀</w>":3037,"ဖွင့်":3038,"ကြေး":3039,"သျှ":3040,"ပြန်လည်":3041,"it":3042,"သင့်":3043,"MMR01":3044,"နာ</w>":3045,"ဝတ်":3046,"တွဲ":3047,"သာသနာ":3048,"များအား</w>":3049,"အေး":3050,"150":3051,"လွိုင်":3052,"စာအုပ်":3053,"အောင်မြင်":3054,"ကရင်":3055,"မိတ်":3056,"များစွာ":3057,"ကပ်":3058,"တန်း</w>":3059,"ဝါရီ":3060,"အမှတ်":3061,"လှုပ်":3062,"ယဉ်":3063,"နေ</w>":3064,"ဘို":3065,"နဲ့</w>":3066,"ကယ်":3067,"တိုက်ခိုက်":3068,"အတွက်":3069,"မြို့နယ်":3070,"၁၁</w>":3071,"ယား":3072,"စသည်":3073,"ချက်</w>":3074,"Ward</w>":3075,"တိမ်":3076,"ငှက်":3077,"၁၅</w>":3078,"ခရီး":3079,"ပြောင်းလဲ":3080,"ညာ":3081,"လစ်":3082,"ဝယ်":3083,"တိုးတက်":3084,"ကာကွယ်":3085,"ထု":3086,"ဂို":3087,"အရှင်":3088,"၂၂":3089,"ကျန်":3090,"ကျောင်း</w>":3091,"စား</w>":3092,"ကျော်</w>":3093,"သည်ကို</w>":3094,"သူသည်</w>":3095,"el":3096,"40":3097,"သရက်":3098,"အသက်":3099,"ကျိုင်းတုံ":3100,"အဖွဲ့</w>":3101,"စမ်း":3102,"မယ်":3103,"at":3104,"စီမံ":3105,"ခို":3106,"အသင်း":3107,"တက္ကသိုလ်":3108,"မန္တလေးတိုင်းဒေသကြီး</w>":3109,"မော":3110,"ar</w>":3111,"သဲ":3112,"နေသော</w>":3113,"လွတ်လပ်":3114,"ati":3115,"စာ</w>":3116,"ယာဉ်":3117,"တို့က</w>":3118,"သခင်":3119,"ခွင့်ရ":3120,"ပိုင်းတွင်</w>":3121,"တို့တွင်</w>":3122,"အတူ</w>":3123,"တပ်မ":3124,"တား":3125,"ပူး":3126,"ခဲ့လေသည်</w>":3127,"ကျင့်":3128,"အခြေခံ":3129,"us":3130,"တိုင်</w>":3131,"ဖာ":3132,"ဖေ":3133,"အာဏာ":3134,"ထုတ်လုပ်":3135,"or</w>":3136,"ချစ်":3137,"မျက်နှာ":3138,"ကန့်":3139,"ol":3140,"ပင်လယ်":3141,"ထား</w>":3142,"ခဲ့ရသည်</w>":3143,"မြန်မာနိုင်ငံ</w>":3144,"ဆံ":3145,"il":3146,"ရှေ့":3147,"ပြည်</w>":3148,"များမှ</w>":3149,"ကုန်</w>":3150,"ဒ်</w>":3151,"ဟောင်း":3152,"ဖိုး":3153,"ကေ":3154,"ဆောင်း":3155,"လာသည်</w>":3156,"မှုများ</w>":3157,"ကြောင့်":3158,"ယျ":3159,"မကွေးတိုင်းဒေသကြီး</w>":3160,"ဘက်</w>":3161,"တည်ထောင်":3162,"စိုက်ပျိုး":3163,"နှုန်း":3164,"၁၄</w>":3165,"and</w>":3166,"45":3167,"၁၉၃":3168,"၁၆</w>":3169,"တိုက်</w>":3170,"လင်းမြို့နယ်</w>":3171,"ဋ္ဌ":3172,"န်းမြို့နယ်</w>":3173,"ထည့်":3174,"လောင်":3175,"အမှု":3176,"ထီး":3177,"နေ့</w>":3178,"ပိတ်":3179,"ဖြေ":3180,"ခြင်းကို</w>":3181,"ရိယာ":3182,"ချင်း</w>":3183,"ချို":3184,"အယ်":3185,"ဌာန</w>":3186,"တန":3187,"ဟူသော</w>":3188,"စိန်":3189,"တေ":3190,"ဝမ်း":3191,"မိုင်":3192,"၁၈</w>":3193,"သင်ကြား":3194,"စောင့်":3195,"များဖြင့်</w>":3196,"ဘိ":3197,"ရောင်း":3198,"MMR00":3199,"အတိုင်း</w>":3200,"၁၃</w>":3201,"ရုပ်ရှင်":3202,"အိန္ဒိယ":3203,"ရံ":3204,"ပိုး":3205,"ငွ":3206,"MMR0":3207,"လိုင်":3208,"ပုဂ္ဂ":3209,"လတွင်</w>":3210,"လှန်":3211,"ဝါဒ":3212,"ကော်မ":3213,"လေ</w>":3214,"အဲ":3215,"ဗာ":3216,"လို</w>":3217,"ဖြစ်စေ</w>":3218,"နစ်</w>":3219,"အနည်း":3220,"ကိုယ်ပိုင်အုပ်ချုပ်":3221,"ခြောက်":3222,"ပါက</w>":3223,"ဖြစ်ပေါ်":3224,"ယုံ":3225,"အင်္ဂလိပ်":3226,"ဘူး":3227,"ရှု":3228,"ပွင့်":3229,"န်န":3230,"ရှိပြီး</w>":3231,"မ္ပ":3232,"အဓိက":3233,"လိုက်</w>":3234,"အရပ်":3235,"နိုင်ငံရေး":3236,"ခတ်":3237,"အသံ":3238,"ဝတ္ထု":3239,"သက္က":3240,"own</w>":3241,"ပါဝင်သည်</w>":3242,"49":3243,"တက္ကသိုလ်</w>":3244,"ဆူ":3245,"အကျိုး":3246,"ပဲ</w>":3247,"ခဲ့ရ":3248,"ဆိုး":3249,"ကမ္ဘာ့":3250,"ဘယ်":3251,"ကွာ":3252,"သည်လည်း</w>":3253,"ရမည်</w>":3254,"ခွန်":3255,"စေရန်</w>":3256,"ဝင်ရောက်":3257,"ခေတ်</w>":3258,"ဟော":3259,"ဝှ":3260,"၁၉</w>":3261,"ပညာ</w>":3262,"ရွာသည်</w>":3263,"ed</w>":3264,"သမ္မတ":3265,"ခဲ့သည့်</w>":3266,"ကွက်":3267,"ဖျက်":3268,"ဉာ":3269,"ခန့်</w>":3270,"ပယ်":3271,"ဘား":3272,"၁၇</w>":3273,"ယှ":3274,"ဆန်း":3275,"ဟန်":3276,"ကျွန်":3277,"ဟာ</w>":3278,"မရ":3279,"လျှပ်":3280,"ဝဝ</w>":3281,"ကိုယ်ပိုင်အုပ်ချုပ်ခွင့်ရ":3282,"တွင်လည်း</w>":3283,"aun":3284,"ပုံစံ":3285,"ဝဲ":3286,"သဘာ":3287,"ဂုဏ်":3288,"လုပ်ကိုင်":3289,"ခင်</w>":3290,"ဆည်":3291,"Town</w>":3292,"မောက်":3293,"ဆိုင်ရာ":3294,"လျှောက်":3295,"ဟိ":3296,"ယွ":3297,"ဖိ":3298,"ယဉ်ကျေး":3299,"48":3300,"အရွယ်":3301,"ပါအ":3302,"ရာသီ":3303,"ပြေ":3304,"ဝင်း":3305,"Ch":3306,"ကဗျ":3307,"ဖွေ":3308,"မ္ပဏ":3309,"ကုမ္ပဏ":3310,"ခြံ":3311,"ဥက္က":3312,"ငြိမ်း":3313,"ထုတ်ဝေ":3314,"မိန့်":3315,"တည်း</w>":3316,"သီချင်း":3317,"၂၁</w>":3318,"ထံ":3319,"ဘူတာ":3320,"ရမ":3321,"ဂီတ":3322,"ကချင်":3323,"ပြင်း":3324,"ယက်":3325,"မှစ</w>":3326,"မေး":3327,"အိုး":3328,"အနု":3329,"ခေါင်းဆောင်":3330,"ရောက်ရှိ":3331,"ဂျင်":3332,"တယ်":3333,"ဂျီ":3334,"လှုပ်ရှား":3335,"ဆင့်</w>":3336,"ဝီ":3337,"ဆရာတော်":3338,"ဆုံ":3339,"ထေ":3340,"နု":3341,"68":3342,"79":3343,"ဗဟို":3344,"ဥရော":3345,"အံ":3346,"ဘေး":3347,"ဝါရီလ</w>":3348,"ကြေ":3349,"၂၅":3350,"ကဲ့သို့":3351,"ထားသည့်</w>":3352,"ဆိ":3353,"ထို့နောက်</w>":3354,"သစ်</w>":3355,"ဆရာ</w>":3356,"လု":3357,"တိမ်ကော":3358,"ပဲ":3359,"12":3360,"စကား</w>":3361,"နိုင်</w>":3362,"မီ</w>":3363,"ောင့်":3364,"သူများ</w>":3365,"ဆို</w>":3366,"ဂျပန်နိုင်ငံ</w>":3367,"၂၅</w>":3368,"ဆက်သွယ်":3369,"၃၀</w>":3370,"ကင်":3371,"ဆိုသည်</w>":3372,"ခရိုင်":3373,"ဓမ္မ":3374,"သူများ":3375,"ခိုး":3376,"နီ</w>":3377,"ဖတ်":3378,"လှူ":3379,"အသီး":3380,"တည်ရှိသည့်</w>":3381,"လာခဲ့သည်</w>":3382,"ပြည်ထောင်စု":3383,"တေး":3384,"ငူ":3385,"ကြယ်":3386,"ကြံ":3387,"ပညာရှင်":3388,"အုတ်":3389,"အဆောက်အ":3390,"ိမ်</w>":3391,"ဗမာ":3392,"ကိုယ်စား":3393,"အက":3394,"ထူ":3395,"ec":3396,"တူး":3397,"သန":3398,")\"></w>":3399,"ဇူ":3400,"ိုဟ":3401,"လိုအပ်":3402,"ဈေး":3403,"န်မြို့နယ်</w>":3404,"170":3405,"ကိန်း":3406,"ဖြိုး":3407,"69":3408,"တက":3409,"လို့</w>":3410,"၂၆":3411,"အောက်တို":3412,"ရောက်</w>":3413,"သရုပ်":3414,"မြှင့်":3415,"ဖြစ်သည့်</w>":3416,"တိမ်ကောသွား":3417,"ဇွန်":3418,"သိပ္ပ":3419,"ရသော</w>":3420,"ရှိုး":3421,"44":3422,"ခရစ်":3423,"ချီး":3424,"ပျံ":3425,"မြန်မာ</w>":3426,"စက်တင်":3427,"ပိုက်":3428,"ရိတ်":3429,"္စ":3430,"အစဉ်":3431,"နှင့်အတူ</w>":3432,"ရာဇ်</w>":3433,"ပုဒ်":3434,"ခဲ့ရာ</w>":3435,"ဒီဇင်":3436,"၂၄</w>":3437,"at</w>":3438,"ဂူ":3439,"ခမ်း":3440,"ကြိမ်":3441,"ခြင်းဖြစ်သည်</w>":3442,"နေသည်</w>":3443,"59":3444,"စီးပွားရေး":3445,"အစီ":3446,"ဇန်န":3447,"အလျ":3448,"အနက်</w>":3449,"ချယ်":3450,"ဤရွာသည်</w>":3451,"ရှာဖွေ":3452,"မှုများ":3453,"လက်နက်":3454,"ပျော်":3455,"ကွယ်လွန်":3456,"ဖမ်း":3457,"င်္သာ":3458,"စာရေး":3459,"ဗေဒ":3460,"\")</w>":3461,"200":3462,"တောရွာ</w>":3463,"အနေဖြင့်</w>":3464,"လုပ်ဆောင်":3465,"ရတ":3466,"ဩဂ":3467,"60":3468,"ဘိုး":3469,"တော်လှန်":3470,"မောင်း":3471,"58":3472,"ထို့ကြောင့်</w>":3473,"ထေရ":3474,"နေရာ</w>":3475,"မြန်မာ့":3476,"နွေး":3477,"သင်္ဘော":3478,"တွေ</w>":3479,"ဒဏ်":3480,"ပြည်သူ့":3481,"ယော":3482,"ယူ</w>":3483,"သောက်":3484,"67":3485,"လားရှိုး":3486,"၃၀":3487,"လွင်":3488,"ြိုဟ":3489,"၂၂</w>":3490,"ဝန်</w>":3491,"ဘော်":3492,"ကြက်":3493,"ရွာသစ်":3494,"၂၄":3495,"၂၇":3496,"22":3497,"ag":3498,"တင်</w>":3499,"ut":3500,"အဖွဲ့အစည်း":3501,"ပါတီ</w>":3502,"တဲ့":3503,"ဖြစ်ပွား":3504,"ယုံကြည်":3505,"နိုင်ငံတော်":3506,"ဘက်တွင်</w>":3507,"ဒို":3508,"နှံ":3509,"၏၊</w>":3510,"ညို":3511,"ဦးစီး":3512,"ဝေး":3513,"ဘု":3514,"၃၅":3515,"လမ်း</w>":3516,"ဇီ":3517,"ပြန့်":3518,"မြိုင်":3519,"ဟုခေါ်":3520,"ဆဲ":3521,"သာမ":3522,"အပူ":3523,"က္ကူ":3524,"ပြည်သူ":3525,"ch":3526,"မီတာ</w>":3527,"မြတ်စွာဘုရား":3528,"နိုဝင်":3529,"47":3530,"ဆန်း</w>":3531,"နှိပ်":3532,"ဂွ":3533,"သင်း":3534,"ကျန်းမာ":3535,"ဖို":3536,"၂၇</w>":3537,"အယူ":3538,"ီးယား</w>":3539,"အားလုံး":3540,"၍၊</w>":3541,"ပျဉ်း":3542,"အပိုင်း":3543,"ကဗျာ":3544,"ဖောက်":3545,"ခုံ":3546,"ငယ်</w>":3547,"ယို":3548,"၂၃</w>":3549,"ကိစ္စ":3550,"ဖွံ့":3551,"အနီး":3552,"de":3553,"ယု":3554,"ဖြစ်ကြသည်</w>":3555,"တွင်း</w>":3556,"ဇီး":3557,"ကျုံ":3558,"မိ</w>":3559,"ရာစု":3560,"လက်ထက်":3561,"ကချင်ပြည်နယ်</w>":3562,"33":3563,"ထိုင်း":3564,"ထုံး":3565,"အားကစား":3566,"တောက်":3567,"စ္ဆာ":3568,"သောင်း":3569,"တူညီ":3570,"ent</w>":3571,"ဖု":3572,"အသက်</w>":3573,"ဆိုသည်မှာ</w>":3574,"11":3575,"ထန်":3576,"ဖေါ":3577,"ထိပ်":3578,"နိုင်သော</w>":3579,"ဗြိတိသျှ":3580,"ကွန်မြူ":3581,"သာယာဝတီ":3582,"ကွင်း</w>":3583,"ဋ္ဌာ":3584,"အပါအ":3585,"အစိုးရ</w>":3586,"လွှတ်တော်":3587,"99":3588,"တမ":3589,"တိမ်ကောသွားပြီ</w>":3590,"လူဦးရေစုစုပေါင်း</w>":3591,"အပင်":3592,"ထမ်းဆောင်":3593,"The</w>":3594,"တောင်ငူ":3595,"နွယ်":3596,"ကုသ":3597,"၂၆</w>":3598,"ရပ်</w>":3599,"ပြေး":3600,"ဖွံ့ဖြိုး":3601,"ထန်း":3602,"လူမျိုး</w>":3603,"si":3604,"ဘာသာစကား":3605,"65":3606,"ကလည်း</w>":3607,"ad":3608,"မူလ":3609,"ဖွယ်":3610,"လှည့်":3611,"လွှမ်း":3612,"၂၈</w>":3613,"ပြင်သစ်":3614,"ပင်ရွာ</w>":3615,"မြို့တော်":3616,"ဇော်":3617,"ရွေးကောက်":3618,"ဖြစ်ပါသည်</w>":3619,"လာသော</w>":3620,"လောက":3621,"လ်</w>":3622,"ဇ္":3623,"တို့မှာ</w>":3624,"လိပ်</w>":3625,"သေးသည်</w>":3626,"ဂံ":3627,"လံ":3628,"နက်</w>":3629,"အခွင့်":3630,"ချိန်</w>":3631,"အမျိုးမျိုး":3632,"များစွာ</w>":3633,"ထွင်":3634,"ရဲ့</w>":3635,"ခြင်းနှင့်</w>":3636,"ပေါ်ပေါက်":3637,"မိုင်</w>":3638,"စေသည်</w>":3639,"ကီလို":3640,"ဥရောပ":3641,"လျှပ်စစ်":3642,"ကျူး":3643,"သိပ္ပံ":3644,"ပြောဆို":3645,"ပို</w>":3646,"န်းရွာ</w>":3647,"သန်":3648,"ဂြိုဟ":3649,"ဆွေး":3650,"ဖုရ":3651,"လည်</w>":3652,"ဦးမြို့နယ်</w>":3653,"လွိုင်လင်":3654,"၂၉":3655,"အနက်":3656,"တတ်သည်</w>":3657,"ရထား":3658,"တန့်":3659,"မင်":3660,"ရှိနေ":3661,"le":3662,"ကြီးသည်</w>":3663,"ri":3664,"တစ်မျိုး":3665,"ဒီမို":3666,"သက်</w>":3667,"ပံ":3668,"သာရွာ</w>":3669,"ထဲတွင်</w>":3670,"ကြို":3671,"ဆရာတော်</w>":3672,"လက်ခံ":3673,"သဘာဝ":3674,"78":3675,"ထိန်းသိမ်း":3676,"ကြား</w>":3677,"၂၃":3678,"လက်</w>":3679,"ဖျား":3680,"သူတို့</w>":3681,"ယောက်</w>":3682,"၂၉</w>":3683,"ဘဲ":3684,"အာရှ":3685,"အဝေး":3686,"ရေးနှင့်</w>":3687,"ဒီမိုက":3688,"လုပ်ငန်း</w>":3689,"မှန်း":3690,"၁၈၈":3691,"နာမည်":3692,"ယူဆ":3693,"ယှဉ်":3694,"ရန်အတွက်</w>":3695,"aung</w>":3696,"ရှစ်":3697,"ဇင်း":3698,"ရင်</w>":3699,"ဆတ်":3700,"ကုမ္ပဏီ":3701,"ပရိ":3702,"ရခိုင်":3703,"ပိုမို":3704,"ပုဂ္ဂိုလ်":3705,"ဘာသာ</w>":3706,"ဆိပ်</w>":3707,"အသား":3708,"တို့အား</w>":3709,"ရူ":3710,"၂၈":3711,"တော</w>":3712,"23":3713,"ပလ":3714,"မဂ္ဂ":3715,"ချာ":3716,"ယ့်":3717,"ဘုန်း":3718,"ဘူတာတစ်ခု</w>":3719,"အောက်</w>":3720,"မိန်း":3721,"ခွင့်</w>":3722,"နောက်ဆုံး":3723,"မည့်</w>":3724,"ယံ":3725,"သပ်":3726,"မုံ":3727,"သုံးစွဲ":3728,"လှယ်":3729,"မကြာ":3730,"သမီး</w>":3731,"တစ်ဦး</w>":3732,"တပ်မတော်":3733,"ဆင့်":3734,"တဲ":3735,"အဲခ":3736,"အာဖ":3737,"ပျူ":3738,"အမျိုးသမီး":3739,"ဆန္ဒ":3740,"ကွမ်း":3741,"ပေးခဲ့သည်</w>":3742,"သိန်း":3743,"များအတွက်</w>":3744,"မှူး</w>":3745,"ခြုံ":3746,"ဘုရင်</w>":3747,"အခြေအနေ":3748,"တမ်း</w>":3749,"en</w>":3750,"ရက်တွင်</w>":3751,"ရယ်":3752,"သက္ကရာဇ်</w>":3753,"မင်းသား":3754,"ပေး</w>":3755,"အဲခိ</w>":3756,"ခင်း":3757,"ul":3758,"ဧပြီ":3759,"နည်း</w>":3760,"ပိုင်</w>":3761,"တွန်း":3762,"တို့နှင့်</w>":3763,"သန့်":3764,"ဆိုင်း":3765,"ခဲ့ပါသည်</w>":3766,"to</w>":3767,"ကိုးကွယ်":3768,"လဲ</w>":3769,"ကြမ်း":3770,"ဝါ</w>":3771,"သုတေ":3772,"ခြင်းဖြင့်</w>":3773,"ဗိုလ်ချုပ်":3774,"စသော</w>":3775,"၄၀</w>":3776,"၁၈၉":3777,"မြစ်</w>":3778,"ရွှေ့":3779,"တူ</w>":3780,"ပံ့":3781,"ဂါ</w>":3782,"ညွှန်":3783,"မှတ်တမ်း":3784,"ဗ္":3785,"မကျ":3786,"77":3787,"ကျောင်းသား":3788,"ဒီ</w>":3789,"အသိ":3790,"န်ရွာ</w>":3791,"ဆက်</w>":3792,"ဆက်လက်":3793,"ယျာ":3794,"ဖွင့်လှ":3795,"ရွေးချယ်":3796,"စီရင်":3797,"ဆန့်":3798,"စစ်</w>":3799,"ပျောက်":3800,"လျှင်":3801,"မတ်လ</w>":3802,"မွေးဖွား":3803,"မန်း":3804,"ကျွန်း</w>":3805,"ရှိသည့်</w>":3806,"88":3807,"အစာ":3808,"mo":3809,"နွား":3810,"တော်ကို</w>":3811,"ကျွမ်း":3812,"ကြလေသည်</w>":3813,"ရရှိခဲ့သည်</w>":3814,"ter":3815,"ခြင်းသည်</w>":3816,"တွေ့ရ":3817,"စတုရ":3818,"မိဖုရ":3819,"သိမ်":3820,"10</w>":3821,"ap":3822,"ရာထူး":3823,"၃၆":3824,"ဏ်</w>":3825,"ကျောက်မဲ":3826,"ရုံ</w>":3827,"ဖြန့်":3828,"အထိ":3829,"၅၀</w>":3830,"အမြင့်":3831,"ဩဂုတ်":3832,"In":3833,"မပြု":3834,"တနင်္သာ":3835,"ရေးအတွက်</w>":3836,"များနှင့်":3837,"ဆုံးဖြတ်":3838,"90":3839,"ay</w>":3840,"လျင်":3841,"မဲ့":3842,"ိုက်</w>":3843,"ကလ":3844,"နိုင်ရန်</w>":3845,"သမား</w>":3846,"ဒေါက်":3847,"ယခင်":3848,"၀၀၀</w>":3849,"အပေါ်</w>":3850,"တစ်နှစ်":3851,"အမေရိကန်</w>":3852,"ပ္ပာ":3853,"လူး":3854,"ဉာဏ်":3855,"တို့မှ</w>":3856,"စည်း</w>":3857,"ဖြစ်သူ</w>":3858,"au":3859,"66":3860,"ကပင်</w>":3861,"ကွန်မြူနစ်":3862,"ကိုယ်ပိုင်အုပ်ချုပ်ခွင့်ရဒေသ</w>":3863,"အော်":3864,"ဇု":3865,"ပေါင်":3866,"ယန်းမြို့နယ်</w>":3867,"ဘားအံ":3868,"ီလာ":3869,"ဏ္ဍာ":3870,"ခွဲ</w>":3871,"ဂါး":3872,"တစ်ယောက်":3873,"ကလေး</w>":3874,"ပြုပြင်":3875,"တ္တိ":3876,"ပုဂံ":3877,"လိုင်း":3878,"ပြန်သည်</w>":3879,"လူ့":3880,"စစ်ဆေး":3881,"အရည်":3882,"လျက်ရှိသည်</w>":3883,"55":3884,"100":3885,"ဒြ":3886,"အဓိပ္ပာ":3887,"ယောင်":3888,"ဖြစ်လေသည်</w>":3889,"ပျက်စီး":3890,"ဘောလုံး":3891,"ik":3892,"စတင်</w>":3893,"ရ်":3894,"ဘဝ</w>":3895,"ဖေဖော်":3896,"တိရ":3897,"ရှား</w>":3898,"ပြိုင်ပွဲ":3899,"တုန်း":3900,"um</w>":3901,"တိုင်းရင်း":3902,"ကျွဲ":3903,"တွေ့ရသည်</w>":3904,"ဆား":3905,"ပြစ်":3906,"ic</w>":3907,"နိုင်ခဲ့သည်</w>":3908,"လှိုင်း":3909,"စဉ်က</w>":3910,"မြောင်း":3911,"၃၁</w>":3912,"တော်မူ</w>":3913,"ပြာ":3914,"သွားသည်</w>":3915,"စခန်း":3916,"သည်း":3917,"အန္":3918,"op":3919,"ချဲ့":3920,"အမျိုးအစား":3921,"ရှောက်":3922,"ဖွင့်လှစ်":3923,"for":3924,"ဟောင်း</w>":3925,"တနင်္သာရီ":3926,"ပခု":3927,"မြေ</w>":3928,"ရှယ်":3929,"ကဲ":3930,"as</w>":3931,"၃၈":3932,"ကျား":3933,"ir":3934,"အပေါ်":3935,"မိတ္ထ":3936,"သကဲ့သို့</w>":3937,"ပြန်</w>":3938,"ဇူလိုင်":3939,"me":3940,"70150":3941,"NG":3942,"80":3943,"ပန်းချီ":3944,"စွန့်":3945,"ဒေ</w>":3946,"အနား":3947,"လေ့ရှိသည်</w>":3948,"ဂရ":3949,"အလင်း":3950,"မည်ဟု</w>":3951,"အင်အား":3952,"Ky":3953,"သေဆုံး":3954,"ပထမဆုံး":3955,"ဗန်း":3956,"ကျ</w>":3957,"အိမ်</w>":3958,"အလက်":3959,"20</w>":3960,"အဖွဲ့ဝင်":3961,"ကြသော</w>":3962,"ရှိကြသည်</w>":3963,"ညွှန်း":3964,"တန်</w>":3965,"မင်္ဂ":3966,"ခံရသည်</w>":3967,"ဖေါ်":3968,"တရာ":3969,"ရတနာ":3970,"ပြုစု":3971,"ရောင်</w>":3972,"အမိန့်":3973,"ခ်":3974,"နယ်မြေ":3975,"ပြည်ထောင်စု</w>":3976,"av":3977,"ig":3978,"11</w>":3979,"ရာမှ</w>":3980,"ဂြိုဟ်":3981,"ဖက်</w>":3982,"စတုရန်း":3983,"သဏ္":3984,"ထိုအခါ</w>":3985,"ကျိုင်းတုံမြို့နယ်</w>":3986,"ဆွေးနွေး":3987,"အာဖရိ":3988,"အုန်း":3989,"ပြည့်နှစ်":3990,"ရွှေဘို":3991,"ဗိ":3992,"ကျိုင်းတုံခရိုင်</w>":3993,"များကိုလည်း</w>":3994,"46":3995,"ထာ":3996,"က္ခာ":3997,"NGC</w>":3998,"ဖို့</w>":3999,"လူမှု":4000,"၃၄":4001,"မြတ်စွာဘုရား</w>":4002,"တပ်</w>":4003,"နိုင်ငံခြား":4004,"အပါအဝင်</w>":4005,"လိုက်သည်</w>":4006,"မှာလည်း</w>":4007,"os":4008,"ပထမဆုံး</w>":4009,"ဥယျာ":4010,"တံဆိပ်":4011,"သီပေါ":4012,"လိမ့်":4013,"ကြီးမား":4014,"လေယာဉ်":4015,"ဦးဆောင်":4016,"၁၉၀":4017,"အုပ်ချုပ်ရေး":4018,"သွား</w>":4019,"အစော":4020,"မိတ္ထီလာ":4021,"အစား</w>":4022,"မတူ":4023,"နိုင်ငံတွင်</w>":4024,"aw</w>":4025,"12</w>":4026,"ကန်ရွာ</w>":4027,"ကြီးကို</w>":4028,"ရာခိုင်":4029,"အုံ":4030,"တိယ</w>":4031,"သီရိ":4032,"ထွက်</w>":4033,"အလို":4034,"et</w>":4035,"ပခုက္ကူ":4036,"ဆစ်":4037,"21</w>":4038,"သို့ရာတွင်</w>":4039,"၃၇</w>":4040,"လင်္":4041,"ဖြစ်စေ":4042,"one</w>":4043,"ဆက်ဆံ":4044,"လား</w>":4045,"ငွေ့":4046,"ဥပဒေ</w>":4047,"ထိုအချိန်":4048,"အရောင်":4049,"များလည်း</w>":4050,"ဂိုဏ်":4051,"မိသား":4052,"သတ္တု":4053,"တိရစ္ဆာ":4054,"ဒိ":4055,"aw":4056,"ဟင်း":4057,"ခံစား":4058,"ဖန်တီး":4059,"ဖယ်":4060,"နိုင်ငံတ":4061,"၁၈၇":4062,"ang":4063,"ဉ့်":4064,"တုံး":4065,"ကုန်းကျေးရွာအုပ်စု</w>":4066,"အနည်းငယ်":4067,"con":4068,"သည့်အခါ</w>":4069,"ကြပြီး</w>":4070,"ငြင်း":4071,"ညီ</w>":4072,"စက်မှု":4073,"ဗီယက်":4074,"ရွာသစ်ရွာ</w>":4075,"နွေ":4076,"သဏ္ဌာ":4077,"ချေ":4078,"လုပ်</w>":4079,"My":4080,"ချွ":4081,"နာရီ":4082,"ခွဲခြား":4083,"oc":4084,"No</w>":4085,"ပြသ":4086,"43":4087,"တီထွင်":4088,"စ္စာ":4089,"ab":4090,"၁၈၆":4091,"ထုံ":4092,"ရေနံ":4093,"ter</w>":4094,"လက္ခ":4095,"သိရှိ":4096,"di":4097,"တောင်ရွာ</w>":4098,"ရောဂါ</w>":4099,"ကတ်":4100,"အိပ်":4101,"အရေ":4102,"ကြီးများ</w>":4103,"မေလ</w>":4104,"ယေ":4105,"ပါယ်":4106,"ပြင်ဆင်":4107,"ဘုံ":4108,"ကရင်ပြည်နယ်</w>":4109,"ယနေ့":4110,"ခမ်း</w>":4111,"စံ</w>":4112,"နှံ့":4113,"ခဲ့သော်လည်း</w>":4114,"လှေ":4115,"တို့ဖြင့်</w>":4116,"ကျော်ကြား":4117,"သတင်းစာ":4118,"ဆန့်ကျင်":4119,"ဝန်းကျင်":4120,"မိုင်းပျဉ်း":4121,"ဋိ":4122,"Sh":4123,"ဇာတ်လမ်း":4124,"ကြပ်":4125,"ဆောက်လုပ်":4126,"အုပ်</w>":4127,"သတ္တဝါ":4128,"ဒွ":4129,"ခန္":4130,"သန်း</w>":4131,"75":4132,"တက်</w>":4133,"အုပ်စု":4134,"လက်ပံ":4135,"ဖို့":4136,"၃၉":4137,"၄၅":4138,"အကြံ":4139,"နဲ":4140,"ဒန်":4141,"ဋ္ဌာန်း":4142,"လွန်</w>":4143,"အစိတ်":4144,"၃၅</w>":4145,"ခွာ":4146,"အမျိုးသား</w>":4147,"အူ":4148,"ကုလား":4149,"ဆွေ":4150,"ဝ်":4151,"ရည်ရွယ်":4152,"မိုင်းပျဉ်းမြို့နယ်</w>":4153,"အရင်း":4154,"ဝံ":4155,"မိုင်းဆတ်":4156,"15</w>":4157,"ဋ္ဌ</w>":4158,"14</w>":4159,"ation</w>":4160,"ဖြူ</w>":4161,"အသစ်":4162,"ပါဝင်သော</w>":4163,"တံတား":4164,"၃၇":4165,"ပေါက်</w>":4166,"လက်မ":4167,"နှီး":4168,"ကွဲပြား":4169,"လျား":4170,"ခက်":4171,"25</w>":4172,"ထိုသို့</w>":4173,"ဘောင်":4174,"ဆည်း":4175,"180":4176,"ဒီမိုကရေ":4177,"ရေးကို</w>":4178,"သို":4179,"မောက်မြို့နယ်</w>":4180,"၁၈၅":4181,"16</w>":4182,"မှုများကို</w>":4183,"တန်းရွာ</w>":4184,"၃၂</w>":4185,"em":4186,"is</w>":4187,"13</w>":4188,"ခြား</w>":4189,"ယခုအခါ</w>":4190,"ရီးယား":4191,"တက်ရောက်":4192,"အချင်း":4193,"အဓိက</w>":4194,"တွက်":4195,"ဝမြို့နယ်</w>":4196,"ထေရ်</w>":4197,"အခြား</w>":4198,"199":4199,"မူဆယ်":4200,"အန်":4201,"တိ</w>":4202,"ကွတ်":4203,"လေ့</w>":4204,"ယူး":4205,"တ္တာ":4206,"တရား</w>":4207,"ဓမ္":4208,"၃၆</w>":4209,"ပတ်သက်":4210,"တတိယ":4211,"24</w>":4212,"အသင်း</w>":4213,"မွှ":4214,"ကော်မတီ":4215,"သဘ":4216,"tal</w>":4217,"တင်ပြ":4218,"19</w>":4219,"အတူ":4220,"ay":4221,"ဂျစ်":4222,"သီး</w>":4223,"တွဲ</w>":4224,"သည်ဟု":4225,"190":4226,"စသည့်</w>":4227,"မဖြစ်":4228,"မရှိ</w>":4229,"ဤသို့":4230,"ပေးသည်</w>":4231,"198":4232,"ဉ်း</w>":4233,"ရက်နေ့</w>":4234,"စီးပွားရေး</w>":4235,"အနုပညာ":4236,"ဝါရီ</w>":4237,"လွိုင်လင်ခရိုင်</w>":4238,"နှစ်ခု":4239,"ညောင်ပင်":4240,"ဆွတ်":4241,"တံခါး":4242,"လီ</w>":4243,"စနစ်</w>":4244,"17</w>":4245,"ူးမြို့နယ်</w>":4246,"23</w>":4247,"22</w>":4248,"ou":4249,"ယဉ်ကျေးမှု":4250,"အကောင်း":4251,"သူတို့":4252,"မှုကြောင့်</w>":4253,"27</w>":4254,"နင်း":4255,"၃၃</w>":4256,"ထားပြီး</w>":4257,"ဘူး</w>":4258,"ဖြစ်ကြောင်း</w>":4259,"18</w>":4260,"ဇွ":4261,"လှ</w>":4262,"စွန်း":4263,"စစ်ပွဲ":4264,"ဧပြီလ</w>":4265,"သပြေ":4266,"ရေးဆွဲ":4267,"29</w>":4268,"et":4269,"28</w>":4270,"ထိ</w>":4271,"ပြဿ":4272,"သုံး</w>":4273,"သရုပ်ဆောင်":4274,"မိမိ</w>":4275,"သူမ":4276,"အစ္စ":4277,"ဇေ":4278,"ရလေသည်</w>":4279,"201":4280,"ထည့်သွင်း":4281,"တော့သည်</w>":4282,"အစ်":4283,"ဩဂုတ်လ</w>":4284,"လက်အောက်":4285,"ခွင့်ပြု":4286,"အများစု":4287,"စေ့":4288,"ဇွန်လ</w>":4289,"စော်":4290,"၄၉</w>":4291,"ကာလ</w>":4292,"26</w>":4293,"ပင်း":4294,"၄၉":4295,"မြို့သည်</w>":4296,"ရောင်းချ":4297,"၄၅</w>":4298,"ဆု</w>":4299,"အောက်ပါ":4300,"သာယာဝတီခရိုင်</w>":4301,"ရွေ့":4302,"တောင်ကြီး":4303,"စိတ်</w>":4304,"ib":4305,"ဘတ်":4306,"၄၆":4307,"ုန်း</w>":4308,"အမတ်":4309,"ဧက":4310,"ထို့ပြင်</w>":4311,"ပက်":4312,"တိုင်းပြည်":4313,"ကိုင်မြို့နယ်</w>":4314,"ခန့်အပ်":4315,"ထံ</w>":4316,"သိမ်းပိုက်":4317,"သတိ":4318,"သရ":4319,"မည်သည့်":4320,"it</w>":4321,"သယ်":4322,"အန္တရာ":4323,"အကျယ်":4324,"အရာရှိ":4325,"လွှင့်":4326,"ဖုံး":4327,"မောင်</w>":4328,"၄၀":4329,"oo":4330,"ပြ</w>":4331,"များသို့</w>":4332,"ဗေဒ</w>":4333,"ကြိမ်</w>":4334,"ဝန်ဆောင်":4335,"ညွတ်":4336,"အများအပြ":4337,"ဂျာမ":4338,"ဒိုး":4339,"လွှမ်းမိုး":4340,"လှိုင်":4341,"မြှောက်":4342,"တစ်ရပ်":4343,"အထောက်အ":4344,"အချက်အလက်":4345,"ရှုံး":4346,"အထူးသဖြင့်</w>":4347,"ဟာရ":4348,"အကြောင်း</w>":4349,"ဆင်</w>":4350,"ကွန်ပျူ":4351,"ပူးပေါင်း":4352,"မိဖုရား":4353,"ရှိကာ</w>":4354,"ve</w>":4355,"tion</w>":4356,"ဏ္ဏ":4357,"လိတ်":4358,"ဒါန်း":4359,"ဧရာ":4360,"နှုတ်":4361,"ငြိမ်းချမ်း":4362,"ချော":4363,"ကွင်းရွာ</w>":4364,"ဂရိ":4365,"မော်လ":4366,"ကန်း":4367,"ဖြစ်လာသည်</w>":4368,"၃၉</w>":4369,"ဘ်":4370,"ပြဋ္ဌာန်း":4371,"179":4372,"ဇန်နဝါရီလ</w>":4373,"နည်းပညာ":4374,"ယန်":4375,"ငြာ":4376,"မရွာ</w>":4377,"န္တာ":4378,"ငွေ</w>":4379,"ခန်း</w>":4380,"အဆုံး":4381,"ကြိုးပ":4382,"com":4383,"ဖြစ်နေ":4384,"၈၀</w>":4385,"188":4386,"မြင့်</w>":4387,"ce</w>":4388,"လွှာ":4389,"ဖား":4390,"ent":4391,"သွားရောက်":4392,"အင်တာ":4393,"ဖြစ်ခဲ့သည်</w>":4394,"မင်းကြီး":4395,"ခြင်းမရှိ":4396,"လွှတ်တော်</w>":4397,"မှတ်</w>":4398,"178":4399,"တောင်ကြီးမြို့နယ်</w>":4400,"၃၈</w>":4401,"ဗား":4402,"ယံ</w>":4403,"အစီအစဉ်":4404,"၇၅</w>":4405,"လျော့":4406,"တိုက်ပွဲ":4407,"ပြတ်":4408,"နော်":4409,"နှင်း":4410,"အခါတွင်</w>":4411,"76":4412,"ment</w>":4413,"လူထု":4414,"ပြည့်စုံ":4415,"159":4416,"am</w>":4417,"အတိုင်း":4418,"ပြည်တွင်း":4419,"ထိုသို့":4420,"အစု":4421,"ရွက်</w>":4422,"အင်္ဂလန်":4423,"အဆက်":4424,"၄၂</w>":4425,"ကူညီ":4426,"နောက်ပိုင်းတွင်</w>":4427,"56":4428,"တီးဝိုင်း":4429,"ခံယူ":4430,"ခေါ်သည်</w>":4431,"168":4432,"သံဃ":4433,"တစ်ခုဖြစ်သည်</w>":4434,"စိမ်း":4435,"တို</w>":4436,"န္ဓ":4437,"အထူးဒေသ</w>":4438,"သလို</w>":4439,"ချိန်တွင်</w>":4440,"ခြင်းကြောင့်</w>":4441,"id":4442,"ရိုက်ကူး":4443,"လတ်":4444,"ဖြည်း":4445,"ကောင်းမွန်":4446,"ဒုတိယ</w>":4447,"ချ</w>":4448,"ဥက္ကဋ္ဌ</w>":4449,"ထို</w>":4450,"မည့်":4451,"ပလက်":4452,"ဆော့":4453,"ုံ</w>":4454,"အရှေ့တောင်":4455,"မီတာ":4456,"၁ဝ</w>":4457,"ဇူလိုင်လ</w>":4458,"သွားလာ":4459,"ရန်ကုန်</w>":4460,"ဒီး":4461,"သမ္မတ</w>":4462,"ကိုင်</w>":4463,"အရေးပါ":4464,"ပါဠ":4465,"တတ်</w>":4466,"စက်တင်ဘာလ</w>":4467,"၂၁":4468,"သိက္ခာ":4469,"ak":4470,"၇၀</w>":4471,"မြစ်ကြီး":4472,"ရှောင်":4473,"ကုန်းကျေးရွာအုပ်စုတွင်</w>":4474,"၃၄</w>":4475,"ကျမ်း</w>":4476,"အောက်တိုဘာလ</w>":4477,"ဝေါ်":4478,"၈၅</w>":4479,"ဗုဒ္ဓဘာသာ":4480,"နိုင်သည့်</w>":4481,"ing":4482,"ကောင်စီ":4483,"ဂိုဏ်း":4484,").</w>":4485,"ကြေညာ":4486,"အနာ":4487,"သမိုင်း</w>":4488,"ဖီ":4489,"၅၅</w>":4490,"ဆေး</w>":4491,"လက်ထက်</w>":4492,"ကျိုက်":4493,"ချီးမြှင့်":4494,"oun":4495,"ကိုယ်စားလှယ်":4496,"အလေး":4497,"စစ်တပ်":4498,"လျော်":4499,"လွှဲ":4500,"နပ်":4501,"နေကြ":4502,"နှိုင်း":4503,"ပမာ":4504,"၈၈</w>":4505,"အဓိပ္":4506,"ဝဝဝ</w>":4507,"အပြင်":4508,"ချန်":4509,"ဥက္ကဋ္ဌ":4510,"တစ်စ":4511,"ညှင်း":4512,"မြဲ":4513,"ကိုသာ</w>":4514,"တိရစ္ဆာန်":4515,"ဒါ</w>":4516,"တစ်ပါး":4517,"30</w>":4518,"လားရှိုးခရိုင်</w>":4519,"ပဋိ":4520,"အင်္ဂလိပ်</w>":4521,"သထုံ":4522,"အမှန်":4523,"158":4524,"ဂုံ":4525,"သွင်":4526,"ပိုင်ဆိုင်":4527,"ကွတ်ခိုင်":4528,"ခန္ဓာ":4529,"လက်ထက်တွင်</w>":4530,"တာချီ":4531,"ပြန်လည်</w>":4532,"par":4533,"ပို့ဆောင်":4534,"li":4535,"လူ</w>":4536,"လော့":4537,"တောင်တန်း":4538,"ဒီဇင်ဘာလ</w>":4539,"ဒြပ်":4540,"ရုံး</w>":4541,"ဇာတ်ကား":4542,"ထည်":4543,"form":4544,"ဆာ</w>":4545,"လို့":4546,"အကူ":4547,"မှုနှင့်</w>":4548,"169":4549,"၁၇၆":4550,"သာမက</w>":4551,"တွင်မူ</w>":4552,"တည်</w>":4553,"လက်ရာ":4554,"လွန်း":4555,"ဟွ":4556,"သင်တန်း":4557,"၄၄</w>":4558,"ကီလိုမီတာ</w>":4559,"ထူးခြား":4560,"ခိ":4561,"မကြီး":4562,"၄၈</w>":4563,"တော်လှန်ရေး":4564,"အထွေ":4565,"မင်္ဂလာ":4566,"ကြို့":4567,"အမြဲ":4568,"ဥယျာဉ်":4569,"ကျောက်ဆည်":4570,"မှီ":4571,"သားများ</w>":4572,"ဆိုက်":4573,"ကြိုးပမ်း":4574,"တာချီလိတ်":4575,"အကြိမ်":4576,"၁၇၉":4577,"ကဲ့သို့သော</w>":4578,"ခုနှစ်မှ</w>":4579,"စောင့်ရှောက်":4580,"ထဲမှ</w>":4581,"ပိန်":4582,"ဩစတ":4583,"ဘီး":4584,"ဝါဒ</w>":4585,"ဘွား":4586,"နမ်":4587,"ရိပ်":4588,"အင်ဂျင်":4589,"နိုဝင်ဘာလ</w>":4590,"လင်္ကာ":4591,"ကွတ်ခိုင်မြို့နယ်</w>":4592,"ရှိခဲ့သည်</w>":4593,"၇၇</w>":4594,"ခန့်မှန်း":4595,"ပရို":4596,"အထက်တန်း":4597,"ကောင်</w>":4598,"လင်း</w>":4599,"သုတေသန":4600,"ဗော":4601,"က္ခရာ":4602,"37</w>":4603,"ကတည်း":4604,"အလှ":4605,"သည့်အတွက်</w>":4606,"ကျန်းမာရေး":4607,"၈၃</w>":4608,"ရွေးကောက်ပွဲ":4609,"၄၃</w>":4610,"တစ်ခုကို</w>":4611,"ရဲဘော်":4612,"ဟ္":4613,"နေရာတွင်</w>":4614,"189":4615,"br</w>":4616,"ချွန်":4617,"မင်းလှ":4618,"တောင်းမြို့နယ်</w>":4619,"ထောင်</w>":4620,"အခန်း":4621,"၅၆":4622,"မှုသည်</w>":4623,"31</w>":4624,"လာပြီး</w>":4625,"ထုတ်ပြန်":4626,"ရာဇ်":4627,"တပ်မတော်</w>":4628,"ဒေး":4629,"ဖန်</w>":4630,"မျှော်":4631,"ချမ်းသာ":4632,"ရယူ":4633,"ကြိုက်":4634,"စာချုပ်":4635,"ဘွဲ့</w>":4636,"မိုက်":4637,"ကျိုး":4638,"လူသိ":4639,"ထောင့်":4640,"၅၀":4641,"ဖြစ်လာခဲ့သည်</w>":4642,"မိသားစု":4643,"ရမ်း":4644,"us</w>":4645,"တစ်ခါ":4646,"ထောက်ပံ့":4647,"ရာသီဥ":4648,"ညွှန်ကြား":4649,"ဖွားမြင်":4650,"၇၂</w>":4651,"ကျပ်":4652,"စွယ်":4653,"ပေးအပ်":4654,"ပတ်သက်</w>":4655,"၄၆</w>":4656,"ကျက်":4657,"သုတ်":4658,"34</w>":4659,"ထုတ်</w>":4660,"အတော်":4661,"၈၄</w>":4662,"ကွပ်":4663,"လှူဒါန်း":4664,"33</w>":4665,"အကြား</w>":4666,"roc":4667,"တွေကို</w>":4668,"အထွေထွ":4669,"ဆော်":4670,"ဘာသာစကား</w>":4671,"ဂ်</w>":4672,"နယူး":4673,"ရင့်":4674,"အထက်</w>":4675,"ကြိုးစား":4676,"အာရုံ":4677,"အညီ":4678,"ဖြစ်သည်ဟု</w>":4679,"32</w>":4680,"မဏ":4681,"နေရ":4682,"နိုင်ငံတော်</w>":4683,"အတည်":4684,"ခွေး":4685,"နှုန်း</w>":4686,"လူငယ်":4687,"မင်းဘူး":4688,"ဆပ်":4689,"တခု":4690,"၈၂</w>":4691,"အနိုင်":4692,"လောက်</w>":4693,"အလောင်း":4694,"ဒါယ":4695,"နန်":4696,"တစ်ပါး</w>":4697,"35</w>":4698,"နိုင်ငံရေး</w>":4699,"စပါး":4700,"ဖခင်":4701,"ပန်</w>":4702,"နဲ့":4703,"ရိုး</w>":4704,"အဘိ":4705,"57":4706,"ောင်ရွာ</w>":4707,"သက်ရောက်":4708,"နား</w>":4709,"အားပေး":4710,"တော်တွင်</w>":4711,"ပညာရှင်</w>":4712,"ဂ်":4713,"ဆူး":4714,"နောက်တွင်</w>":4715,"40</w>":4716,"အစိတ်အပိုင်း":4717,"ဖွယ်</w>":4718,"ရောမ":4719,"တ္တရာ":4720,"တော်ကြီး":4721,"စေခဲ့သည်</w>":4722,"၁၈၀":4723,"ဖျော်":4724,"36</w>":4725,"38</w>":4726,"ပအို":4727,"ယား</w>":4728,"အကြိမ်</w>":4729,"အကြီးဆုံး":4730,"ပုဒ်</w>":4731,"ကမ္ဘာစစ်":4732,"မင်းကြီး</w>":4733,"အာကာ":4734,"၄၇</w>":4735,"စာပေ</w>":4736,"သူက</w>":4737,"လက်ရှိ":4738,"လက္ခဏာ":4739,"ဇူး":4740,"ly</w>":4741,"ပညာရေး":4742,"၇၄</w>":4743,"ပင်မြို့နယ်</w>":4744,"လင်</w>":4745,"င်းတို့</w>":4746,"39</w>":4747,"အဆင့်</w>":4748,"ပြည့်နှစ်</w>":4749,"အင်းဝ":4750,"ခရစ်ယာ":4751,"47</w>":4752,"tim":4753,"အာဖရိက":4754,"ရိုင်း":4755,"ချင်းပြည်နယ်</w>":4756,"ဟိုပန်":4757,"အခေါ်":4758,"el</w>":4759,"ယင်း</w>":4760,"48</w>":4761,"ဖြစ်ကာ</w>":4762,"46</w>":4763,"နိမ့်":4764,"ပအိုဝ်":4765,"ပြည်ခရိုင်</w>":4766,"ern":4767,"စုံ</w>":4768,"၂၀၁၀</w>":4769,"160":4770,"ဒေါ်လာ</w>":4771,"ပတ်</w>":4772,"အပြည်":4773,"ကွန်း":4774,"မုန်":4775,"ဗွ":4776,"တို့ကို":4777,"လုံခြုံ":4778,"လန်</w>":4779,"မင်းတုန်း":4780,"ine</w>":4781,"ငြိမ်":4782,"သီ</w>":4783,"ပုံနှိပ်":4784,"ဒိုင်":4785,"စရာ":4786,"ထားခြင်း</w>":4787,"အဖွဲ့ဝင်</w>":4788,"စူး":4789,"ကြီးကျေးရွာအုပ်စု</w>":4790,"မြင်းခြံ":4791,"ချမှတ်":4792,"င်းသည်</w>":4793,"မိဘ":4794,"ရာခိုင်နှုန်း":4795,"တာဝန်ထမ်းဆောင်":4796,"မုံရွာ":4797,"အာရ":4798,"ခေါ်ဆို":4799,"ဒူး":4800,"ame</w>":4801,"44</w>":4802,"43</w>":4803,"မသိ":4804,"၇၆</w>":4805,"ခံခဲ့ရသည်</w>":4806,"အကျဉ်း":4807,"im":4808,"ဗိုလ်မှူး":4809,"ကြုံ":4810,"များသော":4811,"အမြောက်":4812,"မြား":4813,"သစ်တော":4814,"ထို့အပြင်</w>":4815,"ရှည်</w>":4816,"စဉ့်":4817,"လွဲ":4818,"ပုန်":4819,"ထောက်ခံ":4820,"လျက်ရှိ":4821,"၁၆၆":4822,"စီမံကိန်း":4823,"ဝင်း</w>":4824,"စာတမ်း":4825,"နိုး":4826,"မျဉ်း":4827,"အခွင့်အရေး":4828,"မုန်း":4829,"ချက်ကို</w>":4830,"မြို့ကို</w>":4831,"နှင့်အ":4832,"တန့်ယန်းမြို့နယ်</w>":4833,"မွတ်":4834,"ဝန်ကြီးဌာန</w>":4835,"ခဲ့ပေ</w>":4836,"ဇင်း</w>":4837,"45</w>":4838,"ပရာ":4839,"ခဲ့ခြင်း</w>":4840,"ဆက်လက်</w>":4841,"၄၁</w>":4842,"42</w>":4843,"လာကြသည်</w>":4844,"အတွင်းရှိ</w>":4845,"ဟွေ":4846,"တပ":4847,"၅၉</w>":4848,"ted</w>":4849,"ယှဉ်ပြိုင်":4850,"41</w>":4851,"ထဲ</w>":4852,"လေးရွာ</w>":4853,"လိုက်နာ":4854,"စတု":4855,"သာလျှင်</w>":4856,"ထွန်းကား":4857,"ကော့က":4858,"un</w>":4859,"၈၁</w>":4860,"မြောက်ပိုင်း":4861,"တကွ</w>":4862,"ဇာ</w>":4863,"ဟံ":4864,"ရန်ကုန်မြို့</w>":4865,"ထင်ရှားသော</w>":4866,"အက္ခရာ":4867,"ရင်းနှီး":4868,"လုံးကို</w>":4869,"အပြည်ပြည်":4870,"ခေး":4871,"ကျွမ်းကျင်":4872,"ကည":4873,"ပန်းတောင်းမြို့နယ်</w>":4874,"မင်းသား</w>":4875,"ရည်</w>":4876,"အပြစ်":4877,"ရှေးဟောင်း":4878,"ဘီစီ</w>":4879,"ဆိုလို":4880,"ရှင်းလင်း":4881,"မြစ်ကြီးနား":4882,"အများဆုံး":4883,"မယ်</w>":4884,"ကိုက်":4885,"နန္ဒ":4886,"မြို့သို့</w>":4887,"ပေးရန်</w>":4888,"ထူထောင်":4889,"၅၂</w>":4890,"တောင်ငူခရိုင်</w>":4891,"ပင်လောင်း":4892,"လားရှိုးမြို့နယ်</w>":4893,"မော်လမြိုင်":4894,"49</w>":4895,"အရွက်":4896,"တံခွန်":4897,"နေသည့်</w>":4898,"ကျယ်ပြန့်":4899,"၆၀</w>":4900,"ဓာတု":4901,"၉၃</w>":4902,"ကျော":4903,"တု</w>":4904,"အထည်":4905,"အမွ":4906,"ချက်များ</w>":4907,"လွတ်လပ်ရေး":4908,"အကွာ":4909,"ဆင်းရဲ":4910,"ကျင်</w>":4911,"၈၆</w>":4912,"ပြဿနာ":4913,"စပ်</w>":4914,"မြိတ်":4915,"ဝပ်":4916,"၇၃</w>":4917,"ဖြစ်ပေသည်</w>":4918,"ပြင်းထန်":4919,"အဓိပ္ပါယ်":4920,"မူး":4921,"ရီး":4922,"လာရောက်":4923,"ခုနစ်":4924,"တစ်ဖက်":4925,"စက":4926,"အကြား":4927,"ပထမ</w>":4928,"များပြား":4929,"၁၇၀":4930,"ပြောင်းရွှေ့":4931,"ဘဏ်":4932,"စပ်လျ":4933,"အန္တရာယ်":4934,"ဉ္စ":4935,"ဆင်းသက်":4936,"ပါဠိ":4937,"လူသား":4938,"ဆီ</w>":4939,"အမည်ဖြင့်</w>":4940,"ဝေဖန်":4941,"ဖိတ်":4942,"သိပ်":4943,"ိန်</w>":4944,"အိမ်ထောင်":4945,"လယ်ယာ":4946,"ပတ်ဝန်းကျင်":4947,"ပြောကြား":4948,"ဒီမိုကရေစီ":4949,"ရှင်း</w>":4950,"တောင်ကြီးခရိုင်</w>":4951,"သဒ္":4952,"ရိယာ</w>":4953,"MMR0100":4954,"ကုလ":4955,"အခြားသော</w>":4956,"ပဲခူးခရိုင်</w>":4957,"ဓား":4958,"sh":4959,"၅၄</w>":4960,"ဒီဂ":4961,"အတွင်းတွင်</w>":4962,"သီပေါမြို့နယ်</w>":4963,"မလေး":4964,"သစ္စာ":4965,"နှစ်သက်":4966,"စီး</w>":4967,"၈၇</w>":4968,"ဒဏ္ဍာ":4969,"ယောင်း":4970,"များတွင်":4971,"ဆက်စပ်":4972,"မွန်ပြည်နယ်</w>":4973,"ဝရွာ</w>":4974,"ကြောင်":4975,"မှား":4976,"ဦးဘ":4977,"ပူဇော်":4978,"မိုင်းဆတ်မြို့နယ်</w>":4979,"စွပ်":4980,"ချား":4981,"140":4982,"နို့":4983,"သံ</w>":4984,"လှမ်း":4985,"ရမည်":4986,"ငါ့":4987,"197":4988,"ဧရာဝတီ":4989,"ဘန်":4990,"တောင်ပိုင်း":4991,"ကိရိယာ":4992,"၂၀၁၅</w>":4993,"မျိုးကို</w>":4994,"အတတ်":4995,"ဂ္ဂ</w>":4996,"၉၈</w>":4997,"ထားဝယ်":4998,"ကိုယ်ပိုင်အုပ်ချုပ်ခွင့်ရတိုင်း</w>":4999,"ပင်လောင်းမြို့နယ်</w>":5000,"ng</w>":5001,"၅၃</w>":5002,"၈၉</w>":5003,"တိုင်းရင်းသား":5004,"ph":5005,"။)</w>":5006,"သူငယ်":5007,"အိမ်ခြေ":5008,"ကုန်သွယ်":5009,"နဂါး":5010,"yi</w>":5011,"ရသည့်</w>":5012,"အမှုထမ်း":5013,"um":5014,"ပညာရပ်":5015,"အဘယ်":5016,"အလုပ်သမား":5017,"နိုင်ငံသည်</w>":5018,"ခေါ်ဝေါ်":5019,"ကိုးကား</w>":5020,"and":5021,"၅၆</w>":5022,"ညီညွတ်":5023,"အလျောက်</w>":5024,"ဩစတြ":5025,"ဩဇာ":5026,"ဂေါတမ":5027,"ပုံး":5028,"၅၈</w>":5029,"MMR0130":5030,"177":5031,"ဗြဟ္":5032,"ပုံစံ</w>":5033,"ရမည်း":5034,"၇၈</w>":5035,"ပြင်ရွာ</w>":5036,"ပေါင်းစပ်":5037,"ုဒ္ဒ":5038,"၉၂</w>":5039,"ဝန်ကြီး</w>":5040,"ang</w>":5041,"မတ်</w>":5042,"po":5043,"သင်ယူ":5044,"ဂျာမန်":5045,"ကနေ":5046,"အမ်":5047,"ဒါရိုက်":5048,"ပစ္စည်း</w>":5049,"၆၉</w>":5050,"ရွယ်</w>":5051,"မင်းတရား":5052,"စက်ရုံ":5053,"နိမိတ်":5054,"ပင်ဖြစ်သည်</w>":5055,"ဝန်ထမ်း":5056,"အေ</w>":5057,"ခေတ်တွင်</w>":5058,"၉၅</w>":5059,"စီစဉ်":5060,"နေ့တွင်</w>":5061,"လုပ်ငန်းများ</w>":5062,"အများဆုံး</w>":5063,"တန်ဖိုး":5064,"ခေါင်းဆောင်</w>":5065,"ကျို":5066,"မြန်မာပြည်":5067,"သဏ္ဌာန်":5068,"စစ်ဆင်":5069,"ကြရသည်</w>":5070,"မြို့မှ</w>":5071,"ပေါ်ရှိ</w>":5072,"အတွင်းရေး":5073,"၅၁</w>":5074,"၅၇</w>":5075,"သော်လည်းကောင်း</w>":5076,"ဗန်းမော်":5077,"ဆိတ်":5078,"ဧရိယာ":5079,"သမုဒ္ဒ":5080,"ယဉ်ကျေးမှု</w>":5081,"ကိုယ်တိုင်":5082,"ဒေါက်တာ":5083,"နှစ်ဦး":5084,"၇၉</w>":5085,"ရပ်စ":5086,"မတိုင်":5087,"နှစ်ပေါင်း</w>":5088,"155":5089,"အီး":5090,"အမြင်":5091,"အမျိုးမျိုး</w>":5092,"ဖောင်း":5093,"ဖ်":5094,"လယ်</w>":5095,"အလိုက်</w>":5096,")။</w>":5097,"ခိုင်း":5098,"လိုလ":5099,"အဆောက်အအုံ":5100,"ညောင်ရွှေ":5101,"၆၇</w>":5102,"သစ်ပင်":5103,"ကန့်ဘ":5104,"၉၀</w>":5105,"ကျီး":5106,"ဘာလတွင်</w>":5107,"195":5108,"ယမ်</w>":5109,"175":5110,"နျ":5111,"တပ်ဖွဲ့":5112,"ပျံ့":5113,"uc":5114,"ပုံကို</w>":5115,"နည်းလမ်း":5116,"ဟုလည်း</w>":5117,"၂၀၁၆</w>":5118,"ပူရ":5119,"ဖမ်းဆီး":5120,"သို့သော်လည်း</w>":5121,"ထိုက်":5122,"နုတ်":5123,"ဆေးရုံ":5124,"တော်သည်</w>":5125,"အင်္ဂါ":5126,"ဝိဇ္":5127,"ရော့":5128,"ကညင်":5129,"၈၀":5130,"ကျောက်မဲခရိုင်</w>":5131,"ပြား</w>":5132,"ချို့":5133,"အကြောင်းကို</w>":5134,"မိန်းမ":5135,"တရုတ်</w>":5136,"သီတင်း":5137,"အီတ":5138,"အရာ</w>":5139,"ချိုး":5140,"လက်ထ":5141,"ကြာ</w>":5142,"လက်မှတ်":5143,"စန္ဒ":5144,"ဟဲ":5145,"ချီ</w>":5146,"ရမည်းသင်း":5147,"၇၁</w>":5148,"ထဲသို့</w>":5149,"ချပ်":5150,"ောက်မြို့နယ်</w>":5151,"ခြေ</w>":5152,"၉၉</w>":5153,"ဝန်ကြီးဌာန":5154,"ထိန်းချုပ်":5155,"metal</w>":5156,"ပေါ့":5157,"ကျေးဇူး":5158,"ကိုယ်တိုင်</w>":5159,"စမ်းသပ်":5160,"ကြော်":5161,"မိခင်":5162,"မခံ":5163,"ိမ့်":5164,"တော်များ</w>":5165,"အခြေခံ</w>":5166,"မွေးမြူ":5167,"og":5168,"ဘွမ်":5169,"ပြင်ဦး":5170,"မဂ္ဂဇင်း":5171,"တစ်ဆင့်</w>":5172,"လျှောက်</w>":5173,"တာဝန်ယူ":5174,"ဒိုင်း":5175,"များကြောင့်</w>":5176,"185":5177,"ဤသို့</w>":5178,"ခဲ့ကာ</w>":5179,"ဟီ":5180,"မြန်မာနိုင်ငံတွင်</w>":5181,"97":5182,"စောင်း":5183,"တိတ်":5184,"အခါက</w>":5185,"ဖြူမြို့နယ်</w>":5186,"ရိုးရာ":5187,"ကုန်းမြို့နယ်</w>":5188,"လွတ်မြောက်":5189,"ev":5190,"သေး</w>":5191,"ဆိုရှယ်":5192,"165":5193,"စက်</w>":5194,"ယင်းမာ":5195,"ထံမှ</w>":5196,"ိယ</w>":5197,"နှလုံး":5198,"ကောင်စီ</w>":5199,"လော်":5200,"အမွေ":5201,"ညီလာ":5202,"၆၅</w>":5203,"ကာကွယ်ရေး":5204,"မျက်နှာပြင်":5205,"187":5206,"ဆောင်ရွက်ခဲ့သည်</w>":5207,"လူမျိုးများ</w>":5208,"သံဃာ":5209,"pro":5210,"တင့်":5211,"တာအို":5212,"ဒေသတွင်</w>":5213,"ကတည်းက</w>":5214,"ဟံသာ":5215,"ဝအထူးဒေသ</w>":5216,"အားထုတ်":5217,"တနင်္သာရီတိုင်းဒေသကြီး</w>":5218,"လေကြောင်း":5219,"အချိန်တွင်</w>":5220,"အဓိပ္ပာယ်":5221,"များဖြစ်":5222,"ထွေး":5223,"196":5224,"အကူအညီ":5225,"ကော့ကရိတ်":5226,"အံ့":5227,"တရားရုံး":5228,"၂၀၀၈</w>":5229,"ညှိ":5230,"၉၆</w>":5231,"တြ":5232,"နေပြည်":5233,"သမျှ":5234,"ကွန်ပျူတာ":5235,"ဖိုင်":5236,"ပညာရေး</w>":5237,"အစည်းအဝေး":5238,"ထိန်":5239,"ရံ</w>":5240,"မြို့တော်</w>":5241,"ရာဇာ":5242,"၂၀၁၁</w>":5243,"အခမ်း":5244,"ထားသော":5245,"ခြင်းမှာ</w>":5246,"ရွှေတောင်":5247,"ဝှက်":5248,"ခပ်":5249,"tam":5250,"တော်မူသည်</w>":5251,"ကတော့</w>":5252,"ရဲ့":5253,"တပ်ဆင်":5254,"လေ့ရှိ":5255,"ဇီဝ":5256,"ကန့်ဘလူ":5257,"ပါဝင်</w>":5258,"သုတ်</w>":5259,"ကက်":5260,"ဝိုင်း</w>":5261,"ငွေကြေး":5262,"ဘားအံမြို့နယ်</w>":5263,"ယခု</w>":5264,"xt</w>":5265,"ယိုး":5266,"အလံ":5267,"ဆောင်းပါး":5268,"ni":5269,"ဝိုင်":5270,"သပိတ်":5271,"ဒါး":5272,"167":5273,"သမိုင်းကြောင်း</w>":5274,"ပုလဲ":5275,"ထပ်မံ":5276,"၆၈</w>":5277,"၇၀":5278,"ation":5279,"186":5280,"သက်တမ်း":5281,"မြောက်ဘက်":5282,"လေ့ကျင့်":5283,"ကိုလို":5284,"သမဂ္ဂ</w>":5285,"ဂန်":5286,"ဆယ့်":5287,"ခေါက်":5288,"အမေရိက":5289,"အကောင်":5290,"An":5291,"ဒင်":5292,"ထိခိုက်":5293,"၉၇</w>":5294,"ခုတွင်</w>":5295,"ဝေး</w>":5296,"၁၀၀</w>":5297,"သခင်</w>":5298,"156":5299,"သဘောတူညီ":5300,"မဲ့</w>":5301,"ရိယ":5302,"အို</w>":5303,"အပြီး":5304,"ဖြည့်":5305,"တောင်းဆို":5306,"ထီ":5307,"ဗျူ":5308,"ပိန်း":5309,"ခုတ်":5310,"အိမ်ခြေပေါင်း</w>":5311,"ပိုလ":5312,"အစိုးရက</w>":5313,"စပိန်":5314,"ယမ်":5315,"ယင်":5316,"89":5317,"ပူတာအို":5318,"ရေးသားခဲ့သည်</w>":5319,"ဒုံ":5320,"စားသောက်":5321,"လည်ပတ်":5322,"အသီးသီး":5323,"စတာ":5324,"ဘုတ်":5325,"ကသာ":5326,"ကျောက်စာ":5327,"တွေ့ဆုံ":5328,"ဥပမာ</w>":5329,"လုံရွာ</w>":5330,"ရုရှား":5331,"ကောလိပ်":5332,"နု</w>":5333,"ity</w>":5334,"ဟင်":5335,"လွိုင်ကော်":5336,"မိမိတို့</w>":5337,"ဖြစ်ပါတယ်</w>":5338,"ပေးခြင်း</w>":5339,"အသိအမှတ်":5340,"၂၁၄":5341,"ကြောင်းကို</w>":5342,"မြှုပ်":5343,"တဆင့်</w>":5344,"ချည်":5345,"ရှိလေသည်</w>":5346,"ပါလီ":5347,"del</w>":5348,"အသေး":5349,"တပည့်":5350,"th</w>":5351,"များဖြစ်သည်</w>":5352,"ထွန်း</w>":5353,"စားသုံး":5354,"များအရ</w>":5355,"၉၄</w>":5356,"ဒီယို":5357,"ပန်ဆန်း</w>":5358,"သင်္ဂ":5359,"ကြောက်":5360,"အမည်</w>":5361,"အချိန်</w>":5362,"157":5363,"လိမ့်မည်</w>":5364,"ပလက်ဝမြို့နယ်</w>":5365,"သည့်အပြင်</w>":5366,"trib":5367,"ယခင်က</w>":5368,"ရွှေဘိုခရိုင်</w>":5369,"တမန်":5370,"ချိတ်":5371,"ဂွေး":5372,"ဖျော်ဖြေ":5373,"ဝယ်</w>":5374,"ပါရ":5375,"ပြောင်":5376,"ဆွမ်":5377,"ပြင်ဦးလွင်":5378,"st":5379,"၂ဝ</w>":5380,"ဖြစ်သော်လည်း</w>":5381,"ဗ္ဗာ":5382,"ပြည့်နှစ်တွင်</w>":5383,"နိုင်ပါသည်</w>":5384,"တောင်ဘက်":5385,"အကြောင်းအရာ":5386,"ဖာပွ":5387,"Al":5388,"အွ":5389,"176":5390,"ချက်အရ</w>":5391,"လင်းခေး":5392,"တစ်</w>":5393,"အောင်ဆန်း":5394,"ကြွယ်":5395,"ns</w>":5396,"မြတ်</w>":5397,"အသုံးချ":5398,"နားလည်":5399,"၉၁</w>":5400,"ပြို":5401,"ဘွယ်":5402,"သေ့":5403,"မကွေးခရိုင်</w>":5404,"ပုတ်":5405,"၆၁</w>":5406,"လာကြ":5407,"အင်ဂျ":5408,"ရုပ်ရှင်</w>":5409,"ခူး":5410,"နက္ခ":5411,"ပိဋ":5412,"ဝင်စား":5413,"တွင်းမြို့နယ်</w>":5414,"ကူးစက်":5415,"ed":5416,"နီးယား":5417,"အဖြစ်ဖြင့်</w>":5418,"လန်း":5419,"၆၃</w>":5420,"ဂဏ":5421,"မေ</w>":5422,"အမြစ်":5423,"eg":5424,"ရှီ":5425,"ရာဇဝင်":5426,"rock</w>":5427,"ရူး":5428,"အင်န်":5429,"လက်ထပ်":5430,"ဟူး":5431,"ပန်ခမ်း</w>":5432,"ဒိန်":5433,"ရှီး":5434,"od":5435,"ော့</w>":5436,"နီမြို့နယ်</w>":5437,"text</w>":5438,"၆၂</w>":5439,"ခဲ့သူ":5440,"မည်း":5441,"အယ်လ်":5442,"ဒူ":5443,"မကောင်း":5444,"မော်တော်":5445,"အထွ":5446,"ကြာအင်း":5447,"သျှ</w>":5448,"ခြည်":5449,"တော်ကြီး</w>":5450,"သာစည်":5451,"အားဖြင့်":5452,"မှာပင်</w>":5453,"ကျင့်သုံး":5454,"ဝှမ်း":5455,"ကျယ်ဝန်း":5456,"အဓိပ္ပာယ်</w>":5457,"အင်ဂျင်နီ":5458,"ပအိုဝ်း</w>":5459,"wik":5460,"ဖြတ်</w>":5461,"များသောအားဖြင့်</w>":5462,"ers</w>":5463,"ကျေးသီး":5464,"ခုနှစ်အထိ</w>":5465,"မန္တလေး</w>":5466,"ဂိုး":5467,"မြို့ရှိ</w>":5468,"တရားဝင်":5469,"မာန်":5470,"အိန္ဒိယ</w>":5471,"မြက်":5472,"ညွန့်":5473,"နိုင်ငံတကာ":5474,"ဖြန့်ချိ":5475,"အင်ဒို":5476,"ပိုင်ခွင့်":5477,"ခန့်ခွဲ":5478,"နေစဉ်</w>":5479,"ဟိုက်":5480,"ထိုကြောင့်</w>":5481,"၂၁၀":5482,"ပထမဦး":5483,"ကော်မတီ</w>":5484,"လွယ်ကူ":5485,"ဇနီး":5486,"အီဂျစ်":5487,"ကောက်</w>":5488,"ဆုတ်":5489,"ထပ်</w>":5490,"အပေါင်း":5491,"အာရှ</w>":5492,"၆၄</w>":5493,"၂၀၁၂</w>":5494,"မား</w>":5495,"ဟန်</w>":5496,"၆၀":5497,"အဆိုပါ":5498,"ညောင်ရွှေမြို့နယ်</w>":5499,"နိုင်ငံမှ</w>":5500,"ချက်များကို</w>":5501,"ပခုက္ကူခရိုင်</w>":5502,"စင်</w>":5503,"ဟား":5504,"ပုံမှန်":5505,"ဆင်ဖြူ":5506,"ဗြိတိသျှ</w>":5507,"ဟောကြား":5508,"တဦး":5509,"ခရစ်ယာန်":5510,"qu":5511,"မော့":5512,"ရစ်</w>":5513,"ခဲ့သည်ဟု</w>":5514,"ဝတီ</w>":5515,"အများအပြား":5516,"ဆန်</w>":5517,"ရွတ်":5518,"ရှိန်":5519,"ရာစု</w>":5520,"အစည်း</w>":5521,"ရုပ်ပွား":5522,"res":5523,"166":5524,"များမှ":5525,"ဂျက်":5526,"သီးခြား":5527,"ပစ္စည်းများ</w>":5528,"အဆိုပါ</w>":5529,"ပုဒ်မ</w>":5530,"၉၀":5531,"စတန်":5532,"ကျေးသီးမြို့နယ်</w>":5533,"pl":5534,"ရှိရာ</w>":5535,"တို့ဖြစ်သည်</w>":5536,"တတ်သော</w>":5537,"model</w>":5538,"မွန်း":5539,"ဆရာကြီး</w>":5540,"ub":5541,"သောင်းကျန်း":5542,"၂၁၃":5543,"နိုင်ငံများ</w>":5544,"အဝတ်":5545,"ပါမော":5546,"ဒုက္ခ":5547,"ov":5548,"format</w>":5549,"အနှစ်":5550,"လောမြို့နယ်</w>":5551,"ကုမ္ပဏီ</w>":5552,"သင်</w>":5553,"စွမ်းအင်":5554,"ကြေငြာ":5555,"ထမ်း</w>":5556,"ထိုနောက်</w>":5557,"tribut":5558,"300":5559,"ts</w>":5560,"ထု</w>":5561,"နိုက်":5562,"မည်သို့":5563,"၆၆</w>":5564,"ကျူ":5565,"တာရှည်":5566,"ဆိုင်</w>":5567,"မြင်</w>":5568,"သက်ဆိုင်":5569,"စိန်</w>":5570,"ဌေး":5571,"တုတ်":5572,"မစ်":5573,"ဖျက်ဆီး":5574,"contribut":5575,"tamp</w>":5576,"စီးဆင်း":5577,"ယွင်း":5578,"times":5579,"ခြမ်း":5580,"contributor</w>":5581,"timestamp</w>":5582,"ဖောင်":5583,"ဟော်":5584,"အနွ":5585,"ဟုခေါ်သည်</w>":5586,"မပါ":5587,"သတ်</w>":5588,"နှောင်း":5589,"၂၀၁၇</w>":5590,"စဉ်း":5591,"ud":5592,"ဏာ</w>":5593,"အစ္စလာ":5594,"အာကာသ":5595,"ကိန်း</w>":5596,"အမရ":5597,"နိဗ္ဗာ":5598,"ဘားအံခရိုင်</w>":5599,"ရန်နှင့်</w>":5600,"az":5601,"ကွေ့":5602,"အတည်ပြု":5603,"ကြီးကျေးရွာအုပ်စုတွင်</w>":5604,"Mon":5605,"ဆုံးသော</w>":5606,"ကျွန်းရွာ</w>":5607,"ကယား":5608,"ဗက်":5609,"စာအုပ်</w>":5610,"စီမံခန့်ခွဲ":5611,"ရှာဖွေတွေ့ရှိ":5612,"အိုလ":5613,"မြင့်မား":5614,"ပဉ္စ":5615,"ပုန်း":5616,"ဗ္ဗ":5617,"စပ်လျဉ်း</w>":5618,"ဝိန်း":5619,"ကြီးများ":5620,"တောင်တွင်း":5621,"မူဆယ်ခရိုင်</w>":5622,"၂၁၅":5623,"အောက်တိုဘာ</w>":5624,"ကဏ္ဍ":5625,"ရပ်ကွက်":5626,"250":5627,"ဂျိ":5628,"ပုသိမ်":5629,"မီဒီ":5630,"သက်သေ":5631,"ob":5632,"မင်းသည်</w>":5633,"မှတ်ပုံ":5634,"ဓာတ်</w>":5635,"တိုင်အောင်</w>":5636,"မကြာခ":5637,"သူကို</w>":5638,"ထိုး</w>":5639,"ဘာသာရပ်":5640,"စော်ဘွား":5641,"ia</w>":5642,"ဆိုကြသည်</w>":5643,"စောင်":5644,"လင့်":5645,"ပါဝင်ခဲ့သည်</w>":5646,"per":5647,"သွန်း":5648,"ပေးနိုင်":5649,"ရာစုနှစ်":5650,"ပြည်ပ":5651,"သွင်း</w>":5652,"လက်ဆီ":5653,"တစ်ယောက်</w>":5654,"ပညာသင်ကြား":5655,"အတွင်းသို့</w>":5656,"ကြည့်ရှု":5657,"ဘုရင့်":5658,"စလင်းမြို့နယ်</w>":5659,"နန်းတော်":5660,"အီရန်":5661,"ဂယ်":5662,"ဒေါင်း":5663,"လန်ဒန်":5664,"လှိုင်းဘွဲ့":5665,"၂၁၂":5666,"ဆက်ခံ":5667,"ပေါက်ရောက်":5668,"ပြဇာတ်":5669,"အောက်တွင်</w>":5670,"လမ်းကြောင်း":5671,"ကီး":5672,"50</w>":5673,"လှည်း":5674,"မျက်စိ":5675,"နမ့်စ":5676,"ကျောက်မဲမြို့နယ်</w>":5677,"န်းယ":5678,"ဂျာမနီ":5679,"ပြိုင်ပွဲ</w>":5680,"ဦးကျော်":5681,"စာရင်း</w>":5682,"၂၀၀၉</w>":5683,"ကေအင်န်":5684,"လာသည့်</w>":5685,"နိုင်ငံများ":5686,"ခြင်းခံရ":5687,"ဒီဇ":5688,"မင်းလှမြို့နယ်</w>":5689,"အကြမ်း":5690,"မေတ္တာ":5691,"ကြို့ပင်":5692,"တဖြည်း":5693,"သူတို့သည်</w>":5694,"ခွက်":5695,"တုံမြို့နယ်</w>":5696,"ကုသိုလ်":5697,"ခဲ့ဖူး":5698,"သာမန်":5699,"စွန်":5700,"ဂေ":5701,"ername</w>":5702,"ယို</w>":5703,"အသုံးပြု</w>":5704,"ဥပမာ":5705,"မိမိတို့":5706,"မြတ်စွာဘုရားသည်</w>":5707,"ပေမည်</w>":5708,"username</w>":5709,"င်းကို</w>":5710,"အချို့သော</w>":5711,"87":5712,"ပင့်":5713,"ဆိပ်ရွာ</w>":5714,"လုံ</w>":5715,"ဗ်":5716,"သီဟ":5717,"မတူပီ":5718,"ကမ္ဘာပေါ်တွင်</w>":5719,"ဈာ":5720,"သင်္ချာ":5721,"ရူပ":5722,"ရွာမရွာ</w>":5723,"၂၀၁၃</w>":5724,"မိုးညှင်း":5725,"လောက</w>":5726,"မဏိ":5727,"စူ":5728,"ခဲ့သူ</w>":5729,"သူများသည်</w>":5730,"ဘာသာဖြင့်</w>":5731,"ရည်ညွှန်း":5732,"ion</w>":5733,"ဟေ":5734,"ရေးထိုး":5735,"သွားခဲ့သည်</w>":5736,"သီလ":5737,"လည်းဖြစ်သည်</w>":5738,"လိင်":5739,"ရော</w>":5740,"အယ်ဒီ":5741,"ခါ</w>":5742,"ကျွန်ုပ်":5743,"မှောက်":5744,"ဝေါဟာရ":5745,"ဒဏ္ဍာရီ":5746,"ဝယ်ယူ":5747,"အက်စ်":5748,"စသည်ဖြင့်</w>":5749,"parent":5750,"စို":5751,"ရှိပါသည်</w>":5752,"ဇ်":5753,"ယန်း":5754,"ခြင်းများ</w>":5755,"အထင်":5756,"သူရဲ":5757,"သို့ရောက်":5758,"တစ်ခါတစ်":5759,"ဒေါင့်":5760,"အမြတ်":5761,"parentid</w>":5762,"ဆွမ်း":5763,"၂၀၀၇</w>":5764,"လှိုင်းဘွဲ့မြို့နယ်</w>":5765,"သူများကို</w>":5766,"ဆိုရိုး":5767,"96":5768,"အခန်း</w>":5769,"ကျောင်းတွင်</w>":5770,"ဝဝ":5771,"၂၀၀၀</w>":5772,"ခရီးသွား":5773,"ဇော":5774,"လိုင်</w>":5775,"များအဖြစ်</w>":5776,"ဘက်မှ</w>":5777,"ဖိလစ်":5778,"ဆိုသော</w>":5779,"ge</w>":5780,"အင်အား</w>":5781,"ကမ်းရိုး":5782,"Ar":5783,"ခုန်":5784,"အချို့</w>":5785,"ဒီဇင်ဘာ</w>":5786,"ဗောဓိ":5787,"ဖုန်း":5788,"သမဂ္ဂ":5789,"သိက္ခာပုဒ်</w>":5790,"အသွင်":5791,"အားလုံး</w>":5792,"မကျီး":5793,"၁၁":5794,"တင်မြှောက်":5795,"မီးရထား":5796,")၏</w>":5797,"မှတ်တမ်း</w>":5798,"ဖူ":5799,"146":5800,"ဝန်ကြီးချုပ်":5801,"သတ္တိ":5802,"145":5803,"အစည်းအရ":5804,"မိတ္ထီလာခရိုင်</w>":5805,"ဖလမ်း":5806,"လျင်</w>":5807,"ဂျွန်":5808,"မင်းသမီး":5809,"ဟူသော":5810,"ကိုလိုနီ":5811,"ရွှေကျင်":5812,"ကရ":5813,"ရီးယား</w>":5814,"တောင့်":5815,"နောင်</w>":5816,"ဝေ</w>":5817,"မှာမူ</w>":5818,"ယောက်ျ":5819,"ပါဝင်သည့်</w>":5820,"ဟော့":5821,"နာရီ</w>":5822,"ရွှင်":5823,"စာရေးဆရာ</w>":5824,"နှင်":5825,"မဂ္ဂဇင်း</w>":5826,"MMR0050":5827,"လျှောက်ထား":5828,"cl":5829,"အရွယ်တွင်</w>":5830,"စက်တင်ဘာ</w>":5831,"နာဂ":5832,"မုန့်":5833,"Com":5834,"ရာသီဥတု":5835,"စရာ</w>":5836,"ယမ်း":5837,"ဟုမ္မ":5838,"အပြည်ပြည်ဆိုင်ရာ</w>":5839,"၂၁၆":5840,"စည်းရုံး":5841,"ဆီဆိုင်":5842,"ယွန်း":5843,"စိုင်း":5844,"အသိအမှတ်ပြု":5845,"..":5846,"ချို</w>":5847,"ထိုစဉ်က</w>":5848,"အထိမ်း":5849,"ပမာဏ":5850,"we":5851,"စေတီ</w>":5852,"စေတီတော်</w>":5853,"အီတလီ":5854,"ဖဲ":5855,"မင်းတပ်":5856,"ယာမ":5857,"နတ်တ":5858,"unk</w>":5859,"အနေနှင့်</w>":5860,"ခ်</w>":5861,"မံ</w>":5862,"သရက်ခရိုင်</w>":5863,"ဂန့်":5864,"အလာ":5865,"တို့ကြောင့်</w>":5866,"ကလေးများ</w>":5867,"အရေးကြီး":5868,"နီး</w>":5869,"လပြည့်":5870,"ဖြစ်ရာ</w>":5871,"အဖွဲ့အစည်း</w>":5872,"နှစ်မျိုး":5873,"ခရစ်</w>":5874,"ဌာနချုပ်</w>":5875,"လစ်</w>":5876,"္လာ":5877,"လော</w>":5878,"86":5879,"80</w>":5880,"ခိုင်</w>":5881,"တံဆိပ်</w>":5882,"စနစ်ကို</w>":5883,"မှတ်ပုံတင်":5884,"စိုက်</w>":5885,"က္ခရ":5886,"အေဒီ</w>":5887,"စေလွှတ်":5888,"147":5889,"အနေ</w>":5890,"မန်</w>":5891,"သောင်":5892,"ပရာဘွမ်":5893,"Ne":5894,"၁၉၉၀</w>":5895,"ဇန်နဝါရီ</w>":5896,"စာရေးဆရာ":5897,"အခမ်းအနား":5898,"ဟစ်":5899,"အရိုး":5900,"tern":5901,"ငလျင်":5902,"မော</w>":5903,"ဟယ်":5904,"ကျောင်းသား</w>":5905,"မို</w>":5906,"မွန်</w>":5907,"ခြားနား":5908,"သတင်းစာ</w>":5909,"မြစ်ကြီးနားခရိုင်</w>":5910,"ပူ</w>":5911,"အိုက်":5912,"MMR015":5913,"ဓမ္မာ":5914,"ကီလိုမီတာ":5915,"မှော်":5916,"အခက်":5917,"ဖြေရှင်း":5918,"of":5919,"ရုတ်":5920,"အမည်မှာ</w>":5921,"ဆုံးရှုံး":5922,"လာသောအခါ</w>":5923,"ပေါက်မြို့နယ်</w>":5924,"အင်ဂျန်းယ":5925,"လှပ":5926,"အီလက်ထ":5927,"ရောင်းဝယ်":5928,"အကယ်</w>":5929,"နောက်ပိုင်း":5930,"52</w>":5931,"ထော":5932,"ကျောက်တံခါး":5933,"နံပါ":5934,"အထွေထွေ":5935,"အင်ဂျန်းယန်မြို့နယ်</w>":5936,"ah":5937,"သရေ":5938,"ကိုပင်</w>":5939,"ခန္တ":5940,"ရခြင်း</w>":5941,"ခဲ့ပါတယ်</w>":5942,"ရေးသား</w>":5943,"ဒစ်":5944,"ဘဏ္ဍာ":5945,"ဖေဖော်ဝါရီလ</w>":5946,"Kh":5947,"င်းတို့":5948,"တန်ခိုး":5949,"အနောက်ဘက်":5950,"တူးဖော်":5951,"ပျော်ဘွယ်":5952,"ပတ္တ":5953,"တင်သွင်း":5954,"ဘီလူး":5955,"ate</w>":5956,"ဆိုလျှင်</w>":5957,"for</w>":5958,"မှန်</w>":5959,"ဒုံး":5960,"ခွေ":5961,"53</w>":5962,"ကပ်</w>":5963,"ဒဿ":5964,"လုံးဝ":5965,"ကူး</w>":5966,"မဟာမိတ်":5967,"နင်":5968,"အထား":5969,"အရေး</w>":5970,"နိုင်ငံနှင့်</w>":5971,"ယာဉ်</w>":5972,"ဆွမ်ပရာဘွမ်":5973,"ဖဆ":5974,"ရဲ</w>":5975,"စကားလုံး":5976,"51</w>":5977,"ဆော":5978,"အလယ်ပိုင်း":5979,"ဗစ်":5980,"ရပါသည်</w>":5981,"လက်မြို့နယ်</w>":5982,"လှုံ":5983,"၂၀၁၈</w>":5984,"အနီး</w>":5985,"အခွန်":5986,"လျှပ်စစ်ဓာတ်":5987,"အင်ဒိုနီး":5988,"ပတိ":5989,"ယ့်</w>":5990,"အတန်း":5991,"ရိုက်</w>":5992,"ပြည့်</w>":5993,"ပန်း</w>":5994,"တွေ့မြင်":5995,"ဆွမ်ပရာဘွမ်မြို့နယ်</w>":5996,"သမာ":5997,"ရော်":5998,"တင်း</w>":5999,"ကြသည့်</w>":6000,"ကျရောက်":6001,"ong</w>":6002,"သျှင်":6003,"ကမူ</w>":6004,"ကထေရ်</w>":6005,"စစ်ရေး":6006,"မှတ်သား":6007,"ပွတ်":6008,"သီဆို":6009,"ဖြတ်သန်း":6010,"ပြောင်း</w>":6011,"သုံးသပ်":6012,"ဖွဲ့စည်းခဲ့သည်</w>":6013,"နိုဝင်ဘာ</w>":6014,"လိုင်း</w>":6015,"စတုတ္ထ":6016,"ခွန်း":6017,"လုပ်ငန်းများကို</w>":6018,"တွယ်":6019,"အမေရိကန်ပြည်ထောင်စု</w>":6020,"သိုး":6021,"ကွဲ</w>":6022,"ဂျူ":6023,"cor":6024,"ဂိ":6025,"ရယ်</w>":6026,"တွေး":6027,"မိတ္ထီလာမြို့နယ်</w>":6028,"ဟိုင်း":6029,"အွန်":6030,"55</w>":6031,"အရွယ်</w>":6032,"ဩစတြေး":6033,"လက်ဝဲ":6034,"ဆိုဗီယက်":6035,"တာဝန်</w>":6036,"နယ်ပယ်":6037,"ဓာတ်ငွေ့":6038,"အကျင့်":6039,"aung":6040,"မ့်</w>":6041,"ခဲ့ပြီး":6042,"ကိုရီးယား":6043,"ဖော်ပြထား":6044,"ကွပ်ကဲ":6045,"ai":6046,"မော်</w>":6047,"အဆောင်":6048,"အရှေ့ဘက်":6049,"မှသာ</w>":6050,"ခဲ့သော":6051,"59</w>":6052,"သ်":6053,"အတွေး":6054,"မွမ်း":6055,"စုံစမ်း":6056,"ot":6057,"အသုံးပြုကြသည်</w>":6058,"ad</w>":6059,"aing</w>":6060,"အေး</w>":6061,"ကျွေး":6062,"နန်းတက်":6063,"54</w>":6064,"ခဲ့ကြ</w>":6065,"ကာတွန်း":6066,"ဖေဖော်ဝါရီ</w>":6067,"အလှူ":6068,"ပြတိုက်":6069,"ဝန်ကြီးချုပ်</w>":6070,"ဗက":6071,"ဗမာပြည်":6072,"ကျဆင်း":6073,"ဖြစ်ပေါ်လာ":6074,"ဖွံ့ဖြိုးတိုးတက်":6075,"မက္က":6076,"ဌာနချုပ်":6077,"58</w>":6078,"ညို</w>":6079,"လောင်း</w>":6080,"ရွန်":6081,"ver":6082,"စုဆောင်း":6083,"နတ်</w>":6084,"တန်ဆာ":6085,"သူမ</w>":6086,"ကြည်</w>":6087,"ချေး":6088,"ချက်မှာ</w>":6089,"နျူ":6090,"စင်း":6091,"သမျှ</w>":6092,"နှော":6093,"နားရွာ</w>":6094,"တိုးချဲ့":6095,"ဖြာ":6096,"သည်အထိ</w>":6097,"လက်မ</w>":6098,"ပျို":6099,"ဟိုပုံး":6100,"ရပြီး</w>":6101,"ခံခဲ့ရ":6102,"ဆိုရိုးစကား</w>":6103,"စသည်တို့ကို</w>":6104,"ဟုမ္မလင်းမြို့နယ်</w>":6105,"နတ်တလင်းမြို့နယ်</w>":6106,"တိုက်ရိုက်":6107,"ထုတ်လွှင့်":6108,"သံတောင်ကြီးမြို့နယ်</w>":6109,"ပေါ်ပေါက်လာ":6110,"ခဲ့သဖြင့်</w>":6111,"ဝတ္ထု</w>":6112,"Se":6113,"ဖွဲ့စည်းပုံ":6114,"အကြီးဆုံး</w>":6115,"လုံးတွင်</w>":6116,"ဟိန်း":6117,"နိုင်ငံရှိ</w>":6118,"နည်းပါး":6119,"မှတ်တမ်းတင်":6120,"လူမျိုးတို့</w>":6121,"သွေး</w>":6122,"အမျိုးအစား</w>":6123,"auk</w>":6124,"ခွံ":6125,"အနက်အဓိပ္ပာယ်</w>":6126,"မင်းဘူးခရိုင်</w>":6127,"ဘီ</w>":6128,"တစ်မျိုး</w>":6129,"ခဲ့ပြီးနောက်</w>":6130,"ရေတာရှည်":6131,"သွန်":6132,"St":6133,"အလား":6134,"ပေါင်းများစွာ":6135,"ပထဝီ":6136,"57</w>":6137,"လျှို့":6138,"ကမ်းခြေ":6139,"ဒုတိယကမ္ဘာစစ်":6140,"နမ့်စန်မြို့နယ်</w>":6141,"ခြင်":6142,"သတ်ဖြတ်":6143,"စိတ်ဝင်စား":6144,"ပျံသန်း":6145,"ဦးခေါင်း":6146,"ကိုလည်းကောင်း</w>":6147,"လေရာ</w>":6148,"နိုင်ငံသို့</w>":6149,"ရဟန်းတို့</w>":6150,"ဂေါ်":6151,"တိကျ":6152,"ရပ်တည်":6153,"မှန်ကန်":6154,"ဆူ</w>":6155,"အဖြူ":6156,"ပွဲတော်":6157,"စင်ကာ":6158,"ခန္တီး":6159,"နှင့်တကွ</w>":6160,"၂၀၀၆</w>":6161,"ကင်း</w>":6162,"ဓလေ့":6163,"သေ</w>":6164,"အလွန်</w>":6165,"သင်္ကေ":6166,"ညံ့":6167,"လျှော့":6168,"ပေးသော</w>":6169,"ကျောက်ပန်းတောင်းမြို့နယ်</w>":6170,"မိုင်းကိုင်မြို့နယ်</w>":6171,"ကုံး":6172,"ထုတ်ဝေခဲ့သည်</w>":6173,"နိုင်း":6174,"ဖြူးမြို့နယ်</w>":6175,"တစ်ခုတည်း":6176,"ကလေးရွာ</w>":6177,"အစောပိုင်း":6178,"တော်မြို့နယ်</w>":6179,"ညီလာခံ":6180,"လေဆိပ်":6181,"မိုင်းယန်းမြို့နယ်</w>":6182,"အနှံ့":6183,"စာမေး":6184,"ary</w>":6185,"သေးငယ်":6186,"၁၉၄၇</w>":6187,"ကျန်ရစ်":6188,"သနပ်":6189,"ရား":6190,"ပြုတ်":6191,"ကွက်</w>":6192,"က္ခ</w>":6193,"မြန်မာဆိုရိုးစကား</w>":6194,"အဖြစ်သို့</w>":6195,"ဟိုပုံးမြို့နယ်</w>":6196,"ထွက်ခွာ":6197,"ဖျား</w>":6198,"56</w>":6199,"[[</w>":6200,"ပါရှိသည်</w>":6201,"ခေါင်း</w>":6202,"၁၉၄၈</w>":6203,"ဖေါ်ပြ":6204,"ath":6205,"ဆဲ</w>":6206,"ယီ":6207,"ဖော်ထုတ်":6208,"နံ</w>":6209,"ရှည်လျား":6210,"ဇူလိုင်</w>":6211,"ဖြစ်နိုင်":6212,"လွတ်လပ်ရေး</w>":6213,"ဆီဆိုင်မြို့နယ်</w>":6214,"punk</w>":6215,"များအနက်</w>":6216,"နောင်ချို":6217,"နိုင်ငံတကာ</w>":6218,"အမရပူရ":6219,"ခုနှစ်တွင်":6220,"အကြာ":6221,"တည်ထောင်ခဲ့သည်</w>":6222,"မြန်း":6223,"ဒီပ":6224,"လမ်းစဉ်":6225,"ချိုင့်":6226,"ခုခံ":6227,"ဘုရားရှင်":6228,"အခြေခံဥပဒေ":6229,"မှုမှာ</w>":6230,"စာဆို":6231,"ထားရှိ":6232,"ဆန္ဒပြ":6233,"တိုင်းတာ":6234,"အင်း</w>":6235,"သူမှာ</w>":6236,"ပွဲကို</w>":6237,"လျှက်":6238,"ဝါသ":6239,"သမ္မတနိုင်ငံ</w>":6240,"ညစ်":6241,"များဖြစ်သော</w>":6242,"သိသာ":6243,"တည်ရှိပြီး</w>":6244,"ဇရပ်":6245,"ဟင်္သာ":6246,"မှုဖြင့်</w>":6247,"ဖွား</w>":6248,"နောက်ဆုံး</w>":6249,"ရုပ်သံ":6250,"ဘာလ":6251,"သိရသည်</w>":6252,"အိန္ဒိယနိုင်ငံ</w>":6253,"ဝိဇ္ဇာ":6254,"မြှုပ်နှံ":6255,"gr":6256,"ဟုတ်":6257,"သည်နှင့်</w>":6258,"ဗြိတိန်":6259,"ငံ":6260,"ဇာတိ":6261,"အပြည့်":6262,"ကျောက်တံခါးမြို့နယ်</w>":6263,"နွှ":6264,"အက်တ":6265,"တည်းမဟုတ်</w>":6266,"ချီတက်":6267,"Kone</w>":6268,"ယုတ်":6269,"ရာသီ</w>":6270,"ဖေဖေါ်":6271,"မြိုင်မြို့နယ်</w>":6272,"ပျံ့နှံ့":6273,"သူကြီး":6274,"ကျွန်းစု":6275,"ရေတာရှည်မြို့နယ်</w>":6276,"ရှိသော":6277,"သားတော်</w>":6278,"ီးယန်း":6279,"ဖ်</w>":6280,"ဘေ":6281,"မြို့သစ်":6282,"တော်ဝင်":6283,"လက်ရှိ</w>":6284,"အင်တာနက်":6285,"60</w>":6286,"Ph":6287,"ကတိ":6288,"ဘော</w>":6289,"ဖြစ်သဖြင့်</w>":6290,"၁၉၄၅</w>":6291,"အကောင်းဆုံး":6292,"မျက်နှာ</w>":6293,"ဗုံး":6294,"ပြက္ခ":6295,"ဝေဒ":6296,"မံစီ":6297,"အုတ်ဖို":6298,"သယ်ယူ":6299,"အစ</w>":6300,"အတိ":6301,"ကျီ":6302,"ဖြစ်ရပ်":6303,"သေနတ်":6304,"၂၀၉":6305,"ပညာသင်":6306,"ပစ္စ":6307,"ဟိဂ":6308,"သို့တည်းမဟုတ်</w>":6309,"ထွက်လာ":6310,"ဘာသာရေး":6311,"တော်လှန်ရေး</w>":6312,"we</w>":6313,"လျာ":6314,"ey</w>":6315,"အဋ္ဌ":6316,"သန့်ရှင်း":6317,"အမွှ":6318,"မတ္တရာ":6319,"အသုံးပြုသည်</w>":6320,"ဝတ်ဆင်":6321,"ထောက်</w>":6322,"ီးရွာ</w>":6323,"ခဲ့ကြောင်း</w>":6324,"အဖွဲ့သည်</w>":6325,"၁၉၆၂</w>":6326,"တည့်":6327,"တစ်လျှောက်":6328,"သားတော်":6329,"စည်းကမ်း":6330,"ဒ္ဓ":6331,"ဆိပ်ကမ်း":6332,"အိုလံ":6333,"ငှက်</w>":6334,"ကွန်မြူနစ်ပါတီ":6335,"ot</w>":6336,"မျိုးနွယ်":6337,"ဝန်းကျင်</w>":6338,"ကာလတွင်</w>":6339,"မိတ်</w>":6340,"အနီ":6341,"ပြီးစီး":6342,"မိုင်းယောင်း":6343,"နောက်ပိုင်း</w>":6344,"ဝဂ်</w>":6345,"သိ</w>":6346,"အိတ်":6347,"တည်ထား":6348,"ဒေသများတွင်</w>":6349,"သဲကုန်းမြို့နယ်</w>":6350,"ကလောင်":6351,"ဧပြီ</w>":6352,"နှိမ်":6353,"စုစည်း":6354,"ပေါင်းများစွာ</w>":6355,"ဖော်ပြထားသည်</w>":6356,"ထူး</w>":6357,"အပြန်":6358,"ပုဏ္ဏ":6359,"ကန":6360,"တော်မူခဲ့သည်</w>":6361,"မူဆယ်မြို့နယ်</w>":6362,"စက္ကူ":6363,"ျှ":6364,"ကွမ်":6365,"ဘာသာပြန်":6366,"ရတ်":6367,"အဖ":6368,"သီအို":6369,"ခိုက်</w>":6370,"ဈေးကွက်":6371,"ခွန်</w>":6372,"comment</w>":6373,"သန</w>":6374,"၃ဝ</w>":6375,"ပညာကို</w>":6376,"တိုး</w>":6377,"ရေစ":6378,"ဂျွ":6379,"အလယ်</w>":6380,"\"၊</w>":6381,"Py":6382,"ရိ</w>":6383,"မှုမရှိ":6384,"အဘ":6385,"ယိုးဒ":6386,"sp":6387,"မနေ":6388,"အုံး":6389,"နယ်စပ်":6390,"အခြေအနေ</w>":6391,"ဟံသာဝတီ":6392,"သိမ်း</w>":6393,"အနေအထား":6394,"ပါလီမန်":6395,"ဖြူး":6396,"ခဲ့ခြင်းဖြစ်သည်</w>":6397,"မိုင်းယောင်းမြို့နယ်</w>":6398,"61</w>":6399,"98":6400,"မိနစ်":6401,"ဥရောပ</w>":6402,"ငူ</w>":6403,"ရို</w>":6404,"လျှက်</w>":6405,"အမိ":6406,"အပ်</w>":6407,"အလုပ်လုပ်":6408,"ခဲ့သည့်":6409,"ပေးပို့":6410,"ကြယ်စု":6411,"ဒေါက်တာ</w>":6412,"နော":6413,"ခရု":6414,"mg</w>":6415,"ဒိုက်":6416,"တောကျေးရွာအုပ်စု</w>":6417,"အဖြစ်လည်းကောင်း</w>":6418,"မဟုတ်ဘဲ</w>":6419,"မီလီ":6420,"ys":6421,"ထွား":6422,"ပြင်သစ်</w>":6423,"7015":6424,"လန့်":6425,"မှည့်":6426,"အုပ်စိုး":6427,"၂၀၈":6428,"ခွင်":6429,"ပစ္စည်းများကို</w>":6430,"အာဏာပိုင်":6431,"အကျယ်အဝ":6432,"အမျိုးသမီး</w>":6433,"နွဲ့":6434,"63</w>":6435,"64</w>":6436,"သိုက်":6437,"များသော</w>":6438,"1700":6439,"ကိုယ်စားပြု":6440,"တာချီလိတ်မြို့နယ်</w>":6441,"မံစီမြို့နယ်</w>":6442,"နိုင်ပြီး</w>":6443,"လွင်</w>":6444,"သွယ်</w>":6445,"ဂျီ</w>":6446,"62</w>":6447,"စကို":6448,"တပ်ရင်း</w>":6449,"အရေအတွက်":6450,"ပုံပြင်":6451,"၂၀၀၅</w>":6452,"ကျွန်တော်":6453,"အတွေ့":6454,"တွင်ပင်</w>":6455,"မိုင်းမော":6456,"လုံကျေးရွာအုပ်စု</w>":6457,"အဖိုး":6458,"ချောင်":6459,"ကြီးကြပ်":6460,"မှုတွင်</w>":6461,"နိုင်ငံများတွင်</w>":6462,"148":6463,"အရပ်</w>":6464,"လော့</w>":6465,"En":6466,"မျှသာ</w>":6467,"စိုးရိ":6468,"အယူအဆ":6469,"ဂဏန်း":6470,"ကြွေ":6471,"ဆိုမြို့နယ်</w>":6472,"မြောက်ပိုင်း</w>":6473,"ရလ":6474,"ကမ္မ":6475,"မိုးမောက်မြို့နယ်</w>":6476,"၁၆၇":6477,"လှသော</w>":6478,"are</w>":6479,"ထေရ်":6480,"ဂရမ်":6481,"လက်ပံတန်း":6482,"အပိုင်း</w>":6483,"ရုံးစိုက်":6484,"ကြာအင်းဆိပ်":6485,"65</w>":6486,"ယက်</w>":6487,"၁၉၈၈</w>":6488,"သဏ္ဌာန်</w>":6489,"ကိုယ့်":6490,"၁၆၈":6491,"vis":6492,"ရရှိသည်</w>":6493,"တစ်နေ့":6494,"နိုင်ငံကို</w>":6495,"အဆိပ်":6496,"igh":6497,"မီဒီယာ":6498,"66</w>":6499,"ရှူး":6500,"ကြရာ</w>":6501,"လွိုင်လင်မြို့နယ်</w>":6502,"စေး":6503,"မေ့":6504,"ဖြည်း</w>":6505,"ထူးချွန်":6506,"oth":6507,"သိန္":6508,"ပျက်</w>":6509,"ဆည်းပူး":6510,"ကန့်ဘလူမြို့နယ်</w>":6511,"ရှန်":6512,"ကျေ":6513,"ဂျပန်</w>":6514,"ပေါက်ကွဲ":6515,"စိုး</w>":6516,"လူတို့</w>":6517,"၂၀၆":6518,"၂၀၀</w>":6519,"စိတ်ကူး":6520,"၂၀၇":6521,"ဆိုသော်</w>":6522,"ကျွန်းဆွ":6523,"အိုင်ရွာ</w>":6524,"ဒီဂရီ</w>":6525,"တစ်ဦးဖြစ်သည်</w>":6526,"၁၉၈၀</w>":6527,"အယူဝါဒ":6528,"ဘင်္ဂ":6529,"စေတီတော်":6530,"ဂန္":6531,"ဗဟ":6532,"ထားလေသည်</w>":6533,"မ္မာ":6534,"68</w>":6535,"များသည်":6536,"70</w>":6537,"ခုကို</w>":6538,"သိန်း</w>":6539,"184":6540,"ပုန်ကန်":6541,"72</w>":6542,"စသည့်":6543,"ကိုမူ</w>":6544,"မြေပြင်":6545,"နိဂ":6546,"သာသနာတော်တွင်</w>":6547,"ကယားပြည်နယ်</w>":6548,"စကြာ":6549,"အုပ်ချုပ်ရေး</w>":6550,"ငှာ</w>":6551,"အကဲ":6552,"ဖာပွန်မြို့နယ်</w>":6553,"67</w>":6554,"De":6555,"Me":6556,"လဆန်း</w>":6557,"အပျက်":6558,"စာကြည့်":6559,"ပွင့်</w>":6560,"ဆိုရှယ်လစ်":6561,"တီး</w>":6562,"ith</w>":6563,"75</w>":6564,"ချ်":6565,"စရိတ်":6566,"မက</w>":6567,"ပွန်း":6568,"အသျှ":6569,"အစေ့":6570,"ဉာဏ်</w>":6571,"အားလုံးကို</w>":6572,"ရှူ":6573,"မှတစ်ဆင့်</w>":6574,"ဗုဒ္ဓဘာသာ</w>":6575,"ဦးစီးဌာန":6576,"သီတင်းသုံး":6577,"က္ခရာ</w>":6578,"Pro":6579,"တူရိယာ":6580,"ခေတ်က</w>":6581,"ဗီယက်နမ်":6582,"စဉ်းစား":6583,"Uni":6584,"ထာ</w>":6585,"ဟ်":6586,"အဆင်":6587,"71</w>":6588,"ch</w>":6589,"ဇံ":6590,"အမြန်":6591,"ဧည့်":6592,"ဖေဖေါ်ဝါရီလ</w>":6593,"ဒယ်":6594,"ဂီတ</w>":6595,"69</w>":6596,"မင်းဆက်":6597,"သံသ":6598,"MMR01200":6599,"ational</w>":6600,"210":6601,"နိုင်ပေသည်</w>":6602,"စစ်သား":6603,"ကျောင်းတော်":6604,"မြစ်ဝ":6605,"လုပ်ငန်းကို</w>":6606,"ပျော်ဘွယ်မြို့နယ်</w>":6607,"Mar":6608,"ကြပါသည်</w>":6609,"အပ်သော</w>":6610,"မွှေး":6611,"ပူတာအိုခရိုင်</w>":6612,"77</w>":6613,"သူဌေး":6614,"သဘောတရား":6615,"ရှိခိုး":6616,"မရှိပေ</w>":6617,"ဟာရ</w>":6618,"၁၇၅":6619,"အမည်ကို</w>":6620,"အများအားဖြင့်</w>":6621,"ထီးနန်း":6622,"bum</w>":6623,"တို့အတွက်</w>":6624,"ထားခြင်း":6625,"မြောက်ဘက်</w>":6626,"မက်မန်း":6627,"သဘင်":6628,"တစ်ဖန်</w>":6629,"သွားသော</w>":6630,"174":6631,"ဗိုင်း":6632,"ဆိုသည့်</w>":6633,"ကုန်းဘောင်":6634,"နယ်နိမိတ်":6635,"တူးမြောင်း":6636,"၂၀၅":6637,"တောင်ပိုင်း</w>":6638,"ပုံသဏ္ဌာန်":6639,"164":6640,"ရောင်ခြည်":6641,"73</w>":6642,"နရ":6643,"တိုးမြှင့်":6644,"ကျန်းမာရေး</w>":6645,"သမုဒ္ဒရာ":6646,"မြို့နှင့်</w>":6647,"ရေးရာ":6648,"ရေတွင်း":6649,"နှစ်စဉ်</w>":6650,"နယ်ချဲ့":6651,"လက်ပံတန်းမြို့နယ်</w>":6652,"by</w>":6653,"သက်သာ":6654,"ထံသို့</w>":6655,"ဘုန်းကြီး":6656,"မတ္တရာမြို့နယ်</w>":6657,"ဉ္":6658,"တား</w>":6659,"အလုံး":6660,"၀၁</w>":6661,"မဟာ</w>":6662,"ပြီးမှ</w>":6663,"ရွှေ</w>":6664,"အများ</w>":6665,"လှောင်":6666,"တားမြစ်":6667,"အငြင်း":6668,"သူအား</w>":6669,"မိုင်းခတ်":6670,"ဆွေ</w>":6671,"အောင်လံ":6672,"၂၀၀၄</w>":6673,"အေမာ":6674,"အနွယ်":6675,"ကြာအင်းဆိပ်ကြီးမြို့နယ်</w>":6676,"ဇွန်</w>":6677,"ကျောက်ဆည်ခရိုင်</w>":6678,"ပွဲတွင်</w>":6679,"ill":6680,"ယောက်ျား":6681,"လျှို့ဝှက်":6682,"၄၈":6683,"ကိုယ်</w>":6684,"လှရွာ</w>":6685,"ဦးစီးဌာန</w>":6686,"မျောက်":6687,"ပိုမို</w>":6688,"သိပ်သည်း":6689,"နှာ":6690,"လှယ်</w>":6691,"လိမ်":6692,"အစိုးရသည်</w>":6693,"ci":6694,"ဖျက်သိမ်း":6695,"သူဖြစ်သည်</w>":6696,"တရားဝင်</w>":6697,"ဒ္ဒ":6698,"သဘောတူ":6699,"ကြရ":6700,"လက်တွေ့":6701,"ဝင်ရောက်</w>":6702,"ပေးရသည်</w>":6703,"အခဲ":6704,"အရှည်":6705,"မိုင်းရှ":6706,"ငှက်ပျ":6707,"သီရိလင်္ကာ":6708,"ကမ်း</w>":6709,"နှစ်တွင်</w>":6710,"သောကြောင့်":6711,"ဒေသများ</w>":6712,"သီချင်း</w>":6713,"နှစ်ပါး":6714,"ဗန်းမော်ခရိုင်</w>":6715,"မဆို</w>":6716,"ဝိုက်":6717,"အစွဲ":6718,"လုပ်ကြံ":6719,"အမည်ရှိ</w>":6720,"တာချီလိတ်ခရိုင်</w>":6721,"ဂန့်ဂေါ":6722,"79</w>":6723,"အိုင်</w>":6724,"ဂုဏ်ထူး":6725,"ဆရာတော်သည်</w>":6726,"Gyi</w>":6727,"ဒတ်":6728,"အနည်းငယ်</w>":6729,"အနီးတွင်</w>":6730,"ယေဘု":6731,"ကျဆုံး":6732,"လူမျိုးစု":6733,"ရှေးဦး":6734,"ကျင်းပသော</w>":6735,"auk":6736,"ထိုအချိန်တွင်</w>":6737,"78</w>":6738,"ai</w>":6739,"min":6740,"ဒေဝ":6741,"စိုးရိမ်":6742,"အင်ပါ":6743,"တိုင်ရွာ</w>":6744,"ကြွေး":6745,"အပူချိန်":6746,"လမ</w>":6747,"ရှိသည်":6748,"အစီရင်":6749,"ရွှေတောင်မြို့နယ်</w>":6750,"74</w>":6751,"ဗန်":6752,"ပို့ချ":6753,"ပုဂ္ဂလိ":6754,"မက်မန်းခရိုင်</w>":6755,"ဖန်း":6756,"ိမ်း</w>":6757,"သူနှင့်</w>":6758,"ဓာတ်ပုံ":6759,"အက်ဥပဒေ":6760,"အဆောက်အဦး":6761,"ဒါရိုက်တာ</w>":6762,"၀၀":6763,"တင်ပို့":6764,"ကောင်းကင်":6765,"အပါအဝင်":6766,"မွေးဖွားခဲ့သည်</w>":6767,"အု":6768,"ကျသော</w>":6769,"ချက်ဖြင့်</w>":6770,"ဘီလီ":6771,"76</w>":6772,"ရှိသည်ဟု</w>":6773,"တုန်":6774,"MMR0170":6775,"တောင်တွင်းကြီးမြို့နယ်</w>":6776,"ရာမ":6777,"စာလုံး":6778,"အဖွဲ့ချုပ်</w>":6779,"အထောက်အထား":6780,"ဟိုပန်မြို့နယ်</w>":6781,"မိုင်းခတ်မြို့နယ်</w>":6782,"စက္က":6783,"နေရာမှ</w>":6784,"အချုပ်":6785,"နိဗ္ဗာန်":6786,"နိုင်ခြင်း</w>":6787,"ကြီးက</w>":6788,"MMR008":6789,"သန်းခေါင်စာရင်းအရ":6790,"စိုက်ပျိုးရေး":6791,"ပိဋကတ်":6792,"ကျမ်းစာ":6793,"ကျေးလက်":6794,"န္တာ</w>":6795,"ရိုးရွာ</w>":6796,"သင်္ကန်း":6797,"တန့်ဆည်":6798,"ဆယ်</w>":6799,"ကဲ့သို့ပင်</w>":6800,"မြင်းခြံခရိုင်</w>":6801,"နိုင်ငံသား":6802,"ဂျူး":6803,"ပျော့":6804,"ကန်ကျေးရွာအုပ်စု</w>":6805,"အိမ်ရှေ့":6806,"ကန့်သတ်":6807,"),</w>":6808,"စည်</w>":6809,"ချင်</w>":6810,"မှုကို":6811,"ထင်ရှားသည်</w>":6812,"အဂ္ဂ":6813,"လူကြိုက်":6814,"မည်ဖြစ်သည်</w>":6815,"နည်းဖြင့်</w>":6816,"တက္ကသိုလ်မှ</w>":6817,"96</w>":6818,"ပဲခူးမြို့နယ်</w>":6819,"အင်းရွာ</w>":6820,"ကျင်းရွာ</w>":6821,"ကျင်းပခဲ့သည်</w>":6822,"ခဲ</w>":6823,"လိုက်ပါ":6824,"နီးပါး":6825,"our":6826,"wh":6827,"ခါး</w>":6828,"try</w>":6829,"ပရိသတ်":6830,"မိုင်းမော</w>":6831,"အံ့</w>":6832,"နံ့":6833,"ဖော်</w>":6834,"ဟောင်":6835,"တိုက်တွင်</w>":6836,"age</w>":6837,"အင်ဂျင်နီယာ":6838,"တစ်နိုင်ငံ":6839,"အမြင့်ဆုံး":6840,"အကောင်းဆုံး</w>":6841,"မပေး":6842,"မွေ့":6843,"ကိုင်းရွာ</w>":6844,"ဆက်သွယ်ရေး</w>":6845,"လျံ":6846,"နယ်မြေ</w>":6847,"၁၆၅":6848,"ဗြဟ္မာ":6849,"86</w>":6850,"bl":6851,"ex":6852,"ဆိုရ":6853,"အဖွဲ့ကို</w>":6854,"ဒဏ်ရာ":6855,"စခန်း</w>":6856,"ဘဝတွင်</w>":6857,"ite</w>":6858,"တောင်သာ":6859,"ကာမ":6860,"ဓန":6861,"ရေခဲ":6862,"ဒီမိုကရက်":6863,"စ္စ</w>":6864,"ဠာ":6865,"သေချာ":6866,"ဦးအောင်":6867,"ပြုလုပ်</w>":6868,"မီးလောင်":6869,"စတင်ခဲ့သည်</w>":6870,"၁၉၆၃</w>":6871,"ထိုင်းနိုင်ငံ</w>":6872,"ကျူးလွန်":6873,"ဗိသု":6874,"တန့်ဆည်မြို့နယ်</w>":6875,"ကပြ":6876,"ယူနီ":6877,"ကဗျာ</w>":6878,"၂၀၂၀</w>":6879,"ok":6880,"မပြ":6881,"ဆေးဝါး":6882,"စည်ပင်":6883,"သမိုင်းတွင်</w>":6884,"ကြို့ပင်ကောက်":6885,"အသျှင်":6886,"ယန်</w>":6887,"အများအပြား</w>":6888,"အကယ်":6889,"ကြီးတွင်</w>":6890,"ထုတ်ယူ":6891,"၂၀၀၃</w>":6892,"Bl":6893,"မစ္စ":6894,"ကုန်းကြမ်း":6895,"ယင်းမာပင်":6896,"နဝ":6897,"ရခဲ့သည်</w>":6898,"မှတဆင့်</w>":6899,"ပေါ်သို့</w>":6900,"erv":6901,"up":6902,"မွေ":6903,"ခေါ်ကြသည်</w>":6904,"ယင်းသို့</w>":6905,"ရေစကြို":6906,"အက္ခရာ</w>":6907,"မှုအတွက်</w>":6908,"85</w>":6909,"ဂျာနယ်":6910,"ခက်ခဲ":6911,"မြို့ပြ":6912,"မိုးကုတ်":6913,"ကောလိပ်</w>":6914,"ဂရု":6915,"ရှိသော်လည်း</w>":6916,"ခဲ့ခြင်း":6917,"ကွာ</w>":6918,"ပျမ်း":6919,"အတု":6920,"အချင်းချင်း</w>":6921,"သာစည်မြို့နယ်</w>":6922,"မင်းဆက်</w>":6923,"အောက်ပါအတိုင်း</w>":6924,"သန်းခေါင်စာရင်းအရနောင်":6925,"လွမ်း":6926,"နူး":6927,"တုံ့":6928,"ဝိုင်းမော်":6929,"ach":6930,"ကမ်းရိုးတန်း":6931,"နောင်ချိုမြို့နယ်</w>":6932,"ညား":6933,"ိပ်</w>":6934,"ပါက":6935,"ထားကြသည်</w>":6936,"ကြွက်":6937,"ထံတွင်</w>":6938,"87</w>":6939,"ဖြင့်လည်း</w>":6940,"album</w>":6941,"ese</w>":6942,"စသည်တို့":6943,"မကြီး</w>":6944,"ပင်လည်":6945,"ပါဝင်ပြီး</w>":6946,"သမ္မာ":6947,"ကျယ်ဝန်းသည်</w>":6948,"ပြီးသော</w>":6949,"စည်းမျဉ်း":6950,"မြောက်ဘက်တွင်</w>":6951,"၁၇၈":6952,"ထွက်ပြေး":6953,"ရင်ဆိုင်":6954,"လှသည်</w>":6955,"၂၀၁၉</w>":6956,"မိုင်ရွာ</w>":6957,"ပခုက္ကူမြို့နယ်</w>":6958,"ထုပ်":6959,"မြွေ":6960,"မြို့မ":6961,"သီဟို":6962,"ပေါင်းတည်":6963,"ရရှိသော</w>":6964,"82</w>":6965,"စွဲ</w>":6966,"အမူ":6967,"ကျောင်းတော်</w>":6968,"စသည်တို့</w>":6969,"အဲဒီ":6970,"မတော်":6971,"သင့်</w>":6972,"မိုးမိတ်":6973,"ဘူးမြို့နယ်</w>":6974,"ဩဂုတ်</w>":6975,"ကြူ":6976,"ရှိသည့်":6977,"အာရပ်":6978,"ကြာမြင့်":6979,"အစီရင်ခံ":6980,"89</w>":6981,"မြှင့်တင်":6982,"စွပ်စွဲ":6983,"နေရာကို</w>":6984,"အစားထိုး":6985,"တစ်နှစ်တာ</w>":6986,"ငှက်ပျော":6987,"သားသမီး":6988,"၄၇":6989,"ပေါက်ခေါင်း":6990,"ကော့ကရိတ်မြို့နယ်</w>":6991,"Le":6992,"ကံ</w>":6993,"အော့":6994,"ဦးရွာ</w>":6995,"ပညတ်":6996,"ရန်သူ":6997,"ချောင်းမြို့နယ်</w>":6998,"သိမ်းယူ":6999,"]]</w>":7000,"sta":7001,"နီးယား</w>":7002,"ယခင်</w>":7003,"154":7004,"88</w>":7005,"ဂျော့":7006,"တောင်ဘက်</w>":7007,"ပျဉ်":7008,"သစ်သား":7009,"တ္ထု":7010,"ကော်မရှင်":7011,"ပဋိပ":7012,"တဖြည်းဖြည်း</w>":7013,"90</w>":7014,"အပေါ်တွင်</w>":7015,"ပွား</w>":7016,"ard":7017,"၁၉၆၈</w>":7018,"ဟောပြော":7019,"ရမည့်</w>":7020,"ဆက်သွယ်ရေး":7021,"ပင်လည်ဘူးမြို့နယ်</w>":7022,"was</w>":7023,"ကိုင်း</w>":7024,"ကလောမြို့နယ်</w>":7025,"အုပ်စု</w>":7026,"ပြင်ဦးလွင်ခရိုင်</w>":7027,"စာသင်":7028,"မိုင်းရယ်":7029,"သာမဏ":7030,"ခန္ဓာကိုယ်":7031,"ဝိုင်းမော်မြို့နယ်</w>":7032,"သန္ဓ":7033,"။\"</w>":7034,"မြုပ်":7035,"တူသည်</w>":7036,"ကောလင်း":7037,"လဲချား":7038,"ဆစ်</w>":7039,"ဘင်":7040,"အတ္တ":7041,"နေပြီး</w>":7042,"ညောင်ဦး":7043,"ကုလသမဂ္ဂ</w>":7044,"em</w>":7045,"ချုံ":7046,"အဖွဲ့က</w>":7047,"ရပ်စောက်မြို့နယ်</w>":7048,"အထိမ်းအမှတ်":7049,"ဝက်</w>":7050,"ပုပ္":7051,"မည်သည့်</w>":7052,"ရထာ":7053,"အကျယ်</w>":7054,"၁၉၇၂</w>":7055,"ကျူးကျော်":7056,"97</w>":7057,"ဖြစ်သောကြောင့်</w>":7058,"တိမ်း":7059,"est</w>":7060,"ff":7061,"ma":7062,"ပင်ကျေးရွာအုပ်စု</w>":7063,"ပင်လယ်</w>":7064,"မြစ်သား":7065,"ရွှေ့ပြောင်း":7066,"ကြို့ပင်ကောက်မြို့နယ်</w>":7067,"ne":7068,"သီဟိုဠ":7069,"92</w>":7070,"ဂတ်":7071,"စေတ":7072,"ဒီပဲ":7073,"မိုးကောင်း":7074,"သုတ္တ":7075,"MMR007":7076,"Bur":7077,"ထမင်း":7078,"ဝု":7079,"တွေက</w>":7080,"နံရံ":7081,"ack</w>":7082,"ဆို့":7083,"အငြင်းပွား":7084,"ကြသော်လည်း</w>":7085,"ကျွတ်":7086,"တွဲဖက်":7087,"ပလ္":7088,"ဝန်ဆောင်မှု":7089,"94</w>":7090,"ခမည်း":7091,"နမ္မ":7092,"မလှိုင်":7093,"နေသော":7094,"နတ်ဘုရား":7095,"ဂုဏ်ပြု":7096,"လှုပ်ရှားမှု":7097,"အကောင်အထည်":7098,"ရောက်လာ":7099,"စ္ဆ":7100,"98</w>":7101,"တည်ရှိသော</w>":7102,"မှုတ်":7103,"ငယ်စဉ်":7104,"လေ့ရှိကြသည်</w>":7105,"95</w>":7106,"ran":7107,"တလန်":7108,"ဟက်":7109,"ကျာ":7110,"ပြည်မြို့နယ်</w>":7111,"ခုနှစ်မှစ</w>":7112,"ပျဉ်းမ":7113,"တွက်ချက်":7114,"ကြော်ငြာ":7115,"99</w>":7116,"လူနာ":7117,"ယှက်":7118,"တစ်ခါတစ်ရံ</w>":7119,"အင်</w>":7120,"ပြီးဆုံး":7121,"မီက</w>":7122,"ဖေ</w>":7123,"ခရို":7124,"81</w>":7125,"Re":7126,"မဝင်":7127,"တွေ့</w>":7128,"၂၀၀၂</w>":7129,"တရုတ်ပြည်":7130,"ပါအတိုင်း":7131,"သုတေသန</w>":7132,"နှင့်အညီ</w>":7133,"93</w>":7134,"ညင်း":7135,"ရှိသဖြင့်</w>":7136,"သူများက</w>":7137,"သွားလေသည်</w>":7138,"တကျ</w>":7139,"ရာခိုင်နှုန်း</w>":7140,"ပြက္ခဒိန်":7141,"ဒင်္ဂ":7142,"ဗင်":7143,"ပါသော</w>":7144,"ကွယ်</w>":7145,"ကုန်ဆုံး":7146,"ကမ္ဘော":7147,"သဘာဝ</w>":7148,"ဟိန္ဒ":7149,"အတွင်းရေးမှူး":7150,"Ma</w>":7151,"ဂူ</w>":7152,"ပဿ":7153,"ပြင်ပ":7154,"ခန့်တွင်</w>":7155,"ကွန်မြူနစ်ပါတီ</w>":7156,"စစ်ဆင်ရေး":7157,"500":7158,"ပေါက်ရွာ</w>":7159,"ဒီဇိုင်း":7160,"အဖ</w>":7161,"အငြိမ်း":7162,"ခေါ်တွင်":7163,"ပတ်လည်":7164,"စတုရန်းကီလိုမီတာ</w>":7165,"ra":7166,"သိုင်း":7167,"ံ့</w>":7168,"မ်ရွာ</w>":7169,"အတို":7170,"ကမ္ဘာ</w>":7171,"သရုပ်ဆောင်</w>":7172,"ပုရ":7173,"ကောင်းစွာ":7174,"84</w>":7175,"ခေါင်</w>":7176,"တင်ဆက်":7177,"အာသ":7178,"လျင်မြန်":7179,"83</w>":7180,"အလွယ်":7181,"ရေးရာ</w>":7182,"၂၀၀၁</w>":7183,"မိဖုရား</w>":7184,"လိုလား":7185,"ကြွယ်ဝ":7186,"ကျပ်</w>":7187,"အသက်မွေး":7188,"မရမ်း":7189,"အရည်အ":7190,"91</w>":7191,"မအူ":7192,"ရသေ့":7193,"တွင်လည်းကောင်း</w>":7194,"ပွဲများ</w>":7195,"နေကြသည်</w>":7196,"ပေမ":7197,"ဇာတ်</w>":7198,"ဆုကို</w>":7199,"သာသနာတော်":7200,"တောင်သာမြို့နယ်</w>":7201,"ပြွန်":7202,"မြန်မာပြည်</w>":7203,"အရေးပါသော</w>":7204,"ဝဏ္ဏ":7205,"အညီ</w>":7206,"ir</w>":7207,"စစ်ပွဲ</w>":7208,"ရဟန်း</w>":7209,"၁၉၉၉</w>":7210,"တောင်ငူမြို့နယ်</w>":7211,"မိုင်းရယ်မြို့နယ်</w>":7212,"အရက်":7213,"သောအခါ":7214,"ကောင်းသော</w>":7215,"ကုန်သည်":7216,"အဝေး</w>":7217,"၁၉၄၆</w>":7218,"ဝါး</w>":7219,"သာယာဝတီမြို့နယ်</w>":7220,"ရမည်းသင်းမြို့နယ်</w>":7221,"အောင်လံမြို့နယ်</w>":7222,"Am":7223,"ကြီးနှင့်</w>":7224,"သက်ရှိ":7225,"ဆွဲ</w>":7226,"ငါးမျိုး":7227,"မိုင်းရှူးမြို့နယ်</w>":7228,"up</w>":7229,"မြောင်":7230,"ခဲ့ပေသည်</w>":7231,"တစ်လုံး":7232,"ကျေးရွာ</w>":7233,"လွဲ</w>":7234,"ငြိမ်းချမ်းရေး":7235,"ရေစကြိုမြို့နယ်</w>":7236,"အရှိန်":7237,"ရေတပ်":7238,"ယုန်":7239,"ဝရ":7240,"ကြံ့":7241,"တွန်":7242,"နိုင်အောင်</w>":7243,"နေထိုင်ကြသည်</w>":7244,"သာကျေးရွာအုပ်စု</w>":7245,"ထွင်း":7246,"အမိ</w>":7247,"အောက်ပါအတိုင်း":7248,"ယင်းတို့</w>":7249,"မန္တလေးမြို့</w>":7250,"၁၉၆၄</w>":7251,"စီမံကိန်း</w>":7252,"နော့":7253,"ရှ်":7254,"တပ်များ</w>":7255,"သင်္ချ":7256,"ဗမာ့":7257,"ကနေဒါ":7258,"ဆောင်ရွက်</w>":7259,"အသုံးဝင်":7260,"ဆရာဝန်":7261,"ory</w>":7262,"အမြင့်</w>":7263,"တယ်လီ":7264,"ထန်းတ":7265,"ရွှေကျင်မြို့နယ်</w>":7266,"ကလပ်":7267,"ဖြစ်စဉ်":7268,"နှစ်စဉ်":7269,"မျှင်":7270,"ကုန်းကြမ်းမြို့နယ်</w>":7271,"ပေါက်ခေါင်းမြို့နယ်</w>":7272,"ma</w>":7273,"နိုင်လေသည်</w>":7274,"ဘက်သို့</w>":7275,"ast</w>":7276,"များအတွင်း</w>":7277,"tic":7278,"တစ်စုံ":7279,"နှင့်ပတ်သက်":7280,"အရာဝတ္ထု":7281,"ကိုယ်စားလှယ်</w>":7282,"ဟတ်":7283,"ခဲ့သည်":7284,"ပိုး</w>":7285,"အော":7286,"အားနည်း":7287,"ယေဘုယျ":7288,"ယင်းမာပင်ခရိုင်</w>":7289,"iv":7290,"ချောင်</w>":7291,"ကန့်ကွက်":7292,"ဟုခေါ်သော</w>":7293,"လှည့်လည်":7294,"iz":7295,"အောင်း":7296,"အဖွဲ့ချုပ်":7297,"၁၉၅၃</w>":7298,"လင်းခေးခရိုင်</w>":7299,"မကြာခဏ</w>":7300,"vision</w>":7301,"ဆင်း</w>":7302,"ရွာတွင်</w>":7303,"ရိယ</w>":7304,"ons</w>":7305,"၁၉၅၈</w>":7306,"ဂရက်":7307,"ဗေး":7308,"လာခြင်း</w>":7309,"ပေးသည့်</w>":7310,"ပြစ်မှု":7311,"မိုင်းဆတ်ခရိုင်</w>":7312,"မြစ်သားမြို့နယ်</w>":7313,"ဥစ္စာ":7314,"များရှိ</w>":7315,"လက်ဖက်":7316,"အပြား":7317,"၁၉၆၀</w>":7318,"သထုံခရိုင်</w>":7319,"အကြားတွင်</w>":7320,"နေအိမ်":7321,"သာရ":7322,"တ္တ</w>":7323,"တတ်ကြသည်</w>":7324,"သဘောထား":7325,"အမေရိကန်ပြည်ထောင်စု":7326,"မြို့နယ်တွင်</w>":7327,"ကြိုတင်":7328,"မယား":7329,"ထိုအ":7330,"သဘော</w>":7331,"အင်တာနက်</w>":7332,"ပျား":7333,"ရှမ်းပြည်နယ်":7334,"နေ့စဉ်":7335,"မီးသွေး":7336,"ထိရောက်":7337,"(;</w>":7338,"st</w>":7339,"ထရို":7340,"နိုင်သော":7341,"မင်းသမီး</w>":7342,"ဖက်တွင်</w>":7343,"မလှိုင်မြို့နယ်</w>":7344,"bo":7345,"ထင်း":7346,"တော်ရွာ</w>":7347,"စကားကို</w>":7348,"၁၁၂":7349,"အသုံးအ":7350,"ကြီးမားသော</w>":7351,"လဲချားမြို့နယ်</w>":7352,"တံ</w>":7353,"ပစ်</w>":7354,"ချောက်":7355,"ကျောက်ကြီးမြို့နယ်</w>":7356,"အရာရှိ</w>":7357,"ဘွဲ့ကို</w>":7358,"ကြံစည်":7359,"ဆိုလိုသည်</w>":7360,"ကသာခရိုင်</w>":7361,"ချိတ်ဆက်":7362,"ဝါသနာ":7363,"မြို့ဟောင်း":7364,"ပါဘူး</w>":7365,"တစ်ခုဖြစ်ပြီး</w>":7366,"ငှား":7367,"ဇေယျ":7368,"Sta":7369,"လုံလောက်":7370,"ကာလအတွင်း</w>":7371,"ဝက်လက်မြို့နယ်</w>":7372,"ခလ":7373,"ခူ":7374,"ကိုပါ</w>":7375,"လေးစား":7376,"ခဲ့ကြပြီး</w>":7377,"မိုင်းမောမြို့နယ်</w>":7378,"အဝါ":7379,"အစဉ်</w>":7380,"တာကို</w>":7381,"ခုနှစ်က</w>":7382,"ဖြူရွာ</w>":7383,"ကိုလံ":7384,"ကောင်းစွာ</w>":7385,"လက်နက်ကိုင်":7386,"ပေါင်းတည်မြို့နယ်</w>":7387,"ဒီပဲယင်း":7388,"ထင်</w>":7389,"ထားခဲ့သည်</w>":7390,"မျိုးစိတ်":7391,"ခြင်းမှ</w>":7392,"ere</w>":7393,"ဖျာ":7394,"ပူးပေါင်း</w>":7395,"အယ်ဒီတာ":7396,"အုတ်ဖိုမြို့နယ်</w>":7397,"မှုရှိ":7398,"ဖြစ်လျှင်</w>":7399,"ပုံမှာ</w>":7400,"လျက်ရှိသော</w>":7401,"ပါမောက္ခ":7402,"သိန္နီမြို့နယ်</w>":7403,"များတွင်လည်း</w>":7404,"တစ်ကြိမ်</w>":7405,"န္န":7406,"လွှာ</w>":7407,"စိမ်":7408,"အယ်လ":7409,"ကိစ္စရပ်":7410,"So":7411,"တစ်ကြိမ်":7412,"ရေကန်":7413,"ဒီမိုကရေစီ</w>":7414,"တောင်း</w>":7415,"များရှိသည်</w>":7416,"၁၉၅၆</w>":7417,"အစ္စလာမ်":7418,"မိုး</w>":7419,"၁၁၉":7420,"ချ်</w>":7421,"ထားသည့်":7422,"ထွက်သည်</w>":7423,"ဖိလစ်ပိုင်":7424,"ဖလား":7425,"အသေ":7426,"ရှမ်း</w>":7427,"အတွင်းက</w>":7428,"၁၉၉၇</w>":7429,"ဖောက်လုပ်":7430,"လက်ပန်":7431,"မူကား</w>":7432,"ဟုဆို":7433,"၁၉၅၄</w>":7434,"ခါးရွာ</w>":7435,"အဘိဓာ":7436,"ရလဒ်":7437,"Ny":7438,"la</w>":7439,"မျိုးရိုး":7440,"ညောင်ဦးမြို့နယ်</w>":7441,"ကူးသန်း":7442,"all</w>":7443,"ဇုန်</w>":7444,"သူမသည်</w>":7445,"လူသိများ":7446,"he":7447,"por":7448,"ဒက်":7449,"အဖွဲ့တွင်</w>":7450,"နတ်မောက်မြို့နယ်</w>":7451,"လယ်သမား":7452,"ung</w>":7453,"ကာဗ":7454,"နည်းပညာ</w>":7455,"ut</w>":7456,"နို</w>":7457,"ဗဟု":7458,"ရှုပ်":7459,"စစ်မှု":7460,"သွားပြီး</w>":7461,"ရ်</w>":7462,"မရှိဘဲ</w>":7463,"၁၉၇၀</w>":7464,"ဒြပ်စင်":7465,"ရှာဖွေတွေ့ရှိခဲ့သည်</w>":7466,"ပုပ်":7467,"ယင်းသည်</w>":7468,"with</w>":7469,"ရိုင်":7470,"နောက်ခံ":7471,"ကျောက်ဆည်မြို့နယ်</w>":7472,"မြိတ်ခရိုင်</w>":7473,"အေမာမ်":7474,"တကယ်":7475,"ဧက</w>":7476,"၁ဝ":7477,"ure</w>":7478,"ပေါင်</w>":7479,"သားများ":7480,"၁၉၅၉</w>":7481,"မဟုတ်ပေ</w>":7482,"လွှဲပြောင်း":7483,"ကောလင်းခရိုင်</w>":7484,"မရောက်":7485,"နေရာသို့</w>":7486,"စေခြင်း</w>":7487,"ကြားတွင်</w>":7488,"ဖွဲ့စည်းပုံ</w>":7489,"ဘီးလင်းမြို့နယ်</w>":7490,"ကစား</w>":7491,"ရေဒီယို":7492,"ပေါ်တွင်":7493,"မျှတ":7494,"သာသနာပြု":7495,"အတွင်းရေးမှူး</w>":7496,"၃၃":7497,"တို့ကိုလည်း</w>":7498,"ကာယ":7499,"မုံရွာခရိုင်</w>":7500,"ဇလီ":7501,"၀၂</w>":7502,"တိုင်းတွင်</w>":7503,"အနည်းဆုံး</w>":7504,"မေးမြန်း":7505,"ပေါ်လာ":7506,"အင်ဒိုနီးရှား":7507,"ဟိဂရှိ</w>":7508,"400":7509,"Con":7510,"oh":7511,"ty</w>":7512,"၄၄":7513,"ရှု</w>":7514,"အဖွဲ့မှ</w>":7515,"ခရီးစဉ်":7516,"တစ်ခုတွင်</w>":7517,"ပတ်ဝန်းကျင်</w>":7518,"သင်္ဘော</w>":7519,"ပင်လယ်ရေ":7520,"Intern":7521,"အမြောက်အမြ":7522,"မဒ":7523,"အလေ့":7524,"နေရာများ</w>":7525,"စ္စတန်":7526,"ence</w>":7527,"ဝိညာ":7528,"ဖွင့်လှစ်ခဲ့သည်</w>":7529,"ပု</w>":7530,"အငယ်":7531,"နှောင့်":7532,"end":7533,"၁၉၆၁</w>":7534,"အာဖရိက</w>":7535,"အကြံပေး":7536,"ချောင်ရွာ</w>":7537,"ရက်မြောက်</w>":7538,"ant</w>":7539,"အရေးအသား":7540,"ရွေးကောက်ပွဲတွင်</w>":7541,"ကေအင်န်ယူ":7542,"စံနစ်":7543,"အခြေစိုက်":7544,"ဖြင့်သာ</w>":7545,"ရုရှ":7546,"၁၉၅၂</w>":7547,"ဗိုင်းရပ်":7548,"ကနေ</w>":7549,"ထိမ်း":7550,"ထိုနှစ်":7551,"ထိုင်း</w>":7552,"ယူနိုက်":7553,"သိပ္ပံ</w>":7554,"အထွေထွေ</w>":7555,"အိုလံပစ်":7556,"တစ်လျှောက်</w>":7557,"ကြီးထွား":7558,"1400":7559,"ရာဇဝတ်":7560,"တွေ့ရှိရသည်</w>":7561,"ဖယ်ခုံ":7562,"ဗတ်":7563,"မလို":7564,"ခြင်းအားဖြင့်</w>":7565,"စိတ်ဓာတ်":7566,"စကားပြော":7567,"ပြုလုပ်ခဲ့သည်</w>":7568,"ice</w>":7569,"ပုဂ္ဂိုလ်</w>":7570,"ညွှန်ကြားရေး":7571,"အရပ်ရပ်":7572,"ကြေး</w>":7573,"တို့လည်း</w>":7574,"ချက်များ":7575,"အဝိုင်း":7576,"အကွာတွင်</w>":7577,"ယော</w>":7578,"ကြသဖြင့်</w>":7579,"ချောက်မြို့နယ်</w>":7580,"စေသော</w>":7581,"သွားရောက်</w>":7582,"ပေါ်တူ":7583,"တစ်ခုမှာ</w>":7584,"တရုတ်နိုင်ငံ</w>":7585,"ခမ်းရွာ</w>":7586,"ချူး":7587,"တောင်ကုန်း":7588,"ရုက္ခ":7589,"အချို့က</w>":7590,"မြ</w>":7591,"တိုးပွား":7592,"အစားအစာ":7593,"အုတ်တွင်းမြို့နယ်</w>":7594,"ရင်းနှီးမြှုပ်နှံ":7595,"ကရာ":7596,"မြိုင်</w>":7597,"မြို့မှာ</w>":7598,"အနိ":7599,"အချိုး":7600,"ဝန်းသို":7601,"အကြာတွင်</w>":7602,"မြို့ကြီး":7603,"ရေးအဖွဲ့</w>":7604,"မြန်မာ့</w>":7605,"ကျောင်းများ</w>":7606,"အကျယ်အဝန်း":7607,"32":7608,"ပြုခဲ့သည်</w>":7609,"ပင်သည်</w>":7610,"စတုရန်းမိုင်</w>":7611,"မက္ကဆီ":7612,"၁၉၇၅</w>":7613,"ငါ</w>":7614,"ဘတ်</w>":7615,"ဝူ":7616,"၁၁၆":7617,"အစရှိသော</w>":7618,"လျှံ":7619,"ကန်ကျေးရွာအုပ်စုတွင်</w>":7620,"စည်သူ":7621,"၁၉၆၅</w>":7622,"ဧကရာဇ်":7623,"ယိုးဒယား":7624,"ဒို</w>":7625,"ပယ်</w>":7626,"ဆိုခဲ့သည်</w>":7627,"၁၉၆၇</w>":7628,"နေပြည်တော်":7629,"ပီ</w>":7630,"ရမ်":7631,"အစွမ်း":7632,"ဟူသည်</w>":7633,"ဥယျာဉ်</w>":7634,"ိတ်</w>":7635,"ဖြောင့်":7636,"စစ်သည်":7637,"က္ခု":7638,"ရောက်သောအခါ</w>":7639,"တိုင်းရင်းသား</w>":7640,"ကွန်ပျူတာ</w>":7641,"ဒဏ်</w>":7642,"အိုင်း":7643,"၂၁၇":7644,"နှောက်":7645,"ဖြစ်ရ":7646,"ရာဇာ</w>":7647,"၁၉၉၂</w>":7648,"ဘုတ":7649,"ဗန်းမောက်မြို့နယ်</w>":7650,"ဘင်္ဂလား":7651,"ထည့်</w>":7652,"ဖူး</w>":7653,"လတ်</w>":7654,"ထားပါသည်</w>":7655,"တောင်ဘက်တွင်</w>":7656,"ခေါင်လန်":7657,"ကျက်စား":7658,"Hp":7659,"ထောင်း":7660,"ဟိုး":7661,"အသင့်":7662,"ကြယ်စုတန်း":7663,"ပီး":7664,"ဂျို":7665,"မောင်မောင်":7666,"ရောက်ရှိလာ":7667,"ဘိုးတော်":7668,"de</w>":7669,"မီး</w>":7670,"အရသာ":7671,"မရှိသော</w>":7672,"ခေတ်သစ်":7673,"၁၉၉၃</w>":7674,"လူဦးရေသည်</w>":7675,"ကွာဝေး":7676,"စူးစမ်း":7677,"မှလည်း</w>":7678,"အနော်":7679,"ခြင်းမပြု":7680,"တပ်ရင်း":7681,"မိုင်းဖြတ်":7682,"ဖက်ဆစ်":7683,"စစ်ကိုင်းမြို့နယ်</w>":7684,"ဖွံ့ဖြိုးရေး":7685,"အခွင့်အရေး</w>":7686,"ဧရိယာ</w>":7687,"၁၉၇၄</w>":7688,"Kyauk":7689,"ဧရာဝတီမြစ်":7690,"We":7691,"ယျ</w>":7692,"များထက်</w>":7693,"လူထု</w>":7694,"အသုံးပြုသော</w>":7695,"သေးသော</w>":7696,"ros":7697,"ပြီဖြစ်သည်</w>":7698,"MMR01700":7699,"မုန်တိုင်း":7700,"ဒါရိုက်တာ":7701,"စိုင်":7702,"မမြင်":7703,"သကြား":7704,"တောကျေးရွာအုပ်စုတွင်</w>":7705,"ဂြိုဟ်</w>":7706,"တုံ့ပြန်":7707,"ခေါင်လန်ဖူး":7708,"နှင့်ပတ်သက်</w>":7709,"ကားလမ်း":7710,"တူရ":7711,"သီးသန့်":7712,"၁၉၄၉</w>":7713,"ညှိနှိုင်း":7714,"သန္ဓေ":7715,"gh":7716,"ဖရန်":7717,"ကျုံး":7718,"မိန်":7719,"လုံကျေးရွာအုပ်စုတွင်</w>":7720,"ical</w>":7721,"ခဲ့ကြလေသည်</w>":7722,"ဟိုပန်ခရိုင်</w>":7723,"အပြီးတွင်</w>":7724,"...</w>":7725,"သင်္ကေတ":7726,"ကျည်":7727,"ဖြစ်ထွန်း":7728,"နာယ":7729,"စသော":7730,"ကြကုန်</w>":7731,"လက်မှု":7732,"တွင်မှ</w>":7733,"လှုပ်ရှားမှု</w>":7734,"wiki</w>":7735,"ကပ္ပ":7736,"ဘန့်":7737,"သူကြီး</w>":7738,"သည်ကား</w>":7739,"ကုန်ကျ":7740,"ညောင်လေး":7741,"အကယ်ဒ":7742,"သီဟိုဠ်":7743,"se":7744,"ဖခင်</w>":7745,"ဆိုတာ</w>":7746,"ဥရောပတိုက်":7747,"လေဆိပ်</w>":7748,"ရန်ပုံ":7749,"ခေါင်းစဉ်":7750,"စိန့်":7751,"၁၉၉၆</w>":7752,"၁၉၉၅</w>":7753,"ရာသီဥတု</w>":7754,"ခေါင်လန်ဖူးမြို့နယ်</w>":7755,"အပွင့်":7756,"ှာ":7757,"၅ဝ</w>":7758,"နှစ်ဖက်":7759,"နာမ်":7760,"အကြွ":7761,"ကိုယ်တော်":7762,"တော်မူသော</w>":7763,"၁၉၉၁</w>":7764,"ဝမ်းတွင်းမြို့နယ်</w>":7765,"သယ်ယူပို့ဆောင်":7766,"ဂရီ":7767,"အဖို့</w>":7768,"ချဉ်":7769,"တ္တရ":7770,"ထပ်မံ</w>":7771,"၁၉၈၉</w>":7772,"တနင်္သာရီမြို့နယ်</w>":7773,"ton</w>":7774,"ခြင်းခံရသည်</w>":7775,"တွင်ရှိသော</w>":7776,"ဘုရားကြီး":7777,"ace</w>":7778,"ဖုခု":7779,"အမွှေး":7780,"ue</w>":7781,"တော်များကို</w>":7782,"ထဲမှာ</w>":7783,"အမြီး":7784,"ဖယ်ရှား":7785,"ကမ္ဘောဒ":7786,"129":7787,"ရေင":7788,"အသင်":7789,"ပိုင်ခွင့်</w>":7790,"အတွင်းမှ</w>":7791,"မင်းတပ်မြို့နယ်</w>":7792,"se</w>":7793,"စကော့":7794,"ဋ်":7795,"တွင်သာ</w>":7796,"ဂါးရွာ</w>":7797,"ip":7798,"ဒရို":7799,"ဆက်နွယ်":7800,"တွင်းသို့</w>":7801,"၁၉၆၉</w>":7802,"မကွေးမြို့နယ်</w>":7803,"ထူထပ်":7804,"အခေါ်မှာ</w>":7805,"ies</w>":7806,"ယပ်":7807,"လွတ်</w>":7808,"မော်လမြိုင်ခရိုင်</w>":7809,"နုတ်ထွက်":7810,"Par":7811,"ကရင်</w>":7812,"ပုံရွာ</w>":7813,"ပြန့်ပွား":7814,"စလုံး":7815,"ထိုင်</w>":7816,"ရုပ်</w>":7817,"ချိ</w>":7818,"မြို့ဖြစ်သည်</w>":7819,"စက်ရုံ</w>":7820,"အရေးတော်":7821,"မောက်မယ်":7822,"ဇ္ဈ":7823,"စဉ့်ကူး":7824,"မရော":7825,"တစ်ရပ်</w>":7826,"ဒေသခံ":7827,"ရခိုင်</w>":7828,"ကြမ်း</w>":7829,"များရှိ":7830,"မော်ရွာ</w>":7831,"လူမျိုးတို့သည်</w>":7832,"ခရစ်နှစ်</w>":7833,"wor":7834,"ထည်</w>":7835,"ပူးတွဲ":7836,"ပြစ်ဒဏ်":7837,"အတိုင်းအ":7838,"နမ္မတူ":7839,"ကမာ":7840,"ဒဲ":7841,"ဘိုင်":7842,"ဘိုင်း":7843,"အကာ":7844,"၀၄</w>":7845,"တွေ့ရ</w>":7846,"တက်ကြွ":7847,"မန်တုံမြို့နယ်</w>":7848,"မြန်မာနိုင်ငံရှိ</w>":7849,"အဆောက်အဦ":7850,"စင်ကာပူ":7851,"ရေဦးမြို့နယ်</w>":7852,"စွမ်း</w>":7853,"ယာယီ":7854,"ရုပ်တု":7855,"စိမ့်":7856,"အရှေ့ဘက်တွင်</w>":7857,"ဒေါ်ခင်":7858,"ပိတ်ဆို့":7859,"04</w>":7860,"အတိုက်":7861,"ခရမ်း":7862,"ထိုပြင်</w>":7863,"အစိမ်း":7864,"ခိုင်မာ":7865,"အလုပ်သမား</w>":7866,"၁၉၇၃</w>":7867,"အလျား":7868,"လုံခြုံရေး":7869,"မြစ်ဝကျွန်း":7870,"ဖယ်ခုံမြို့နယ်</w>":7871,"ဘိန်း":7872,"ခဲ့ရ</w>":7873,"ခြယ်":7874,"ဆိုး</w>":7875,"ဇုန်":7876,"သယ်ဆောင်":7877,"မလေးရှား":7878,"Mic":7879,"ဆီး</w>":7880,"အန်း":7881,"ငြား":7882,"ကွန်ယက်":7883,"ရဟန္တာ</w>":7884,"မဲဆန္ဒ":7885,"နမ့်ခမ်း":7886,"ess</w>":7887,"များကိုသာ</w>":7888,"ဇန်နဝါရီ":7889,"အစ်ကို":7890,"ဗကပ":7891,"၅၀၀</w>":7892,"ရေကျော်":7893,"မျိုးစုံ":7894,"ပုထိုး":7895,"လိုက်သော</w>":7896,"နည်းတူ</w>":7897,"လောက်အောင်</w>":7898,"om</w>":7899,"ခဝ":7900,"၁၁၈":7901,"ကြင်":7902,"လေးပါး":7903,"တက္ကသိုလ်တွင်</w>":7904,"အများစုမှာ</w>":7905,"(\"</w>":7906,"ကြိုး</w>":7907,"များဖြစ်သည့်</w>":7908,"tic</w>":7909,"ခံတပ်":7910,"ဆင်ခြင်":7911,"revision</w>":7912,"ရွေးကောက်ပွဲ</w>":7913,"ဇ္ဇ":7914,"Wor":7915,"၀၅</w>":7916,"ကောလင်းမြို့နယ်</w>":7917,"မုဆိုး":7918,"မိမိကိုယ်":7919,"ရာသီတွင်</w>":7920,"te</w>":7921,"စုပေါင်း":7922,"တိုက်ပွဲ</w>":7923,"ဘူမိ":7924,"ဆော့ဖ်":7925,"ပုဏ္ဏား":7926,"အုံ</w>":7927,"ရွေး</w>":7928,"ကြည့်</w>":7929,"အောင်ဆန်း</w>":7930,"လိုက်လေသည်</w>":7931,"နွားထိုး":7932,"ချွတ်":7933,"ရွေ့လျား":7934,"ဒီပဲယင်းမြို့နယ်</w>":7935,"He":7936,"lo":7937,"ဦးတည်":7938,"ဂျာ</w>":7939,"အထား</w>":7940,"ဖြင့်လည်းကောင်း</w>":7941,"၁၉၉၈</w>":7942,"yste":7943,"စန်း":7944,"နှစ်ယောက်":7945,"ခြင်းကို":7946,"အမဲ":7947,"ဆရာကြီး":7948,"that</w>":7949,"အေးချမ်း":7950,"ရောက်ရှိခဲ့သည်</w>":7951,"နှေး":7952,"ဝိပဿ":7953,"ရှေ့နေ":7954,"လိုအပ်သော</w>":7955,"ဘုတလင်":7956,"စွက်":7957,"မိုးနဲ":7958,"တတ်မြောက်":7959,"အများပြည်သူ":7960,"များစွာသော</w>":7961,"Chin":7962,"လူမှုရေး":7963,"အရှေ့တောင်အာရှ":7964,"Sp":7965,"စာရင်းတွင်</w>":7966,"ထင်ရှား</w>":7967,"မိသားစု</w>":7968,"ကန့်</w>":7969,"နိုင်စွမ်း":7970,"70250":7971,"၁၉၄၂</w>":7972,"ဗုဒ္ဓ</w>":7973,"အသီးသီး</w>":7974,"wiki":7975,"အဋ္ဌက":7976,"ဘို</w>":7977,"ဟီး":7978,"အသား</w>":7979,"173":7980,"183":7981,"မိုးညို":7982,"ကွန်မြူနစ်</w>":7983,"အတွေ့အကြ":7984,"wikitext</w>":7985,"213":7986,"ဇ်</w>":7987,"မဲ</w>":7988,"မက်</w>":7989,"ပြော</w>":7990,"ကြဲ":7991,"ကျောက်</w>":7992,"ခြံ</w>":7993,"စေပြီး</w>":7994,"ပြည်သူ့</w>":7995,"ပလောင်</w>":7996,"မိုင်းဖြတ်မြို့နယ်</w>":7997,"များထဲတွင်</w>":7998,"ဂျင်း":7999,"နောက်ဆုံးတွင်</w>":8000,"ဘဏ်</w>":8001,"သွေ့":8002,"ပင်ကျေးရွာအုပ်စုတွင်</w>":8003,"ဆီသို့</w>":8004,"ဒီဂရီ":8005,"ဝါယ":8006,"ဌာပ":8007,"မည်သူ":8008,"ရိုးမ":8009,"ချန်ပီ":8010,"အတ္ထု":8011,"မြေး":8012,"အရောင်း":8013,"ညွန့်</w>":8014,"နှိုင်းယှဉ်":8015,"ဂဲ":8016,"ဋီ":8017,"ting</w>":8018,"တည်ငြိမ်":8019,"ဂံ</w>":8020,"လူကြီး":8021,"စေရန်":8022,"ယူခဲ့သည်</w>":8023,"ရှင်သန်":8024,"တော်မူခဲ့သည့်</w>":8025,"တော့ပေ</w>":8026,"မလုပ်":8027,"ိတ":8028,"နှစ်ခု</w>":8029,"ဖွဲ့စည်း</w>":8030,"ပညာရှိ":8031,"ပိုဒ်":8032,"ရဟန်းသည်</w>":8033,"တားဆီး":8034,"ငို":8035,"အတန်":8036,"05</w>":8037,"ပစိ":8038,"ဘ်</w>":8039,"ပြောက်":8040,"အလို့":8041,"ရသော":8042,"ရွား":8043,"ဖြစ်အောင်</w>":8044,"မူဝါဒ":8045,"တ္တမ":8046,"သလောက်</w>":8047,"အာဏာ</w>":8048,"လိုဏ်":8049,"ကွန်ဟိန်း":8050,"ဗဟိုကော်မတီ":8051,"နွှဲ":8052,"ဝန်း</w>":8053,"စုတ်":8054,"ပြန်လာ":8055,"163":8056,"anm":8057,"ind":8058,"ငွေ့</w>":8059,"၁၉၉၄</w>":8060,"တိုးတက်လာ":8061,"များသည်လည်း</w>":8062,"တ္တာ</w>":8063,"ဒေါ်လာ":8064,"၁၉၈၅</w>":8065,"လွိုင်ကော်ခရိုင်</w>":8066,"မောက်မယ်မြို့နယ်</w>":8067,"ဏီ":8068,"၀၈</w>":8069,"ချဉ်း":8070,"မြို့စား":8071,"သို့သော်":8072,"အမတ်</w>":8073,"သီးနှံ":8074,"ဇီးဖြူ":8075,"အာသဝေါ":8076,"Cl":8077,"ပဒေသ":8078,"သဖန်း":8079,"သူတော်":8080,"193":8081,"ဆွန်":8082,"ခင်မောင်":8083,"ကမ္ဘာလုံး":8084,"ဖွင့်ဆို":8085,"ဝတ္ထုတို":8086,"အနုပညာ</w>":8087,"မင်</w>":8088,"လပ်</w>":8089,"သဖွယ်</w>":8090,"နိုင်ကြ":8091,"တိုင်းပြည်</w>":8092,"မင်းကင်း":8093,"ဘုန်းတော်ကြီး":8094,"ဧရိယာသည်</w>":8095,"ပုလဲမြို့နယ်</w>":8096,"ဂယ်လက်ဆီ":8097,"ဇို":8098,"များထဲမှ</w>":8099,"ဝင်ငွေ":8100,"နိဂုံး</w>":8101,"MMR00800":8102,"နှဲ":8103,"ဦးဘိုး":8104,"စာသား":8105,"ဂျော်":8106,"ပျောက်</w>":8107,"153":8108,"တိုက်တွန်း":8109,"သည့်အတိုင်း</w>":8110,"တရားကို</w>":8111,"အနောက်ဘက်တွင်</w>":8112,"ပွင့်ဖြူမြို့နယ်</w>":8113,"ဆဲလ်":8114,"gl":8115,"ကနီမြို့နယ်</w>":8116,"ချထား":8117,"မှာတော့</w>":8118,"အဖြစ်အပျက်":8119,"tes</w>":8120,"အပူပိုင်း":8121,"အဆုံးသတ်":8122,"မတူပီခရိုင်</w>":8123,"ဗဟို</w>":8124,"မှိုင်း":8125,"ကုက္":8126,"စွတ်":8127,"တောင်သူ":8128,"သက်ဆိုင်ရာ</w>":8129,"သိမ်းဆည်း":8130,"တော့ဘဲ</w>":8131,"လောက်ကိုင်မြို့နယ်</w>":8132,"ဖွားမြင်သည်</w>":8133,"ial</w>":8134,"ld</w>":8135,"လမ်":8136,"ဦးရွှေ":8137,"အနုပညာရှင်":8138,"ဒန်</w>":8139,"သောင်း</w>":8140,"အပြီး</w>":8141,"လူး</w>":8142,"ရိတ်</w>":8143,"ရက်ပေါင်း</w>":8144,"105":8145,"အနောက်ဘက်</w>":8146,"ရမည်းသင်းခရိုင်</w>":8147,"သနား":8148,"ပေါ့</w>":8149,"ရှားပါး":8150,"အရှေ့ဘက်</w>":8151,"ဘုရင်သည်</w>":8152,"ash":8153,"ဒီးမော့":8154,"မုံရွာမြို့နယ်</w>":8155,"ဝေဒနာ":8156,"ris":8157,"၁၁၄":8158,"၂ဝ":8159,"တို့သည်လည်း</w>":8160,"စုစုပေါင်း":8161,"ယူဆောင်":8162,"ပေါ်ထွက်":8163,"အလျား</w>":8164,"ဗိသုကာ":8165,"ဝဲ</w>":8166,"၂၁၈":8167,"ရေနွေး":8168,"တိုကျို":8169,"ကော်ပို":8170,"ရည်မှန်း":8171,"လောကတွင်</w>":8172,"စွယ်စုံ":8173,"ခင်း</w>":8174,"အစွန်း":8175,"နီရွာ</w>":8176,"ဆုတောင်း":8177,"အကြမ်းဖက်":8178,"အက်တမ်":8179,"ပြုသည်</w>":8180,"လျှော်":8181,"မင်းလက်ထက်</w>":8182,"၁၉၅၅</w>":8183,"ဘဒ္ဒ":8184,"ခဲ့တဲ့</w>":8185,"သို့ဖြင့်</w>":8186,"အစိုးရမှ</w>":8187,"စ္စာ</w>":8188,"ဒိုက်ဦးမြို့နယ်</w>":8189,"win</w>":8190,"နည်းကို</w>":8191,"သံလိုက်":8192,"မဟုတ်သော</w>":8193,"အကြီးအကဲ":8194,"နှိမ်နင်း":8195,"တည်ရှိ</w>":8196,"လူတန်း":8197,"သူများအား</w>":8198,"မျိုးရင်း":8199,"က္ကာ":8200,"1600":8201,"ခွဲထွက်":8202,"ဥပဒေအရ</w>":8203,"စွမ်းဆောင်":8204,"မိုးညိုမြို့နယ်</w>":8205,"ဖော":8206,"ဦးထွန်း":8207,"amp</w>":8208,"ဂေါ့":8209,"core</w>":8210,"သာမဏေ":8211,"42":8212,"ya</w>":8213,"တျ":8214,"ဖာ</w>":8215,"အဖျား":8216,"မြဝတီ":8217,"ရှိကြောင်း</w>":8218,"အမွေအနှစ်":8219,"နမ့်ခမ်းမြို့နယ်</w>":8220,"ws</w>":8221,"ခို</w>":8222,"ိုင်ရွာ</w>":8223,"သားရေ":8224,"နာမ":8225,"ယင်းတို့":8226,"မော်လိုက်":8227,"ne</w>":8228,"ဘန်း":8229,"အအေး":8230,"ရှိသေးသည်</w>":8231,"စာကို</w>":8232,"သည်ကို":8233,"မျိုးဖြစ်သည်</w>":8234,"အာနန္ဒ":8235,"နွယ်</w>":8236,"အခြေချ":8237,"ကြောင့်ဆိုသော်</w>":8238,"ညောင်ဦးခရိုင်</w>":8239,"110":8240,"127":8241,"Ac":8242,"ium</w>":8243,"ဂလက်ဆီ":8244,"ဖော့":8245,"များသာ</w>":8246,"သက်ဆိုင်ရာ":8247,"၁၉၄၁</w>":8248,"အတော်များ":8249,"အစွဲပြု</w>":8250,"နူ":8251,"နောင်း":8252,"၄ဝ</w>":8253,"ဖြစ်ခြင်း</w>":8254,"ရေတွက်":8255,"လက်တင်":8256,"အစုံ":8257,"ပေါ်ထွန်း":8258,"ကမ္ဘာမြေ":8259,"အသုံးပြုခဲ့သည်</w>":8260,"၁၉၇၁</w>":8261,"ခုံရွာ</w>":8262,"အလေးချိန်":8263,"ရေကြောင်း":8264,"မင်းကြီးသည်</w>":8265,"ခတ်</w>":8266,"ကျယ်</w>":8267,"နေစဉ်":8268,"အပြောင်း":8269,"ခန့်က</w>":8270,"ဗျာ":8271,"သင့်လျော်":8272,"နန်း</w>":8273,"သို့မဟုတ်":8274,"သုံးပါး":8275,"သူရဲကောင်း":8276,"အခက်အခဲ":8277,"ကျာ်":8278,"ကူ</w>":8279,"ခုံး":8280,"ဂိမ်း":8281,"နမ်</w>":8282,"ခြောက်</w>":8283,"ရှေးအခါက</w>":8284,"ပြောကြားခဲ့သည်</w>":8285,"ဖောင်းပြင်":8286,"ဟင်န":8287,"လင်းခေးမြို့နယ်</w>":8288,"ပရ":8289,"ကျဉ်း":8290,"ပြည်သို့</w>":8291,"ကာမူ</w>":8292,"ပြန်ဆို":8293,"သံလွင်":8294,"Chaung</w>":8295,"တီးခတ်":8296,"ဖော်ပြခဲ့သည်</w>":8297,"သခင်သန်း":8298,"ကွမ်းလုံ":8299,"ဖလမ်းမြို့နယ်</w>":8300,"ဟော့ကိုင်း":8301,"ဖြစ်တော်မူ</w>":8302,"မျိုးဆက်":8303,"အလ္လာ":8304,"တစ်ခုအဖြစ်</w>":8305,"ဖေဖော်ဝါရီ":8306,"For":8307,"Or":8308,"if":8309,"ရှော":8310,"မြို့တစ်":8311,"ဂျုံ":8312,"ခြင်းတို့ကို</w>":8313,"ဖက်ဒ":8314,"စောင့်ထိန်း":8315,"ပဉ္စမ":8316,"အနှစ်</w>":8317,"များလည်း":8318,"အသတ်":8319,"မူတည်</w>":8320,"နတ်ရွာ":8321,"ထန်းပင်":8322,"အစည်းအရုံး":8323,"ငင်":8324,"ကြကုန်":8325,"နိုင်ပေ</w>":8326,"ပွန်":8327,"ဝင်ရိုး":8328,"တွေဟာ</w>":8329,"ကယ်လီ":8330,"ရမည့်":8331,"ပင်းတ":8332,"ကွန်း</w>":8333,"အထူး</w>":8334,"နှင့်လည်း</w>":8335,"၁၆၉":8336,"အမည်တွင်":8337,"ကလေးမြို့နယ်</w>":8338,"--":8339,"လူတို့":8340,"မျိုးတွင်</w>":8341,"ခြင်းတို့</w>":8342,"စိုးစံ":8343,"အထက်တန်းကျောင်း</w>":8344,"လပြည့်ကျော်</w>":8345,"ian</w>":8346,"တွန်း</w>":8347,"ဆိုရင်</w>":8348,"အထဲ":8349,"တောင်တန်း</w>":8350,"ပျိုး</w>":8351,"လမ်းညွှန်":8352,"တည်ဆောက်ခဲ့သည်</w>":8353,"မက်မ":8354,"လွင်ပြင်":8355,"တံတား</w>":8356,"စိစစ်":8357,"und":8358,"သုတ္တန်":8359,"နွားထိုးကြီးမြို့နယ်</w>":8360,"ဘုတလင်မြို့နယ်</w>":8361,"ရီးယန်း":8362,"လွေ":8363,"ပတ်လုံး</w>":8364,"မွတ်စ":8365,"အစည်းအရုံး</w>":8366,"မင်းကင်းမြို့နယ်</w>":8367,"စာတမ်း</w>":8368,"သောက်</w>":8369,"အိဝ":8370,"ပြီးသည့်":8371,"မြစ်သည်</w>":8372,"မရှိချေ</w>":8373,"သူ့အား</w>":8374,"သထုံမြို့နယ်</w>":8375,"ကုလသမဂ္ဂ":8376,"ဟုန်း":8377,"စော</w>":8378,"ညီမျှ":8379,"oll":8380,"မြင်းခြံမြို့နယ်</w>":8381,"လက်မှတ်ရေးထိုး":8382,"ကော့ကရိတ်ခရိုင်</w>":8383,"08</w>":8384,"coun":8385,"ဒိုး</w>":8386,"၁၁၅":8387,"စ်သည်</w>":8388,"တစ်ဆူ":8389,"MMR01500":8390,"၁၁၇":8391,"တစ်ကောင်":8392,"အနံ့":8393,"မြေအောက်":8394,"ရှားတော":8395,"ရိုးရာ</w>":8396,"အစီအစဉ်</w>":8397,"ဖျားရွာ</w>":8398,"ဂေါတမမြတ်စွာဘုရား</w>":8399,"ဗျူဟာ":8400,"မှတ်ယူ":8401,"၁၉၆၆</w>":8402,"အဆင့်အတန်း":8403,"အမှုဆောင်":8404,"ဤသို့ဖြင့်</w>":8405,"ကွန်ဟိန်းမြို့နယ်</w>":8406,"ကဿ":8407,"အနိမ့်":8408,"ရုပ်မြင်":8409,"လင်းရွာ</w>":8410,"tal":8411,"၁၉၅၀</w>":8412,"လုပ်ကိုင်ခဲ့သည်</w>":8413,"ဟိန္ဒူ":8414,"ရသဖြင့်</w>":8415,"သန့်</w>":8416,"မူရင်း":8417,"စွမ်းအား":8418,"စာအုပ်ကို</w>":8419,"အဆက်အ":8420,"ဂေါတမမြတ်စွာဘုရား":8421,"ကာဗွန်":8422,"တုပ်":8423,"ရွာသစ်</w>":8424,"rom</w>":8425,"နံနက်</w>":8426,"ဒီးမော့ဆိုမြို့နယ်</w>":8427,"09</w>":8428,"စင်္":8429,"ဇနီး</w>":8430,"အပင်</w>":8431,"များအပြင်</w>":8432,"တစ်ရာ":8433,"ဂျေ":8434,"ပင်ကို</w>":8435,"ဂျာနယ်</w>":8436,"ပုဒ်မ":8437,"ဆွေမျိုး":8438,"မွမ်းမံ":8439,"နမ္မတူမြို့နယ်</w>":8440,"စသည်</w>":8441,"၀၃</w>":8442,"ရေတံခွန်":8443,"သာဓ":8444,"လှိုင်</w>":8445,"လွှား":8446,"စံတော်":8447,"ရှေးခေတ်":8448,"အမရပူရမြို့နယ်</w>":8449,"အတ္ထုပ္ပ":8450,"ငရဲ":8451,"ဒဂု":8452,"မှောင်":8453,"ပြုကာ</w>":8454,"ကာတာ":8455,"မွေး</w>":8456,"194":8457,"သုခ":8458,"ဆောင်ရွက်သည်</w>":8459,"ဝိသေ":8460,"၁၉၈၃</w>":8461,"ခရိုင်တွင်</w>":8462,"ရွှေဘိုမြို့နယ်</w>":8463,"နံပါတ်</w>":8464,"ဒင်္ဂါး":8465,"ထော်":8466,"ရအောင်</w>":8467,"အိုး</w>":8468,"မိနစ်</w>":8469,"ဆုံးမ":8470,"ance</w>":8471,"ဘွား</w>":8472,"ဘုရင်မင်း":8473,"၁၉၇၉</w>":8474,"သင့်သည်</w>":8475,"MMR01300":8476,"ကာကွယ်ရေး</w>":8477,"သက္ကယ်":8478,"ပေမယ့်</w>":8479,"အနော်ရထာ":8480,"နမူ":8481,"သမင်":8482,"အာမခံ":8483,"မြင့်တက်":8484,"အလုပ်အ":8485,"ပစ်ခတ်":8486,"အလယ်ပိုင်း</w>":8487,"ဆုံ</w>":8488,"ဧကရာဇ်</w>":8489,"ဩစတြေးလျ":8490,"Pe":8491,"သ်</w>":8492,"ကြီးများကို</w>":8493,"သာသနာ</w>":8494,"comp":8495,"နယူးယောက်":8496,"poem</w>":8497,"ဥပမာအားဖြင့်</w>":8498,"စာကြည့်တိုက်":8499,"ဝန်းသိုမြို့နယ်</w>":8500,"တကျ":8501,"ထရီ":8502,"ဗယ်":8503,"၁၁၃":8504,"လာလေသည်</w>":8505,"လေထု":8506,"စ္စတ":8507,"ငါး</w>":8508,"အရှင်မြတ်":8509,"မှုများကြောင့်</w>":8510,"မကြာမီ</w>":8511,"ရုပ်မြင်သံ":8512,"ရေးသည်</w>":8513,"ဒီယို</w>":8514,"နားဖ":8515,"သတ်မှတ်</w>":8516,"အဖြစ်လည်း</w>":8517,"အိုင်အေ":8518,"လူဦးရေမှာ</w>":8519,"io</w>":8520,"ဠု":8521,"မှုန့်":8522,"မိုင်းလား":8523,"all":8524,"အောင်မြင်ခဲ့သည်</w>":8525,"မိတ်ဆွေ":8526,"))</w>":8527,"ဒိန်း":8528,"အာ</w>":8529,"မြောင်း</w>":8530,"ခြင်္":8531,"လာဘ်":8532,"ပိုင်းခြား":8533,"ကျောင်းမှ</w>":8534,"မိုင်းတုံမြို့နယ်</w>":8535,"ကမ္ဘာစစ်</w>":8536,"ကစားသမား":8537,"၁၉၈၁</w>":8538,"ကျမ်းဂန်":8539,"ပိတ်ပင်":8540,"ပလ္လင်":8541,"မက်မန်းမြို့နယ်</w>":8542,"ညဉ့်":8543,"ရှာ</w>":8544,"ကြိတ်":8545,"တိုင်းဒေသကြီး":8546,"သတင်းအချက်အလက်":8547,"အချို့ကို</w>":8548,"ငါန်း":8549,"အသံထွက်":8550,"Kan</w>":8551,"စတီ":8552,"၀၆</w>":8553,"ချူ":8554,"ဒေါင်":8555,"စတင်တည်ထောင်":8556,"အဆိုတော်</w>":8557,"လောင်စာ":8558,"လွိုင်ကော်မြို့နယ်</w>":8559,"ပဋိပက္ခ":8560,"me</w>":8561,"ဘို့":8562,"၁၂၀":8563,"ခဲ့တယ်</w>":8564,"ပြည်တွင်း</w>":8565,"တစ်ဦးဖြစ်ပြီး</w>":8566,"ဘဝဇာတ်":8567,"ဖောင်းပြင်မြို့နယ်</w>":8568,"မုတ်":8569,"အကုန်":8570,"မျိုးသည်</w>":8571,"စီးဝင်":8572,"ပွဲတော်</w>":8573,"ပြောင်းလဲ</w>":8574,"ကောင်ရွာ</w>":8575,"ကွယ်လွန်ခဲ့သည်</w>":8576,"ပုဂ္ဂလိက":8577,"ကော်ပိုရေး":8578,"ta</w>":8579,"ပဏ္ဍ":8580,"ဖင်":8581,"ပါရှိ":8582,"တို့ဖြစ်ကြသည်</w>":8583,"မှုန်း":8584,"အသံ</w>":8585,"ann":8586,"ခေတ္တ":8587,"၁၉၅၇</w>":8588,"ကြွင်း":8589,"ကယ်ဆယ်":8590,"ဖိအား":8591,"စတုရန်းကီလိုမီတာ":8592,"မင်းတုန်းမြို့နယ်</w>":8593,"son</w>":8594,"ဇယား":8595,"ညာ</w>":8596,"ဖတ်</w>":8597,"များနှင့်အတူ</w>":8598,"မြို့ရိုး":8599,"တ္တီ":8600,"မ္ဗ":8601,"ဆွီ":8602,"နွမ်း":8603,"အချို့မှာ</w>":8604,"ကျွန်းဆွယ်":8605,"ကြီးကျယ်":8606,"ဘုရားရှိခိုး":8607,"ဆာရွာ</w>":8608,"ကာကွယ်ဆေး":8609,"ဆားလင်း":8610,"သည်ဟုဆိုသည်</w>":8611,"600":8612,"စာချုပ်</w>":8613,"ကံမ":8614,"အနီးရှိ</w>":8615,"ထုံးစံ":8616,"အရင်းအမြစ်":8617,"ဈာန်":8618,"ဗီး":8619,"အငြ":8620,"ဆိုဒ်":8621,"ကိစ္စ</w>":8622,"၁၉၈၆</w>":8623,"ပိတ်</w>":8624,"တာဝန်ထမ်းဆောင်ခဲ့သည်</w>":8625,"01</w>":8626,"ယန်ရွာ</w>":8627,"အပြု":8628,"၃၀၀</w>":8629,"ကျောင်းရွာ</w>":8630,"ပေါင်းစည်း":8631,"စာအုပ်များ</w>":8632,"MMR0150":8633,"မွေးဖွားသည်</w>":8634,"ပလ</w>":8635,"ခြိမ်း":8636,"ထုတ်ဖော်":8637,"ong":8638,"ထဲက</w>":8639,"ဘုရင်ခံ":8640,"ass":8641,"အရှေ့တောင်အာရှ</w>":8642,"Ma":8643,"Taw</w>":8644,"ရှန်း":8645,"များက":8646,"များကဲ့သို့</w>":8647,"နိုင်သဖြင့်</w>":8648,"ထားခြင်းဖြစ်သည်</w>":8649,"အခင်း":8650,"ခေါ်သော</w>":8651,"တ္တိ</w>":8652,"မိတ်ဆက်":8653,"မိုင်းလားမြို့နယ်</w>":8654,"အခံ":8655,"မှို":8656,"ထောင်ရွာ</w>":8657,"ဆေးရုံ</w>":8658,"အပ်နှင်း":8659,"ရဟန္တာ":8660,"ဗိုလ်ချုပ်</w>":8661,"နီးစပ်":8662,"ကျိုက်မရော":8663,"ik</w>":8664,"ip</w>":8665,"op</w>":8666,"မက":8667,"ဖြုတ်":8668,"ရေကို</w>":8669,"မင်းက</w>":8670,"မူလတန်း":8671,"တပေါင်း":8672,"၍၎</w>":8673,"တစ်စိတ်":8674,"ပေးပြီး</w>":8675,"ဟူသည်မှာ</w>":8676,"စည်ကား":8677,"သူ့ကို</w>":8678,"ree</w>":8679,"အစဉ်အလာ":8680,"ဖုန်း</w>":8681,"စေတနာ":8682,"Ex":8683,"နိ</w>":8684,"မဝ":8685,"အပ</w>":8686,"အမာ":8687,"လွှတ်</w>":8688,"အရှေ့ပိုင်း":8689,"ဝန်းရံ":8690,"၁၉၇၆</w>":8691,"ass</w>":8692,"တုံး</w>":8693,"နန့်":8694,"များအတွက်":8695,"ခုံ</w>":8696,"ကူးပြောင်း":8697,"ရဟန်းတစ်ပါး</w>":8698,"သတ္တဝါ</w>":8699,"အဖွဲ့အစည်းများ</w>":8700,"ပထမဦးဆုံး</w>":8701,"ဗဟုသု":8702,"ဗမာ</w>":8703,"ရရှိ</w>":8704,"အာဆီ":8705,"မြတ်သော</w>":8706,"အာဏာသိမ်း":8707,"ကွယ်လွန်သည်</w>":8708,"မောင်းနှင်":8709,"မကျေ":8710,"ဖဆပလ":8711,"MMR00700":8712,"ဇက်":8713,"သဖြင့်":8714,"ရွံ့":8715,"အသီး</w>":8716,"ထိုင်ဝမ်":8717,"ဝါဒီ":8718,"ပိုင်းဆိုင်ရာ</w>":8719,"စံချိန်":8720,"Thar</w>":8721,"olog":8722,"မြို့သစ်မြို့နယ်</w>":8723,"နားဖန်းမြို့နယ်</w>":8724,"ရထား</w>":8725,"သတင်း</w>":8726,"ဲရွာ</w>":8727,"သူပုန်":8728,"ပင်လျှင်</w>":8729,"ထိတွေ့":8730,"ell</w>":8731,"၁၉၃၉</w>":8732,"MMR01400":8733,"ရှုပ်ထွေး":8734,"ပဲ့":8735,"သတိုး":8736,"လူနေ":8737,"ဆေးပညာ":8738,"စိမ်း</w>":8739,"ကျိုင်းရွာ</w>":8740,"ကဝမြို့နယ်</w>":8741,"ခန်":8742,"ဆောက်</w>":8743,"ဖြစ်ကြ</w>":8744,"အဖြစ်မှ</w>":8745,"ကြည်ညို":8746,"ပြည်နယ်တွင်</w>":8747,"အရွယ်အစား":8748,"တံတားဦးမြို့နယ်</w>":8749,"ဇိ":8750,"ရှိုင်း":8751,"သစ်သီး":8752,"မော်ကွန်း":8753,"၁၉၅၁</w>":8754,"တောက်ပ":8755,"ဒါယကထေရ်</w>":8756,"နံပါတ်":8757,"ဖြို":8758,"ဒေသအခေါ်မှာ</w>":8759,"ထွန်":8760,"ဆင်နွှဲ":8761,"အိုခ":8762,"ယူဆကြသည်</w>":8763,"တဲရွာ</w>":8764,"ငြိမ်းချမ်းရေး</w>":8765,"ကန္တာ":8766,"စောက်":8767,"အနှံ":8768,"မှုန်":8769,"ရင်းမှာ</w>":8770,"ယင်းမာပင်မြို့နယ်</w>":8771,"ဝတ္တ":8772,"၀၉</w>":8773,"ဦးနု":8774,"သားတို့</w>":8775,"အဆီ":8776,"ဒေါ့":8777,"ပြောပြ":8778,"မဟုတ်ပါ</w>":8779,"အထောက်အပံ့":8780,"ဖဆပလ</w>":8781,"ပျမ်းမျှ":8782,"Ap":8783,"ကလာ":8784,"တခါ":8785,"သူများနှင့်</w>":8786,"လောက်တွင်</w>":8787,"အမှတ်အသား":8788,"ခြောက်သွေ့":8789,"ပြုပြင်ပြောင်းလဲ":8790,"ကဲ</w>":8791,"ဒင်</w>":8792,"ဖြစ်နိုင်သည်</w>":8793,"နိုင်ခဲ့":8794,"ိန်ရွာ</w>":8795,"အမည်ပေး":8796,"နောင်ရွာ</w>":8797,"မိန်းမ</w>":8798,"ဆောင်း</w>":8799,"မထေရ်":8800,"အရွက်</w>":8801,"ကျစ်":8802,"ထားကာ</w>":8803,"လှော်":8804,"ပင်မ":8805,"သိမြင်":8806,"ကောင်းရွာ</w>":8807,"ခေါင်းလောင်း":8808,"လေယာဉ်ပျံ":8809,"တိရစ္ဆာန်</w>":8810,"ရှေ့</w>":8811,"ကလေးများကို</w>":8812,"အက်စ်</w>":8813,"မတ်လ":8814,"၁၉၈၄</w>":8815,"ဗမာပြည်</w>":8816,"သနည်း</w>":8817,"ကွမ်းလုံမြို့နယ်</w>":8818,"06</w>":8819,"ကယ်</w>":8820,"မတူညီ":8821,"ဦးတင်":8822,"သူများမှာ</w>":8823,"ဂျင်</w>":8824,"ခံရ</w>":8825,"ဆိုင်သော</w>":8826,"အဆင်း":8827,"ဟူသည့်</w>":8828,"113":8829,"be":8830,"နေခဲ့သည်</w>":8831,"ကိုရီးယား</w>":8832,"ပျံ</w>":8833,"ယင်းကို</w>":8834,"ခံရပြီး</w>":8835,"ဘုံ</w>":8836,"မျှော်လင့်":8837,"Win":8838,"စရိုက်":8839,"လေပြီ</w>":8840,"နေရာများတွင်</w>":8841,"လိုသော</w>":8842,"ကလေးခရိုင်</w>":8843,"uth</w>":8844,"ထမ်းဆောင်ခဲ့သည်</w>":8845,"မင်းတရားကြီး</w>":8846,"လှုံ့":8847,"နျူကလ":8848,"ဂျွန်</w>":8849,"မိုးနဲမြို့နယ်</w>":8850,"အာသဝေါကုန်":8851,"တိန်":8852,"ဥပဒေကို</w>":8853,"ဇာတ်လမ်းတွဲ":8854,"ပြိုကွဲ":8855,"str":8856,"မလာ":8857,"မသွား":8858,"လက်ယာ":8859,"ထိုဒေသ":8860,"မည်မျှ":8861,"ရိုးရိုး":8862,"အောင်မြင်မှု":8863,"ide</w>":8864,"Gr":8865,"ဂို</w>":8866,"တို့နှင့်အတူ</w>":8867,"မျိုးချစ်":8868,"ထွေ":8869,"ပြုလုပ်သော</w>":8870,"ကြောင့်လည်း</w>":8871,"Bo":8872,"မန့်":8873,"မြို့နေ":8874,"လက်နက်</w>":8875,"တောင်ပေါ်":8876,"အချစ်":8877,"မြန်မာသက္ကရာဇ်</w>":8878,"ထင်မြင်":8879,"ell":8880,"ပါရဂူ":8881,"ယေဘုယျအားဖြင့်</w>":8882,"Ka</w>":8883,"fr":8884,"ထုံး</w>":8885,"ပါတ်":8886,"၁၉ဝ":8887,"ဝန်ထမ်း</w>":8888,"စဉ့်ကိုင်မြို့နယ်</w>":8889,"ဟားခါး":8890,"man</w>":8891,"ကော့သောင်း":8892,"ဗိမာန်":8893,"သိပ်သည်းဆ":8894,"အကောင်အထည်ဖော်":8895,"il</w>":8896,"စာရွက်":8897,"တောက်</w>":8898,"ထိုကဲ့သို့</w>":8899,"ပြန်ကြား":8900,"အောက်ပါ</w>":8901,"အပြင်း":8902,"အရေအတွက်</w>":8903,"dis":8904,"yn":8905,"တချို့":8906,"ဖရ":8907,"မျော":8908,"လူအများ":8909,"သူရ":8910,"ဝါဆို":8911,"သံဖြူ":8912,"ကမ္ဘာ့</w>":8913,"ဟောင်းရွာ</w>":8914,"ဆက်ဆံရေး":8915,"ကြံ</w>":8916,"ကျိုး</w>":8917,"တွေ့နိုင်သည်</w>":8918,"အောက်ဆီ":8919,"တွင်းရှိ</w>":8920,"ကောက်ယူ":8921,"၁၉၇၈</w>":8922,"ဖွယ်ရာ</w>":8923,"ပြိုင်ပွဲတွင်</w>":8924,"ကီ</w>":8925,"ပလာ":8926,"ဖီး":8927,"သူတစ်ဦး":8928,"ရင်းမြစ်":8929,"သို့ဖြစ်</w>":8930,"ပါးစပ်":8931,"ပိုင်ရှင်":8932,"လိမ်း":8933,"နန်းယွ":8934,"/&</w>":8935,"ဗလ":8936,"ဆိုတာ":8937,"sion</w>":8938,"အတွေးအခေါ်":8939,"ဘဝဇာတ်ကြောင်း</w>":8940,"တဲ</w>":8941,"ကျင်း</w>":8942,"ထိုအခါ":8943,"ဂျန်":8944,"မြန်မာစကား":8945,"အိချိ":8946,"ဘော်</w>":8947,"စွမ်းရည်":8948,"eb":8949,"ဆိုတဲ့</w>":8950,"လှံ":8951,"ဟုန်":8952,"အပြား</w>":8953,"ရှေးဟောင်း</w>":8954,"သာယာရွာ</w>":8955,"ပျံလွန်":8956,"ပါမောက္ခ</w>":8957,"ကျိုက်မရောမြို့နယ်</w>":8958,"iti":8959,"ပရော":8960,"ဗိုလ်</w>":8961,"သတည်း</w>":8962,"၂ဝဝ":8963,"ရေးမြို့နယ်</w>":8964,"တော်များ":8965,"ပြီးနောက်တွင်</w>":8966,"အခြာ":8967,"၁၉၈၂</w>":8968,"အမွေး":8969,"သာသနာတော်ရှိ</w>":8970,"from</w>":8971,"ခုနှစ်အတွင်း</w>":8972,"လွန်စွာ":8973,"ကူးရွာ</w>":8974,"ခြေထောက်":8975,"00</w>":8976,"ကထိ":8977,"ဗညား":8978,"မြီး":8979,"များပေါ်တွင်</w>":8980,"ative</w>":8981,"တနင်္ဂ":8982,"ကင်ဆာ":8983,"မွှား":8984,"အရည်အသွေး":8985,"စောင်</w>":8986,"မအောင်မြင်":8987,"ယစ်":8988,"။&</w>":8989,"နေဝင်း":8990,"ဗျည်း":8991,"ခရီးသည်":8992,"ပရိုဂရမ်":8993,"နန်းယွန်းမြို့နယ်</w>":8994,"ug":8995,"ဂစ်":8996,"ဖလား</w>":8997,"မြွ":8998,"မြို့စား</w>":8999,"ကွေ":9000,"ပေးလိုက်":9001,"အခိုင်":9002,"ဘွဲ့တံဆိပ်":9003,"ပတ္တမြား":9004,"စစ်မှုထမ်း":9005,"07</w>":9006,"Nor":9007,"ဗာ</w>":9008,"အဖြေ":9009,"ကုလား</w>":9010,"172":9011,"ငြိမ်း</w>":9012,"နောင်တွင်</w>":9013,"နောက်ဆုံးဘဝတွင်</w>":9014,"မကြာမီ":9015,"awng</w>":9016,"ပမာဏ</w>":9017,"ဗွီ":9018,"တတိယ</w>":9019,"ပို့</w>":9020,"မှီ</w>":9021,"မြန်မာစာ":9022,"အရှင်</w>":9023,"တရားစီရင်":9024,"အရာတော်မြို့နယ်</w>":9025,"ဒုတိယမြောက်</w>":9026,"ငါန်းဇွန်":9027,"အာသဝေါကုန်ခမ်း</w>":9028,"Pin</w>":9029,"tw":9030,"စထ":9031,"တယောက်":9032,"ဘော့":9033,"မထား":9034,"အကွာ</w>":9035,"နေသည်ကို</w>":9036,"သောက":9037,"စစ်ဘက်":9038,"ကျောင်းစုရွာ</w>":9039,"ခေါ်ယူ":9040,"103":9041,"အောက်ပါအတိုင်းဖြစ်သည်</w>":9042,"Pl":9043,"ဓါ":9044,"မပြော":9045,"အညာ":9046,"ပါရှိသော</w>":9047,"ဂျိမ်း":9048,"တိန်း":9049,"ပုံသဏ္ဌာန်</w>":9050,"အလက်</w>":9051,"အကျိုးသက်ရောက်":9052,"အန္တရာယ်</w>":9053,"သမုဒ္ဒရာ</w>":9054,"128":9055,"ထီး</w>":9056,"ယောင်</w>":9057,"ဟပ်":9058,"ဖြစ်ကြောင်း":9059,"ရွှေပြည်":9060,"မြန်မာနိုင်ငံတော်</w>":9061,"အစောပိုင်း</w>":9062,"ရုံးစိုက်ရာ":9063,"အတွေ့အကြုံ":9064,"ကုက္ကို":9065,"02</w>":9066,"အရုပ်":9067,"နှစ်အရွယ်တွင်</w>":9068,"တောင်ကျေးရွာအုပ်စု</w>":9069,"ပျို့":9070,"၁၉၇၇</w>":9071,"ကြေးနန်း":9072,"Min":9073,"စနေ":9074,"တစ်စု":9075,"192":9076,"ပညာရှင်များ</w>":9077,"ဂိုဏ်း</w>":9078,"အေမာမ်ဟို":9079,"ခမိ":9080,"စပါး</w>":9081,"ရှိခြင်း</w>":9082,"တစ်ချိန်":9083,"မိုးရေ":9084,"လူမျိုးများ":9085,"ရန်ကုန်မြို့":9086,"ess":9087,"ဗိုလ်ချုပ်အောင်ဆန်း":9088,"မီးရထားလမ်း":9089,"ဆားလင်းကြီးမြို့နယ်</w>":9090,"03</w>":9091,"ae</w>":9092,"သခွ":9093,"ဖြစ်သွား":9094,"အရံ":9095,"ပန်းချီကား":9096,"နေပြည်တော်</w>":9097,"သီအိုရီ":9098,"ဌာပနာ":9099,"အရှိ":9100,"အပေါက်":9101,"တစ်နည်း":9102,"မာန်</w>":9103,"ဂျီး":9104,"ကော်ရွာ</w>":9105,"အစိုးရအဖွဲ့</w>":9106,"အဆိုပြု":9107,"များကိုပါ</w>":9108,"124":9109,"ရခြင်း":9110,"တို့သည်":9111,"အသိုက်":9112,"ဆိုသူက</w>":9113,"162":9114,"အလင်း</w>":9115,"စွာဖြင့်</w>":9116,"မီးရှ":9117,"အရေးယူ":9118,"သေးပေ</w>":9119,"ect</w>":9120,"ထိုင်းနိုင်ငံ":9121,"လျား</w>":9122,"သည့်ပြင်</w>":9123,"ဘီယာ":9124,"သင့်တော်":9125,"အဓိကအားဖြင့်</w>":9126,"ဝင်ရောက်ယှဉ်ပြိုင်":9127,"အရွယ်ရောက်":9128,"နှိပ်စက်":9129,"vers":9130,"ဗန္ဓ":9131,"၀၇</w>":9132,"ခဲ့သည်မှာ</w>":9133,"ပိုက်</w>":9134,"ကင်မ":9135,"လင်္ကာ</w>":9136,"ခဲ့ရာမှ</w>":9137,"အသစ်</w>":9138,"ပန်းချီ</w>":9139,"ကလေးများ":9140,"တန်ဆောင်":9141,"တောင်းရွာ</w>":9142,"သာယာကုန်းရွာ</w>":9143,"တွဲဖက်</w>":9144,"လွတ်လပ်စွာ</w>":9145,"အရည်အချင်း":9146,"ရည်ရွယ်ချက်":9147,"ကတ္တ":9148,"ငန်း":9149,"လ္":9150,"အင်္":9151,"ပြွ":9152,"မှုများသည်</w>":9153,"သက်သက်":9154,"တူး</w>":9155,"တံခွန်</w>":9156,"ထက်ထက်</w>":9157,"ခံရသော</w>":9158,"အဆောက်အအုံ</w>":9159,"ဝံသ</w>":9160,"ရပ်စဲ":9161,"ဒီမိုကရက်တစ်":9162,"ပင်းတယ":9163,"ပြတိုက်</w>":9164,"ကြီးမှာ</w>":9165,"တို့နှင့်":9166,"ချုပ်ဆို":9167,"ဆင်ပေါင်":9168,"ရုပ်ပုံ":9169,"ဗြဲ":9170,"ကိုးကန့်</w>":9171,"၁၉၈၇</w>":9172,"ower</w>":9173,"MMR01100":9174,"ရှီးမား":9175,"ရူပဗေဒ":9176,"ဖိုး</w>":9177,"မြဲ</w>":9178,"တိုက်ခိုက်</w>":9179,"ဥပဒေပြု":9180,"ost</w>":9181,"နှင့်အမျှ</w>":9182,"လျှော့ချ":9183,"အင်ပါယာ":9184,"ငါန်းဇွန်မြို့နယ်</w>":9185,"တဦး</w>":9186,"ပရိတ်":9187,"ကြင်း":9188,"ရွာသာ":9189,"တစ်ပုဒ်":9190,"ဒေတာ":9191,"အချို့သော":9192,"အမေရိကန်ဒေါ်လာ</w>":9193,"လောင်းရွာ</w>":9194,"ber</w>":9195,"စကို</w>":9196,"တပင်":9197,"တေး</w>":9198,"ဒသ":9199,"ဩဝါဒ":9200,"အလုပ်</w>":9201,"ပေါင်မြို့နယ်</w>":9202,"လယ်ယာမြေ":9203,"ဩစတြေးလ":9204,"ie</w>":9205,"serv":9206,"အသည်း":9207,"နိုင်ရန်အတွက်</w>":9208,"မင်္ဂလာ</w>":9209,"ခဲ့ဖူးသည်</w>":9210,")၌</w>":9211,"Car":9212,"ရှ်</w>":9213,"ကြပါ":9214,"နှောင်":9215,"လျော":9216,"ပင်စည်":9217,"152":9218,"149":9219,"ခွဲစိတ်":9220,"ငါးပါး":9221,"ပီတာ":9222,"၁၉၃၅</w>":9223,"ပညာရှင်များက</w>":9224,"တကူ</w>":9225,"ကွမ်းခြံ":9226,"ပျောက်ကွယ်":9227,"ခန္တီးခရိုင်</w>":9228,"ရန်ပုံငွေ":9229,"ဂေါတမမြတ်စွာဘုရားထက်ထက်</w>":9230,"ated</w>":9231,"eth":9232,"အပို":9233,"တွဒ်</w>":9234,"မှသည်</w>":9235,"စပ်ဆို":9236,"ဘိုရွာ</w>":9237,"ရတနာ</w>":9238,"ရာစုနှစ်</w>":9239,"ဖွယ်ရာ":9240,"ဗိုလ်ချုပ်ကြီး</w>":9241,"ပံ့ပိုး":9242,"Ng":9243,"စေ့</w>":9244,"ကျောက်တုံး":9245,"ဘာသာရေး</w>":9246,"အုပ်ချုပ်မှု":9247,"ချီဖွေ":9248,"အိုင်ယာ":9249,"MMR00500":9250,"ခဲ့ရလေသည်</w>":9251,"အားကစားပြိုင်ပွဲ</w>":9252,"အင်ဂျင်နီယာ</w>":9253,"မကြာခဏ":9254,"Tr":9255,"ဆည်</w>":9256,"မပြတ်":9257,"လ္လာ":9258,"ရာသို့</w>":9259,"စာစောင်":9260,"တို့ပါဝင်သည်</w>":9261,"ဂျော":9262,"ပေးခြင်း":9263,"ပေးထားသည်</w>":9264,"ရက်လုပ်":9265,"ဇာတ":9266,"သတ်မှတ်ခဲ့သည်</w>":9267,"ist</w>":9268,"တွေ့ရှိရ":9269,"၁၉၃၆</w>":9270,"ပူးပေါင်းဆောင်ရွက်":9271,"ပါရမီ":9272,"ဂန္ထ":9273,"စကြ":9274,"လူသတ်":9275,"လေတော့သည်</w>":9276,"ခရီး</w>":9277,"ရန်အတွက်":9278,"စည်းလုံး":9279,"သံမဏိ":9280,"တရားသူကြီး":9281,"နိမိတ်</w>":9282,"စင်တီ":9283,"စိုးမိုး":9284,"လျှင်လည်း</w>":9285,"Lo":9286,"way</w>":9287,"ရှက်":9288,"မှနေ</w>":9289,"လာအို":9290,"လုပ်သား":9291,"ပင်စုရွာ</w>":9292,"န္ဒ</w>":9293,"နောက်ဆက်":9294,"နောက်ထပ်":9295,"မြစ်ဝှမ်း":9296,"အလယ်တန်း":9297,"အဆင့်ဆင့်</w>":9298,"ငါသည်</w>":9299,"သရက်မြို့နယ်</w>":9300,"အပြည်ပြည်ဆိုင်ရာ":9301,"ကံမမြို့နယ်</w>":9302,"ဆင်ပေါင်ဝဲ":9303,"ဖြစ်သည်":9304,"ဦးနှောက်":9305,"ကိုက်</w>":9306,"မှုများနှင့်</w>":9307,"မာလာ":9308,"ဂျိုး":9309,"ပုလောမြို့နယ်</w>":9310,"မိုင်းပန်":9311,"အခြားသော":9312,"နမ့်ဆန်":9313,"စွန့်ပစ်":9314,"ave</w>":9315,"ဂြိုဟ်ရံ":9316,"အစောပိုင်းတွင်</w>":9317,"လက်မခံ":9318,"လက်အောက်တွင်</w>":9319,"အသိုင်း":9320,"ညောင်ကုန်းရွာ</w>":9321,"ဆင်းတု":9322,"သာသနာ့":9323,"သခင်စိုး":9324,"ဆက်ဆံရေး</w>":9325,"ဓာတုဗေဒ":9326,"Comp":9327,"uk":9328,"မဆို":9329,"တွင်ကား</w>":9330,"၁၀၀၀</w>":9331,"ကွာခြား":9332,"စေ့စပ်":9333,"ထားဝယ်ခရိုင်</w>":9334,"ystem</w>":9335,"ငှါ</w>":9336,"လိုင်စင်":9337,"အများစုသည်</w>":9338,"Mong":9339,"တစ်စိတ်တစ်":9340,"စေကာမူ</w>":9341,"ရောနှော":9342,"အင်းတော်မြို့နယ်</w>":9343,"ဝါးရုံ":9344,"စောင့်ကြည့်":9345,"ဆင်းသက်လာ":9346,"အောင်ဆန်းစု":9347,"ပုသိမ်ကြီးမြို့နယ်</w>":9348,"ဆိုသူ":9349,"နိုင်ငံသား</w>":9350,"သိကြား":9351,"မြင့်သည်</w>":9352,"ထောက်လှမ်း":9353,"စနစ်တကျ</w>":9354,"အဆင့်ဆင့်":9355,"အရေပြား":9356,"New</w>":9357,"ထားတဲ့</w>":9358,"ကိရိယာ</w>":9359,"ath</w>":9360,"ဘိက္ခု":9361,"ဖိနှိပ်":9362,"ဗိုလ်ချုပ်ကြီး":9363,"အစ္စရေး":9364,"မိုးညှင်းမြို့နယ်</w>":9365,"ကေ</w>":9366,"သင်း</w>":9367,"အသွား":9368,"အမျက်":9369,"၂၀၂၁</w>":9370,"လျူ":9371,"သွတ်":9372,"မြတ်နိုး":9373,"ဆိုးရွား":9374,"Taung</w>":9375,"ep":9376,"ခိုး</w>":9377,"၁ဝဝ</w>":9378,"ပြာ</w>":9379,"များဖြစ်ကြသည်</w>":9380,"သာဝ":9381,"မူတည်":9382,"လေ့လာ</w>":9383,"မျက်မှောက်":9384,"Sch":9385,"tro":9386,"များဖြင့်":9387,"စာနယ်":9388,"ဆိုပါက</w>":9389,"ရုပ်သိမ်း":9390,"ဘောဂ":9391,"ယင်းသို့":9392,"ich</w>":9393,"ဘဝနိဂုံး</w>":9394,"မတူပီမြို့နယ်</w>":9395,"ကျွန်းစုမြို့နယ်</w>":9396,"ဘီလီယံ":9397,"ရလျှင်</w>":9398,"တစ်ဝက်":9399,"တစ်စတုရန်းကီလိုမီတာ":9400,"ဘုရားရှင်</w>":9401,"ကိုင်တွယ်":9402,"လူမျိုးများသည်</w>":9403,"၁၉၃၈</w>":9404,"သရုပ်ဖော်":9405,"ထိုအချိန်က</w>":9406,"မင်းဘူးမြို့နယ်</w>":9407,"ရာဇာဓိ":9408,"စကြာဝ":9409,"be</w>":9410,"ဥပါ":9411,"၂၂၀":9412,"လျှို":9413,"ငယ်ဘဝ</w>":9414,"ရန်ကုန်တက္ကသိုလ်</w>":9415,"နီးပါး</w>":9416,"မေးခွန်း":9417,"သင်္ဂြိုဟ":9418,"တူရကီ":9419,"anmar</w>":9420,"Joh":9421,"အရောက်":9422,"နိုင်သော်လည်း</w>":9423,"ပါပဲ</w>":9424,"ကြီးပွား":9425,"နှစ်နှစ်":9426,"သောအခါတွင်</w>":9427,"စေတု":9428,"လုံးရွာ</w>":9429,"ပေလိမ့်မည်</w>":9430,"ကောင်းမှု":9431,"မည်ကို</w>":9432,"မြေပုံ":9433,"ဘုရားကျောင်း":9434,"ရာဇဝင်</w>":9435,"ဝေါမြို့နယ်</w>":9436,"ချီးကျူး":9437,"ကြိမ်မြောက်</w>":9438,"ငြင်းပယ်":9439,"ညောင်လေးပင်မြို့နယ်</w>":9440,"လှုံ့ဆော်":9441,")(</w>":9442,"ဗို":9443,"ခဲ့ချေ</w>":9444,"လိုက်စား":9445,"ခင်ဦးမြို့နယ်</w>":9446,"ထွက်သော</w>":9447,"ထို့နောက်တွင်</w>":9448,"အဆင့်မြင့်":9449,"များစွာကို</w>":9450,"တစ်မျိုးဖြစ်သည်</w>":9451,"ဒိဋ္ဌ":9452,"ock</w>":9453,"ကွဲပြားခြားနား":9454,"အသုံးအနှုန်း":9455,"နမူနာ":9456,"အပတ်":9457,"ိတ</w>":9458,"ပြိန်း":9459,"ရွန်း":9460,"နိုင်ကြောင်း</w>":9461,"ထားရသည်</w>":9462,"မင်းရဲ":9463,"ana</w>":9464,"လွန်ခဲ့သော</w>":9465,"တယ်လို့</w>":9466,"ချီဖွေမြို့နယ်</w>":9467,"126":9468,"တော်မြတ်":9469,"လာရောက်</w>":9470,"ပြည်တွင်</w>":9471,"လက်ဆောင်":9472,"လက်ထောက်":9473,"စွန်း</w>":9474,"နယ်တွင်</w>":9475,"တစ်ခုခု":9476,"ဏ်း":9477,"106":9478,"တိုင်တိုင်</w>":9479,"တွေမှာ</w>":9480,"ကြေးနီ":9481,"ဓမ္မ</w>":9482,"ကယ်လီဖိုး":9483,"Ad":9484,"တဖန်</w>":9485,"ဆင်တူ":9486,"144":9487,"လူဦးရေသိပ်သည်းဆ":9488,"ill</w>":9489,"ကိုက်ညီ":9490,"သဗ္ဗ":9491,"များအပေါ်</w>":9492,"လွင့်":9493,"ဘုရားသခင်":9494,"နံနက်":9495,"ဘဝကို</w>":9496,"အဆိုအရ</w>":9497,"အလျင်":9498,"350":9499,"501":9500,"ဘေး</w>":9501,"မရရှိ":9502,"သုံ":9503,"အခေါ်</w>":9504,"မ်းရွာ</w>":9505,"တော်နှင့်</w>":9506,"ဘုရားကြီး</w>":9507,"အခြေစိုက်</w>":9508,"ica</w>":9509,"အချက်အလက်</w>":9510,"ase</w>":9511,"အာဏာကို</w>":9512,"Di":9513,"ကချင်</w>":9514,"ပတိ</w>":9515,"ခဲ့သောကြောင့်</w>":9516,"လျံ</w>":9517,"သားသမီး</w>":9518,"ပေါ်မှ</w>":9519,"ဆွစ်":9520,"ခေါ်ဆောင်":9521,"ကလေးသူငယ်":9522,"အစိုးရအဖွဲ့":9523,"မောင်နှ":9524,"ဒုတိယအကြိမ်</w>":9525,"ကြည့်လျှင်</w>":9526,"ဖွားမြင်ခဲ့သည်</w>":9527,"ပဒ":9528,"၆ဝ</w>":9529,"တပ်ဖွဲ့</w>":9530,"ကုန်သော</w>":9531,"ထွက်ရှိ":9532,"ခေတ်မီ":9533,"208":9534,"ကသာမြို့နယ်</w>":9535,"ကွပ်ကဲမှု":9536,"ight</w>":9537,"ရေးဖွဲ့":9538,"သူအဖြစ်</w>":9539,"ဂျား":9540,"ငယ်များ</w>":9541,"တောင်းပန်":9542,"ကျမ်းကို</w>":9543,"ထည့်သွင်း</w>":9544,"ဗိုလ်မှူးကြီး</w>":9545,"ဖြစ်သွားသည်</w>":9546,"လျှာ":9547,"ရက်မှ</w>":9548,"အာရေ":9549,"တွေနဲ့</w>":9550,"အသံလွှင့်":9551,"Br":9552,"IS":9553,"Mus":9554,"ita":9555,"tor</w>":9556,"ဂရိတ်":9557,"မဏ္ဍ":9558,"ရတု":9559,"ဒေသကို</w>":9560,"သည့်အခါ":9561,"ရွှေတိ":9562,"မှူးမတ်":9563,"ack":9564,"ကြက်သွန်":9565,"ကျောင်းသားများ</w>":9566,"အယ်ဒီတာ</w>":9567,"မပြတ်</w>":9568,"အကောက်":9569,"လွယ်</w>":9570,"လှည့်</w>":9571,"ထုတ်ပေး":9572,"eng":9573,"ခန့်ရှိသည်</w>":9574,"ord":9575,"လုပ်ငန်းစဉ်":9576,"အစိုးရနှင့်</w>":9577,"တော့ချေ</w>":9578,"နီးကပ်":9579,"အေဂျင်":9580,"ရပ်ကွက်တွင်</w>":9581,"အပြောင်းအလ":9582,"ဆုရ":9583,"တေ</w>":9584,"ဝပ်</w>":9585,"င်းရွာ</w>":9586,"ရွန်</w>":9587,"ဆုံရွာ</w>":9588,"170150":9589,"လျော်စွာ</w>":9590,"နက္ခတ်":9591,"Ah</w>":9592,"yu</w>":9593,"ဂေး":9594,"စကာ</w>":9595,"ဘရာဇ":9596,"မဂ်":9597,"ရပါ":9598,"ဟိုင်":9599,"၁၁၀":9600,"ကြချေ</w>":9601,"ခဲ့သေးသည်</w>":9602,"မိခင်</w>":9603,"ener":9604,"မဲဇလီ":9605,"အကြီးမား":9606,"တစ်နှစ်လျှင်</w>":9607,"အလင်းနှစ်</w>":9608,"ဆိုရှယ်လစ်</w>":9609,"အာကာသယာဉ်":9610,"စည်ပင်သာယာ":9611,"Be":9612,"ကစ်":9613,"ဗိုက်":9614,"ခွဲခ":9615,"နောက်ထပ်</w>":9616,"သန့်စင်":9617,"ရေနံချောင်းမြို့နယ်</w>":9618,"လက္ခဏာ</w>":9619,"mon":9620,"မပေါ်":9621,"ဖြစ်ခဲ့</w>":9622,"လူတို့သည်</w>":9623,"ဝင်များ</w>":9624,"သမုတ်":9625,"ထိစပ်":9626,"ရွာသစ်ကုန်းရွာ</w>":9627,"ဆော့လော်":9628,"အယ်လ်ဘ":9629,"စကြဝ":9630,"မြန်မာတို့</w>":9631,"နေ့စဉ်</w>":9632,"တိုင်ပင်":9633,"မူလက</w>":9634,"အလင်းရောင်":9635,"ကြေညာခဲ့သည်</w>":9636,"ကန့်ဘလူခရိုင်</w>":9637,"အလို့ငှာ</w>":9638,"ဖုတ်":9639,"မရ</w>":9640,"သလို":9641,"ရာတွင်":9642,"ခြင်းနှင့်":9643,"ရွှေကူ":9644,"အတတ်</w>":9645,"တစ်ခုသည်</w>":9646,"ခင်ပွန်း":9647,"ore</w>":9648,"ဌာနခွဲ</w>":9649,"လျှပ်စစ်</w>":9650,"ပြည်သူ့လွှတ်တော်</w>":9651,"သောက်သုံး":9652,"ဆော့ဖ်ဝဲ":9653,"ပဒု":9654,"မဘူတာ</w>":9655,"သုံးနှစ်":9656,"တိုးတက်</w>":9657,"ဆောင်ရွက်ရန်</w>":9658,"ဆယ်စု":9659,"စွမ်းအင်</w>":9660,"ဂရီဂေါ":9661,"တခြား":9662,"မြို":9663,"ကျည်း":9664,"သုံးခု":9665,"နန်းတော်</w>":9666,"amp":9667,"ဥက္ကဋ္ဌအဖြစ်</w>":9668,"ဖွဲ့စည်းပုံအခြေခံဥပဒေ":9669,"မြို့နေလူဦးရေသည်</w>":9670,"တစ်စတုရန်းကီလိုမီတာလျှင်</w>":9671,"fi":9672,"ဂန်</w>":9673,"တပါး":9674,"ဗူး":9675,"အရိပ်":9676,"ချဲ့</w>":9677,"တွင်းရွာ</w>":9678,"ရောဂါပိုး":9679,"ကော်မရှင်</w>":9680,"ခေါင်းဆောင်သော</w>":9681,"စီးပွားရေးလုပ်ငန်း":9682,"စမ်း</w>":9683,"င်းတို့သည်</w>":9684,"နေဝင်း</w>":9685,"တိုင်းစစ်":9686,"မင်းနှင့်</w>":9687,"စွာသော</w>":9688,"ယင်းတို့ကို</w>":9689,"အီရန်</w>":9690,"ကောက်ခံ":9691,"တာဝန်များကို</w>":9692,"ပရိယ":9693,"အင်အားစု":9694,"Myanmar</w>":9695,"လျော့နည်း":9696,"အမေရိကတိုက်":9697,"အငြိမ်းစား":9698,"oe</w>":9699,"ဘရ":9700,"ဆိုပြီး</w>":9701,"စစ်တ":9702,"အဆုတ်":9703,"ဇာတ်ကား</w>":9704,"ကောက်ရွာ</w>":9705,"မတ်လတွင်</w>":9706,"ဖတ်ရှု":9707,"ဦးဆောင်သော</w>":9708,"တြိ":9709,"လူကြိုက်များ":9710,"Te":9711,"mar":9712,"တခု</w>":9713,"ခဲ့ပြန်သည်</w>":9714,"ငယ်စဉ်က</w>":9715,"အိမ်ရှင်":9716,"တီးဝိုင်း</w>":9717,"ဆုံးဖြတ်ချက်":9718,"ဆင်ပေါင်ဝဲမြို့နယ်</w>":9719,"လူဦးရေသိပ်သည်းဆသည်</w>":9720,"ဆော့လော်မြို့နယ်</w>":9721,"နင်း</w>":9722,"င်းတို့မှာ</w>":9723,"မှန်း</w>":9724,"ဘာတွင်</w>":9725,"ပုဇွန်":9726,"ပုံဖော်":9727,"ခေတ်စား":9728,"လဲရွာ</w>":9729,"ကွဲလွဲ":9730,"အရပ်တွင်</w>":9731,"သဒ္ဒါ":9732,"အဘယ်ကြောင့်ဆိုသော်</w>":9733,"ပေါ်တူဂီ":9734,"လာကာ</w>":9735,"ဆိုသည့်":9736,"လမ်းမ":9737,"ကမ္ဘာပေါ်ရှိ</w>":9738,"ဏ္ဍ</w>":9739,"ဇာတ်ကောင်":9740,"တုံ</w>":9741,"ချစ်ခင်":9742,"လှည့်ပတ်":9743,"နက္ခတ္တ":9744,"မိုးကုတ်မြို့နယ်</w>":9745,"Sc":9746,"ail":9747,"war</w>":9748,"ကေး":9749,"ကလို":9750,"ကြန်":9751,"များဖြစ်</w>":9752,"တစ်ဆူ</w>":9753,"မာ့":9754,"ဒေ့":9755,"ထိုမှ":9756,"တောင်ထိပ်":9757,"ဆင်ယင်":9758,"ဝေလ":9759,"အမှား":9760,"အကြောင်းအရာ</w>":9761,"မဟုတ်ချေ</w>":9762,"အမှုန်":9763,"ခရစ်ယာန်</w>":9764,"ချန်ပီယံ":9765,"In</w>":9766,"တဏ":9767,"မသေ":9768,"ရာကို</w>":9769,"နိုင်ချေ</w>":9770,"လာသဖြင့်</w>":9771,"အစစ်":9772,"စစ်တွေ":9773,"သမဝါယ":9774,"ရိက္ခာ":9775,"ရှမ်းပြည်":9776,"ကုန်သည်</w>":9777,"100</w>":9778,"အရှေ့မြောက်":9779,"အကြောင်းမှာ</w>":9780,"ချိဘူတာ</w>":9781,"ကယ်တင်":9782,"701501</w>":9783,"ကြေငြာခဲ့သည်</w>":9784,"နတ်ရွာစံ":9785,"'၊</w>":9786,"ကဆု":9787,"ရှိပေသည်</w>":9788,"ကိုး</w>":9789,"ကန်ပက်":9790,"အစည်းအဝေး</w>":9791,"သမားများ</w>":9792,"အကြီးအကျယ်</w>":9793,"မြို့နယ်သည်</w>":9794,"ectr":9795,"အခြေအနေကို</w>":9796,"ll":9797,"sc":9798,"မန်း</w>":9799,"ဝတ်</w>":9800,"ပြိုင်</w>":9801,"များကလည်း</w>":9802,"နေရသည်</w>":9803,"ဟုလည်း":9804,"ကမ္ဘာတစ်":9805,"ဆိပ်ဖြူမြို့နယ်</w>":9806,"သမိုင်းကြောင်း":9807,"701502</w>":9808,"ဆုတ်ခွာ":9809,"ပစိဖိတ်":9810,"ခြင်္သေ့":9811,"ဗ်</w>":9812,"လဟာ":9813,"ချယ်</w>":9814,"တစ်ပြိုင်":9815,"ရပ်ကို</w>":9816,"နယ်သာ":9817,"နန်းတွင်း":9818,"200</w>":9819,"အေးရွာ</w>":9820,"မိုင်ခန့်":9821,"လွှမ်းခြုံ":9822,"ရထားလမ်း":9823,"ဖလမ်းခရိုင်</w>":9824,"ry</w>":9825,"အီး</w>":9826,"ကြပေ</w>":9827,"ဖြစ်တယ်</w>":9828,"နှင့်အတူ":9829,"ကျွန်းလှ":9830,"ကြာရှည်":9831,"မွေးဖွား</w>":9832,"လွတ်လပ်သော</w>":9833,"မျက်နှာပြင်</w>":9834,"စိုက်ပျိုးရေး</w>":9835,"မိုက်ခရို":9836,"ပုဒ်မခွဲ</w>":9837,"Har":9838,"ear":9839,"ရှိပါတယ်</w>":9840,"ပြည်သူ</w>":9841,"ဒေသရှိ</w>":9842,"မူပိုင်ခွင့်":9843,"အောက်ခြေ":9844,"တီးတိ":9845,"ဒေါ်အောင်ဆန်းစု":9846,"အောင်မြင်စွာ</w>":9847,"ook</w>":9848,"စိုင်းန်</w>":9849,"man":9850,"လံ</w>":9851,"မြူး":9852,"ချစ်</w>":9853,"လေယာဉ်</w>":9854,"မိယ":9855,"ပင်များ</w>":9856,"န္နဲ":9857,"သုဒ္ဓ":9858,"ရက်နေ့မှ</w>":9859,"မယ်တော်":9860,"ဖိနပ်":9861,"မိုးမိတ်မြို့နယ်</w>":9862,"ဗဲ":9863,"မချမ်း":9864,"မသန်":9865,"ရမည်ဟု</w>":9866,"သိမ်</w>":9867,"အီရတ်":9868,"ဝှေ့":9869,"ဂမ်":9870,"ဇန":9871,"လတ္တ":9872,"ဖြစ်နေသည်</w>":9873,"နေသည့်":9874,"ပေးထား":9875,"အဖွဲ့နှင့်</w>":9876,"တရားရုံး</w>":9877,"စင်ကြယ်":9878,"ish":9879,"ရှည်ရွာ</w>":9880,"၁၉၃၇</w>":9881,"မိုင်ပေါင်း</w>":9882,"ဗြိတိသျှတို့</w>":9883,"အကာအ":9884,"World</w>":9885,"ပင်းတယမြို့နယ်</w>":9886,"ဒမ်":9887,"နဂို":9888,"ရသ":9889,"ဝိုး":9890,"၄၀၀</w>":9891,"ခဲ့လျှင်</w>":9892,"ally</w>":9893,"ဆိတ်</w>":9894,"အားကစားပြိုင်ပွဲ":9895,"ကူးသန်းရောင်းဝယ်":9896,"ပြန့်</w>":9897,"ဦးရေ":9898,"ဦးစီး</w>":9899,"ထိုခေတ်":9900,"ခြင်းများကို</w>":9901,"ချက်ချင်း":9902,"ဇာန":9903,"မြေကြီး":9904,"နောင်အခါ</w>":9905,"ဗီယက်နမ်</w>":9906,"ဝိပဿနာ":9907,"ss":9908,"စုပ်":9909,"ဆဋ္ဌ":9910,"ခြည်</w>":9911,"လာရာ</w>":9912,"ပန်ဝိုင်":9913,"နေ့ရက်</w>":9914,"ထွက်ပေါ်":9915,"agon</w>":9916,"မြိတ်မြို့နယ်</w>":9917,"အတတ်ပညာ":9918,"အတိုင်းအတာ":9919,"မိုင်းပန်မြို့နယ်</w>":9920,"wa</w>":9921,"yp":9922,"တံ့":9923,"အမျိုး</w>":9924,"ရွာငံ":9925,"ဦးဆောင်</w>":9926,"လာသည်":9927,"၂၀ဝ":9928,"အထပ်":9929,"ရက်ထပ်":9930,"စည်းစိမ်":9931,"the":9932,"ဒ္ဓိ":9933,"ဝိဇ္ဇာ</w>":9934,"International</w>":9935,"ချဉ်းကပ်":9936,"125":9937,"ဂန္ဓ":9938,"အခွံ":9939,"ကြီးပြင်း":9940,"လက်ရာ</w>":9941,"လက်မှတ်</w>":9942,"ဆိုသူ</w>":9943,"မျက်လုံး":9944,"အမေရိက</w>":9945,"သတ်မှတ်ထားသော</w>":9946,"တင့်တယ်":9947,"တနင်္ဂနွေ":9948,"ငုတ်":9949,"မတွေ့ရ":9950,"သရ</w>":9951,"ကုန်စည်":9952,"အလယ်တွင်</w>":9953,"လိုအပ်သည်</w>":9954,"ထောင့်</w>":9955,"ညစ်ည":9956,"ခြိမ်းခြောက်":9957,"ငု":9958,"ပြသည်</w>":9959,"စာမျက်နှာ</w>":9960,"ဒေသမှ</w>":9961,"အဆို</w>":9962,"အကျဉ်း</w>":9963,"မျှသာ":9964,"၁၉၄၄</w>":9965,"illi":9966,"ဖုန်":9967,"အံ့ဩ":9968,"ပိုလီ":9969,"ကင်</w>":9970,"ဂုရ":9971,"ဗင်း":9972,"ဘကြီး":9973,"လိန်":9974,"သမိန်":9975,"ဦးရေ</w>":9976,"လာရွာ</w>":9977,"အစာ</w>":9978,"ပျို့</w>":9979,"ကိုယ်ပိုင်</w>":9980,"အင်ကြင်း":9981,"ညီနောင်":9982,"ချစ်ကြည်":9983,"ရာထူးကို</w>":9984,"သိုလှောင်":9985,"ထားရှိသည်</w>":9986,"စဉ်တွင်</w>":9987,"ကွယ်လွန်</w>":9988,"လျက်ရှိ</w>":9989,"စွန့်စား":9990,"yun</w>":9991,"လတ္တီ":9992,"ပေါများ":9993,"ကွေ့</w>":9994,"လာခဲ့ပြီး</w>":9995,"ပြည်ထဲ":9996,"တောင်ခြေ":9997,"သင်္ဃ":9998,"ဆွဲဆောင်":9999,"ဇွဲ":10000,"အထောက်အကူ":10001,"Comm":10002,"အဘိဓာန်":10003,"ရှိသူ</w>":10004,"ရာစုတွင်</w>":10005,"နှစ်ဦး</w>":10006,"သာကျေးရွာအုပ်စုတွင်</w>":10007,"ပြုခြင်း</w>":10008,"အတင်း":10009,"ပြုလုပ်ရန်</w>":10010,"209":10011,"စက်တင်ဘာလတွင်</w>":10012,"မှားယွင်း":10013,"Jav":10014,"ber":10015,"စကော":10016,"ရာထူး</w>":10017,"ပုဂံ</w>":10018,"ဝါရှင်":10019,"enc":10020,"စစ်ကိုင်းခရိုင်</w>":10021,"မတိုင်မီ</w>":10022,"oft</w>":10023,"ကြယ်စုတန်းမှ</w>":10024,"နှမ်း":10025,"ကုဋ":10026,"နာမည်</w>":10027,"205":10028,"စိုက်ပျိုး</w>":10029,"အနောက်ပိုင်း":10030,"ဗေဒင်":10031,"အမြင့်ဆုံး</w>":10032,"အနိုင်ရ":10033,"သက်ဆိုင်သော</w>":10034,"Col":10035,"အပ":10036,"ကြယ်</w>":10037,"ဦးသည်</w>":10038,"စာမျက်နှာ":10039,"သူရိယ":10040,"ထားရာ</w>":10041,"နှင့်တူ":10042,"အာဟာရ":10043,"မူလ</w>":10044,"ကိုယ်ခန္ဓာ":10045,"ယခုအခါတွင်</w>":10046,"ထုလုပ်":10047,"အာရှတိုက်":10048,"အစိတ်အပိုင်း</w>":10049,"gro":10050,"ks</w>":10051,"ဖြစ်ကြ":10052,"ဖြစ်လာ</w>":10053,"ကွေး</w>":10054,"ဂျစ်</w>":10055,"ပေးနိုင်သည်</w>":10056,"သွားကြသည်</w>":10057,"ပြီးသော်</w>":10058,"တပ်မြို့":10059,"အကြောင်းပြု</w>":10060,"အပူချိန်</w>":10061,"နာမည်ကျော်</w>":10062,"ညောင်ပင်သာရွာ</w>":10063,"မတိုင်မီ":10064,"ations</w>":10065,"စဉ့်ကူးမြို့နယ်</w>":10066,"..</w>":10067,"duc":10068,"ကြဉ်":10069,"ခွေ</w>":10070,"အနား</w>":10071,"ထုတ်ကုန်":10072,"ချင်းတွင်း":10073,"အက်ဆစ်":10074,"ဝါဒကို</w>":10075,"ရတနာပုံ":10076,"ညီလာခံ</w>":10077,"ကက်သ":10078,"ဘဏ္ဍာရေး":10079,"Univers":10080,"ပြက္ခဒိန်အရ</w>":10081,"မြစ်ဝကျွန်းပေါ်":10082,"Micros":10083,"ဂရီဂေါရီးယန်း":10084,"အရွေး":10085,"နေသဖြင့်</w>":10086,"အားလျော်စွာ</w>":10087,"ရန်ဖြစ်သည်</w>":10088,"နောက်မှ</w>":10089,"က္ခာ</w>":10090,"206":10091,"ပြည်သူ့လွှတ်တော်":10092,"နေထိုင်</w>":10093,"သောကြာ":10094,"ရင်းမြစ်</w>":10095,"ပင်ပန်း":10096,"တပ်မဟာ</w>":10097,"အကြာ</w>":10098,"ငယ်ရွယ်":10099,"စွန့်လွှတ်":10100,"တီးတိန်မြို့နယ်</w>":10101,"ou</w>":10102,"ဈေး</w>":10103,"လီး":10104,"ပြေ</w>":10105,"စေနိုင်သည်</w>":10106,"ပေါက်ဖွား":10107,"တရုတ်ပြည်</w>":10108,"ညှာ":10109,"အသက်ရှူ":10110,"လူမှုရေး</w>":10111,"ဖုံးလွှမ်း":10112,"ဆောင်းပါးများ</w>":10113,"ကမ္ဘောဒီးယား":10114,"ဖိုလ်":10115,"ကြရန်</w>":10116,"လေတပ်":10117,"သင်တန်း</w>":10118,"ပြောင်းရွေ့":10119,"မြင့်သော</w>":10120,"ရေးသားသော</w>":10121,"ပိန္နဲ":10122,"ပြီဟု</w>":10123,"ပြည်သူလူထု":10124,"ရှယ်ယာ":10125,"မျိုးနွယ်စု":10126,"နမ့်ဆန်မြို့နယ်</w>":10127,"ငေါ":10128,"မြို့ဟောင်း</w>":10129,"ရာသည်</w>":10130,"တစ်ဆင့်":10131,"ရင်းရွာ</w>":10132,"onal</w>":10133,"တံတိုင်း":10134,"အင်္ဂလန်</w>":10135,"အစိုးရကို</w>":10136,"မွေးစား":10137,"its</w>":10138,"ထီးချိုင့်":10139,"ခဲ့ရပြီး</w>":10140,"ယောကျာ်":10141,"အနီးအနား":10142,"ထုံးတမ်း":10143,"အမျိုးမျိုးကို</w>":10144,"ကွမ်းသီး":10145,"အချင်းချင်း":10146,"ဝန်ဆောင်မှု</w>":10147,"စုံစမ်းစစ်ဆေး":10148,"လူတန်းစား":10149,"Gre":10150,"Ok":10151,"စတာ</w>":10152,"မယူ":10153,"၅၈":10154,"နိုင်သည့်":10155,"လူစု":10156,"တိတ်</w>":10157,"သို့လည်း</w>":10158,"လေးအိမ်":10159,"ရက်စက်":10160,"ကျောင်းကို</w>":10161,"ပြုလုပ်ထားသော</w>":10162,"အိပ်မက်":10163,"ဆွတ်ခူး":10164,"ပုံမှန်အားဖြင့်</w>":10165,"သင်္ဂြိုဟ်":10166,"ကန်း</w>":10167,"ဂရက်</w>":10168,"ဇန်":10169,"ဗဒုံ":10170,"ရသည့်":10171,"အကိုင်း":10172,"သော့":10173,"တာရွာ</w>":10174,"တောင်ကြား":10175,"လိုက်သောအခါ</w>":10176,"ညောင်ရမ်း":10177,"ရှာဖွ":10178,"ဝေါဟာရ</w>":10179,"ပထမဆုံးသော</w>":10180,"ပြဿနာ</w>":10181,"အကွာအဝေး":10182,"Windo":10183,"သန္တာ":10184,"စာများ</w>":10185,"ရေးတွင်</w>":10186,"ထားသည်ကို</w>":10187,"မိုင်းပေါက်</w>":10188,"အရာကို</w>":10189,"အိန္ဒိယနိုင်ငံ":10190,"ထုတ်ဝေသော</w>":10191,"ချဲ့ထွင်":10192,"အကူအညီဖြင့်</w>":10193,"ဆုပ်":10194,"အကွက်":10195,"ချိုင်း":10196,"လမ်းကြောင်း</w>":10197,"စိတ်ချ":10198,"ီးယန်း</w>":10199,"လက်နက်ချ":10200,"ဂရမ်</w>":10201,"နွေရာသီ":10202,"တဖြည်းဖြည်း":10203,"ရှေးဦးစွာ</w>":10204,"ဝီ</w>":10205,"ဖြစ်သည့်":10206,"လူငယ်</w>":10207,"စေသည့်</w>":10208,"လုံးဝ</w>":10209,"တပ်ပေါင်း":10210,"ချောင်းကျေးရွာအုပ်စု</w>":10211,"မြစ်နှင့်</w>":10212,"ီးယပ်":10213,"The":10214,"အသက်ရှင်":10215,"ရုပ်ရှင်ကား":10216,"သမ္မတနိုင်ငံ":10217,"Co":10218,"မမှန်":10219,"အတိတ်":10220,"နေရာမှာ</w>":10221,"ဖွဲ့ဆို":10222,"ရရှိခဲ့ပြီး</w>":10223,"လုပ်ငန်းသည်</w>":10224,"စာအုပ်တွင်</w>":10225,"အတွက်ကြောင့်</w>":10226,"အထွတ်":10227,"လျင်မြန်စွာ</w>":10228,"ညက်":10229,"မကျေးရွာအုပ်စု</w>":10230,"၄၃":10231,"နိုင်ခဲ့ပြီး</w>":10232,"စာဖတ်":10233,"လူများ</w>":10234,"တိုက်ဖျက်":10235,"မြေဩဇာ":10236,"စိတ်ကို</w>":10237,"ဝန်ကြီးအဖြစ်</w>":10238,"ပိန်</w>":10239,"701503</w>":10240,"နိုင်ငံခြားရေး":10241,"စာမေးပွဲ":10242,"Asi":10243,"ဤကဲ့သို့</w>":10244,"များပင်</w>":10245,"ရှိဘူတာ</w>":10246,"လိုသည်</w>":10247,"ဆင်ခြေ":10248,"တစ်ခုလုံး":10249,"တိုရွာ</w>":10250,"ယေား":10251,"ဇီးကုန်းမြို့နယ်</w>":10252,"အမြဲတမ်း":10253,"မှည့်ခေါ်":10254,"Gu":10255,"ale</w>":10256,"အဝင်":10257,"စာရေး</w>":10258,"နှစ်သား":10259,"မာရီ":10260,"နည်းပြ":10261,"ဘာသာပြန်</w>":10262,"စင်စစ်</w>":10263,"တာဝန်ကို</w>":10264,"ဘောလုံးအသင်း":10265,"ပထမဦးဆုံး":10266,"မွတ်စလင်":10267,"TV</w>":10268,"နေး":10269,"ဘစ်":10270,"မတင်":10271,"ဝကျေးရွာအုပ်စု</w>":10272,"မာရ်":10273,"လှပေသည်</w>":10274,"တွေ့ရသော</w>":10275,"လမ်းပန်း":10276,"မြေထဲ":10277,"အိမ်နီး":10278,"ဘွဲ့ခံ</w>":10279,"ကျွန်မ":10280,"ခမည်းတော်</w>":10281,"မီးရှို့":10282,"sl":10283,"ငုံ":10284,"ဆိုင်း</w>":10285,"ထန်</w>":10286,"ဗော်":10287,"ကြရ</w>":10288,"မြို့မ</w>":10289,"တစ်ဝိုက်":10290,"အစောင့်":10291,"တရုတ်နိုင်ငံ":10292,"အားလုံးသည်</w>":10293,"dia</w>":10294,"ပအိုဝ်း":10295,"မိုးညှင်းခရိုင်</w>":10296,"ဧည့်သည်":10297,"ယူနိုက်တက်":10298,"ရုက္ခဗေဒ":10299,"ကျွန်းလှမြို့နယ်</w>":10300,"နယူ":10301,"ဖရူ":10302,"ဖလှယ်":10303,"ကြီးကုန်းရွာ</w>":10304,"စစ်ပြီး":10305,"သုံးနှုန်း":10306,"စံပြ":10307,"ကလေးဝမြို့နယ်</w>":10308,"ခွဲဝေ":10309,"ဝိနည်း":10310,"မုံရွာ</w>":10311,"ချေမှုန်း":10312,"0x":10313,"Wh":10314,"ခဏ":10315,"အခု":10316,"ဿာ":10317,"င်းရွာသည်</w>":10318,"သွင်</w>":10319,"နိုင်ငံခြား</w>":10320,"န့်ရွာ</w>":10321,"သစ်ရွာ</w>":10322,"မြေဆီ":10323,"ရောစပ်":10324,"အရောင်</w>":10325,"ဒေါင့်</w>":10326,"မေလတွင်</w>":10327,"ကျမ်းများ</w>":10328,"oci":10329,"ဂျာမနီ</w>":10330,"ဒဏ္ဍာရီ</w>":10331,"ဟံသာဝတီ</w>":10332,"တစ်လျှောက်တွင်</w>":10333,"ဗိုင်းရပ်စ်":10334,"အရေးတော်ပုံ":10335,"Man</w>":10336,"ra</w>":10337,"ကဏ္ဍ</w>":10338,"ဒင်း":10339,"ဖှ":10340,"မစား":10341,"ဦးဖိုး":10342,"သာယာ</w>":10343,"ဌာနတွင်</w>":10344,"အနောက်တိုင်း":10345,"ဖော်ပြပါ</w>":10346,"ပစ္စည်းများ":10347,"တစ်စင်း":10348,"ဘန်ကောက်":10349,"သင်္ဂါ":10350,"အနီရောင်":10351,"မက္ကဆီကို":10352,"95":10353,"တလိုင်း":10354,"နပ်</w>":10355,"၁၉၂၀</w>":10356,"ကျောက်မီးသွေး":10357,"မိုင်းပေါက်မြို့နယ်</w>":10358,"အပြာ":10359,"စင်စစ်":10360,"ပျော်ရွှင်":10361,"မဂ္ဂဇင်းတွင်</w>":10362,"ပူတာအိုမြို့နယ်</w>":10363,"အလွယ်တကူ</w>":10364,"ဇင်</w>":10365,"ဓနု":10366,"မို့</w>":10367,"တစ်ကိုယ်":10368,"တို့ဗမာ":10369,"တရပ်":10370,"သီလ</w>":10371,"ပြင်ဆင်</w>":10372,"မုနိ":10373,"တစ်ဦးက</w>":10374,"သမီးတော်</w>":10375,"အနိစ္စ":10376,"115":10377,"ow</w>":10378,"ဂိုး</w>":10379,"ဇမ္ဗ":10380,"ရေဖြူမြို့နယ်</w>":10381,"အချင်း</w>":10382,"ရွှေ့</w>":10383,"မဲပေး":10384,"rec":10385,"တည်းဖြတ်":10386,"ထင်ရှားသည့်</w>":10387,"ဦးစီးချုပ်":10388,"ဖားကန့်":10389,"ဖောင်ဒေး":10390,"နဂ":10391,"ရှို":10392,"သူတစ်ပါး":10393,"လုပ်ပိုင်ခွင့်":10394,"အရင်":10395,"ထွက်ကုန်":10396,"104":10397,"ရက်နေ့အထိ</w>":10398,"မြှင့်</w>":10399,"မေလ":10400,"အခြေခံဥပဒေ</w>":10401,"ဝှမ်း</w>":10402,"ယနေ့ခေတ်</w>":10403,"ဖာပွန်":10404,"ရွာငံမြို့နယ်</w>":10405,"114":10406,"စဝ်":10407,"တလျှောက်":10408,"ဖို</w>":10409,"နိုင်စေရန်</w>":10410,"ရေးနှင့်":10411,"တောင်ယာ":10412,"000</w>":10413,"int</w>":10414,"enti":10415,"၁၅၀</w>":10416,"South</w>":10417,"Un":10418,"ဘရူ":10419,"မဇ္ဈ":10420,"သပ်</w>":10421,"မှပင်</w>":10422,"လူများ":10423,"တို့က":10424,"နှစ်အရွယ်</w>":10425,"အချက်</w>":10426,"အိဘ်":10427,"ကိုယ်ဝန်":10428,"ထင်ရှားသော":10429,"ဝိုင်းရွာ</w>":10430,"ents</w>":10431,"ဟိုက်ဒရို":10432,"ကစ</w>":10433,"ဆလင်":10434,"ဓာ</w>":10435,"ကြိ":10436,"ဦးကို</w>":10437,"မှုဆိုင်ရာ</w>":10438,"မာရ":10439,"နေရာသည်</w>":10440,"တိရိ":10441,"ယူနက်":10442,"လိမ္":10443,"ဂါဝါ":10444,"ထက်ပို</w>":10445,"၁၉၄၀</w>":10446,"၁၉၄၃</w>":10447,"အဆိုတော်":10448,"အယူခံ":10449,"သေးငယ်သော</w>":10450,"မစ်</w>":10451,"ပြုံး":10452,"ဆိုနိုင်သည်</w>":10453,"သော်လည်း":10454,"ဘုရားသခင်</w>":10455,"ယခုခေတ်</w>":10456,"ဗီဒီယို":10457,"သူများအတွက်</w>":10458,"အချက်အလက်များကို</w>":10459,"ရှာဖွေ</w>":10460,"ol</w>":10461,"ဖြစ်သော":10462,"သွားရာ</w>":10463,"ဘုရားသည်</w>":10464,"ခွဲခြား</w>":10465,"ဘီစီ":10466,"amm":10467,"ဗီတာ":10468,"အနားယူ":10469,"our</w>":10470,"Gro":10471,"တရာ</w>":10472,"တမံ":10473,"အလှန်":10474,"နေခြင်း</w>":10475,"ခြမ်း</w>":10476,"ကွီ":10477,"ကြီးအား</w>":10478,"သာလွန်":10479,"ဒေသသည်</w>":10480,"အမ်</w>":10481,"ပုံနှင့်</w>":10482,"ထုတ်လွှတ်":10483,"ချက်နှင့်</w>":10484,"မြစ်ကမ်း":10485,"ဌာနခွဲ":10486,"မိန့်တော်မူ</w>":10487,"ကျော်ကြားသော</w>":10488,"အကြံပြု":10489,"တစ်စောင်":10490,"ညွှန်ကြားရေးမှူး":10491,"country</w>":10492,"ထီးချိုင့်မြို့နယ်</w>":10493,"ile</w>":10494,"တလုပ်":10495,"တကာ":10496,"ဖောက်</w>":10497,"အတောင်":10498,"ပြေး</w>":10499,"တည်တံ့":10500,"ခြင်းကြောင့်":10501,"အားကို</w>":10502,"ဒါန":10503,"လယ်ရွာ</w>":10504,"အောက်တိုဘာလတွင်</w>":10505,"အလံနီ":10506,"Windows</w>":10507,"သင်္ဂါယ":10508,"ကိုဖြစ်စေ</w>":10509,"ရေစီး":10510,"ထိုစဉ်":10511,"နှင့်မ":10512,"ကျောင်းတိုက်":10513,"အချို့သည်</w>":10514,"ဆံပင်":10515,"ဝတ္ထုကို</w>":10516,"ယုံကြည်ကြသည်</w>":10517,"အမျိုးသမီးများ</w>":10518,"သမာဓိ":10519,"oke</w>":10520,"အတ္တလ":10521,"ie":10522,"တမာ":10523,"ဗစ်</w>":10524,"ရပေသည်</w>":10525,"နေဆဲ":10526,"တစ်လ":10527,"ဆိုလေသည်</w>":10528,"ထွင်</w>":10529,"တွင်ကျယ်":10530,"အလိုက်":10531,"သင်ကြား</w>":10532,"မော်စကို":10533,"ဖွဲ့စည်းထားသည်</w>":10534,"ဖော်ပြသည်</w>":10535,"မိန်းကလေး":10536,"sk":10537,"ကလိ":10538,"ခီးရွာ</w>":10539,"ရွာမ</w>":10540,"ကြီးသော</w>":10541,"သာရ</w>":10542,"နေထိုင်ကြ":10543,"လေ့ရှိသော</w>":10544,"ဖျောက်":10545,"လင်ရွာ</w>":10546,"စတင်ကာ</w>":10547,"အဆောက်အဦး</w>":10548,"ရခိုင်ပြည်နယ်</w>":10549,"ire</w>":10550,"pop</w>":10551,"ကျွန်ုပ်တို့</w>":10552,"ဆွီဒင်":10553,"Microsoft</w>":10554,"Per":10555,"မို့":10556,"ဟ်</w>":10557,"ဖြစ်ခဲ့ပြီး</w>":10558,"သို့ပြန်":10559,"ပူရ</w>":10560,"ဟိုတယ်":10561,"လောကီ":10562,"အထက်ပါ</w>":10563,"ပြောင်းလဲခဲ့သည်</w>":10564,"သူငယ်ချင်း":10565,"ပိဋက":10566,"ဗန္ဓု":10567,"ကော</w>":10568,"တလ":10569,"အဖမ်း":10570,"ဖြေ</w>":10571,"နေထိုင်ရာ</w>":10572,"အားကစား</w>":10573,"ပိုင်ရှင်</w>":10574,"မီးတောင်":10575,"တစ်ဦးတည်း":10576,"ဖြေဆို":10577,"ဉာဏ":10578,"အကျ</w>":10579,"ပြင်သစ်နိုင်ငံ</w>":10580,"ool</w>":10581,"အနာဂတ်":10582,"သမျှကို</w>":10583,"အင်ဒိုနီးရှား</w>":10584,"အဆက်အသွယ်":10585,"မပါဝင်":10586,"သားကို</w>":10587,"မွဲ":10588,"ဘွေး":10589,"ism</w>":10590,"ဘုတ်ပြင်း":10591,"ထိမ်းမြား":10592,"ထူ</w>":10593,"ယွန်":10594,"မြည်":10595,"ကျန်</w>":10596,"စုပေါင်း</w>":10597,"ကိုလည်း":10598,"1701":10599,"နားမ":10600,"ဖျင်း":10601,"စကားလုံး</w>":10602,"ထက်သန်":10603,"ပယ်ဖျက်":10604,"စင်ကာပူ</w>":10605,"သံသယ":10606,"ထန်းတပင်မြို့နယ်</w>":10607,"အေမာမ်ဟိုစိုင်းန်</w>":10608,"Dagon</w>":10609,"Ta</w>":10610,"အပျော်":10611,"နိုင်သည်ဟု</w>":10612,"မြေပြန့်":10613,"ဒေါသ":10614,"ကော်</w>":10615,"ရှေးအကျ":10616,"ခဲ့ကြသော</w>":10617,"သင်ကြားပေး":10618,"တက်ရောက်ခဲ့သည်</w>":10619,"ပြည့်စုံသော</w>":10620,"ပြင်ဦးလွင်မြို့နယ်</w>":10621,"မည်သို့ပင်":10622,"900":10623,"East</w>":10624,"fl":10625,"တည့်</w>":10626,"ခေါက်</w>":10627,"လာခဲ့ကြသည်</w>":10628,"နားထောင်":10629,"အတွင်းဝန်":10630,"အိုဆာ":10631,"ဂါထာ":10632,"အနေအထား</w>":10633,"အကြောင်းပြ":10634,"ိယထေရ်</w>":10635,"အာဏာရှင်":10636,"Myoth":10637,"ဝံသ":10638,"ကျိုက်ထို":10639,"ပုပ္ဖ":10640,"နာယက":10641,"228":10642,"စလင်း":10643,"ရသည်":10644,"ရေကြည်":10645,"မင်းလက်ထက်တွင်</w>":10646,"နယ်နိမိတ်</w>":10647,"ကျောင်းနှင့်</w>":10648,"ရီသည်</w>":10649,"ခန့်ထား":10650,"တီးမှုတ်":10651,"မြန်မာနိုင်ငံသို့</w>":10652,"ကျန်သေးသည်</w>":10653,"သဲကန္တာ":10654,"လိမ့်မည်ဟု</w>":10655,"ပတ်သက်သော</w>":10656,"စော်ဘွား</w>":10657,"ဖုံးအုပ်":10658,"ပါဠိ</w>":10659,"ရုပ်ပွားတော်":10660,"တစ်ခါတစ်ရံ":10661,"ဋီကာ":10662,"စေတုတ္ထ":10663,"Myothit</w>":10664,"မနော":10665,"ရသူ</w>":10666,"နှံ</w>":10667,"ရှိကြ":10668,"tive</w>":10669,"ရွှံ့":10670,"လီရွာ</w>":10671,"ကူကီး":10672,"ရှည်သည်</w>":10673,"အမှတ်တံဆိပ်":10674,"၁၉၃၀</w>":10675,"ဆောမြို့နယ်</w>":10676,"ဗမာပြည်ကွန်မြူနစ်ပါတီ":10677,"ပါကစ္စတန်":10678,"အောက်ဆီဂျင်":10679,"ကဆုန်":10680,"တိရိစ္ဆာ":10681,"ဒပ်":10682,"ယိမ်း":10683,"နေတဲ့</w>":10684,"တစ်ထောင်":10685,"ရိန်း":10686,"အလာ</w>":10687,"အင်ပိုင်":10688,"တက်ရွာ</w>":10689,"လန်နိုင်ငံ</w>":10690,"စက်မှုလက်မှု":10691,"အကယ်ဒမီ":10692,"အာဆီယံ":10693,"ဂရီဂေါရီးယန်းပြက္ခဒိန်အရ</w>":10694,"စေတုတ္ထရာ":10695,"စပြီး</w>":10696,"ညု":10697,"များဟု</w>":10698,"သာဖြစ်သည်</w>":10699,"န္တရ":10700,"နယ်ခြား":10701,"မီးခိုး":10702,"ပိတောက်":10703,"ကုန်ဆုံးရန်</w>":10704,"Ste":10705,"ft</w>":10706,"ငတ်":10707,"တပို့":10708,"မနု":10709,"လဟယ်":10710,"ဟော</w>":10711,"အ်":10712,"မြို</w>":10713,"ဖြစ်တဲ့</w>":10714,"တစ်ပင်":10715,"သူသည်":10716,"သူနာ":10717,"လှဲ":10718,"အောက်သို့</w>":10719,"ယင်းတစ်နှစ်တာ</w>":10720,"ပထမအကြိမ်</w>":10721,"Tha</w>":10722,"သာသနာတော်</w>":10723,"ချေား</w>":10724,"ရမည်ဖြစ်သည်</w>":10725,"ပါလီမန်</w>":10726,"မော်တော်ယာဉ်":10727,"စေတုတ္ထရာမြို့နယ်</w>":10728,"တပါး</w>":10729,"ဗု":10730,"လခဲ":10731,"အညို":10732,"ဣန္ဒ":10733,"မြို့ပေါ်ရှိ</w>":10734,"ပါပြီ</w>":10735,"ရေးလုပ်ငန်း":10736,"ကျောင်းကုန်းရွာ</w>":10737,"သံတမန်":10738,"ယင်းအား</w>":10739,"မရှိပါ</w>":10740,"တာဝန်ယူ</w>":10741,"ဖြန့်ဝေ":10742,"ချိုးဖောက်":10743,"ဂန့်ဂေါမြို့နယ်</w>":10744,"သဟာ":10745,"ဦးစိန်":10746,"တောရ":10747,"စစ်တပ်</w>":10748,"အတန်း</w>":10749,"တစ်ခုလည်း</w>":10750,"ကျော်စွာ":10751,"နိဿ":10752,"သင်ကြားခဲ့သည်</w>":10753,"ဗိုလ်ချုပ်အောင်ဆန်း</w>":10754,"ous</w>":10755,"ode</w>":10756,"အနှံ့အပြား":10757,"ခရုပတ်":10758,"သင်္ချာ</w>":10759,"IA":10760,"Man":10761,"so</w>":10762,"ဒု</w>":10763,"၂ဝဝ</w>":10764,"ပါယ်</w>":10765,"မိစ္ဆာ":10766,"ခွာ</w>":10767,"လျှော":10768,"မွန်းရွာ</w>":10769,"တိုက်ခတ်":10770,"အဆုံး</w>":10771,"ချောင်းဝရွာ</w>":10772,"အကျိုး</w>":10773,"အမှူး":10774,"ဆောက်တည်":10775,"tab":10776,"အနောက်မြောက်":10777,"ဖြစ်ပွားခဲ့သည်</w>":10778,"အမျိုးမျိုးသော</w>":10779,"ဘောလုံးအသင်း</w>":10780,"လူသိများသည်</w>":10781,"သုတ်သင်":10782,"မလေးရှား</w>":10783,"အဖြူရောင်":10784,"Su":10785,"yl":10786,"မနာ":10787,"ဟေး":10788,"ချပ်</w>":10789,"အသုံး</w>":10790,"နှင့်တစ်":10791,"နှင့်စပ်လျဉ်း</w>":10792,"ကျောင်းသို့</w>":10793,"ကျောင်းတိုက်</w>":10794,"ပန်းပု":10795,"ဟုဆိုသည်</w>":10796,"အထက်ပါ":10797,"ကြမ်းတမ်း":10798,"နာဂကိုယ်ပိုင်အုပ်ချုပ်ခွင့်ရဒေသ</w>":10799,"အကြွင်း":10800,"နိုင်ပါတယ်</w>":10801,"၁၉၁၈</w>":10802,"နေထိုင်ခဲ့သည်</w>":10803,"ဒေသနှင့်</w>":10804,"အရေးပေါ်":10805,"ရည်ရွယ်</w>":10806,"တည်းဟူသော</w>":10807,"အမှုဆောင်</w>":10808,"အာကာသ</w>":10809,"ဖရူဆိုမြို့နယ်</w>":10810,"kh":10811,"ဂိတ်":10812,"ပြည်တော်":10813,"အစရှိသည့်</w>":10814,"ခွင်</w>":10815,"မင်းတို့</w>":10816,"နယ်မှ</w>":10817,"ကိုယ်ရေး":10818,"ပန်ရွာ</w>":10819,"မြောက်မြား":10820,"အလုပ်ကို</w>":10821,"ထိပ်</w>":10822,"ညှပ်":10823,"အင်ပါယာ</w>":10824,"Pr":10825,"Yar</w>":10826,"ple</w>":10827,"ထကြွ":10828,"သလောက်":10829,"သစ္စာ</w>":10830,"ရှဲ":10831,"ကျနော်":10832,"လျောက်":10833,"ရပ်ဆိုင်း":10834,"ကျောက်စာ</w>":10835,"ပြုလုပ်ကြသည်</w>":10836,"138":10837,"ish</w>":10838,"ပြည်နယ်နှင့်</w>":10839,"သီချင်းများ</w>":10840,"မောင်းထောင်း":10841,"avy</w>":10842,"အာဖရိကတိုက်":10843,"အထင်ရှား":10844,"ကျွန်းဆွယ်</w>":10845,"မချမ်းဘော":10846,"ညစ်ညမ်း":10847,"Ro":10848,"မတတ်":10849,"လမု":10850,"ရွာသွန်း":10851,"ရွာဟောင်းရွာ</w>":10852,"သောအားဖြင့်</w>":10853,"၁၉၂၃</w>":10854,"သည်ဖြစ်</w>":10855,"တရက်</w>":10856,"ကိုယ်စား</w>":10857,"ဘာသာရပ်</w>":10858,"ခွင့်ကို</w>":10859,"နစ်နာ":10860,"ပူဇ":10861,"ရိုသေ":10862,"တော်မူခြင်း</w>":10863,"ထမ်းရွက်":10864,"ဆံတော်":10865,"နိုင်ငံရေးသမား":10866,"မသိရ":10867,"112":10868,"301":10869,"king</w>":10870,"စလုံး</w>":10871,"ဖစ်":10872,"အပန်း":10873,"ပုံရိပ်":10874,"ပြီးသောအခါ</w>":10875,"ချက်သည်</w>":10876,"ပတ်လည်</w>":10877,"ဗီဇ":10878,"use</w>":10879,"အမှုထမ်း</w>":10880,"ဖြန့်ဖြူး":10881,"လက်အောက်ခံ</w>":10882,"ရှင်းလင်းချက်</w>":10883,"မူးယစ်":10884,"အတိုက်အခံ":10885,"နျူကလီးယား":10886,"ကန်ပက်လက်မြို့နယ်</w>":10887,"ရှပ်":10888,"မှုအား</w>":10889,"ထိုနှစ်</w>":10890,"နိုင်ငံများနှင့်</w>":10891,"သက်တမ်း</w>":10892,"မည်သော</w>":10893,"ung":10894,"မန္တလေးခရိုင်</w>":10895,"ဟန်ဂေ":10896,"မြတ်စွာဘုရားအား</w>":10897,"သတိပြု":10898,"တစ်ရပ်ကို</w>":10899,"စစ်ဆင်ရေး</w>":10900,"ခဲ့သူဖြစ်သည်</w>":10901,"ခီ":10902,"စန်":10903,"ဒဂုံ":10904,"ဓိ</w>":10905,"ဖန့်":10906,"အလွှာ":10907,"တ်ရွာ</w>":10908,"ပါစေ</w>":10909,"တစ်ချို့":10910,"တည်နေရာ</w>":10911,"ထွေး</w>":10912,"မှတ်ချက်</w>":10913,"သက်ဝင်":10914,"ဖျက်</w>":10915,"ဓာတ်ငွေ့</w>":10916,"ခိုင်မြဲ":10917,"အမျိုးသားဒီမိုကရေစီ":10918,"၁၉၃၂</w>":10919,"ဇွန်လတွင်</w>":10920,"ဝေးကွာ":10921,"ခိဘူတာ</w>":10922,"လိုက်နာစောင့်ထိန်း":10923,"စပ်လျဉ်း":10924,"လျှက်ရှိသည်</w>":10925,"အမြောက်အမြား</w>":10926,"အတ္တလန္":10927,"Fl":10928,"စဲ":10929,"ဇန္ဒ":10930,"နဂါ":10931,"သန်</w>":10932,"၊၊</w>":10933,"လူတိုင်း":10934,"ကုန်းမြေ":10935,"ပေါ</w>":10936,"၁၉၃၁</w>":10937,"အလှန်</w>":10938,"လေကြောင်းလိုင်း</w>":10939,"ဖြန့်ချိခဲ့သည်</w>":10940,"ဦးကျော်လှ</w>":10941,"ကေအင်န်ဒီ":10942,"အပြန်အလှန်":10943,"ဘင်္ဂလားဒေ့":10944,"နှက်":10945,"ရာတွင်လည်း</w>":10946,"တစ်နေရာ":10947,"စေရန်အတွက်</w>":10948,"တပ်သား":10949,"ပြန်လေသည်</w>":10950,"ချက်ပြုတ်":10951,"တစ်ခုနှင့်</w>":10952,"ခေတ်သစ်</w>":10953,"အမှီ":10954,"တည်ရှိနေ":10955,"ays</w>":10956,"အကြိမ်ကြိမ်</w>":10957,"ubl":10958,"အလုံးစုံ":10959,"ဖားကန့်မြို့နယ်</w>":10960,"ith":10961,"ဂဠု":10962,"ဆမ်":10963,"ဇောင်း":10964,"လန်း</w>":10965,"။(</w>":10966,"မှောက်</w>":10967,"ထားသဖြင့်</w>":10968,"တရားလွှတ်တော်":10969,"ဖော်ပြ</w>":10970,"အင်းစိန်":10971,"တစ်ဦးအဖြစ်</w>":10972,"လောင်းလုံး":10973,"ဟွန်း":10974,"အခန်းကဏ္ဍ":10975,"ဗိုလ်မှူးကြီး":10976,"စီမံခန့်ခွဲမှု":10977,"ဒဿန":10978,"အကျယ်အဝန်းမှာ</w>":10979,"အငြိမ့်":10980,"စာနယ်ဇင်း":10981,"ရွှေတိဂုံ":10982,"ဝံ့":10983,"ကျသည်</w>":10984,"ဦးစံ":10985,"ရေးဆိုင်ရာ</w>":10986,"လုပ်ကိုင်</w>":10987,"ဒေဝီ":10988,"သို့လည်းကောင်း</w>":10989,"ချက်ကို":10990,"စနစ်ဖြင့်</w>":10991,"ခိုရွာ</w>":10992,"701504</w>":10993,"အထွက်":10994,"သနပ်ပင်မြို့နယ်</w>":10995,"Burma</w>":10996,"အိဘ်နေ":10997,"တကူ":10998,"ယနေ့</w>":10999,"ရုန်း":11000,"ဝမ်</w>":11001,"ကြွ</w>":11002,"ရွာကို</w>":11003,"တည်မြဲ":11004,"စာမူ":11005,"သူတို့ကို</w>":11006,"ပြုသော</w>":11007,"ပေးရန်":11008,"ဆက်သ":11009,"ပွဲတော်ကို</w>":11010,"ထို့ကြောင့်":11011,"အင်္ဂါ</w>":11012,"သင်္ခါ":11013,"သမီးတော်":11014,"မြင်းမူ":11015,"ပါတီသည်</w>":11016,"အမြစ်</w>":11017,"အချက်အချ":11018,"အတွက်လည်း</w>":11019,"ပိုးမွှား":11020,"ဆန်းရွာ</w>":11021,"Myo</w>":11022,"ဖြည့်စွက်":11023,"အနှံ့အပြား</w>":11024,"ဂန့်ဂေါခရိုင်</w>":11025,"ခလုတ်":11026,"ဂီ</w>":11027,"ရင့်</w>":11028,"don</w>":11029,"သည်ဟူ</w>":11030,"တောင်ကိုရီးယား":11031,"တင်သည်</w>":11032,"အဆီး":11033,"သုဝဏ္ဏ":11034,"လုံ့":11035,"ရည်ကို</w>":11036,"ကမ်းလှမ်း":11037,"ဩဂုတ်လတွင်</w>":11038,"\",</w>":11039,"Cor":11040,"El":11041,"အက်</w>":11042,"အငွေ့":11043,"၈ခုနှစ်</w>":11044,"မြင်း</w>":11045,"ရှိနေသည်</w>":11046,"ဦးမောင်":11047,"ခြင်းတို့ကြောင့်</w>":11048,"နေထိုင်သော</w>":11049,"ပျစ်":11050,"ရပ်တန့်":11051,"1800":11052,"စီးရီး":11053,"အဖွဲ့များ</w>":11054,"နီလာ":11055,"တရားစွဲ":11056,"လုပ်ငန်းနှင့်</w>":11057,"ရေးသားပြုစု":11058,"ဧပြီလ":11059,"ဆန့်ကျင်ရေး</w>":11060,"ငါ့သျှင်":11061,"လဟယ်မြို့နယ်</w>":11062,"စတစ်":11063,"ဒိတ်":11064,"သက":11065,"။.</w>":11066,"များအကြား</w>":11067,"ဖြစ်စဉ်</w>":11068,"ဦးပု":11069,"ဦးချစ်":11070,"နိုင်မည့်</w>":11071,"ပြည်လုံး":11072,"သာဒ်":11073,"နိုင်ငံပေါင်း</w>":11074,"ရောက်သည်</w>":11075,"သုံးမျိုး":11076,"သစ်ကို</w>":11077,"အတက်":11078,"လေ့ရှိ</w>":11079,"အရှေ့ပိုင်း</w>":11080,"စောင့်</w>":11081,"ရှင်းပြ":11082,"ဗီယက်</w>":11083,"ဆောင်းပါး</w>":11084,"အဲဘူတာ</w>":11085,"ဒီဇင်ဘာလတွင်</w>":11086,"စီရင်စု</w>":11087,"mod":11088,"နွေး</w>":11089,"သတိပေး":11090,"မှီခို":11091,"တစ်ခုတည်းသော</w>":11092,"အပြန်အလှန်</w>":11093,"မိမိကိုယ်ကို</w>":11094,"တုတ်</w>":11095,"ဥမင်":11096,"ထိုနည်း":11097,"ယူနန်":11098,"အာဇာန":11099,"မြစ်ကို</w>":11100,"အိမ်ခြေ</w>":11101,"နိကာ":11102,"တရုတ်ပြည်သူ့":11103,"တွန်းဇံ":11104,"လူ့အခွင့်အရေး":11105,"အီလက်ထရွန်":11106,"အဋ္ဌကထာ":11107,"116":11108,"310":11109,"Aw":11110,"yan</w>":11111,"ကသာ</w>":11112,"ခိယ":11113,"နဲ</w>":11114,"မရွေး</w>":11115,"ဟန်း":11116,"ခြစ်":11117,"ဦးစား":11118,"သုံးပုံ":11119,"ရရှိရန်</w>":11120,"အမည်သည်</w>":11121,"လင်ဟော်":11122,"တွေရဲ့</w>":11123,"သတ္တမ":11124,"စမ်းရွာ</w>":11125,"ဒွါ":11126,"လက်ရှိတွင်</w>":11127,"minor</w>":11128,"စ္စတန်</w>":11129,"ao</w>":11130,"ငဲ့":11131,"စောင်း</w>":11132,"ဏု":11133,"ဝမ်း</w>":11134,"အိ</w>":11135,"များအား":11136,"လေသာ":11137,"လက်ဝါး":11138,"ဝန်ခံ":11139,"တပ်များကို</w>":11140,"ဆွယ်":11141,"တရားမ":11142,"ခန်းမ":11143,"အမြင်</w>":11144,"ome</w>":11145,"လုပ်ကိုင်ကြသည်</w>":11146,"မချမ်းဘောမြို့နယ်</w>":11147,"Coun":11148,"ညံ":11149,"ဝီး":11150,"အခေါက်":11151,"ကျရွာ</w>":11152,"လူပေါင်း</w>":11153,"ဘာ့":11154,"အလုံ":11155,"လဲလှယ်":11156,"အကြောင်းရင်း":11157,"ဖမ်းယူ":11158,"အနက်မှ</w>":11159,"ကနေဒါ</w>":11160,"were</w>":11161,"မပြုလုပ်":11162,"နိုင်ကြသည်</w>":11163,"တို့ကား</w>":11164,"ရေပန်း":11165,"မာလ":11166,"၁၉၂၄</w>":11167,"အာပတ်":11168,"ချက်တွင်</w>":11169,"တစ်ခုနှင့်":11170,"ပေါင်းရွာ</w>":11171,"ဝေသာ":11172,"အမည်ရင်းမှာ</w>":11173,"ကိုးကား":11174,"သတ်မှတ်သည်</w>":11175,"စနစ်သည်</w>":11176,"လောင်ဂျီ":11177,"အတူတူ":11178,"ရှုံးနိမ့်":11179,"သင်ယူခဲ့သည်</w>":11180,"ကျေနပ်":11181,"ဒီး</w>":11182,"ဒွန်":11183,"နှိပ်</w>":11184,"နိုင်မည်</w>":11185,"တည်ထောင်</w>":11186,"စာဖြူ":11187,"အစပြု</w>":11188,"ဒေသနာ":11189,"ပြီးတော့</w>":11190,"ကျောင်းအုပ်":11191,"အောင်မြင်</w>":11192,"ချောင်းဖျားရွာ</w>":11193,"ဘီအေ</w>":11194,"ဋ္ဌာန်":11195,"ဂရိ</w>":11196,"မော်လမြိုင်</w>":11197,"ound</w>":11198,"တော်လှန်ရေးကောင်စီ":11199,"သင်္ကေတ</w>":11200,"Java</w>":11201,"ဂင်":11202,"ဘောင်</w>":11203,"ကျဲ":11204,"ချာ</w>":11205,"ကိုမ":11206,"ကြီးမှ</w>":11207,"ပြည်မှ</w>":11208,"နှစ်အရွယ်":11209,"အစီး":11210,"တာရာ":11211,"စားပွဲ":11212,"ပြီးဖြစ်သည်</w>":11213,"လိုက်လံ":11214,"တရားဟော":11215,"မိုးလေ":11216,"ဖန်ဆင်း":11217,"MMR00600":11218,"ရုပ်ရှင်ဇာတ်ကား":11219,"နံ့သာ":11220,"University</w>":11221,"ပိ</w>":11222,"အဲ</w>":11223,"များပါဝင်သည်</w>":11224,"ဆိုကာ</w>":11225,"အမိုး":11226,"တင်ရွာ</w>":11227,"အကြင်":11228,"တစ်ခုလုံး</w>":11229,"အရဟ":11230,"မန်နေ":11231,"အသုံးပြုရန်</w>":11232,"၁၂၀</w>":11233,"ဟာသ":11234,"အကြောင်းကြား":11235,"ream</w>":11236,"ata</w>":11237,"ဘားမား":11238,"သံဖြူဇရပ်":11239,"Aung</w>":11240,"pe":11241,"မထွက်":11242,"ပြုကြသည်</w>":11243,"ဆင်သည်</w>":11244,"ရရှိသည့်</w>":11245,"တွေ့ရှိခဲ့သည်</w>":11246,"လိုင်ရွာ</w>":11247,"ဘေးအန္တရာယ်":11248,"အလိုအလျောက်</w>":11249,"အလားတူ":11250,"ဟင်္သာတ":11251,"အမြောက်အမြား":11252,"လင်ဟော်မြို့နယ်</w>":11253,"gu":11254,"od</w>":11255,"ကရု":11256,"ဆွ</w>":11257,"တမျိုး":11258,"ဖြစ်သူ":11259,"နေမျိုး":11260,"တစ်ဆယ့်":11261,"ဆိုဗီယက်</w>":11262,"မိတ္တ":11263,"၁၈၄":11264,"ကန်သည်</w>":11265,"ဆရာမ</w>":11266,"အသုံးပြုနိုင်သည်</w>":11267,"ဓာတ်တော်":11268,"မုန်း</w>":11269,"သရုပ်ဆောင်ခဲ့သည်</w>":11270,"ကြုံတွေ့":11271,"ဘီလီယံ</w>":11272,"ဝတ္တု":11273,"လောင်းလုံးမြို့နယ်</w>":11274,"tor":11275,"ခိ</w>":11276,"ါး</w>":11277,"ဦးနှင့်</w>":11278,"သည်ဖြစ်စေ</w>":11279,"တိုက်ရွာ</w>":11280,"ကြားခံ":11281,"နီသည်</w>":11282,"၁၇၄":11283,"ကျော်ကို</w>":11284,"နိယ":11285,"သုဉ်း":11286,"ရဟန်းတို့သည်</w>":11287,"ဆူပူ":11288,"den</w>":11289,"အားကစားကွင်း":11290,"ရုတ်တရက်</w>":11291,"အပါအဝင်ဖြစ်သည်</w>":11292,"ပညတ်တော်မူခဲ့သည့်</w>":11293,"အသက်မွေးဝမ်း":11294,"အပြင်းအထ":11295,"ဆွစ်ဇာ":11296,"အကာအကွယ်":11297,"လိုက်နာစောင့်ထိန်းရန်</w>":11298,"ကတိုး":11299,"ဒုတ်":11300,"ခဲ့ပါ</w>":11301,"ရွာတစ်":11302,"သေနာ":11303,"ထားသော်လည်း</w>":11304,"လက်ရွေး":11305,"ရွှေနန်း":11306,"ကောင်းသည်</w>":11307,"တစ်ခုဖြစ်သော</w>":11308,"မုခ်":11309,"ကျင်းပသည့်</w>":11310,"ခဲ့ကြရာ</w>":11311,"ခိုလှုံ":11312,"ဇွန်လ":11313,"ရွေးကောက်တင်မြှောက်":11314,"ပြသခဲ့သည်</w>":11315,"ဂျာမန်</w>":11316,"အထိမ်းအမှတ်</w>":11317,"ခန္တီးမြို့နယ်</w>":11318,"board</w>":11319,"ဩစတြေးလျ</w>":11320,"120":11321,"Eur":11322,"တကွ":11323,"ချော်":11324,"ရေတံခွန်</w>":11325,"အသောက်":11326,"အထည်</w>":11327,"စေရမည်</w>":11328,"ယာမ</w>":11329,"အာနိ":11330,"ပြီးနောက်":11331,"အချိန်ကာလ":11332,"သေးချေ</w>":11333,"မွေးချင်း</w>":11334,"ခြေမြန်":11335,"ပါတီကို</w>":11336,"ဖူးသည်</w>":11337,"17015":11338,"ade</w>":11339,"ပျောက်ကင်း":11340,"မင်းတပ်ခရိုင်</w>":11341,"MMR01501":11342,"ခရုပတ်ပုံစံ</w>":11343,"စစ္စ":11344,"ထယ်":11345,"ဒလ":11346,"ခဲ့ဘူး":11347,"ရွာမှ</w>":11348,"ခြင်းပင်</w>":11349,"မင်းခေါင်":11350,"ဒါး</w>":11351,"အနေနဲ့</w>":11352,"ထက်မ":11353,"သက္ကရာဇ်":11354,"မိန့်ခွန်း":11355,"တိမ်ကောသွားသည်</w>":11356,"သဘင်</w>":11357,"ood</w>":11358,"အသေးစိတ်":11359,"အဖိုးတန်":11360,"Dis":11361,"ject</w>":11362,"sec":11363,"ur</w>":11364,"ဘရာ":11365,"အအိ":11366,"၌၎</w>":11367,"ချည်း":11368,"ပါရွာ</w>":11369,"တို့ကလည်း</w>":11370,"ဘာဝ":11371,"ပင်များကို</w>":11372,"သွားသောအခါ</w>":11373,"အများစု</w>":11374,"ဝီလီ":11375,"တေးဂီတ":11376,"နွေရာသီ</w>":11377,"အီတလီ</w>":11378,"ပင့်ဆောင်":11379,"အရေးကြီးသော</w>":11380,"အလားတူ</w>":11381,"သခင်သန်းထွန်း":11382,"လှသဖြင့်</w>":11383,"ဂျပ်":11384,"ဂျယ်":11385,"ပုံတစ်ခု</w>":11386,"ပိုင်းကို</w>":11387,"ဖက်မှ</w>":11388,"စာပေများ</w>":11389,"ကန့်လန့်":11390,"ဧပြီလတွင်</w>":11391,"တောင့်တင်း":11392,"မစ္စတာ":11393,"China</w>":11394,"Tim":11395,"ti</w>":11396,"အမ်း":11397,"င်းတို့ကို</w>":11398,"ကြီးများသည်</w>":11399,"ရေအား":11400,"ရေကျော်</w>":11401,"၂၀၄":11402,"မှုမှ</w>":11403,"ခံနိုင်":11404,"စာရင်းအရ</w>":11405,"anc":11406,"ဆင်ဆာ":11407,"109":11408,"တန်ဖိုး</w>":11409,"ဗျိုင်း":11410,"ချိန်မှာ</w>":11411,"မြို့နယ်ရှိ</w>":11412,"ယနေ့တိုင်</w>":11413,"အဆုံးအ":11414,"ဗဟုသုတ":11415,"ရွှေကူမြို့နယ်</w>":11416,"Bro":11417,"ကထောင်ရွာ</w>":11418,"ထနောင်း":11419,"မောင်း</w>":11420,"အယောင်":11421,"ကျော့":11422,"ဖြစ်ပျက်":11423,"ရှိန်</w>":11424,"ကိုလိုက်</w>":11425,"အကြေး":11426,"ဆိုင်ရွာ</w>":11427,"အလတ်":11428,"ကျော်ထင်":11429,"လင်းကျေးရွာအုပ်စု</w>":11430,"သတ်မှတ်ထားသည်</w>":11431,"ဘဝနှင့်</w>":11432,"ဝင်ရောက်ခဲ့သည်</w>":11433,"လေကြောင်းလိုင်း":11434,"အတိုကောက်</w>":11435,"ဘုတ်ပြင်းမြို့နယ်</w>":11436,"Bud":11437,"tur":11438,"yin</w>":11439,"စမတ်":11440,"နိုး</w>":11441,"မသည်</w>":11442,"၂၁၉":11443,"၆၀၀</w>":11444,"၏)။</w>":11445,"မြို့ရွာ":11446,"ဦးလှ":11447,"ရေယာဉ်":11448,"လက်ဝှေ့":11449,"ပြုပြီး</w>":11450,"တိုက်ရိုက်</w>":11451,"သုံးသည်</w>":11452,"သုံးဆယ်":11453,"ကျောက်တန်း":11454,"အောင်သည်</w>":11455,"အောင်ပွဲ":11456,"ခေါင်းရွာ</w>":11457,"နမ့်ဟူး":11458,"အထက်တန်း</w>":11459,"ခံရခြင်း</w>":11460,"လောကသို့</w>":11461,"ထိန်းသိမ်းစောင့်ရှောက်":11462,"အစ်ကို</w>":11463,"နရပတိ":11464,"Amer":11465,"စင်း</w>":11466,"ညနေ":11467,"ကြရလေသည်</w>":11468,"ကျိန်":11469,"ပြုမူ":11470,"ယူကာ</w>":11471,"ခုနှစ်များတွင်</w>":11472,"ရန်သူ</w>":11473,"တပ်များသည်</w>":11474,"182":11475,"ကျောက်ဖြူ":11476,"လုပ်ငန်းများတွင်</w>":11477,"စိတ္တ":11478,"ကွဲရွာ</w>":11479,"ကိုယ်စားပြု</w>":11480,"ဈေးနှုန်း":11481,"ဇေယျ</w>":11482,"ပြည်တွင်းစစ်":11483,"hy":11484,"ဂရင်း":11485,"များမှာလည်း</w>":11486,"ပြုပြင်</w>":11487,"လေးပါး</w>":11488,"အရသာ</w>":11489,"စည်သူ</w>":11490,"သိပ္ပံပညာ":11491,"၁၈၈၅</w>":11492,"တုန်းက</w>":11493,"ထိုအချိန်မှစ</w>":11494,"အဘိဓမ္မာ":11495,"ချိုင့်ဝှမ်း":11496,"ရုပ်မြင်သံကြား":11497,"အပြုအမူ":11498,"အင်္ကျီ":11499,"ဗီးယား":11500,"မှိန်":11501,"တစ်ဖန်":11502,"လူဝီ":11503,"နှစ်များတွင်</w>":11504,"ဖွင့်</w>":11505,"ပင်ဖြစ်</w>":11506,"နောက်လိုက်":11507,"ယင်းတို့သည်</w>":11508,"ဆီမီး":11509,"ပြည့်ဝ":11510,"ငါးရာ":11511,"207":11512,"ဝီလျံ":11513,"သိပ္ပံပညာရှင်":11514,"လက်အောက်ခံ":11515,"ဗားရှင်း":11516,"ဟီရို":11517,"အချုပ်အခြာ":11518,"Nyaung</w>":11519,"ology</w>":11520,"မောင်းထောင်းဦးကျော်လှ</w>":11521,"\"(</w>":11522,"Cen":11523,"ဇိုင်း":11524,"ကျိပ်":11525,"ဦးတွင်</w>":11526,"ဦးသိန်း":11527,"လာအောင်</w>":11528,"နိုင်ငံ့":11529,"မင်းကို</w>":11530,"ကာရ":11531,"ခုနှစ်မှာ</w>":11532,"တပ်ရွာ</w>":11533,"any</w>":11534,"ပြောင်းရွှေ့</w>":11535,"မှူးအဖြစ်</w>":11536,"ခေါင်းဆောင်များ</w>":11537,"ထေရဝါဒ":11538,"နာမည်ကြီး":11539,"ands</w>":11540,"သပိတ်မှောက်":11541,"ဖော်ပြထားပါသည်</w>":11542,"ဝိသေသ":11543,"ဒသမ</w>":11544,"Bar":11545,"င္":11546,"ဓနု</w>":11547,"ယု</w>":11548,"ရကား</w>":11549,"ပြောင်</w>":11550,"စစ်ရေး</w>":11551,"မီနီ":11552,"ဟုခေါ်</w>":11553,"သင်ပုန်း":11554,"စတိုး":11555,"ကွန်ဂရက်":11556,"ဇာတ်လမ်း</w>":11557,"ဆောင်ရွက်ပေး":11558,"သဘောကို</w>":11559,"500</w>":11560,"သဒ္ဓါ":11561,"ဒုက္ခသည်":11562,"ပေါက်ရောက်သည်</w>":11563,"အစီရင်ခံစာ":11564,"ကွာဝေးသည်</w>":11565,"မဇ္ဈိ":11566,"OS</w>":11567,"Rec":11568,"SA</w>":11569,"dh":11570,"les</w>":11571,"၁၉၂၂</w>":11572,"တိဗက်":11573,"အိရှိ":11574,"အရှုံး":11575,"နွား</w>":11576,"မရှိခဲ့ပေ</w>":11577,"သတ္တု</w>":11578,"ယုဒ":11579,"ဒေါင့်ရွာ</w>":11580,"Ge":11581,"လဲ့":11582,"ဟန့်":11583,"ရှိသော်</w>":11584,"တစ်ပတ်":11585,"အောင်မြေ":11586,"လိုက်ပြီး</w>":11587,"ဘွတ်":11588,"ပထမကမ္ဘာစစ်":11589,"ဖြတ်တောက်":11590,"ရုံမျှ":11591,"ဘုရင်များ</w>":11592,"ပြည်ထောင်စုတွင်</w>":11593,"ရောဂါကို</w>":11594,"ခဲယ":11595,"ဂွန်း":11596,"လက်ထက်က</w>":11597,"ဥရောပတိုက်</w>":11598,"အဖွဲ့ဝင်အဖြစ်</w>":11599,"အင်္ဂလန်နိုင်ငံ</w>":11600,"အာဖရိကတိုက်</w>":11601,"သက်သေခံ":11602,"ရှားတောမြို့နယ်</w>":11603,"John</w>":11604,"ကမ်":11605,"ကြပါတယ်</w>":11606,"ရေဒီယို</w>":11607,"သောင်</w>":11608,"အတွဲ</w>":11609,"သွားသည့်</w>":11610,"ရပ်နား":11611,"ချက်များအရ</w>":11612,"သက်တော်</w>":11613,"လမ်းရွာ</w>":11614,"နည်းစနစ်":11615,"လူမျိုးစု</w>":11616,"တောင်းခံ":11617,"ကြွယ်</w>":11618,"ကင်းဒ":11619,"ဘိသိ":11620,"ဟိမဝ":11621,"ဇီးပင်":11622,"ဒြဗ်":11623,"ဗိမာန်</w>":11624,"ဇွန်း":11625,"နှောင်းပိုင်း":11626,"ကွေ့ရွာ</w>":11627,"ဘန့်ဘွေး":11628,"Jap":11629,"ate":11630,"၏”</w>":11631,"ပြူ":11632,"ပြဇာတ်</w>":11633,"ရာနေရာ":11634,"သေ့</w>":11635,"ခုမြောက်</w>":11636,"လူတစ်ဦး":11637,"သားများသည်</w>":11638,"နည်းမှာ</w>":11639,"ဘာသာကို</w>":11640,"လေ့ရှိပြီး</w>":11641,"ထို့နောက်":11642,"ကမ်းပါး":11643,"ဆီးချို":11644,"နိုဝင်ဘာလတွင်</w>":11645,"ထန်တလန်":11646,"ဘောလုံးသမား</w>":11647,"out</w>":11648,"ကုန်သွယ်ရေး":11649,"ress</w>":11650,"ဘရာဇီး":11651,"Bri":11652,"af":11653,"စတော့":11654,"မပျက်":11655,"ကြည်း":11656,"ခြင်းအတွက်</w>":11657,"ဇာတိ</w>":11658,"နိသ":11659,"ပြုလုပ်ခြင်း</w>":11660,"စိုက်ထူ":11661,"ကြည်လင်":11662,"အမေရိကန်နိုင်ငံ</w>":11663,"ထိပ်တန်း":11664,"ကုမ္ပဏီမှ</w>":11665,"able</w>":11666,"ထားဝယ်မြို့နယ်</w>":11667,"အမိန့်</w>":11668,"ဒေဝီ</w>":11669,"မိုးကောင်းမြို့နယ်</w>":11670,"အလ္လာဟ်":11671,"ဖာပွန်ခရိုင်</w>":11672,"တွန်းဇံမြို့နယ်</w>":11673,"ထိတ်":11674,"မထင်":11675,"အပါ":11676,"အဖို":11677,"ကြောင်</w>":11678,"ခဲ့သည်ကို</w>":11679,"ဦးသာ":11680,"စစ်တရားရုံး":11681,"နာဇီ":11682,"နယ်ကို</w>":11683,"ကောင်းသော":11684,"အောင်နိုင်":11685,"မည်ဖြစ်ကြောင်း</w>":11686,"အသုံးအဆောင်":11687,"အပြိုင်":11688,"ချင်းစီ":11689,"၁၉၆ဝ</w>":11690,"ရောဂါများ</w>":11691,"အနည်းဆုံး":11692,"ပျောက်ဆုံး":11693,"ညီညွတ်ရေး":11694,"ကြောက်ရွံ့":11695,"Kaw":11696,"ပြည်ကို</w>":11697,"၁၉၂၇</w>":11698,"၁၉၂၈</w>":11699,"ထွတ်":11700,"အသုံးမပြု":11701,"အသုံးပြုခြင်း</w>":11702,"ရဲတပ်ဖွဲ့":11703,"ငွေကြေး</w>":11704,"မဟာဓမ္မ":11705,"ကြောင်းနှင့်</w>":11706,"လက်နက်ကိုင်</w>":11707,"ပုဂံခေတ်":11708,"ဇာတ်လမ်းတွဲ</w>":11709,"ညနေ</w>":11710,"သပြု":11711,"၌၊</w>":11712,"မြား</w>":11713,"ရေချို":11714,"သည်တွင်</w>":11715,"ပုတီး":11716,"ယူဇ":11717,"သည့်အခါတွင်</w>":11718,"မြစ်ဖျား":11719,"အပြော":11720,"မရှိတော့":11721,"ရဲဘော်</w>":11722,"တော်မူလေသည်</w>":11723,"တာဝန်များ</w>":11724,"သရက်ကုန်းရွာ</w>":11725,"ကဗျာကို</w>":11726,"မကြာသေး":11727,"ရုပ်ပွားတော်</w>":11728,"ဂျာမနီနိုင်ငံ</w>":11729,"မီလီယံ":11730,"ရေနွေးငွေ့":11731,"ဖက်ဒရယ်":11732,"တလျှောက်</w>":11733,"ရပါတယ်</w>":11734,"အပျို":11735,"နိုင်ငံများသို့</w>":11736,"တောင်ကျေးရွာအုပ်စုတွင်</w>":11737,"န္တ</w>":11738,"အားကိုး":11739,"ရက်စွဲ":11740,"သွားကာ</w>":11741,"ကိုယ်ထည်":11742,"ဘောလခဲ":11743,"ဗြာ":11744,"နိုဘူတာ</w>":11745,"ဗြိတိန်</w>":11746,"အရင်းရှင်":11747,"အစ္စလာမ်</w>":11748,"ဖိလစ်ပိုင်</w>":11749,"သီအိုရီ</w>":11750,"အနှံ့</w>":11751,"စိ</w>":11752,"တဒ":11753,"ပမာ</w>":11754,"အဆ</w>":11755,"နေကြောင်း</w>":11756,"နိုင်ပါ</w>":11757,"စစ်ကိုင်း</w>":11758,"art</w>":11759,"ပန်းရွာ</w>":11760,"နိက":11761,"သီးခြား</w>":11762,"မိုဟာ":11763,"မဟာယာ":11764,"ဗျား":11765,"သတင်းထောက်":11766,"ကျမ်းတွင်</w>":11767,"ပြည်နယ်သည်</w>":11768,"ခဲ့ကြရသည်</w>":11769,"ဝက်ဘ်":11770,"ကေအိုင်အေ":11771,"ယွန်း</w>":11772,"ဋ္ဌာန်း</w>":11773,"ရာထူးမှ</w>":11774,"ရေငုပ်":11775,"Qu":11776,"စပ":11777,"မလိုက်":11778,"သလင်း":11779,"ရှိလာ":11780,"ပါစိတ်":11781,"ကြီးစိုး":11782,"နိုင်ငံအတွင်း</w>":11783,"ပေးကာ</w>":11784,"ကုန်းပြင်":11785,"ချောင်းဆုံ":11786,"ကိုးကန့်":11787,"ရွေးချယ်</w>":11788,"ခဲ့ရသော</w>":11789,"သီချင်းကို</w>":11790,"ခမ်းနား":11791,"များနှင့်အညီ</w>":11792,"တခါတရ":11793,"သမဝါယမ":11794,"my</w>":11795,"မြို့များ</w>":11796,"လွန်း</w>":11797,"တောခို":11798,"ဂျ်":11799,"အတိုင်":11800,"203</w>":11801,"အဝေါ":11802,"250</w>":11803,"ကျင်းပသည်</w>":11804,"ညွှန်း</w>":11805,"ပိုးသတ်":11806,"မင်းသားသည်</w>":11807,"အဝတ်အစား":11808,"အွန်လိုင်း":11809,"တဘူတာ</w>":11810,"သပ":11811,"၈ဝ</w>":11812,"၁၉၁၉</w>":11813,"လက်ပ":11814,"ခွက်</w>":11815,"တွင်းထွက်":11816,"ကလေးသည်</w>":11817,"သိမ်းသွင်း":11818,"တစ်မျိုးကို</w>":11819,"ငြားအံ့</w>":11820,"တိရိစ္ဆာန်":11821,"ဝတ္":11822,"ကြော</w>":11823,"ရာမှာ</w>":11824,"နိုင်ရန်":11825,"ဖွဲ":11826,"သိဒ္ဓ":11827,"အရှည်</w>":11828,"ဆရာအဖြစ်</w>":11829,"မီးသတ်":11830,"ဆာလ":11831,"မိုဘိုင်း":11832,"အချိန်ဇုန်</w>":11833,"စာပေနှင့်</w>":11834,"ဝတ်ပြု":11835,"မြို့နယ်နှင့်</w>":11836,"MMR01600":11837,"ပွင့်လင်း":11838,"လုပ်ဆောင်ခဲ့သည်</w>":11839,"ကလပ်</w>":11840,"ချွန်</w>":11841,"နှုတ်သီး":11842,"သွင်ပြင်":11843,"ပြင်းထန်သော</w>":11844,"ဗြဟ္မ":11845,"ဗမာပြည်ကွန်မြူနစ်ပါတီ</w>":11846,"အသိုင်းအဝိုင်း":11847,"ဇမ္ဗူ":11848,"230":11849,"National</w>":11850,"ခွ</w>":11851,"ဂြ":11852,"ဆံ</w>":11853,"ဖုံ":11854,"ယန်း</w>":11855,"ဤအက်ဥပဒေ":11856,"၅၉":11857,"များပါ</w>":11858,"စုဝေး":11859,"နှစ်ကြာ":11860,"ထိုသူ":11861,"ကုန်းကြီးရွာ</w>":11862,"အဆိုး":11863,"ဘုရားကျောင်း</w>":11864,"အပ်နှံ":11865,"ကျင်းပ</w>":11866,"စင်တာ":11867,"အက်ဒွ":11868,"ဘွဲ့ဖြင့်</w>":11869,"ကင်းလွတ်":11870,"စေတီတော်ကို</w>":11871,"၁၉၃၄</w>":11872,"ရံဖန်":11873,"ley</w>":11874,"ကောင်းမွန်သော</w>":11875,"လက္ခဏာများ</w>":11876,"အမေရိကတိုက်</w>":11877,"web</w>":11878,"အငြိမ်းစား</w>":11879,"ms</w>":11880,"စယ်":11881,"ဝိုက်</w>":11882,"အလှည့်":11883,"ပါရာ":11884,"ကုတ်</w>":11885,"လူနည်း":11886,"နှစ်ပေါင်း":11887,"မှုများတွင်</w>":11888,"သားများကို</w>":11889,"ဝင်သည်</w>":11890,"ယူပြီး</w>":11891,"တရုပ်":11892,"ပေမဲ့</w>":11893,"တတ်သည့်</w>":11894,"ဆောင်ရွက်ခြင်း</w>":11895,"ustr":11896,"ထီးလင်းမြို့နယ်</w>":11897,"ဝမ်းမြောက်":11898,"လက်ခံကျင်းပ":11899,"ရတနာပုံ</w>":11900,"ထူးခြားသော</w>":11901,"အာရုံစိုက်":11902,"စံတော်ချိန်</w>":11903,"270":11904,"ဟောက်":11905,"အက</w>":11906,"၇၀၀</w>":11907,"မြီ":11908,"မြော်":11909,"မည်မှာ</w>":11910,"လိုက်ကြသည်</w>":11911,"စက်ဝိုင်း":11912,"ဆေးတက္ကသိုလ်</w>":11913,"စကားရပ်":11914,"ထက်မြက်":11915,"မွန်ဂို":11916,"ရဟန်းတော်များ</w>":11917,"လောက်ကိုင်</w>":11918,"အကြီးအကျယ်":11919,"ကျန်စစ်သား":11920,"ဖိတ်</w>":11921,"တွေ့ရလေသည်</w>":11922,"မိဖုရားခေါင်":11923,"စာချုပ်ကို</w>":11924,"အဆင်ပြေ":11925,"အေးချမ်းသာယာ":11926,"သင်္ဃန်း":11927,"ရံဖန်ရံ":11928,"ain</w>":11929,"mp":11930,"စသဖြင့်</w>":11931,"ဆေ":11932,"ဌေး</w>":11933,"ဒန်း":11934,"မေး</w>":11935,"ကြုတ်":11936,"ရှိတဲ့</w>":11937,"၁၉၁၁</w>":11938,"ပုံများ</w>":11939,"ချက်များနှင့်</w>":11940,"လိုက်ရသည်</w>":11941,"လီယို":11942,"တန်ရွာ</w>":11943,"ရောင်ခြည်</w>":11944,"MMR01201":11945,"ခရီးသည်</w>":11946,"ငူရွာ</w>":11947,"ထန်ရွာ</w>":11948,"ဘာသာစကားကို</w>":11949,"လက်အောက်ရှိ</w>":11950,"နိဗ္ဗာန်</w>":11951,"ထီးနန်းကို</w>":11952,"သီရိလင်္ကာနိုင်ငံ</w>":11953,"Dev":11954,"TC</w>":11955,"လန်းရွာ</w>":11956,"ဝံ</w>":11957,"ဟမ္မ":11958,"ကျန":11959,"နိုင်ငံတို့</w>":11960,"အထောက်":11961,"သိင်္":11962,"ပုံများကို</w>":11963,"တက်ရောက်</w>":11964,"မြတ်သော":11965,"ပြည်နယ်ရှိ</w>":11966,"များကိုမူ</w>":11967,"MMR00400":11968,"လှေကား":11969,"စန္ဒာ":11970,"ကြွေးကြော်":11971,"မစ္စတာ</w>":11972,"အပြောင်းအလဲ":11973,"နန်</w>":11974,"မဘ":11975,"မကျေးရွာအုပ်စုတွင်</w>":11976,"အဝ</w>":11977,"အဏု":11978,"။၎</w>":11979,"tin":11980,"တော်စပ်":11981,"မျိုးမှာ</w>":11982,"ထိုခေတ်က</w>":11983,"လေးသည်</w>":11984,"လမ်းတွင်</w>":11985,"ဆရာများ</w>":11986,"ဖော်ဆောင်":11987,"မှာပဲ</w>":11988,"ပါတီမှ</w>":11989,"ဝမ်းနည်း":11990,"ဇူလိုင်လတွင်</w>":11991,"ဒဂုန်":11992,"မိုးလေဝ":11993,"Ass":11994,"Nat":11995,"ဖြစ်စေသည်</w>":11996,"နော</w>":11997,"နေလေသည်</w>":11998,"နေရှင်":11999,"တစ်ရာ</w>":12000,"၁၉၂၅</w>":12001,"ထားသည်မှာ</w>":12002,"ပုရာ":12003,"ပေါ်ထွက်လာ":12004,"ကန်တော့":12005,"ဆရာဝန်</w>":12006,"စိတ်မ":12007,"လုပ်ငန်းတွင်</w>":12008,"ပြောဆို</w>":12009,"ထူးဆန်း":12010,"ရှုမြင်":12011,"ခရိုင်ရှိ</w>":12012,"ချီးမွမ်း":12013,"angu":12014,"ရိပ်သာ":12015,"ဆင်ဖြူရှင်":12016,"ဝိန်းကောင်</w>":12017,"ပင်လယ်ရေမျက်နှာပြင်":12018,"အရောင်းအဝ":12019,"ဟော့ကိုင်းဒိုး":12020,"စာရွက်စာတမ်း":12021,")\"</w>":12022,"ဒူး</w>":12023,"မတွေ့":12024,"အညစ်":12025,"မျဉ်း</w>":12026,"ရှိသူ":12027,"မျိုးစိတ်</w>":12028,"အစရှိသည်":12029,"တာပါ</w>":12030,"စစ်တမ်း":12031,"အချမ်း":12032,"မှတ်ချက်":12033,"သုံးကြိမ်":12034,"ရွှေထီး":12035,"ပွဲဦး":12036,"တစ်ခုမှ</w>":12037,"အကျပ်":12038,"တာဝန်ခံ":12039,"300</w>":12040,"စာပေများကို</w>":12041,"ခဲ့ကြပါသည်</w>":12042,"အင်္ဂလိပ်ဘာသာဖြင့်</w>":12043,"သတ္တဝါများ</w>":12044,"တတိယမြောက်</w>":12045,"မြင့်မားသော</w>":12046,"ဒစ်ဂျစ်":12047,"Fran":12048,"စိပ်":12049,"စပါယ်":12050,"တဖက်":12051,"ယော့":12052,"ရှိနေသော</w>":12053,"နိုင်ရေးအတွက်</w>":12054,"မှုပြု":12055,"၁၉၂၁</w>":12056,"မျိုးစေ့":12057,"နိုင်ငံများမှ</w>":12058,"သစ်များ</w>":12059,"ပိုင်းဆိုင်ရာ":12060,"အသုံးပြုသည့်</w>":12061,"ရှေးက</w>":12062,"တောင်းကျေးရွာအုပ်စု</w>":12063,"အချက်ကို</w>":12064,"ငါတို့":12065,"ဝက်ဝံ":12066,"သရက်ချောင်းမြို့နယ်</w>":12067,"ခမ်းကျေးရွာအုပ်စု</w>":12068,"ညွှန်ပြ":12069,"ဂုံမင်း":12070,"လုံခြုံရေး</w>":12071,"ဖိတ်ခေါ်":12072,"ဘုရင့်နောင်":12073,"အိုင်ယာလန်":12074,"ရွေ့</w>":12075,"၁၉၂၉</w>":12076,"မျိုးဖြစ်</w>":12077,"ပန်းကန်":12078,"အတွင်းဝန်</w>":12079,"ကလေးကို</w>":12080,"ပြုလုပ်ရာ</w>":12081,"စောဒ":12082,"မုတ္တမ":12083,"အထက်တွင်</w>":12084,"ယခုခေတ်":12085,"ဝတ်စုံ":12086,"ကမ္ဘာ့အမွေအနှစ်":12087,"ဝီကီ":12088,"အမျိုးမျိုးဖြင့်</w>":12089,"လျှင်မြန်":12090,"ပုဂံခေတ်</w>":12091,"ဓမ္မာ</w>":12092,"သည်ဟုလည်း</w>":12093,"ရှေးဟောင်းသုတေသန":12094,"တမန်တော်":12095,"ရုံးစိုက်ရာမြို့မှာ</w>":12096,"ယောကျာ်း":12097,"Hta":12098,"ဘောင်း":12099,"ဟွန်":12100,"ဥပု":12101,"၅၅":12102,"နေကြသော</w>":12103,"ရှိပါ":12104,"သေဒဏ်":12105,"ရေးစပ်":12106,"လာလျှင်</w>":12107,"သွပ်":12108,"အခမဲ့":12109,"သွားခြင်း</w>":12110,"သစ်ပင်</w>":12111,"အောက်ပိုင်း":12112,"အချက်အလက်များ</w>":12113,"ငြိမ်သက်":12114,"မော်တော်ကား":12115,"which</w>":12116,"ငယ်စဉ်ကပင်</w>":12117,"တောင်သူလယ်သမား":12118,"com</w>":12119,"sy":12120,"ဘိ</w>":12121,"ဤဥပဒေ":12122,"၆၆":12123,"မြောင်ရွာ</w>":12124,"မှသာလျှင်</w>":12125,"ချခဲ့သည်</w>":12126,"များဖြစ်ပြီး</w>":12127,"၁၉၁၄</w>":12128,"လက်တက်":12129,"သို့ရောက်ရှိ":12130,"ပေးခြင်းဖြင့်</w>":12131,"စေခြင်း":12132,"မြန်မာစာ</w>":12133,"ပေါ်လွင်":12134,"နီစီ":12135,"အင်းဝ</w>":12136,"ခါဝါ":12137,"ဘုရင်မ</w>":12138,"လောင်ရွာ</w>":12139,"သင်္ဘောများ</w>":12140,"ဂုံညင်း":12141,"ဓာတုဗေဒ</w>":12142,"အဂ္ဂမဟာ":12143,"ဝိညာဉ်":12144,"ရက်ထပ်နှစ်":12145,"နိသျ</w>":12146,"gan":12147,"ငလျင်</w>":12148,"သို</w>":12149,"နိုင်သောကြောင့်</w>":12150,"ရေပူ":12151,"နှစ်လုံး":12152,"ဆိုက်</w>":12153,"ဒေသခံ</w>":12154,"ကာရွာ</w>":12155,"စေရ</w>":12156,"အဖြစ်နှင့်</w>":12157,"မဟာဝိ":12158,"ဌာနမှ</w>":12159,"မောင်သည်</w>":12160,"ကြေးငွေ":12161,"နှုတ်ခမ်း":12162,"ချို့တဲ့":12163,"မြန်မာစကားပုံတစ်ခု</w>":12164,"Group</w>":12165,"cre":12166,"ဂမုန်း":12167,"တခ":12168,"တယော":12169,"ိက":12170,"ချည်</w>":12171,"တောကြီး</w>":12172,"နိုင်ငံဖြစ်သည်</w>":12173,"မြန်မာမင်း":12174,"လယ်တီ":12175,"တာဝန်ပေးအပ်":12176,"ရမယ်</w>":12177,"အပင်များ</w>":12178,"ထိန်းသိမ်းရေး":12179,"သံဖြူဇရပ်မြို့နယ်</w>":12180,"--</w>":12181,"ကလော":12182,"စပိန်</w>":12183,"တည်ဆောက်</w>":12184,"စာများကို</w>":12185,"ရေလက်":12186,"အသု":12187,"သည်ထက်</w>":12188,"ဒေသသို့</w>":12189,"အားလည်း</w>":12190,"ရှင်မဟာ":12191,"ကွန်ရက်":12192,"ခိုင်လုံ":12193,"သင်္ကြန်":12194,"ချမ်းသာ</w>":12195,"ခြံရွာ</w>":12196,"ရှောင်ကြဉ်":12197,"တည်ထားကိုးကွယ်":12198,"ဖေဖော်ဝါရီလတွင်</w>":12199,"ခမောင်း":12200,"ဗလီ":12201,"မတရား":12202,"မတန်":12203,"နှိုး":12204,"၁၉၁၇</w>":12205,"ခံ့":12206,"ပေးရ":12207,"ပေါ်လ":12208,"အလီ":12209,"ဆင်စွယ်":12210,"လိဂ်":12211,"တန်ချိန်</w>":12212,"အက်ဖ်":12213,"ထုတ်လုပ်မှု</w>":12214,"MMR0140":12215,"အခွင့်အလ":12216,"စစ်ပွဲတွင်</w>":12217,"အဓိပ္ပါယ်</w>":12218,"ထုတ်ပြန်ခဲ့သည်</w>":12219,"ဟစ်တ":12220,"ရေကျော်ရွာ</w>":12221,"လိမ္မော်":12222,"Ab":12223,"II</w>":12224,"ခမာ":12225,"မသင့်":12226,"အတော":12227,"ဩဇာ</w>":12228,"ဖြစ်ခဲ့":12229,"ကြီးများတွင်</w>":12230,"လျစ်":12231,"မှုတို့ကို</w>":12232,"ထိုမှ</w>":12233,"လှန်</w>":12234,"တင်စား":12235,"နယ်သည်</w>":12236,"ချောင်းကျေးရွာအုပ်စုတွင်</w>":12237,"ကျွန်းစု</w>":12238,"ရှေးခေတ်</w>":12239,"သမ္ပ":12240,"ရုရှား</w>":12241,"တုံရွာ</w>":12242,"ထိန်းသိမ်း</w>":12243,"ဝတ္ထုတို</w>":12244,"အထက်တန်းကျောင်း":12245,"ပုတ်ရွာ</w>":12246,"လိင်ဆက်ဆံ":12247,"မကျေနပ်":12248,"ကယ်လီဖိုးနီးယား":12249,"118":12250,"der</w>":12251,"ကရိယာ":12252,"ငဖဲ":12253,"ဝိတ်":12254,"ဖြစ်စေရန်</w>":12255,"နှစ်ကြိမ်":12256,"လမ်းမကြီး":12257,"သံအမတ်":12258,"ထက်ပို":12259,"ဘုရင်က</w>":12260,"ဘုရင်ခံ</w>":12261,"ရန်ကုန်မြို့တွင်</w>":12262,"အစားအသောက်":12263,"ဇေတ":12264,"အခေါ်အဝေါ":12265,"အတိအကျ</w>":12266,"ဇန်နဝါရီလတွင်</w>":12267,"စကြာဝဠာ":12268,"Asia</w>":12269,"အပန်းဖြေ":12270,"Pa</w>":12271,"Ywar</w>":12272,"ah</w>":12273,"ee</w>":12274,"ညောင်း":12275,"ဖလ":12276,"မဂ":12277,"တစ်လုံး</w>":12278,"ရေးခဲ့သည်</w>":12279,"ယူသည်</w>":12280,"သုံးဦး":12281,"လမ်းစဉ်</w>":12282,"တရားမဝင်":12283,"ငယ်ရွာ</w>":12284,"ကျော်ရွာ</w>":12285,"ကမ္ဘာတွင်</w>":12286,"ဖောက်ပြန်":12287,"သိက္ခာပုဒ်":12288,"နူးညံ့":12289,"အဘိဓာန်</w>":12290,"တပို့တွဲ":12291,"117":12292,"IV</w>":12293,"ကုပ်":12294,"ကဝိ":12295,"ရီး</w>":12296,"ရှိတ်":12297,"နိုင်မှု</w>":12298,"သွာ":12299,"အောက်စ":12300,"ထို့အတူ</w>":12301,"အက်ဥပဒေ</w>":12302,"၁၉၇ဝ</w>":12303,"သွေးကြော":12304,"ကိစ္စကို</w>":12305,"လိုလို":12306,"ပုဂ္ဂလိက</w>":12307,"ဆိုရပေမည်</w>":12308,"ရှိသည့်အနက်</w>":12309,"ဂန္ထဝင်":12310,"ငါ့သျှင်တို့</w>":12311,"re</w>":12312,"ငရုတ်":12313,"တပြိုင်":12314,"ဗတ်</w>":12315,"ရှယ်</w>":12316,"မြို့တည်":12317,"မိကျောင်း":12318,"၂၀၁၀":12319,"အထီး":12320,"လုံးဆိုင်ရာ</w>":12321,"လည်းရှိသည်</w>":12322,"ဆွာ":12323,"လိုက်လျှင်</w>":12324,"ther":12325,"တွင်းမှ</w>":12326,"130":12327,"ဒုတိယကမ္ဘာစစ်</w>":12328,"သတ္တုရ":12329,"ထုထည်":12330,"ကျင့်ကြံ":12331,"ဘယ်လ်":12332,"ပုံစံကို</w>":12333,"ဒဏ်ကို</w>":12334,"ute</w>":12335,"ပုဂ္ဂိုလ်များ</w>":12336,"မြောင်းမြ":12337,"နယူးဇီ":12338,"ကိရိယာများ</w>":12339,"အသေးစား":12340,"အာနန္ဒာ</w>":12341,"သင်္ဂါယနာ":12342,"ထန်တလန်မြို့နယ်</w>":12343,"tle</w>":12344,"ဝကျေးရွာအုပ်စုတွင်</w>":12345,"အပွင့်</w>":12346,"များကား</w>":12347,"ရှိတတ်သည်</w>":12348,"ပါဏ":12349,"ပြည်ပ</w>":12350,"မှုနှင့်":12351,"လက်ကိုင်":12352,"ခြင်းတို့":12353,"အထက</w>":12354,"နေထိုင်ကြသော</w>":12355,"နာကျင်":12356,"ဒါန်း</w>":12357,"ထို့ပြင်":12358,"012</w>":12359,"ပျော်ဝင်":12360,"သရဏ":12361,"aik</w>":12362,"ဝါရှင်တန်":12363,"Mag":12364,"Mah":12365,"Nar":12366,"ain":12367,"mus":12368,"ال":12369,"ကနောင်":12370,"တစိတ်":12371,"မတည်":12372,"ယိုင်":12373,"ရပြီးနောက်</w>":12374,"ကြသည်":12375,"ဦးဝင်း":12376,"tis":12377,"တစ်နိုင်ငံ</w>":12378,"ဝင်လာ":12379,"စစ်တောင်း":12380,"နည်းသည်</w>":12381,"သံကို</w>":12382,"ပြောသည်</w>":12383,"ကလေးများသည်</w>":12384,"ရေးသားခဲ့သော</w>":12385,"ash</w>":12386,"အေးမြ":12387,"irst</w>":12388,"ဗန်းမော်မြို့နယ်</w>":12389,"ယူနိုက်တက်</w>":12390,"Min</w>":12391,"တကား</w>":12392,"ဟမ်":12393,"အရိ":12394,"မှလွဲ</w>":12395,"တောရိုင်း":12396,"ပြန်ရောက်":12397,"သုံးဆောင်":12398,"စီးနင်း":12399,"နီပေါ":12400,"ပန်းပွင့်":12401,"ချောင်းဦးမြို့နယ်</w>":12402,"ဖြတ်ကျော်":12403,"ခြေရာ":12404,"ရိုက်နှိပ်":12405,"ကြည်း</w>":12406,"မြန်မာနိုင်ငံသား</w>":12407,"ရောဂါဖြင့်</w>":12408,"ကာကွယ်ရန်</w>":12409,"ရည်ရွယ်ချက်</w>":12410,"ကိုယ်စားလှယ်အဖြစ်</w>":12411,"အဓိပ္ပာယ်ရသည်</w>":12412,"တိမ်းရှောင်":12413,"ခမည်းတော်":12414,"ပြောက်ကျား":12415,"ဗြာဟ္":12416,"အချမ်းသာ":12417,"ကု</w>":12418,"ဆား</w>":12419,"အကုသိုလ်":12420,"မှေး":12421,"ေ့စ်":12422,"ဆုံးနှင့်</w>":12423,"ကျောက်မျက်":12424,"၁၇၃":12425,"ချောင်းကြီး</w>":12426,"Thit</w>":12427,"ကံရွာ</w>":12428,"စိုက်ပျိုးကြသည်</w>":12429,"အယူဝါဒ</w>":12430,"တွန်းလှန်":12431,"ရူပဗေဒ</w>":12432,"အမဲလိုက်":12433,"ကလာပ်":12434,"တန်ဆောင်မုန်း":12435,"ကေအင်န်ဒီအို":12436,"ဂန်း":12437,"ဖလံ":12438,"အလွတ်":12439,"ပြဒါး":12440,"နေတတ်သည်</w>":12441,"ဦးအုန်း":12442,"မှုန့်</w>":12443,"ခွရွာ</w>":12444,"ဝင်္":12445,"ရိပု":12446,"၁၈၃":12447,"ပြန်ရာ</w>":12448,"မိုင်းဖျ":12449,"ပေါင်းစုံ":12450,"onic</w>":12451,"ကြာသပ":12452,"အင်းကျေးရွာအုပ်စု</w>":12453,"ဖြင့်ပင်</w>":12454,"ဖြစ်လာလေသည်</w>":12455,"သတ်မှတ်ခြင်း</w>":12456,"ဆုတံဆိပ်":12457,"elop":12458,"ထုတ်လုပ်သော</w>":12459,"နိုင်ငံရေးပါတီ":12460,"အသံထွက်</w>":12461,"701505</w>":12462,"ဒိုးရွာ</w>":12463,"လှူဒါန်းခဲ့သည်</w>":12464,"ဒါယက</w>":12465,"ငြိမ်ဝပ်":12466,"Can":12467,"Hl":12468,"hard":12469,"yu":12470,"ယော်":12471,"သလော</w>":12472,"ာလ်":12473,"သညာ":12474,"စုန်":12475,"ရေကူး":12476,"မိချောင်း":12477,"ကာတွန်း</w>":12478,"နှင့်ပင်</w>":12479,"အခြောက်":12480,"ဒီလို":12481,"မြေနီ":12482,"ကျွန်းတွင်</w>":12483,"ကလေးငယ်":12484,"အချိန်အထိ</w>":12485,"ထုတ်လုပ်မှု":12486,"ကျွန်တော်</w>":12487,"သာမန်</w>":12488,"ဇော်ဂျီ":12489,"ဆိုင်းရွာ</w>":12490,"ပညာသင်ကြားခဲ့သည်</w>":12491,"ပြီးသည့်နောက်</w>":12492,"North</w>":12493,"အယ်လ်ဘမ်":12494,"ကျိုက်ထိုမြို့နယ်</w>":12495,"313":12496,"to":12497,"နယုန်":12498,"မမြ":12499,"ဠာ</w>":12500,"ာက်":12501,"နိုင်ခြင်းမရှိ":12502,"နှစ်ပေါင်းများစွာ</w>":12503,"လက်ဆီ</w>":12504,"ခြင်းဖြစ်</w>":12505,"မင်းတရား</w>":12506,"ကာလီ":12507,"ဆက်တိုက်":12508,"အတား":12509,"အောက်ရွာ</w>":12510,"ထက်တွင်</w>":12511,"လိပ်ပြာ":12512,"မြန်မာနိုင်ငံသည်</w>":12513,"သတ်မှတ်ထားသည့်</w>":12514,"ကာလက</w>":12515,"ချမ်းသာရွာ</w>":12516,"လောင်ကျွမ်း":12517,"နည်းပညာတက္ကသိုလ်</w>":12518,"အလေးချိန်</w>":12519,"ပြင်းထန်စွာ</w>":12520,"ကြံ့ခိုင်":12521,"Kan":12522,"ဂတိ":12523,"သောင်ရွာ</w>":12524,"ရှိသောကြောင့်</w>":12525,"စုန်း":12526,"ပါလ":12527,"ရေမ":12528,"သွားကြ":12529,"တပ်မှူး":12530,"နည်းဥပဒေ":12531,"ကျော်လွန်":12532,"အသုံးပြုခဲ့ကြသည်</w>":12533,"ပဲခူးရိုးမ":12534,"အီဂျစ်</w>":12535,"139":12536,"၁၉၅ဝ</w>":12537,"အင်္ဂလိပ်ဘာသာ":12538,"အမြဲတမ်း</w>":12539,"အစိတ်အပိုင်းများ</w>":12540,"စိုစွတ်":12541,"မော်လိုက်ခရိုင်</w>":12542,"မြို့တစ်မြို့</w>":12543,"Pol":12544,"ual</w>":12545,"စကာ":12546,"ရသူ":12547,"ဧတဒ":12548,"ဖြာ</w>":12549,"ချော</w>":12550,"တစ်ပုံ":12551,"ခုနှင့်</w>":12552,"ရေပြင်":12553,"သိသိသာ":12554,"သွားရန်</w>":12555,"မြင်သာ":12556,"108":12557,"အိမ်တွင်း":12558,"013</w>":12559,"ဇာတ်ညွှန်း":12560,"ရဟတ်":12561,"ဗိုလ်မှူး</w>":12562,"တစ်ဦးသည်</w>":12563,"ခံရသည့်</w>":12564,"ပိပြား":12565,"ငှက်ဖျား":12566,"ဦးစီးချုပ်</w>":12567,"တပ်မတော်မှ</w>":12568,"အရင်းအ":12569,"oog":12570,"အဓိပ္ပါယ်ရသည်</w>":12571,"ကုန်သွယ်ရေး</w>":12572,"ငှားရမ်း":12573,"Mo":12574,"ဓု":12575,"ရဘူတာ</w>":12576,"အော်</w>":12577,"ပါဒ":12578,"တစ်ခုစီ":12579,"ပါဝင်ကြသည်</w>":12580,"011</w>":12581,"လယ်သမား</w>":12582,"အနောက်တိုင်း</w>":12583,"ဘဝမှ</w>":12584,"စနစ်တကျ":12585,"ပြောဆိုခဲ့သည်</w>":12586,"ပံ့</w>":12587,"ထိန်းသိမ်းရေး</w>":12588,"ပထဝီဝင်</w>":12589,"ပဒေသရာဇ်":12590,"မြင်းမူမြို့နယ်</w>":12591,"119":12592,"ဆုတ်</w>":12593,"ပတ":12594,"မသိ</w>":12595,"ရဋ္ဌ":12596,"နှင်</w>":12597,"ချိုး</w>":12598,"သေတ္တာ":12599,"လာကြ</w>":12600,"ရေကြီး":12601,"စစ်သည်</w>":12602,"ပညာသည်</w>":12603,"မန်ကျည်း":12604,"eng</w>":12605,"အိုင်အေ</w>":12606,"ဆန်စပါး":12607,"အသင်းကို</w>":12608,"ဆိမ့်":12609,"အကဲ</w>":12610,"ဟုခေါ်သည့်</w>":12611,"အလိုအရ</w>":12612,"အတူတကွ</w>":12613,"မင်းတုန်းမင်း</w>":12614,"ခေါ်ဝေါ်ကြသည်</w>":12615,"ပိုလန်":12616,"ကော်ပိုရေးရှင်း</w>":12617,"ပန်ဝိုင်မြို့နယ်</w>":12618,"ရက်ထပ်နှစ်ဖြစ်လျှင်</w>":12619,"ds</w>":12620,"uter</w>":12621,"ပလီ":12622,"ဖီ</w>":12623,"ရခြင်းမှာ</w>":12624,"လစာ":12625,"ဖြစ်ပါ":12626,"နိုင်ခဲ့</w>":12627,"ပါရှိ</w>":12628,"နှစ်အတွင်း</w>":12629,"လက်စွပ်":12630,"ခံထား":12631,"တောင်ပေါ်</w>":12632,"ရောမ</w>":12633,"ပွားများ":12634,"ကဲ့ရဲ့":12635,"ရေးသားထားသည်</w>":12636,"137":12637,"ကာလများတွင်</w>":12638,"ဂုဏ်သတ္တိ":12639,"တစ်မျိုးမှာ</w>":12640,"ဂြိုဟ်တု":12641,"ဆွေးနွေးပွဲ":12642,"ဟင်းလျာ":12643,"ခန့်အပ်ခဲ့သည်</w>":12644,"တိရစ္ဆာန်များ</w>":12645,"အဆောက်အအုံများ</w>":12646,"ပထဝီဝင်":12647,"အကယ်ဒမီ</w>":12648,"ဟော့ကိုင်းဒိုး</w>":12649,"ဝေသာလီ":12650,"အတိုင်ပင်":12651,"370":12652,"ခက်</w>":12653,"စို့":12654,"ဇမ်":12655,"ဇယ်":12656,"ဓဇ":12657,"အလည်":12658,"ရှုတ်":12659,"ရှိတယ်</w>":12660,"ယာသည်</w>":12661,"လိုချင်":12662,"ပညာရပ်</w>":12663,"ကိုယ်ကျင့်":12664,"ကိုယ်ဝန်ဆောင်":12665,"ကျောက်တိုင်":12666,"ယင်းတို့မှာ</w>":12667,"ညီအစ်ကို":12668,"ကွန်ယက်</w>":12669,"မှာကား</w>":12670,"ငါးပါး</w>":12671,"အရှင်မြတ်</w>":12672,"ကွယ်လွန်ချိန်တွင်</w>":12673,"အာဖဂ":12674,"အမျိုးအစားဖြစ်သည်</w>":12675,"တာဝန်ယူခဲ့သည်</w>":12676,"ဟောင်ကောင်":12677,"Afr":12678,"Str":12679,"စုကျေးရွာအုပ်စု</w>":12680,"မျိုးပွား":12681,"မျိုးကွဲ":12682,"ထိုမျှ":12683,"ပွေး":12684,"ခွေး</w>":12685,"ခြင်းခံခဲ့ရသည်</w>":12686,"နာရ":12687,"ကုန်းမြင့်":12688,"စက်များ</w>":12689,"ပေါင်းသင်း":12690,"ဒါကြောင့်</w>":12691,"အသုံးပြုပြီး</w>":12692,"နတ်သမီး":12693,"ကိုင်းကျေးရွာအုပ်စု</w>":12694,"ရက်နေ့တွင်":12695,"တီးရွာ</w>":12696,"ယခုအခါ":12697,"MMR00501":12698,"သမ္မတအဖြစ်</w>":12699,"ech":12700,"ကဗျာများ</w>":12701,"နာရီတွင်</w>":12702,"ယိုးဒယား</w>":12703,"heavy</w>":12704,"64":12705,"Cr":12706,"NA</w>":12707,"စရိတ်</w>":12708,"ဗီ</w>":12709,"၅ဝဝ</w>":12710,"ကုဒ်":12711,"သည်လည်းကောင်း</w>":12712,"လှေ</w>":12713,"ပေးလေသည်</w>":12714,"ရက်ကန်း":12715,"အိန်":12716,"ပုံမှန်</w>":12717,"ဘုရားဖူး":12718,"ညီညာ":12719,"019</w>":12720,"ရေးသားထားသော</w>":12721,"ics</w>":12722,"မြင်းက":12723,"ညှဉ်း":12724,"ဘယ်လို":12725,"သီတင်းကျွတ်":12726,"အခမ်းအနား</w>":12727,"အထဲတွင်</w>":12728,"အာရေဗျ":12729,"Su</w>":12730,"Tan</w>":12731,"Taung":12732,"tan":12733,"ule</w>":12734,"ရတယ်</w>":12735,"မျို":12736,"ပါလာ":12737,"ပါသည့်</w>":12738,"၂၀၃":12739,"သူကောင်း":12740,"ထိုနေ့":12741,"အမည်း":12742,"လမ်းကို</w>":12743,"နောက်တစ်":12744,"အဆက်</w>":12745,"ပါဝင်သော":12746,"တန်ခူး":12747,"အီသီ":12748,"မြန်မာနိုင်ငံကို</w>":12749,"ကာလကတ္တ":12750,"တကယ်</w>":12751,"အမိန့်တော်":12752,"သတ္တုတွင်း":12753,"time</w>":12754,"စာမေးပွဲ</w>":12755,"နှာခေါင်း":12756,"ဒီမိုကရက်တစ်</w>":12757,"အိုဆာကာ":12758,"ဋ်</w>":12759,"မရိုး":12760,"ကျို</w>":12761,"ပါတ်</w>":12762,"သားကောင်":12763,"ပေးထားသော</w>":12764,"စေလို":12765,"စက်မှု</w>":12766,"ခန့်ကို</w>":12767,"အချိန်က</w>":12768,"ပျက်ပြား":12769,"အဆင့်အတန်း</w>":12770,"လှုပ်ခတ်":12771,"မယ်တော်</w>":12772,"အသင်းသည်</w>":12773,"ခန္ဓာကိုယ်</w>":12774,"အကူအညီ</w>":12775,"မြုပ်နှံ":12776,"main":12777,"Maw":12778,"per</w>":12779,"ပကတိ":12780,"အရိယာ":12781,"၅၇":12782,"နိုင်ခဲ့လေသည်</w>":12783,"သာရိပု":12784,"ထွာ":12785,"ပုလွေ":12786,"သည့်နေ့":12787,"အလီ</w>":12788,"107":12789,"016</w>":12790,"018</w>":12791,"တ္ထိ":12792,"ဖက်သို့</w>":12793,"တည်ရှိရာ</w>":12794,"သတ်မှတ်ချက်":12795,"ရန်ကုန်သို့</w>":12796,"ဆန်းသစ်":12797,"အရွယ်အစား</w>":12798,"တမန်</w>":12799,"သုတေသီ":12800,"ရွေးချယ်တင်မြှောက်":12801,"ယောက်ျား</w>":12802,"မန":12803,"အအို":12804,"ဖြစ်ပြီး":12805,"နေအိမ်</w>":12806,"tions</w>":12807,"ဆိုသော်လည်း</w>":12808,"အတွဲ":12809,"သားဖြစ်သူ</w>":12810,"ခြင်းများ":12811,"150</w>":12812,"တပ်ကို</w>":12813,"ကျောင်းစု</w>":12814,"ပန်းခြံ":12815,"ဖျော့":12816,"ခန့်ရှိ</w>":12817,"ကူးတို့":12818,"အီကွေ":12819,"ထိုးစစ်":12820,"စာပေဆု</w>":12821,"တနင်္":12822,"lev":12823,"ဘဲဥ":12824,"ကြီးမားသည့်</w>":12825,"အဋ္ဌကထာ</w>":12826,"အေဂျင်စီ":12827,"West</w>":12828,"system</w>":12829,"ပြပွဲ":12830,"မြူ</w>":12831,"ကွန်</w>":12832,"နှစ်ထပ်":12833,"မိသည်</w>":12834,"သားသည်</w>":12835,"နှင့်ဆိုင်သော</w>":12836,"လိုက်ရာ</w>":12837,"မြောက်လတ္တီ":12838,"015</w>":12839,"010</w>":12840,"ပျက်ကွက်":12841,"သတ်မှတ်ကြသည်</w>":12842,"ယခုတိုင်</w>":12843,"ရှေ့တွင်</w>":12844,"တေးရေး":12845,"ခန္ဓာ</w>":12846,"ဆည်းကပ်":12847,"သဒ္ဒ":12848,"ship</w>":12849,"မင်းတရားကြီး":12850,"အကြောင်းအရာများကို</w>":12851,"နှင့်ပတ်သက်ပြီး</w>":12852,"ကုန်ကျစရိတ်":12853,"လိုဏ်ဂူ":12854,"ဒိဋ္ဌိ":12855,"San</w>":12856,"na</w>":12857,"ပရိယာ":12858,"ရတ်</w>":12859,"အူး":12860,"အဘိုး":12861,"၇ဝ</w>":12862,"ရွေ":12863,"ကြခြင်း</w>":12864,"ဖြစ်ပါက</w>":12865,"ရှိခဲ့ပြီး</w>":12866,"ခွါ":12867,"ဒေသတွင်း</w>":12868,"ဝန်အဖြစ်</w>":12869,"ချုပ်အဖြစ်</w>":12870,"017</w>":12871,"မီးယား":12872,"ဆီကို</w>":12873,"ပဲခူး</w>":12874,"ထဲသို့":12875,"သခင်ဗ":12876,"ဖာရင်":12877,"ရုပ်ရှင်သရုပ်ဆောင်</w>":12878,"ular</w>":12879,"ake</w>":12880,"ကမ်းရိုးတန်း</w>":12881,"အိုက်ချ":12882,"ရှည်လျားသော</w>":12883,"ပျမ်းမျှ</w>":12884,"မတော်တ":12885,"ကထိက</w>":12886,"Sk":12887,"dr":12888,"ital</w>":12889,"။”</w>":12890,"မျာ":12891,"ကြကာ</w>":12892,"ရှိခဲ့":12893,"ဦးစွာ</w>":12894,"နှစ်ယောက်</w>":12895,"ဆိုဒ်</w>":12896,"သားဖြစ်သည်</w>":12897,"အင်ဒ":12898,"တန်းကို</w>":12899,"ခန့်သည်</w>":12900,"014</w>":12901,"ဓာတ်အား":12902,"ငါးဖမ်း":12903,"လန်ဒန်</w>":12904,"ဖော်ပြပါ":12905,"ချွေး":12906,"ဟင်နရီ":12907,"အတ္ထုပ္ပတ္တိ</w>":12908,"ပသ":12909,"ဖြစ်နေသော</w>":12910,"ဦးနု</w>":12911,"တစ်ဖက်</w>":12912,"ခြင်းတွင်</w>":12913,"ဆောင်ဖ":12914,"ပေးခဲ့ပြီး</w>":12915,"ရန်လည်း</w>":12916,"1900":12917,"သံပုရာ":12918,"တရားမျှတ":12919,"လွန်စွာ</w>":12920,"ala</w>":12921,"သဘောတူ</w>":12922,"သမိုင်းဝင်":12923,"ich":12924,"အမျိုးသားရေး":12925,"စေတီပုထိုး":12926,"၁၈၈၆</w>":12927,"ဟင်းသီး":12928,"အမှန်တကယ်":12929,"ဩစတေး":12930,"မီဒီယာ</w>":12931,"လန်ဒန်မြို့</w>":12932,"စာကြည့်တိုက်</w>":12933,"အတ္ထုပ္ပတ္တိ":12934,"တဏှာ":12935,"Pu</w>":12936,"site</w>":12937,"ရား</w>":12938,"သလဲ":12939,"ဟိ</w>":12940,"ကြပ်</w>":12941,"တွန်</w>":12942,"ရှိသေး":12943,"ကိုသာ":12944,"နှစ်မှ</w>":12945,"သူတို့က</w>":12946,"၁၉၁၂</w>":12947,"ဆက်သွယ်</w>":12948,"ချုပ်ကိုင်":12949,"ans</w>":12950,"တက်လာ":12951,"တရားဥပဒေ":12952,"သင်ရိုး":12953,"ပြုလုပ်သည်</w>":12954,"ဖြစ်လာပြီး</w>":12955,"လျက်ရှိပြီး</w>":12956,"အချက်မှာ</w>":12957,"လိုအပ်သည့်</w>":12958,"အရောင်မှာ</w>":12959,"ement</w>":12960,"ကိုယ်စားလှယ်များ</w>":12961,"မတိုင်မီက</w>":12962,"မြောင်မြို့နယ်</w>":12963,"မဒည":12964,"ခဲယဉ်း":12965,"ဇတ်":12966,"ထရန်":12967,"ရသော်လည်း</w>":12968,"လိ</w>":12969,"သတို့":12970,"ကျိ":12971,"မှထွက်":12972,"နေပါသည်</w>":12973,"နေပူ":12974,"တို့တွင်":12975,"ရေသည်</w>":12976,"စစ်သား</w>":12977,"သမု":12978,"ကုန်ပစ္စည်း":12979,"ခေတ္တရာ":12980,"လီနင်":12981,"တတ်သော":12982,"ဓာတ်ပြား":12983,"မေတ္တာ</w>":12984,"ဖွဲ့စည်းထားသော</w>":12985,"သီချင်းများကို</w>":12986,"ပလတ်":12987,"အလိုအားဖြင့်</w>":12988,"ပတ်သက်ပြီး</w>":12989,"ထွန်းကားခဲ့သည်</w>":12990,"ဒုံးပျံ":12991,"ဟုန်းရွာ</w>":12992,"ကော်ပိုရေးရှင်း":12993,"ဒေါ်အောင်ဆန်းစုကြည်":12994,"Bot</w>":12995,"ean</w>":12996,"ture</w>":12997,"ဇလုပ်":12998,"ဓူ":12999,"ပန":13000,"ရပေမည်</w>":13001,"ပြဆို":13002,"ကြပေသည်</w>":13003,"ချမ်း</w>":13004,"နေပြီ</w>":13005,"ထိုရဟန်း":13006,"ရွှေရောင်":13007,"တူရိယာ</w>":13008,"ဆေးပညာ</w>":13009,"စံပယ်":13010,"ပြုလုပ်ရာတွင်</w>":13011,"ise</w>":13012,"280":13013,"290":13014,"တိုက်ခိုက်ရန်</w>":13015,"electr":13016,"တူညီသော</w>":13017,"ကြိုက်</w>":13018,"အဆက်ဆက်":13019,"ဇာတ်ကားတွင်</w>":13020,"မျှော်စင်":13021,"သပိတ်ကျင်း":13022,"ဒတ်ချ်":13023,"ဆိုသူမှ</w>":13024,"Europ":13025,"မဇ္ဈိမ":13026,"co":13027,"ဗက်</w>":13028,"ံဖြိုး":13029,"နေသည်ဟု</w>":13030,"တစ်နာရီ":13031,"ပုလင်း":13032,"ဆုံးဖြစ်သည်</w>":13033,"ကျော်သည်</w>":13034,"ရရှိနိုင်သည်</w>":13035,"ဝိတို":13036,"also</w>":13037,"ဒေါ်မြ":13038,"အလယ်ရွာ</w>":13039,"အနာဂ":13040,"တြာ":13041,"သဘောတူညီချက်":13042,"အသေးစိတ်</w>":13043,"ကုန်းဘောင်ခေတ်</w>":13044,"စကော့တလန်":13045,"ဂျေား":13046,"ငြိမ်ဝပ်ပိပြား":13047,"အိုက်ချန်မြို့နယ်</w>":13048,"Hk":13049,"ten":13050,"ဂွန်":13051,"တဝိုက်":13052,"နယ":13053,"ပလေး":13054,"ဦးက</w>":13055,"နိုင်တော့":13056,"တစ်သက်":13057,"လုပ်သည်</w>":13058,"ပညာရှိ</w>":13059,"ကြားဖြတ်":13060,"ကျော်စော":13061,"တံခါး</w>":13062,"၂၀၀၀":13063,"အရေးအခင်း":13064,"ရုံမက</w>":13065,"ကင်းဝန်":13066,"ခန်းမ</w>":13067,"ican</w>":13068,"သဲဖြူ</w>":13069,"ကွဲပြားသော</w>":13070,"အတိုင်းပင်</w>":13071,"ကြယ်စုတန်း</w>":13072,"တစိတ်တ":13073,"229":13074,"Ho":13075,"ak</w>":13076,"မဆ":13077,"ရပြန်သည်</w>":13078,"အဲ့":13079,"သွားသဖြင့်</w>":13080,"တွင်ရှိသည်</w>":13081,"ဆရာမ":13082,"ပေါက်ကုန်းရွာ</w>":13083,"အနေဖြင့်":13084,"မုဒုံ":13085,"လေ့လာခဲ့သည်</w>":13086,"အကြီးအကဲ</w>":13087,"MMR01701":13088,"ဖြစ်ပေါ်စေ":13089,"ဝင်ရောက်လာ":13090,"ဘေးမဲ့":13091,"တဲ့အတွက်</w>":13092,"အပိုင်းအခြား":13093,"ကုလားရွာ</w>":13094,"သံဃာတော်":13095,"ဝေါဟာရကို</w>":13096,"အကျယ်အဝန်း</w>":13097,"ဗျာဒိတ်":13098,"အရောက်တွင်</w>":13099,"ဟော့ကိုင်းဒိုးခရိုင်</w>":13100,"ဆောင်ဖမြို့နယ်</w>":13101,"ဆန်းမြို့နယ်</w>":13102,"ဟမ်း":13103,"ဖြစ်ကြသော</w>":13104,"လာစေရန်</w>":13105,"ရှင်များ</w>":13106,"ရွှေပန်း":13107,"တရားအားထုတ်":13108,"tain":13109,"ခြေလျင်":13110,"မန္တလေးမြို့":13111,"မိုင်ခန့်</w>":13112,"အကျိုးကို</w>":13113,"၂၅၀</w>":13114,"ဒီဇင်ဘာလ":13115,"တိုက်ပွဲဝင်":13116,"ကျယ်ပြန့်စွာ</w>":13117,"ဂုဏ်ထူးဆောင်":13118,"အာပတ်တစ်ခု</w>":13119,"ငဖဲမြို့နယ်</w>":13120,"ဇူး</w>":13121,"ဇယား</w>":13122,"နမိ":13123,"ရှိသည်ကို</w>":13124,"အုပ်ရှစ်":13125,"ရေးအဖွဲ့":13126,"တောင်ကိုရီးယား</w>":13127,"ပေးရမည်</w>":13128,"ခေါင်ရွာ</w>":13129,"ကျောင်းများတွင်</w>":13130,"ဘောလုံး</w>":13131,"မော်ဒယ်":13132,"und</w>":13133,"မွန်ရွာ</w>":13134,"အဲလ်":13135,"ပုံစံဖြင့်</w>":13136,"သိပ္ပံနှင့်</w>":13137,"စက်မှုလုပ်ငန်း":13138,"ဒြပ်ပေါင်း":13139,"ကွပ်မျက်":13140,"ဒိုင်အောက်":13141,"မြက်ခင်း":13142,"တန်ဆာဆင်":13143,"450":13144,"ဇက်</w>":13145,"ဇော်</w>":13146,"ထုပ်</w>":13147,"ပဌ":13148,"ဗို့":13149,"သဖွယ်":13150,"အပါး":13151,"နှီး</w>":13152,"မှိုင်း</w>":13153,"မှစတင်</w>":13154,"ဖြစ်ရန်</w>":13155,"ခဲ့လေ</w>":13156,"ကြီးအဖြစ်</w>":13157,"ထားရန်</w>":13158,"ဒေသဆိုင်ရာ":13159,"အိဇု":13160,"အာရုံ</w>":13161,"သည့်အလျောက်</w>":13162,"ara</w>":13163,"ခင်ခင်":13164,
[...]
